{
    "version": "1.0",
    "truncation": null,
    "padding": null,
    "added_tokens": [
        {
            "id": 0,
            "content": "[UNK]",
            "single_word": false,
            "lstrip": false,
            "rstrip": false,
            "normalized": false,
            "special": true
        },
        {
            "id": 1,
            "content": "[CLS]",
            "single_word": false,
            "lstrip": false,
            "rstrip": false,
            "normalized": false,
            "special": true
        },
        {
            "id": 2,
            "content": "[SEP]",
            "single_word": false,
            "lstrip": false,
            "rstrip": false,
            "normalized": false,
            "special": true
        },
        {
            "id": 3,
            "content": "[PAD]",
            "single_word": false,
            "lstrip": false,
            "rstrip": false,
            "normalized": false,
            "special": true
        },
        {
            "id": 4,
            "content": "[MASK]",
            "single_word": false,
            "lstrip": false,
            "rstrip": false,
            "normalized": false,
            "special": true
        }
    ],
    "normalizer": null,
    "pre_tokenizer": {
        "type": "Whitespace"
    },
    "post_processor": null,
    "decoder": null,
    "model": {
        "type": "BPE",
        "dropout": null,
        "unk_token": "[UNK]",
        "continuing_subword_prefix": null,
        "end_of_word_suffix": null,
        "fuse_unk": false,
        "vocab": {
            "[UNK]": 0,
            "[CLS]": 1,
            "[SEP]": 2,
            "[PAD]": 3,
            "[MASK]": 4,
            "-": 5,
            "a": 6,
            "b": 7,
            "c": 8,
            "d": 9,
            "e": 10,
            "f": 11,
            "g": 12,
            "h": 13,
            "i": 14,
            "j": 15,
            "k": 16,
            "l": 17,
            "m": 18,
            "n": 19,
            "o": 20,
            "p": 21,
            "r": 22,
            "s": 23,
            "t": 24,
            "u": 25,
            "v": 26,
            "x": 27,
            "y": 28,
            "z": 29,
            "an": 30,
            "or": 31,
            "la": 32,
            "er": 33,
            "zs": 34,
            "sz": 35,
            "ar": 36,
            "ta": 37,
            "na": 38,
            "ol": 39,
            "ti": 40,
            "ik": 41,
            "et": 42,
            "ab": 43,
            "ri": 44,
            "and": 45,
            "en": 46,
            "ka": 47,
            "li": 48,
            "mar": 49,
            "olt": 50,
            "os": 51,
            "ia": 52,
            "as": 53,
            "at": 54,
            "cs": 55,
            "gy": 56,
            "el": 57,
            "lo": 58,
            "re": 59,
            "gab": 60,
            "ne": 61,
            "il": 62,
            "da": 63,
            "lasz": 64,
            "pet": 65,
            "vi": 66,
            "is": 67,
            "di": 68,
            "on": 69,
            "zolt": 70,
            "ika": 71,
            "lin": 72,
            "kri": 73,
            "van": 74,
            "va": 75,
            "zse": 76,
            "mas": 77,
            "tvan": 78,
            "ber": 79,
            "ba": 80,
            "ra": 81,
            "enc": 82,
            "iko": 83,
            "atti": 84,
            "ani": 85,
            "ju": 86,
            "dit": 87,
            "jo": 88,
            "uzs": 89,
            "al": 90,
            "jan": 91,
            "ag": 92,
            "me": 93,
            "zsef": 94,
            "zsuzs": 95,
            "mi": 96,
            "ett": 97,
            "eva": 98,
            "bor": 99,
            "fer": 100,
            "nor": 101,
            "dor": 102,
            "be": 103,
            "bar": 104,
            "csab": 105,
            "ras": 106,
            "vik": 107,
            "ro": 108,
            "tor": 109,
            "ger": 110,
            "ter": 111,
            "szab": 112,
            "esz": 113,
            "onika": 114,
            "gerg": 115,
            "ad": 116,
            "oly": 117,
            "gi": 118,
            "ada": 119,
            "diko": 120,
            "zso": 121,
            "to": 122,
            "nes": 123,
            "nik": 124,
            "via": 125,
            "bet": 126,
            "gyor": 127,
            "szil": 128,
            "ki": 129,
            "mat": 130,
            "im": 131,
            "de": 132,
            "ga": 133,
            "ex": 134,
            "benc": 135,
            "ko": 136,
            "time": 137,
            "ann": 138,
            "zsof": 139,
            "erzse": 140,
            "ge": 141,
            "ak": 142,
            "kar": 143,
            "olya": 144,
            "bo": 145,
            "ina": 146,
            "ha": 147,
            "ver": 148,
            "ely": 149,
            "andra": 150,
            "illa": 151,
            "git": 152,
            "lau": 153,
            "lia": 154,
            "rol": 155,
            "gyu": 156,
            "ev": 157,
            "mik": 158,
            "un": 159,
            "bi": 160,
            "jos": 161,
            "los": 162,
            "etta": 163,
            "ric": 164,
            "ci": 165,
            "olcs": 166,
            "ton": 167,
            "ors": 168,
            "no": 169,
            "tun": 170,
            "lint": 171,
            "har": 172,
            "edi": 173,
            "ilo": 174,
            "ma": 175,
            "vacs": 176,
            "bea": 177,
            "es": 178,
            "lar": 179,
            "te": 180,
            "th": 181,
            "hal": 182,
            "hor": 183,
            "do": 184,
            "ath": 185,
            "bri": 186,
            "horv": 187,
            "za": 188,
            "emi": 189,
            "dett": 190,
            "ir": 191,
            "berna": 192,
            "haj": 193,
            "gyi": 194,
            "kis": 195,
            "kit": 196,
            "lla": 197,
            "kin": 198,
            "lev": 199,
            "ente": 200,
            "dia": 201,
            "pat": 202,
            "ben": 203,
            "pal": 204,
            "ana": 205,
            "szi": 206,
            "gyon": 207,
            "mes": 208,
            "oli": 209,
            "hen": 210,
            "tal": 211,
            "kla": 212,
            "zi": 213,
            "bog": 214,
            "mag": 215,
            "lor": 216,
            "ot": 217,
            "min": 218,
            "sto": 219,
            "csi": 220,
            "bolya": 221,
            "mo": 222,
            "nal": 223,
            "ja": 224,
            "var": 225,
            "dol": 226,
            "emes": 227,
            "arp": 228,
            "laudia": 229,
            "ca": 230,
            "ty": 231,
            "rik": 232,
            "sar": 233,
            "vira": 234,
            "ke": 235,
            "nar": 236,
            "lu": 237,
            "fr": 238,
            "larka": 239,
            "magdol": 240,
            "mil": 241,
            "pa": 242,
            "ell": 243,
            "met": 244,
            "eve": 245,
            "any": 246,
            "kor": 247,
            "agi": 248,
            "mol": 249,
            "rix": 250,
            "atrix": 251,
            "dorot": 252,
            "tya": 253,
            "vin": 254,
            "fruzs": 255,
            "yas": 256,
            "lard": 257,
            "cell": 258,
            "zsi": 259,
            "pir": 260,
            "kas": 261,
            "cz": 262,
            "val": 263,
            "bas": 264,
            "ek": 265,
            "end": 266,
            "gh": 267,
            "ane": 268,
            "us": 269,
            "jen": 270,
            "nel": 271,
            "kal": 272,
            "balo": 273,
            "far": 274,
            "ola": 275,
            "minik": 276,
            "kacs": 277,
            "evi": 278,
            "ce": 279,
            "sza": 280,
            "gre": 281,
            "mon": 282,
            "ali": 283,
            "ele": 284,
            "imon": 285,
            "zsom": 286,
            "man": 287,
            "ede": 288,
            "pap": 289,
            "in": 290,
            "cin": 291,
            "mer": 292,
            "szar": 293,
            "lma": 294,
            "den": 295,
            "eria": 296,
            "ren": 297,
            "ni": 298,
            "tia": 299,
            "gu": 300,
            "ago": 301,
            "mos": 302,
            "hel": 303,
            "boton": 304,
            "zsa": 305,
            "ricia": 306,
            "ez": 307,
            "enge": 308,
            "geor": 309,
            "so": 310,
            "benede": 311,
            "vett": 312,
            "domin": 313,
            "zab": 314,
            "pe": 315,
            "ramo": 316,
            "he": 317,
            "tos": 318,
            "bl": 319,
            "giz": 320,
            "vil": 321,
            "am": 322,
            "zo": 323,
            "izab": 324,
            "kos": 325,
            "lane": 326,
            "ru": 327,
            "old": 328,
            "cson": 329,
            "ker": 330,
            "her": 331,
            "fe": 332,
            "gor": 333,
            "laka": 334,
            "emo": 335,
            "fa": 336,
            "fek": 337,
            "vas": 338,
            "ete": 339,
            "meszar": 340,
            "men": 341,
            "le": 342,
            "szta": 343,
            "dar": 344,
            "gel": 345,
            "ze": 346,
            "go": 347,
            "ian": 348,
            "csa": 349,
            "hu": 350,
            "szu": 351,
            "tka": 352,
            "nold": 353,
            "lagyi": 354,
            "enti": 355,
            "valenti": 356,
            "desz": 357,
            "vanes": 358,
            "cedesz": 359,
            "bertal": 360,
            "med": 361,
            "ike": 362,
            "gyar": 363,
            "pis": 364,
            "em": 365,
            "szo": 366,
            "ris": 367,
            "len": 368,
            "sa": 369,
            "zal": 370,
            "kon": 371,
            "zmin": 372,
            "csis": 373,
            "cis": 374,
            "dzs": 375,
            "dus": 376,
            "ancis": 377,
            "eni": 378,
            "gedus": 379,
            "szon": 380,
            "ly": 381,
            "szek": 382,
            "ozo": 383,
            "par": 384,
            "ant": 385,
            "nat": 386,
            "gal": 387,
            "ul": 388,
            "ok": 389,
            "oldi": 390,
            "szala": 391,
            "zsol": 392,
            "etel": 393,
            "gar": 394,
            "mad": 395,
            "cze": 396,
            "yi": 397,
            "iri": 398,
            "pin": 399,
            "ica": 400,
            "mir": 401,
            "sze": 402,
            "nka": 403,
            "guz": 404,
            "si": 405,
            "du": 406,
            "se": 407,
            "mis": 408,
            "koz": 409,
            "jak": 410,
            "domon": 411,
            "kol": 412,
            "ur": 413,
            "szimon": 414,
            "cilia": 415,
            "bel": 416,
            "dan": 417,
            "eres": 418,
            "fo": 419,
            "les": 420,
            "jol": 421,
            "may": 422,
            "ai": 423,
            "jul": 424,
            "bos": 425,
            "osz": 426,
            "ban": 427,
            "pos": 428,
            "nato": 429,
            "szti": 430,
            "fu": 431,
            "hn": 432,
            "lop": 433,
            "raj": 434,
            "gas": 435,
            "dos": 436,
            "oston": 437,
            "adi": 438,
            "fi": 439,
            "omas": 440,
            "rid": 441,
            "osi": 442,
            "somo": 443,
            "bu": 444,
            "fab": 445,
            "lac": 446,
            "guszta": 447,
            "ora": 448,
            "onora": 449,
            "sty": 450,
            "besty": 451,
            "sebesty": 452,
            "co": 453,
            "ida": 454,
            "lyas": 455,
            "oros": 456,
            "oletta": 457,
            "bett": 458,
            "tiva": 459,
            "lorin": 460,
            "imi": 461,
            "ah": 462,
            "fan": 463,
            "fann": 464,
            "ste": 465,
            "zsar": 466,
            "kincs": 467,
            "faze": 468,
            "abi": 469,
            "zoe": 470,
            "anyai": 471,
            "eta": 472,
            "gell": 473,
            "ert": 474,
            "ulcs": 475,
            "cha": 476,
            "vig": 477,
            "dai": 478,
            "od": 479,
            "ler": 480,
            "gyel": 481,
            "vaj": 482,
            "ati": 483,
            "br": 484,
            "grid": 485,
            "ila": 486,
            "ambr": 487,
            "mun": 488,
            "rajmun": 489,
            "kes": 490,
            "ekes": 491,
            "das": 492,
            "hil": 493,
            "tom": 494,
            "domo": 495,
            "ny": 496,
            "ili": 497,
            "mmad": 498,
            "zar": 499,
            "tesz": 500,
            "gyes": 501,
            "meze": 502,
            "ku": 503,
            "taki": 504,
            "tta": 505,
            "anad": 506,
            "jam": 507,
            "cia": 508,
            "dnar": 509,
            "ic": 510,
            "kulcs": 511,
            "sztor": 512,
            "til": 513,
            "kecs": 514,
            "vet": 515,
            "zia": 516,
            "anaszta": 517,
            "mul": 518,
            "nas": 519,
            "tilia": 520,
            "rad": 521,
            "demet": 522,
            "mbos": 523,
            "dvig": 524,
            "vak": 525,
            "maj": 526,
            "det": 527,
            "oka": 528,
            "pp": 529,
            "tur": 530,
            "xen": 531,
            "zsak": 532,
            "kopp": 533,
            "cse": 534,
            "rai": 535,
            "czeg": 536,
            "lad": 537,
            "acs": 538,
            "dely": 539,
            "fri": 540,
            "erdely": 541,
            "zsika": 542,
            "bely": 543,
            "egh": 544,
            "sam": 545,
            "tiha": 546,
            "tes": 547,
            "esztes": 548,
            "eli": 549,
            "zsu": 550,
            "zabet": 551,
            "ch": 552,
            "dt": 553,
            "sch": 554,
            "midt": 555,
            "vari": 556,
            "ecz": 557,
            "ine": 558,
            "lan": 559,
            "kun": 560,
            "pol": 561,
            "ala": 562,
            "pi": 563,
            "sen": 564,
            "han": 565,
            "ador": 566,
            "era": 567,
            "erde": 568,
            "margar": 569,
            "rucz": 570,
            "csor": 571,
            "gna": 572,
            "igna": 573,
            "tti": 574,
            "zane": 575,
            "gedi": 576,
            "vasi": 577,
            "tha": 578,
            "tru": 579,
            "gertru": 580,
            "jacin": 581,
            "icu": 582,
            "jza": 583,
            "szol": 584,
            "losi": 585,
            "tai": 586,
            "asz": 587,
            "tan": 588,
            "arasz": 589,
            "titan": 590,
            "don": 591,
            "sany": 592,
            "zen": 593,
            "dasz": 594,
            "bakon": 595,
            "szidon": 596,
            "mirtil": 597,
            "bab": 598,
            "ron": 599,
            "ves": 600,
            "vend": 601,
            "szat": 602,
            "encs": 603,
            "petron": 604,
            "kozi": 605,
            "encser": 606,
            "ken": 607,
            "zol": 608,
            "laki": 609,
            "ard": 610,
            "vics": 611,
            "karpa": 612,
            "ei": 613,
            "pus": 614,
            "vesz": 615,
            "lambos": 616,
            "abas": 617,
            "jes": 618,
            "ntia": 619,
            "solt": 620,
            "dics": 621,
            "fia": 622,
            "lend": 623,
            "omi": 624,
            "maromi": 625,
            "vai": 626,
            "szabad": 627,
            "bok": 628,
            "bihar": 629,
            "horny": 630,
            "ceg": 631,
            "ibi": 632,
            "zor": 633,
            "zmad": 634,
            "kalla": 635,
            "csizmad": 636,
            "bus": 637,
            "for": 638,
            "kana": 639,
            "ksa": 640,
            "leva": 641,
            "ros": 642,
            "las": 643,
            "tas": 644,
            "enyi": 645,
            "gacs": 646,
            "matil": 647,
            "sal": 648,
            "lai": 649,
            "tyu": 650,
            "ket": 651,
            "nim": 652,
            "ssza": 653,
            "zika": 654,
            "rin": 655,
            "juszti": 656,
            "rod": 657,
            "bika": 658,
            "zda": 659,
            "ari": 660,
            "gazda": 661,
            "hart": 662,
            "pai": 663,
            "bulcs": 664,
            "frid": 665,
            "hol": 666,
            "jvari": 667,
            "baszti": 668,
            "kosze": 669,
            "anyos": 670,
            "szebaszti": 671,
            "aszti": 672,
            "bra": 673,
            "cza": 674,
            "cus": 675,
            "nin": 676,
            "nyi": 677,
            "pu": 678,
            "trai": 679,
            "lacz": 680,
            "masi": 681,
            "korin": 682,
            "sztai": 683,
            "kan": 684,
            "po": 685,
            "tol": 686,
            "tany": 687,
            "ordo": 688,
            "zsold": 689,
            "szel": 690,
            "nai": 691,
            "esi": 692,
            "mpar": 693,
            "ompar": 694,
            "ps": 695,
            "sur": 696,
            "tus": 697,
            "ugar": 698,
            "lamon": 699,
            "naps": 700,
            "gitai": 701,
            "karsa": 702,
            "bike": 703,
            "dves": 704,
            "ed": 705,
            "egy": 706,
            "fol": 707,
            "pta": 708,
            "pes": 709,
            "ya": 710,
            "yus": 711,
            "zes": 712,
            "erge": 713,
            "lipta": 714,
            "lotai": 715,
            "gyorosi": 716,
            "nyerge": 717,
            "eb": 718,
            "gane": 719,
            "hos": 720,
            "jka": 721,
            "mu": 722,
            "vos": 723,
            "zmu": 724,
            "ango": 725,
            "eri": 726,
            "szto": 727,
            "gyeri": 728,
            "rezmu": 729,
            "bekes": 730,
            "cisz": 731,
            "harango": 732,
            "hegyes": 733,
            "aszta": 734,
            "eg": 735,
            "ocz": 736,
            "uka": 737
        },
        "merges": [
            "a n",
            "o r",
            "l a",
            "e r",
            "z s",
            "s z",
            "a r",
            "t a",
            "n a",
            "o l",
            "t i",
            "i k",
            "e t",
            "a b",
            "r i",
            "an d",
            "e n",
            "k a",
            "l i",
            "m ar",
            "ol t",
            "o s",
            "i a",
            "a s",
            "a t",
            "c s",
            "g y",
            "e l",
            "l o",
            "r e",
            "g ab",
            "n e",
            "i l",
            "d a",
            "la sz",
            "p et",
            "v i",
            "i s",
            "d i",
            "o n",
            "z olt",
            "ik a",
            "li n",
            "k ri",
            "v an",
            "v a",
            "zs e",
            "m as",
            "t van",
            "b er",
            "b a",
            "r a",
            "en c",
            "ik o",
            "at ti",
            "an i",
            "j u",
            "di t",
            "j o",
            "u zs",
            "a l",
            "j an",
            "a g",
            "m e",
            "zse f",
            "zs uzs",
            "m i",
            "et t",
            "e va",
            "b or",
            "f er",
            "n or",
            "d or",
            "b e",
            "b ar",
            "cs ab",
            "r as",
            "v ik",
            "r o",
            "t or",
            "g er",
            "t er",
            "sz ab",
            "e sz",
            "on ika",
            "ger g",
            "a d",
            "ol y",
            "g i",
            "a da",
            "d iko",
            "zs o",
            "t o",
            "ne s",
            "n ik",
            "v ia",
            "b et",
            "gy or",
            "sz il",
            "k i",
            "m at",
            "i m",
            "d e",
            "g a",
            "e x",
            "b enc",
            "k o",
            "ti me",
            "an n",
            "zso f",
            "er zse",
            "g e",
            "a k",
            "k ar",
            "oly a",
            "b o",
            "i na",
            "h a",
            "v er",
            "el y",
            "and ra",
            "il la",
            "gi t",
            "la u",
            "li a",
            "r ol",
            "gy u",
            "e v",
            "m ik",
            "u n",
            "b i",
            "j os",
            "l os",
            "et ta",
            "ri c",
            "c i",
            "ol cs",
            "t on",
            "or s",
            "n o",
            "t un",
            "lin t",
            "h ar",
            "e di",
            "i lo",
            "m a",
            "va cs",
            "be a",
            "e s",
            "la r",
            "t e",
            "t h",
            "h al",
            "h or",
            "d o",
            "at h",
            "b ri",
            "hor v",
            "z a",
            "e mi",
            "d ett",
            "i r",
            "ber na",
            "ha j",
            "gy i",
            "k is",
            "ki t",
            "l la",
            "ki n",
            "l ev",
            "en te",
            "d ia",
            "p at",
            "b en",
            "p al",
            "an a",
            "sz i",
            "gy on",
            "me s",
            "ol i",
            "h en",
            "ta l",
            "k la",
            "z i",
            "bo g",
            "m ag",
            "l or",
            "o t",
            "mi n",
            "s to",
            "cs i",
            "b olya",
            "m o",
            "na l",
            "j a",
            "v ar",
            "d ol",
            "e mes",
            "ar p",
            "lau dia",
            "c a",
            "t y",
            "r ik",
            "s ar",
            "vi ra",
            "k e",
            "n ar",
            "l u",
            "f r",
            "lar ka",
            "mag dol",
            "m il",
            "p a",
            "el l",
            "m et",
            "ev e",
            "an y",
            "k or",
            "ag i",
            "m ol",
            "ri x",
            "at rix",
            "dor ot",
            "ty a",
            "vi n",
            "fr uzs",
            "y as",
            "lar d",
            "c ell",
            "zs i",
            "p ir",
            "ka s",
            "c z",
            "va l",
            "b as",
            "e k",
            "en d",
            "g h",
            "an e",
            "u s",
            "j en",
            "n el",
            "ka l",
            "ba lo",
            "f ar",
            "o la",
            "mi nik",
            "ka cs",
            "e vi",
            "c e",
            "sz a",
            "g re",
            "m on",
            "a li",
            "el e",
            "im on",
            "zso m",
            "m an",
            "e de",
            "pa p",
            "i n",
            "ci n",
            "m er",
            "sz ar",
            "l ma",
            "d en",
            "er ia",
            "r en",
            "n i",
            "ti a",
            "g u",
            "ag o",
            "m os",
            "h el",
            "bo ton",
            "zs a",
            "ric ia",
            "e z",
            "en ge",
            "ge or",
            "s o",
            "ben ede",
            "v ett",
            "do min",
            "z ab",
            "p e",
            "ra mo",
            "h e",
            "t os",
            "b l",
            "gi z",
            "v il",
            "a m",
            "z o",
            "i zab",
            "k os",
            "l ane",
            "r u",
            "ol d",
            "cs on",
            "k er",
            "h er",
            "f e",
            "g or",
            "la ka",
            "e mo",
            "f a",
            "f ek",
            "v as",
            "et e",
            "me szar",
            "m en",
            "l e",
            "sz ta",
            "d ar",
            "g el",
            "z e",
            "g o",
            "i an",
            "cs a",
            "h u",
            "sz u",
            "t ka",
            "n old",
            "la gyi",
            "en ti",
            "val enti",
            "d esz",
            "van es",
            "ce desz",
            "ber tal",
            "me d",
            "ik e",
            "gy ar",
            "p is",
            "e m",
            "sz o",
            "ri s",
            "l en",
            "s a",
            "z al",
            "k on",
            "z min",
            "cs is",
            "c is",
            "d zs",
            "d us",
            "an cis",
            "en i",
            "ge dus",
            "sz on",
            "l y",
            "sz ek",
            "o zo",
            "p ar",
            "an t",
            "na t",
            "g al",
            "u l",
            "o k",
            "ol di",
            "sza la",
            "zs ol",
            "et el",
            "g ar",
            "m ad",
            "cz e",
            "y i",
            "i ri",
            "p in",
            "i ca",
            "mi r",
            "sz e",
            "n ka",
            "gu z",
            "s i",
            "d u",
            "s e",
            "m is",
            "ko z",
            "j ak",
            "do mon",
            "k ol",
            "u r",
            "sz imon",
            "ci lia",
            "b el",
            "d an",
            "er es",
            "f o",
            "l es",
            "j ol",
            "ma y",
            "a i",
            "ju l",
            "b os",
            "o sz",
            "b an",
            "p os",
            "na to",
            "sz ti",
            "f u",
            "h n",
            "lo p",
            "ra j",
            "g as",
            "d os",
            "os ton",
            "a di",
            "f i",
            "o mas",
            "ri d",
            "os i",
            "so mo",
            "b u",
            "f ab",
            "la c",
            "gu szta",
            "or a",
            "on ora",
            "s ty",
            "be sty",
            "se besty",
            "c o",
            "i da",
            "l yas",
            "or os",
            "ol etta",
            "b ett",
            "ti va",
            "lor in",
            "i mi",
            "a h",
            "f an",
            "f ann",
            "s te",
            "zs ar",
            "kin cs",
            "fa ze",
            "ab i",
            "zo e",
            "any ai",
            "e ta",
            "g ell",
            "er t",
            "ul cs",
            "c ha",
            "vi g",
            "da i",
            "o d",
            "l er",
            "gy el",
            "va j",
            "a ti",
            "b r",
            "g rid",
            "i la",
            "am br",
            "m un",
            "raj mun",
            "k es",
            "ek es",
            "d as",
            "h il",
            "to m",
            "do mo",
            "n y",
            "i li",
            "m mad",
            "z ar",
            "t esz",
            "gy es",
            "me ze",
            "k u",
            "ta ki",
            "t ta",
            "an ad",
            "ja m",
            "c ia",
            "d nar",
            "i c",
            "k ulcs",
            "sz tor",
            "ti l",
            "ke cs",
            "v et",
            "z ia",
            "ana szta",
            "m ul",
            "na s",
            "ti lia",
            "ra d",
            "de met",
            "m bos",
            "d vig",
            "va k",
            "ma j",
            "d et",
            "o ka",
            "p p",
            "t ur",
            "x en",
            "zs ak",
            "ko pp",
            "cs e",
            "ra i",
            "cze g",
            "la d",
            "a cs",
            "d ely",
            "f ri",
            "er dely",
            "zs ika",
            "b ely",
            "e gh",
            "s am",
            "ti ha",
            "t es",
            "esz tes",
            "e li",
            "zs u",
            "zab et",
            "c h",
            "d t",
            "s ch",
            "mi dt",
            "var i",
            "e cz",
            "i ne",
            "l an",
            "k un",
            "p ol",
            "a la",
            "p i",
            "s en",
            "h an",
            "a dor",
            "er a",
            "er de",
            "mar gar",
            "ru cz",
            "cs or",
            "g na",
            "i gna",
            "t ti",
            "z ane",
            "ge di",
            "vas i",
            "t ha",
            "t ru",
            "ger tru",
            "ja cin",
            "ic u",
            "j za",
            "sz ol",
            "los i",
            "ta i",
            "a sz",
            "t an",
            "ar asz",
            "ti tan",
            "d on",
            "s any",
            "z en",
            "da sz",
            "ba kon",
            "szi don",
            "mir til",
            "b ab",
            "r on",
            "v es",
            "v end",
            "sz at",
            "en cs",
            "pet ron",
            "ko zi",
            "encs er",
            "k en",
            "z ol",
            "la ki",
            "ar d",
            "vi cs",
            "kar pa",
            "e i",
            "p us",
            "v esz",
            "la mbos",
            "ab as",
            "j es",
            "n tia",
            "s olt",
            "di cs",
            "f ia",
            "l end",
            "o mi",
            "mar omi",
            "va i",
            "szab ad",
            "bo k",
            "bi har",
            "hor ny",
            "ce g",
            "i bi",
            "z or",
            "z mad",
            "ka lla",
            "csi zmad",
            "b us",
            "f or",
            "k ana",
            "k sa",
            "l eva",
            "r os",
            "la s",
            "ta s",
            "en yi",
            "ga cs",
            "ma til",
            "s al",
            "la i",
            "ty u",
            "k et",
            "n im",
            "s sza",
            "z ika",
            "ri n",
            "ju szti",
            "ro d",
            "b ika",
            "z da",
            "ar i",
            "ga zda",
            "har t",
            "pa i",
            "b ulcs",
            "f rid",
            "h ol",
            "j vari",
            "ba szti",
            "ko sze",
            "any os",
            "sze baszti",
            "a szti",
            "b ra",
            "c za",
            "c us",
            "n in",
            "n yi",
            "p u",
            "t rai",
            "la cz",
            "mas i",
            "kor in",
            "szta i",
            "k an",
            "p o",
            "t ol",
            "t any",
            "or do",
            "zs old",
            "sz el",
            "na i",
            "es i",
            "m par",
            "o mpar",
            "p s",
            "s ur",
            "t us",
            "u gar",
            "la mon",
            "na ps",
            "gi tai",
            "kar sa",
            "b ike",
            "d ves",
            "e d",
            "e gy",
            "f ol",
            "p ta",
            "p es",
            "y a",
            "y us",
            "z es",
            "er ge",
            "li pta",
            "lo tai",
            "gyor osi",
            "ny erge",
            "e b",
            "g ane",
            "h os",
            "j ka",
            "m u",
            "v os",
            "z mu",
            "an go",
            "er i",
            "sz to",
            "gy eri",
            "re zmu",
            "be kes",
            "ci sz",
            "har ango",
            "he gyes",
            "a szta",
            "e g",
            "o cz",
            "u ka"
        ]
    }
}