{
  "version": "1.0",
  "truncation": null,
  "padding": null,
  "added_tokens": [
    {
      "id": 0,
      "content": "[UNK]",
      "single_word": false,
      "lstrip": false,
      "rstrip": false,
      "normalized": false,
      "special": true
    },
    {
      "id": 1,
      "content": "[CLS]",
      "single_word": false,
      "lstrip": false,
      "rstrip": false,
      "normalized": false,
      "special": true
    },
    {
      "id": 2,
      "content": "[SEP]",
      "single_word": false,
      "lstrip": false,
      "rstrip": false,
      "normalized": false,
      "special": true
    },
    {
      "id": 3,
      "content": "[PAD]",
      "single_word": false,
      "lstrip": false,
      "rstrip": false,
      "normalized": false,
      "special": true
    },
    {
      "id": 4,
      "content": "[MASK]",
      "single_word": false,
      "lstrip": false,
      "rstrip": false,
      "normalized": false,
      "special": true
    }
  ],
  "normalizer": null,
  "pre_tokenizer": {
    "type": "Whitespace"
  },
  "post_processor": null,
  "decoder": null,
  "model": {
    "type": "BPE",
    "dropout": null,
    "unk_token": "[UNK]",
    "continuing_subword_prefix": null,
    "end_of_word_suffix": null,
    "fuse_unk": false,
    "vocab": {
      "[UNK]": 0,
      "[CLS]": 1,
      "[SEP]": 2,
      "[PAD]": 3,
      "[MASK]": 4,
      "-": 5,
      "a": 6,
      "b": 7,
      "c": 8,
      "d": 9,
      "e": 10,
      "f": 11,
      "g": 12,
      "h": 13,
      "i": 14,
      "j": 15,
      "k": 16,
      "l": 17,
      "m": 18,
      "n": 19,
      "o": 20,
      "p": 21,
      "q": 22,
      "r": 23,
      "s": 24,
      "t": 25,
      "u": 26,
      "v": 27,
      "w": 28,
      "x": 29,
      "y": 30,
      "z": 31,
      "ts": 32,
      "le": 33,
      "go": 34,
      "bo": 35,
      "lo": 36,
      "an": 37,
      "mo": 38,
      "th": 39,
      "on": 40,
      "ke": 41,
      "at": 42,
      "ka": 43,
      "di": 44,
      "he": 45,
      "me": 46,
      "se": 47,
      "ma": 48,
      "ang": 49,
      "ne": 50,
      "tse": 51,
      "re": 52,
      "is": 53,
      "one": 54,
      "la": 55,
      "ph": 56,
      "ba": 57,
      "tshe": 58,
      "elo": 59,
      "in": 60,
      "ra": 61,
      "ile": 62,
      "ga": 63,
      "te": 64,
      "we": 65,
      "tso": 66,
      "tu": 67,
      "el": 68,
      "lebo": 69,
      "tha": 70,
      "ic": 71,
      "sego": 72,
      "us": 73,
      "ar": 74,
      "po": 75,
      "en": 76,
      "il": 77,
      "rat": 78,
      "boi": 79,
      "pho": 80,
      "tume": 81,
      "iso": 82,
      "na": 83,
      "ce": 84,
      "that": 85,
      "pe": 86,
      "jo": 87,
      "sa": 88,
      "ia": 89,
      "ng": 90,
      "tsh": 91,
      "olo": 92,
      "be": 93,
      "mpho": 94,
      "ona": 95,
      "da": 96,
      "tumelo": 97,
      "bon": 98,
      "pelo": 99,
      "itse": 100,
      "tebo": 101,
      "ch": 102,
      "ie": 103,
      "fa": 104,
      "ko": 105,
      "ilwe": 106,
      "neo": 107,
      "lebog": 108,
      "sh": 109,
      "ro": 110,
      "phe": 111,
      "kgo": 112,
      "thato": 113,
      "thab": 114,
      "wa": 115,
      "tebogo": 116,
      "tsi": 117,
      "pat": 118,
      "ge": 119,
      "or": 120,
      "tshep": 121,
      "ny": 122,
      "ki": 123,
      "man": 124,
      "ty": 125,
      "thus": 126,
      "si": 127,
      "om": 128,
      "ani": 129,
      "ri": 130,
      "ly": 131,
      "tshepo": 132,
      "tlo": 133,
      "filwe": 134,
      "ric": 135,
      "goitse": 136,
      "rato": 137,
      "du": 138,
      "the": 139,
      "ti": 140,
      "gofa": 141,
      "kat": 142,
      "belo": 143,
      "ag": 144,
      "kag": 145,
      "kea": 146,
      "lame": 147,
      "li": 148,
      "lesego": 149,
      "pa": 150,
      "kabelo": 151,
      "aone": 152,
      "tle": 153,
      "mon": 154,
      "lly": 155,
      "cy": 156,
      "ta": 157,
      "gaone": 158,
      "lego": 159,
      "kagiso": 160,
      "thabo": 161,
      "tl": 162,
      "boitumelo": 163,
      "katlego": 164,
      "oba": 165,
      "len": 166,
      "mar": 167,
      "uel": 168,
      "kara": 169,
      "un": 170,
      "ken": 171,
      "gomo": 172,
      "kabo": 173,
      "mma": 174,
      "ss": 175,
      "ja": 176,
      "tin": 177,
      "kamo": 178,
      "any": 179,
      "ana": 180,
      "bile": 181,
      "joh": 182,
      "fo": 183,
      "pre": 184,
      "oa": 185,
      "ku": 186,
      "bri": 187,
      "masego": 188,
      "za": 189,
      "io": 190,
      "itume": 191,
      "karabo": 192,
      "ris": 193,
      "tum": 194,
      "thata": 195,
      "to": 196,
      "hu": 197,
      "khu": 198,
      "fi": 199,
      "loki": 200,
      "malebo": 201,
      "ha": 202,
      "dy": 203,
      "ed": 204,
      "kelly": 205,
      "motso": 206,
      "patric": 207,
      "thapelo": 208,
      "tsile": 209,
      "thu": 210,
      "malebogo": 211,
      "ane": 212,
      "gorat": 213,
      "kang": 214,
      "kefilwe": 215,
      "sha": 216,
      "tho": 217,
      "cio": 218,
      "cious": 219,
      "ld": 220,
      "no": 221,
      "kay": 222,
      "thabang": 223,
      "leng": 224,
      "lebogang": 225,
      "ck": 226,
      "tswe": 227,
      "lorato": 228,
      "gorata": 229,
      "yaone": 230,
      "ah": 231,
      "vin": 232,
      "lebogile": 233,
      "kago": 234,
      "pati": 235,
      "modi": 236,
      "john": 237,
      "tsholo": 238,
      "ho": 239,
      "thusi": 240,
      "letso": 241,
      "gao": 242,
      "char": 243,
      "arl": 244,
      "pearl": 245,
      "em": 246,
      "id": 247,
      "lu": 248,
      "nie": 249,
      "do": 250,
      "ca": 251,
      "metse": 252,
      "seph": 253,
      "joseph": 254,
      "gofaone": 255,
      "ono": 256,
      "mai": 257,
      "tshepiso": 258,
      "pr": 259,
      "ince": 260,
      "prince": 261,
      "amo": 262,
      "mic": 263,
      "ard": 264,
      "ter": 265,
      "lese": 266,
      "precious": 267,
      "onalen": 268,
      "manuel": 269,
      "emmanuel": 270,
      "onalenna": 271,
      "ledi": 272,
      "felo": 273,
      "mose": 274,
      "kgomotso": 275,
      "thabiso": 276,
      "khumo": 277,
      "kelebogile": 278,
      "vid": 279,
      "david": 280,
      "ano": 281,
      "tty": 282,
      "rt": 283,
      "tshi": 284,
      "laone": 285,
      "chris": 286,
      "neilwe": 287,
      "lesedi": 288,
      "fen": 289,
      "ice": 290,
      "edw": 291,
      "lale": 292,
      "nah": 293,
      "so": 294,
      "nes": 295,
      "nolo": 296,
      "kaone": 297,
      "mmo": 298,
      "pu": 299,
      "gra": 300,
      "nce": 301,
      "rence": 302,
      "baone": 303,
      "sam": 304,
      "keneilwe": 305,
      "onald": 306,
      "rcy": 307,
      "goitseone": 308,
      "fre": 309,
      "refilwe": 310,
      "ru": 311,
      "bakang": 312,
      "eng": 313,
      "car": 314,
      "kga": 315,
      "die": 316,
      "phile": 317,
      "omphile": 318,
      "ole": 319,
      "dimpho": 320,
      "oke": 321,
      "ul": 322,
      "ica": 323,
      "keng": 324,
      "naledi": 325,
      "obakeng": 326,
      "keo": 327,
      "gi": 328,
      "bi": 329,
      "tefo": 330,
      "fentse": 331,
      "leboga": 332,
      "pheny": 333,
      "kealeboga": 334,
      "phenyo": 335,
      "mi": 336,
      "nono": 337,
      "ye": 338,
      "ote": 339,
      "mom": 340,
      "dineo": 341,
      "oteng": 342,
      "ine": 343,
      "aman": 344,
      "otsile": 345,
      "tiro": 346,
      "cen": 347,
      "mis": 348,
      "cent": 349,
      "tlame": 350,
      "she": 351,
      "mothusi": 352,
      "thatayaone": 353,
      "ve": 354,
      "pako": 355,
      "ob": 356,
      "tsholofelo": 357,
      "hael": 358,
      "michael": 359,
      "elang": 360,
      "bonolo": 361,
      "ditse": 362,
      "tshia": 363,
      "kany": 364,
      "eme": 365,
      "tshepho": 366,
      "kitso": 367,
      "grace": 368,
      "amantle": 369,
      "keitume": 370,
      "keitumetse": 371,
      "itumeleng": 372,
      "ofentse": 373,
      "line": 374,
      "patrick": 375,
      "al": 376,
      "orat": 377,
      "keba": 378,
      "oratile": 379,
      "atl": 380,
      "tshego": 381,
      "gelo": 382,
      "thuso": 383,
      "kamogelo": 384,
      "ago": 385,
      "dani": 386,
      "tshidi": 387,
      "mmoloki": 388,
      "daniel": 389,
      "ing": 390,
      "polo": 391,
      "wame": 392,
      "bame": 393,
      "iwa": 394,
      "peter": 395,
      "tshiamo": 396,
      "bonye": 397,
      "moses": 398,
      "tire": 399,
      "ol": 400,
      "lemo": 401,
      "than": 402,
      "tsheph": 403,
      "ketso": 404,
      "koketso": 405,
      "kutlo": 406,
      "etse": 407,
      "ity": 408,
      "onne": 409,
      "charity": 410,
      "inah": 411,
      "kesego": 412,
      "jane": 413,
      "kenne": 414,
      "betswe": 415,
      "con": 416,
      "theo": 417,
      "samuel": 418,
      "anda": 419,
      "tsho": 420,
      "rose": 421,
      "aoba": 422,
      "kwe": 423,
      "aobakwe": 424,
      "rah": 425,
      "rabile": 426,
      "oarabile": 427,
      "isang": 428,
      "brian": 429,
      "tumisang": 430,
      "more": 431,
      "tsang": 432,
      "tshegofa": 433,
      "tshegofatso": 434,
      "ton": 435,
      "mba": 436,
      "ior": 437,
      "jun": 438,
      "onka": 439,
      "junior": 440,
      "piwa": 441,
      "mogomo": 442,
      "illi": 443,
      "mogomotsi": 444,
      "les": 445,
      "hel": 446,
      "patricia": 447,
      "tshepi": 448,
      "tlotlo": 449,
      "gg": 450,
      "ungo": 451,
      "lor": 452,
      "gape": 453,
      "tlhe": 454,
      "atla": 455,
      "mes": 456,
      "reen": 457,
      "james": 458,
      "rape": 459,
      "kgosi": 460,
      "ence": 461,
      "patience": 462,
      "bontle": 463,
      "maipelo": 464,
      "gang": 465,
      "yce": 466,
      "mercy": 467,
      "pula": 468,
      "keletso": 469,
      "keabetswe": 470,
      "ben": 471,
      "jus": 472,
      "nya": 473,
      "thuto": 474,
      "gosego": 475,
      "betse": 476,
      "onkabetse": 477,
      "flo": 478,
      "zi": 479,
      "neelo": 480,
      "agwe": 481,
      "gelang": 482,
      "amogelang": 483,
      "edwin": 484,
      "nonofo": 485,
      "es": 486,
      "god": 487,
      "port": 488,
      "thusitse": 489,
      "portia": 490,
      "modimo": 491,
      "onke": 492,
      "isa": 493,
      "onkemetse": 494,
      "dah": 495,
      "odi": 496,
      "rati": 497,
      "geor": 498,
      "cil": 499,
      "tshelo": 500,
      "abi": 501,
      "tsana": 502,
      "rile": 503,
      "kenny": 504,
      "son": 505,
      "boago": 506,
      "mike": 507,
      "gwe": 508,
      "gomolemo": 509,
      "tsaone": 510,
      "tshephang": 511,
      "for": 512,
      "ale": 513,
      "charles": 514,
      "alex": 515,
      "pher": 516,
      "mooke": 517,
      "tlw": 518,
      "mooketsi": 519,
      "gee": 520,
      "bokamo": 521,
      "getse": 522,
      "bokamoso": 523,
      "tapiwa": 524,
      "tiny": 525,
      "tlamelo": 526,
      "onneile": 527,
      "ac": 528,
      "joyce": 529,
      "isaac": 530,
      "mang": 531,
      "olebog": 532,
      "gonolo": 533,
      "hogonolo": 534,
      "mompati": 535,
      "olebogeng": 536,
      "can": 537,
      "nom": 538,
      "boitshepo": 539,
      "pheme": 540,
      "mogo": 541,
      "sega": 542,
      "olorato": 543,
      "tla": 544,
      "annah": 545,
      "botshelo": 546,
      "george": 547,
      "aron": 548,
      "sharon": 549,
      "cky": 550,
      "lucky": 551,
      "frey": 552,
      "godfrey": 553,
      "nan": 554,
      "ronald": 555,
      "tshepang": 556,
      "nancy": 557,
      "tor": 558,
      "vic": 559,
      "ruth": 560,
      "victor": 561,
      "sadie": 562,
      "tumie": 563,
      "odirile": 564,
      "ble": 565,
      "er": 566,
      "dre": 567,
      "tshenolo": 568,
      "sarah": 569,
      "bert": 570,
      "iza": 571,
      "ras": 572,
      "eliza": 573,
      "beth": 574,
      "elizabeth": 575,
      "kedi": 576,
      "botho": 577,
      "agnes": 578,
      "ith": 579,
      "lesh": 580,
      "faith": 581,
      "goa": 582,
      "lone": 583,
      "mogetse": 584,
      "keamogetse": 585,
      "pretty": 586,
      "donald": 587,
      "martha": 588,
      "connie": 589,
      "segolame": 590,
      "ft": 591,
      "mmaagwe": 592,
      "gift": 593,
      "hard": 594,
      "richard": 595,
      "mond": 596,
      "lalelo": 597,
      "kgalalelo": 598,
      "hma": 599,
      "wrence": 600,
      "ishma": 601,
      "lawrence": 602,
      "boineelo": 603,
      "dudu": 604,
      "ishmael": 605,
      "eric": 606,
      "lvin": 607,
      "godi": 608,
      "martin": 609,
      "calvin": 610,
      "fred": 611,
      "alfred": 612,
      "dor": 613,
      "lin": 614,
      "teb": 615,
      "kevin": 616,
      "boipelo": 617,
      "kanyo": 618,
      "vincent": 619,
      "othusitse": 620,
      "rene": 621,
      "ther": 622,
      "mary": 623,
      "edward": 624,
      "esther": 625,
      "phemelo": 626,
      "kes": 627,
      "moag": 628,
      "moeme": 629,
      "moemedi": 630,
      "atsi": 631,
      "phatsi": 632,
      "phatsimo": 633,
      "nic": 634,
      "vis": 635,
      "mavis": 636,
      "rona": 637,
      "larona": 638,
      "gla": 639,
      "dys": 640,
      "gladys": 641,
      "las": 642,
      "inno": 643,
      "sadi": 644,
      "innocent": 645,
      "opelo": 646,
      "maatla": 647,
      "goitsemodimo": 648,
      "paul": 649,
      "mmagwe": 650,
      "ssing": 651,
      "blessing": 652,
      "glor": 653,
      "dia": 654,
      "tuelo": 655,
      "lydia": 656,
      "gloria": 657,
      "andre": 658,
      "mare": 659,
      "rai": 660,
      "get": 661,
      "andrew": 662,
      "mas": 663,
      "bonnie": 664,
      "phemetse": 665,
      "omphemetse": 666,
      "thomas": 667,
      "janet": 668,
      "mosetsana": 669,
      "florence": 670,
      "fr": 671,
      "ou": 672,
      "oline": 673,
      "boloki": 674,
      "botlhe": 675,
      "ank": 676,
      "baboloki": 677,
      "caroline": 678,
      "nkamo": 679,
      "lethata": 680,
      "onalethata": 681,
      "ooke": 682,
      "bong": 683,
      "bonang": 684,
      "tinah": 685,
      "olebile": 686,
      "kenneth": 687,
      "ookeditse": 688,
      "win": 689,
      "winnie": 690,
      "bany": 691,
      "kutlw": 692,
      "banyana": 693,
      "kutlwano": 694,
      "col": 695,
      "jul": 696,
      "uline": 697,
      "let": 698,
      "love": 699,
      "metso": 700,
      "angel": 701,
      "philli": 702,
      "nametso": 703,
      "nye": 704,
      "pauline": 705,
      "collen": 706,
      "julia": 707,
      "cob": 708,
      "gon": 709,
      "simon": 710,
      "jacob": 711,
      "ks": 712,
      "katso": 713,
      "reg": 714,
      "gail": 715,
      "tlha": 716,
      "abigail": 717,
      "metsi": 718,
      "segametsi": 719,
      "ata": 720,
      "boikanyo": 721,
      "kuda": 722,
      "irene": 723,
      "rra": 724,
      "leb": 725,
      "same": 726,
      "michel": 727,
      "michelle": 728,
      "raone": 729,
      "godiraone": 730,
      "ipo": 731,
      "min": 732,
      "joe": 733,
      "chipo": 734,
      "monica": 735,
      "jamin": 736,
      "modise": 737,
      "benjamin": 738,
      "ev": 739,
      "agile": 740,
      "tabo": 741,
      "moagi": 742,
      "maria": 743,
      "gh": 744,
      "brigh": 745,
      "rre": 746,
      "magg": 747,
      "tiretse": 748,
      "rapetse": 749,
      "maggie": 750,
      "din": 751,
      "poloki": 752,
      "fifi": 753,
      "ludo": 754,
      "mompoloki": 755,
      "gane": 756,
      "lia": 757,
      "wil": 758,
      "nomsa": 759,
      "goabaone": 760,
      "liam": 761,
      "william": 762,
      "dima": 763,
      "sethu": 764,
      "oaitse": 765,
      "topher": 766,
      "christopher": 767,
      "tebb": 768,
      "sethunya": 769,
      "sus": 770,
      "relo": 771,
      "boikhu": 772,
      "percy": 773,
      "tshwa": 774,
      "katlo": 775,
      "susan": 776,
      "boikhutso": 777,
      "tshwarelo": 778,
      "tice": 779,
      "leungo": 780,
      "mor": 781,
      "robert": 782,
      "alice": 783,
      "justice": 784,
      "gany": 785,
      "ise": 786,
      "war": 787,
      "zy": 788,
      "zzy": 789,
      "segomotso": 790,
      "bonno": 791,
      "lizzy": 792,
      "warona": 793,
      "ju": 794,
      "dith": 795,
      "mesha": 796,
      "doreen": 797,
      "judith": 798,
      "meshack": 799,
      "pris": 800,
      "galale": 801,
      "taw": 802,
      "cilla": 803,
      "priscilla": 804,
      "galaletsang": 805,
      "ontlame": 806,
      "atang": 807,
      "diwe": 808,
      "nest": 809,
      "kennedy": 810,
      "ernest": 811,
      "ontlametse": 812,
      "cia": 813,
      "bofelo": 814,
      "lucia": 815,
      "marea": 816,
      "ll": 817,
      "joel": 818,
      "princess": 819,
      "matshidi": 820,
      "ree": 821,
      "gabri": 822,
      "ratie": 823,
      "betty": 824,
      "thebe": 825,
      "tirelo": 826,
      "matshidiso": 827,
      "gabriel": 828,
      "chel": 829,
      "lang": 830,
      "nard": 831,
      "pon": 832,
      "rnard": 833,
      "ster": 834,
      "tr": 835,
      "kesa": 836,
      "rachel": 837,
      "pegg": 838,
      "bernard": 839,
      "obaka": 840,
      "poloko": 841,
      "peggy": 842,
      "lson": 843,
      "ndy": 844,
      "letty": 845,
      "nelson": 846,
      "wendy": 847,
      "phillip": 848,
      "bokang": 849,
      "lolo": 850,
      "dolly": 851,
      "dza": 852,
      "cca": 853,
      "ess": 854,
      "jess": 855,
      "lilli": 856,
      "thri": 857,
      "rebe": 858,
      "rebaone": 859,
      "kenana": 860,
      "cathri": 861,
      "jessica": 862,
      "lillian": 863,
      "rebecca": 864,
      "kenanao": 865,
      "cathrine": 866,
      "kele": 867,
      "qu": 868,
      "ya": 869,
      "onkgo": 870,
      "kess": 871,
      "tumi": 872,
      "quin": 873,
      "kessy": 874,
      "emo": 875,
      "ymond": 876,
      "boemo": 877,
      "onks": 878,
      "raymond": 879,
      "chanda": 880,
      "pale": 881,
      "tlhale": 882,
      "kan": 883,
      "nth": 884,
      "cynth": 885,
      "holas": 886,
      "nicholas": 887,
      "cynthia": 888,
      "ua": 889,
      "ellen": 890,
      "naom": 891,
      "josh": 892,
      "mmapula": 893,
      "hope": 894,
      "maitumelo": 895,
      "naomi": 896,
      "joshua": 897,
      "ab": 898,
      "che": 899,
      "dget": 900,
      "king": 901,
      "yn": 902,
      "elyn": 903,
      "bridget": 904,
      "carol": 905,
      "kedibonye": 906,
      "evelyn": 907,
      "abel": 908,
      "kolo": 909,
      "miso": 910,
      "matl": 911,
      "nata": 912,
      "kaelo": 913,
      "tony": 914,
      "frank": 915,
      "matlhogonolo": 916,
      "natasha": 917,
      "ontiretse": 918,
      "cha": 919,
      "kgotla": 920,
      "dla": 921,
      "sea": 922,
      "thando": 923,
      "candy": 924,
      "pono": 925,
      "anang": 926,
      "os": 927,
      "tra": 928,
      "oscar": 929,
      "tracy": 930,
      "pro": 931,
      "usi": 932,
      "kie": 933,
      "pin": 934,
      "pus": 935,
      "ste": 936,
      "tlale": 937,
      "uben": 938,
      "mosa": 939,
      "motlale": 940,
      "madu": 941,
      "maungo": 942,
      "reuben": 943,
      "phen": 944,
      "pinkie": 945,
      "puso": 946,
      "stephen": 947,
      "motlalepula": 948,
      "maduo": 949,
      "bu": 950,
      "den": 951,
      "nis": 952,
      "ron": 953,
      "arno": 954,
      "shakes": 955,
      "veron": 956,
      "dennis": 957,
      "arnold": 958,
      "veronica": 959,
      "gotlo": 960,
      "boin": 961,
      "tumo": 962,
      "cecil": 963,
      "goitsemang": 964,
      "boingotlo": 965,
      "cecilia": 966,
      "iv": 967,
      "ditiro": 968,
      "meo": 969,
      "nelly": 970,
      "lagany": 971,
      "base": 972,
      "romeo": 973,
      "thero": 974,
      "eddie": 975,
      "johnson": 976,
      "taboka": 977,
      "ivy": 978,
      "kani": 979,
      "yana": 980,
      "kozi": 981,
      "amos": 982,
      "koziba": 983,
      "ncan": 984,
      "bone": 985,
      "duncan": 986,
      "bongani": 987,
      "lovemore": 988,
      "st": 989,
      "solo": 990,
      "xwe": 991,
      "lerato": 992,
      "letl": 993,
      "ance": 994,
      "kai": 995,
      "sen": 996,
      "maxwe": 997,
      "christinah": 998,
      "const": 999,
      "solomon": 1000,
      "letlhogonolo": 1001,
      "maxwell": 1002,
      "constance": 1003,
      "nda": 1004,
      "tat": 1005,
      "gole": 1006,
      "raine": 1007,
      "tenda": 1008,
      "enda": 1009,
      "boitshwarelo": 1010,
      "tiroyaone": 1011,
      "lorraine": 1012,
      "tebby": 1013,
      "tatenda": 1014,
      "tendai": 1015,
      "akany": 1016,
      "cus": 1017,
      "etso": 1018,
      "leat": 1019,
      "bona": 1020,
      "tudu": 1021,
      "dorcus": 1022,
      "akanyang": 1023,
      "leatile": 1024,
      "tuduetso": 1025,
      "ashe": 1026,
      "latl": 1027,
      "lefi": 1028,
      "kemmo": 1029,
      "disa": 1030,
      "retse": 1031,
      "ildah": 1032,
      "boiko": 1033,
      "tinashe": 1034,
      "gaolatl": 1035,
      "pontsho": 1036,
      "lefika": 1037,
      "kemmonye": 1038,
      "boikobo": 1039,
      "gaolatlhe": 1040,
      "ntebo": 1041,
      "mera": 1042,
      "gadi": 1043,
      "tshogane": 1044,
      "tawanda": 1045,
      "merapelo": 1046,
      "tshoganetso": 1047,
      "eun": 1048,
      "odu": 1049,
      "potse": 1050,
      "boitsho": 1051,
      "lebza": 1052,
      "onkgopotse": 1053,
      "eunice": 1054,
      "oduetse": 1055,
      "boitshoko": 1056,
      "yo": 1057,
      "andi": 1058,
      "onkara": 1059,
      "kebonye": 1060,
      "angu": 1061,
      "onkarabile": 1062,
      "mbi": 1063,
      "nthab": 1064,
      "reletso": 1065,
      "modiri": 1066,
      "tshireletso": 1067,
      "keorapetse": 1068,
      "iseng": 1069,
      "nthabiseng": 1070,
      "vio": 1071,
      "ness": 1072,
      "themba": 1073,
      "keolebogile": 1074,
      "reginah": 1075,
      "violet": 1076,
      "del": 1077,
      "egape": 1078,
      "gdel": 1079,
      "hle": 1080,
      "orape": 1081,
      "ureen": 1082,
      "annes": 1083,
      "mosi": 1084,
      "onty": 1085,
      "magdel": 1086,
      "maureen": 1087,
      "resego": 1088,
      "batso": 1089,
      "ust": 1090,
      "kgotso": 1091,
      "manegape": 1092,
      "johannes": 1093,
      "olerato": 1094,
      "trust": 1095,
      "orapeleng": 1096,
      "mosimanegape": 1097,
      "magdeline": 1098,
      "fetse": 1099,
      "gopo": 1100,
      "phi": 1101,
      "tsitsi": 1102,
      "kesegofetse": 1103,
      "chedza": 1104,
      "gopolang": 1105,
      "mat": 1106,
      "dz": 1107,
      "ogomo": 1108,
      "pelang": 1109,
      "isra": 1110,
      "bathusi": 1111,
      "rapelang": 1112,
      "tee": 1113,
      "fadz": 1114,
      "tafadz": 1115,
      "josephine": 1116,
      "pule": 1117,
      "kesaobaka": 1118,
      "palesa": 1119,
      "kolodi": 1120,
      "ogomoditse": 1121,
      "israel": 1122,
      "tafadzwa": 1123,
      "llo": 1124,
      "yd": 1125,
      "keeme": 1126,
      "barati": 1127,
      "florah": 1128,
      "chawa": 1129,
      "lloyd": 1130,
      "fortu": 1131,
      "ame": 1132,
      "emma": 1133,
      "fe": 1134,
      "oree": 1135,
      "sie": 1136,
      "peo": 1137,
      "kgosie": 1138,
      "tapolo": 1139,
      "shepher": 1140,
      "oreeditse": 1141,
      "kgosietsile": 1142,
      "tapologo": 1143,
      "shepherd": 1144,
      "loago": 1145,
      "teko": 1146,
      "thobo": 1147,
      "cas": 1148,
      "dorcas": 1149,
      "ez": 1150,
      "eki": 1151,
      "mandla": 1152,
      "gracious": 1153,
      "ezeki": 1154,
      "ezekiel": 1155,
      "una": 1156,
      "kemo": 1157,
      "monty": 1158,
      "kantse": 1159,
      "au": 1160,
      "bre": 1161,
      "sinah": 1162,
      "shi": 1163,
      "aubre": 1164,
      "aubrey": 1165,
      "lve": 1166,
      "sy": 1167,
      "moabi": 1168,
      "kena": 1169,
      "lindiwe": 1170,
      "lvester": 1171,
      "sylvester": 1172,
      "kenale": 1173,
      "file": 1174,
      "moth": 1175,
      "moss": 1176,
      "potso": 1177,
      "timoth": 1178,
      "olefile": 1179,
      "timothy": 1180,
      "etsile": 1181,
      "ow": 1182,
      "motheo": 1183,
      "memor": 1184,
      "ner": 1185,
      "marang": 1186,
      "thandie": 1187,
      "onneetse": 1188,
      "owner": 1189,
      "memory": 1190,
      "sho": 1191,
      "pheto": 1192,
      "phetogo": 1193,
      "eph": 1194,
      "pano": 1195,
      "kopano": 1196,
      "tshephi": 1197,
      "raim": 1198,
      "bright": 1199,
      "ephraim": 1200,
      "fie": 1201,
      "itshepi": 1202,
      "idah": 1203,
      "oabona": 1204,
      "fifie": 1205,
      "keoagile": 1206,
      "lemogang": 1207,
      "dinny": 1208,
      "gosi": 1209,
      "oga": 1210,
      "oagile": 1211,
      "ufi": 1212,
      "ws": 1213,
      "moshe": 1214,
      "entle": 1215,
      "mphoentle": 1216,
      "shath": 1217,
      "tswele": 1218,
      "ogaufi": 1219,
      "bin": 1220,
      "kb": 1221,
      "bosa": 1222,
      "keatla": 1223,
      "diso": 1224,
      "matso": 1225,
      "gaba": 1226,
      "phodiso": 1227,
      "pelonom": 1228,
      "tau": 1229,
      "kgakga": 1230,
      "golebaone": 1231,
      "bino": 1232,
      "keatlaretse": 1233,
      "pelonomi": 1234,
      "kgakgamatso": 1235,
      "onyana": 1236,
      "com": 1237,
      "pang": 1238,
      "uya": 1239,
      "zer": 1240,
      "lets": 1241,
      "gosa": 1242,
      "loe": 1243,
      "lopang": 1244,
      "keledi": 1245,
      "dikeledi": 1246,
      "mash": 1247,
      "tidima": 1248,
      "fort": 1249,
      "lindy": 1250,
      "brighton": 1251,
      "dimakatso": 1252,
      "kaizer": 1253,
      "comfort": 1254,
      "uyapo": 1255,
      "tidimalo": 1256,
      "icah": 1257,
      "cli": 1258,
      "ffor": 1259,
      "boipuso": 1260,
      "bedi": 1261,
      "roris": 1262,
      "oabile": 1263,
      "obusi": 1264,
      "dintle": 1265,
      "seabelo": 1266,
      "cliffor": 1267,
      "rorisang": 1268,
      "obusitswe": 1269,
      "clifford": 1270,
      "misani": 1271,
      "basetsana": 1272,
      "des": 1273,
      "obonye": 1274,
      "you": 1275,
      "molo": 1276,
      "dinah": 1277,
      "phomolo": 1278,
      "desmond": 1279,
      "young": 1280,
      "batho": 1281,
      "onthusitse": 1282,
      "baru": 1283,
      "obza": 1284,
      "ounah": 1285,
      "laganye": 1286,
      "andile": 1287,
      "barulaganye": 1288,
      "bk": 1289,
      "utlw": 1290,
      "wi": 1291,
      "zar": 1292,
      "leano": 1293,
      "dipu": 1294,
      "oneh": 1295,
      "lazar": 1296,
      "sib": 1297,
      "utlwanang": 1298,
      "dipuo": 1299,
      "lazarus": 1300,
      "ald": 1301,
      "oag": 1302,
      "obert": 1303,
      "mopati": 1304,
      "kegomo": 1305,
      "ditswe": 1306,
      "inald": 1307,
      "tebatso": 1308,
      "reginald": 1309,
      "oageng": 1310,
      "kegomoditswe": 1311,
      "jn": 1312,
      "ot": 1313,
      "otse": 1314,
      "ate": 1315,
      "rejo": 1316,
      "boity": 1317,
      "thembi": 1318,
      "goni": 1319,
      "rraagwe": 1320,
      "jnr": 1321,
      "otsetswe": 1322,
      "rejoice": 1323,
      "ala": 1324,
      "ff": 1325,
      "ogo": 1326,
      "moff": 1327,
      "farai": 1328,
      "thandi": 1329,
      "chandapiwa": 1330,
      "ogone": 1331,
      "moffat": 1332,
      "gal": 1333,
      "fun": 1334,
      "kano": 1335,
      "bokani": 1336,
      "moga": 1337,
      "gai": 1338,
      "maikano": 1339,
      "atlang": 1340,
      "gontse": 1341,
      "quinton": 1342,
      "buhle": 1343,
      "fungai": 1344,
      "mogakolodi": 1345,
      "abe": 1346,
      "bra": 1347,
      "dzi": 1348,
      "dnic": 1349,
      "mu": 1350,
      "osi": 1351,
      "ock": 1352,
      "motshidi": 1353,
      "radzi": 1354,
      "enock": 1355,
      "kobame": 1356,
      "sipho": 1357,
      "sibong": 1358,
      "kenosi": 1359,
      "terrence": 1360,
      "mise": 1361,
      "nyasha": 1362,
      "nyaradzi": 1363,
      "rragwe": 1364,
      "promise": 1365,
      "abednic": 1366,
      "munyaradzi": 1367,
      "motshidisi": 1368,
      "kobamelo": 1369,
      "sibongile": 1370,
      "abednico": 1371,
      "oakantse": 1372,
      "bul": 1373,
      "dra": 1374,
      "khe": 1375,
      "skhe": 1376,
      "kedu": 1377,
      "gale": 1378,
      "jabul": 1379,
      "johane": 1380,
      "shadra": 1381,
      "lebang": 1382,
      "skhebo": 1383,
      "kedumetse": 1384,
      "jabulani": 1385,
      "shadrack": 1386,
      "dithapelo": 1387,
      "balese": 1388,
      "nao": 1389,
      "kopo": 1390,
      "tshepile": 1391,
      "keotshepile": 1392,
      "loveness": 1393,
      "keemenao": 1394,
      "shima": 1395,
      "baleseng": 1396,
      "mol": 1397,
      "adisa": 1398,
      "otla": 1399,
      "wangu": 1400,
      "bogadi": 1401,
      "kemiso": 1402,
      "rethab": 1403,
      "isano": 1404,
      "tsotlhe": 1405,
      "poli": 1406,
      "boitshepho": 1407,
      "saotsile": 1408,
      "kgogi": 1409,
      "kagisano": 1410,
      "monkgogi": 1411,
      "oats": 1412,
      "modisaotsile": 1413,
      "lesang": 1414,
      "last": 1415,
      "mosetsanagape": 1416,
      "unami": 1417,
      "otlaadisa": 1418,
      "rethabile": 1419,
      "polite": 1420,
      "moa": 1421,
      "ikany": 1422,
      "motse": 1423,
      "kerapetse": 1424,
      "gabo": 1425,
      "thati": 1426,
      "kgomotse": 1427,
      "gaole": 1428,
      "thandiwe": 1429,
      "ikanyeng": 1430,
      "kgomotsego": 1431,
      "de": 1432,
      "spe": 1433,
      "wedu": 1434,
      "tshepy": 1435,
      "khumoetsile": 1436,
      "rude": 1437,
      "goaba": 1438,
      "getrude": 1439,
      "prospe": 1440,
      "ntebogang": 1441,
      "fortune": 1442,
      "prosper": 1443,
      "sang": 1444,
      "kaboyaone": 1445,
      "thatayo": 1446,
      "matildah": 1447,
      "chawada": 1448,
      "thatayotlhe": 1449,
      "cinah": 1450,
      "etsang": 1451,
      "kwa": 1452,
      "lani": 1453,
      "omaatla": 1454,
      "tank": 1455,
      "wan": 1456,
      "ancinah": 1457,
      "lah": 1458,
      "lalah": 1459,
      "batsile": 1460,
      "teto": 1461,
      "tshwan": 1462,
      "gofamodimo": 1463,
      "thulani": 1464,
      "moreri": 1465,
      "mogotsi": 1466,
      "duduetsang": 1467,
      "francinah": 1468,
      "kudakwa": 1469,
      "tankiso": 1470,
      "tshwanelo": 1471,
      "kudakwashe": 1472,
      "hildah": 1473,
      "mrose": 1474,
      "pri": 1475,
      "xane": 1476,
      "zane": 1477,
      "onthat": 1478,
      "kere": 1479,
      "lathe": 1480,
      "poster": 1481,
      "rosinah": 1482,
      "manxane": 1483,
      "jabu": 1484,
      "gaolathe": 1485,
      "primrose": 1486,
      "zanele": 1487,
      "onthatile": 1488,
      "kereng": 1489,
      "kgane": 1490,
      "lie": 1491,
      "rlie": 1492,
      "zha": 1493,
      "letswele": 1494,
      "bophe": 1495,
      "moatl": 1496,
      "motla": 1497,
      "mokgane": 1498,
      "sedi": 1499,
      "masedi": 1500,
      "lapolo": 1501,
      "temogo": 1502,
      "ratanang": 1503,
      "wazha": 1504,
      "topo": 1505,
      "hodi": 1506,
      "girlie": 1507,
      "mogogi": 1508,
      "letsweletse": 1509,
      "bophelo": 1510,
      "moatlhodi": 1511,
      "motlatsi": 1512,
      "mokganedi": 1513,
      "lapologang": 1514,
      "as": 1515,
      "amang": 1516,
      "fang": 1517,
      "imba": 1518,
      "kg": 1519,
      "ntle": 1520,
      "tic": 1521,
      "vimba": 1522,
      "bogosi": 1523,
      "onti": 1524,
      "kese": 1525,
      "kefentse": 1526,
      "phine": 1527,
      "bakani": 1528,
      "babedi": 1529,
      "gaamang": 1530,
      "boiki": 1531,
      "nametse": 1532,
      "pelontle": 1533,
      "siphi": 1534,
      "taolo": 1535,
      "haona": 1536,
      "tlhalefang": 1537,
      "tichaona": 1538,
      "vimbai": 1539,
      "ontibile": 1540,
      "phineas": 1541,
      "gaamangwe": 1542,
      "nametsegang": 1543,
      "siphiwe": 1544,
      "ipe": 1545,
      "linah": 1546,
      "mpa": 1547,
      "osego": 1548,
      "moyo": 1549,
      "setso": 1550,
      "selinah": 1551,
      "tsegang": 1552,
      "badisa": 1553,
      "rashe": 1554,
      "segopotso": 1555,
      "phetso": 1556,
      "tyro": 1557,
      "simba": 1558,
      "anita": 1559,
      "dumisani": 1560,
      "gomotsegang": 1561,
      "tebza": 1562,
      "emmah": 1563,
      "ipeleng": 1564,
      "mpaphi": 1565,
      "simbarashe": 1566,
      "anitah": 1567,
      "ifa": 1568,
      "nt": 1569,
      "obone": 1570,
      "wise": 1571,
      "lenah": 1572,
      "lefe": 1573,
      "boyce": 1574,
      "molefe": 1575,
      "ney": 1576,
      "phney": 1577,
      "daphney": 1578,
      "bonifa": 1579,
      "ombi": 1580,
      "monicah": 1581,
      "thusego": 1582,
      "tabona": 1583,
      "reetsang": 1584,
      "seabe": 1585,
      "gadife": 1586,
      "ntombi": 1587,
      "obonetse": 1588,
      "wiseman": 1589,
      "boniface": 1590,
      "gadifele": 1591,
      "ireen": 1592,
      "welo": 1593,
      "lelo": 1594,
      "kage": 1595,
      "thabani": 1596,
      "senwelo": 1597,
      "emmax": 1598,
      "gosaitse": 1599,
      "kagelelo": 1600,
      "bid": 1601,
      "mm": 1602,
      "mbid": 1603,
      "nkele": 1604,
      "bolo": 1605,
      "isany": 1606,
      "ngwe": 1607,
      "changu": 1608,
      "wabo": 1609,
      "agisany": 1610,
      "tinny": 1611,
      "zai": 1612,
      "edmore": 1613,
      "gaofen": 1614,
      "rumbid": 1615,
      "kenaleone": 1616,
      "shathani": 1617,
      "mmusi": 1618,
      "bolokang": 1619,
      "agisanyang": 1620,
      "gaofenngwe": 1621,
      "rumbidzai": 1622,
      "lefa": 1623,
      "motshe": 1624,
      "lebopo": 1625,
      "phemo": 1626,
      "getsi": 1627,
      "keaobaka": 1628,
      "mmabatho": 1629,
      "zakes": 1630,
      "thulagany": 1631,
      "tebbie": 1632,
      "kenalemang": 1633,
      "motshegetsi": 1634,
      "thulaganyo": 1635,
      "nko": 1636,
      "ven": 1637,
      "botlhale": 1638,
      "moitshepi": 1639,
      "melang": 1640,
      "releng": 1641,
      "tsotso": 1642,
      "thews": 1643,
      "given": 1644,
      "tonic": 1645,
      "mbaki": 1646,
      "odireleng": 1647,
      "atamelang": 1648,
      "matthews": 1649,
      "shosho": 1650,
      "nkosi": 1651,
      "ay": 1652,
      "ldah": 1653,
      "mpule": 1654,
      "ore": 1655,
      "omogo": 1656,
      "pona": 1657,
      "tie": 1658,
      "tness": 1659,
      "ymore": 1660,
      "botse": 1661,
      "kaleng": 1662,
      "dick": 1663,
      "sema": 1664,
      "basadi": 1665,
      "baitshepi": 1666,
      "kentse": 1667,
      "emeldah": 1668,
      "mbatshi": 1669,
      "mareledi": 1670,
      "lettie": 1671,
      "tawana": 1672,
      "trymore": 1673,
      "tlhalefo": 1674,
      "kanani": 1675,
      "witness": 1676,
      "sibanda": 1677,
      "alakanani": 1678,
      "ayanda": 1679,
      "orebotse": 1680,
      "omogolo": 1681,
      "ponatshego": 1682,
      "dicks": 1683,
      "semakaleng": 1684,
      "kno": 1685,
      "mpheme": 1686,
      "nate": 1687,
      "ngoni": 1688,
      "ps": 1689,
      "par": 1690,
      "spar": 1691,
      "keine": 1692,
      "atty": 1693,
      "heck": 1694,
      "metlha": 1695,
      "maps": 1696,
      "reba": 1697,
      "refi": 1698,
      "inte": 1699,
      "jozi": 1700,
      "rosi": 1701,
      "tshepie": 1702,
      "maity": 1703,
      "anointe": 1704,
      "misheck": 1705,
      "godkno": 1706,
      "mogorosi": 1707,
      "fortunate": 1708,
      "loeto": 1709,
      "sparks": 1710,
      "keineetse": 1711,
      "refiloe": 1712,
      "anointed": 1713,
      "godknows": 1714,
      "fana": 1715,
      "ms": 1716,
      "goms": 1717,
      "ditebogo": 1718,
      "setshego": 1719,
      "sesame": 1720,
      "bafana": 1721,
      "rapula": 1722,
      "lebone": 1723,
      "monthusi": 1724,
      "kuthu": 1725,
      "kudza": 1726,
      "thomo": 1727,
      "nokuthu": 1728,
      "gontle": 1729,
      "kudzai": 1730,
      "nokuthula": 1731,
      "abetswe": 1732,
      "eletso": 1733,
      "hono": 1734,
      "tgal": 1735,
      "ura": 1736,
      "seeletso": 1737,
      "reneilwe": 1738,
      "jomo": 1739,
      "bonyana": 1740,
      "agang": 1741,
      "khumiso": 1742,
      "ednah": 1743,
      "shadre": 1744,
      "kebaabetswe": 1745,
      "lindah": 1746,
      "shathiso": 1747,
      "honoura": 1748,
      "shadreck": 1749,
      "honourable": 1750,
      "itiretse": 1751,
      "lwe": 1752,
      "ulu": 1753,
      "zen": 1754,
      "zulu": 1755,
      "lekgotla": 1756,
      "gofi": 1757,
      "keitiretse": 1758,
      "kao": 1759,
      "diphetogo": 1760,
      "matsh": 1761,
      "wenye": 1762,
      "wadi": 1763,
      "wada": 1764,
      "patile": 1765,
      "ompatile": 1766,
      "gomotsang": 1767,
      "jakes": 1768,
      "nobuhle": 1769,
      "gaopale": 1770,
      "emang": 1771,
      "phillimon": 1772,
      "evah": 1773,
      "morwadi": 1774,
      "priscillah": 1775,
      "senzen": 1776,
      "gofiwa": 1777,
      "matshwenye": 1778,
      "gaopalelwe": 1779,
      "senzeni": 1780,
      "matshwenyego": 1781,
      "bat": 1782,
      "dlo": 1783,
      "ego": 1784,
      "itire": 1785,
      "ndlo": 1786,
      "oda": 1787,
      "osadi": 1788,
      "skara": 1789,
      "vu": 1790,
      "anani": 1791,
      "kale": 1792,
      "kaego": 1793,
      "kakale": 1794,
      "sekai": 1795,
      "isi": 1796,
      "boikaego": 1797,
      "bonani": 1798,
      "unoda": 1799,
      "bileone": 1800,
      "tumza": 1801,
      "thuli": 1802,
      "maikutlo": 1803,
      "moagisi": 1804,
      "ouna": 1805,
      "ganyi": 1806,
      "kelebileone": 1807,
      "mbiganyi": 1808,
      "hlerra": 1809,
      "taurai": 1810,
      "batanani": 1811,
      "itireleng": 1812,
      "ndlovu": 1813,
      "bus": 1814,
      "beng": 1815,
      "etsi": 1816,
      "eti": 1817,
      "gile": 1818,
      "giso": 1819,
      "ginah": 1820,
      "ikag": 1821,
      "itshephi": 1822,
      "sph": 1823,
      "sthando": 1824,
      "xol": 1825,
      "lelen": 1826,
      "moeti": 1827,
      "moitshephi": 1828,
      "kala": 1829,
      "kakanyo": 1830,
      "mathata": 1831,
      "magosi": 1832,
      "gase": 1833,
      "pogiso": 1834,
      "ompon": 1835,
      "tito": 1836,
      "letsogile": 1837,
      "gaokga": 1838,
      "olebeng": 1839,
      "amandla": 1840,
      "moreetsi": 1841,
      "georginah": 1842,
      "letang": 1843,
      "busang": 1844,
      "ikageng": 1845,
      "sphamandla": 1846,
      "xolani": 1847,
      "lelentle": 1848,
      "omponye": 1849,
      "titose": 1850,
      "gaokgakala": 1851,
      "fu": 1852,
      "gwa": 1853,
      "hl": 1854,
      "hla": 1855,
      "nne": 1856,
      "nch": 1857,
      "nhl": 1858,
      "ose": 1859,
      "orene": 1860,
      "swi": 1861,
      "wandi": 1862,
      "botsile": 1863,
      "botsang": 1864,
      "anhla": 1865,
      "morape": 1866,
      "ongwa": 1867,
      "kelebo": 1868,
      "kell": 1869,
      "kesen": 1870,
      "diri": 1871,
      "maitse": 1872,
      "tseng": 1873,
      "badiri": 1874,
      "rafa": 1875,
      "usiso": 1876,
      "betso": 1877,
      "kgopolo": 1878,
      "tirafa": 1879,
      "tlho": 1880,
      "notse": 1881,
      "nothando": 1882,
      "idzi": 1883,
      "olerile": 1884,
      "tshiamiso": 1885,
      "kebabonye": 1886,
      "morekolodi": 1887,
      "onkagetse": 1888,
      "morongwa": 1889,
      "kolobetso": 1890,
      "goleba": 1891,
      "unaswi": 1892,
      "sibusiso": 1893,
      "gaolefu": 1894,
      "nnete": 1895,
      "nchidzi": 1896,
      "nhlanhla": 1897,
      "osenotse": 1898,
      "oreneile": 1899,
      "wandipa": 1900,
      "morapedi": 1901,
      "kelebonye": 1902,
      "kells": 1903,
      "kesentseng": 1904,
      "maitseo": 1905,
      "tirafalo": 1906,
      "tlholego": 1907,
      "gaolefufa": 1908,
      "bgal": 1909,
      "ene": 1910,
      "gan": 1911,
      "kus": 1912,
      "ling": 1913,
      "mza": 1914,
      "ndi": 1915,
      "ogan": 1916,
      "pan": 1917,
      "pile": 1918,
      "lefo": 1919,
      "leru": 1920,
      "lebatso": 1921,
      "goeme": 1922,
      "losi": 1923,
      "loungo": 1924,
      "angoni": 1925,
      "morat": 1926,
      "onicah": 1927,
      "kef": 1928,
      "keone": 1929,
      "keolo": 1930,
      "keene": 1931,
      "sekga": 1932,
      "selebatso": 1933,
      "matshelo": 1934,
      "maonyana": 1935,
      "tsola": 1936,
      "namza": 1937,
      "unangoni": 1938,
      "hatha": 1939,
      "chedu": 1940,
      "tswelelo": 1941,
      "atedi": 1942,
      "molf": 1943,
      "molatedi": 1944,
      "moalosi": 1945,
      "kushatha": 1946,
      "lingani": 1947,
      "ndiye": 1948,
      "oganne": 1949,
      "pantsola": 1950,
      "lefoko": 1951,
      "leruo": 1952,
      "goemeone": 1953,
      "moratiwa": 1954,
      "keolopile": 1955,
      "sekgabo": 1956,
      "bani": 1957,
      "kiso": 1958,
      "lisa": 1959,
      "rwa": 1960,
      "stu": 1961,
      "lech": 1962,
      "lotse": 1963,
      "mone": 1964,
      "kalisa": 1965,
      "dikabelo": 1966,
      "diretse": 1967,
      "diteko": 1968,
      "disang": 1969,
      "serwa": 1970,
      "bashi": 1971,
      "onah": 1972,
      "itseng": 1973,
      "fionah": 1974,
      "thodi": 1975,
      "tiroya": 1976,
      "kebadiretse": 1977,
      "mbakiso": 1978,
      "gosegomang": 1979,
      "zibani": 1980,
      "onkgolotse": 1981,
      "chakalisa": 1982,
      "kgotlaetsile": 1983,
      "moathodi": 1984,
      "stux": 1985,
      "lechani": 1986,
      "monei": 1987,
      "serwalo": 1988,
      "tiroyamodimo": 1989,
      "alo": 1990,
      "ikantse": 1991,
      "mpolo": 1992,
      "nke": 1993,
      "nte": 1994,
      "ope": 1995,
      "tany": 1996,
      "yi": 1997,
      "tsalo": 1998,
      "gobe": 1999,
      "gobona": 2000,
      "goope": 2001,
      "botsalo": 2002,
      "mofen": 2003,
      "mabedi": 2004,
      "bale": 2005,
      "gagoope": 2006,
      "saone": 2007,
      "tlotl": 2008,
      "gorataone": 2009,
      "khumoya": 2010,
      "keoikantse": 2011,
      "atlasaone": 2012,
      "gaolebale": 2013,
      "mpolokang": 2014,
      "nkemi": 2015,
      "ntesang": 2016,
      "tanyala": 2017,
      "mofenyi": 2018,
      "tlotlang": 2019,
      "khumoyame": 2020
    },
    "merges": [
      "t s",
      "l e",
      "g o",
      "b o",
      "l o",
      "a n",
      "m o",
      "t h",
      "o n",
      "k e",
      "a t",
      "k a",
      "d i",
      "h e",
      "m e",
      "s e",
      "m a",
      "an g",
      "n e",
      "ts e",
      "r e",
      "i s",
      "on e",
      "l a",
      "p h",
      "b a",
      "ts he",
      "e lo",
      "i n",
      "r a",
      "i le",
      "g a",
      "t e",
      "w e",
      "ts o",
      "t u",
      "e l",
      "le bo",
      "th a",
      "i c",
      "se go",
      "u s",
      "a r",
      "p o",
      "e n",
      "i l",
      "r at",
      "bo i",
      "ph o",
      "tu me",
      "is o",
      "n a",
      "c e",
      "th at",
      "p e",
      "j o",
      "s a",
      "i a",
      "n g",
      "ts h",
      "o lo",
      "b e",
      "m pho",
      "on a",
      "d a",
      "tume lo",
      "bo n",
      "p elo",
      "i tse",
      "te bo",
      "c h",
      "i e",
      "f a",
      "k o",
      "il we",
      "ne o",
      "lebo g",
      "s h",
      "r o",
      "p he",
      "k go",
      "that o",
      "tha b",
      "w a",
      "tebo go",
      "ts i",
      "p at",
      "g e",
      "o r",
      "tshe p",
      "n y",
      "k i",
      "m an",
      "t y",
      "th us",
      "s i",
      "o m",
      "an i",
      "r i",
      "l y",
      "tshe po",
      "t lo",
      "f ilwe",
      "r ic",
      "go itse",
      "rat o",
      "d u",
      "th e",
      "t i",
      "go fa",
      "k at",
      "b elo",
      "a g",
      "ka g",
      "ke a",
      "la me",
      "l i",
      "le sego",
      "p a",
      "ka belo",
      "a one",
      "t le",
      "mo n",
      "l ly",
      "c y",
      "t a",
      "ga one",
      "le go",
      "kag iso",
      "tha bo",
      "t l",
      "boi tumelo",
      "kat lego",
      "o ba",
      "le n",
      "ma r",
      "u el",
      "ka ra",
      "u n",
      "ke n",
      "go mo",
      "ka bo",
      "m ma",
      "s s",
      "j a",
      "t in",
      "ka mo",
      "an y",
      "an a",
      "b ile",
      "jo h",
      "f o",
      "p re",
      "o a",
      "k u",
      "b ri",
      "ma sego",
      "z a",
      "i o",
      "i tume",
      "kara bo",
      "r is",
      "tu m",
      "that a",
      "t o",
      "h u",
      "k hu",
      "f i",
      "lo ki",
      "ma lebo",
      "h a",
      "d y",
      "e d",
      "ke lly",
      "mo tso",
      "pat ric",
      "tha pelo",
      "ts ile",
      "th u",
      "malebo go",
      "an e",
      "go rat",
      "k ang",
      "ke filwe",
      "sh a",
      "th o",
      "c io",
      "cio us",
      "l d",
      "n o",
      "ka y",
      "thab ang",
      "le ng",
      "lebog ang",
      "c k",
      "ts we",
      "lo rato",
      "gorat a",
      "y aone",
      "a h",
      "v in",
      "lebog ile",
      "ka go",
      "pat i",
      "mo di",
      "joh n",
      "tsh olo",
      "h o",
      "thus i",
      "le tso",
      "ga o",
      "ch ar",
      "ar l",
      "pe arl",
      "e m",
      "i d",
      "l u",
      "n ie",
      "d o",
      "c a",
      "me tse",
      "se ph",
      "jo seph",
      "gofa one",
      "on o",
      "ma i",
      "tshep iso",
      "p r",
      "in ce",
      "pr ince",
      "a mo",
      "m ic",
      "ar d",
      "te r",
      "le se",
      "pre cious",
      "ona len",
      "man uel",
      "em manuel",
      "onalen na",
      "le di",
      "f elo",
      "mo se",
      "kgo motso",
      "thab iso",
      "khu mo",
      "ke lebogile",
      "v id",
      "da vid",
      "an o",
      "t ty",
      "r t",
      "tsh i",
      "la one",
      "ch ris",
      "ne ilwe",
      "lese di",
      "f en",
      "ic e",
      "ed w",
      "la le",
      "na h",
      "s o",
      "ne s",
      "n olo",
      "ka one",
      "m mo",
      "p u",
      "g ra",
      "n ce",
      "re nce",
      "ba one",
      "sa m",
      "ke neilwe",
      "ona ld",
      "r cy",
      "goitse one",
      "f re",
      "re filwe",
      "r u",
      "ba kang",
      "en g",
      "c ar",
      "k ga",
      "di e",
      "ph ile",
      "om phile",
      "o le",
      "di mpho",
      "o ke",
      "u l",
      "ic a",
      "ke ng",
      "na ledi",
      "oba keng",
      "ke o",
      "g i",
      "b i",
      "te fo",
      "fen tse",
      "lebo ga",
      "phe ny",
      "kea leboga",
      "pheny o",
      "m i",
      "n ono",
      "y e",
      "o te",
      "mo m",
      "di neo",
      "ote ng",
      "i ne",
      "a man",
      "o tsile",
      "ti ro",
      "c en",
      "m is",
      "cen t",
      "t lame",
      "s he",
      "mo thusi",
      "thata yaone",
      "v e",
      "pa ko",
      "o b",
      "tsholo felo",
      "ha el",
      "mic hael",
      "el ang",
      "bon olo",
      "di tse",
      "tsh ia",
      "k any",
      "e me",
      "tshe pho",
      "ki tso",
      "gra ce",
      "aman tle",
      "ke itume",
      "keitume tse",
      "itume leng",
      "o fentse",
      "li ne",
      "patric k",
      "a l",
      "o rat",
      "ke ba",
      "orat ile",
      "at l",
      "tshe go",
      "g elo",
      "thus o",
      "kamo gelo",
      "a go",
      "d ani",
      "tshi di",
      "mmo loki",
      "dani el",
      "in g",
      "po lo",
      "wa me",
      "ba me",
      "i wa",
      "pe ter",
      "tshia mo",
      "bon ye",
      "mose s",
      "ti re",
      "o l",
      "le mo",
      "th an",
      "tshe ph",
      "ke tso",
      "ko ketso",
      "ku tlo",
      "e tse",
      "i ty",
      "on ne",
      "char ity",
      "in ah",
      "ke sego",
      "j ane",
      "ken ne",
      "be tswe",
      "c on",
      "the o",
      "sam uel",
      "an da",
      "tsh o",
      "ro se",
      "a oba",
      "k we",
      "aoba kwe",
      "ra h",
      "ra bile",
      "oa rabile",
      "is ang",
      "bri an",
      "tum isang",
      "mo re",
      "ts ang",
      "tshe gofa",
      "tshegofa tso",
      "t on",
      "m ba",
      "i or",
      "j un",
      "on ka",
      "jun ior",
      "p iwa",
      "mo gomo",
      "il li",
      "mogomo tsi",
      "le s",
      "he l",
      "patric ia",
      "tshep i",
      "tlo tlo",
      "g g",
      "un go",
      "lo r",
      "ga pe",
      "tl he",
      "at la",
      "me s",
      "re en",
      "ja mes",
      "ra pe",
      "kgo si",
      "en ce",
      "pati ence",
      "bon tle",
      "mai pelo",
      "g ang",
      "y ce",
      "me rcy",
      "pu la",
      "ke letso",
      "kea betswe",
      "b en",
      "j us",
      "ny a",
      "thu to",
      "go sego",
      "be tse",
      "onka betse",
      "f lo",
      "z i",
      "ne elo",
      "ag we",
      "g elang",
      "amo gelang",
      "edw in",
      "nono fo",
      "e s",
      "go d",
      "po rt",
      "thus itse",
      "port ia",
      "modi mo",
      "on ke",
      "is a",
      "onke metse",
      "da h",
      "o di",
      "rat i",
      "ge or",
      "c il",
      "tshe lo",
      "a bi",
      "ts ana",
      "r ile",
      "ken ny",
      "s on",
      "bo ago",
      "mi ke",
      "g we",
      "gomo lemo",
      "ts aone",
      "tsheph ang",
      "f or",
      "a le",
      "char les",
      "ale x",
      "phe r",
      "mo oke",
      "tl w",
      "mooke tsi",
      "ge e",
      "bo kamo",
      "ge tse",
      "bokamo so",
      "ta piwa",
      "tin y",
      "tlame lo",
      "onne ile",
      "a c",
      "jo yce",
      "isa ac",
      "m ang",
      "o lebog",
      "go nolo",
      "ho gonolo",
      "mom pati",
      "olebog eng",
      "c an",
      "n om",
      "boi tshepo",
      "phe me",
      "mo go",
      "se ga",
      "olo rato",
      "t la",
      "an nah",
      "bo tshelo",
      "geor ge",
      "ar on",
      "sh aron",
      "ck y",
      "lu cky",
      "fre y",
      "god frey",
      "n an",
      "r onald",
      "tshep ang",
      "nan cy",
      "t or",
      "v ic",
      "ru th",
      "vic tor",
      "sa die",
      "tum ie",
      "odi rile",
      "b le",
      "e r",
      "d re",
      "tshe nolo",
      "sa rah",
      "be rt",
      "i za",
      "ra s",
      "el iza",
      "be th",
      "eliza beth",
      "ke di",
      "bo tho",
      "ag nes",
      "i th",
      "le sh",
      "fa ith",
      "go a",
      "lo ne",
      "mo getse",
      "kea mogetse",
      "pre tty",
      "d onald",
      "mar tha",
      "con nie",
      "sego lame",
      "f t",
      "mma agwe",
      "gi ft",
      "h ard",
      "ric hard",
      "mon d",
      "lale lo",
      "kga lalelo",
      "h ma",
      "w rence",
      "is hma",
      "la wrence",
      "boi neelo",
      "du du",
      "ishma el",
      "e ric",
      "l vin",
      "go di",
      "mar tin",
      "ca lvin",
      "fre d",
      "al fred",
      "d or",
      "l in",
      "te b",
      "ke vin",
      "boi pelo",
      "kany o",
      "vin cent",
      "o thusitse",
      "re ne",
      "the r",
      "mar y",
      "edw ard",
      "es ther",
      "pheme lo",
      "ke s",
      "mo ag",
      "mo eme",
      "moeme di",
      "a tsi",
      "ph atsi",
      "phatsi mo",
      "n ic",
      "v is",
      "ma vis",
      "r ona",
      "la rona",
      "g la",
      "dy s",
      "gla dys",
      "la s",
      "in no",
      "sa di",
      "inno cent",
      "o pelo",
      "ma atla",
      "goitse modimo",
      "pa ul",
      "mma gwe",
      "ss ing",
      "ble ssing",
      "g lor",
      "di a",
      "tu elo",
      "ly dia",
      "glor ia",
      "an dre",
      "ma re",
      "ra i",
      "ge t",
      "andre w",
      "ma s",
      "bon nie",
      "phe metse",
      "om phemetse",
      "tho mas",
      "jane t",
      "mose tsana",
      "flo rence",
      "f r",
      "o u",
      "o line",
      "bo loki",
      "bo tlhe",
      "an k",
      "ba boloki",
      "car oline",
      "n kamo",
      "le thata",
      "ona lethata",
      "o oke",
      "bo ng",
      "bon ang",
      "tin ah",
      "ole bile",
      "kenne th",
      "ooke ditse",
      "w in",
      "win nie",
      "b any",
      "ku tlw",
      "bany ana",
      "kutlw ano",
      "c ol",
      "j ul",
      "u line",
      "le t",
      "lo ve",
      "me tso",
      "ang el",
      "ph illi",
      "na metso",
      "ny e",
      "pa uline",
      "col len",
      "jul ia",
      "c ob",
      "go n",
      "si mon",
      "ja cob",
      "k s",
      "ka tso",
      "re g",
      "ga il",
      "tl ha",
      "abi gail",
      "me tsi",
      "sega metsi",
      "at a",
      "boi kanyo",
      "ku da",
      "i rene",
      "r ra",
      "le b",
      "sa me",
      "mic hel",
      "michel le",
      "ra one",
      "godi raone",
      "i po",
      "m in",
      "jo e",
      "ch ipo",
      "mon ica",
      "ja min",
      "modi se",
      "ben jamin",
      "e v",
      "ag ile",
      "ta bo",
      "moag i",
      "mar ia",
      "g h",
      "bri gh",
      "r re",
      "ma gg",
      "tire tse",
      "rape tse",
      "magg ie",
      "di n",
      "po loki",
      "fi fi",
      "lu do",
      "mom poloki",
      "g ane",
      "l ia",
      "w il",
      "nom sa",
      "goa baone",
      "lia m",
      "wil liam",
      "di ma",
      "se thu",
      "oa itse",
      "to pher",
      "chris topher",
      "teb b",
      "sethu nya",
      "s us",
      "re lo",
      "boi khu",
      "pe rcy",
      "tsh wa",
      "kat lo",
      "sus an",
      "boikhu tso",
      "tshwa relo",
      "t ice",
      "le ungo",
      "mo r",
      "ro bert",
      "al ice",
      "jus tice",
      "g any",
      "i se",
      "w ar",
      "z y",
      "z zy",
      "sego motso",
      "bon no",
      "li zzy",
      "war ona",
      "j u",
      "di th",
      "me sha",
      "do reen",
      "ju dith",
      "mesha ck",
      "p ris",
      "ga lale",
      "ta w",
      "cil la",
      "pris cilla",
      "galale tsang",
      "on tlame",
      "at ang",
      "di we",
      "nes t",
      "kenne dy",
      "er nest",
      "ontlame tse",
      "c ia",
      "bo felo",
      "lu cia",
      "mare a",
      "l l",
      "jo el",
      "prince ss",
      "ma tshidi",
      "re e",
      "ga bri",
      "rat ie",
      "be tty",
      "the be",
      "tire lo",
      "matshidi so",
      "gabri el",
      "c hel",
      "l ang",
      "n ard",
      "p on",
      "r nard",
      "s ter",
      "t r",
      "ke sa",
      "ra chel",
      "pe gg",
      "be rnard",
      "oba ka",
      "polo ko",
      "pegg y",
      "l son",
      "n dy",
      "le tty",
      "ne lson",
      "we ndy",
      "philli p",
      "bo kang",
      "lo lo",
      "do lly",
      "d za",
      "c ca",
      "e ss",
      "j ess",
      "l illi",
      "th ri",
      "re be",
      "re baone",
      "ken ana",
      "ca thri",
      "jess ica",
      "lilli an",
      "rebe cca",
      "kenana o",
      "cathri ne",
      "ke le",
      "q u",
      "y a",
      "on kgo",
      "ke ss",
      "tum i",
      "qu in",
      "kess y",
      "e mo",
      "y mond",
      "bo emo",
      "on ks",
      "ra ymond",
      "ch anda",
      "pa le",
      "tlha le",
      "k an",
      "n th",
      "cy nth",
      "ho las",
      "nic holas",
      "cynth ia",
      "u a",
      "el len",
      "na om",
      "jo sh",
      "mma pula",
      "ho pe",
      "mai tumelo",
      "naom i",
      "josh ua",
      "a b",
      "c he",
      "d get",
      "k ing",
      "y n",
      "el yn",
      "bri dget",
      "car ol",
      "kedi bonye",
      "ev elyn",
      "ab el",
      "k olo",
      "m iso",
      "m atl",
      "n ata",
      "ka elo",
      "ton y",
      "fr ank",
      "matl hogonolo",
      "nata sha",
      "on tiretse",
      "ch a",
      "kgo tla",
      "d la",
      "se a",
      "than do",
      "can dy",
      "p ono",
      "an ang",
      "o s",
      "t ra",
      "os car",
      "tra cy",
      "p ro",
      "us i",
      "k ie",
      "p in",
      "p us",
      "s te",
      "t lale",
      "u ben",
      "mo sa",
      "mo tlale",
      "ma du",
      "ma ungo",
      "re uben",
      "phe n",
      "pin kie",
      "pus o",
      "ste phen",
      "motlale pula",
      "madu o",
      "b u",
      "d en",
      "n is",
      "r on",
      "ar no",
      "sha kes",
      "ve ron",
      "den nis",
      "arno ld",
      "veron ica",
      "go tlo",
      "bo in",
      "tu mo",
      "ce cil",
      "goitse mang",
      "boin gotlo",
      "cecil ia",
      "i v",
      "di tiro",
      "me o",
      "ne lly",
      "la gany",
      "ba se",
      "ro meo",
      "the ro",
      "ed die",
      "john son",
      "tabo ka",
      "iv y",
      "k ani",
      "y ana",
      "ko zi",
      "amo s",
      "kozi ba",
      "n can",
      "bo ne",
      "du ncan",
      "bong ani",
      "love more",
      "s t",
      "s olo",
      "x we",
      "le rato",
      "le tl",
      "an ce",
      "ka i",
      "se n",
      "ma xwe",
      "chris tinah",
      "con st",
      "solo mon",
      "letl hogonolo",
      "maxwe ll",
      "const ance",
      "n da",
      "t at",
      "go le",
      "ra ine",
      "te nda",
      "en da",
      "boi tshwarelo",
      "tiro yaone",
      "lor raine",
      "tebb y",
      "tat enda",
      "tenda i",
      "a kany",
      "c us",
      "e tso",
      "le at",
      "bo na",
      "tu du",
      "dor cus",
      "akany ang",
      "leat ile",
      "tudu etso",
      "a she",
      "l atl",
      "le fi",
      "ke mmo",
      "di sa",
      "re tse",
      "il dah",
      "boi ko",
      "tin ashe",
      "gao latl",
      "pon tsho",
      "lefi ka",
      "kemmo nye",
      "boiko bo",
      "gaolatl he",
      "n tebo",
      "me ra",
      "ga di",
      "tsho gane",
      "taw anda",
      "mera pelo",
      "tshogane tso",
      "e un",
      "o du",
      "po tse",
      "boi tsho",
      "leb za",
      "onkgo potse",
      "eun ice",
      "odu etse",
      "boitsho ko",
      "y o",
      "an di",
      "on kara",
      "ke bonye",
      "ang u",
      "onkara bile",
      "m bi",
      "n thab",
      "re letso",
      "modi ri",
      "tshi reletso",
      "keo rapetse",
      "ise ng",
      "nthab iseng",
      "v io",
      "ne ss",
      "the mba",
      "keo lebogile",
      "reg inah",
      "vio let",
      "d el",
      "e gape",
      "g del",
      "h le",
      "o rape",
      "u reen",
      "an nes",
      "mo si",
      "on ty",
      "ma gdel",
      "ma ureen",
      "re sego",
      "ba tso",
      "us t",
      "kgo tso",
      "man egape",
      "joh annes",
      "ole rato",
      "tr ust",
      "orape leng",
      "mosi manegape",
      "magdel ine",
      "f etse",
      "go po",
      "ph i",
      "tsi tsi",
      "kesego fetse",
      "che dza",
      "gopo lang",
      "m at",
      "d z",
      "o gomo",
      "p elang",
      "is ra",
      "ba thusi",
      "ra pelang",
      "te e",
      "fa dz",
      "ta fadz",
      "joseph ine",
      "pu le",
      "kesa obaka",
      "pale sa",
      "kolo di",
      "ogomo ditse",
      "isra el",
      "tafadz wa",
      "l lo",
      "y d",
      "ke eme",
      "ba rati",
      "flo rah",
      "cha wa",
      "llo yd",
      "for tu",
      "a me",
      "e mma",
      "f e",
      "o ree",
      "s ie",
      "pe o",
      "kgo sie",
      "ta polo",
      "she pher",
      "oree ditse",
      "kgosie tsile",
      "tapolo go",
      "shepher d",
      "lo ago",
      "te ko",
      "tho bo",
      "ca s",
      "dor cas",
      "e z",
      "e ki",
      "man dla",
      "gra cious",
      "ez eki",
      "ezeki el",
      "u na",
      "ke mo",
      "mon ty",
      "kan tse",
      "a u",
      "b re",
      "s inah",
      "sh i",
      "au bre",
      "aubre y",
      "l ve",
      "s y",
      "mo abi",
      "ke na",
      "lin diwe",
      "lve ster",
      "sy lvester",
      "kena le",
      "f ile",
      "mo th",
      "mo ss",
      "po tso",
      "ti moth",
      "ole file",
      "timoth y",
      "e tsile",
      "o w",
      "mo theo",
      "me mor",
      "ne r",
      "mar ang",
      "than die",
      "onne etse",
      "ow ner",
      "memor y",
      "sh o",
      "phe to",
      "pheto go",
      "e ph",
      "p ano",
      "ko pano",
      "tsheph i",
      "rai m",
      "brigh t",
      "eph raim",
      "f ie",
      "i tshepi",
      "i dah",
      "oa bona",
      "fi fie",
      "keo agile",
      "lemo gang",
      "din ny",
      "go si",
      "o ga",
      "o agile",
      "u fi",
      "w s",
      "mo she",
      "en tle",
      "mpho entle",
      "sha th",
      "tswe le",
      "oga ufi",
      "b in",
      "k b",
      "bo sa",
      "ke atla",
      "di so",
      "ma tso",
      "ga ba",
      "pho diso",
      "pelo nom",
      "ta u",
      "kga kga",
      "gole baone",
      "bin o",
      "keatla retse",
      "pelonom i",
      "kgakga matso",
      "on yana",
      "c om",
      "p ang",
      "u ya",
      "z er",
      "le ts",
      "go sa",
      "lo e",
      "lo pang",
      "ke ledi",
      "di keledi",
      "ma sh",
      "ti dima",
      "for t",
      "lin dy",
      "brigh ton",
      "dima katso",
      "kai zer",
      "com fort",
      "uya po",
      "tidima lo",
      "ic ah",
      "c li",
      "f for",
      "boi puso",
      "be di",
      "ro ris",
      "oa bile",
      "ob usi",
      "din tle",
      "sea belo",
      "cli ffor",
      "roris ang",
      "obusi tswe",
      "cliffor d",
      "mis ani",
      "base tsana",
      "d es",
      "o bonye",
      "y ou",
      "mo lo",
      "di nah",
      "pho molo",
      "des mond",
      "you ng",
      "ba tho",
      "on thusitse",
      "ba ru",
      "ob za",
      "ou nah",
      "lagany e",
      "andi le",
      "baru laganye",
      "b k",
      "u tlw",
      "w i",
      "z ar",
      "le ano",
      "di pu",
      "one h",
      "la zar",
      "si b",
      "utlw anang",
      "dipu o",
      "lazar us",
      "a ld",
      "o ag",
      "o bert",
      "mo pati",
      "ke gomo",
      "di tswe",
      "in ald",
      "te batso",
      "reg inald",
      "oag eng",
      "kegomo ditswe",
      "j n",
      "o t",
      "o tse",
      "at e",
      "re jo",
      "boi ty",
      "the mbi",
      "gon i",
      "rra agwe",
      "jn r",
      "otse tswe",
      "rejo ice",
      "a la",
      "f f",
      "o go",
      "mo ff",
      "fa rai",
      "than di",
      "chanda piwa",
      "ogo ne",
      "moff at",
      "ga l",
      "f un",
      "k ano",
      "bo kani",
      "mo ga",
      "ga i",
      "mai kano",
      "atl ang",
      "gon tse",
      "quin ton",
      "bu hle",
      "fun gai",
      "moga kolodi",
      "a be",
      "b ra",
      "d zi",
      "d nic",
      "m u",
      "o si",
      "o ck",
      "mo tshidi",
      "ra dzi",
      "en ock",
      "ko bame",
      "si pho",
      "si bong",
      "ken osi",
      "ter rence",
      "mi se",
      "nya sha",
      "nya radzi",
      "rra gwe",
      "pro mise",
      "abe dnic",
      "mu nyaradzi",
      "motshidi si",
      "kobame lo",
      "sibong ile",
      "abednic o",
      "oa kantse",
      "b ul",
      "d ra",
      "k he",
      "s khe",
      "ke du",
      "ga le",
      "ja bul",
      "joh ane",
      "sha dra",
      "leb ang",
      "skhe bo",
      "kedu metse",
      "jabul ani",
      "shadra ck",
      "di thapelo",
      "ba lese",
      "na o",
      "ko po",
      "tshep ile",
      "keo tshepile",
      "love ness",
      "keeme nao",
      "shi ma",
      "balese ng",
      "mo l",
      "a disa",
      "o tla",
      "w angu",
      "bo gadi",
      "ke miso",
      "re thab",
      "is ano",
      "tso tlhe",
      "po li",
      "boi tshepho",
      "sa otsile",
      "kgo gi",
      "kag isano",
      "mon kgogi",
      "oa ts",
      "modi saotsile",
      "les ang",
      "las t",
      "mosetsana gape",
      "una mi",
      "otla adisa",
      "rethab ile",
      "poli te",
      "mo a",
      "i kany",
      "mo tse",
      "ke rapetse",
      "ga bo",
      "that i",
      "kgo motse",
      "gao le",
      "than diwe",
      "ikany eng",
      "kgomotse go",
      "d e",
      "s pe",
      "we du",
      "tshep y",
      "khumo etsile",
      "ru de",
      "goa ba",
      "get rude",
      "pro spe",
      "ntebo gang",
      "fortu ne",
      "prospe r",
      "s ang",
      "kabo yaone",
      "thata yo",
      "mat ildah",
      "chawa da",
      "thatayo tlhe",
      "c inah",
      "e tsang",
      "k wa",
      "l ani",
      "o maatla",
      "t ank",
      "w an",
      "an cinah",
      "la h",
      "la lah",
      "ba tsile",
      "te to",
      "tsh wan",
      "gofa modimo",
      "thu lani",
      "more ri",
      "mogo tsi",
      "dudu etsang",
      "fr ancinah",
      "kuda kwa",
      "tank iso",
      "tshwan elo",
      "kudakwa she",
      "h ildah",
      "m rose",
      "p ri",
      "x ane",
      "z ane",
      "on that",
      "ke re",
      "la the",
      "po ster",
      "ro sinah",
      "man xane",
      "ja bu",
      "gao lathe",
      "pri mrose",
      "zane le",
      "onthat ile",
      "kere ng",
      "k gane",
      "l ie",
      "r lie",
      "z ha",
      "le tswele",
      "bo phe",
      "mo atl",
      "mo tla",
      "mo kgane",
      "se di",
      "ma sedi",
      "la polo",
      "te mogo",
      "rat anang",
      "wa zha",
      "to po",
      "ho di",
      "gi rlie",
      "mogo gi",
      "letswele tse",
      "bophe lo",
      "moatl hodi",
      "motla tsi",
      "mokgane di",
      "lapolo gang",
      "a s",
      "a mang",
      "f ang",
      "i mba",
      "k g",
      "n tle",
      "t ic",
      "v imba",
      "bo gosi",
      "on ti",
      "ke se",
      "ke fentse",
      "ph ine",
      "ba kani",
      "ba bedi",
      "ga amang",
      "boi ki",
      "na metse",
      "pelo ntle",
      "si phi",
      "ta olo",
      "ha ona",
      "tlhale fang",
      "tic haona",
      "vimba i",
      "onti bile",
      "phine as",
      "gaamang we",
      "nametse gang",
      "siphi we",
      "i pe",
      "l inah",
      "m pa",
      "o sego",
      "mo yo",
      "se tso",
      "se linah",
      "tse gang",
      "ba disa",
      "ra she",
      "sego potso",
      "phe tso",
      "ty ro",
      "si mba",
      "ani ta",
      "du misani",
      "gomo tsegang",
      "teb za",
      "emma h",
      "ipe leng",
      "mpa phi",
      "simba rashe",
      "anita h",
      "i fa",
      "n t",
      "o bone",
      "w ise",
      "le nah",
      "le fe",
      "bo yce",
      "mo lefe",
      "ne y",
      "ph ney",
      "da phney",
      "bon ifa",
      "om bi",
      "mon icah",
      "thu sego",
      "tabo na",
      "ree tsang",
      "sea be",
      "gadi fe",
      "nt ombi",
      "obone tse",
      "wise man",
      "bonifa ce",
      "gadife le",
      "i reen",
      "w elo",
      "le lo",
      "ka ge",
      "thab ani",
      "sen welo",
      "emma x",
      "gosa itse",
      "kage lelo",
      "b id",
      "m m",
      "m bid",
      "n kele",
      "bo lo",
      "is any",
      "ng we",
      "ch angu",
      "wa bo",
      "ag isany",
      "tin ny",
      "za i",
      "ed more",
      "gao fen",
      "ru mbid",
      "kenale one",
      "shath ani",
      "mm usi",
      "bolo kang",
      "agisany ang",
      "gaofen ngwe",
      "rumbid zai",
      "le fa",
      "mo tshe",
      "lebo po",
      "phe mo",
      "ge tsi",
      "kea obaka",
      "mma batho",
      "za kes",
      "thu lagany",
      "tebb ie",
      "kenale mang",
      "motshe getsi",
      "thulagany o",
      "n ko",
      "v en",
      "bo tlhale",
      "mo itshepi",
      "me lang",
      "re leng",
      "tso tso",
      "the ws",
      "gi ven",
      "ton ic",
      "mba ki",
      "odi releng",
      "ata melang",
      "mat thews",
      "sho sho",
      "nko si",
      "a y",
      "l dah",
      "m pule",
      "o re",
      "o mogo",
      "p ona",
      "t ie",
      "t ness",
      "y more",
      "bo tse",
      "ka leng",
      "di ck",
      "se ma",
      "ba sadi",
      "ba itshepi",
      "ken tse",
      "eme ldah",
      "mba tshi",
      "mare ledi",
      "let tie",
      "taw ana",
      "tr ymore",
      "tlhale fo",
      "kan ani",
      "wi tness",
      "sib anda",
      "ala kanani",
      "ay anda",
      "ore botse",
      "omogo lo",
      "pona tshego",
      "dick s",
      "sema kaleng",
      "k no",
      "m pheme",
      "n ate",
      "n goni",
      "p s",
      "p ar",
      "s par",
      "ke ine",
      "at ty",
      "he ck",
      "me tlha",
      "ma ps",
      "re ba",
      "re fi",
      "in te",
      "jo zi",
      "ro si",
      "tshep ie",
      "mai ty",
      "ano inte",
      "mis heck",
      "god kno",
      "mogo rosi",
      "fortu nate",
      "loe to",
      "spar ks",
      "keine etse",
      "refi loe",
      "anointe d",
      "godkno ws",
      "f ana",
      "m s",
      "go ms",
      "di tebogo",
      "se tshego",
      "se same",
      "ba fana",
      "ra pula",
      "lebo ne",
      "mon thusi",
      "ku thu",
      "ku dza",
      "tho mo",
      "no kuthu",
      "gon tle",
      "kudza i",
      "nokuthu la",
      "a betswe",
      "e letso",
      "h ono",
      "t gal",
      "u ra",
      "se eletso",
      "re neilwe",
      "jo mo",
      "bon yana",
      "ag ang",
      "khu miso",
      "ed nah",
      "sha dre",
      "keba abetswe",
      "lin dah",
      "shath iso",
      "hono ura",
      "shadre ck",
      "honoura ble",
      "i tiretse",
      "l we",
      "u lu",
      "z en",
      "z ulu",
      "le kgotla",
      "go fi",
      "ke itiretse",
      "ka o",
      "di phetogo",
      "ma tsh",
      "we nye",
      "wa di",
      "wa da",
      "pat ile",
      "om patile",
      "gomo tsang",
      "ja kes",
      "no buhle",
      "gao pale",
      "em ang",
      "philli mon",
      "ev ah",
      "mor wadi",
      "priscilla h",
      "sen zen",
      "gofi wa",
      "matsh wenye",
      "gaopale lwe",
      "senzen i",
      "matshwenye go",
      "b at",
      "d lo",
      "e go",
      "i tire",
      "n dlo",
      "o da",
      "o sadi",
      "s kara",
      "v u",
      "an ani",
      "ka le",
      "ka ego",
      "ka kale",
      "se kai",
      "is i",
      "boi kaego",
      "bon ani",
      "un oda",
      "bile one",
      "tum za",
      "thu li",
      "mai kutlo",
      "moag isi",
      "ou na",
      "gany i",
      "kele bileone",
      "mbi ganyi",
      "hle rra",
      "tau rai",
      "bat anani",
      "itire leng",
      "ndlo vu",
      "b us",
      "b eng",
      "e tsi",
      "e ti",
      "g ile",
      "g iso",
      "g inah",
      "i kag",
      "i tshephi",
      "s ph",
      "s thando",
      "x ol",
      "le len",
      "mo eti",
      "mo itshephi",
      "ka la",
      "ka kanyo",
      "ma thata",
      "ma gosi",
      "ga se",
      "po giso",
      "om pon",
      "ti to",
      "letso gile",
      "gao kga",
      "ole beng",
      "aman dla",
      "more etsi",
      "geor ginah",
      "let ang",
      "bus ang",
      "ikag eng",
      "sph amandla",
      "xol ani",
      "lelen tle",
      "ompon ye",
      "tito se",
      "gaokga kala",
      "f u",
      "g wa",
      "h l",
      "h la",
      "n ne",
      "n ch",
      "n hl",
      "o se",
      "o rene",
      "s wi",
      "w andi",
      "bo tsile",
      "bo tsang",
      "an hla",
      "mo rape",
      "on gwa",
      "ke lebo",
      "ke ll",
      "ke sen",
      "di ri",
      "ma itse",
      "tse ng",
      "ba diri",
      "ra fa",
      "us iso",
      "be tso",
      "kgo polo",
      "ti rafa",
      "tl ho",
      "no tse",
      "no thando",
      "id zi",
      "ole rile",
      "tshia miso",
      "keba bonye",
      "more kolodi",
      "onka getse",
      "mor ongwa",
      "kolo betso",
      "gole ba",
      "una swi",
      "sib usiso",
      "gaole fu",
      "nne te",
      "nch idzi",
      "nhl anhla",
      "ose notse",
      "orene ile",
      "wandi pa",
      "morape di",
      "kelebo nye",
      "kell s",
      "kesen tseng",
      "maitse o",
      "tirafa lo",
      "tlho lego",
      "gaolefu fa",
      "b gal",
      "e ne",
      "g an",
      "k us",
      "l ing",
      "m za",
      "n di",
      "o gan",
      "p an",
      "p ile",
      "le fo",
      "le ru",
      "le batso",
      "go eme",
      "lo si",
      "lo ungo",
      "an goni",
      "mo rat",
      "on icah",
      "ke f",
      "ke one",
      "ke olo",
      "ke ene",
      "se kga",
      "se lebatso",
      "ma tshelo",
      "ma onyana",
      "tso la",
      "na mza",
      "un angoni",
      "ha tha",
      "che du",
      "tswele lo",
      "ate di",
      "mol f",
      "mol atedi",
      "moa losi",
      "kus hatha",
      "ling ani",
      "ndi ye",
      "ogan ne",
      "pan tsola",
      "lefo ko",
      "leru o",
      "goeme one",
      "morat iwa",
      "keolo pile",
      "sekga bo",
      "b ani",
      "k iso",
      "l isa",
      "r wa",
      "s tu",
      "le ch",
      "lo tse",
      "mo ne",
      "ka lisa",
      "di kabelo",
      "di retse",
      "di teko",
      "di sang",
      "se rwa",
      "ba shi",
      "ona h",
      "itse ng",
      "fi onah",
      "tho di",
      "tiro ya",
      "keba diretse",
      "mba kiso",
      "gosego mang",
      "zi bani",
      "onkgo lotse",
      "cha kalisa",
      "kgotla etsile",
      "moa thodi",
      "stu x",
      "lech ani",
      "mone i",
      "serwa lo",
      "tiroya modimo",
      "a lo",
      "i kantse",
      "m polo",
      "n ke",
      "n te",
      "o pe",
      "t any",
      "y i",
      "ts alo",
      "go be",
      "go bona",
      "go ope",
      "bo tsalo",
      "mo fen",
      "ma bedi",
      "ba le",
      "ga goope",
      "sa one",
      "tlo tl",
      "gorat aone",
      "khumo ya",
      "keo ikantse",
      "atla saone",
      "gaole bale",
      "mpolo kang",
      "nke mi",
      "nte sang",
      "tany ala",
      "mofen yi",
      "tlotl ang",
      "khumoya me"
    ]
  }
}