{
    "version": "1.0",
    "truncation": null,
    "padding": null,
    "added_tokens": [
        {
            "id": 0,
            "content": "[UNK]",
            "single_word": false,
            "lstrip": false,
            "rstrip": false,
            "normalized": false,
            "special": true
        },
        {
            "id": 1,
            "content": "[CLS]",
            "single_word": false,
            "lstrip": false,
            "rstrip": false,
            "normalized": false,
            "special": true
        },
        {
            "id": 2,
            "content": "[SEP]",
            "single_word": false,
            "lstrip": false,
            "rstrip": false,
            "normalized": false,
            "special": true
        },
        {
            "id": 3,
            "content": "[PAD]",
            "single_word": false,
            "lstrip": false,
            "rstrip": false,
            "normalized": false,
            "special": true
        },
        {
            "id": 4,
            "content": "[MASK]",
            "single_word": false,
            "lstrip": false,
            "rstrip": false,
            "normalized": false,
            "special": true
        }
    ],
    "normalizer": null,
    "pre_tokenizer": {
        "type": "Whitespace"
    },
    "post_processor": null,
    "decoder": null,
    "model": {
        "type": "BPE",
        "dropout": null,
        "unk_token": "[UNK]",
        "continuing_subword_prefix": null,
        "end_of_word_suffix": null,
        "fuse_unk": false,
        "vocab": {
            "[UNK]": 0,
            "[CLS]": 1,
            "[SEP]": 2,
            "[PAD]": 3,
            "[MASK]": 4,
            "a": 5,
            "b": 6,
            "c": 7,
            "d": 8,
            "e": 9,
            "f": 10,
            "g": 11,
            "h": 12,
            "i": 13,
            "j": 14,
            "k": 15,
            "l": 16,
            "m": 17,
            "n": 18,
            "o": 19,
            "p": 20,
            "q": 21,
            "r": 22,
            "s": 23,
            "t": 24,
            "u": 25,
            "v": 26,
            "x": 27,
            "y": 28,
            "z": 29,
            "an": 30,
            "ar": 31,
            "ri": 32,
            "na": 33,
            "ja": 34,
            "en": 35,
            "on": 36,
            "al": 37,
            "mi": 38,
            "at": 39,
            "er": 40,
            "sa": 41,
            "ta": 42,
            "jan": 43,
            "im": 44,
            "re": 45,
            "li": 46,
            "ka": 47,
            "di": 48,
            "or": 49,
            "le": 50,
            "et": 51,
            "la": 52,
            "mar": 53,
            "ina": 54,
            "rim": 55,
            "ra": 56,
            "es": 57,
            "ko": 58,
            "da": 59,
            "mir": 60,
            "sh": 61,
            "mat": 62,
            "ma": 63,
            "ana": 64,
            "ona": 65,
            "ej": 66,
            "ni": 67,
            "st": 68,
            "and": 69,
            "ro": 70,
            "end": 71,
            "el": 72,
            "is": 73,
            "alb": 74,
            "lu": 75,
            "ha": 76,
            "ani": 77,
            "arb": 78,
            "in": 79,
            "bo": 80,
            "bes": 81,
            "val": 82,
            "ca": 83,
            "rit": 84,
            "ga": 85,
            "gor": 86,
            "de": 87,
            "pet": 88,
            "ur": 89,
            "fat": 90,
            "je": 91,
            "lin": 92,
            "ara": 93,
            "vi": 94,
            "jo": 95,
            "to": 96,
            "men": 97,
            "me": 98,
            "be": 99,
            "don": 100,
            "art": 101,
            "ija": 102,
            "tim": 103,
            "gz": 104,
            "dar": 105,
            "mo": 106,
            "ne": 107,
            "dri": 108,
            "ag": 109,
            "nik": 110,
            "ba": 111,
            "sim": 112,
            "gre": 113,
            "ran": 114,
            "zi": 115,
            "fi": 116,
            "ber": 117,
            "egz": 118,
            "ot": 119,
            "tja": 120,
            "oni": 121,
            "stjan": 122,
            "kat": 123,
            "ze": 124,
            "ju": 125,
            "fl": 126,
            "met": 127,
            "za": 128,
            "bu": 129,
            "jaz": 130,
            "va": 131,
            "san": 132,
            "gen": 133,
            "ble": 134,
            "dan": 135,
            "nej": 136,
            "nor": 137,
            "ku": 138,
            "ks": 139,
            "sp": 140,
            "eja": 141,
            "rok": 142,
            "ale": 143,
            "ti": 144,
            "tin": 145,
            "he": 146,
            "vid": 147,
            "ela": 148,
            "ed": 149,
            "maz": 150,
            "bl": 151,
            "jet": 152,
            "kim": 153,
            "mend": 154,
            "edi": 155,
            "andra": 156,
            "ari": 157,
            "qend": 158,
            "dra": 159,
            "ad": 160,
            "mu": 161,
            "laz": 162,
            "lind": 163,
            "mil": 164,
            "ez": 165,
            "anit": 166,
            "jca": 167,
            "du": 168,
            "man": 169,
            "ora": 170,
            "drag": 171,
            "ali": 172,
            "ard": 173,
            "eri": 174,
            "iv": 175,
            "so": 176,
            "qi": 177,
            "uro": 178,
            "jas": 179,
            "lav": 180,
            "su": 181,
            "lir": 182,
            "ver": 183,
            "yl": 184,
            "ves": 185,
            "do": 186,
            "riton": 187,
            "kri": 188,
            "prim": 189,
            "ade": 190,
            "min": 191,
            "ol": 192,
            "vis": 193,
            "bran": 194,
            "ron": 195,
            "ori": 196,
            "ska": 197,
            "te": 198,
            "oz": 199,
            "son": 200,
            "shk": 201,
            "kle": 202,
            "maj": 203,
            "har": 204,
            "jer": 205,
            "se": 206,
            "dej": 207,
            "ren": 208,
            "ic": 209,
            "os": 210,
            "af": 211,
            "bler": 212,
            "eva": 213,
            "ire": 214,
            "bi": 215,
            "shp": 216,
            "sha": 217,
            "gr": 218,
            "onika": 219,
            "xhe": 220,
            "dija": 221,
            "bor": 222,
            "ant": 223,
            "jel": 224,
            "dam": 225,
            "jtim": 226,
            "ris": 227,
            "lam": 228,
            "resa": 229,
            "ert": 230,
            "zan": 231,
            "jar": 232,
            "ut": 233,
            "zd": 234,
            "arina": 235,
            "muha": 236,
            "mer": 237,
            "sab": 238,
            "jon": 239,
            "lum": 240,
            "lau": 241,
            "kar": 242,
            "gasp": 243,
            "bin": 244,
            "xh": 245,
            "av": 246,
            "vet": 247,
            "jol": 248,
            "len": 249,
            "ban": 250,
            "ben": 251,
            "vl": 252,
            "shkel": 253,
            "shqi": 254,
            "lul": 255,
            "flam": 256,
            "nesa": 257,
            "fa": 258,
            "kre": 259,
            "tor": 260,
            "det": 261,
            "gim": 262,
            "ast": 263,
            "cija": 264,
            "ita": 265,
            "jko": 266,
            "si": 267,
            "leot": 268,
            "usa": 269,
            "pol": 270,
            "jra": 271,
            "bajra": 272,
            "rah": 273,
            "nan": 274,
            "gj": 275,
            "ul": 276,
            "vla": 277,
            "labin": 278,
            "lon": 279,
            "riot": 280,
            "kast": 281,
            "ent": 282,
            "lza": 283,
            "tat": 284,
            "era": 285,
            "shqip": 286,
            "nad": 287,
            "iz": 288,
            "zen": 289,
            "lea": 290,
            "josa": 291,
            "bri": 292,
            "zor": 293,
            "pat": 294,
            "lo": 295,
            "zim": 296,
            "ef": 297,
            "kal": 298,
            "nat": 299,
            "aj": 300,
            "hmet": 301,
            "shkim": 302,
            "enka": 303,
            "fis": 304,
            "ser": 305,
            "zmend": 306,
            "vin": 307,
            "dor": 308,
            "argj": 309,
            "mimo": 310,
            "tok": 311,
            "per": 312,
            "hi": 313,
            "alija": 314,
            "fjol": 315,
            "ys": 316,
            "sar": 317,
            "rem": 318,
            "gez": 319,
            "qim": 320,
            "ve": 321,
            "ev": 322,
            "diel": 323,
            "matev": 324,
            "deja": 325,
            "jamin": 326,
            "yll": 327,
            "hali": 328,
            "ki": 329,
            "klav": 330,
            "tri": 331,
            "azd": 332,
            "sta": 333,
            "taul": 334,
            "dil": 335,
            "fes": 336,
            "mal": 337,
            "dav": 338,
            "sil": 339,
            "koso": 340,
            "shnik": 341,
            "leoni": 342,
            "sel": 343,
            "leo": 344,
            "shpet": 345,
            "elvi": 346,
            "orim": 347,
            "hys": 348,
            "sla": 349,
            "vo": 350,
            "ton": 351,
            "isa": 352,
            "qir": 353,
            "par": 354,
            "erb": 355,
            "lej": 356,
            "perpar": 357,
            "valb": 358,
            "uta": 359,
            "fet": 360,
            "xhev": 361,
            "ksen": 362,
            "dim": 363,
            "ica": 364,
            "kren": 365,
            "as": 366,
            "kend": 367,
            "skend": 368,
            "med": 369,
            "nexh": 370,
            "fe": 371,
            "lat": 372,
            "zlat": 373,
            "rije": 374,
            "ete": 375,
            "ajtim": 376,
            "slav": 377,
            "rexhe": 378,
            "tea": 379,
            "lca": 380,
            "vjol": 381,
            "sad": 382,
            "shkur": 383,
            "trin": 384,
            "gan": 385,
            "mana": 386,
            "lip": 387,
            "rre": 388,
            "rrez": 389,
            "ik": 390,
            "hat": 391,
            "urat": 392,
            "ema": 393,
            "mon": 394,
            "edmon": 395,
            "din": 396,
            "cko": 397,
            "sre": 398,
            "mire": 399,
            "dran": 400,
            "von": 401,
            "zvon": 402,
            "pi": 403,
            "zal": 404,
            "shi": 405,
            "hona": 406,
            "jako": 407,
            "xha": 408,
            "for": 409,
            "anti": 410,
            "miz": 411,
            "flu": 412,
            "edat": 413,
            "mza": 414,
            "njo": 415,
            "edu": 416,
            "bet": 417,
            "han": 418,
            "minik": 419,
            "rij": 420,
            "hdi": 421,
            "no": 422,
            "zel": 423,
            "majl": 424,
            "ime": 425,
            "dimir": 426,
            "var": 427,
            "haxh": 428,
            "uf": 429,
            "nast": 430,
            "ai": 431,
            "ejtim": 432,
            "esa": 433,
            "kol": 434,
            "kora": 435,
            "ken": 436,
            "dea": 437,
            "ru": 438,
            "dhe": 439,
            "reta": 440,
            "valeri": 441,
            "ekre": 442,
            "gdan": 443,
            "ip": 444,
            "aze": 445,
            "un": 446,
            "eli": 447,
            "lju": 448,
            "flut": 449,
            "she": 450,
            "den": 451,
            "mla": 452,
            "zmi": 453,
            "idri": 454,
            "tesa": 455,
            "far": 456,
            "uk": 457,
            "djel": 458,
            "miros": 459,
            "pia": 460,
            "sur": 461,
            "lija": 462,
            "zir": 463,
            "muhar": 464,
            "bis": 465,
            "nar": 466,
            "venka": 467,
            "bernar": 468,
            "nde": 469,
            "pran": 470,
            "rija": 471,
            "bah": 472,
            "qe": 473,
            "get": 474,
            "qa": 475,
            "zo": 476,
            "cvet": 477,
            "hmi": 478,
            "vko": 479,
            "zdra": 480,
            "jz": 481,
            "kra": 482,
            "ojz": 483,
            "sni": 484,
            "kodran": 485,
            "besfor": 486,
            "vik": 487,
            "krasni": 488,
            "emi": 489,
            "fla": 490,
            "mdi": 491,
            "risha": 492,
            "tahi": 493,
            "ivo": 494,
            "marjet": 495,
            "timot": 496,
            "iva": 497,
            "imete": 498,
            "musta": 499,
            "adi": 500,
            "bur": 501,
            "ll": 502,
            "jam": 503,
            "resha": 504,
            "dorun": 505,
            "asll": 506,
            "bre": 507,
            "ena": 508,
            "vro": 509,
            "orin": 510,
            "gal": 511,
            "her": 512,
            "mbin": 513,
            "olind": 514,
            "shku": 515,
            "dali": 516,
            "vit": 517,
            "zli": 518,
            "butrin": 519,
            "sabi": 520,
            "haj": 521,
            "fer": 522,
            "sne": 523,
            "zhdi": 524,
            "ama": 525,
            "dyl": 526,
            "ven": 527,
            "bica": 528,
            "aul": 529,
            "gej": 530,
            "sja": 531,
            "dv": 532,
            "iba": 533,
            "oar": 534,
            "ojan": 535,
            "sy": 536,
            "sej": 537,
            "ter": 538,
            "ridv": 539,
            "dete": 540,
            "lejman": 541,
            "sin": 542,
            "gra": 543,
            "nu": 544,
            "mos": 545,
            "vete": 546,
            "abe": 547,
            "ame": 548,
            "lim": 549,
            "qet": 550,
            "shef": 551,
            "torija": 552,
            "ura": 553,
            "jaku": 554,
            "eta": 555,
            "ide": 556,
            "ln": 557,
            "vul": 558,
            "eneta": 559,
            "lnet": 560,
            "fikre": 561,
            "ft": 562,
            "mift": 563,
            "jtesa": 564,
            "sri": 565,
            "oteja": 566,
            "llo": 567,
            "mit": 568,
            "sahi": 569,
            "fillo": 570,
            "izi": 571,
            "msi": 572,
            "vard": 573,
            "kagj": 574,
            "dukagj": 575,
            "em": 576,
            "gip": 577,
            "nim": 578,
            "rru": 579,
            "milaz": 580,
            "stem": 581,
            "jusu": 582,
            "laznim": 583,
            "gjel": 584,
            "enko": 585,
            "engjel": 586,
            "buku": 587,
            "frim": 588,
            "it": 589,
            "onca": 590,
            "blin": 591,
            "cr": 592,
            "fki": 593,
            "il": 594,
            "sko": 595,
            "elal": 596,
            "crt": 597,
            "am": 598,
            "bro": 599,
            "dh": 600,
            "xen": 601,
            "urata": 602,
            "ambro": 603,
            "hbi": 604,
            "sli": 605,
            "hre": 606,
            "yra": 607,
            "yhre": 608,
            "shyhre": 609,
            "jda": 610,
            "ci": 611,
            "kena": 612,
            "up": 613,
            "ril": 614,
            "erka": 615,
            "gon": 616,
            "ges": 617,
            "tah": 618,
            "aba": 619,
            "fren": 620,
            "od": 621,
            "uena": 622,
            "erdu": 623,
            "elje": 624,
            "ixhe": 625,
            "kron": 626,
            "nys": 627,
            "jash": 628,
            "one": 629,
            "ret": 630,
            "mel": 631,
            "nja": 632,
            "rrah": 633,
            "cka": 634,
            "hire": 635,
            "vahire": 636,
            "dvik": 637,
            "tu": 638,
            "mini": 639,
            "daim": 640,
            "lumtu": 641,
            "imi": 642,
            "meja": 643,
            "hete": 644,
            "kr": 645,
            "dash": 646,
            "arbno": 647,
            "demo": 648,
            "krat": 649,
            "my": 650,
            "rvete": 651,
            "zgj": 652,
            "urh": 653,
            "qka": 654,
            "smil": 655,
            "bjon": 656,
            "fre": 657,
            "skim": 658,
            "bal": 659,
            "gbal": 660,
            "igbal": 661,
            "jze": 662,
            "ple": 663
        },
        "merges": [
            "a n",
            "a r",
            "r i",
            "n a",
            "j a",
            "e n",
            "o n",
            "a l",
            "m i",
            "a t",
            "e r",
            "s a",
            "t a",
            "j an",
            "i m",
            "r e",
            "l i",
            "k a",
            "d i",
            "o r",
            "l e",
            "e t",
            "l a",
            "m ar",
            "i na",
            "ri m",
            "r a",
            "e s",
            "k o",
            "d a",
            "mi r",
            "s h",
            "m at",
            "m a",
            "an a",
            "o na",
            "e j",
            "n i",
            "s t",
            "an d",
            "r o",
            "en d",
            "e l",
            "i s",
            "al b",
            "l u",
            "h a",
            "an i",
            "ar b",
            "i n",
            "b o",
            "b es",
            "v al",
            "c a",
            "ri t",
            "g a",
            "g or",
            "d e",
            "p et",
            "u r",
            "f at",
            "j e",
            "li n",
            "ar a",
            "v i",
            "j o",
            "t o",
            "m en",
            "m e",
            "b e",
            "d on",
            "ar t",
            "i ja",
            "t im",
            "g z",
            "d ar",
            "m o",
            "n e",
            "d ri",
            "a g",
            "ni k",
            "b a",
            "s im",
            "g re",
            "r an",
            "z i",
            "f i",
            "b er",
            "e gz",
            "o t",
            "t ja",
            "on i",
            "st jan",
            "k at",
            "z e",
            "j u",
            "f l",
            "m et",
            "z a",
            "b u",
            "ja z",
            "v a",
            "s an",
            "g en",
            "b le",
            "d an",
            "n ej",
            "n or",
            "k u",
            "k s",
            "s p",
            "e ja",
            "ro k",
            "al e",
            "t i",
            "t in",
            "h e",
            "vi d",
            "e la",
            "e d",
            "ma z",
            "b l",
            "j et",
            "k im",
            "m end",
            "e di",
            "and ra",
            "ar i",
            "q end",
            "d ra",
            "a d",
            "m u",
            "la z",
            "lin d",
            "mi l",
            "e z",
            "ani t",
            "j ca",
            "d u",
            "m an",
            "or a",
            "dra g",
            "al i",
            "ar d",
            "e ri",
            "i v",
            "s o",
            "q i",
            "u ro",
            "ja s",
            "la v",
            "s u",
            "li r",
            "v er",
            "y l",
            "v es",
            "d o",
            "rit on",
            "k ri",
            "p rim",
            "a de",
            "mi n",
            "o l",
            "v is",
            "b ran",
            "r on",
            "o ri",
            "s ka",
            "t e",
            "o z",
            "s on",
            "sh k",
            "k le",
            "ma j",
            "h ar",
            "j er",
            "s e",
            "d ej",
            "r en",
            "i c",
            "o s",
            "a f",
            "bl er",
            "e va",
            "i re",
            "b i",
            "sh p",
            "sh a",
            "g r",
            "oni ka",
            "x he",
            "di ja",
            "b or",
            "an t",
            "j el",
            "da m",
            "j tim",
            "ri s",
            "la m",
            "re sa",
            "er t",
            "z an",
            "j ar",
            "u t",
            "z d",
            "ar ina",
            "mu ha",
            "m er",
            "sa b",
            "j on",
            "lu m",
            "la u",
            "k ar",
            "ga sp",
            "b in",
            "x h",
            "a v",
            "v et",
            "jo l",
            "l en",
            "b an",
            "b en",
            "v l",
            "shk el",
            "sh qi",
            "lu l",
            "f lam",
            "ne sa",
            "f a",
            "k re",
            "t or",
            "d et",
            "g im",
            "a st",
            "c ija",
            "i ta",
            "j ko",
            "s i",
            "le ot",
            "u sa",
            "p ol",
            "j ra",
            "ba jra",
            "ra h",
            "n an",
            "g j",
            "u l",
            "v la",
            "la bin",
            "l on",
            "ri ot",
            "ka st",
            "en t",
            "l za",
            "t at",
            "er a",
            "shqi p",
            "na d",
            "i z",
            "z en",
            "le a",
            "jo sa",
            "b ri",
            "z or",
            "p at",
            "l o",
            "z im",
            "e f",
            "k al",
            "na t",
            "a j",
            "h met",
            "sh kim",
            "en ka",
            "f is",
            "s er",
            "z mend",
            "v in",
            "d or",
            "ar gj",
            "mi mo",
            "to k",
            "p er",
            "h i",
            "al ija",
            "f jol",
            "y s",
            "s ar",
            "re m",
            "g ez",
            "q im",
            "v e",
            "e v",
            "di el",
            "mat ev",
            "de ja",
            "ja min",
            "yl l",
            "h ali",
            "k i",
            "k lav",
            "t ri",
            "a zd",
            "s ta",
            "ta ul",
            "di l",
            "f es",
            "m al",
            "da v",
            "si l",
            "ko so",
            "sh nik",
            "le oni",
            "s el",
            "le o",
            "sh pet",
            "el vi",
            "o rim",
            "h ys",
            "s la",
            "v o",
            "t on",
            "i sa",
            "qi r",
            "p ar",
            "er b",
            "le j",
            "per par",
            "v alb",
            "u ta",
            "f et",
            "xhe v",
            "ks en",
            "d im",
            "i ca",
            "k ren",
            "a s",
            "k end",
            "s kend",
            "me d",
            "ne xh",
            "f e",
            "l at",
            "z lat",
            "ri je",
            "et e",
            "a jtim",
            "s lav",
            "re xhe",
            "te a",
            "l ca",
            "v jol",
            "sa d",
            "shk ur",
            "tri n",
            "g an",
            "m ana",
            "li p",
            "r re",
            "rre z",
            "i k",
            "h at",
            "ur at",
            "e ma",
            "m on",
            "ed mon",
            "di n",
            "c ko",
            "s re",
            "mi re",
            "d ran",
            "v on",
            "z von",
            "p i",
            "z al",
            "sh i",
            "h ona",
            "ja ko",
            "x ha",
            "f or",
            "an ti",
            "mi z",
            "f lu",
            "ed at",
            "m za",
            "n jo",
            "ed u",
            "b et",
            "h an",
            "mi nik",
            "ri j",
            "h di",
            "n o",
            "z el",
            "maj l",
            "im e",
            "di mir",
            "v ar",
            "ha xh",
            "u f",
            "na st",
            "a i",
            "ej tim",
            "e sa",
            "ko l",
            "k ora",
            "k en",
            "de a",
            "r u",
            "d he",
            "re ta",
            "val eri",
            "e kre",
            "g dan",
            "i p",
            "a ze",
            "u n",
            "e li",
            "l ju",
            "flu t",
            "sh e",
            "d en",
            "m la",
            "z mi",
            "i dri",
            "te sa",
            "f ar",
            "u k",
            "d jel",
            "mir os",
            "pi a",
            "s ur",
            "li ja",
            "zi r",
            "mu har",
            "b is",
            "n ar",
            "v enka",
            "ber nar",
            "n de",
            "p ran",
            "ri ja",
            "ba h",
            "q e",
            "g et",
            "q a",
            "z o",
            "c vet",
            "h mi",
            "v ko",
            "z dra",
            "j z",
            "k ra",
            "o jz",
            "s ni",
            "ko dran",
            "bes for",
            "vi k",
            "kra sni",
            "e mi",
            "f la",
            "m di",
            "ri sha",
            "ta hi",
            "iv o",
            "mar jet",
            "tim ot",
            "i va",
            "im ete",
            "mu sta",
            "a di",
            "b ur",
            "l l",
            "ja m",
            "re sha",
            "dor un",
            "as ll",
            "b re",
            "e na",
            "v ro",
            "ori n",
            "g al",
            "h er",
            "m bin",
            "o lind",
            "sh ku",
            "d ali",
            "vi t",
            "z li",
            "bu trin",
            "sa bi",
            "ha j",
            "f er",
            "s ne",
            "z hdi",
            "a ma",
            "d yl",
            "v en",
            "bi ca",
            "a ul",
            "g ej",
            "s ja",
            "d v",
            "i ba",
            "o ar",
            "o jan",
            "s y",
            "s ej",
            "t er",
            "ri dv",
            "det e",
            "lej man",
            "s in",
            "g ra",
            "n u",
            "mo s",
            "vet e",
            "a be",
            "a me",
            "l im",
            "q et",
            "sh ef",
            "to rija",
            "u ra",
            "ja ku",
            "e ta",
            "i de",
            "l n",
            "v ul",
            "en eta",
            "ln et",
            "fi kre",
            "f t",
            "mi ft",
            "j tesa",
            "s ri",
            "ot eja",
            "l lo",
            "mi t",
            "sa hi",
            "fi llo",
            "i zi",
            "m si",
            "v ard",
            "ka gj",
            "du kagj",
            "e m",
            "g ip",
            "n im",
            "r ru",
            "mi laz",
            "st em",
            "ju su",
            "laz nim",
            "g jel",
            "en ko",
            "en gjel",
            "bu ku",
            "f rim",
            "i t",
            "on ca",
            "b lin",
            "c r",
            "f ki",
            "i l",
            "s ko",
            "el al",
            "cr t",
            "a m",
            "b ro",
            "d h",
            "x en",
            "urat a",
            "am bro",
            "h bi",
            "s li",
            "h re",
            "y ra",
            "y hre",
            "sh yhre",
            "j da",
            "c i",
            "k ena",
            "u p",
            "ri l",
            "er ka",
            "g on",
            "g es",
            "ta h",
            "a ba",
            "f ren",
            "o d",
            "u ena",
            "er du",
            "el je",
            "i xhe",
            "k ron",
            "n ys",
            "ja sh",
            "on e",
            "re t",
            "m el",
            "n ja",
            "r rah",
            "c ka",
            "h ire",
            "va hire",
            "d vik",
            "t u",
            "mi ni",
            "da im",
            "lum tu",
            "i mi",
            "me ja",
            "h ete",
            "k r",
            "da sh",
            "arb no",
            "de mo",
            "kr at",
            "m y",
            "r vete",
            "z gj",
            "ur h",
            "q ka",
            "s mil",
            "b jon",
            "f re",
            "s kim",
            "b al",
            "g bal",
            "i gbal",
            "j ze",
            "p le"
        ]
    }
}