{
    "version": "1.0",
    "truncation": null,
    "padding": null,
    "added_tokens": [
        {
            "id": 0,
            "content": "[UNK]",
            "single_word": false,
            "lstrip": false,
            "rstrip": false,
            "normalized": false,
            "special": true
        },
        {
            "id": 1,
            "content": "[CLS]",
            "single_word": false,
            "lstrip": false,
            "rstrip": false,
            "normalized": false,
            "special": true
        },
        {
            "id": 2,
            "content": "[SEP]",
            "single_word": false,
            "lstrip": false,
            "rstrip": false,
            "normalized": false,
            "special": true
        },
        {
            "id": 3,
            "content": "[PAD]",
            "single_word": false,
            "lstrip": false,
            "rstrip": false,
            "normalized": false,
            "special": true
        },
        {
            "id": 4,
            "content": "[MASK]",
            "single_word": false,
            "lstrip": false,
            "rstrip": false,
            "normalized": false,
            "special": true
        }
    ],
    "normalizer": null,
    "pre_tokenizer": {
        "type": "Whitespace"
    },
    "post_processor": null,
    "decoder": null,
    "model": {
        "type": "BPE",
        "dropout": null,
        "unk_token": "[UNK]",
        "continuing_subword_prefix": null,
        "end_of_word_suffix": null,
        "fuse_unk": false,
        "vocab": {
            "[UNK]": 0,
            "[CLS]": 1,
            "[SEP]": 2,
            "[PAD]": 3,
            "[MASK]": 4,
            "-": 5,
            "a": 6,
            "b": 7,
            "c": 8,
            "d": 9,
            "e": 10,
            "f": 11,
            "g": 12,
            "h": 13,
            "i": 14,
            "j": 15,
            "k": 16,
            "l": 17,
            "m": 18,
            "n": 19,
            "o": 20,
            "p": 21,
            "q": 22,
            "r": 23,
            "s": 24,
            "t": 25,
            "u": 26,
            "v": 27,
            "w": 28,
            "x": 29,
            "y": 30,
            "z": 31,
            "an": 32,
            "ri": 33,
            "di": 34,
            "ma": 35,
            "en": 36,
            "in": 37,
            "ha": 38,
            "ra": 39,
            "us": 40,
            "li": 41,
            "er": 42,
            "dy": 43,
            "mad": 44,
            "to": 45,
            "ny": 46,
            "ti": 47,
            "de": 48,
            "da": 49,
            "ry": 50,
            "ang": 51,
            "wi": 52,
            "yu": 53,
            "mu": 54,
            "ag": 55,
            "wan": 56,
            "ni": 57,
            "na": 58,
            "hen": 59,
            "am": 60,
            "ah": 61,
            "ari": 62,
            "and": 63,
            "su": 64,
            "ta": 65,
            "vi": 66,
            "ham": 67,
            "al": 68,
            "her": 69,
            "hammad": 70,
            "jo": 71,
            "bu": 72,
            "ul": 73,
            "si": 74,
            "el": 75,
            "man": 76,
            "ch": 77,
            "ar": 78,
            "dra": 79,
            "ro": 80,
            "ani": 81,
            "ir": 82,
            "han": 83,
            "ly": 84,
            "ka": 85,
            "tri": 86,
            "nu": 87,
            "no": 88,
            "et": 89,
            "es": 90,
            "ed": 91,
            "ina": 92,
            "ko": 93,
            "ky": 94,
            "ya": 95,
            "mo": 96,
            "yo": 97,
            "ana": 98,
            "ng": 99,
            "har": 100,
            "adi": 101,
            "ru": 102,
            "ab": 103,
            "re": 104,
            "fi": 105,
            "bam": 106,
            "sy": 107,
            "pu": 108,
            "sri": 109,
            "win": 110,
            "mi": 111,
            "nur": 112,
            "sa": 113,
            "yan": 114,
            "do": 115,
            "ji": 116,
            "as": 117,
            "te": 118,
            "lia": 119,
            "fa": 120,
            "gi": 121,
            "ric": 122,
            "inda": 123,
            "wa": 124,
            "ris": 125,
            "ga": 126,
            "nny": 127,
            "gu": 128,
            "hend": 129,
            "ki": 130,
            "mas": 131,
            "abd": 132,
            "ca": 133,
            "ria": 134,
            "tu": 135,
            "dwi": 136,
            "riz": 137,
            "fr": 138,
            "eko": 139,
            "andra": 140,
            "sus": 141,
            "my": 142,
            "tin": 143,
            "wah": 144,
            "san": 145,
            "hi": 146,
            "so": 147,
            "ung": 148,
            "chmad": 149,
            "mmy": 150,
            "ep": 151,
            "ayu": 152,
            "ho": 153,
            "vin": 154,
            "lu": 155,
            "eni": 156,
            "ade": 157,
            "is": 158,
            "wil": 159,
            "ber": 160,
            "ali": 161,
            "tan": 162,
            "fan": 163,
            "mar": 164,
            "sury": 165,
            "edy": 166,
            "cha": 167,
            "eli": 168,
            "ty": 169,
            "edi": 170,
            "eng": 171,
            "eka": 172,
            "ex": 173,
            "ima": 174,
            "ak": 175,
            "dan": 176,
            "za": 177,
            "war": 178,
            "sis": 179,
            "ad": 180,
            "ste": 181,
            "ida": 182,
            "ku": 183,
            "by": 184,
            "van": 185,
            "bo": 186,
            "ci": 187,
            "tya": 188,
            "tra": 189,
            "va": 190,
            "dar": 191,
            "tna": 192,
            "lie": 193,
            "cky": 194,
            "ja": 195,
            "pri": 196,
            "bby": 197,
            "rah": 198,
            "ira": 199,
            "he": 200,
            "via": 201,
            "rus": 202,
            "tho": 203,
            "yus": 204,
            "guh": 205,
            "ddy": 206,
            "fir": 207,
            "den": 208,
            "ary": 209,
            "il": 210,
            "ke": 211,
            "sia": 212,
            "mat": 213,
            "me": 214,
            "rid": 215,
            "nia": 216,
            "harto": 217,
            "tau": 218,
            "jar": 219,
            "uf": 220,
            "lim": 221,
            "fari": 222,
            "hn": 223,
            "evi": 224,
            "wo": 225,
            "ce": 226,
            "ut": 227,
            "pet": 228,
            "nda": 229,
            "fik": 230,
            "nes": 231,
            "tia": 232,
            "muly": 233,
            "nan": 234,
            "ing": 235,
            "eva": 236,
            "roy": 237,
            "tik": 238,
            "nius": 239,
            "lvia": 240,
            "dhi": 241,
            "ren": 242,
            "ef": 243,
            "ek": 244,
            "lam": 245,
            "slam": 246,
            "hard": 247,
            "moc": 248,
            "dia": 249,
            "ba": 250,
            "ven": 251,
            "inta": 252,
            "amsu": 253,
            "im": 254,
            "dya": 255,
            "era": 256,
            "ful": 257,
            "iful": 258,
            "abu": 259,
            "muel": 260,
            "ulus": 261,
            "satri": 262,
            "tius": 263,
            "kman": 264,
            "le": 265,
            "din": 266,
            "ika": 267,
            "sep": 268,
            "eth": 269,
            "abeth": 270,
            "fais": 271,
            "fer": 272,
            "rnia": 273,
            "amsul": 274,
            "pa": 275,
            "nin": 276,
            "les": 277,
            "esia": 278,
            "ther": 279,
            "alu": 280,
            "gra": 281,
            "ret": 282,
            "rio": 283,
            "fen": 284,
            "geng": 285,
            "ita": 286,
            "kar": 287,
            "ntu": 288,
            "tot": 289,
            "ket": 290,
            "ene": 291,
            "ono": 292,
            "pi": 293,
            "lis": 294,
            "fe": 295,
            "se": 296,
            "zul": 297,
            "seph": 298,
            "mawan": 299,
            "aji": 300,
            "oman": 301,
            "leo": 302,
            "eny": 303,
            "cen": 304,
            "vincen": 305,
            "snu": 306,
            "cto": 307,
            "victo": 308,
            "ld": 309,
            "nald": 310,
            "moh": 311,
            "cin": 312,
            "hinta": 313,
            "muh": 314,
            "tris": 315,
            "aan": 316,
            "jam": 317,
            "rach": 318,
            "ik": 319,
            "sya": 320,
            "kus": 321,
            "uz": 322,
            "fauz": 323,
            "rul": 324,
            "ver": 325,
            "wiwi": 326,
            "mei": 327,
            "joe": 328,
            "ssy": 329,
            "uar": 330,
            "fian": 331,
            "au": 332,
            "iq": 333,
            "bnu": 334,
            "kan": 335,
            "iskan": 336,
            "inal": 337,
            "fanus": 338,
            "bar": 339,
            "char": 340,
            "hel": 341,
            "lan": 342,
            "set": 343,
            "sen": 344,
            "pur": 345,
            "ck": 346,
            "jan": 347,
            "sam": 348,
            "umi": 349,
            "herm": 350,
            "ian": 351,
            "mah": 352,
            "wanto": 353,
            "hand": 354,
            "jef": 355,
            "hando": 356,
            "iis": 357,
            "jes": 358,
            "oli": 359,
            "sica": 360,
            "abi": 361,
            "pan": 362,
            "gil": 363,
            "gro": 364,
            "lus": 365,
            "lah": 366,
            "pra": 367,
            "cak": 368,
            "fah": 369,
            "iin": 370,
            "yat": 371,
            "ju": 372,
            "sta": 373,
            "zabeth": 374,
            "anasta": 375,
            "juna": 376,
            "bil": 377,
            "len": 378,
            "onny": 379,
            "maul": 380,
            "dri": 381,
            "fyan": 382,
            "gna": 383,
            "igna": 384,
            "nd": 385,
            "untu": 386,
            "wul": 387,
            "ymo": 388,
            "raymo": 389,
            "nik": 390,
            "lut": 391,
            "cia": 392,
            "pto": 393,
            "kas": 394,
            "bi": 395,
            "uku": 396,
            "irul": 397,
            "dha": 398,
            "sabeth": 399,
            "dev": 400,
            "suna": 401,
            "hus": 402,
            "la": 403,
            "tiek": 404,
            "nunu": 405,
            "boy": 406,
            "po": 407,
            "pak": 408,
            "nugro": 409,
            "gus": 410,
            "hu": 411,
            "bin": 412,
            "ok": 413,
            "ram": 414,
            "sup": 415,
            "radi": 416,
            "az": 417,
            "cah": 418,
            "ich": 419,
            "wido": 420,
            "suki": 421,
            "ady": 422,
            "fry": 423,
            "yun": 424,
            "bal": 425,
            "ike": 426,
            "ong": 427,
            "oki": 428,
            "idi": 429,
            "kho": 430,
            "nen": 431,
            "enal": 432,
            "guntu": 433,
            "cep": 434,
            "cut": 435,
            "jandra": 436,
            "oes": 437,
            "yen": 438,
            "rif": 439,
            "suwar": 440,
            "ai": 441,
            "om": 442,
            "edo": 443,
            "much": 444,
            "ddin": 445,
            "uddin": 446,
            "lih": 447,
            "yok": 448,
            "pung": 449,
            "fad": 450,
            "du": 451,
            "iz": 452,
            "lel": 453,
            "tari": 454,
            "mur": 455,
            "sunar": 456,
            "gar": 457,
            "pp": 458,
            "pand": 459,
            "tam": 460,
            "ron": 461,
            "etha": 462,
            "margar": 463,
            "popp": 464,
            "bri": 465,
            "dro": 466,
            "rman": 467,
            "tjo": 468,
            "dirman": 469,
            "timah": 470,
            "yos": 471,
            "catu": 472,
            "ede": 473,
            "hsan": 474,
            "mmu": 475,
            "mal": 476,
            "andhi": 477,
            "fiq": 478,
            "pit": 479,
            "dh": 480,
            "sel": 481,
            "ery": 482,
            "tio": 483,
            "aj": 484,
            "phan": 485,
            "sing": 486,
            "gih": 487,
            "af": 488,
            "asy": 489,
            "dhar": 490,
            "go": 491,
            "gre": 492,
            "ldi": 493,
            "uma": 494,
            "rius": 495,
            "hayu": 496,
            "nama": 497,
            "gorius": 498,
            "asi": 499,
            "fin": 500,
            "fli": 501,
            "bag": 502,
            "bah": 503,
            "ei": 504,
            "eu": 505,
            "galu": 506,
            "oei": 507,
            "anti": 508,
            "yuk": 509,
            "dham": 510,
            "ihan": 511,
            "res": 512,
            "thi": 513,
            "urah": 514,
            "tiar": 515,
            "nauf": 516,
            "chtiar": 517,
            "kuh": 518,
            "ay": 519,
            "afi": 520,
            "cus": 521,
            "cok": 522,
            "dji": 523,
            "lman": 524,
            "maz": 525,
            "sutik": 526,
            "ety": 527,
            "cilia": 528,
            "ayi": 529,
            "ain": 530,
            "awi": 531,
            "hfi": 532,
            "lul": 533,
            "pus": 534,
            "tji": 535,
            "thu": 536,
            "uk": 537,
            "tar": 538,
            "fathu": 539,
            "ifa": 540,
            "lak": 541,
            "qi": 542,
            "sab": 543,
            "smi": 544,
            "nain": 545,
            "bun": 546,
            "karnain": 547,
            "kam": 548,
            "pta": 549,
            "sbi": 550,
            "ami": 551,
            "sukam": 552,
            "harso": 553,
            "ben": 554,
            "ct": 555,
            "ega": 556,
            "ffa": 557,
            "hlis": 558,
            "kmur": 559,
            "khlis": 560,
            "rta": 561,
            "tyo": 562,
            "tien": 563,
            "dek": 564,
            "ryo": 565,
            "edict": 566,
            "stevan": 567,
            "bak": 568,
            "co": 569,
            "iek": 570,
            "lau": 571,
            "nco": 572,
            "oky": 573,
            "liadi": 574,
            "nomo": 575,
            "gatu": 576,
            "jap": 577,
            "rensia": 578,
            "gri": 579,
            "min": 580,
            "nto": 581,
            "ndan": 582,
            "rwan": 583,
            "upi": 584,
            "walu": 585,
            "rial": 586,
            "hat": 587,
            "tiadi": 588,
            "nadi": 589,
            "sumar": 590,
            "supra": 591,
            "jono": 592,
            "sir": 593
        },
        "merges": [
            "a n",
            "r i",
            "d i",
            "m a",
            "e n",
            "i n",
            "h a",
            "r a",
            "u s",
            "l i",
            "e r",
            "d y",
            "ma d",
            "t o",
            "n y",
            "t i",
            "d e",
            "d a",
            "r y",
            "an g",
            "w i",
            "y u",
            "m u",
            "a g",
            "w an",
            "n i",
            "n a",
            "h en",
            "a m",
            "a h",
            "a ri",
            "an d",
            "s u",
            "t a",
            "v i",
            "ha m",
            "a l",
            "h er",
            "ham mad",
            "j o",
            "b u",
            "u l",
            "s i",
            "e l",
            "m an",
            "c h",
            "a r",
            "d ra",
            "r o",
            "an i",
            "i r",
            "h an",
            "l y",
            "k a",
            "t ri",
            "n u",
            "n o",
            "e t",
            "e s",
            "e d",
            "in a",
            "k o",
            "k y",
            "y a",
            "m o",
            "y o",
            "an a",
            "n g",
            "ha r",
            "a di",
            "r u",
            "a b",
            "r e",
            "f i",
            "b am",
            "s y",
            "p u",
            "s ri",
            "w in",
            "m i",
            "nu r",
            "s a",
            "y an",
            "d o",
            "j i",
            "a s",
            "t e",
            "li a",
            "f a",
            "g i",
            "ri c",
            "in da",
            "w a",
            "ri s",
            "g a",
            "n ny",
            "g u",
            "hen d",
            "k i",
            "ma s",
            "ab d",
            "c a",
            "ri a",
            "t u",
            "d wi",
            "ri z",
            "f r",
            "e ko",
            "and ra",
            "s us",
            "m y",
            "t in",
            "w ah",
            "s an",
            "h i",
            "s o",
            "u ng",
            "ch mad",
            "m my",
            "e p",
            "a yu",
            "h o",
            "v in",
            "l u",
            "en i",
            "a de",
            "i s",
            "wi l",
            "b er",
            "a li",
            "t an",
            "f an",
            "ma r",
            "su ry",
            "e dy",
            "c ha",
            "e li",
            "t y",
            "e di",
            "en g",
            "e ka",
            "e x",
            "i ma",
            "a k",
            "d an",
            "z a",
            "w ar",
            "si s",
            "a d",
            "s te",
            "i da",
            "k u",
            "b y",
            "v an",
            "b o",
            "c i",
            "t ya",
            "t ra",
            "v a",
            "da r",
            "t na",
            "li e",
            "c ky",
            "j a",
            "p ri",
            "b by",
            "ra h",
            "i ra",
            "h e",
            "vi a",
            "r us",
            "t ho",
            "y us",
            "gu h",
            "d dy",
            "f ir",
            "d en",
            "a ry",
            "i l",
            "k e",
            "si a",
            "ma t",
            "m e",
            "ri d",
            "ni a",
            "har to",
            "ta u",
            "j ar",
            "u f",
            "li m",
            "f ari",
            "h n",
            "e vi",
            "w o",
            "c e",
            "u t",
            "p et",
            "n da",
            "fi k",
            "n es",
            "ti a",
            "mu ly",
            "n an",
            "in g",
            "e va",
            "ro y",
            "ti k",
            "ni us",
            "l via",
            "d hi",
            "r en",
            "e f",
            "e k",
            "l am",
            "s lam",
            "har d",
            "mo c",
            "di a",
            "b a",
            "v en",
            "in ta",
            "am su",
            "i m",
            "dy a",
            "e ra",
            "f ul",
            "i ful",
            "a bu",
            "mu el",
            "ul us",
            "sa tri",
            "ti us",
            "k man",
            "l e",
            "di n",
            "i ka",
            "s ep",
            "et h",
            "ab eth",
            "fa is",
            "f er",
            "r nia",
            "amsu l",
            "p a",
            "n in",
            "l es",
            "e sia",
            "t her",
            "al u",
            "g ra",
            "r et",
            "ri o",
            "f en",
            "g eng",
            "i ta",
            "k ar",
            "n tu",
            "to t",
            "k et",
            "en e",
            "o no",
            "p i",
            "li s",
            "f e",
            "s e",
            "z ul",
            "sep h",
            "ma wan",
            "a ji",
            "o man",
            "le o",
            "en y",
            "c en",
            "vin cen",
            "s nu",
            "c to",
            "vi cto",
            "l d",
            "na ld",
            "mo h",
            "c in",
            "h inta",
            "mu h",
            "tri s",
            "a an",
            "j am",
            "ra ch",
            "i k",
            "s ya",
            "k us",
            "u z",
            "fa uz",
            "r ul",
            "v er",
            "wi wi",
            "me i",
            "jo e",
            "s sy",
            "u ar",
            "fi an",
            "a u",
            "i q",
            "b nu",
            "k an",
            "is kan",
            "in al",
            "fan us",
            "b ar",
            "c har",
            "h el",
            "l an",
            "s et",
            "s en",
            "pu r",
            "c k",
            "j an",
            "s am",
            "u mi",
            "her m",
            "i an",
            "ma h",
            "wan to",
            "h and",
            "j ef",
            "hand o",
            "i is",
            "j es",
            "o li",
            "si ca",
            "ab i",
            "p an",
            "gi l",
            "g ro",
            "l us",
            "l ah",
            "p ra",
            "ca k",
            "f ah",
            "i in",
            "ya t",
            "j u",
            "s ta",
            "z abeth",
            "ana sta",
            "ju na",
            "b il",
            "l en",
            "o nny",
            "ma ul",
            "d ri",
            "f yan",
            "g na",
            "i gna",
            "n d",
            "u ntu",
            "w ul",
            "y mo",
            "ra ymo",
            "ni k",
            "lu t",
            "ci a",
            "p to",
            "ka s",
            "b i",
            "u ku",
            "ir ul",
            "d ha",
            "s abeth",
            "de v",
            "su na",
            "h us",
            "l a",
            "ti ek",
            "nu nu",
            "bo y",
            "p o",
            "p ak",
            "nu gro",
            "g us",
            "h u",
            "b in",
            "o k",
            "ra m",
            "su p",
            "ra di",
            "a z",
            "c ah",
            "i ch",
            "wi do",
            "su ki",
            "a dy",
            "f ry",
            "yu n",
            "b al",
            "i ke",
            "o ng",
            "o ki",
            "i di",
            "k ho",
            "n en",
            "en al",
            "gu ntu",
            "c ep",
            "c ut",
            "j andra",
            "o es",
            "y en",
            "ri f",
            "su war",
            "a i",
            "o m",
            "ed o",
            "mu ch",
            "d din",
            "u ddin",
            "li h",
            "yo k",
            "pu ng",
            "fa d",
            "d u",
            "i z",
            "l el",
            "t ari",
            "mu r",
            "suna r",
            "g ar",
            "p p",
            "p and",
            "t am",
            "ro n",
            "et ha",
            "mar gar",
            "po pp",
            "b ri",
            "d ro",
            "r man",
            "t jo",
            "di rman",
            "ti mah",
            "yo s",
            "ca tu",
            "e de",
            "h san",
            "m mu",
            "ma l",
            "and hi",
            "fi q",
            "pi t",
            "d h",
            "s el",
            "er y",
            "ti o",
            "a j",
            "p han",
            "s ing",
            "gi h",
            "a f",
            "a sy",
            "d har",
            "g o",
            "g re",
            "l di",
            "u ma",
            "ri us",
            "ha yu",
            "na ma",
            "go rius",
            "a si",
            "f in",
            "f li",
            "b ag",
            "b ah",
            "e i",
            "e u",
            "g alu",
            "o ei",
            "an ti",
            "yu k",
            "d ham",
            "i han",
            "r es",
            "t hi",
            "u rah",
            "ti ar",
            "na uf",
            "ch tiar",
            "ku h",
            "a y",
            "a fi",
            "c us",
            "c ok",
            "d ji",
            "l man",
            "ma z",
            "su tik",
            "et y",
            "ci lia",
            "ay i",
            "a in",
            "a wi",
            "h fi",
            "l ul",
            "p us",
            "t ji",
            "t hu",
            "u k",
            "ta r",
            "fa thu",
            "i fa",
            "l ak",
            "q i",
            "s ab",
            "s mi",
            "na in",
            "bu n",
            "kar nain",
            "k am",
            "p ta",
            "s bi",
            "am i",
            "su kam",
            "har so",
            "b en",
            "c t",
            "e ga",
            "f fa",
            "h lis",
            "k mur",
            "k hlis",
            "r ta",
            "t yo",
            "ti en",
            "de k",
            "ry o",
            "edi ct",
            "ste van",
            "b ak",
            "c o",
            "i ek",
            "l au",
            "n co",
            "o ky",
            "li adi",
            "no mo",
            "ga tu",
            "ja p",
            "ren sia",
            "g ri",
            "m in",
            "n to",
            "n dan",
            "r wan",
            "u pi",
            "w alu",
            "ri al",
            "ha t",
            "ti adi",
            "na di",
            "su mar",
            "su pra",
            "jo no",
            "si r"
        ]
    }
}