{
    "version": "1.0",
    "truncation": null,
    "padding": null,
    "added_tokens": [
        {
            "id": 0,
            "content": "[UNK]",
            "single_word": false,
            "lstrip": false,
            "rstrip": false,
            "normalized": false,
            "special": true
        },
        {
            "id": 1,
            "content": "[CLS]",
            "single_word": false,
            "lstrip": false,
            "rstrip": false,
            "normalized": false,
            "special": true
        },
        {
            "id": 2,
            "content": "[SEP]",
            "single_word": false,
            "lstrip": false,
            "rstrip": false,
            "normalized": false,
            "special": true
        },
        {
            "id": 3,
            "content": "[PAD]",
            "single_word": false,
            "lstrip": false,
            "rstrip": false,
            "normalized": false,
            "special": true
        },
        {
            "id": 4,
            "content": "[MASK]",
            "single_word": false,
            "lstrip": false,
            "rstrip": false,
            "normalized": false,
            "special": true
        }
    ],
    "normalizer": null,
    "pre_tokenizer": {
        "type": "Whitespace"
    },
    "post_processor": null,
    "decoder": null,
    "model": {
        "type": "BPE",
        "dropout": null,
        "unk_token": "[UNK]",
        "continuing_subword_prefix": null,
        "end_of_word_suffix": null,
        "fuse_unk": false,
        "vocab": {
            "[UNK]": 0,
            "[CLS]": 1,
            "[SEP]": 2,
            "[PAD]": 3,
            "[MASK]": 4,
            "-": 5,
            "a": 6,
            "b": 7,
            "c": 8,
            "d": 9,
            "e": 10,
            "f": 11,
            "g": 12,
            "h": 13,
            "i": 14,
            "j": 15,
            "k": 16,
            "l": 17,
            "m": 18,
            "n": 19,
            "o": 20,
            "p": 21,
            "q": 22,
            "r": 23,
            "s": 24,
            "t": 25,
            "u": 26,
            "v": 27,
            "w": 28,
            "x": 29,
            "y": 30,
            "z": 31,
            "an": 32,
            "ha": 33,
            "ah": 34,
            "ma": 35,
            "ul": 36,
            "in": 37,
            "md": 38,
            "ri": 39,
            "al": 40,
            "im": 41,
            "am": 42,
            "ir": 43,
            "az": 44,
            "iz": 45,
            "mo": 46,
            "mad": 47,
            "ham": 48,
            "di": 49,
            "ur": 50,
            "ab": 51,
            "nur": 52,
            "ai": 53,
            "mu": 54,
            "sy": 55,
            "ra": 56,
            "fa": 57,
            "ani": 58,
            "on": 59,
            "ti": 60,
            "fi": 61,
            "ee": 62,
            "wan": 63,
            "hammad": 64,
            "si": 65,
            "il": 66,
            "el": 67,
            "mi": 68,
            "hd": 69,
            "da": 70,
            "ro": 71,
            "abd": 72,
            "ak": 73,
            "en": 74,
            "ar": 75,
            "ang": 76,
            "jo": 77,
            "ana": 78,
            "na": 79,
            "afi": 80,
            "hj": 81,
            "li": 82,
            "no": 83,
            "ong": 84,
            "un": 85,
            "ya": 86,
            "us": 87,
            "ina": 88,
            "mal": 89,
            "kha": 90,
            "irul": 91,
            "ed": 92,
            "rah": 93,
            "sha": 94,
            "ali": 95,
            "ch": 96,
            "ja": 97,
            "haz": 98,
            "mar": 99,
            "ros": 100,
            "pu": 101,
            "za": 102,
            "ji": 103,
            "ari": 104,
            "put": 105,
            "dy": 106,
            "man": 107,
            "iq": 108,
            "is": 109,
            "fiz": 110,
            "zul": 111,
            "le": 112,
            "hjh": 113,
            "adi": 114,
            "su": 115,
            "ad": 116,
            "rin": 117,
            "ce": 118,
            "id": 119,
            "mas": 120,
            "nor": 121,
            "naz": 122,
            "yan": 123,
            "ann": 124,
            "at": 125,
            "lim": 126,
            "ini": 127,
            "er": 128,
            "sh": 129,
            "sai": 130,
            "ck": 131,
            "fat": 132,
            "ew": 133,
            "rul": 134,
            "ay": 135,
            "lee": 136,
            "ilah": 137,
            "moham": 138,
            "sal": 139,
            "ie": 140,
            "han": 141,
            "sya": 142,
            "bo": 143,
            "cha": 144,
            "has": 145,
            "abu": 146,
            "ful": 147,
            "ag": 148,
            "yus": 149,
            "sa": 150,
            "ni": 151,
            "lah": 152,
            "hn": 153,
            "din": 154,
            "dk": 155,
            "mah": 156,
            "eri": 157,
            "ko": 158,
            "mat": 159,
            "as": 160,
            "ib": 161,
            "izz": 162,
            "ta": 163,
            "ev": 164,
            "dah": 165,
            "lan": 166,
            "prin": 167,
            "jah": 168,
            "aw": 169,
            "la": 170,
            "ik": 171,
            "ale": 172,
            "war": 173,
            "es": 174,
            "kim": 175,
            "dee": 176,
            "sam": 177,
            "ru": 178,
            "ly": 179,
            "aq": 180,
            "run": 181,
            "joe": 182,
            "nab": 183,
            "jam": 184,
            "ung": 185,
            "ris": 186,
            "so": 187,
            "sar": 188,
            "my": 189,
            "imi": 190,
            "pg": 191,
            "mon": 192,
            "ju": 193,
            "noo": 194,
            "jim": 195,
            "bu": 196,
            "ei": 197,
            "ayu": 198,
            "lin": 199,
            "lo": 200,
            "lov": 201,
            "riz": 202,
            "jen": 203,
            "cin": 204,
            "ati": 205,
            "fah": 206,
            "tan": 207,
            "jun": 208,
            "fir": 209,
            "lai": 210,
            "sii": 211,
            "vin": 212,
            "amy": 213,
            "ku": 214,
            "bel": 215,
            "ia": 216,
            "jul": 217,
            "fad": 218,
            "vid": 219,
            "sul": 220,
            "ain": 221,
            "lil": 222,
            "boy": 223,
            "ss": 224,
            "ef": 225,
            "nis": 226,
            "de": 227,
            "ct": 228,
            "ki": 229,
            "jib": 230,
            "brun": 231,
            "ep": 232,
            "ton": 233,
            "sim": 234,
            "eng": 235,
            "umi": 236,
            "ida": 237,
            "ram": 238,
            "zee": 239,
            "fan": 240,
            "izza": 241,
            "et": 242,
            "ka": 243,
            "fari": 244,
            "nas": 245,
            "zah": 246,
            "ely": 247,
            "um": 248,
            "fiq": 249,
            "aku": 250,
            "dew": 251,
            "sri": 252,
            "khair": 253,
            "hil": 254,
            "awg": 255,
            "fai": 256,
            "zai": 257,
            "wi": 258,
            "lyn": 259,
            "ima": 260,
            "ray": 261,
            "eem": 262,
            "ny": 263,
            "bal": 264,
            "roy": 265,
            "nadi": 266,
            "ade": 267,
            "iza": 268,
            "nah": 269,
            "een": 270,
            "dann": 271,
            "min": 272,
            "pa": 273,
            "dar": 274,
            "st": 275,
            "bob": 276,
            "yah": 277,
            "hon": 278,
            "yun": 279,
            "em": 280,
            "uz": 281,
            "fauz": 282,
            "san": 283,
            "mia": 284,
            "jay": 285,
            "dra": 286,
            "asy": 287,
            "hel": 288,
            "fee": 289,
            "bro": 290,
            "kh": 291,
            "pak": 292,
            "mun": 293,
            "pet": 294,
            "rd": 295,
            "har": 296,
            "haik": 297,
            "ez": 298,
            "hmd": 299,
            "den": 300,
            "jef": 301,
            "ke": 302,
            "maz": 303,
            "jan": 304,
            "bib": 305,
            "eko": 306,
            "son": 307,
            "sep": 308,
            "wah": 309,
            "yu": 310,
            "may": 311,
            "khali": 312,
            "aha": 313,
            "caha": 314,
            "fwan": 315,
            "atri": 316,
            "ddin": 317,
            "uddin": 318,
            "suha": 319,
            "aj": 320,
            "uf": 321,
            "red": 322,
            "niz": 323,
            "sah": 324,
            "joy": 325,
            "leo": 326,
            "rat": 327,
            "rab": 328,
            "raf": 329,
            "cen": 330,
            "jak": 331,
            "mim": 332,
            "vincen": 333,
            "era": 334,
            "yat": 335,
            "ady": 336,
            "win": 337,
            "wai": 338,
            "aidi": 339,
            "edi": 340,
            "mai": 341,
            "bah": 342,
            "kri": 343,
            "th": 344,
            "fakh": 345,
            "ben": 346,
            "dr": 347,
            "gra": 348,
            "kev": 349,
            "andr": 350,
            "jon": 351,
            "raz": 352,
            "zam": 353,
            "irle": 354,
            "athan": 355,
            "shirle": 356,
            "aji": 357,
            "ber": 358,
            "fen": 359,
            "nan": 360,
            "leh": 361,
            "dam": 362,
            "hida": 363,
            "ii": 364,
            "hamd": 365,
            "nad": 366,
            "bun": 367,
            "yaz": 368,
            "ga": 369,
            "hwan": 370,
            "rhan": 371,
            "wil": 372,
            "fer": 373,
            "sus": 374,
            "nifer": 375,
            "kat": 376,
            "inah": 377,
            "lia": 378,
            "hli": 379,
            "ian": 380,
            "sab": 381,
            "zie": 382,
            "abg": 383,
            "hi": 384,
            "if": 385,
            "masu": 386,
            "suri": 387,
            "be": 388,
            "evely": 389,
            "bar": 390,
            "sk": 391,
            "hah": 392,
            "sof": 393,
            "bak": 394,
            "hm": 395,
            "kan": 396,
            "iskan": 397,
            "ap": 398,
            "dwi": 399,
            "med": 400,
            "tin": 401,
            "moh": 402,
            "mus": 403,
            "tia": 404,
            "qah": 405,
            "ran": 406,
            "tri": 407,
            "sel": 408,
            "nia": 409,
            "aiz": 410,
            "batri": 411,
            "par": 412,
            "keem": 413,
            "dak": 414,
            "faru": 415,
            "gil": 416,
            "rai": 417,
            "te": 418,
            "xii": 419,
            "aya": 420,
            "gee": 421,
            "sur": 422,
            "rifah": 423,
            "amo": 424,
            "fian": 425,
            "ey": 426,
            "mir": 427,
            "se": 428,
            "fu": 429,
            "fri": 430,
            "jai": 431,
            "kar": 432,
            "of": 433,
            "yen": 434,
            "baz": 435,
            "mei": 436,
            "ukri": 437,
            "ziq": 438,
            "go": 439,
            "ho": 440,
            "uar": 441,
            "imin": 442,
            "goh": 443,
            "eza": 444,
            "ng": 445,
            "pri": 446,
            "ree": 447,
            "to": 448,
            "fath": 449,
            "lu": 450,
            "qman": 451,
            "eka": 452,
            "gir": 453,
            "hen": 454,
            "tul": 455,
            "yul": 456,
            "zu": 457,
            "ili": 458,
            "enc": 459,
            "bin": 460,
            "ded": 461,
            "hus": 462,
            "her": 463,
            "ifa": 464,
            "ple": 465,
            "sin": 466,
            "ua": 467,
            "waz": 468,
            "zak": 469,
            "muth": 470,
            "bam": 471,
            "hs": 472,
            "lam": 473,
            "pai": 474,
            "slam": 475,
            "mor": 476,
            "fli": 477,
            "kay": 478,
            "nu": 479,
            "ol": 480,
            "yee": 481,
            "bab": 482,
            "satri": 483,
            "ufiq": 484,
            "angir": 485,
            "geng": 486,
            "llah": 487,
            "qaw": 488,
            "wee": 489,
            "hafi": 490,
            "ahe": 491,
            "bla": 492,
            "ksi": 493,
            "sak": 494,
            "waw": 495,
            "dijah": 496,
            "syia": 497,
            "leksi": 498,
            "eik": 499,
            "gu": 500,
            "kam": 501,
            "mul": 502,
            "mais": 503,
            "arah": 504,
            "arju": 505,
            "tegu": 506,
            "fy": 507,
            "pon": 508,
            "zan": 509,
            "amee": 510,
            "beh": 511,
            "du": 512,
            "mel": 513,
            "yap": 514,
            "dyg": 515,
            "koh": 516,
            "kah": 517,
            "wir": 518,
            "syari": 519,
            "jann": 520,
            "wis": 521,
            "nauf": 522,
            "darwis": 523,
            "apa": 524,
            "fo": 525,
            "ked": 526,
            "zal": 527,
            "hasi": 528,
            "maim": 529,
            "uni": 530,
            "unah": 531,
            "foo": 532,
            "bul": 533,
            "dul": 534,
            "it": 535,
            "ampu": 536,
            "jar": 537,
            "oirul": 538,
            "zale": 539,
            "aan": 540,
            "ach": 541,
            "bi": 542,
            "del": 543,
            "ien": 544,
            "tah": 545,
            "tai": 546,
            "syak": 547,
            "salbi": 548,
            "cing": 549,
            "wisy": 550,
            "ky": 551,
            "mur": 552,
            "mmy": 553,
            "pur": 554,
            "qis": 555,
            "tu": 556,
            "urah": 557,
            "enal": 558,
            "noh": 559,
            "suzu": 560,
            "aul": 561,
            "cak": 562,
            "ea": 563,
            "hee": 564,
            "iel": 565,
            "or": 566,
            "haiq": 567,
            "muh": 568,
            "sidi": 569,
            "iqin": 570,
            "cer": 571,
            "bai": 572,
            "ok": 573,
            "oon": 574,
            "qri": 575,
            "qai": 576,
            "haimin": 577,
            "rol": 578,
            "nasi": 579,
            "evo": 580,
            "katok": 581,
            "asi": 582,
            "cii": 583,
            "nz": 584,
            "rus": 585,
            "mawi": 586,
            "syid": 587,
            "nawi": 588,
            "adiah": 589,
            "shik": 590,
            "bis": 591,
            "dai": 592,
            "dhwan": 593,
            "hyun": 594,
            "menc": 595,
            "nes": 596,
            "qib": 597,
            "ufi": 598,
            "maji": 599,
            "ril": 600,
            "aihi": 601,
            "sydi": 602,
            "ono": 603,
            "naqib": 604,
            "eki": 605,
            "io": 606,
            "ihah": 607,
            "pen": 608,
            "qee": 609,
            "rez": 610,
            "vio": 611,
            "zhar": 612,
            "dekar": 613,
            "afy": 614
        },
        "merges": [
            "a n",
            "h a",
            "a h",
            "m a",
            "u l",
            "i n",
            "m d",
            "r i",
            "a l",
            "i m",
            "a m",
            "i r",
            "a z",
            "i z",
            "m o",
            "ma d",
            "ha m",
            "d i",
            "u r",
            "a b",
            "n ur",
            "a i",
            "m u",
            "s y",
            "r a",
            "f a",
            "an i",
            "o n",
            "t i",
            "f i",
            "e e",
            "w an",
            "ham mad",
            "s i",
            "i l",
            "e l",
            "m i",
            "h d",
            "d a",
            "r o",
            "ab d",
            "a k",
            "e n",
            "a r",
            "an g",
            "j o",
            "an a",
            "n a",
            "a fi",
            "h j",
            "l i",
            "n o",
            "on g",
            "u n",
            "y a",
            "u s",
            "in a",
            "ma l",
            "k ha",
            "ir ul",
            "e d",
            "r ah",
            "s ha",
            "al i",
            "c h",
            "j a",
            "ha z",
            "ma r",
            "ro s",
            "p u",
            "z a",
            "j i",
            "a ri",
            "pu t",
            "d y",
            "m an",
            "i q",
            "i s",
            "f iz",
            "z ul",
            "l e",
            "hj h",
            "a di",
            "s u",
            "a d",
            "r in",
            "c e",
            "i d",
            "ma s",
            "no r",
            "n az",
            "y an",
            "an n",
            "a t",
            "l im",
            "in i",
            "e r",
            "s h",
            "s ai",
            "c k",
            "fa t",
            "e w",
            "r ul",
            "a y",
            "l ee",
            "il ah",
            "mo ham",
            "s al",
            "i e",
            "h an",
            "sy a",
            "b o",
            "c ha",
            "ha s",
            "ab u",
            "f ul",
            "a g",
            "y us",
            "s a",
            "n i",
            "l ah",
            "h n",
            "d in",
            "d k",
            "m ah",
            "e ri",
            "k o",
            "ma t",
            "a s",
            "i b",
            "iz z",
            "t a",
            "e v",
            "d ah",
            "l an",
            "p rin",
            "j ah",
            "a w",
            "l a",
            "i k",
            "al e",
            "w ar",
            "e s",
            "k im",
            "d ee",
            "s am",
            "r u",
            "l y",
            "a q",
            "r un",
            "jo e",
            "n ab",
            "j am",
            "un g",
            "ri s",
            "s o",
            "s ar",
            "m y",
            "im i",
            "p g",
            "mo n",
            "j u",
            "no o",
            "j im",
            "b u",
            "e i",
            "ay u",
            "l in",
            "l o",
            "lo v",
            "ri z",
            "j en",
            "c in",
            "a ti",
            "f ah",
            "t an",
            "j un",
            "f ir",
            "l ai",
            "si i",
            "v in",
            "am y",
            "k u",
            "b el",
            "i a",
            "j ul",
            "fa d",
            "v id",
            "s ul",
            "a in",
            "l il",
            "bo y",
            "s s",
            "e f",
            "n is",
            "d e",
            "c t",
            "k i",
            "ji b",
            "b run",
            "e p",
            "t on",
            "s im",
            "en g",
            "u mi",
            "i da",
            "r am",
            "z ee",
            "f an",
            "iz za",
            "e t",
            "k a",
            "fa ri",
            "na s",
            "z ah",
            "el y",
            "u m",
            "fi q",
            "ak u",
            "d ew",
            "s ri",
            "kha ir",
            "h il",
            "aw g",
            "f ai",
            "z ai",
            "w i",
            "ly n",
            "i ma",
            "ra y",
            "ee m",
            "n y",
            "b al",
            "ro y",
            "na di",
            "ad e",
            "iz a",
            "n ah",
            "ee n",
            "d ann",
            "m in",
            "p a",
            "da r",
            "s t",
            "bo b",
            "y ah",
            "h on",
            "y un",
            "e m",
            "u z",
            "fa uz",
            "s an",
            "mi a",
            "ja y",
            "d ra",
            "a sy",
            "h el",
            "f ee",
            "b ro",
            "k h",
            "p ak",
            "mu n",
            "p et",
            "r d",
            "ha r",
            "ha ik",
            "e z",
            "h md",
            "d en",
            "j ef",
            "k e",
            "ma z",
            "j an",
            "b ib",
            "e ko",
            "s on",
            "s ep",
            "w ah",
            "y u",
            "ma y",
            "kha li",
            "a ha",
            "c aha",
            "f wan",
            "at ri",
            "d din",
            "u ddin",
            "su ha",
            "a j",
            "u f",
            "r ed",
            "n iz",
            "s ah",
            "jo y",
            "le o",
            "ra t",
            "r ab",
            "ra f",
            "c en",
            "j ak",
            "m im",
            "vin cen",
            "e ra",
            "ya t",
            "a dy",
            "w in",
            "w ai",
            "ai di",
            "e di",
            "ma i",
            "b ah",
            "k ri",
            "t h",
            "fa kh",
            "b en",
            "d r",
            "g ra",
            "k ev",
            "an dr",
            "j on",
            "r az",
            "z am",
            "ir le",
            "at han",
            "sh irle",
            "a ji",
            "b er",
            "f en",
            "n an",
            "le h",
            "d am",
            "h ida",
            "i i",
            "ha md",
            "na d",
            "b un",
            "y az",
            "g a",
            "h wan",
            "r han",
            "w il",
            "f er",
            "s us",
            "ni fer",
            "k at",
            "in ah",
            "li a",
            "h li",
            "i an",
            "s ab",
            "z ie",
            "ab g",
            "h i",
            "i f",
            "ma su",
            "su ri",
            "b e",
            "ev ely",
            "b ar",
            "s k",
            "ha h",
            "so f",
            "b ak",
            "h m",
            "k an",
            "is kan",
            "a p",
            "d wi",
            "m ed",
            "t in",
            "mo h",
            "mu s",
            "ti a",
            "q ah",
            "r an",
            "t ri",
            "s el",
            "ni a",
            "a iz",
            "b atri",
            "p ar",
            "k eem",
            "da k",
            "fa ru",
            "g il",
            "r ai",
            "t e",
            "x ii",
            "a ya",
            "g ee",
            "s ur",
            "ri fah",
            "am o",
            "fi an",
            "e y",
            "m ir",
            "s e",
            "f u",
            "f ri",
            "j ai",
            "k ar",
            "o f",
            "y en",
            "b az",
            "m ei",
            "u kri",
            "z iq",
            "g o",
            "h o",
            "u ar",
            "im in",
            "go h",
            "e za",
            "n g",
            "p ri",
            "r ee",
            "t o",
            "fat h",
            "l u",
            "q man",
            "e ka",
            "g ir",
            "h en",
            "t ul",
            "y ul",
            "z u",
            "il i",
            "en c",
            "b in",
            "d ed",
            "h us",
            "h er",
            "i fa",
            "p le",
            "s in",
            "u a",
            "w az",
            "z ak",
            "mu th",
            "b am",
            "h s",
            "l am",
            "p ai",
            "s lam",
            "mo r",
            "f li",
            "k ay",
            "n u",
            "o l",
            "y ee",
            "b ab",
            "s atri",
            "u fiq",
            "ang ir",
            "g eng",
            "l lah",
            "q aw",
            "w ee",
            "ha fi",
            "ah e",
            "b la",
            "k si",
            "s ak",
            "w aw",
            "di jah",
            "sy ia",
            "le ksi",
            "e ik",
            "g u",
            "k am",
            "m ul",
            "ma is",
            "ar ah",
            "ar ju",
            "te gu",
            "f y",
            "p on",
            "z an",
            "am ee",
            "be h",
            "d u",
            "m el",
            "ya p",
            "dy g",
            "ko h",
            "k ah",
            "w ir",
            "sy ari",
            "j ann",
            "w is",
            "na uf",
            "dar wis",
            "a pa",
            "f o",
            "k ed",
            "z al",
            "ha si",
            "ma im",
            "un i",
            "un ah",
            "fo o",
            "b ul",
            "d ul",
            "i t",
            "am pu",
            "j ar",
            "o irul",
            "z ale",
            "a an",
            "a ch",
            "b i",
            "d el",
            "i en",
            "t ah",
            "t ai",
            "sy ak",
            "sal bi",
            "cin g",
            "wi sy",
            "k y",
            "m ur",
            "m my",
            "p ur",
            "q is",
            "t u",
            "ur ah",
            "en al",
            "no h",
            "su zu",
            "a ul",
            "c ak",
            "e a",
            "h ee",
            "i el",
            "o r",
            "ha iq",
            "mu h",
            "si di",
            "iq in",
            "ce r",
            "b ai",
            "o k",
            "o on",
            "q ri",
            "q ai",
            "ha imin",
            "ro l",
            "na si",
            "ev o",
            "kat ok",
            "a si",
            "c ii",
            "n z",
            "r us",
            "ma wi",
            "sy id",
            "na wi",
            "adi ah",
            "sh ik",
            "b is",
            "d ai",
            "d hwan",
            "h yun",
            "m enc",
            "n es",
            "q ib",
            "u fi",
            "ma ji",
            "ri l",
            "ai hi",
            "sy di",
            "on o",
            "na qib",
            "e ki",
            "i o",
            "i hah",
            "p en",
            "q ee",
            "r ez",
            "v io",
            "z har",
            "de kar",
            "a fy"
        ]
    }
}