{
  "version": "1.0",
  "truncation": null,
  "padding": null,
  "added_tokens": [
    {
      "id": 0,
      "content": "[UNK]",
      "single_word": false,
      "lstrip": false,
      "rstrip": false,
      "normalized": false,
      "special": true
    },
    {
      "id": 1,
      "content": "[CLS]",
      "single_word": false,
      "lstrip": false,
      "rstrip": false,
      "normalized": false,
      "special": true
    },
    {
      "id": 2,
      "content": "[SEP]",
      "single_word": false,
      "lstrip": false,
      "rstrip": false,
      "normalized": false,
      "special": true
    },
    {
      "id": 3,
      "content": "[PAD]",
      "single_word": false,
      "lstrip": false,
      "rstrip": false,
      "normalized": false,
      "special": true
    },
    {
      "id": 4,
      "content": "[MASK]",
      "single_word": false,
      "lstrip": false,
      "rstrip": false,
      "normalized": false,
      "special": true
    }
  ],
  "normalizer": null,
  "pre_tokenizer": {
    "type": "Whitespace"
  },
  "post_processor": null,
  "decoder": null,
  "model": {
    "type": "BPE",
    "dropout": null,
    "unk_token": "[UNK]",
    "continuing_subword_prefix": null,
    "end_of_word_suffix": null,
    "fuse_unk": false,
    "vocab": {
      "[UNK]": 0,
      "[CLS]": 1,
      "[SEP]": 2,
      "[PAD]": 3,
      "[MASK]": 4,
      "a": 5,
      "b": 6,
      "c": 7,
      "d": 8,
      "e": 9,
      "f": 10,
      "g": 11,
      "h": 12,
      "i": 13,
      "j": 14,
      "k": 15,
      "l": 16,
      "m": 17,
      "n": 18,
      "o": 19,
      "p": 20,
      "q": 21,
      "r": 22,
      "s": 23,
      "t": 24,
      "u": 25,
      "v": 26,
      "w": 27,
      "x": 28,
      "y": 29,
      "z": 30,
      "ha": 31,
      "ma": 32,
      "ra": 33,
      "sa": 34,
      "ed": 35,
      "mo": 36,
      "ham": 37,
      "sh": 38,
      "ab": 39,
      "na": 40,
      "al": 41,
      "moham": 42,
      "ah": 43,
      "md": 44,
      "mad": 45,
      "med": 46,
      "ul": 47,
      "sha": 48,
      "ee": 49,
      "an": 50,
      "fa": 51,
      "ri": 52,
      "am": 53,
      "abd": 54,
      "abdul": 55,
      "ja": 56,
      "esh": 57,
      "man": 58,
      "se": 59,
      "ahmed": 60,
      "in": 61,
      "mu": 62,
      "su": 63,
      "ali": 64,
      "ar": 65,
      "mohamed": 66,
      "ik": 67,
      "il": 68,
      "sal": 69,
      "raj": 70,
      "ir": 71,
      "mohammed": 72,
      "mar": 73,
      "ba": 74,
      "san": 75,
      "im": 76,
      "kha": 77,
      "id": 78,
      "rah": 79,
      "ou": 80,
      "mohammad": 81,
      "ya": 82,
      "ka": 83,
      "el": 84,
      "mal": 85,
      "shaik": 86,
      "th": 87,
      "er": 88,
      "han": 89,
      "khal": 90,
      "sam": 91,
      "ta": 92,
      "mari": 93,
      "ahmad": 94,
      "moh": 95,
      "abdull": 96,
      "ad": 97,
      "mah": 98,
      "oo": 99,
      "ram": 100,
      "az": 101,
      "en": 102,
      "ku": 103,
      "had": 104,
      "abdullah": 105,
      "vi": 106,
      "jo": 107,
      "eer": 108,
      "hamad": 109,
      "abu": 110,
      "ak": 111,
      "sara": 112,
      "ud": 113,
      "iz": 114,
      "nu": 115,
      "eem": 116,
      "as": 117,
      "ran": 118,
      "es": 119,
      "ji": 120,
      "you": 121,
      "muham": 122,
      "hu": 123,
      "jay": 124,
      "khaled": 125,
      "raju": 126,
      "fat": 127,
      "nas": 128,
      "ser": 129,
      "ib": 130,
      "pra": 131,
      "mahmo": 132,
      "fahad": 133,
      "dra": 134,
      "yed": 135,
      "raf": 136,
      "em": 137,
      "ash": 138,
      "lo": 139,
      "sef": 140,
      "eed": 141,
      "mohd": 142,
      "oor": 143,
      "ana": 144,
      "der": 145,
      "aziz": 146,
      "resh": 147,
      "eep": 148,
      "mahmoud": 149,
      "if": 150,
      "muhammad": 151,
      "ju": 152,
      "sain": 153,
      "wa": 154,
      "kar": 155,
      "kumar": 156,
      "deep": 157,
      "mi": 158,
      "rahim": 159,
      "omar": 160,
      "hus": 161,
      "shah": 162,
      "yousef": 163,
      "ro": 164,
      "far": 165,
      "abo": 166,
      "sun": 167,
      "noor": 168,
      "alal": 169,
      "sta": 170,
      "stafa": 171,
      "ramesh": 172,
      "la": 173,
      "si": 174,
      "za": 175,
      "hab": 176,
      "has": 177,
      "so": 178,
      "bader": 179,
      "lam": 180,
      "is": 181,
      "ala": 182,
      "nou": 183,
      "war": 184,
      "od": 185,
      "suresh": 186,
      "endra": 187,
      "hussain": 188,
      "va": 189,
      "hassan": 190,
      "isal": 191,
      "faisal": 192,
      "ima": 193,
      "kamal": 194,
      "ibrahim": 195,
      "khalid": 196,
      "nan": 197,
      "rak": 198,
      "rajesh": 199,
      "ga": 200,
      "rin": 201,
      "raja": 202,
      "shad": 203,
      "syed": 204,
      "lov": 205,
      "di": 206,
      "babu": 207,
      "kumari": 208,
      "saad": 209,
      "chan": 210,
      "mohamad": 211,
      "tan": 212,
      "fatma": 213,
      "een": 214,
      "du": 215,
      "pa": 216,
      "har": 217,
      "ravi": 218,
      "wal": 219,
      "vin": 220,
      "osh": 221,
      "mani": 222,
      "gan": 223,
      "rash": 224,
      "rif": 225,
      "anwar": 226,
      "mary": 227,
      "no": 228,
      "imran": 229,
      "ef": 230,
      "abul": 231,
      "ven": 232,
      "alam": 233,
      "nasser": 234,
      "eh": 235,
      "it": 236,
      "yas": 237,
      "wan": 238,
      "tar": 239,
      "mana": 240,
      "ely": 241,
      "mariam": 242,
      "ho": 243,
      "rish": 244,
      "ashraf": 245,
      "sunil": 246,
      "shan": 247,
      "sri": 248,
      "sarah": 249,
      "jamal": 250,
      "mano": 251,
      "sad": 252,
      "un": 253,
      "ay": 254,
      "maya": 255,
      "anil": 256,
      "sul": 257,
      "mun": 258,
      "din": 259,
      "sayed": 260,
      "prin": 261,
      "princ": 262,
      "iq": 263,
      "adel": 264,
      "da": 265,
      "ai": 266,
      "nir": 267,
      "khan": 268,
      "sar": 269,
      "ur": 270,
      "mostafa": 271,
      "sim": 272,
      "vijay": 273,
      "venka": 274,
      "om": 275,
      "manoj": 276,
      "siva": 277,
      "salman": 278,
      "ree": 279,
      "dana": 280,
      "amr": 281,
      "salem": 282,
      "bas": 283,
      "waleed": 284,
      "me": 285,
      "ni": 286,
      "go": 287,
      "sub": 288,
      "basha": 289,
      "maha": 290,
      "dinesh": 291,
      "rahman": 292,
      "fatima": 293,
      "jith": 294,
      "ish": 295,
      "mona": 296,
      "alaa": 297,
      "kash": 298,
      "hn": 299,
      "john": 300,
      "rani": 301,
      "krish": 302,
      "ood": 303,
      "krishna": 304,
      "hasan": 305,
      "eel": 306,
      "rose": 307,
      "sud": 308,
      "dy": 309,
      "naser": 310,
      "hari": 311,
      "ge": 312,
      "talal": 313,
      "reem": 314,
      "amir": 315,
      "he": 316,
      "salim": 317,
      "zah": 318,
      "saj": 319,
      "ru": 320,
      "mustafa": 321,
      "venkat": 322,
      "ok": 323,
      "ashok": 324,
      "saif": 325,
      "lovely": 326,
      "naz": 327,
      "she": 328,
      "tha": 329,
      "chandra": 330,
      "saleh": 331,
      "osa": 332,
      "osama": 333,
      "sameer": 334,
      "vinod": 335,
      "jose": 336,
      "shahid": 337,
      "kesh": 338,
      "sanjay": 339,
      "mahesh": 340,
      "gir": 341,
      "af": 342,
      "bal": 343,
      "mail": 344,
      "ismail": 345,
      "jahan": 346,
      "sultan": 347,
      "abdulaziz": 348,
      "srinu": 349,
      "rana": 350,
      "arif": 351,
      "nur": 352,
      "eman": 353,
      "lax": 354,
      "mas": 355,
      "ayman": 356,
      "mohan": 357,
      "shi": 358,
      "jef": 359,
      "muhammed": 360,
      "habib": 361,
      "prakash": 362,
      "dalal": 363,
      "aisha": 364,
      "dil": 365,
      "asif": 366,
      "emad": 367,
      "nara": 368,
      "joy": 369,
      "rakesh": 370,
      "abdulla": 371,
      "nasir": 372,
      "bu": 373,
      "abdulrahman": 374,
      "gf": 375,
      "abbas": 376,
      "santh": 377,
      "sk": 378,
      "waz": 379,
      "muba": 380,
      "mubarak": 381,
      "amal": 382,
      "sham": 383,
      "sonu": 384,
      "rahul": 385,
      "tare": 386,
      "ky": 387,
      "red": 388,
      "zain": 389,
      "bi": 390,
      "ch": 391,
      "ny": 392,
      "arun": 393,
      "sel": 394,
      "love": 395,
      "tosh": 396,
      "santosh": 397,
      "riya": 398,
      "amer": 399,
      "abood": 400,
      "saleem": 401,
      "suf": 402,
      "ly": 403,
      "mukesh": 404,
      "lyn": 405,
      "asma": 406,
      "gop": 407,
      "yam": 408,
      "jee": 409,
      "ina": 410,
      "bin": 411,
      "fan": 412,
      "irfan": 413,
      "on": 414,
      "re": 415,
      "nawa": 416,
      "nawaf": 417,
      "pu": 418,
      "haya": 419,
      "prasad": 420,
      "sen": 421,
      "maryam": 422,
      "hanan": 423,
      "jad": 424,
      "li": 425,
      "naresh": 426,
      "bar": 427,
      "maj": 428,
      "gh": 429,
      "bash": 430,
      "anu": 431,
      "monir": 432,
      "salah": 433,
      "ej": 434,
      "bala": 435,
      "ika": 436,
      "hos": 437,
      "cky": 438,
      "noura": 439,
      "hany": 440,
      "ajay": 441,
      "prince": 442,
      "mesha": 443,
      "fawaz": 444,
      "naga": 445,
      "hd": 446,
      "or": 447,
      "nora": 448,
      "hamed": 449,
      "thi": 450,
      "islam": 451,
      "gar": 452,
      "kan": 453,
      "ramana": 454,
      "ganesh": 455,
      "bir": 456,
      "sat": 457,
      "bil": 458,
      "fal": 459,
      "malik": 460,
      "lu": 461,
      "maria": 462,
      "veen": 463,
      "aman": 464,
      "iqbal": 465,
      "aslam": 466,
      "anan": 467,
      "jav": 468,
      "jam": 469,
      "abdur": 470,
      "sami": 471,
      "jit": 472,
      "sin": 473,
      "mans": 474,
      "was": 475,
      "eesh": 476,
      "essa": 477,
      "sheik": 478,
      "yous": 479,
      "ila": 480,
      "ramu": 481,
      "ess": 482,
      "princess": 483,
      "jahangir": 484,
      "sem": 485,
      "adnan": 486,
      "mina": 487,
      "uk": 488,
      "wael": 489,
      "faruk": 490,
      "gel": 491,
      "angel": 492,
      "sur": 493,
      "sree": 494,
      "farah": 495,
      "ti": 496,
      "ph": 497,
      "joseph": 498,
      "rawan": 499,
      "hel": 500,
      "deepak": 501,
      "pan": 502,
      "rashid": 503,
      "shaikh": 504,
      "samir": 505,
      "oz": 506,
      "jaya": 507,
      "rama": 508,
      "biju": 509,
      "rashed": 510,
      "mohm": 511,
      "zainab": 512,
      "abeer": 513,
      "nour": 514,
      "pradeep": 515,
      "arshad": 516,
      "fah": 517,
      "je": 518,
      "amin": 519,
      "sandeep": 520,
      "jas": 521,
      "said": 522,
      "salam": 523,
      "us": 524,
      "hil": 525,
      "shaf": 526,
      "fir": 527,
      "akram": 528,
      "santhosh": 529,
      "kareem": 530,
      "gfj": 531,
      "akbar": 532,
      "cha": 533,
      "lal": 534,
      "zal": 535,
      "javed": 536,
      "tarek": 537,
      "deem": 538,
      "nadeem": 539,
      "gopal": 540,
      "saud": 541,
      "bel": 542,
      "ani": 543,
      "arju": 544,
      "chand": 545,
      "arjun": 546,
      "tah": 547,
      "nil": 548,
      "riq": 549,
      "tariq": 550,
      "shahad": 551,
      "fath": 552,
      "hamada": 553,
      "munna": 554,
      "fathima": 555,
      "dav": 556,
      "pr": 557,
      "mood": 558,
      "prem": 559,
      "ulam": 560,
      "reddy": 561,
      "mesh": 562,
      "ki": 563,
      "mon": 564,
      "ren": 565,
      "raa": 566,
      "laila": 567,
      "lolo": 568,
      "laxmi": 569,
      "shab": 570,
      "ce": 571,
      "gra": 572,
      "grace": 573,
      "salma": 574,
      "mem": 575,
      "meme": 576,
      "amjad": 577,
      "de": 578,
      "elyn": 579,
      "mod": 580,
      "heba": 581,
      "malak": 582,
      "oud": 583,
      "james": 584,
      "kir": 585,
      "jakir": 586,
      "lah": 587,
      "allah": 588,
      "abdallah": 589,
      "vind": 590,
      "lak": 591,
      "shmi": 592,
      "lakshmi": 593,
      "rim": 594,
      "karim": 595,
      "yasser": 596,
      "sajid": 597,
      "marie": 598,
      "faroo": 599,
      "vas": 600,
      "basheer": 601,
      "ip": 602,
      "abdo": 603,
      "dilip": 604,
      "geor": 605,
      "george": 606,
      "omas": 607,
      "sankar": 608,
      "thomas": 609,
      "eera": 610,
      "muru": 611,
      "roshan": 612,
      "sudha": 613,
      "jean": 614,
      "ulu": 615,
      "masud": 616,
      "miz": 617,
      "hani": 618,
      "mizan": 619,
      "hamza": 620,
      "jan": 621,
      "ub": 622,
      "jane": 623,
      "ex": 624,
      "alex": 625,
      "ez": 626,
      "venkatesh": 627,
      "zwan": 628,
      "rizwan": 629,
      "asmaa": 630,
      "babul": 631,
      "ejf": 632,
      "sein": 633,
      "inna": 634,
      "hussein": 635,
      "chinna": 636,
      "mag": 637,
      "micha": 638,
      "michael": 639,
      "nada": 640,
      "zak": 641,
      "rafiq": 642,
      "saiful": 643,
      "zakir": 644,
      "ameer": 645,
      "hana": 646,
      "dam": 647,
      "rajan": 648,
      "harun": 649,
      "nag": 650,
      "shak": 651,
      "meshal": 652,
      "bilal": 653,
      "hossam": 654,
      "adam": 655,
      "siraj": 656,
      "usman": 657,
      "madhu": 658,
      "shaji": 659,
      "nona": 660,
      "manik": 661,
      "sameh": 662,
      "sulai": 663,
      "sulaiman": 664,
      "bab": 665,
      "firoz": 666,
      "jen": 667,
      "jenny": 668,
      "manal": 669,
      "saeed": 670,
      "edc": 671,
      "jafar": 672,
      "subba": 673,
      "amina": 674,
      "sumon": 675,
      "wahab": 676,
      "umesh": 677,
      "praveen": 678,
      "mahal": 679,
      "suman": 680,
      "ey": 681,
      "ney": 682,
      "honey": 683,
      "anas": 684,
      "shankar": 685,
      "mohsen": 686,
      "pat": 687,
      "htar": 688,
      "priya": 689,
      "zahid": 690,
      "nadi": 691,
      "nadia": 692,
      "muth": 693,
      "muthu": 694,
      "asha": 695,
      "hameed": 696,
      "sohel": 697,
      "amar": 698,
      "hash": 699,
      "hala": 700,
      "hayat": 701,
      "usuf": 702,
      "yusuf": 703,
      "husain": 704,
      "riyaz": 705,
      "mark": 706,
      "nisha": 707,
      "renu": 708,
      "jab": 709,
      "hat": 710,
      "shiva": 711,
      "jaber": 712,
      "amit": 713,
      "kaj": 714,
      "nurul": 715,
      "pankaj": 716,
      "khalil": 717,
      "anand": 718,
      "aj": 719,
      "rali": 720,
      "sath": 721,
      "murali": 722,
      "yousuf": 723,
      "tamer": 724,
      "laxman": 725,
      "sunny": 726,
      "david": 727,
      "hail": 728,
      "ansar": 729,
      "fahd": 730,
      "mamun": 731,
      "rar": 732,
      "abrar": 733,
      "lulu": 734,
      "rasheed": 735,
      "hit": 736,
      "rul": 737,
      "rohit": 738,
      "nazrul": 739,
      "eslam": 740,
      "celyn": 741,
      "jocelyn": 742,
      "cel": 743,
      "rajkumar": 744,
      "maricel": 745,
      "pramod": 746,
      "kam": 747,
      "lesh": 748,
      "nirmal": 749,
      "kamlesh": 750,
      "ehab": 751,
      "abid": 752,
      "vicky": 753,
      "ganga": 754,
      "mansoor": 755,
      "binu": 756,
      "mohmed": 757,
      "pin": 758,
      "fares": 759,
      "kannan": 760,
      "ghad": 761,
      "jojo": 762,
      "manu": 763,
      "afzal": 764,
      "ced": 765,
      "soud": 766,
      "rita": 767,
      "kab": 768,
      "owar": 769,
      "jasim": 770,
      "essam": 771,
      "shabbir": 772,
      "kabir": 773,
      "sana": 774,
      "jalal": 775,
      "jah": 776,
      "may": 777,
      "irshad": 778,
      "sanju": 779,
      "sheikh": 780,
      "kiran": 781,
      "fha": 782,
      "shafi": 783,
      "wali": 784,
      "harish": 785,
      "madan": 786,
      "rafee": 787,
      "walid": 788,
      "shamim": 789,
      "hadi": 790,
      "waseem": 791,
      "dina": 792,
      "ivas": 793,
      "srin": 794,
      "srinivas": 795,
      "maz": 796,
      "brahim": 797,
      "ebrahim": 798,
      "gamal": 799,
      "jassim": 800,
      "gina": 801,
      "thil": 802,
      "senthil": 803,
      "stha": 804,
      "nana": 805,
      "jana": 806,
      "mustha": 807,
      "murugan": 808,
      "musthafa": 809,
      "ajith": 810,
      "rga": 811,
      "durga": 812,
      "mena": 813,
      "shyam": 814,
      "bablu": 815,
      "sharif": 816,
      "rafi": 817,
      "mohmmad": 818,
      "hud": 819,
      "huda": 820,
      "sagar": 821,
      "marwa": 822,
      "singh": 823,
      "alta": 824,
      "madu": 825,
      "sherif": 826,
      "nilu": 827,
      "altaf": 828,
      "bo": 829,
      "eev": 830,
      "samar": 831,
      "mahmood": 832,
      "jitendra": 833,
      "hanif": 834,
      "lucky": 835,
      "nasar": 836,
      "samy": 837,
      "youssef": 838,
      "van": 839,
      "saji": 840,
      "riyas": 841,
      "rajendra": 842,
      "liz": 843,
      "umar": 844,
      "muneer": 845,
      "liza": 846,
      "bha": 847,
      "lit": 848,
      "rat": 849,
      "bharat": 850,
      "liton": 851,
      "saddam": 852,
      "asad": 853,
      "ita": 854,
      "oth": 855,
      "sunita": 856,
      "othman": 857,
      "sabir": 858,
      "noushad": 859,
      "samer": 860,
      "manju": 861,
      "narasim": 862,
      "haji": 863,
      "suraj": 864,
      "surendra": 865,
      "hamood": 866,
      "naseer": 867,
      "yan": 868,
      "ranjit": 869,
      "narayan": 870,
      "alamgir": 871,
      "nab": 872,
      "nabil": 873,
      "maher": 874,
      "hes": 875,
      "surya": 876,
      "hesham": 877,
      "jer": 878,
      "fajer": 879,
      "hamid": 880,
      "yousif": 881,
      "rasha": 882,
      "shib": 883,
      "shibu": 884,
      "mohsin": 885,
      "shahin": 886,
      "subbu": 887,
      "medo": 888,
      "misha": 889,
      "aya": 890,
      "naeem": 891,
      "nader": 892,
      "yaz": 893,
      "kamr": 894,
      "kamrul": 895,
      "shajahan": 896,
      "sudu": 897,
      "mahendra": 898,
      "sudhakar": 899,
      "dar": 900,
      "gdi": 901,
      "jagdi": 902,
      "arman": 903,
      "jagdish": 904,
      "mohmad": 905,
      "sita": 906,
      "gfi": 907,
      "reda": 908,
      "sreenu": 909,
      "ena": 910,
      "wena": 911,
      "rowena": 912,
      "rehan": 913,
      "his": 914,
      "tes": 915,
      "marites": 916,
      "hisham": 917,
      "mid": 918,
      "many": 919,
      "pawan": 920,
      "mido": 921,
      "niz": 922,
      "nisar": 923,
      "nizam": 924,
      "satish": 925,
      "zem": 926,
      "hazem": 927,
      "sahil": 928,
      "belal": 929,
      "naif": 930,
      "azad": 931,
      "ramy": 932,
      "devi": 933,
      "sai": 934,
      "kumare": 935,
      "tam": 936,
      "sari": 937,
      "ansari": 938,
      "wasim": 939,
      "gulam": 940,
      "farhan": 941,
      "eef": 942,
      "tahir": 943,
      "patel": 944,
      "mahdi": 945,
      "shnu": 946,
      "vishnu": 947,
      "majed": 948,
      "ahamed": 949,
      "mastan": 950,
      "tareq": 951,
      "akhil": 952,
      "ayub": 953,
      "muna": 954,
      "shaikha": 955,
      "shim": 956,
      "jashim": 957,
      "thik": 958,
      "karthik": 959,
      "nouf": 960,
      "dul": 961,
      "mujee": 962,
      "dulal": 963,
      "mujeeb": 964,
      "adil": 965,
      "hossain": 966,
      "venkata": 967,
      "imaa": 968,
      "abdu": 969,
      "magdy": 970,
      "ban": 971,
      "hessa": 972,
      "at": 973,
      "tab": 974,
      "nor": 975,
      "aftab": 976,
      "atef": 977,
      "vanan": 978,
      "saravanan": 979,
      "ota": 980,
      "tota": 981,
      "ejh": 982,
      "ema": 983,
      "our": 984,
      "fatema": 985,
      "balu": 986,
      "mansour": 987,
      "min": 988,
      "aneesh": 989,
      "shahul": 990,
      "manar": 991,
      "ammar": 992,
      "sanu": 993,
      "subash": 994,
      "zahra": 995,
      "cham": 996,
      "sasi": 997,
      "zaid": 998,
      "meshari": 999,
      "naveen": 1000,
      "mohamd": 1001,
      "satya": 1002,
      "zi": 1003,
      "kazi": 1004,
      "farooq": 1005,
      "mir": 1006,
      "mirza": 1007,
      "akash": 1008,
      "malli": 1009,
      "sharee": 1010,
      "shareef": 1011,
      "taher": 1012,
      "kul": 1013,
      "kuldeep": 1014,
      "arvind": 1015,
      "kasim": 1016,
      "mohmmed": 1017,
      "zafar": 1018,
      "sajjad": 1019,
      "selam": 1020,
      "analyn": 1021,
      "gj": 1022,
      "kal": 1023,
      "rubel": 1024,
      "kaled": 1025,
      "nagendra": 1026,
      "shosh": 1027,
      "shosho": 1028,
      "manish": 1029,
      "taj": 1030,
      "rafik": 1031,
      "shakeel": 1032,
      "pon": 1033,
      "ripon": 1034,
      "nazeer": 1035,
      "azhar": 1036,
      "binod": 1037,
      "ghulam": 1038,
      "ooz": 1039,
      "azooz": 1040,
      "pak": 1041,
      "dipak": 1042,
      "majid": 1043,
      "zad": 1044,
      "shahzad": 1045,
      "govind": 1046,
      "amani": 1047,
      "kalam": 1048,
      "billal": 1049,
      "falah": 1050,
      "rasel": 1051,
      "anish": 1052,
      "bassam": 1053,
      "sarath": 1054,
      "shameer": 1055,
      "gopi": 1056,
      "narasimha": 1057,
      "akhtar": 1058,
      "ranjith": 1059,
      "wad": 1060,
      "yana": 1061,
      "narayana": 1062,
      "renuka": 1063,
      "ppu": 1064,
      "pappu": 1065,
      "nagaraju": 1066,
      "anowar": 1067,
      "jasem": 1068,
      "yaser": 1069,
      "kamala": 1070,
      "alamin": 1071,
      "jassem": 1072,
      "rajeev": 1073,
      "dhar": 1074,
      "mendra": 1075,
      "naseem": 1076,
      "latha": 1077,
      "farook": 1078,
      "dharmendra": 1079,
      "anusha": 1080,
      "lou": 1081,
      "marilou": 1082,
      "sathish": 1083,
      "tham": 1084,
      "thamer": 1085,
      "sahar": 1086,
      "yasin": 1087,
      "pandu": 1088,
      "majeed": 1089,
      "aseel": 1090,
      "subhash": 1091,
      "kish": 1092,
      "nawal": 1093,
      "ameen": 1094,
      "rafeek": 1095,
      "kishor": 1096,
      "iah": 1097,
      "taha": 1098,
      "esraa": 1099,
      "soma": 1100,
      "hait": 1101,
      "anji": 1102,
      "dev": 1103,
      "haitham": 1104,
      "esha": 1105,
      "ayesha": 1106,
      "hmood": 1107,
      "vam": 1108,
      "selvam": 1109,
      "helal": 1110,
      "ghada": 1111,
      "veed": 1112,
      "naveed": 1113,
      "bashar": 1114,
      "mara": 1115,
      "faa": 1116,
      "kumara": 1117,
      "wafaa": 1118,
      "sunit": 1119,
      "rakan": 1120,
      "sunitha": 1121,
      "gur": 1122,
      "pree": 1123,
      "eez": 1124,
      "azeez": 1125,
      "hatem": 1126,
      "gurpree": 1127,
      "gurpreet": 1128,
      "rania": 1129,
      "nazim": 1130,
      "abod": 1131,
      "dha": 1132,
      "rath": 1133,
      "radha": 1134,
      "saman": 1135,
      "vijaya": 1136,
      "sohail": 1137,
      "ratheesh": 1138,
      "fj": 1139,
      "anoo": 1140,
      "romany": 1141,
      "fjd": 1142,
      "anoop": 1143,
      "zaheer": 1144,
      "shafiq": 1145,
      "tu": 1146,
      "khader": 1147,
      "pintu": 1148,
      "faiz": 1149,
      "veer": 1150,
      "tanveer": 1151,
      "yaseen": 1152,
      "nirmala": 1153,
      "salwa": 1154,
      "soso": 1155,
      "waled": 1156,
      "shakil": 1157,
      "shpa": 1158,
      "pushpa": 1159,
      "chandan": 1160,
      "bish": 1161,
      "fja": 1162,
      "mil": 1163,
      "maham": 1164,
      "ramadan": 1165,
      "eeb": 1166,
      "habeeb": 1167,
      "chandu": 1168,
      "bishnu": 1169,
      "milon": 1170,
      "mahammad": 1171,
      "sadi": 1172,
      "puja": 1173,
      "sadiq": 1174,
      "hamdy": 1175,
      "abdulwahab": 1176,
      "hadeel": 1177,
      "balaji": 1178,
      "nagesh": 1179,
      "pavan": 1180,
      "jahir": 1181,
      "osef": 1182,
      "yosef": 1183,
      "wood": 1184,
      "deepa": 1185,
      "dawood": 1186,
      "baz": 1187,
      "shahbaz": 1188,
      "noha": 1189,
      "dd": 1190,
      "osha": 1191,
      "nirosha": 1192,
      "ddg": 1193,
      "fahed": 1194,
      "gud": 1195,
      "haid": 1196,
      "art": 1197,
      "heart": 1198,
      "selva": 1199,
      "guddu": 1200,
      "haider": 1201,
      "hosam": 1202,
      "mishal": 1203,
      "bhas": 1204,
      "dhari": 1205,
      "yez": 1206,
      "ahmd": 1207,
      "fayez": 1208,
      "mazen": 1209,
      "bhaskar": 1210,
      "amna": 1211,
      "khaja": 1212,
      "aa": 1213,
      "ber": 1214,
      "do": 1215,
      "saber": 1216,
      "azam": 1217,
      "shanti": 1218,
      "hema": 1219,
      "doaa": 1220,
      "gad": 1221,
      "gangad": 1222,
      "dileep": 1223,
      "gangadhar": 1224,
      "raed": 1225,
      "noo": 1226,
      "veera": 1227,
      "sujith": 1228,
      "kanthi": 1229,
      "noora": 1230,
      "rta": 1231,
      "medhat": 1232,
      "murta": 1233,
      "murtaza": 1234,
      "lika": 1235,
      "rendra": 1236,
      "narendra": 1237,
      "sanjee": 1238,
      "mallika": 1239,
      "hashem": 1240,
      "sanjeev": 1241,
      "ranjee": 1242,
      "ranjeet": 1243,
      "mahab": 1244,
      "sampa": 1245,
      "mahabub": 1246,
      "sampath": 1247,
      "ushad": 1248,
      "naushad": 1249,
      "ail": 1250,
      "suhail": 1251,
      "maged": 1252,
      "fazal": 1253,
      "dr": 1254,
      "badr": 1255,
      "sameera": 1256,
      "golam": 1257,
      "shiv": 1258,
      "haf": 1259,
      "masu": 1260,
      "rahaf": 1261,
      "karam": 1262,
      "masum": 1263,
      "venu": 1264,
      "hid": 1265,
      "sahid": 1266,
      "ghe": 1267,
      "var": 1268,
      "anfal": 1269,
      "lokesh": 1270,
      "vasu": 1271,
      "reham": 1272,
      "ghese": 1273,
      "varghese": 1274,
      "nal": 1275,
      "jarah": 1276,
      "basem": 1277,
      "azoz": 1278,
      "joynal": 1279,
      "khtar": 1280,
      "mukhtar": 1281,
      "sekar": 1282,
      "khadar": 1283,
      "habibi": 1284,
      "basel": 1285,
      "nus": 1286,
      "younus": 1287,
      "momin": 1288,
      "par": 1289,
      "ter": 1290,
      "vez": 1291,
      "marivi": 1292,
      "akter": 1293,
      "parvez": 1294,
      "marivic": 1295,
      "vipin": 1296,
      "sajan": 1297,
      "afsar": 1298,
      "satheesh": 1299,
      "jahid": 1300,
      "ravin": 1301,
      "anju": 1302,
      "ravindra": 1303,
      "lali": 1304,
      "raheem": 1305,
      "uddin": 1306,
      "shaheen": 1307,
      "alauddin": 1308,
      "lalit": 1309,
      "mannan": 1310,
      "jameel": 1311,
      "sabu": 1312,
      "zahraa": 1313,
      "mazhar": 1314,
      "yani": 1315,
      "rahem": 1316,
      "ibrahem": 1317,
      "efi": 1318,
      "sriyani": 1319,
      "reji": 1320,
      "tur": 1321,
      "turki": 1322,
      "eid": 1323,
      "meen": 1324,
      "raman": 1325,
      "asraf": 1326,
      "yasmeen": 1327,
      "subraman": 1328,
      "subramanyam": 1329,
      "rambabu": 1330,
      "shiju": 1331,
      "eg": 1332,
      "nho": 1333,
      "uma": 1334,
      "fatuma": 1335,
      "ghadeer": 1336,
      "nhor": 1337,
      "shta": 1338,
      "mushta": 1339,
      "reema": 1340,
      "meraj": 1341,
      "mushtaq": 1342,
      "monu": 1343,
      "shihab": 1344,
      "nay": 1345,
      "ouse": 1346,
      "vinay": 1347,
      "santhi": 1348,
      "ghouse": 1349,
      "shaimaa": 1350,
      "manohar": 1351,
      "hman": 1352,
      "heer": 1353,
      "rhman": 1354,
      "abdulrhman": 1355,
      "sudheer": 1356,
      "tamil": 1357,
      "imti": 1358,
      "imtiyaz": 1359,
      "haja": 1360,
      "bindu": 1361,
      "gis": 1362,
      "shou": 1363,
      "mohammd": 1364,
      "tigis": 1365,
      "shoug": 1366,
      "tigist": 1367,
      "ahamad": 1368,
      "fhd": 1369,
      "than": 1370,
      "fayaz": 1371,
      "masthan": 1372,
      "mizanur": 1373,
      "pal": 1374,
      "sekha": 1375,
      "ikaw": 1376,
      "amany": 1377,
      "shabeer": 1378,
      "rafiqul": 1379,
      "palani": 1380,
      "sekhar": 1381,
      "mahmod": 1382,
      "ashik": 1383,
      "rinku": 1384,
      "efj": 1385,
      "kabeer": 1386,
      "ilash": 1387,
      "kailash": 1388,
      "mariyam": 1389,
      "khaleel": 1390,
      "samim": 1391,
      "gee": 1392,
      "bijay": 1393,
      "sreejith": 1394,
      "geetha": 1395,
      "et": 1396,
      "esam": 1397,
      "gen": 1398,
      "mul": 1399,
      "shanthi": 1400,
      "ruwan": 1401,
      "nazmul": 1402,
      "genet": 1403,
      "haneen": 1404,
      "saju": 1405,
      "nawaz": 1406,
      "inda": 1407,
      "sanna": 1408,
      "prasanna": 1409,
      "rafeeq": 1410,
      "chaminda": 1411,
      "dan": 1412,
      "andan": 1413,
      "faq": 1414,
      "ashfaq": 1415,
      "manikandan": 1416,
      "by": 1417,
      "bik": 1418,
      "rrah": 1419,
      "sika": 1420,
      "rasika": 1421,
      "sadu": 1422,
      "jarrah": 1423,
      "joby": 1424,
      "unni": 1425,
      "bander": 1426,
      "bikash": 1427,
      "saduni": 1428,
      "awad": 1429,
      "ratan": 1430,
      "yadav": 1431,
      "wraa": 1432,
      "hawraa": 1433,
      "eswar": 1434,
      "mamd": 1435,
      "ouh": 1436,
      "mahbu": 1437,
      "mamdouh": 1438,
      "mahbub": 1439,
      "bh": 1440,
      "hul": 1441,
      "lani": 1442,
      "ruhul": 1443,
      "bhim": 1444,
      "lanie": 1445,
      "kthi": 1446,
      "sakthi": 1447,
      "moin": 1448,
      "niluka": 1449,
      "mahamad": 1450,
      "ees": 1451,
      "anees": 1452,
      "jatha": 1453,
      "sujatha": 1454,
      "asgar": 1455,
      "prasanth": 1456,
      "retaj": 1457,
      "del": 1458,
      "ng": 1459,
      "oj": 1460,
      "aktar": 1461,
      "song": 1462,
      "noufal": 1463,
      "anilkumar": 1464,
      "jeevan": 1465,
      "pusong": 1466,
      "sattar": 1467,
      "faleh": 1468,
      "firoj": 1469,
      "delowar": 1470,
      "dhd": 1471,
      "shadab": 1472,
      "dhdh": 1473,
      "ghu": 1474,
      "iju": 1475,
      "jji": 1476,
      "ttam": 1477,
      "uttam": 1478,
      "raghu": 1479,
      "baiju": 1480,
      "bujji": 1481,
      "oma": 1482,
      "shanu": 1483,
      "anoma": 1484,
      "danah": 1485,
      "sajith": 1486,
      "abdus": 1487,
      "saed": 1488,
      "musaed": 1489,
      "patan": 1490,
      "khalaf": 1491,
      "kanti": 1492,
      "bandar": 1493,
      "yer": 1494,
      "bashayer": 1495,
      "aminul": 1496,
      "jal": 1497,
      "wer": 1498,
      "navas": 1499,
      "anwer": 1500,
      "deepu": 1501,
      "chandran": 1502,
      "renjith": 1503,
      "jaleel": 1504,
      "pendra": 1505,
      "upendra": 1506,
      "saoud": 1507,
      "pathan": 1508,
      "syam": 1509,
      "saya": 1510,
      "santha": 1511,
      "theef": 1512,
      "wasantha": 1513,
      "karthi": 1514,
      "latheef": 1515,
      "sayad": 1516,
      "mohin": 1517,
      "gesan": 1518,
      "murugesan": 1519,
      "dik": 1520,
      "sid": 1521,
      "hamod": 1522,
      "saidul": 1523,
      "siddik": 1524,
      "mika": 1525,
      "velyn": 1526,
      "jovelyn": 1527,
      "dammika": 1528,
      "vijayan": 1529,
      "baskar": 1530,
      "dika": 1531,
      "raz": 1532,
      "faraz": 1533,
      "indika": 1534,
      "sarfaraz": 1535,
      "habibur": 1536,
      "yud": 1537,
      "rayud": 1538,
      "shamshad": 1539,
      "subbarayud": 1540,
      "subbarayudu": 1541,
      "qs": 1542,
      "maqs": 1543,
      "jumana": 1544,
      "akhilesh": 1545,
      "maqsood": 1546,
      "anbu": 1547,
      "chamila": 1548,
      "khu": 1549,
      "rsh": 1550,
      "shimaa": 1551,
      "ammu": 1552,
      "nishad": 1553,
      "shamsu": 1554,
      "khursh": 1555,
      "khurshid": 1556,
      "asan": 1557,
      "iba": 1558,
      "taiba": 1559,
      "subbaiah": 1560,
      "asanka": 1561,
      "qou": 1562,
      "yaqou": 1563,
      "venky": 1564,
      "yaqoub": 1565,
      "niyas": 1566,
      "elsayed": 1567,
      "mishari": 1568,
      "oka": 1569,
      "magar": 1570,
      "inoka": 1571,
      "suba": 1572,
      "mohmd": 1573,
      "sajeev": 1574,
      "subair": 1575,
      "qer": 1576,
      "saqer": 1577,
      "javeed": 1578,
      "eefa": 1579,
      "sumesh": 1580,
      "haneefa": 1581,
      "tajul": 1582,
      "gje": 1583,
      "jmi": 1584,
      "alajmi": 1585,
      "muneera": 1586,
      "dee": 1587,
      "pana": 1588,
      "sapana": 1589,
      "mudu": 1590,
      "salm": 1591,
      "kumudu": 1592,
      "lijo": 1593,
      "deema": 1594,
      "foor": 1595,
      "nourah": 1596,
      "gafoor": 1597,
      "see": 1598,
      "shaju": 1599,
      "seenu": 1600,
      "asharaf": 1601,
      "jomon": 1602,
      "efd": 1603,
      "moid": 1604,
      "moideen": 1605,
      "mubar": 1606,
      "mubark": 1607,
      "pen": 1608,
      "laiah": 1609,
      "chalaiah": 1610,
      "penchalaiah": 1611,
      "hoor": 1612,
      "anthi": 1613,
      "sumi": 1614,
      "nilanthi": 1615,
      "sumith": 1616,
      "oom": 1617,
      "fatoom": 1618,
      "azez": 1619,
      "fhad": 1620,
      "nagar": 1621,
      "juna": 1622,
      "nagarjuna": 1623,
      "dedc": 1624,
      "nilmin": 1625,
      "nilmini": 1626,
      "wadha": 1627,
      "msha": 1628,
      "mshari": 1629,
      "eis": 1630,
      "nagaraja": 1631,
      "eissa": 1632,
      "eddy": 1633,
      "subbar": 1634,
      "subbareddy": 1635,
      "malani": 1636,
      "kw": 1637,
      "masha": 1638,
      "kwt": 1639,
      "mashael": 1640,
      "hamany": 1641,
      "babji": 1642,
      "abdulmohsen": 1643,
      "hulu": 1644,
      "narasimhulu": 1645,
      "ath": 1646,
      "athbi": 1647
    },
    "merges": [
      "h a",
      "m a",
      "r a",
      "s a",
      "e d",
      "m o",
      "ha m",
      "s h",
      "a b",
      "n a",
      "a l",
      "mo ham",
      "a h",
      "m d",
      "ma d",
      "m ed",
      "u l",
      "s ha",
      "e e",
      "a n",
      "f a",
      "r i",
      "a m",
      "ab d",
      "abd ul",
      "j a",
      "e sh",
      "ma n",
      "s e",
      "ah med",
      "i n",
      "m u",
      "s u",
      "al i",
      "a r",
      "moham ed",
      "i k",
      "i l",
      "sa l",
      "ra j",
      "i r",
      "moham med",
      "ma r",
      "b a",
      "sa n",
      "i m",
      "k ha",
      "i d",
      "ra h",
      "o u",
      "moham mad",
      "y a",
      "k a",
      "e l",
      "ma l",
      "sha ik",
      "t h",
      "e r",
      "ha n",
      "kha l",
      "sa m",
      "t a",
      "ma ri",
      "ah mad",
      "mo h",
      "abdul l",
      "a d",
      "ma h",
      "o o",
      "ra m",
      "a z",
      "e n",
      "k u",
      "ha d",
      "abdull ah",
      "v i",
      "j o",
      "ee r",
      "ha mad",
      "ab u",
      "a k",
      "sa ra",
      "u d",
      "i z",
      "n u",
      "ee m",
      "a s",
      "ra n",
      "e s",
      "j i",
      "y ou",
      "mu ham",
      "h u",
      "ja y",
      "khal ed",
      "raj u",
      "fa t",
      "na s",
      "se r",
      "i b",
      "p ra",
      "mah mo",
      "fa had",
      "d ra",
      "y ed",
      "ra f",
      "e m",
      "a sh",
      "l o",
      "se f",
      "e ed",
      "moh d",
      "oo r",
      "a na",
      "d er",
      "az iz",
      "r esh",
      "ee p",
      "mahmo ud",
      "i f",
      "muham mad",
      "j u",
      "sa in",
      "w a",
      "k ar",
      "ku mar",
      "d eep",
      "m i",
      "rah im",
      "o mar",
      "hu s",
      "sha h",
      "you sef",
      "r o",
      "fa r",
      "ab o",
      "su n",
      "n oor",
      "al al",
      "s ta",
      "sta fa",
      "ram esh",
      "l a",
      "s i",
      "z a",
      "ha b",
      "ha s",
      "s o",
      "ba der",
      "l am",
      "i s",
      "al a",
      "n ou",
      "w ar",
      "o d",
      "su resh",
      "en dra",
      "hus sain",
      "v a",
      "has san",
      "i sal",
      "fa isal",
      "i ma",
      "ka mal",
      "ib rahim",
      "khal id",
      "na n",
      "ra k",
      "raj esh",
      "g a",
      "ri n",
      "ra ja",
      "sha d",
      "s yed",
      "lo v",
      "d i",
      "b abu",
      "ku mari",
      "sa ad",
      "c han",
      "mo hamad",
      "t an",
      "fat ma",
      "ee n",
      "d u",
      "p a",
      "ha r",
      "ra vi",
      "w al",
      "v in",
      "o sh",
      "man i",
      "g an",
      "ra sh",
      "ri f",
      "an war",
      "mar y",
      "n o",
      "im ran",
      "e f",
      "ab ul",
      "v en",
      "al am",
      "nas ser",
      "e h",
      "i t",
      "ya s",
      "w an",
      "t ar",
      "ma na",
      "el y",
      "mari am",
      "h o",
      "ri sh",
      "ash raf",
      "sun il",
      "sha n",
      "s ri",
      "sa rah",
      "ja mal",
      "man o",
      "sa d",
      "u n",
      "a y",
      "ma ya",
      "an il",
      "s ul",
      "mu n",
      "d in",
      "sa yed",
      "p rin",
      "prin c",
      "i q",
      "ad el",
      "d a",
      "a i",
      "n ir",
      "kha n",
      "sa r",
      "u r",
      "mo stafa",
      "s im",
      "vi jay",
      "ven ka",
      "o m",
      "mano j",
      "si va",
      "sal man",
      "r ee",
      "d ana",
      "am r",
      "sal em",
      "ba s",
      "wal eed",
      "m e",
      "n i",
      "g o",
      "su b",
      "ba sha",
      "ma ha",
      "din esh",
      "rah man",
      "fat ima",
      "ji th",
      "i sh",
      "mo na",
      "ala a",
      "ka sh",
      "h n",
      "jo hn",
      "ran i",
      "k rish",
      "oo d",
      "krish na",
      "ha san",
      "ee l",
      "ro se",
      "su d",
      "d y",
      "na ser",
      "ha ri",
      "g e",
      "t alal",
      "r eem",
      "am ir",
      "h e",
      "sal im",
      "z ah",
      "sa j",
      "r u",
      "mu stafa",
      "venka t",
      "o k",
      "ash ok",
      "sa if",
      "lov ely",
      "na z",
      "sh e",
      "t ha",
      "chan dra",
      "sal eh",
      "o sa",
      "osa ma",
      "sam eer",
      "vin od",
      "jo se",
      "shah id",
      "k esh",
      "san jay",
      "mah esh",
      "g ir",
      "a f",
      "b al",
      "ma il",
      "is mail",
      "ja han",
      "sul tan",
      "abdul aziz",
      "sri nu",
      "ra na",
      "a rif",
      "nu r",
      "e man",
      "la x",
      "ma s",
      "ay man",
      "mo han",
      "sh i",
      "j ef",
      "muham med",
      "hab ib",
      "pra kash",
      "d alal",
      "ai sha",
      "d il",
      "as if",
      "e mad",
      "na ra",
      "jo y",
      "rak esh",
      "abdull a",
      "nas ir",
      "b u",
      "abdul rahman",
      "g f",
      "ab bas",
      "san th",
      "s k",
      "w az",
      "mu ba",
      "muba rak",
      "a mal",
      "s ham",
      "so nu",
      "rah ul",
      "tar e",
      "k y",
      "r ed",
      "za in",
      "b i",
      "c h",
      "n y",
      "ar un",
      "se l",
      "lov e",
      "t osh",
      "san tosh",
      "ri ya",
      "am er",
      "ab ood",
      "sal eem",
      "su f",
      "l y",
      "mu kesh",
      "ly n",
      "as ma",
      "go p",
      "y am",
      "j ee",
      "i na",
      "b in",
      "f an",
      "ir fan",
      "o n",
      "r e",
      "na wa",
      "nawa f",
      "p u",
      "ha ya",
      "pra sad",
      "se n",
      "mary am",
      "ha nan",
      "ja d",
      "l i",
      "na resh",
      "b ar",
      "ma j",
      "g h",
      "ba sh",
      "an u",
      "mo nir",
      "sal ah",
      "e j",
      "b ala",
      "ik a",
      "ho s",
      "c ky",
      "nou ra",
      "han y",
      "a jay",
      "princ e",
      "me sha",
      "fa waz",
      "na ga",
      "h d",
      "o r",
      "no ra",
      "ham ed",
      "th i",
      "is lam",
      "g ar",
      "k an",
      "ra mana",
      "gan esh",
      "b ir",
      "sa t",
      "b il",
      "f al",
      "mal ik",
      "l u",
      "mari a",
      "v een",
      "a man",
      "iq bal",
      "as lam",
      "ana n",
      "ja v",
      "j am",
      "abd ur",
      "sam i",
      "ji t",
      "s in",
      "man s",
      "w as",
      "ee sh",
      "es sa",
      "she ik",
      "you s",
      "il a",
      "ra mu",
      "es s",
      "princ ess",
      "jahan gir",
      "se m",
      "ad nan",
      "mi na",
      "u k",
      "wa el",
      "far uk",
      "g el",
      "an gel",
      "su r",
      "s ree",
      "fa rah",
      "t i",
      "p h",
      "jose ph",
      "ra wan",
      "h el",
      "deep ak",
      "p an",
      "rash id",
      "shaik h",
      "sam ir",
      "o z",
      "ja ya",
      "ra ma",
      "bi ju",
      "rash ed",
      "moh m",
      "zain ab",
      "ab eer",
      "nou r",
      "pra deep",
      "ar shad",
      "f ah",
      "j e",
      "am in",
      "san deep",
      "ja s",
      "sa id",
      "sal am",
      "u s",
      "h il",
      "sha f",
      "f ir",
      "ak ram",
      "santh osh",
      "kar eem",
      "gf j",
      "ak bar",
      "c ha",
      "l al",
      "z al",
      "jav ed",
      "tare k",
      "d eem",
      "na deem",
      "gop al",
      "sa ud",
      "b el",
      "an i",
      "ar ju",
      "chan d",
      "arju n",
      "t ah",
      "n il",
      "ri q",
      "ta riq",
      "sha had",
      "fa th",
      "hamad a",
      "mun na",
      "fath ima",
      "da v",
      "p r",
      "mo od",
      "pr em",
      "ul am",
      "red dy",
      "m esh",
      "k i",
      "mo n",
      "r en",
      "ra a",
      "la ila",
      "lo lo",
      "lax mi",
      "sha b",
      "c e",
      "g ra",
      "gra ce",
      "sal ma",
      "m em",
      "mem e",
      "am jad",
      "d e",
      "ely n",
      "mo d",
      "he ba",
      "mal ak",
      "ou d",
      "jam es",
      "k ir",
      "ja kir",
      "l ah",
      "al lah",
      "abd allah",
      "vin d",
      "l ak",
      "sh mi",
      "lak shmi",
      "ri m",
      "ka rim",
      "yas ser",
      "saj id",
      "mari e",
      "far oo",
      "v as",
      "bash eer",
      "i p",
      "abd o",
      "dil ip",
      "ge or",
      "geor ge",
      "o mas",
      "san kar",
      "th omas",
      "ee ra",
      "mu ru",
      "ro shan",
      "sud ha",
      "je an",
      "ul u",
      "ma sud",
      "m iz",
      "han i",
      "miz an",
      "ham za",
      "j an",
      "u b",
      "jan e",
      "e x",
      "al ex",
      "e z",
      "venkat esh",
      "z wan",
      "ri zwan",
      "asma a",
      "b abul",
      "ej f",
      "se in",
      "in na",
      "hus sein",
      "ch inna",
      "ma g",
      "mi cha",
      "micha el",
      "na da",
      "z ak",
      "raf iq",
      "saif ul",
      "zak ir",
      "am eer",
      "ha na",
      "d am",
      "raj an",
      "har un",
      "na g",
      "sha k",
      "mesha l",
      "bil al",
      "hos sam",
      "ad am",
      "si raj",
      "us man",
      "mad hu",
      "sha ji",
      "no na",
      "man ik",
      "sam eh",
      "sul ai",
      "sulai man",
      "b ab",
      "fir oz",
      "j en",
      "jen ny",
      "mana l",
      "sa eed",
      "ed c",
      "ja far",
      "sub ba",
      "am ina",
      "su mon",
      "wa hab",
      "u mesh",
      "pra veen",
      "maha l",
      "su man",
      "e y",
      "n ey",
      "ho ney",
      "a nas",
      "shan kar",
      "moh sen",
      "pa t",
      "h tar",
      "p riya",
      "zah id",
      "na di",
      "nadi a",
      "mu th",
      "muth u",
      "a sha",
      "ham eed",
      "so hel",
      "a mar",
      "ha sh",
      "ha la",
      "haya t",
      "u suf",
      "y usuf",
      "hu sain",
      "riya z",
      "mar k",
      "ni sha",
      "ren u",
      "j ab",
      "ha t",
      "shi va",
      "jab er",
      "am it",
      "ka j",
      "nur ul",
      "pan kaj",
      "khal il",
      "anan d",
      "a j",
      "ra li",
      "sa th",
      "mu rali",
      "you suf",
      "t amer",
      "lax man",
      "sun ny",
      "dav id",
      "ha il",
      "an sar",
      "fah d",
      "ma mun",
      "ra r",
      "ab rar",
      "l ulu",
      "rash eed",
      "h it",
      "r ul",
      "ro hit",
      "naz rul",
      "es lam",
      "c elyn",
      "jo celyn",
      "c el",
      "raj kumar",
      "mari cel",
      "pra mod",
      "k am",
      "l esh",
      "nir mal",
      "kam lesh",
      "e hab",
      "ab id",
      "vi cky",
      "gan ga",
      "mans oor",
      "bin u",
      "moh med",
      "p in",
      "far es",
      "kan nan",
      "g had",
      "jo jo",
      "man u",
      "af zal",
      "c ed",
      "s oud",
      "ri ta",
      "k ab",
      "o war",
      "ja sim",
      "es sam",
      "shab bir",
      "kab ir",
      "sa na",
      "j alal",
      "j ah",
      "ma y",
      "ir shad",
      "san ju",
      "sheik h",
      "ki ran",
      "f ha",
      "shaf i",
      "w ali",
      "ha rish",
      "mad an",
      "raf ee",
      "wali d",
      "sham im",
      "had i",
      "was eem",
      "di na",
      "i vas",
      "s rin",
      "srin ivas",
      "ma z",
      "b rahim",
      "e brahim",
      "ga mal",
      "jas sim",
      "g ina",
      "th il",
      "sen thil",
      "s tha",
      "na na",
      "ja na",
      "mu stha",
      "muru gan",
      "mustha fa",
      "a jith",
      "r ga",
      "du rga",
      "me na",
      "sh yam",
      "bab lu",
      "sha rif",
      "raf i",
      "mohm mad",
      "h ud",
      "hud a",
      "sa gar",
      "mar wa",
      "sin gh",
      "al ta",
      "mad u",
      "she rif",
      "nil u",
      "alta f",
      "b o",
      "ee v",
      "sa mar",
      "mahmo od",
      "jit endra",
      "han if",
      "lu cky",
      "na sar",
      "sam y",
      "yous sef",
      "v an",
      "sa ji",
      "ri yas",
      "raj endra",
      "l iz",
      "u mar",
      "mun eer",
      "liz a",
      "b ha",
      "l it",
      "ra t",
      "bha rat",
      "lit on",
      "sad dam",
      "a sad",
      "i ta",
      "o th",
      "sun ita",
      "oth man",
      "sa bir",
      "nou shad",
      "sam er",
      "man ju",
      "nara sim",
      "ha ji",
      "su raj",
      "sur endra",
      "ha mood",
      "nas eer",
      "y an",
      "ran jit",
      "nara yan",
      "alam gir",
      "n ab",
      "nab il",
      "mah er",
      "h es",
      "sur ya",
      "hes ham",
      "j er",
      "fa jer",
      "ham id",
      "yous if",
      "ra sha",
      "sh ib",
      "shib u",
      "moh sin",
      "shah in",
      "sub bu",
      "med o",
      "mi sha",
      "a ya",
      "na eem",
      "na der",
      "ya z",
      "k amr",
      "kamr ul",
      "sha jahan",
      "su du",
      "mah endra",
      "sudha kar",
      "d ar",
      "g di",
      "ja gdi",
      "ar man",
      "jagdi sh",
      "moh mad",
      "si ta",
      "gf i",
      "red a",
      "sree nu",
      "e na",
      "w ena",
      "ro wena",
      "re han",
      "h is",
      "t es",
      "mari tes",
      "his ham",
      "m id",
      "man y",
      "pa wan",
      "mid o",
      "n iz",
      "ni sar",
      "niz am",
      "sat ish",
      "z em",
      "ha zem",
      "sa hil",
      "bel al",
      "na if",
      "az ad",
      "ram y",
      "de vi",
      "sa i",
      "kumar e",
      "t am",
      "sa ri",
      "an sari",
      "was im",
      "g ulam",
      "far han",
      "ee f",
      "tah ir",
      "pat el",
      "mah di",
      "sh nu",
      "vi shnu",
      "maj ed",
      "a hamed",
      "mas tan",
      "tare q",
      "ak hil",
      "ay ub",
      "mu na",
      "shaik ha",
      "sh im",
      "ja shim",
      "th ik",
      "kar thik",
      "nou f",
      "d ul",
      "mu jee",
      "dul al",
      "mujee b",
      "ad il",
      "hos sain",
      "venka ta",
      "ima a",
      "abd u",
      "mag dy",
      "b an",
      "h essa",
      "a t",
      "t ab",
      "no r",
      "af tab",
      "at ef",
      "v anan",
      "sara vanan",
      "o ta",
      "t ota",
      "ej h",
      "e ma",
      "ou r",
      "fat ema",
      "bal u",
      "mans our",
      "m in",
      "an eesh",
      "shah ul",
      "mana r",
      "am mar",
      "san u",
      "su bash",
      "zah ra",
      "c ham",
      "sa si",
      "za id",
      "mesha ri",
      "na veen",
      "moham d",
      "sat ya",
      "z i",
      "ka zi",
      "faroo q",
      "m ir",
      "mir za",
      "a kash",
      "mal li",
      "sha ree",
      "sharee f",
      "tah er",
      "k ul",
      "kul deep",
      "ar vind",
      "ka sim",
      "mohm med",
      "za far",
      "saj jad",
      "se lam",
      "ana lyn",
      "g j",
      "k al",
      "ru bel",
      "kal ed",
      "nag endra",
      "sh osh",
      "shosh o",
      "mani sh",
      "ta j",
      "raf ik",
      "shak eel",
      "p on",
      "ri pon",
      "naz eer",
      "az har",
      "bin od",
      "gh ulam",
      "oo z",
      "az ooz",
      "p ak",
      "di pak",
      "maj id",
      "z ad",
      "shah zad",
      "go vind",
      "a mani",
      "k alam",
      "bil lal",
      "fal ah",
      "ra sel",
      "an ish",
      "bas sam",
      "sara th",
      "sham eer",
      "gop i",
      "narasim ha",
      "ak htar",
      "ran jith",
      "w ad",
      "ya na",
      "nara yana",
      "renu ka",
      "p pu",
      "pa ppu",
      "naga raju",
      "an owar",
      "ja sem",
      "ya ser",
      "kamal a",
      "alam in",
      "jas sem",
      "raj eev",
      "d har",
      "m endra",
      "nas eem",
      "la tha",
      "faroo k",
      "dhar mendra",
      "anu sha",
      "l ou",
      "mari lou",
      "sath ish",
      "t ham",
      "tham er",
      "sa har",
      "yas in",
      "pan du",
      "maj eed",
      "as eel",
      "sub hash",
      "k ish",
      "na wal",
      "am een",
      "rafee k",
      "kish or",
      "i ah",
      "ta ha",
      "es raa",
      "so ma",
      "ha it",
      "an ji",
      "de v",
      "hait ham",
      "e sha",
      "ay esha",
      "h mood",
      "v am",
      "sel vam",
      "hel al",
      "ghad a",
      "v eed",
      "na veed",
      "basha r",
      "ma ra",
      "fa a",
      "ku mara",
      "wa faa",
      "sun it",
      "rak an",
      "sunit ha",
      "g ur",
      "p ree",
      "ee z",
      "az eez",
      "hat em",
      "gur pree",
      "gurpree t",
      "rani a",
      "naz im",
      "abo d",
      "d ha",
      "ra th",
      "ra dha",
      "sa man",
      "vi jaya",
      "so hail",
      "rath eesh",
      "f j",
      "an oo",
      "ro many",
      "fj d",
      "anoo p",
      "zah eer",
      "shaf iq",
      "t u",
      "kha der",
      "pin tu",
      "fa iz",
      "v eer",
      "tan veer",
      "yas een",
      "nirmal a",
      "sal wa",
      "so so",
      "wal ed",
      "shak il",
      "sh pa",
      "pu shpa",
      "chand an",
      "b ish",
      "f ja",
      "m il",
      "ma ham",
      "ra madan",
      "ee b",
      "hab eeb",
      "chan du",
      "bish nu",
      "mil on",
      "maham mad",
      "sa di",
      "pu ja",
      "sadi q",
      "ham dy",
      "abdul wahab",
      "had eel",
      "bala ji",
      "nag esh",
      "pa van",
      "jah ir",
      "o sef",
      "y osef",
      "w ood",
      "deep a",
      "da wood",
      "ba z",
      "shah baz",
      "no ha",
      "d d",
      "o sha",
      "nir osha",
      "dd g",
      "fah ed",
      "g ud",
      "ha id",
      "ar t",
      "he art",
      "sel va",
      "gud du",
      "haid er",
      "ho sam",
      "misha l",
      "b has",
      "d hari",
      "y ez",
      "ah md",
      "fa yez",
      "maz en",
      "bhas kar",
      "am na",
      "kha ja",
      "a a",
      "b er",
      "d o",
      "sa ber",
      "az am",
      "shan ti",
      "he ma",
      "do aa",
      "g ad",
      "gan gad",
      "dil eep",
      "gangad har",
      "ra ed",
      "n oo",
      "v eera",
      "su jith",
      "kan thi",
      "noo ra",
      "r ta",
      "med hat",
      "mu rta",
      "murta za",
      "l ika",
      "r endra",
      "na rendra",
      "san jee",
      "mal lika",
      "hash em",
      "sanjee v",
      "ran jee",
      "ranjee t",
      "ma hab",
      "sam pa",
      "mahab ub",
      "sampa th",
      "u shad",
      "na ushad",
      "a il",
      "su hail",
      "mag ed",
      "fa zal",
      "d r",
      "ba dr",
      "sam eera",
      "go lam",
      "shi v",
      "ha f",
      "ma su",
      "ra haf",
      "ka ram",
      "masu m",
      "ven u",
      "h id",
      "sa hid",
      "g he",
      "v ar",
      "an fal",
      "lo kesh",
      "va su",
      "re ham",
      "ghe se",
      "var ghese",
      "na l",
      "ja rah",
      "ba sem",
      "az oz",
      "joy nal",
      "k htar",
      "mu khtar",
      "se kar",
      "kha dar",
      "habib i",
      "ba sel",
      "nu s",
      "you nus",
      "mo min",
      "p ar",
      "t er",
      "v ez",
      "mari vi",
      "ak ter",
      "par vez",
      "marivi c",
      "vi pin",
      "saj an",
      "af sar",
      "sath eesh",
      "jah id",
      "ra vin",
      "an ju",
      "ravin dra",
      "l ali",
      "rah eem",
      "ud din",
      "shah een",
      "ala uddin",
      "lali t",
      "man nan",
      "jam eel",
      "sa bu",
      "zah raa",
      "maz har",
      "y ani",
      "rah em",
      "ib rahem",
      "ef i",
      "sri yani",
      "re ji",
      "t ur",
      "tur ki",
      "e id",
      "m een",
      "ra man",
      "as raf",
      "yas meen",
      "sub raman",
      "subraman yam",
      "ram babu",
      "shi ju",
      "e g",
      "n ho",
      "u ma",
      "fat uma",
      "ghad eer",
      "nho r",
      "sh ta",
      "mu shta",
      "ree ma",
      "me raj",
      "mushta q",
      "mo nu",
      "shi hab",
      "na y",
      "ou se",
      "vi nay",
      "santh i",
      "gh ouse",
      "sha imaa",
      "mano har",
      "h man",
      "h eer",
      "r hman",
      "abdul rhman",
      "sud heer",
      "tam il",
      "im ti",
      "imti yaz",
      "ha ja",
      "bin du",
      "g is",
      "sh ou",
      "moham md",
      "ti gis",
      "shou g",
      "tigis t",
      "a hamad",
      "f hd",
      "t han",
      "fa yaz",
      "mas than",
      "mizan ur",
      "p al",
      "se kha",
      "ika w",
      "aman y",
      "shab eer",
      "rafiq ul",
      "pal ani",
      "sekha r",
      "mahmo d",
      "ash ik",
      "rin ku",
      "ef j",
      "k abeer",
      "il ash",
      "ka ilash",
      "mari yam",
      "khal eel",
      "sam im",
      "g ee",
      "bi jay",
      "sree jith",
      "gee tha",
      "e t",
      "e sam",
      "g en",
      "m ul",
      "shan thi",
      "ru wan",
      "naz mul",
      "gen et",
      "han een",
      "sa ju",
      "na waz",
      "in da",
      "san na",
      "pra sanna",
      "rafee q",
      "cham inda",
      "d an",
      "an dan",
      "fa q",
      "ash faq",
      "manik andan",
      "b y",
      "b ik",
      "r rah",
      "s ika",
      "ra sika",
      "sa du",
      "ja rrah",
      "jo by",
      "un ni",
      "ban der",
      "bik ash",
      "sadu ni",
      "a wad",
      "ra tan",
      "ya dav",
      "w raa",
      "ha wraa",
      "es war",
      "ma md",
      "ou h",
      "mah bu",
      "mamd ouh",
      "mahbu b",
      "b h",
      "h ul",
      "l ani",
      "ru hul",
      "bh im",
      "lani e",
      "k thi",
      "sa kthi",
      "mo in",
      "nilu ka",
      "ma hamad",
      "ee s",
      "an ees",
      "ja tha",
      "su jatha",
      "as gar",
      "pra santh",
      "re taj",
      "d el",
      "n g",
      "o j",
      "ak tar",
      "so ng",
      "nou fal",
      "anil kumar",
      "jee van",
      "pu song",
      "sat tar",
      "fal eh",
      "fir oj",
      "del owar",
      "d hd",
      "shad ab",
      "dhd h",
      "g hu",
      "i ju",
      "j ji",
      "t tam",
      "u ttam",
      "ra ghu",
      "ba iju",
      "bu jji",
      "o ma",
      "sha nu",
      "an oma",
      "dana h",
      "sa jith",
      "abd us",
      "sa ed",
      "mu saed",
      "pa tan",
      "khal af",
      "kan ti",
      "ban dar",
      "y er",
      "basha yer",
      "amin ul",
      "j al",
      "w er",
      "na vas",
      "an wer",
      "deep u",
      "chand ran",
      "ren jith",
      "jal eel",
      "p endra",
      "u pendra",
      "sa oud",
      "pat han",
      "s yam",
      "sa ya",
      "san tha",
      "th eef",
      "wa santha",
      "kar thi",
      "la theef",
      "saya d",
      "moh in",
      "ge san",
      "muru gesan",
      "d ik",
      "s id",
      "ha mod",
      "said ul",
      "sid dik",
      "m ika",
      "v elyn",
      "jo velyn",
      "dam mika",
      "vijay an",
      "bas kar",
      "d ika",
      "ra z",
      "fa raz",
      "in dika",
      "sar faraz",
      "habib ur",
      "y ud",
      "ra yud",
      "sham shad",
      "subba rayud",
      "subbarayud u",
      "q s",
      "ma qs",
      "ju mana",
      "akhil esh",
      "maqs ood",
      "an bu",
      "cham ila",
      "k hu",
      "r sh",
      "sh imaa",
      "am mu",
      "ni shad",
      "sham su",
      "khu rsh",
      "khursh id",
      "a san",
      "i ba",
      "ta iba",
      "subba iah",
      "asan ka",
      "q ou",
      "ya qou",
      "ven ky",
      "yaqou b",
      "ni yas",
      "el sayed",
      "misha ri",
      "o ka",
      "ma gar",
      "in oka",
      "su ba",
      "moh md",
      "saj eev",
      "suba ir",
      "q er",
      "sa qer",
      "jav eed",
      "ee fa",
      "su mesh",
      "han eefa",
      "taj ul",
      "g je",
      "j mi",
      "ala jmi",
      "mun eera",
      "d ee",
      "p ana",
      "sa pana",
      "mu du",
      "sal m",
      "ku mudu",
      "li jo",
      "dee ma",
      "f oor",
      "nou rah",
      "ga foor",
      "s ee",
      "sha ju",
      "see nu",
      "asha raf",
      "jo mon",
      "ef d",
      "mo id",
      "moid een",
      "mu bar",
      "mubar k",
      "p en",
      "la iah",
      "cha laiah",
      "pen chalaiah",
      "h oor",
      "an thi",
      "su mi",
      "nil anthi",
      "sumi th",
      "oo m",
      "fat oom",
      "az ez",
      "f had",
      "na gar",
      "ju na",
      "nagar juna",
      "d edc",
      "nil min",
      "nilmin i",
      "wad ha",
      "m sha",
      "msha ri",
      "e is",
      "naga raja",
      "eis sa",
      "ed dy",
      "sub bar",
      "subbar eddy",
      "mal ani",
      "k w",
      "ma sha",
      "kw t",
      "masha el",
      "ha many",
      "bab ji",
      "abdul mohsen",
      "h ulu",
      "narasim hulu",
      "a th",
      "ath bi"
    ]
  }
}