{
  "version": "1.0",
  "truncation": null,
  "padding": null,
  "added_tokens": [
    {
      "id": 0,
      "content": "[UNK]",
      "single_word": false,
      "lstrip": false,
      "rstrip": false,
      "normalized": false,
      "special": true
    },
    {
      "id": 1,
      "content": "[CLS]",
      "single_word": false,
      "lstrip": false,
      "rstrip": false,
      "normalized": false,
      "special": true
    },
    {
      "id": 2,
      "content": "[SEP]",
      "single_word": false,
      "lstrip": false,
      "rstrip": false,
      "normalized": false,
      "special": true
    },
    {
      "id": 3,
      "content": "[PAD]",
      "single_word": false,
      "lstrip": false,
      "rstrip": false,
      "normalized": false,
      "special": true
    },
    {
      "id": 4,
      "content": "[MASK]",
      "single_word": false,
      "lstrip": false,
      "rstrip": false,
      "normalized": false,
      "special": true
    }
  ],
  "normalizer": null,
  "pre_tokenizer": {
    "type": "Whitespace"
  },
  "post_processor": null,
  "decoder": null,
  "model": {
    "type": "BPE",
    "dropout": null,
    "unk_token": "[UNK]",
    "continuing_subword_prefix": null,
    "end_of_word_suffix": null,
    "fuse_unk": false,
    "vocab": {
      "[UNK]": 0,
      "[CLS]": 1,
      "[SEP]": 2,
      "[PAD]": 3,
      "[MASK]": 4,
      "-": 5,
      "a": 6,
      "b": 7,
      "c": 8,
      "d": 9,
      "e": 10,
      "f": 11,
      "g": 12,
      "h": 13,
      "i": 14,
      "j": 15,
      "k": 16,
      "l": 17,
      "m": 18,
      "n": 19,
      "o": 20,
      "p": 21,
      "q": 22,
      "r": 23,
      "s": 24,
      "t": 25,
      "u": 26,
      "v": 27,
      "w": 28,
      "x": 29,
      "y": 30,
      "z": 31,
      "an": 32,
      "ar": 33,
      "el": 34,
      "in": 35,
      "er": 36,
      "en": 37,
      "mar": 38,
      "ri": 39,
      "al": 40,
      "on": 41,
      "ia": 42,
      "ra": 43,
      "ma": 44,
      "is": 45,
      "jo": 46,
      "il": 47,
      "es": 48,
      "and": 49,
      "am": 50,
      "ic": 51,
      "la": 52,
      "at": 53,
      "st": 54,
      "ro": 55,
      "ab": 56,
      "ed": 57,
      "et": 58,
      "ana": 59,
      "lo": 60,
      "io": 61,
      "se": 62,
      "ina": 63,
      "ha": 64,
      "ul": 65,
      "to": 66,
      "ch": 67,
      "ja": 68,
      "car": 69,
      "da": 70,
      "lu": 71,
      "ie": 72,
      "re": 73,
      "le": 74,
      "im": 75,
      "ann": 76,
      "ka": 77,
      "do": 78,
      "th": 79,
      "vi": 80,
      "us": 81,
      "mo": 82,
      "mi": 83,
      "ani": 84,
      "ine": 85,
      "ian": 86,
      "ta": 87,
      "go": 88,
      "uel": 89,
      "ad": 90,
      "jose": 91,
      "maria": 92,
      "ale": 93,
      "ju": 94,
      "ol": 95,
      "rist": 96,
      "fr": 97,
      "pa": 98,
      "sh": 99,
      "ber": 100,
      "man": 101,
      "sa": 102,
      "te": 103,
      "ela": 104,
      "ph": 105,
      "ang": 106,
      "co": 107,
      "ir": 108,
      "ham": 109,
      "un": 110,
      "dani": 111,
      "ton": 112,
      "di": 113,
      "ev": 114,
      "or": 115,
      "ah": 116,
      "mic": 117,
      "fran": 118,
      "andre": 119,
      "em": 120,
      "as": 121,
      "lau": 122,
      "luis": 123,
      "ric": 124,
      "kar": 125,
      "ge": 126,
      "carlo": 127,
      "ena": 128,
      "son": 129,
      "alex": 130,
      "it": 131,
      "carlos": 132,
      "na": 133,
      "ica": 134,
      "de": 135,
      "daniel": 136,
      "iv": 137,
      "christ": 138,
      "joh": 139,
      "ko": 140,
      "mad": 141,
      "pat": 142,
      "ara": 143,
      "andra": 144,
      "mon": 145,
      "ur": 146,
      "mart": 147,
      "ce": 148,
      "davi": 149,
      "fer": 150,
      "so": 151,
      "mari": 152,
      "jul": 153,
      "manuel": 154,
      "pet": 155,
      "david": 156,
      "anna": 157,
      "jan": 158,
      "juan": 159,
      "hel": 160,
      "ren": 161,
      "enn": 162,
      "eli": 163,
      "anton": 164,
      "ry": 165,
      "ik": 166,
      "luc": 167,
      "ba": 168,
      "ath": 169,
      "jor": 170,
      "bo": 171,
      "id": 172,
      "moham": 173,
      "ke": 174,
      "gu": 175,
      "tor": 176,
      "mas": 177,
      "je": 178,
      "sam": 179,
      "eth": 180,
      "md": 181,
      "nic": 182,
      "patric": 183,
      "ris": 184,
      "ben": 185,
      "marc": 186,
      "fa": 187,
      "mu": 188,
      "franc": 189,
      "ard": 190,
      "ru": 191,
      "vic": 192,
      "ste": 193,
      "ter": 194,
      "no": 195,
      "jes": 196,
      "ger": 197,
      "qu": 198,
      "ando": 199,
      "gab": 200,
      "ne": 201,
      "berto": 202,
      "isa": 203,
      "ya": 204,
      "za": 205,
      "dy": 206,
      "ly": 207,
      "bert": 208,
      "micha": 209,
      "anne": 210,
      "pe": 211,
      "angel": 212,
      "san": 213,
      "si": 214,
      "ola": 215,
      "antonio": 216,
      "ga": 217,
      "john": 218,
      "wil": 219,
      "kat": 220,
      "lin": 221,
      "ardo": 222,
      "ali": 223,
      "os": 224,
      "ili": 225,
      "michael": 226,
      "ari": 227,
      "sandra": 228,
      "vin": 229,
      "su": 230,
      "be": 231,
      "mat": 232,
      "crist": 233,
      "jam": 234,
      "li": 235,
      "paul": 236,
      "men": 237,
      "med": 238,
      "clau": 239,
      "ika": 240,
      "sim": 241,
      "fred": 242,
      "jorge": 243,
      "abd": 244,
      "mig": 245,
      "he": 246,
      "martin": 247,
      "fern": 248,
      "ene": 249,
      "ver": 250,
      "miguel": 251,
      "ila": 252,
      "jon": 253,
      "francis": 254,
      "gabri": 255,
      "val": 256,
      "joa": 257,
      "esh": 258,
      "ca": 259,
      "anda": 260,
      "abel": 261,
      "ros": 262,
      "rian": 263,
      "peter": 264,
      "mel": 265,
      "hen": 266,
      "claud": 267,
      "ped": 268,
      "wa": 269,
      "eric": 270,
      "min": 271,
      "pedro": 272,
      "pau": 273,
      "andrea": 274,
      "ti": 275,
      "tan": 276,
      "mary": 277,
      "mario": 278,
      "ati": 279,
      "fab": 280,
      "marco": 281,
      "rah": 282,
      "ias": 283,
      "tho": 284,
      "ria": 285,
      "yo": 286,
      "me": 287,
      "ette": 288,
      "ku": 289,
      "ander": 290,
      "sil": 291,
      "van": 292,
      "mark": 293,
      "vier": 294,
      "han": 295,
      "andro": 296,
      "ag": 297,
      "sha": 298,
      "laura": 299,
      "nat": 300,
      "ent": 301,
      "mer": 302,
      "kev": 303,
      "marie": 304,
      "sara": 305,
      "que": 306,
      "michel": 307,
      "victor": 308,
      "alej": 309,
      "br": 310,
      "carol": 311,
      "christian": 312,
      "fernando": 313,
      "sus": 314,
      "andr": 315,
      "kevin": 316,
      "gio": 317,
      "sy": 318,
      "hu": 319,
      "ser": 320,
      "cy": 321,
      "patricia": 322,
      "elo": 323,
      "sta": 324,
      "mohamed": 325,
      "thomas": 326,
      "bar": 327,
      "ni": 328,
      "dan": 329,
      "jenn": 330,
      "flo": 331,
      "isabel": 332,
      "ile": 333,
      "fan": 334,
      "die": 335,
      "edu": 336,
      "rin": 337,
      "rich": 338,
      "cardo": 339,
      "carmen": 340,
      "francisco": 341,
      "joao": 342,
      "via": 343,
      "leon": 344,
      "robert": 345,
      "ron": 346,
      "gabriel": 347,
      "abdul": 348,
      "simon": 349,
      "esa": 350,
      "steph": 351,
      "ricardo": 352,
      "mir": 353,
      "abeth": 354,
      "iz": 355,
      "hal": 356,
      "jac": 357,
      "ivan": 358,
      "ise": 359,
      "ve": 360,
      "ky": 361,
      "jean": 362,
      "sar": 363,
      "gi": 364,
      "gar": 365,
      "win": 366,
      "bast": 367,
      "claudia": 368,
      "pi": 369,
      "char": 370,
      "nel": 371,
      "har": 372,
      "dri": 373,
      "per": 374,
      "uno": 375,
      "sz": 376,
      "lan": 377,
      "rosa": 378,
      "den": 379,
      "emil": 380,
      "ole": 381,
      "sal": 382,
      "jess": 383,
      "az": 384,
      "mag": 385,
      "jer": 386,
      "muham": 387,
      "sebast": 388,
      "krist": 389,
      "ib": 390,
      "gra": 391,
      "jay": 392,
      "veron": 393,
      "eva": 394,
      "javier": 395,
      "her": 396,
      "my": 397,
      "richard": 398,
      "tu": 399,
      "ces": 400,
      "ane": 401,
      "les": 402,
      "patrick": 403,
      "hd": 404,
      "mau": 405,
      "alberto": 406,
      "eduardo": 407,
      "ida": 408,
      "ing": 409,
      "tom": 410,
      "diana": 411,
      "kim": 412,
      "eliz": 413,
      "linda": 414,
      "mil": 415,
      "dar": 416,
      "sof": 417,
      "gen": 418,
      "iam": 419,
      "tia": 420,
      "andres": 421,
      "yn": 422,
      "fati": 423,
      "kel": 424,
      "nad": 425,
      "len": 426,
      "nur": 427,
      "dra": 428,
      "sab": 429,
      "ley": 430,
      "eta": 431,
      "diego": 432,
      "joseph": 433,
      "cam": 434,
      "nor": 435,
      "ilip": 436,
      "samuel": 437,
      "athan": 438,
      "sarah": 439,
      "jessica": 440,
      "lav": 441,
      "ald": 442,
      "cel": 443,
      "alia": 444,
      "bel": 445,
      "muhammad": 446,
      "fi": 447,
      "jana": 448,
      "ong": 449,
      "andy": 450,
      "we": 451,
      "beat": 452,
      "ud": 453,
      "ther": 454,
      "elizabeth": 455,
      "oph": 456,
      "daniela": 457,
      "nes": 458,
      "ant": 459,
      "will": 460,
      "ice": 461,
      "stefan": 462,
      "ze": 463,
      "roberto": 464,
      "nan": 465,
      "adam": 466,
      "gor": 467,
      "the": 468,
      "james": 469,
      "ona": 470,
      "nicola": 471,
      "ho": 472,
      "monica": 473,
      "she": 474,
      "ny": 475,
      "feli": 476,
      "pab": 477,
      "anie": 478,
      "alejandro": 479,
      "pablo": 480,
      "mal": 481,
      "paula": 482,
      "chris": 483,
      "riz": 484,
      "yan": 485,
      "lor": 486,
      "anita": 487,
      "wan": 488,
      "ony": 489,
      "cio": 490,
      "sergio": 491,
      "ahmed": 492,
      "ino": 493,
      "stev": 494,
      "rafa": 495,
      "cristina": 496,
      "oscar": 497,
      "rid": 498,
      "alexander": 499,
      "rik": 500,
      "sebastian": 501,
      "max": 502,
      "quel": 503,
      "domin": 504,
      "mohammed": 505,
      "angela": 506,
      "julia": 507,
      "wal": 508,
      "ime": 509,
      "tina": 510,
      "adrian": 511,
      "tomas": 512,
      "cristian": 513,
      "julio": 514,
      "mate": 515,
      "jesus": 516,
      "ram": 517,
      "adri": 518,
      "christoph": 519,
      "joel": 520,
      "zo": 521,
      "juli": 522,
      "jonathan": 523,
      "omar": 524,
      "cesar": 525,
      "mohd": 526,
      "marta": 527,
      "luka": 528,
      "silvia": 529,
      "vo": 530,
      "stin": 531,
      "ji": 532,
      "tiago": 533,
      "ella": 534,
      "sonia": 535,
      "cil": 536,
      "ou": 537,
      "ryan": 538,
      "rita": 539,
      "ty": 540,
      "fatima": 541,
      "elena": 542,
      "va": 543,
      "edi": 544,
      "william": 545,
      "bara": 546,
      "essa": 547,
      "paulo": 548,
      "frank": 549,
      "rahim": 550,
      "sofia": 551,
      "ki": 552,
      "karen": 553,
      "teresa": 554,
      "bruno": 555,
      "icia": 556,
      "ig": 557,
      "toria": 558,
      "ahmad": 559,
      "kam": 560,
      "ler": 561,
      "hil": 562,
      "anny": 563,
      "lar": 564,
      "nicole": 565,
      "ira": 566,
      "anth": 567,
      "michelle": 568,
      "rafael": 569,
      "andreas": 570,
      "geor": 571,
      "des": 572,
      "one": 573,
      "ci": 574,
      "issa": 575,
      "kath": 576,
      "jenni": 577,
      "vanessa": 578,
      "veronica": 579,
      "po": 580,
      "con": 581,
      "don": 582,
      "rodri": 583,
      "dam": 584,
      "emmanuel": 585,
      "sel": 586,
      "barbara": 587,
      "bri": 588,
      "ash": 589,
      "anthony": 590,
      "raj": 591,
      "bal": 592,
      "tim": 593,
      "ata": 594,
      "ek": 595,
      "syl": 596,
      "rina": 597,
      "au": 598,
      "hugo": 599,
      "monika": 600,
      "ish": 601,
      "hon": 602,
      "nik": 603,
      "jar": 604,
      "has": 605,
      "lisa": 606,
      "emma": 607,
      "git": 608,
      "yna": 609,
      "mike": 610,
      "elis": 611,
      "prin": 612,
      "nicolas": 613,
      "mohammad": 614,
      "zi": 615,
      "rol": 616,
      "petra": 617,
      "carolina": 618,
      "der": 619,
      "ruben": 620,
      "ato": 621,
      "gil": 622,
      "alie": 623,
      "rach": 624,
      "carla": 625,
      "guil": 626,
      "sol": 627,
      "elle": 628,
      "bi": 629,
      "jennifer": 630,
      "alo": 631,
      "rene": 632,
      "ique": 633,
      "gusta": 634,
      "lucia": 635,
      "aro": 636,
      "cecil": 637,
      "alexandra": 638,
      "jun": 639,
      "ak": 640,
      "jim": 641,
      "aron": 642,
      "raul": 643,
      "ele": 644,
      "philip": 645,
      "alfred": 646,
      "rose": 647,
      "iane": 648,
      "jenny": 649,
      "lene": 650,
      "rodrigo": 651,
      "lil": 652,
      "natalia": 653,
      "fabio": 654,
      "valer": 655,
      "cat": 656,
      "marina": 657,
      "mah": 658,
      "bet": 659,
      "bern": 660,
      "glo": 661,
      "ff": 662,
      "evel": 663,
      "este": 664,
      "franco": 665,
      "leo": 666,
      "gabriela": 667,
      "vivi": 668,
      "lou": 669,
      "edwin": 670,
      "abu": 671,
      "valent": 672,
      "christine": 673,
      "adriana": 674,
      "rique": 675,
      "marg": 676,
      "vis": 677,
      "iano": 678,
      "rob": 679,
      "lara": 680,
      "fat": 681,
      "bu": 682,
      "martina": 683,
      "may": 684,
      "erine": 685,
      "esther": 686,
      "oliv": 687,
      "luz": 688,
      "arina": 689,
      "benjam": 690,
      "nelson": 691,
      "mariana": 692,
      "joe": 693,
      "hec": 694,
      "lili": 695,
      "tony": 696,
      "ines": 697,
      "hector": 698,
      "cha": 699,
      "ye": 700,
      "pra": 701,
      "alena": 702,
      "cin": 703,
      "benjamin": 704,
      "ille": 705,
      "ien": 706,
      "martha": 707,
      "lucas": 708,
      "yu": 709,
      "nancy": 710,
      "aldo": 711,
      "elia": 712,
      "mara": 713,
      "cath": 714,
      "helena": 715,
      "iso": 716,
      "alejandra": 717,
      "victoria": 718,
      "hamad": 719,
      "irene": 720,
      "ales": 721,
      "gloria": 722,
      "fo": 723,
      "yv": 724,
      "joy": 725,
      "abo": 726,
      "vinc": 727,
      "paola": 728,
      "gustavo": 729,
      "pu": 730,
      "ija": 731,
      "sun": 732,
      "ilo": 733,
      "if": 734,
      "yas": 735,
      "ibrahim": 736,
      "ala": 737,
      "hi": 738,
      "jack": 739,
      "johan": 740,
      "gla": 741,
      "erik": 742,
      "jason": 743,
      "cecilia": 744,
      "art": 745,
      "andrew": 746,
      "gon": 747,
      "wen": 748,
      "hassan": 749,
      "erika": 750,
      "nina": 751,
      "isma": 752,
      "rey": 753,
      "marcos": 754,
      "riam": 755,
      "enny": 756,
      "mauric": 757,
      "ban": 758,
      "stephanie": 759,
      "lot": 760,
      "fernanda": 761,
      "andi": 762,
      "olga": 763,
      "ran": 764,
      "din": 765,
      "pier": 766,
      "iana": 767,
      "brian": 768,
      "steven": 769,
      "beatriz": 770,
      "marcelo": 771,
      "pas": 772,
      "susana": 773,
      "mond": 774,
      "usz": 775,
      "eng": 776,
      "jas": 777,
      "olo": 778,
      "margari": 779,
      "jhon": 780,
      "edgar": 781,
      "dou": 782,
      "arm": 783,
      "nana": 784,
      "ior": 785,
      "sef": 786,
      "dee": 787,
      "karol": 788,
      "jaime": 789,
      "ire": 790,
      "ven": 791,
      "onne": 792,
      "eu": 793,
      "grace": 794,
      "henry": 795,
      "gan": 796,
      "walter": 797,
      "rebe": 798,
      "lie": 799,
      "ita": 800,
      "du": 801,
      "tr": 802,
      "dol": 803,
      "lee": 804,
      "gre": 805,
      "ray": 806,
      "by": 807,
      "math": 808,
      "nath": 809,
      "gina": 810,
      "gun": 811,
      "kha": 812,
      "petr": 813,
      "cal": 814,
      "jen": 815,
      "amanda": 816,
      "marcel": 817,
      "felix": 818,
      "frances": 819,
      "julie": 820,
      "luisa": 821,
      "lina": 822,
      "hans": 823,
      "anni": 824,
      "albert": 825,
      "caroline": 826,
      "alfredo": 827,
      "let": 828,
      "fabian": 829,
      "kir": 830,
      "enrique": 831,
      "maris": 832,
      "ramon": 833,
      "marko": 834,
      "manuela": 835,
      "roger": 836,
      "khal": 837,
      "pho": 838,
      "suz": 839,
      "judi": 840,
      "wi": 841,
      "lorena": 842,
      "ruth": 843,
      "sue": 844,
      "iti": 845,
      "felipe": 846,
      "ac": 847,
      "michal": 848,
      "leonardo": 849,
      "dia": 850,
      "bren": 851,
      "christopher": 852,
      "george": 853,
      "ced": 854,
      "alan": 855,
      "fri": 856,
      "lauren": 857,
      "bra": 858,
      "wel": 859,
      "alicia": 860,
      "alexis": 861,
      "yol": 862,
      "soph": 863,
      "markus": 864,
      "raf": 865,
      "roy": 866,
      "vincent": 867,
      "eni": 868,
      "alice": 869,
      "kumar": 870,
      "karin": 871,
      "melissa": 872,
      "gy": 873,
      "josef": 874,
      "alv": 875,
      "denis": 876,
      "siti": 877,
      "lis": 878,
      "vel": 879,
      "law": 880,
      "thia": 881,
      "raquel": 882,
      "claudio": 883,
      "od": 884,
      "fili": 885,
      "lam": 886,
      "amir": 887,
      "junior": 888,
      "santiago": 889,
      "una": 890,
      "floren": 891,
      "karina": 892,
      "kw": 893,
      "johanna": 894,
      "valentina": 895,
      "liz": 896,
      "ingrid": 897,
      "annes": 898,
      "rui": 899,
      "tra": 900,
      "prince": 901,
      "rg": 902,
      "mauricio": 903,
      "josh": 904,
      "simo": 905,
      "isaac": 906,
      "denn": 907,
      "tshe": 908,
      "del": 909,
      "dennis": 910,
      "joaqu": 911,
      "ken": 912,
      "armando": 913,
      "lukas": 914,
      "chi": 915,
      "alek": 916,
      "kelly": 917,
      "sin": 918,
      "danny": 919,
      "onso": 920,
      "cla": 921,
      "lotte": 922,
      "col": 923,
      "mila": 924,
      "nadia": 925,
      "ade": 926,
      "isha": 927,
      "jos": 928,
      "liliana": 929,
      "alvaro": 930,
      "esz": 931,
      "erick": 932,
      "pierre": 933,
      "joana": 934,
      "ua": 935,
      "day": 936,
      "abdulla": 937,
      "sep": 938,
      "queline": 939,
      "gr": 940,
      "pre": 941,
      "bryan": 942,
      "susan": 943,
      "ernes": 944,
      "far": 945,
      "dys": 946,
      "sur": 947,
      "jonas": 948,
      "ker": 949,
      "ete": 950,
      "vla": 951,
      "est": 952,
      "ivana": 953,
      "kenn": 954,
      "nora": 955,
      "angelica": 956,
      "evelyn": 957,
      "ima": 958,
      "miriam": 959,
      "lars": 960,
      "dim": 961,
      "nu": 962,
      "yne": 963,
      "zy": 964,
      "just": 965,
      "sabrina": 966,
      "of": 967,
      "jane": 968,
      "stephen": 969,
      "jit": 970,
      "melanie": 971,
      "vera": 972,
      "christina": 973,
      "agu": 974,
      "niko": 975,
      "sand": 976,
      "steve": 977,
      "marcela": 978,
      "gladys": 979,
      "pha": 980,
      "mus": 981,
      "ula": 982,
      "camila": 983,
      "bor": 984,
      "dio": 985,
      "jorn": 986,
      "wendy": 987,
      "charles": 988,
      "sandro": 989,
      "nuno": 990,
      "rit": 991,
      "dalena": 992,
      "ay": 993,
      "giov": 994,
      "thi": 995,
      "guiller": 996,
      "sharon": 997,
      "ame": 998,
      "agnes": 999,
      "lyn": 1000,
      "tati": 1001,
      "julian": 1002,
      "mor": 1003,
      "ario": 1004,
      "lim": 1005,
      "nie": 1006,
      "nathalie": 1007,
      "tania": 1008,
      "jimmy": 1009,
      "magdalena": 1010,
      "luca": 1011,
      "ner": 1012,
      "beth": 1013,
      "alexandre": 1014,
      "kr": 1015,
      "dor": 1016,
      "matias": 1017,
      "nurul": 1018,
      "marit": 1019,
      "las": 1020,
      "met": 1021,
      "ronald": 1022,
      "lando": 1023,
      "catherine": 1024,
      "josue": 1025,
      "alina": 1026,
      "mina": 1027,
      "vio": 1028,
      "war": 1029,
      "gitte": 1030,
      "uf": 1031,
      "alf": 1032,
      "blan": 1033,
      "mohamad": 1034,
      "guillermo": 1035,
      "ast": 1036,
      "musta": 1037,
      "anders": 1038,
      "tatiana": 1039,
      "elias": 1040,
      "bir": 1041,
      "oli": 1042,
      "charlotte": 1043,
      "yvonne": 1044,
      "aziz": 1045,
      "wilson": 1046,
      "simone": 1047,
      "cia": 1048,
      "idi": 1049,
      "jeff": 1050,
      "santo": 1051,
      "yam": 1052,
      "toni": 1053,
      "dolfo": 1054,
      "illa": 1055,
      "yous": 1056,
      "cindy": 1057,
      "kenneth": 1058,
      "rice": 1059,
      "maril": 1060,
      "orlando": 1061,
      "idia": 1062,
      "rachel": 1063,
      "bas": 1064,
      "tt": 1065,
      "pam": 1066,
      "bil": 1067,
      "vik": 1068,
      "brenda": 1069,
      "emi": 1070,
      "jero": 1071,
      "elie": 1072,
      "oj": 1073,
      "yolanda": 1074,
      "adi": 1075,
      "mika": 1076,
      "sten": 1077,
      "nick": 1078,
      "yes": 1079,
      "jaco": 1080,
      "lour": 1081,
      "hann": 1082,
      "gorz": 1083,
      "marianne": 1084,
      "valeria": 1085,
      "bjorn": 1086,
      "doris": 1087,
      "nico": 1088,
      "dario": 1089,
      "iva": 1090,
      "che": 1091,
      "zel": 1092,
      "jacqueline": 1093,
      "filip": 1094,
      "kash": 1095,
      "abi": 1096,
      "norma": 1097,
      "louise": 1098,
      "ison": 1099,
      "kka": 1100,
      "sia": 1101,
      "virg": 1102,
      "hana": 1103,
      "margarita": 1104,
      "rocio": 1105,
      "cor": 1106,
      "cca": 1107,
      "ten": 1108,
      "pio": 1109,
      "pri": 1110,
      "gerardo": 1111,
      "flor": 1112,
      "vil": 1113,
      "pascal": 1114,
      "tin": 1115,
      "jerem": 1116,
      "judith": 1117,
      "lena": 1118,
      "tar": 1119,
      "esteban": 1120,
      "zul": 1121,
      "ng": 1122,
      "elisabeth": 1123,
      "karla": 1124,
      "johannes": 1125,
      "islav": 1126,
      "iman": 1127,
      "gh": 1128,
      "elsa": 1129,
      "helen": 1130,
      "stan": 1131,
      "thab": 1132,
      "virgin": 1133,
      "par": 1134,
      "ot": 1135,
      "rosario": 1136,
      "maribel": 1137,
      "kesh": 1138,
      "nadine": 1139,
      "bon": 1140,
      "gang": 1141,
      "ariel": 1142,
      "roman": 1143,
      "gel": 1144,
      "shah": 1145,
      "thew": 1146,
      "inda": 1147,
      "sophie": 1148,
      "diogo": 1149,
      "shir": 1150,
      "emanuel": 1151,
      "lon": 1152,
      "bes": 1153,
      "cle": 1154,
      "yl": 1155,
      "rebecca": 1156,
      "nar": 1157,
      "paulina": 1158,
      "giu": 1159,
      "renata": 1160,
      "tanja": 1161,
      "eddy": 1162,
      "sen": 1163,
      "said": 1164,
      "ward": 1165,
      "kris": 1166,
      "lourdes": 1167,
      "anja": 1168,
      "marlene": 1169,
      "lucy": 1170,
      "roland": 1171,
      "giusep": 1172,
      "oliver": 1173,
      "tamara": 1174,
      "lasz": 1175,
      "hard": 1176,
      "cho": 1177,
      "eugen": 1178,
      "shan": 1179,
      "pan": 1180,
      "pamela": 1181,
      "robin": 1182,
      "nas": 1183,
      "arif": 1184,
      "raymond": 1185,
      "mira": 1186,
      "fed": 1187,
      "chin": 1188,
      "amy": 1189,
      "heidi": 1190,
      "joyce": 1191,
      "melo": 1192,
      "elisa": 1193,
      "bab": 1194,
      "marcia": 1195,
      "joshua": 1196,
      "you": 1197,
      "ura": 1198,
      "alain": 1199,
      "dora": 1200,
      "claude": 1201,
      "nil": 1202,
      "monique": 1203,
      "kay": 1204,
      "marija": 1205,
      "kristina": 1206,
      "maja": 1207,
      "agni": 1208,
      "eszka": 1209,
      "agnieszka": 1210,
      "lidia": 1211,
      "khalid": 1212,
      "ese": 1213,
      "josi": 1214,
      "ick": 1215,
      "graci": 1216,
      "annie": 1217,
      "susanne": 1218,
      "catarina": 1219,
      "tri": 1220,
      "philippe": 1221,
      "pal": 1222,
      "henrik": 1223,
      "iris": 1224,
      "zyna": 1225,
      "dave": 1226,
      "ez": 1227,
      "sean": 1228,
      "cess": 1229,
      "emily": 1230,
      "amin": 1231,
      "denise": 1232,
      "mik": 1233,
      "filipe": 1234,
      "yus": 1235,
      "claire": 1236,
      "raja": 1237,
      "nthia": 1238,
      "iro": 1239,
      "teo": 1240,
      "vicky": 1241,
      "shane": 1242,
      "zol": 1243,
      "florian": 1244,
      "jacob": 1245,
      "dominik": 1246,
      "agus": 1247,
      "cynthia": 1248,
      "princess": 1249,
      "giuseppe": 1250,
      "kamal": 1251,
      "raju": 1252,
      "laszlo": 1253,
      "marisol": 1254,
      "mun": 1255,
      "janet": 1256,
      "nelly": 1257,
      "sabine": 1258,
      "freddy": 1259,
      "ismail": 1260,
      "annette": 1261,
      "um": 1262,
      "erico": 1263,
      "moh": 1264,
      "lucie": 1265,
      "ises": 1266,
      "gonz": 1267,
      "augu": 1268,
      "ith": 1269,
      "haf": 1270,
      "blanca": 1271,
      "timo": 1272,
      "alda": 1273,
      "jesh": 1274,
      "agustin": 1275,
      "aly": 1276,
      "kari": 1277,
      "wayne": 1278,
      "michaela": 1279,
      "sonja": 1280,
      "michele": 1281,
      "piotr": 1282,
      "antha": 1283,
      "gabor": 1284,
      "uli": 1285,
      "isi": 1286,
      "veronika": 1287,
      "jel": 1288,
      "clara": 1289,
      "francesco": 1290,
      "graciela": 1291,
      "debo": 1292,
      "pia": 1293,
      "johnny": 1294,
      "tob": 1295,
      "endra": 1296,
      "justin": 1297,
      "ok": 1298,
      "gerald": 1299,
      "emilia": 1300,
      "mia": 1301,
      "gonzalo": 1302,
      "edith": 1303,
      "bian": 1304,
      "antonia": 1305,
      "angelo": 1306,
      "natas": 1307,
      "erry": 1308,
      "ashley": 1309,
      "af": 1310,
      "marek": 1311,
      "gail": 1312,
      "uz": 1313,
      "aur": 1314,
      "lea": 1315,
      "meh": 1316,
      "hamza": 1317,
      "margar": 1318,
      "ist": 1319,
      "aaron": 1320,
      "chant": 1321,
      "ef": 1322,
      "rul": 1323,
      "xa": 1324,
      "ilar": 1325,
      "tobias": 1326,
      "sylv": 1327,
      "reen": 1328,
      "zoltan": 1329,
      "samantha": 1330,
      "rahul": 1331,
      "fiq": 1332,
      "damian": 1333,
      "igna": 1334,
      "jordan": 1335,
      "henri": 1336,
      "rox": 1337,
      "urt": 1338,
      "pak": 1339,
      "juana": 1340,
      "francois": 1341,
      "muhd": 1342,
      "ett": 1343,
      "ama": 1344,
      "edward": 1345,
      "hle": 1346,
      "hasan": 1347,
      "sylvia": 1348,
      "rie": 1349,
      "merced": 1350,
      "mariela": 1351,
      "piet": 1352,
      "els": 1353,
      "enne": 1354,
      "silv": 1355,
      "noor": 1356,
      "artu": 1357,
      "krzy": 1358,
      "pauline": 1359,
      "ernesto": 1360,
      "andon": 1361,
      "ismael": 1362,
      "mauro": 1363,
      "hay": 1364,
      "gis": 1365,
      "joanna": 1366,
      "shirley": 1367,
      "rajesh": 1368,
      "sven": 1369,
      "arturo": 1370,
      "ide": 1371,
      "bogo": 1372,
      "doro": 1373,
      "francisca": 1374,
      "matthew": 1375,
      "anto": 1376,
      "christophe": 1377,
      "abdullah": 1378,
      "marcin": 1379,
      "nikola": 1380,
      "mercedes": 1381,
      "tsh": 1382,
      "matt": 1383,
      "olivier": 1384,
      "lydia": 1385,
      "youssef": 1386,
      "pawel": 1387,
      "mathias": 1388,
      "karolina": 1389,
      "dija": 1390,
      "rachid": 1391,
      "leticia": 1392,
      "sami": 1393,
      "isabelle": 1394,
      "marvin": 1395,
      "august": 1396,
      "tila": 1397,
      "mos": 1398,
      "dre": 1399,
      "adel": 1400,
      "bob": 1401,
      "german": 1402,
      "valdo": 1403,
      "valerie": 1404,
      "dana": 1405,
      "gaby": 1406,
      "ramesh": 1407,
      "tommy": 1408,
      "miro": 1409,
      "ike": 1410,
      "franz": 1411,
      "hanna": 1412,
      "itu": 1413,
      "brandon": 1414,
      "pavel": 1415,
      "dina": 1416,
      "maritza": 1417,
      "georg": 1418,
      "angie": 1419,
      "vitor": 1420,
      "jiri": 1421,
      "marian": 1422,
      "ini": 1423,
      "juliana": 1424,
      "adil": 1425,
      "brigitte": 1426,
      "pris": 1427,
      "yi": 1428,
      "carina": 1429,
      "ester": 1430,
      "rat": 1431,
      "etta": 1432,
      "vicen": 1433,
      "mire": 1434,
      "tha": 1435,
      "maine": 1436,
      "jens": 1437,
      "sine": 1438,
      "irma": 1439,
      "xh": 1440,
      "ravi": 1441,
      "leandro": 1442,
      "sat": 1443,
      "ellen": 1444,
      "igor": 1445,
      "olivia": 1446,
      "erica": 1447,
      "bianca": 1448,
      "abdel": 1449,
      "loren": 1450,
      "ewa": 1451,
      "ril": 1452,
      "tamas": 1453,
      "yann": 1454,
      "jerome": 1455,
      "kla": 1456,
      "mayra": 1457,
      "rish": 1458,
      "rolando": 1459,
      "alu": 1460,
      "giovanni": 1461,
      "rad": 1462,
      "martine": 1463,
      "jeremy": 1464,
      "domingo": 1465,
      "chu": 1466,
      "maric": 1467,
      "naz": 1468,
      "danielle": 1469,
      "abigail": 1470,
      "milan": 1471,
      "for": 1472,
      "viviana": 1473,
      "bernard": 1474,
      "suresh": 1475,
      "katherine": 1476,
      "phil": 1477,
      "leen": 1478,
      "mpho": 1479,
      "tof": 1480,
      "jaku": 1481,
      "rick": 1482,
      "sunil": 1483,
      "noemi": 1484,
      "dylan": 1485,
      "ignacio": 1486,
      "enzo": 1487,
      "bong": 1488,
      "stephane": 1489,
      "imo": 1490,
      "sana": 1491,
      "camilla": 1492,
      "sanna": 1493,
      "vicente": 1494,
      "olu": 1495,
      "krzysz": 1496,
      "aida": 1497,
      "celine": 1498,
      "krzysztof": 1499,
      "zan": 1500,
      "jakub": 1501,
      "krisz": 1502,
      "moises": 1503,
      "ilda": 1504,
      "ussa": 1505,
      "lebo": 1506,
      "betty": 1507,
      "om": 1508,
      "had": 1509,
      "frans": 1510,
      "shaik": 1511,
      "angeli": 1512,
      "bakar": 1513,
      "zim": 1514,
      "florence": 1515,
      "cas": 1516,
      "eze": 1517,
      "morten": 1518,
      "gary": 1519,
      "eda": 1520,
      "jur": 1521,
      "arzyna": 1522,
      "katarzyna": 1523,
      "qui": 1524,
      "karim": 1525,
      "alba": 1526,
      "virginia": 1527,
      "ryst": 1528,
      "grego": 1529,
      "regina": 1530,
      "istvan": 1531,
      "ck": 1532,
      "adela": 1533,
      "alessandro": 1534,
      "attila": 1535,
      "rain": 1536,
      "mine": 1537,
      "sanjay": 1538,
      "abdo": 1539,
      "clemen": 1540,
      "pilar": 1541,
      "artur": 1542,
      "sylvie": 1543,
      "ax": 1544,
      "fel": 1545,
      "ney": 1546,
      "ever": 1547,
      "pr": 1548,
      "celia": 1549,
      "eri": 1550,
      "pin": 1551,
      "ajay": 1552,
      "noel": 1553,
      "rodolfo": 1554,
      "mery": 1555,
      "sul": 1556,
      "roxana": 1557,
      "milena": 1558,
      "elvis": 1559,
      "alma": 1560,
      "joaquim": 1561,
      "louis": 1562,
      "xavier": 1563,
      "tere": 1564,
      "isra": 1565,
      "erina": 1566,
      "aud": 1567,
      "natalie": 1568,
      "matth": 1569,
      "jn": 1570,
      "chantal": 1571,
      "bus": 1572,
      "dir": 1573,
      "old": 1574,
      "edy": 1575,
      "ques": 1576,
      "abela": 1577,
      "kan": 1578,
      "katja": 1579,
      "tomasz": 1580,
      "laurent": 1581,
      "birgit": 1582,
      "nikol": 1583,
      "marcus": 1584,
      "julien": 1585,
      "andreia": 1586,
      "hola": 1587,
      "sk": 1588,
      "patrik": 1589,
      "lukasz": 1590,
      "israel": 1591,
      "fanny": 1592,
      "didi": 1593,
      "nus": 1594,
      "josip": 1595,
      "anil": 1596,
      "jamal": 1597,
      "bie": 1598,
      "wn": 1599,
      "osvaldo": 1600,
      "sya": 1601,
      "mateo": 1602,
      "kh": 1603,
      "ung": 1604,
      "vijay": 1605,
      "mustafa": 1606,
      "ee": 1607,
      "deep": 1608,
      "lenka": 1609,
      "axel": 1610,
      "dimir": 1611,
      "renato": 1612,
      "joaquin": 1613,
      "samir": 1614,
      "alfonso": 1615,
      "eer": 1616,
      "miros": 1617,
      "kimber": 1618,
      "jairo": 1619,
      "oy": 1620,
      "jh": 1621,
      "fredrik": 1622,
      "ilde": 1623,
      "abra": 1624,
      "sing": 1625,
      "joan": 1626,
      "hum": 1627,
      "mit": 1628,
      "wong": 1629,
      "nab": 1630,
      "elise": 1631,
      "theo": 1632,
      "manoj": 1633,
      "hannah": 1634,
      "vor": 1635,
      "margaret": 1636,
      "rudy": 1637,
      "sari": 1638,
      "brayan": 1639,
      "hernan": 1640,
      "cie": 1641,
      "camilo": 1642,
      "beata": 1643,
      "emilio": 1644,
      "nestor": 1645,
      "dominique": 1646,
      "malgorz": 1647,
      "astrid": 1648,
      "helene": 1649,
      "malgorzata": 1650,
      "elin": 1651,
      "karl": 1652,
      "gian": 1653,
      "joz": 1654,
      "leonel": 1655,
      "sandr": 1656,
      "erwin": 1657,
      "jet": 1658,
      "rosi": 1659,
      "stella": 1660,
      "goran": 1661,
      "marlon": 1662,
      "irul": 1663,
      "patricio": 1664,
      "margarida": 1665,
      "rim": 1666,
      "nichola": 1667,
      "main": 1668,
      "silvana": 1669,
      "milag": 1670,
      "line": 1671,
      "thierry": 1672,
      "magnus": 1673,
      "federico": 1674,
      "tun": 1675,
      "arn": 1676,
      "hamid": 1677,
      "ras": 1678,
      "pelo": 1679,
      "ada": 1680,
      "abraham": 1681,
      "katarina": 1682,
      "ardi": 1683,
      "guy": 1684,
      "wer": 1685,
      "rine": 1686,
      "tebogo": 1687,
      "josephine": 1688,
      "sad": 1689,
      "elaine": 1690,
      "sandy": 1691,
      "miha": 1692,
      "bog": 1693,
      "allan": 1694,
      "jurgen": 1695,
      "mani": 1696,
      "cious": 1697,
      "paolo": 1698,
      "isy": 1699,
      "sebastien": 1700,
      "nom": 1701,
      "zah": 1702,
      "adalu": 1703,
      "guadalu": 1704,
      "guadalupe": 1705,
      "eka": 1706,
      "harry": 1707,
      "fredy": 1708,
      "jaros": 1709,
      "maj": 1710,
      "marisa": 1711,
      "serge": 1712,
      "belen": 1713,
      "zen": 1714,
      "anderson": 1715,
      "rio": 1716,
      "moses": 1717,
      "bla": 1718,
      "lorenzo": 1719,
      "ange": 1720,
      "luciano": 1721,
      "zej": 1722,
      "nicholas": 1723,
      "lily": 1724,
      "inge": 1725,
      "mot": 1726,
      "eugenia": 1727,
      "amina": 1728,
      "kgo": 1729,
      "cedric": 1730,
      "jef": 1731,
      "krish": 1732,
      "ramiro": 1733,
      "boris": 1734,
      "lem": 1735,
      "zsol": 1736,
      "carl": 1737,
      "atan": 1738,
      "etse": 1739,
      "ante": 1740,
      "ilwe": 1741,
      "jacques": 1742,
      "marion": 1743,
      "alen": 1744,
      "jani": 1745,
      "non": 1746,
      "milton": 1747,
      "idy": 1748,
      "tat": 1749,
      "precious": 1750,
      "matej": 1751,
      "stina": 1752,
      "mikael": 1753,
      "katerina": 1754,
      "ienne": 1755,
      "vas": 1756,
      "amal": 1757,
      "bles": 1758,
      "danilo": 1759,
      "fabiola": 1760,
      "zena": 1761,
      "saif": 1762,
      "gerard": 1763,
      "kristian": 1764,
      "ind": 1765,
      "sri": 1766,
      "geo": 1767,
      "vilma": 1768,
      "jesper": 1769,
      "khan": 1770,
      "humberto": 1771,
      "willy": 1772,
      "imi": 1773,
      "calo": 1774,
      "zsolt": 1775,
      "kate": 1776,
      "natasha": 1777,
      "ayou": 1778,
      "mercy": 1779,
      "ut": 1780,
      "emilie": 1781,
      "jaz": 1782,
      "mahmo": 1783,
      "vivian": 1784,
      "milagros": 1785,
      "janne": 1786,
      "ling": 1787,
      "them": 1788,
      "mis": 1789,
      "matthias": 1790,
      "sandrine": 1791,
      "aleksandra": 1792,
      "mica": 1793,
      "sor": 1794,
      "sti": 1795,
      "jozsef": 1796,
      "loe": 1797,
      "era": 1798,
      "hic": 1799,
      "santos": 1800,
      "dinesh": 1801,
      "ayoub": 1802,
      "alin": 1803,
      "lind": 1804,
      "beatrice": 1805,
      "zsuz": 1806,
      "thato": 1807,
      "mette": 1808,
      "enc": 1809,
      "kal": 1810,
      "rahman": 1811,
      "ano": 1812,
      "irena": 1813,
      "wo": 1814,
      "dev": 1815,
      "itse": 1816,
      "thabo": 1817,
      "vira": 1818,
      "marjo": 1819,
      "bruna": 1820,
      "janos": 1821,
      "god": 1822,
      "andrzej": 1823,
      "auro": 1824,
      "wol": 1825,
      "mona": 1826,
      "hicham": 1827,
      "chloe": 1828,
      "tomislav": 1829,
      "jasmin": 1830,
      "lui": 1831,
      "kimberly": 1832,
      "elda": 1833,
      "hanne": 1834,
      "klau": 1835,
      "goncalo": 1836,
      "bler": 1837,
      "santosh": 1838,
      "ito": 1839,
      "amo": 1840,
      "pp": 1841,
      "deb": 1842,
      "nathan": 1843,
      "kas": 1844,
      "khadija": 1845,
      "therese": 1846,
      "jamie": 1847,
      "gilberto": 1848,
      "augusto": 1849,
      "ves": 1850,
      "imran": 1851,
      "sego": 1852,
      "selma": 1853,
      "wolf": 1854,
      "any": 1855,
      "edad": 1856,
      "blessing": 1857,
      "ach": 1858,
      "audrey": 1859,
      "vladimir": 1860,
      "estefan": 1861,
      "mateusz": 1862,
      "ilir": 1863,
      "mie": 1864,
      "bang": 1865,
      "ston": 1866,
      "faiz": 1867,
      "frederic": 1868,
      "hilda": 1869,
      "lenn": 1870,
      "etso": 1871,
      "oba": 1872,
      "sander": 1873,
      "marius": 1874,
      "deepak": 1875,
      "rapha": 1876,
      "rakesh": 1877,
      "kob": 1878,
      "dian": 1879,
      "usman": 1880,
      "dany": 1881,
      "asa": 1882,
      "gert": 1883,
      "dil": 1884,
      "norbert": 1885,
      "anas": 1886,
      "lian": 1887,
      "gif": 1888,
      "krishna": 1889,
      "kle": 1890,
      "yusuf": 1891,
      "magda": 1892,
      "liv": 1893,
      "endri": 1894,
      "alb": 1895,
      "cris": 1896,
      "zelj": 1897,
      "christelle": 1898,
      "helder": 1899,
      "viktor": 1900,
      "diane": 1901,
      "myriam": 1902,
      "kwu": 1903,
      "catalina": 1904,
      "rein": 1905,
      "raphael": 1906,
      "ieu": 1907,
      "mahmoud": 1908,
      "syed": 1909,
      "enia": 1910,
      "brahim": 1911,
      "jerry": 1912,
      "zia": 1913,
      "wolfgang": 1914,
      "fau": 1915,
      "glen": 1916,
      "undo": 1917,
      "yves": 1918,
      "manu": 1919,
      "hari": 1920,
      "abelo": 1921,
      "ivo": 1922,
      "esha": 1923,
      "giul": 1924,
      "anu": 1925,
      "luciana": 1926,
      "veronique": 1927,
      "filipa": 1928,
      "sham": 1929,
      "lucky": 1930,
      "deborah": 1931,
      "chukwu": 1932,
      "miroslav": 1933,
      "ricky": 1934,
      "bernad": 1935,
      "une": 1936,
      "mai": 1937,
      "francesca": 1938,
      "jah": 1939,
      "guilher": 1940,
      "neo": 1941,
      "dal": 1942,
      "ido": 1943,
      "yannick": 1944,
      "alvin": 1945,
      "dirk": 1946,
      "sofie": 1947,
      "amelia": 1948,
      "patry": 1949,
      "simona": 1950,
      "marin": 1951,
      "hani": 1952,
      "klara": 1953,
      "domingos": 1954,
      "romain": 1955,
      "amit": 1956,
      "khaled": 1957,
      "zd": 1958,
      "quiel": 1959,
      "anwar": 1960,
      "romina": 1961,
      "estela": 1962,
      "mariam": 1963,
      "marlen": 1964,
      "imena": 1965,
      "dek": 1966,
      "hit": 1967,
      "ora": 1968,
      "ashok": 1969,
      "prakash": 1970,
      "ife": 1971,
      "zain": 1972,
      "rom": 1973,
      "ferson": 1974,
      "maryam": 1975,
      "grze": 1976,
      "uk": 1977,
      "rizio": 1978,
      "ate": 1979,
      "bernardo": 1980,
      "arl": 1981,
      "grzegorz": 1982,
      "vind": 1983,
      "cristo": 1984,
      "valentin": 1985,
      "sey": 1986,
      "ilona": 1987,
      "bart": 1988,
      "eun": 1989,
      "raig": 1990,
      "abubakar": 1991,
      "camille": 1992,
      "ronny": 1993,
      "musa": 1994,
      "lul": 1995,
      "love": 1996,
      "katie": 1997,
      "arun": 1998,
      "iah": 1999,
      "aw": 2000,
      "hab": 2001,
      "kamil": 2002,
      "bran": 2003,
      "jeta": 2004,
      "sio": 2005,
      "kon": 2006,
      "elvira": 2007,
      "franklin": 2008,
      "liam": 2009,
      "mustapha": 2010,
      "suel": 2011,
      "darren": 2012,
      "maxime": 2013,
      "lah": 2014,
      "tshepo": 2015,
      "efrain": 2016,
      "kerstin": 2017,
      "kaj": 2018,
      "khairul": 2019,
      "sonu": 2020,
      "arben": 2021,
      "soledad": 2022,
      "azs": 2023,
      "balazs": 2024,
      "shel": 2025,
      "donna": 2026,
      "kryst": 2027,
      "hafiz": 2028,
      "nah": 2029,
      "umar": 2030,
      "ely": 2031,
      "gerhard": 2032,
      "adolfo": 2033,
      "herman": 2034,
      "flav": 2035,
      "guilherme": 2036,
      "kelvin": 2037,
      "elisab": 2038,
      "juha": 2039,
      "kyle": 2040,
      "isal": 2041,
      "saul": 2042,
      "jeffrey": 2043,
      "bad": 2044,
      "aline": 2045,
      "eunice": 2046,
      "mabel": 2047,
      "kit": 2048,
      "hilde": 2049,
      "usa": 2050,
      "carine": 2051,
      "klaus": 2052,
      "saiful": 2053,
      "mou": 2054,
      "hein": 2055,
      "hendra": 2056,
      "kristof": 2057,
      "sie": 2058,
      "fredo": 2059,
      "budi": 2060,
      "sheila": 2061,
      "sig": 2062,
      "muhamad": 2063,
      "vato": 2064,
      "stafa": 2065,
      "jil": 2066,
      "henrique": 2067,
      "ferenc": 2068,
      "sher": 2069,
      "esmer": 2070,
      "sula": 2071,
      "sco": 2072,
      "kristi": 2073,
      "faisal": 2074,
      "stein": 2075,
      "usi": 2076,
      "sophia": 2077,
      "hadi": 2078,
      "sandor": 2079,
      "csab": 2080,
      "dine": 2081,
      "maya": 2082,
      "omi": 2083,
      "joanne": 2084,
      "maureen": 2085,
      "edson": 2086,
      "salvato": 2087,
      "salvatore": 2088,
      "lisbeth": 2089,
      "antonella": 2090,
      "berta": 2091,
      "rasmus": 2092,
      "alban": 2093,
      "nabil": 2094,
      "edison": 2095,
      "zuz": 2096,
      "jaroslav": 2097,
      "soren": 2098,
      "stefano": 2099,
      "keith": 2100,
      "lana": 2101,
      "aj": 2102,
      "adriano": 2103,
      "kenny": 2104,
      "nada": 2105,
      "priscil": 2106,
      "aisha": 2107,
      "ezequiel": 2108,
      "ville": 2109,
      "irina": 2110,
      "eep": 2111,
      "suzana": 2112,
      "fried": 2113,
      "lilian": 2114,
      "chan": 2115,
      "stephan": 2116,
      "mukesh": 2117,
      "scott": 2118,
      "indra": 2119,
      "eg": 2120,
      "ernest": 2121,
      "flavio": 2122,
      "ema": 2123,
      "katalin": 2124,
      "tereza": 2125,
      "cs": 2126,
      "gia": 2127,
      "madou": 2128,
      "wilfredo": 2129,
      "dayana": 2130,
      "daniele": 2131,
      "patien": 2132,
      "patience": 2133,
      "maz": 2134,
      "matteo": 2135,
      "rafal": 2136,
      "andras": 2137,
      "gie": 2138,
      "jakob": 2139,
      "mikko": 2140,
      "laila": 2141,
      "judit": 2142,
      "didier": 2143,
      "katle": 2144,
      "aurora": 2145,
      "mariusz": 2146,
      "esmeralda": 2147,
      "carole": 2148,
      "noelia": 2149,
      "anibal": 2150,
      "eliana": 2151,
      "dis": 2152,
      "dul": 2153,
      "catia": 2154,
      "cey": 2155,
      "joey": 2156,
      "ush": 2157,
      "malin": 2158,
      "bam": 2159,
      "clement": 2160,
      "yul": 2161,
      "andile": 2162,
      "sou": 2163,
      "raine": 2164,
      "mh": 2165,
      "itz": 2166,
      "rome": 2167,
      "salva": 2168,
      "antoine": 2169,
      "debbie": 2170,
      "ago": 2171,
      "end": 2172,
      "manfred": 2173,
      "csaba": 2174,
      "dewi": 2175,
      "ileen": 2176,
      "domen": 2177,
      "teri": 2178,
      "bettina": 2179,
      "philipp": 2180,
      "solange": 2181,
      "yassine": 2182,
      "laume": 2183,
      "guillaume": 2184,
      "tracy": 2185,
      "arth": 2186,
      "arthur": 2187,
      "marcio": 2188,
      "babu": 2189,
      "mur": 2190,
      "ximena": 2191,
      "christiane": 2192,
      "kurt": 2193,
      "britt": 2194,
      "mehdi": 2195,
      "mariano": 2196,
      "jad": 2197,
      "delia": 2198,
      "jorgen": 2199,
      "anabela": 2200,
      "peran": 2201,
      "shi": 2202,
      "klaudia": 2203,
      "rence": 2204,
      "gabriella": 2205,
      "geraldine": 2206,
      "pai": 2207,
      "tshep": 2208,
      "haji": 2209,
      "esperan": 2210,
      "bou": 2211,
      "wia": 2212,
      "priscilla": 2213,
      "gas": 2214,
      "clar": 2215,
      "muhammed": 2216,
      "bun": 2217,
      "imir": 2218,
      "itumelo": 2219,
      "tre": 2220,
      "fabrice": 2221,
      "thy": 2222,
      "jol": 2223,
      "mb": 2224,
      "thu": 2225,
      "cathy": 2226,
      "donald": 2227,
      "lola": 2228,
      "eko": 2229,
      "kele": 2230,
      "tif": 2231,
      "katia": 2232,
      "ako": 2233,
      "sir": 2234,
      "uni": 2235,
      "werner": 2236,
      "bilal": 2237,
      "tam": 2238,
      "wid": 2239,
      "bened": 2240,
      "niels": 2241,
      "abdou": 2242,
      "craig": 2243,
      "cky": 2244,
      "stefanie": 2245,
      "ys": 2246,
      "francoise": 2247,
      "lorraine": 2248,
      "kasia": 2249,
      "kristin": 2250,
      "leonor": 2251,
      "maxim": 2252,
      "paulus": 2253,
      "sale": 2254,
      "mandy": 2255,
      "ego": 2256,
      "katlego": 2257,
      "filwe": 2258,
      "tibor": 2259,
      "corin": 2260,
      "darwin": 2261,
      "luigi": 2262,
      "bl": 2263,
      "davide": 2264,
      "yani": 2265,
      "fir": 2266,
      "mirian": 2267,
      "rico": 2268,
      "lynn": 2269,
      "edg": 2270,
      "putra": 2271,
      "macie": 2272,
      "gabriele": 2273,
      "petrus": 2274,
      "anette": 2275,
      "sally": 2276,
      "tang": 2277,
      "janice": 2278,
      "fiona": 2279,
      "pol": 2280,
      "angeles": 2281,
      "jhonny": 2282,
      "nour": 2283,
      "lovel": 2284,
      "bard": 2285,
      "amine": 2286,
      "erin": 2287,
      "annika": 2288,
      "dean": 2289,
      "siva": 2290,
      "arna": 2291,
      "fac": 2292,
      "mahesh": 2293,
      "pita": 2294,
      "irfan": 2295,
      "andri": 2296,
      "mehmet": 2297,
      "rash": 2298,
      "inga": 2299,
      "ildi": 2300,
      "brit": 2301,
      "nda": 2302,
      "lesego": 2303,
      "akash": 2304,
      "bia": 2305,
      "theus": 2306,
      "salvador": 2307,
      "jackie": 2308,
      "andrej": 2309,
      "rohit": 2310,
      "dag": 2311,
      "kathy": 2312,
      "maurice": 2313,
      "iwe": 2314,
      "harald": 2315,
      "saad": 2316,
      "aracel": 2317,
      "radek": 2318,
      "stef": 2319,
      "av": 2320,
      "nicol": 2321,
      "segun": 2322,
      "all": 2323,
      "niklas": 2324,
      "josefina": 2325,
      "ilson": 2326,
      "dorota": 2327,
      "renate": 2328,
      "inger": 2329,
      "jorg": 2330,
      "jocel": 2331,
      "ganesh": 2332,
      "youn": 2333,
      "fid": 2334,
      "mena": 2335,
      "faith": 2336,
      "fla": 2337,
      "damien": 2338,
      "romeo": 2339,
      "rebeca": 2340,
      "thabang": 2341,
      "mathieu": 2342,
      "chiara": 2343,
      "abul": 2344,
      "zana": 2345,
      "matheus": 2346,
      "kirsten": 2347,
      "marti": 2348,
      "pieter": 2349,
      "armin": 2350,
      "annemarie": 2351,
      "damaris": 2352,
      "naomi": 2353,
      "karia": 2354,
      "hla": 2355,
      "colin": 2356,
      "sabina": 2357,
      "viktoria": 2358,
      "maik": 2359,
      "theresa": 2360,
      "lip": 2361,
      "kabelo": 2362,
      "vincenzo": 2363,
      "nasir": 2364,
      "vania": 2365,
      "elmer": 2366,
      "amp": 2367,
      "kofi": 2368,
      "lur": 2369,
      "boitumelo": 2370,
      "wah": 2371,
      "antti": 2372,
      "rand": 2373,
      "rus": 2374,
      "king": 2375,
      "hor": 2376,
      "aneta": 2377,
      "debora": 2378,
      "are": 2379,
      "szil": 2380,
      "kag": 2381,
      "ludo": 2382,
      "red": 2383,
      "isabella": 2384,
      "desmond": 2385,
      "conce": 2386,
      "suzanne": 2387,
      "abena": 2388,
      "slav": 2389,
      "edgardo": 2390,
      "justyna": 2391,
      "melvin": 2392,
      "fabiana": 2393,
      "ivica": 2394,
      "bala": 2395,
      "leta": 2396,
      "guido": 2397,
      "alison": 2398,
      "jari": 2399,
      "greg": 2400,
      "riel": 2401,
      "ayu": 2402,
      "sandeep": 2403,
      "itri": 2404,
      "krisztina": 2405,
      "yamil": 2406,
      "leonard": 2407,
      "ania": 2408,
      "ion": 2409,
      "wilmer": 2410,
      "woj": 2411,
      "karel": 2412,
      "abdi": 2413,
      "willem": 2414,
      "henk": 2415,
      "lasse": 2416,
      "mostafa": 2417,
      "mireille": 2418,
      "kab": 2419,
      "bambang": 2420,
      "demar": 2421,
      "kul": 2422,
      "jasmine": 2423,
      "adnan": 2424,
      "ildiko": 2425,
      "lawrence": 2426,
      "vinod": 2427,
      "johana": 2428,
      "sas": 2429,
      "jus": 2430,
      "iswa": 2431,
      "mads": 2432,
      "thiago": 2433,
      "ess": 2434,
      "iw": 2435,
      "massimo": 2436,
      "asi": 2437,
      "luke": 2438,
      "salim": 2439,
      "farah": 2440,
      "arnaud": 2441,
      "gregory": 2442,
      "nelia": 2443,
      "por": 2444,
      "minna": 2445,
      "filo": 2446,
      "fad": 2447,
      "eddie": 2448,
      "pekka": 2449,
      "fe": 2450,
      "chandra": 2451,
      "zor": 2452,
      "constan": 2453,
      "charlie": 2454,
      "dawid": 2455,
      "laurence": 2456,
      "vesna": 2457,
      "kang": 2458,
      "hian": 2459,
      "fatma": 2460,
      "lurdes": 2461,
      "karabo": 2462,
      "arne": 2463,
      "kamo": 2464,
      "erz": 2465,
      "eem": 2466,
      "iwona": 2467,
      "dulce": 2468,
      "uta": 2469,
      "leslie": 2470,
      "pern": 2471,
      "luana": 2472,
      "benny": 2473,
      "rolf": 2474,
      "lupita": 2475,
      "esperanza": 2476,
      "lovely": 2477,
      "ulla": 2478,
      "tek": 2479,
      "etty": 2480,
      "oma": 2481,
      "zeljko": 2482,
      "ity": 2483,
      "yesenia": 2484,
      "jeroen": 2485,
      "kagiso": 2486,
      "florencia": 2487,
      "shawn": 2488,
      "lindi": 2489,
      "justine": 2490,
      "thea": 2491,
      "gene": 2492,
      "franck": 2493,
      "yuli": 2494,
      "gabi": 2495,
      "arda": 2496,
      "matilde": 2497,
      "cyril": 2498,
      "omo": 2499,
      "suraj": 2500,
      "pad": 2501,
      "virginie": 2502,
      "janeth": 2503,
      "jelena": 2504,
      "randy": 2505,
      "maa": 2506,
      "jela": 2507,
      "diet": 2508,
      "liza": 2509,
      "joni": 2510,
      "hol": 2511,
      "neil": 2512,
      "aurelie": 2513,
      "alonso": 2514,
      "igh": 2515,
      "zam": 2516,
      "rana": 2517,
      "rosita": 2518,
      "yaw": 2519,
      "madalena": 2520,
      "reyn": 2521,
      "luiz": 2522,
      "jake": 2523,
      "marilyn": 2524,
      "rok": 2525,
      "xol": 2526,
      "enek": 2527,
      "sanja": 2528,
      "damir": 2529,
      "ow": 2530,
      "manon": 2531,
      "barry": 2532,
      "fahad": 2533,
      "vanesa": 2534,
      "zar": 2535,
      "lia": 2536,
      "aman": 2537,
      "matti": 2538,
      "thabiso": 2539,
      "genes": 2540,
      "leidy": 2541,
      "cristhian": 2542,
      "terry": 2543,
      "dejan": 2544,
      "ved": 2545,
      "ronaldo": 2546,
      "zden": 2547,
      "ob": 2548,
      "mod": 2549,
      "estefania": 2550,
      "deon": 2551,
      "eto": 2552,
      "lebogang": 2553,
      "maximil": 2554,
      "cand": 2555,
      "micaela": 2556,
      "fabienne": 2557,
      "giovanna": 2558,
      "esi": 2559,
      "eugene": 2560,
      "lone": 2561,
      "sipho": 2562,
      "pasc": 2563,
      "stine": 2564,
      "megan": 2565,
      "angelika": 2566,
      "marketa": 2567,
      "derek": 2568,
      "var": 2569,
      "dari": 2570,
      "byron": 2571,
      "gilles": 2572,
      "zdenek": 2573,
      "corinne": 2574,
      "helle": 2575,
      "dris": 2576,
      "jesse": 2577,
      "vet": 2578,
      "matija": 2579,
      "reg": 2580,
      "his": 2581,
      "glenn": 2582,
      "chen": 2583,
      "noe": 2584,
      "felicia": 2585,
      "alal": 2586,
      "elma": 2587,
      "katharina": 2588,
      "aiman": 2589,
      "viviane": 2590,
      "samira": 2591,
      "solo": 2592,
      "iq": 2593,
      "celeste": 2594,
      "cher": 2595,
      "edna": 2596,
      "gerson": 2597,
      "mohan": 2598,
      "ondra": 2599,
      "tay": 2600,
      "ruz": 2601,
      "eline": 2602,
      "amirul": 2603,
      "elina": 2604,
      "say": 2605,
      "glas": 2606,
      "eszter": 2607,
      "fany": 2608,
      "syah": 2609,
      "iwan": 2610,
      "rune": 2611,
      "fu": 2612,
      "tiina": 2613,
      "lise": 2614,
      "phillip": 2615,
      "salma": 2616,
      "pen": 2617,
      "wale": 2618,
      "evan": 2619,
      "jtim": 2620,
      "pon": 2621,
      "gaston": 2622,
      "solomon": 2623,
      "ico": 2624,
      "phiwe": 2625,
      "nay": 2626,
      "altin": 2627,
      "flora": 2628,
      "veen": 2629,
      "iao": 2630,
      "wim": 2631,
      "sylwia": 2632,
      "josiane": 2633,
      "mateus": 2634,
      "sunday": 2635,
      "zsuzsanna": 2636,
      "larissa": 2637,
      "rigo": 2638,
      "pepe": 2639,
      "chand": 2640,
      "udu": 2641,
      "alessandra": 2642,
      "sascha": 2643,
      "cek": 2644,
      "aina": 2645,
      "goitse": 2646,
      "lov": 2647,
      "genesis": 2648,
      "haya": 2649,
      "jukka": 2650,
      "icha": 2651,
      "kai": 2652,
      "zoran": 2653,
      "eliane": 2654,
      "afonso": 2655,
      "icao": 2656,
      "conceicao": 2657,
      "tito": 2658,
      "reynaldo": 2659,
      "tis": 2660,
      "shu": 2661,
      "ather": 2662,
      "heather": 2663,
      "georges": 2664,
      "wis": 2665,
      "mats": 2666,
      "gilbert": 2667,
      "douglas": 2668,
      "ziq": 2669,
      "rama": 2670,
      "ardit": 2671,
      "thapelo": 2672,
      "dolor": 2673,
      "tse": 2674,
      "calvin": 2675,
      "ayo": 2676,
      "lerato": 2677,
      "amand": 2678,
      "jacek": 2679,
      "motso": 2680,
      "lum": 2681,
      "lies": 2682,
      "thando": 2683,
      "kis": 2684,
      "lud": 2685,
      "rogel": 2686,
      "rogelio": 2687,
      "mariel": 2688,
      "darko": 2689,
      "beno": 2690,
      "priya": 2691,
      "jazmin": 2692,
      "kamila": 2693,
      "honza": 2694,
      "jefferson": 2695,
      "pir": 2696,
      "claudine": 2697,
      "sali": 2698,
      "chim": 2699,
      "gent": 2700,
      "shiv": 2701,
      "javi": 2702,
      "kathleen": 2703,
      "sn": 2704,
      "yaz": 2705,
      "mut": 2706,
      "yousef": 2707,
      "bis": 2708,
      "antoni": 2709,
      "josel": 2710,
      "arie": 2711,
      "jhonatan": 2712,
      "wes": 2713,
      "kwame": 2714,
      "ervin": 2715,
      "ii": 2716,
      "tine": 2717,
      "bash": 2718,
      "wanda": 2719,
      "chong": 2720,
      "patrice": 2721,
      "frederik": 2722,
      "jitka": 2723,
      "agata": 2724,
      "jeanne": 2725,
      "bro": 2726,
      "cristobal": 2727,
      "hora": 2728,
      "kerry": 2729,
      "beto": 2730,
      "sunny": 2731,
      "leena": 2732,
      "jure": 2733,
      "kristine": 2734,
      "dwayne": 2735,
      "yon": 2736,
      "vu": 2737,
      "gyor": 2738,
      "tomi": 2739,
      "cec": 2740,
      "evelin": 2741,
      "nit": 2742,
      "yin": 2743,
      "bernadette": 2744,
      "rohan": 2745,
      "salah": 2746,
      "nd": 2747,
      "henn": 2748,
      "jimena": 2749,
      "amar": 2750,
      "pand": 2751,
      "sameer": 2752,
      "jdi": 2753,
      "anneli": 2754,
      "aria": 2755,
      "zon": 2756,
      "estr": 2757,
      "conor": 2758,
      "ramona": 2759,
      "salo": 2760,
      "tit": 2761,
      "gyorgy": 2762,
      "trevor": 2763,
      "fort": 2764,
      "malak": 2765,
      "gisela": 2766,
      "hat": 2767,
      "jeet": 2768,
      "mirta": 2769,
      "jith": 2770,
      "wilma": 2771,
      "idah": 2772,
      "benoit": 2773,
      "mirko": 2774,
      "phine": 2775,
      "zbi": 2776,
      "elzbi": 2777,
      "elzbieta": 2778,
      "jell": 2779,
      "vale": 2780,
      "tade": 2781,
      "bente": 2782,
      "arjun": 2783,
      "alam": 2784,
      "ain": 2785,
      "prem": 2786,
      "tian": 2787,
      "preet": 2788,
      "misa": 2789,
      "kasper": 2790,
      "yad": 2791,
      "jona": 2792,
      "joakim": 2793,
      "susanna": 2794,
      "kwa": 2795,
      "dolores": 2796,
      "geov": 2797,
      "alph": 2798,
      "eno": 2799,
      "yana": 2800,
      "felic": 2801,
      "besnik": 2802,
      "silvio": 2803,
      "vero": 2804,
      "shaun": 2805,
      "zakaria": 2806,
      "charmaine": 2807,
      "maciej": 2808,
      "ais": 2809,
      "manish": 2810,
      "magaly": 2811,
      "filomena": 2812,
      "elodie": 2813,
      "abdullahi": 2814,
      "laure": 2815,
      "gris": 2816,
      "ilah": 2817,
      "vir": 2818,
      "ulri": 2819,
      "hir": 2820,
      "juliet": 2821,
      "tumelo": 2822,
      "ffen": 2823,
      "eben": 2824,
      "ell": 2825,
      "ap": 2826,
      "hlan": 2827,
      "hlanhla": 2828,
      "shad": 2829,
      "mirjana": 2830,
      "klo": 2831,
      "rodrigu": 2832,
      "lucija": 2833,
      "yah": 2834,
      "daisy": 2835,
      "hendri": 2836,
      "ikka": 2837,
      "naj": 2838,
      "gezim": 2839,
      "isaias": 2840,
      "fatmir": 2841,
      "cheryl": 2842,
      "flavia": 2843,
      "alc": 2844,
      "cecile": 2845,
      "danijel": 2846,
      "paivi": 2847,
      "zuzana": 2848,
      "aleksander": 2849,
      "zak": 2850,
      "maha": 2851,
      "hav": 2852,
      "natasa": 2853,
      "elio": 2854,
      "leila": 2855,
      "gift": 2856,
      "yuri": 2857,
      "miche": 2858,
      "micheal": 2859,
      "tore": 2860,
      "fin": 2861,
      "jho": 2862,
      "heinz": 2863,
      "kati": 2864,
      "madele": 2865,
      "tea": 2866,
      "loic": 2867,
      "fabric": 2868,
      "agustina": 2869,
      "sylva": 2870,
      "jacky": 2871,
      "heri": 2872,
      "isiwe": 2873,
      "giulia": 2874,
      "jeanette": 2875,
      "mikkel": 2876,
      "anais": 2877,
      "com": 2878,
      "vishal": 2879,
      "sah": 2880,
      "ides": 2881,
      "geir": 2882,
      "pul": 2883,
      "ket": 2884,
      "esia": 2885,
      "hjh": 2886,
      "hanan": 2887,
      "habib": 2888,
      "marika": 2889,
      "vinic": 2890,
      "margo": 2891,
      "raim": 2892,
      "uso": 2893,
      "dolf": 2894,
      "emer": 2895,
      "dominika": 2896,
      "adilson": 2897,
      "cent": 2898,
      "jocelyn": 2899,
      "bernhard": 2900,
      "davor": 2901,
      "boy": 2902,
      "zem": 2903,
      "kata": 2904,
      "eileen": 2905,
      "madeleine": 2906,
      "bill": 2907,
      "inno": 2908,
      "innocent": 2909,
      "ahmet": 2910,
      "krisztian": 2911,
      "connie": 2912,
      "jaya": 2913,
      "iven": 2914,
      "amil": 2915,
      "stefania": 2916,
      "urs": 2917,
      "hus": 2918,
      "agim": 2919,
      "bertha": 2920,
      "vit": 2921,
      "amparo": 2922,
      "emu": 2923,
      "rudi": 2924,
      "jade": 2925,
      "dwi": 2926,
      "yong": 2927,
      "facundo": 2928,
      "abdiel": 2929,
      "aicha": 2930,
      "malik": 2931,
      "aku": 2932,
      "get": 2933,
      "janine": 2934,
      "keem": 2935,
      "agron": 2936,
      "violeta": 2937,
      "div": 2938,
      "portia": 2939,
      "nev": 2940,
      "kol": 2941,
      "lito": 2942,
      "rata": 2943,
      "ivy": 2944,
      "jeannette": 2945,
      "julieta": 2946,
      "gaone": 2947,
      "mand": 2948,
      "elida": 2949,
      "gaet": 2950,
      "fabricio": 2951,
      "petar": 2952,
      "carsten": 2953,
      "matilda": 2954,
      "pankaj": 2955,
      "trine": 2956,
      "tunde": 2957,
      "waldo": 2958,
      "osman": 2959,
      "yar": 2960,
      "los": 2961,
      "maic": 2962,
      "sever": 2963,
      "oth": 2964,
      "rizia": 2965,
      "daus": 2966,
      "syafiq": 2967,
      "tiffany": 2968,
      "sis": 2969,
      "joze": 2970,
      "gavin": 2971,
      "queen": 2972,
      "kor": 2973,
      "elisabete": 2974,
      "hos": 2975,
      "hannes": 2976,
      "mhmd": 2977,
      "steffen": 2978,
      "maggie": 2979,
      "ashraf": 2980,
      "putri": 2981,
      "brad": 2982,
      "ero": 2983,
      "rag": 2984,
      "joelle": 2985,
      "dino": 2986,
      "hussa": 2987,
      "yadira": 2988,
      "gemma": 2989,
      "ai": 2990,
      "mae": 2991,
      "herve": 2992,
      "albi": 2993,
      "arjan": 2994,
      "zoe": 2995,
      "juanita": 2996,
      "dori": 2997,
      "jaana": 2998,
      "christof": 2999,
      "lax": 3000,
      "trim": 3001,
      "hek": 3002,
      "brid": 3003,
      "laet": 3004,
      "aid": 3005,
      "rikke": 3006,
      "julius": 3007,
      "harri": 3008,
      "ondre": 3009,
      "ondrej": 3010,
      "eugenio": 3011,
      "ayman": 3012,
      "domenico": 3013,
      "dun": 3014,
      "oluwa": 3015,
      "frim": 3016,
      "celi": 3017,
      "raffa": 3018,
      "tatjana": 3019,
      "souf": 3020,
      "liliane": 3021,
      "nacho": 3022,
      "doreen": 3023,
      "dariusz": 3024,
      "onga": 3025,
      "annon": 3026,
      "bea": 3027,
      "sagar": 3028,
      "emie": 3029,
      "mavis": 3030,
      "haziq": 3031,
      "bence": 3032,
      "lora": 3033,
      "alexa": 3034,
      "sylvain": 3035,
      "charity": 3036,
      "fina": 3037,
      "conny": 3038,
      "claus": 3039,
      "cecilie": 3040,
      "yeni": 3041,
      "ede": 3042,
      "teemu": 3043,
      "marita": 3044,
      "petri": 3045,
      "comfort": 3046,
      "kinga": 3047,
      "bozena": 3048,
      "drag": 3049,
      "szilvia": 3050,
      "sasa": 3051,
      "patrizia": 3052,
      "zdenka": 3053,
      "dip": 3054,
      "bobby": 3055,
      "clav": 3056,
      "vaclav": 3057,
      "xio": 3058,
      "luan": 3059,
      "karine": 3060,
      "yemi": 3061,
      "kiran": 3062,
      "ert": 3063,
      "magali": 3064,
      "js": 3065,
      "nen": 3066,
      "katrin": 3067,
      "cristiano": 3068,
      "sley": 3069,
      "jolan": 3070,
      "katy": 3071,
      "hakan": 3072,
      "delphine": 3073,
      "lesh": 3074,
      "joachim": 3075,
      "mateja": 3076,
      "desire": 3077,
      "tavio": 3078,
      "gregor": 3079,
      "aracely": 3080,
      "zu": 3081,
      "bin": 3082,
      "ewel": 3083,
      "seth": 3084,
      "tshego": 3085,
      "aya": 3086,
      "artan": 3087,
      "quent": 3088,
      "quentin": 3089,
      "bernd": 3090,
      "irah": 3091,
      "yaneth": 3092,
      "ewelina": 3093,
      "ey": 3094,
      "court": 3095,
      "pearl": 3096,
      "courtney": 3097,
      "hend": 3098,
      "masego": 3099,
      "hamed": 3100,
      "otto": 3101,
      "margit": 3102,
      "lotta": 3103,
      "von": 3104,
      "osa": 3105,
      "hj": 3106,
      "goh": 3107,
      "johann": 3108,
      "ege": 3109,
      "lita": 3110,
      "melinda": 3111,
      "rosy": 3112,
      "ea": 3113,
      "ntom": 3114,
      "brigh": 3115,
      "ross": 3116,
      "leif": 3117,
      "ruby": 3118,
      "roberta": 3119,
      "kem": 3120,
      "zahra": 3121,
      "wu": 3122,
      "caro": 3123,
      "agn": 3124,
      "gregorio": 3125,
      "maxi": 3126,
      "noah": 3127,
      "saj": 3128,
      "ardian": 3129,
      "bino": 3130,
      "ei": 3131,
      "male": 3132,
      "danijela": 3133,
      "mattias": 3134,
      "salman": 3135,
      "henriette": 3136,
      "nela": 3137,
      "dawn": 3138,
      "bora": 3139,
      "cja": 3140,
      "ao": 3141,
      "wahyu": 3142,
      "rosalia": 3143,
      "ggy": 3144,
      "nuria": 3145,
      "nikolina": 3146,
      "estu": 3147,
      "benedic": 3148,
      "patty": 3149,
      "iqbal": 3150,
      "emiliano": 3151,
      "niam": 3152,
      "niamh": 3153,
      "flori": 3154,
      "bela": 3155,
      "obak": 3156,
      "busiso": 3157,
      "reza": 3158,
      "shannon": 3159,
      "miranda": 3160,
      "pernille": 3161,
      "toya": 3162,
      "alyn": 3163,
      "sima": 3164,
      "kabo": 3165,
      "mirjam": 3166,
      "patrycja": 3167,
      "jermaine": 3168,
      "maurizio": 3169,
      "tshepiso": 3170,
      "marjorie": 3171,
      "june": 3172,
      "amalia": 3173,
      "afiq": 3174,
      "ivonne": 3175,
      "abdella": 3176,
      "jc": 3177,
      "adrien": 3178,
      "jeev": 3179,
      "astrit": 3180,
      "consuel": 3181,
      "consuelo": 3182,
      "time": 3183,
      "timea": 3184,
      "else": 3185,
      "armand": 3186,
      "sid": 3187,
      "edin": 3188,
      "dieter": 3189,
      "arte": 3190,
      "ralf": 3191,
      "mathilde": 3192,
      "jolanta": 3193,
      "wesley": 3194,
      "moha": 3195,
      "sub": 3196,
      "szab": 3197,
      "sinead": 3198,
      "kuba": 3199,
      "xiomara": 3200,
      "silva": 3201,
      "arlene": 3202,
      "walid": 3203,
      "arnold": 3204,
      "helga": 3205,
      "romana": 3206,
      "przem": 3207,
      "tsholo": 3208,
      "asia": 3209,
      "thor": 3210,
      "gesh": 3211,
      "oc": 3212,
      "suman": 3213,
      "slaw": 3214,
      "winnie": 3215,
      "georgina": 3216,
      "segundo": 3217,
      "antony": 3218,
      "krystyna": 3219,
      "zin": 3220,
      "dominic": 3221,
      "lorna": 3222,
      "milos": 3223,
      "ezer": 3224,
      "ebenezer": 3225,
      "lung": 3226,
      "sofi": 3227,
      "tyler": 3228,
      "bujar": 3229,
      "helmut": 3230,
      "tome": 3231,
      "lat": 3232,
      "pradeep": 3233,
      "elien": 3234,
      "kjell": 3235,
      "elton": 3236,
      "frida": 3237,
      "gopal": 3238,
      "itia": 3239,
      "laetitia": 3240,
      "angelina": 3241,
      "nadege": 3242,
      "dah": 3243,
      "shkel": 3244,
      "nils": 3245,
      "mul": 3246,
      "pascale": 3247,
      "bever": 3248,
      "kemar": 3249,
      "abdula": 3250,
      "collin": 3251,
      "tl": 3252,
      "kristyna": 3253,
      "judy": 3254,
      "muthu": 3255,
      "kgomotso": 3256,
      "haj": 3257,
      "rem": 3258,
      "joko": 3259,
      "vida": 3260,
      "nam": 3261,
      "tanya": 3262,
      "herbert": 3263,
      "yenny": 3264,
      "ursula": 3265,
      "firdaus": 3266,
      "sho": 3267,
      "marijana": 3268,
      "bertrand": 3269,
      "rudolf": 3270,
      "yvette": 3271,
      "cila": 3272,
      "billy": 3273,
      "amaril": 3274,
      "reyna": 3275,
      "siy": 3276,
      "voj": 3277,
      "rafaela": 3278,
      "usu": 3279,
      "santi": 3280,
      "florent": 3281,
      "bogile": 3282,
      "katri": 3283,
      "peggy": 3284,
      "cornelia": 3285,
      "dur": 3286,
      "sica": 3287,
      "yessica": 3288,
      "ande": 3289,
      "sebet": 3290,
      "erzsebet": 3291,
      "ciara": 3292,
      "bongani": 3293,
      "fatin": 3294,
      "shyam": 3295,
      "alessio": 3296,
      "yassin": 3297,
      "kko": 3298,
      "rashid": 3299,
      "yer": 3300,
      "moussa": 3301,
      "estrella": 3302,
      "timothy": 3303,
      "izz": 3304,
      "luna": 3305,
      "satu": 3306,
      "maame": 3307,
      "farid": 3308,
      "dragan": 3309,
      "fari": 3310,
      "khai": 3311,
      "felo": 3312,
      "dion": 3313,
      "sani": 3314,
      "lizeth": 3315,
      "marja": 3316,
      "gifty": 3317,
      "naresh": 3318,
      "kok": 3319,
      "oswaldo": 3320,
      "rosana": 3321,
      "cryst": 3322,
      "unn": 3323,
      "crystal": 3324,
      "uwe": 3325,
      "yen": 3326,
      "ariana": 3327,
      "jola": 3328,
      "francine": 3329,
      "key": 3330,
      "mirna": 3331,
      "graca": 3332,
      "jenna": 3333,
      "gur": 3334,
      "kujtim": 3335,
      "zainab": 3336,
      "gelo": 3337,
      "ets": 3338,
      "hakim": 3339,
      "tso": 3340,
      "paco": 3341,
      "araceli": 3342,
      "elke": 3343,
      "tara": 3344,
      "ziz": 3345,
      "lad": 3346,
      "patryk": 3347,
      "jussi": 3348,
      "hr": 3349,
      "iska": 3350,
      "christa": 3351,
      "faust": 3352,
      "rica": 3353,
      "armen": 3354,
      "ethe": 3355,
      "brendan": 3356,
      "surya": 3357,
      "driss": 3358,
      "tracey": 3359,
      "ming": 3360,
      "sei": 3361,
      "horacio": 3362,
      "karlo": 3363,
      "xin": 3364,
      "rogerio": 3365,
      "arber": 3366,
      "shahid": 3367,
      "pav": 3368,
      "monir": 3369,
      "grazyna": 3370,
      "edil": 3371,
      "rigoberto": 3372,
      "hild": 3373,
      "pela": 3374,
      "umesh": 3375,
      "octavio": 3376,
      "yos": 3377,
      "idris": 3378,
      "denisa": 3379,
      "wad": 3380,
      "amber": 3381,
      "ikh": 3382,
      "paty": 3383,
      "yamileth": 3384,
      "anabel": 3385,
      "charlene": 3386,
      "ethu": 3387,
      "thand": 3388,
      "ikki": 3389,
      "jaqueline": 3390,
      "sak": 3391,
      "jair": 3392,
      "zanele": 3393,
      "angelique": 3394,
      "nilda": 3395,
      "sanne": 3396,
      "hazel": 3397,
      "ciech": 3398,
      "wojciech": 3399,
      "kent": 3400,
      "ishnu": 3401,
      "teres": 3402,
      "beng": 3403,
      "kac": 3404,
      "meli": 3405,
      "ludovic": 3406,
      "moj": 3407,
      "naty": 3408,
      "kirsi": 3409,
      "mirela": 3410,
      "danuta": 3411,
      "acha": 3412,
      "mathew": 3413,
      "roshan": 3414,
      "vasco": 3415,
      "imane": 3416,
      "sarka": 3417,
      "aran": 3418,
      "annick": 3419,
      "jacin": 3420,
      "aniko": 3421,
      "roz": 3422,
      "hubert": 3423,
      "williams": 3424,
      "estuardo": 3425,
      "percy": 3426,
      "asif": 3427,
      "murat": 3428,
      "edit": 3429,
      "seb": 3430,
      "petter": 3431,
      "jackson": 3432,
      "maricela": 3433,
      "fun": 3434,
      "abile": 3435,
      "kingsley": 3436,
      "alessia": 3437,
      "dus": 3438,
      "sachin": 3439,
      "gianni": 3440,
      "apri": 3441,
      "egzon": 3442,
      "elly": 3443,
      "mol": 3444,
      "gaelle": 3445,
      "enrico": 3446,
      "hussain": 3447,
      "mimo": 3448,
      "bhar": 3449,
      "maximiliano": 3450,
      "mla": 3451,
      "dineo": 3452,
      "priscila": 3453,
      "josefa": 3454,
      "barto": 3455,
      "leah": 3456,
      "onel": 3457,
      "lionel": 3458,
      "sile": 3459,
      "pel": 3460,
      "mitch": 3461,
      "gladis": 3462,
      "alaa": 3463,
      "kier": 3464,
      "wati": 3465,
      "jessie": 3466,
      "finn": 3467,
      "verena": 3468,
      "stacy": 3469,
      "bright": 3470,
      "lindo": 3471,
      "nal": 3472,
      "anand": 3473,
      "hou": 3474,
      "kristoffer": 3475,
      "aq": 3476,
      "bap": 3477,
      "jir": 3478,
      "wou": 3479,
      "bojan": 3480,
      "sud": 3481,
      "hem": 3482,
      "adwo": 3483,
      "kene": 3484,
      "kho": 3485,
      "srin": 3486,
      "itta": 3487,
      "nikki": 3488,
      "ligia": 3489,
      "dhar": 3490,
      "agung": 3491,
      "bh": 3492,
      "shant": 3493,
      "harold": 3494,
      "maicol": 3495,
      "pietro": 3496,
      "eduarda": 3497,
      "thul": 3498,
      "dey": 3499,
      "ilham": 3500,
      "abou": 3501,
      "espen": 3502,
      "stu": 3503,
      "wik": 3504,
      "muru": 3505,
      "tte": 3506,
      "hendrik": 3507,
      "maart": 3508,
      "dagmar": 3509,
      "godwin": 3510,
      "nis": 3511,
      "lizbeth": 3512,
      "omph": 3513,
      "mann": 3514,
      "michi": 3515,
      "kand": 3516,
      "abder": 3517,
      "damion": 3518,
      "eb": 3519,
      "annamaria": 3520,
      "imam": 3521,
      "jirka": 3522,
      "isla": 3523,
      "barbora": 3524,
      "kabir": 3525,
      "can": 3526,
      "yd": 3527,
      "pavla": 3528,
      "tove": 3529,
      "islam": 3530,
      "unrul": 3531,
      "unruly": 3532,
      "heng": 3533,
      "tarja": 3534,
      "jabu": 3535,
      "shay": 3536,
      "klajdi": 3537,
      "voje": 3538,
      "endrit": 3539,
      "hrvoje": 3540,
      "becky": 3541,
      "edmond": 3542,
      "andreja": 3543,
      "renee": 3544,
      "abonga": 3545,
      "gordana": 3546,
      "awang": 3547,
      "kristijan": 3548,
      "terje": 3549,
      "aoife": 3550,
      "marianela": 3551,
      "eveline": 3552,
      "christoffer": 3553,
      "javiera": 3554,
      "fior": 3555,
      "mang": 3556,
      "gunnar": 3557,
      "marine": 3558,
      "ilia": 3559,
      "nea": 3560,
      "led": 3561,
      "charly": 3562,
      "gau": 3563,
      "oja": 3564,
      "omir": 3565,
      "fabrizio": 3566,
      "rizal": 3567,
      "pooja": 3568,
      "pawan": 3569,
      "joke": 3570,
      "ashish": 3571,
      "vina": 3572,
      "mund": 3573,
      "salome": 3574,
      "tomaz": 3575,
      "stanley": 3576,
      "gideon": 3577,
      "anis": 3578,
      "etienne": 3579,
      "hali": 3580,
      "irwan": 3581,
      "dita": 3582,
      "meleng": 3583,
      "celest": 3584,
      "itumeleng": 3585,
      "oumar": 3586,
      "aris": 3587,
      "chua": 3588,
      "rosemarie": 3589,
      "annmarie": 3590,
      "ermal": 3591,
      "danish": 3592,
      "loki": 3593,
      "baptis": 3594,
      "latoya": 3595,
      "blerim": 3596,
      "bhan": 3597,
      "macar": 3598,
      "emerson": 3599,
      "eo": 3600,
      "mim": 3601,
      "thabis": 3602,
      "kelebogile": 3603,
      "alhassan": 3604,
      "adan": 3605,
      "bridget": 3606,
      "griselda": 3607,
      "berit": 3608,
      "yasmin": 3609,
      "katrina": 3610,
      "nataly": 3611,
      "genti": 3612,
      "dilip": 3613,
      "riccardo": 3614,
      "stje": 3615,
      "bib": 3616,
      "natacha": 3617,
      "inma": 3618,
      "zb": 3619,
      "joo": 3620,
      "aba": 3621,
      "cer": 3622,
      "karan": 3623,
      "gergo": 3624,
      "chandan": 3625,
      "rado": 3626,
      "stian": 3627,
      "gro": 3628,
      "petrit": 3629,
      "sokol": 3630,
      "albertina": 3631,
      "bjar": 3632,
      "vita": 3633,
      "ralph": 3634,
      "kefilwe": 3635,
      "geert": 3636,
      "neha": 3637,
      "melany": 3638,
      "gior": 3639,
      "derrick": 3640,
      "jitendra": 3641,
      "ibu": 3642,
      "yesica": 3643,
      "tle": 3644,
      "sai": 3645,
      "nicky": 3646,
      "faizal": 3647,
      "carola": 3648,
      "amelie": 3649,
      "jill": 3650,
      "reinaldo": 3651,
      "koen": 3652,
      "gianluca": 3653,
      "devon": 3654,
      "sharif": 3655,
      "ayanda": 3656,
      "fik": 3657,
      "justice": 3658,
      "alis": 3659,
      "fabien": 3660,
      "yaku": 3661,
      "adelina": 3662,
      "federica": 3663,
      "gofa": 3664,
      "alic": 3665,
      "alicja": 3666,
      "nati": 3667,
      "nino": 3668,
      "marleny": 3669,
      "stjepan": 3670,
      "birgitta": 3671,
      "jules": 3672,
      "veer": 3673,
      "mladen": 3674,
      "kun": 3675,
      "nidia": 3676,
      "nasser": 3677,
      "ilse": 3678,
      "katrine": 3679,
      "nahuel": 3680,
      "teresita": 3681,
      "bona": 3682,
      "refilwe": 3683,
      "telma": 3684,
      "iko": 3685,
      "azu": 3686,
      "matea": 3687,
      "april": 3688,
      "fest": 3689,
      "festus": 3690,
      "simao": 3691,
      "henny": 3692,
      "imre": 3693,
      "gul": 3694,
      "zie": 3695,
      "joon": 3696,
      "dh": 3697,
      "aliyu": 3698,
      "marianna": 3699,
      "yap": 3700,
      "fah": 3701,
      "kieran": 3702,
      "kalle": 3703,
      "heike": 3704,
      "gam": 3705,
      "alondra": 3706,
      "sask": 3707,
      "saskia": 3708,
      "markku": 3709,
      "urav": 3710,
      "reka": 3711,
      "anit": 3712,
      "silke": 3713,
      "themba": 3714,
      "tz": 3715,
      "inha": 3716,
      "int": 3717,
      "dec": 3718,
      "dalia": 3719,
      "lal": 3720,
      "zai": 3721,
      "gir": 3722,
      "lirid": 3723,
      "leigh": 3724,
      "akos": 3725,
      "fidel": 3726,
      "geovanny": 3727,
      "erna": 3728,
      "yuliana": 3729,
      "gerry": 3730,
      "bile": 3731,
      "rani": 3732,
      "leonie": 3733,
      "fatjon": 3734,
      "jaak": 3735,
      "aleksi": 3736,
      "abhis": 3737,
      "gud": 3738,
      "abhishek": 3739,
      "meri": 3740,
      "abio": 3741,
      "sahil": 3742,
      "olive": 3743,
      "nika": 3744,
      "pasqu": 3745,
      "kwaku": 3746,
      "vane": 3747,
      "xhul": 3748,
      "achmad": 3749,
      "isse": 3750,
      "knu": 3751,
      "odd": 3752,
      "knut": 3753,
      "maite": 3754,
      "malebogo": 3755,
      "sumon": 3756,
      "mela": 3757,
      "thil": 3758,
      "josipa": 3759,
      "falda": 3760,
      "mafalda": 3761,
      "kathrin": 3762,
      "frieda": 3763,
      "sule": 3764,
      "haris": 3765,
      "tron": 3766,
      "constanza": 3767,
      "alys": 3768,
      "ence": 3769,
      "oussa": 3770,
      "suha": 3771,
      "oussama": 3772,
      "gorata": 3773,
      "silje": 3774,
      "etu": 3775,
      "yanto": 3776,
      "qi": 3777,
      "misael": 3778,
      "nadja": 3779,
      "gard": 3780,
      "marzena": 3781,
      "well": 3782,
      "gely": 3783,
      "geng": 3784,
      "thiba": 3785,
      "dorian": 3786,
      "kur": 3787,
      "tul": 3788,
      "mago": 3789,
      "fatimah": 3790,
      "niall": 3791,
      "athi": 3792,
      "jonatan": 3793,
      "christer": 3794,
      "salam": 3795,
      "tero": 3796,
      "lame": 3797,
      "micka": 3798,
      "faruk": 3799,
      "dorcas": 3800,
      "ern": 3801,
      "khu": 3802,
      "socor": 3803,
      "estelle": 3804,
      "bola": 3805,
      "graham": 3806,
      "bella": 3807,
      "ail": 3808,
      "deen": 3809,
      "margot": 3810,
      "lore": 3811,
      "bul": 3812,
      "martijn": 3813,
      "mali": 3814,
      "tuo": 3815,
      "oskar": 3816,
      "owusu": 3817,
      "marjan": 3818,
      "linn": 3819,
      "sulaiman": 3820,
      "rod": 3821,
      "carlito": 3822,
      "carlitos": 3823,
      "dali": 3824,
      "sora": 3825,
      "adit": 3826,
      "izabela": 3827,
      "jordi": 3828,
      "stacey": 3829,
      "snje": 3830,
      "jasmina": 3831,
      "inette": 3832,
      "szy": 3833,
      "riitta": 3834,
      "abdellah": 3835,
      "happ": 3836,
      "christel": 3837,
      "koh": 3838,
      "thoko": 3839,
      "jy": 3840,
      "bader": 3841,
      "immanuel": 3842,
      "branko": 3843,
      "jeann": 3844,
      "susi": 3845,
      "mich": 3846,
      "ius": 3847,
      "juani": 3848,
      "snjezana": 3849,
      "pirjo": 3850,
      "flam": 3851,
      "gunter": 3852,
      "kola": 3853,
      "dane": 3854,
      "imelda": 3855,
      "nko": 3856,
      "hilma": 3857,
      "stjan": 3858,
      "bostjan": 3859,
      "adamu": 3860,
      "hajar": 3861,
      "bashkim": 3862,
      "trond": 3863,
      "torben": 3864,
      "fernand": 3865,
      "warren": 3866,
      "cathrine": 3867,
      "emeka": 3868,
      "maximo": 3869,
      "eliza": 3870,
      "owen": 3871,
      "hannu": 3872,
      "shana": 3873,
      "socorro": 3874,
      "kazi": 3875,
      "dai": 3876,
      "arta": 3877,
      "gergely": 3878,
      "johnson": 3879,
      "sua": 3880,
      "sve": 3881,
      "tuula": 3882,
      "svein": 3883,
      "ase": 3884,
      "elvia": 3885,
      "lorato": 3886,
      "bram": 3887,
      "eed": 3888,
      "pit": 3889,
      "lajos": 3890,
      "nani": 3891,
      "szymon": 3892,
      "yaone": 3893,
      "mireya": 3894,
      "flamur": 3895,
      "tuomas": 3896,
      "lucio": 3897,
      "giorgio": 3898,
      "nigel": 3899,
      "colette": 3900,
      "adeline": 3901,
      "franziska": 3902,
      "maricel": 3903,
      "svet": 3904,
      "rajkumar": 3905,
      "jawad": 3906,
      "pramod": 3907,
      "blanka": 3908,
      "siobhan": 3909,
      "sohel": 3910,
      "saara": 3911,
      "cli": 3912,
      "iveta": 3913,
      "duarte": 3914,
      "joonas": 3915,
      "mickael": 3916,
      "veig": 3917,
      "lesedi": 3918,
      "alai": 3919,
      "jolanda": 3920,
      "pavlina": 3921,
      "ace": 3922,
      "vig": 3923,
      "app": 3924,
      "vanda": 3925,
      "evie": 3926,
      "larry": 3927,
      "gustav": 3928,
      "olli": 3929,
      "natali": 3930,
      "sandi": 3931,
      "thandi": 3932,
      "tono": 3933,
      "myr": 3934,
      "agostin": 3935,
      "aminu": 3936,
      "til": 3937,
      "yun": 3938,
      "vikash": 3939,
      "younes": 3940,
      "romario": 3941,
      "mimoza": 3942,
      "jut": 3943,
      "pasi": 3944,
      "svetlana": 3945,
      "ks": 3946,
      "pretty": 3947,
      "cinthia": 3948,
      "llo": 3949,
      "evelyne": 3950,
      "fiorella": 3951,
      "oh": 3952,
      "eliska": 3953,
      "matjaz": 3954,
      "tomek": 3955,
      "ulf": 3956,
      "heikki": 3957,
      "ts": 3958,
      "sasha": 3959,
      "gerda": 3960,
      "estefany": 3961,
      "ericka": 3962,
      "jonna": 3963,
      "ronnie": 3964,
      "deir": 3965,
      "maarten": 3966,
      "kil": 3967,
      "juho": 3968,
      "vivien": 3969,
      "nthabis": 3970,
      "nthabiseng": 3971,
      "rude": 3972,
      "gaz": 3973,
      "abbas": 3974,
      "sebastiao": 3975,
      "rajan": 3976,
      "yash": 3977,
      "maxwell": 3978,
      "arlind": 3979,
      "agostinho": 3980,
      "kago": 3981,
      "angula": 3982,
      "inder": 3983,
      "stig": 3984,
      "radka": 3985,
      "venkat": 3986,
      "noku": 3987,
      "obaa": 3988,
      "taylor": 3989,
      "bongile": 3990,
      "mihaela": 3991,
      "etsi": 3992,
      "ernst": 3993,
      "alif": 3994,
      "pasquale": 3995,
      "adelaide": 3996,
      "macarena": 3997,
      "zlat": 3998,
      "rainer": 3999,
      "tai": 4000,
      "valon": 4001,
      "rini": 4002,
      "jasper": 4003,
      "bos": 4004,
      "satish": 4005,
      "dusan": 4006,
      "inka": 4007,
      "olcs": 4008,
      "szabolcs": 4009,
      "cen": 4010,
      "islaw": 4011,
      "tise": 4012,
      "phum": 4013,
      "frantise": 4014,
      "frantisek": 4015,
      "intan": 4016,
      "celso": 4017,
      "ignie": 4018,
      "zbignie": 4019,
      "zbigniew": 4020,
      "arman": 4021,
      "cintia": 4022,
      "narc": 4023,
      "jacinto": 4024,
      "oke": 4025,
      "kamogelo": 4026,
      "umi": 4027,
      "miklos": 4028,
      "aditya": 4029,
      "ulises": 4030,
      "dipak": 4031,
      "kaja": 4032,
      "nagy": 4033,
      "selina": 4034,
      "vid": 4035,
      "natascha": 4036,
      "dritan": 4037,
      "azim": 4038,
      "shankar": 4039,
      "kwabena": 4040,
      "lai": 4041,
      "wilhel": 4042,
      "tone": 4043,
      "azmi": 4044,
      "casper": 4045,
      "aisy": 4046,
      "ylli": 4047,
      "koketso": 4048,
      "kumari": 4049,
      "oyvind": 4050,
      "stuart": 4051,
      "sath": 4052,
      "deirdre": 4053,
      "rosmery": 4054,
      "shelly": 4055,
      "geoff": 4056,
      "yadi": 4057,
      "osei": 4058,
      "eirik": 4059,
      "agye": 4060,
      "barak": 4061,
      "henning": 4062,
      "kush": 4063,
      "karth": 4064,
      "ndesh": 4065,
      "naim": 4066,
      "nin": 4067,
      "afrim": 4068,
      "xhi": 4069,
      "lloyd": 4070,
      "anou": 4071,
      "ioma": 4072,
      "tommi": 4073,
      "live": 4074,
      "rossana": 4075,
      "lesley": 4076,
      "nisha": 4077,
      "merja": 4078,
      "hash": 4079,
      "bello": 4080,
      "bunga": 4081,
      "seba": 4082,
      "maura": 4083,
      "brice": 4084,
      "desiree": 4085,
      "uddin": 4086,
      "ciaran": 4087,
      "mma": 4088,
      "adele": 4089,
      "lic": 4090,
      "naser": 4091,
      "dalibor": 4092,
      "csil": 4093,
      "gisele": 4094,
      "csilla": 4095,
      "ct": 4096,
      "tino": 4097,
      "amira": 4098,
      "carmelo": 4099,
      "dom": 4100,
      "tany": 4101,
      "dimitri": 4102,
      "loide": 4103,
      "baba": 4104,
      "penny": 4105,
      "amos": 4106,
      "imad": 4107,
      "erjon": 4108,
      "mojca": 4109,
      "piero": 4110,
      "zvon": 4111,
      "vy": 4112,
      "zsuzsa": 4113,
      "shiva": 4114,
      "janina": 4115,
      "balint": 4116,
      "lillian": 4117,
      "cristiana": 4118,
      "syam": 4119,
      "adrienn": 4120,
      "eliecer": 4121,
      "lindiwe": 4122,
      "hermann": 4123,
      "bogdan": 4124,
      "evi": 4125,
      "akshay": 4126,
      "anyi": 4127,
      "fit": 4128,
      "sph": 4129,
      "vana": 4130,
      "bekim": 4131,
      "jordy": 4132,
      "yakubu": 4133,
      "sina": 4134,
      "glenda": 4135,
      "akmal": 4136,
      "lauri": 4137,
      "onye": 4138,
      "vitoria": 4139,
      "reina": 4140,
      "jamila": 4141,
      "vibe": 4142,
      "eve": 4143,
      "gofaone": 4144,
      "reda": 4145,
      "alee": 4146,
      "ferry": 4147,
      "tarik": 4148,
      "pap": 4149,
      "ervis": 4150,
      "linus": 4151,
      "fro": 4152,
      "flore": 4153,
      "gona": 4154,
      "danial": 4155,
      "iina": 4156,
      "sheldon": 4157,
      "pert": 4158,
      "birgitte": 4159,
      "abe": 4160,
      "kamlesh": 4161,
      "morgan": 4162,
      "eme": 4163,
      "sem": 4164,
      "domago": 4165,
      "domagoj": 4166,
      "benito": 4167,
      "wei": 4168,
      "leong": 4169,
      "sein": 4170,
      "saf": 4171,
      "keisha": 4172,
      "susy": 4173,
      "edyta": 4174,
      "ikram": 4175,
      "madan": 4176,
      "kayla": 4177,
      "karoline": 4178,
      "aime": 4179,
      "braul": 4180,
      "vive": 4181,
      "everton": 4182,
      "braulio": 4183,
      "achraf": 4184,
      "kaw": 4185,
      "indah": 4186,
      "endang": 4187,
      "marleen": 4188,
      "naledi": 4189,
      "wouter": 4190,
      "erast": 4191,
      "shani": 4192,
      "erastus": 4193,
      "annah": 4194,
      "yaa": 4195,
      "senia": 4196,
      "shpet": 4197,
      "shpetim": 4198,
      "waldemar": 4199,
      "ranjit": 4200,
      "vito": 4201,
      "tsholofelo": 4202,
      "mattia": 4203,
      "bartek": 4204,
      "ledi": 4205,
      "quin": 4206,
      "gitta": 4207,
      "janusz": 4208,
      "tiny": 4209,
      "annan": 4210,
      "itzel": 4211,
      "zaida": 4212,
      "senthil": 4213,
      "jojo": 4214,
      "fortun": 4215,
      "cinth": 4216,
      "austin": 4217,
      "run": 4218,
      "ivette": 4219,
      "siham": 4220,
      "zulma": 4221,
      "sime": 4222,
      "entse": 4223,
      "wena": 4224,
      "mubarak": 4225,
      "lidija": 4226,
      "bah": 4227,
      "eron": 4228,
      "willian": 4229,
      "amandine": 4230,
      "willie": 4231,
      "mei": 4232,
      "sirpa": 4233,
      "lawa": 4234,
      "carmela": 4235,
      "aurelio": 4236,
      "ladislav": 4237,
      "rodrigue": 4238,
      "ankit": 4239,
      "urad": 4240,
      "khumo": 4241,
      "aisyah": 4242,
      "bharat": 4243,
      "blaz": 4244,
      "jeanpierre": 4245,
      "ppe": 4246,
      "praveen": 4247,
      "cic": 4248,
      "fatiha": 4249,
      "valter": 4250,
      "uche": 4251,
      "munna": 4252,
      "nizam": 4253,
      "xinia": 4254,
      "luk": 4255,
      "fitri": 4256,
      "low": 4257,
      "mogo": 4258,
      "heli": 4259,
      "oney": 4260,
      "uha": 4261,
      "mamun": 4262,
      "cami": 4263,
      "noora": 4264,
      "beate": 4265,
      "cida": 4266,
      "berth": 4267,
      "drazen": 4268,
      "frey": 4269,
      "godfrey": 4270,
      "ronal": 4271,
      "steffi": 4272,
      "ndu": 4273,
      "abdulrahman": 4274,
      "eija": 4275,
      "yat": 4276,
      "zeljka": 4277,
      "arvind": 4278,
      "onalen": 4279,
      "onalenna": 4280,
      "paddy": 4281,
      "collins": 4282,
      "jasna": 4283,
      "declan": 4284,
      "akh": 4285,
      "osama": 4286,
      "iza": 4287,
      "mael": 4288,
      "lilia": 4289,
      "analia": 4290,
      "yoselin": 4291,
      "belinda": 4292,
      "gerd": 4293,
      "ree": 4294,
      "cl": 4295,
      "hayati": 4296,
      "lju": 4297,
      "asma": 4298,
      "signe": 4299,
      "halina": 4300,
      "hanane": 4301,
      "rute": 4302,
      "ulrich": 4303,
      "manolo": 4304,
      "fou": 4305,
      "azman": 4306,
      "ofo": 4307,
      "terez": 4308,
      "sif": 4309,
      "arnaldo": 4310,
      "sao": 4311,
      "riot": 4312,
      "striot": 4313,
      "kastriot": 4314,
      "ghisla": 4315,
      "rubel": 4316,
      "giwe": 4317,
      "marcelino": 4318,
      "set": 4319,
      "zal": 4320,
      "tham": 4321,
      "hayat": 4322,
      "wies": 4323,
      "ongo": 4324,
      "cristoph": 4325,
      "cristopher": 4326,
      "deysi": 4327,
      "aslam": 4328,
      "lizzy": 4329,
      "arto": 4330,
      "edina": 4331,
      "miri": 4332,
      "wilder": 4333,
      "vuyo": 4334,
      "itza": 4335,
      "nir": 4336,
      "colm": 4337,
      "elba": 4338,
      "neusa": 4339,
      "keneilwe": 4340,
      "dk": 4341,
      "mati": 4342,
      "yessenia": 4343,
      "augustine": 4344,
      "sultan": 4345,
      "akua": 4346,
      "bartosz": 4347,
      "nara": 4348,
      "tus": 4349,
      "maru": 4350,
      "isu": 4351,
      "hussein": 4352,
      "amon": 4353,
      "itha": 4354,
      "kannan": 4355,
      "eleon": 4356,
      "gillian": 4357,
      "arief": 4358,
      "siv": 4359,
      "vibeke": 4360,
      "oshane": 4361,
      "kova": 4362,
      "kovacs": 4363,
      "tebo": 4364,
      "liew": 4365,
      "hege": 4366,
      "joice": 4367,
      "meg": 4368,
      "det": 4369,
      "metse": 4370,
      "obakeng": 4371,
      "zsofia": 4372,
      "rosemary": 4373,
      "gyu": 4374,
      "chia": 4375,
      "ntombi": 4376,
      "linnea": 4377,
      "shauna": 4378,
      "jette": 4379,
      "oluw": 4380,
      "bastian": 4381,
      "clive": 4382,
      "nando": 4383,
      "erich": 4384,
      "eoin": 4385,
      "andry": 4386,
      "bunda": 4387,
      "solveig": 4388,
      "yudi": 4389,
      "travis": 4390,
      "favo": 4391,
      "guna": 4392,
      "favour": 4393,
      "gjer": 4394,
      "sayed": 4395,
      "uros": 4396,
      "gunilla": 4397,
      "gunther": 4398,
      "dimpho": 4399,
      "moz": 4400,
      "marwa": 4401,
      "iku": 4402,
      "oneil": 4403,
      "jaroslaw": 4404,
      "karsten": 4405,
      "sandile": 4406,
      "gyula": 4407,
      "qim": 4408,
      "maija": 4409,
      "mihal": 4410,
      "luzia": 4411,
      "shkelqim": 4412,
      "mick": 4413,
      "xhe": 4414,
      "buhle": 4415,
      "femi": 4416,
      "justina": 4417,
      "marijan": 4418,
      "nice": 4419,
      "adem": 4420,
      "masud": 4421,
      "laxman": 4422,
      "jaakko": 4423,
      "jie": 4424,
      "boit": 4425,
      "holger": 4426,
      "kees": 4427,
      "rashe": 4428,
      "rasheed": 4429,
      "shab": 4430,
      "vinicius": 4431,
      "mimi": 4432,
      "elyn": 4433,
      "enka": 4434,
      "shar": 4435,
      "jackel": 4436,
      "ulrika": 4437,
      "racha": 4438,
      "vesa": 4439,
      "yuni": 4440,
      "klemen": 4441,
      "raffaele": 4442,
      "malene": 4443,
      "bablu": 4444,
      "martyna": 4445,
      "melina": 4446,
      "katty": 4447,
      "bledi": 4448,
      "anahi": 4449,
      "migdalia": 4450,
      "emanuele": 4451,
      "elka": 4452,
      "juna": 4453,
      "akeem": 4454,
      "bhu": 4455,
      "rami": 4456,
      "marce": 4457,
      "nikolett": 4458,
      "pina": 4459,
      "jag": 4460,
      "zlatko": 4461,
      "ider": 4462,
      "vivek": 4463,
      "pao": 4464,
      "naima": 4465,
      "akbar": 4466,
      "morg": 4467,
      "lucre": 4468,
      "heriberto": 4469,
      "chid": 4470,
      "ope": 4471,
      "alcides": 4472,
      "orla": 4473,
      "ousman": 4474,
      "sunita": 4475,
      "heem": 4476,
      "farhan": 4477,
      "fatso": 4478,
      "tshegofatso": 4479,
      "karima": 4480,
      "siyabonga": 4481,
      "essy": 4482,
      "abdal": 4483,
      "antonija": 4484,
      "tou": 4485,
      "winston": 4486,
      "vko": 4487,
      "kaisa": 4488,
      "brigitta": 4489,
      "gaetan": 4490,
      "sadi": 4491,
      "honey": 4492,
      "abdur": 4493,
      "mitja": 4494,
      "palo": 4495,
      "maira": 4496,
      "baptiste": 4497,
      "taiwo": 4498,
      "bashir": 4499,
      "elsie": 4500,
      "bham": 4501,
      "palesa": 4502,
      "shubham": 4503,
      "aura": 4504,
      "ziana": 4505,
      "mourad": 4506,
      "rossy": 4507,
      "stapha": 4508,
      "ofentse": 4509,
      "niina": 4510,
      "heru": 4511,
      "thijs": 4512,
      "bonolo": 4513,
      "ratna": 4514,
      "mes": 4515,
      "rahmat": 4516,
      "brittany": 4517,
      "aisling": 4518,
      "wio": 4519,
      "allis": 4520,
      "allison": 4521,
      "vanan": 4522,
      "saravanan": 4523,
      "kimmo": 4524,
      "kirk": 4525,
      "albana": 4526,
      "holly": 4527,
      "genevie": 4528,
      "illemon": 4529,
      "genevieve": 4530,
      "stanislav": 4531,
      "stijn": 4532,
      "josefine": 4533,
      "dorothy": 4534,
      "konrad": 4535,
      "karoly": 4536,
      "taro": 4537,
      "lautaro": 4538,
      "liridon": 4539,
      "lori": 4540,
      "kjet": 4541,
      "mita": 4542,
      "kjetil": 4543,
      "juliette": 4544,
      "connor": 4545,
      "branka": 4546,
      "angir": 4547,
      "yanet": 4548,
      "jahangir": 4549,
      "nhlanhla": 4550,
      "divine": 4551,
      "azhar": 4552,
      "ft": 4553,
      "ramu": 4554,
      "fede": 4555,
      "omphile": 4556,
      "laone": 4557,
      "thata": 4558,
      "haydee": 4559,
      "pati": 4560,
      "chad": 4561,
      "yor": 4562,
      "valbona": 4563,
      "jann": 4564,
      "ington": 4565,
      "gosia": 4566,
      "angeline": 4567,
      "abby": 4568,
      "jackeline": 4569,
      "aurelien": 4570,
      "anamarija": 4571,
      "nand": 4572,
      "isin": 4573,
      "dharmen": 4574,
      "paloma": 4575,
      "wla": 4576,
      "iek": 4577,
      "nia": 4578,
      "troy": 4579,
      "bled": 4580,
      "syaz": 4581,
      "dick": 4582,
      "blerina": 4583,
      "ludmila": 4584,
      "hafeni": 4585,
      "nun": 4586,
      "nomsa": 4587,
      "nenad": 4588,
      "zine": 4589,
      "olinda": 4590,
      "shpr": 4591,
      "zineb": 4592,
      "shpresa": 4593,
      "luci": 4594,
      "saddam": 4595,
      "daria": 4596,
      "eduard": 4597,
      "priyan": 4598,
      "yari": 4599,
      "cik": 4600,
      "michela": 4601,
      "lucero": 4602,
      "amilcar": 4603,
      "usha": 4604,
      "veera": 4605,
      "rowena": 4606,
      "erion": 4607,
      "dale": 4608,
      "lca": 4609,
      "vjol": 4610,
      "lulzim": 4611,
      "vjollca": 4612,
      "mariann": 4613,
      "besim": 4614,
      "rei": 4615,
      "ilio": 4616,
      "reem": 4617,
      "chra": 4618,
      "onika": 4619,
      "weronika": 4620,
      "ljil": 4621,
      "loli": 4622,
      "dira": 4623,
      "rajendra": 4624,
      "thusi": 4625,
      "aidan": 4626,
      "cherry": 4627,
      "bayo": 4628,
      "fitim": 4629,
      "filippo": 4630,
      "lennart": 4631,
      "bernie": 4632,
      "bjarne": 4633,
      "ferdin": 4634,
      "daan": 4635,
      "greta": 4636,
      "slavica": 4637,
      "yeison": 4638,
      "haruna": 4639,
      "yanti": 4640,
      "iaan": 4641,
      "mawar": 4642,
      "ameer": 4643,
      "renzo": 4644,
      "jerzy": 4645,
      "nazrul": 4646,
      "dw": 4647,
      "gomo": 4648,
      "ight": 4649,
      "dwight": 4650,
      "ans": 4651,
      "sibusiso": 4652,
      "jere": 4653,
      "delroy": 4654,
      "rud": 4655,
      "severine": 4656,
      "sigrid": 4657,
      "binod": 4658,
      "thandeka": 4659,
      "fanni": 4660,
      "ori": 4661,
      "paulette": 4662,
      "randi": 4663,
      "kres": 4664,
      "eman": 4665,
      "tiziana": 4666,
      "ulrike": 4667,
      "marij": 4668,
      "atta": 4669,
      "henna": 4670,
      "hang": 4671,
      "mahendra": 4672,
      "blaise": 4673,
      "arb": 4674,
      "aniel": 4675,
      "clare": 4676,
      "fre": 4677,
      "ammar": 4678,
      "riaan": 4679,
      "oum": 4680,
      "reinhard": 4681,
      "gaspar": 4682,
      "bat": 4683,
      "ilyas": 4684,
      "heidy": 4685,
      "souka": 4686,
      "beverly": 4687,
      "evans": 4688,
      "riet": 4689,
      "saleem": 4690,
      "oni": 4691,
      "dorina": 4692,
      "xolani": 4693,
      "kacper": 4694,
      "elona": 4695,
      "jeferson": 4696,
      "marj": 4697,
      "grazia": 4698,
      "norman": 4699,
      "luiza": 4700,
      "yanira": 4701,
      "frode": 4702,
      "christiana": 4703,
      "rubi": 4704,
      "santho": 4705,
      "santhosh": 4706,
      "mieke": 4707,
      "thokoz": 4708,
      "flem": 4709,
      "ouma": 4710,
      "blerta": 4711,
      "flemming": 4712,
      "eez": 4713,
      "omer": 4714,
      "harun": 4715,
      "indri": 4716,
      "emanuela": 4717,
      "madhu": 4718,
      "jasa": 4719,
      "jadran": 4720,
      "morgane": 4721,
      "nto": 4722,
      "mizan": 4723,
      "shington": 4724,
      "washington": 4725,
      "ravin": 4726,
      "torsten": 4727,
      "beni": 4728,
      "sumit": 4729,
      "prom": 4730,
      "xhev": 4731,
      "promise": 4732,
      "angga": 4733,
      "ute": 4734,
      "thula": 4735,
      "ivona": 4736,
      "mihael": 4737,
      "wojtek": 4738,
      "zandile": 4739,
      "ofelia": 4740,
      "etswe": 4741,
      "apple": 4742,
      "noura": 4743,
      "mandla": 4744,
      "yohana": 4745,
      "maggy": 4746,
      "howard": 4747,
      "imah": 4748,
      "jude": 4749,
      "dragica": 4750,
      "aileen": 4751,
      "wasi": 4752,
      "liisa": 4753,
      "kaone": 4754,
      "nejc": 4755,
      "marthe": 4756,
      "dima": 4757,
      "muriel": 4758,
      "inaldo": 4759,
      "abba": 4760,
      "keitu": 4761,
      "pewa": 4762,
      "keitumetse": 4763,
      "shik": 4764,
      "theresia": 4765,
      "zita": 4766,
      "horv": 4767,
      "sebas": 4768,
      "jouni": 4769,
      "malika": 4770,
      "wani": 4771,
      "armel": 4772,
      "bayu": 4773,
      "ethan": 4774,
      "jram": 4775,
      "bajram": 4776,
      "jeanclaude": 4777,
      "lesly": 4778,
      "lino": 4779,
      "szabo": 4780,
      "alenka": 4781,
      "een": 4782,
      "chioma": 4783,
      "samy": 4784,
      "kawtar": 4785,
      "lupe": 4786,
      "moun": 4787,
      "ziga": 4788,
      "roel": 4789,
      "jozef": 4790,
      "arno": 4791,
      "ellie": 4792,
      "candy": 4793,
      "shamim": 4794,
      "sanju": 4795,
      "eduart": 4796,
      "americo": 4797,
      "mj": 4798,
      "raheem": 4799,
      "florin": 4800,
      "trist": 4801,
      "amadou": 4802,
      "rachael": 4803,
      "akosua": 4804,
      "jakir": 4805,
      "herry": 4806,
      "shqi": 4807,
      "cinta": 4808,
      "elmo": 4809,
      "leroy": 4810,
      "oystein": 4811,
      "esan": 4812,
      "lati": 4813,
      "leh": 4814,
      "tini": 4815,
      "lindsay": 4816,
      "murugan": 4817,
      "bernice": 4818,
      "denisse": 4819,
      "cena": 4820,
      "ild": 4821,
      "cruz": 4822,
      "anke": 4823,
      "salem": 4824,
      "anast": 4825,
      "sarita": 4826,
      "ushad": 4827,
      "uriel": 4828,
      "thulani": 4829,
      "luli": 4830,
      "rasel": 4831,
      "suvi": 4832,
      "emile": 4833,
      "stepan": 4834,
      "dante": 4835,
      "chaima": 4836,
      "ivanka": 4837,
      "fillemon": 4838,
      "norberto": 4839,
      "melisa": 4840,
      "horvath": 4841,
      "spela": 4842,
      "amr": 4843,
      "ivind": 4844,
      "karthik": 4845,
      "nicolai": 4846,
      "sankar": 4847,
      "ileana": 4848,
      "adu": 4849,
      "ursz": 4850,
      "akram": 4851,
      "urszula": 4852,
      "othman": 4853,
      "haz": 4854,
      "husey": 4855,
      "huseyin": 4856,
      "momo": 4857,
      "maire": 4858,
      "leanne": 4859,
      "eniko": 4860,
      "gus": 4861,
      "fren": 4862,
      "noemie": 4863,
      "hafa": 4864,
      "helio": 4865,
      "cyrille": 4866,
      "amarildo": 4867,
      "kx": 4868,
      "kareem": 4869,
      "devi": 4870,
      "leny": 4871,
      "kxng": 4872,
      "toth": 4873,
      "rosalba": 4874,
      "franci": 4875,
      "yogesh": 4876,
      "faustina": 4877,
      "babul": 4878,
      "given": 4879,
      "clo": 4880,
      "anila": 4881,
      "dem": 4882,
      "alebo": 4883,
      "kealebo": 4884,
      "prasad": 4885,
      "kealeboga": 4886,
      "denny": 4887,
      "ceci": 4888,
      "fausto": 4889,
      "jayson": 4890,
      "regine": 4891,
      "priyanka": 4892,
      "fal": 4893,
      "isid": 4894,
      "isidro": 4895,
      "emelie": 4896,
      "ljiljana": 4897,
      "ingo": 4898,
      "irvin": 4899,
      "zainal": 4900,
      "hileni": 4901,
      "kenia": 4902,
      "kojo": 4903,
      "lydie": 4904,
      "imal": 4905,
      "bika": 4906,
      "siph": 4907,
      "cassandra": 4908,
      "giaco": 4909,
      "jabul": 4910,
      "pintu": 4911,
      "akhil": 4912,
      "mentor": 4913,
      "millic": 4914,
      "millicent": 4915,
      "shahrul": 4916,
      "asep": 4917,
      "nena": 4918,
      "jhony": 4919,
      "gjerg": 4920,
      "iara": 4921,
      "eder": 4922,
      "celina": 4923,
      "sken": 4924,
      "helge": 4925,
      "soufiane": 4926,
      "skender": 4927,
      "rony": 4928,
      "slawomir": 4929,
      "letta": 4930,
      "goitseone": 4931,
      "guh": 4932,
      "mirka": 4933,
      "mihaly": 4934,
      "vinicio": 4935,
      "oteng": 4936,
      "antoinette": 4937,
      "primoz": 4938,
      "was": 4939,
      "sf": 4940,
      "burim": 4941,
      "fia": 4942,
      "sajid": 4943,
      "eliseo": 4944,
      "jarmo": 4945,
      "mirek": 4946,
      "azucena": 4947,
      "julissa": 4948,
      "iki": 4949,
      "jessy": 4950,
      "kuhle": 4951,
      "surendra": 4952,
      "maxine": 4953,
      "marci": 4954,
      "livia": 4955,
      "bernadett": 4956,
      "dard": 4957,
      "waleed": 4958,
      "dardan": 4959,
      "kie": 4960,
      "tjasa": 4961,
      "bledar": 4962,
      "selva": 4963,
      "nhild": 4964,
      "yati": 4965,
      "jaka": 4966,
      "daiana": 4967,
      "seppo": 4968,
      "hy": 4969,
      "giacomo": 4970,
      "fritz": 4971,
      "marijke": 4972,
      "rayan": 4973,
      "maar": 4974,
      "paqui": 4975,
      "thee": 4976,
      "ngo": 4977,
      "bakang": 4978,
      "katso": 4979,
      "peace": 4980,
      "montse": 4981,
      "gita": 4982,
      "ifeanyi": 4983,
      "anouk": 4984,
      "apar": 4985,
      "fauz": 4986,
      "krystian": 4987,
      "hida": 4988,
      "laurie": 4989,
      "rysz": 4990,
      "khalil": 4991,
      "vedran": 4992,
      "sammy": 4993,
      "grethe": 4994,
      "myrna": 4995,
      "raissa": 4996,
      "zek": 4997,
      "yslaw": 4998,
      "przemyslaw": 4999,
      "eska": 5000,
      "katherin": 5001,
      "tristan": 5002,
      "majlinda": 5003,
      "tope": 5004,
      "sii": 5005,
      "mahdi": 5006,
      "riikka": 5007,
      "hamadou": 5008,
      "mano": 5009,
      "arshad": 5010,
      "anett": 5011,
      "lucho": 5012,
      "andrey": 5013,
      "vishnu": 5014,
      "louren": 5015,
      "oda": 5016,
      "iamo": 5017,
      "lef": 5018,
      "puteri": 5019,
      "tshiamo": 5020,
      "manal": 5021,
      "adebayo": 5022,
      "oce": 5023,
      "cameron": 5024,
      "oceane": 5025,
      "hiba": 5026,
      "tammy": 5027,
      "saleh": 5028,
      "chew": 5029,
      "esego": 5030,
      "anneke": 5031,
      "martial": 5032,
      "olan": 5033,
      "eloy": 5034,
      "zora": 5035,
      "marielos": 5036,
      "abdallah": 5037,
      "elizab": 5038,
      "armend": 5039,
      "bradley": 5040,
      "bjorg": 5041,
      "orat": 5042,
      "ryszard": 5043,
      "oratile": 5044,
      "silvina": 5045,
      "lho": 5046,
      "kard": 5047,
      "ishmael": 5048,
      "shaikh": 5049,
      "jeton": 5050,
      "merita": 5051,
      "pur": 5052,
      "gino": 5053,
      "diusz": 5054,
      "inde": 5055,
      "rosine": 5056,
      "latifa": 5057,
      "enyo": 5058,
      "rachida": 5059,
      "mundo": 5060,
      "romu": 5061,
      "siri": 5062,
      "behar": 5063,
      "simphiwe": 5064,
      "arka": 5065,
      "halil": 5066,
      "georgia": 5067,
      "ugo": 5068,
      "unde": 5069,
      "ej": 5070,
      "naveen": 5071,
      "edita": 5072,
      "traud": 5073,
      "colleen": 5074,
      "mohsin": 5075,
      "margareta": 5076,
      "javed": 5077,
      "fatos": 5078,
      "dorthe": 5079,
      "randall": 5080,
      "risto": 5081,
      "carolyn": 5082,
      "abner": 5083,
      "nonhlanhla": 5084,
      "mariah": 5085,
      "ayse": 5086,
      "ret": 5087,
      "deni": 5088,
      "mac": 5089,
      "frederico": 5090,
      "daph": 5091,
      "dijana": 5092,
      "fouad": 5093,
      "rosaria": 5094,
      "yanina": 5095,
      "youness": 5096,
      "dharmendra": 5097,
      "jarkko": 5098,
      "remy": 5099,
      "tris": 5100,
      "alka": 5101,
      "mirtha": 5102,
      "aboubakar": 5103,
      "arian": 5104,
      "andrei": 5105,
      "matthieu": 5106,
      "marinela": 5107,
      "kushtrim": 5108,
      "hanif": 5109,
      "chang": 5110,
      "matic": 5111,
      "srinu": 5112,
      "nayeli": 5113,
      "thuso": 5114,
      "ilaria": 5115,
      "seun": 5116,
      "idu": 5117,
      "pete": 5118,
      "rosli": 5119,
      "kuldeep": 5120,
      "dudu": 5121,
      "fadil": 5122,
      "sieg": 5123,
      "enis": 5124,
      "sanjeev": 5125,
      "tlo": 5126,
      "mariola": 5127,
      "hugu": 5128,
      "adwoa": 5129,
      "inar": 5130,
      "enver": 5131,
      "harish": 5132,
      "nanna": 5133,
      "lukman": 5134,
      "eld": 5135,
      "aleks": 5136,
      "janez": 5137,
      "edel": 5138,
      "niclas": 5139,
      "wang": 5140,
      "amalie": 5141,
      "lemo": 5142,
      "estef": 5143,
      "urska": 5144,
      "sla": 5145,
      "bardha": 5146,
      "razak": 5147,
      "lawal": 5148,
      "asha": 5149,
      "noraini": 5150,
      "albin": 5151,
      "bouchra": 5152,
      "benedicte": 5153,
      "lolo": 5154,
      "jetmir": 5155,
      "abhi": 5156,
      "pako": 5157,
      "young": 5158,
      "aji": 5159,
      "fen": 5160,
      "torbjorn": 5161,
      "adao": 5162,
      "stanislaw": 5163,
      "abdoula": 5164,
      "bengt": 5165,
      "zdra": 5166,
      "hakon": 5167,
      "imy": 5168,
      "narayan": 5169,
      "uza": 5170,
      "teguh": 5171,
      "ngozi": 5172,
      "ciro": 5173,
      "tefo": 5174,
      "ardita": 5175,
      "domingas": 5176,
      "ariane": 5177,
      "iskand": 5178,
      "ronan": 5179,
      "cinzia": 5180,
      "iskandar": 5181,
      "mbali": 5182,
      "stant": 5183,
      "phenyo": 5184,
      "pappu": 5185,
      "arti": 5186,
      "udin": 5187,
      "govind": 5188,
      "sheryl": 5189,
      "pandu": 5190,
      "maarit": 5191,
      "iru": 5192,
      "besmir": 5193,
      "dubra": 5194,
      "romy": 5195,
      "auwal": 5196,
      "ford": 5197,
      "arlette": 5198,
      "arg": 5199,
      "enni": 5200,
      "roslan": 5201,
      "tlhe": 5202,
      "jonny": 5203,
      "lend": 5204,
      "anxh": 5205,
      "kozo": 5206,
      "cahaya": 5207,
      "jadranka": 5208,
      "anxhela": 5209,
      "tab": 5210,
      "jarno": 5211,
      "tasha": 5212,
      "sihle": 5213,
      "lington": 5214,
      "sinisa": 5215,
      "nicklas": 5216,
      "idad": 5217,
      "halim": 5218,
      "kiara": 5219,
      "cion": 5220,
      "nery": 5221,
      "lester": 5222,
      "arminda": 5223,
      "emad": 5224,
      "kamar": 5225,
      "orsol": 5226,
      "yolande": 5227,
      "jabulo": 5228,
      "orsolya": 5229,
      "arja": 5230,
      "ndapewa": 5231,
      "tric": 5232,
      "tricia": 5233,
      "pg": 5234,
      "sibongile": 5235,
      "obaapa": 5236,
      "souad": 5237,
      "tshepang": 5238,
      "libor": 5239,
      "glory": 5240,
      "juuso": 5241,
      "sanele": 5242,
      "more": 5243,
      "drita": 5244,
      "titus": 5245,
      "fil": 5246,
      "mz": 5247,
      "stefany": 5248,
      "afer": 5249,
      "gner": 5250,
      "alhaji": 5251,
      "mom": 5252,
      "aferdita": 5253,
      "arkadiusz": 5254,
      "rabia": 5255,
      "muri": 5256,
      "ufik": 5257,
      "eleonora": 5258,
      "ritva": 5259,
      "vanja": 5260,
      "jerne": 5261,
      "gaetano": 5262,
      "abdulaziz": 5263,
      "vol": 5264,
      "avni": 5265,
      "reto": 5266,
      "mile": 5267,
      "ivaldo": 5268,
      "piah": 5269,
      "bodil": 5270,
      "linde": 5271,
      "angella": 5272,
      "dele": 5273,
      "indile": 5274,
      "abiodun": 5275,
      "olav": 5276,
      "jutta": 5277,
      "eetu": 5278,
      "saeed": 5279,
      "tangeni": 5280,
      "ulant": 5281,
      "taulant": 5282,
      "soni": 5283,
      "yahaya": 5284,
      "yahya": 5285,
      "egil": 5286,
      "jano": 5287,
      "pus": 5288,
      "alta": 5289,
      "maximilian": 5290,
      "natalija": 5291,
      "qendri": 5292,
      "qendrim": 5293,
      "tani": 5294,
      "mohmed": 5295,
      "abetswe": 5296,
      "edo": 5297,
      "fon": 5298,
      "uko": 5299,
      "yvan": 5300,
      "annemie": 5301,
      "dianne": 5302,
      "thembi": 5303,
      "otsile": 5304,
      "gentian": 5305,
      "encar": 5306,
      "oldo": 5307,
      "paa": 5308,
      "granit": 5309,
      "hayley": 5310,
      "mamadou": 5311,
      "teddy": 5312,
      "manju": 5313,
      "badr": 5314,
      "alamin": 5315,
      "leven": 5316,
      "levente": 5317,
      "josie": 5318,
      "halima": 5319,
      "lirim": 5320,
      "nelida": 5321,
      "oz": 5322,
      "pros": 5323,
      "lovisa": 5324,
      "prosper": 5325,
      "corina": 5326,
      "hennie": 5327,
      "chai": 5328,
      "mak": 5329,
      "romaine": 5330,
      "yasin": 5331,
      "lei": 5332,
      "fis": 5333,
      "gonolo": 5334,
      "eamon": 5335,
      "zama": 5336,
      "heiko": 5337,
      "wiktoria": 5338,
      "jelle": 5339,
      "made": 5340,
      "wenche": 5341,
      "marilu": 5342,
      "jalal": 5343,
      "lay": 5344,
      "waa": 5345,
      "tuija": 5346,
      "mpu": 5347,
      "reni": 5348,
      "joris": 5349,
      "marton": 5350,
      "tlam": 5351,
      "sathish": 5352,
      "atul": 5353,
      "morena": 5354,
      "facu": 5355,
      "ked": 5356,
      "lak": 5357,
      "vinay": 5358,
      "tik": 5359,
      "masa": 5360,
      "inash": 5361,
      "paulino": 5362,
      "yasmine": 5363,
      "tadej": 5364,
      "seem": 5365,
      "celma": 5366,
      "kennedy": 5367,
      "yinka": 5368,
      "loes": 5369,
      "olaf": 5370,
      "dorte": 5371,
      "kgosi": 5372,
      "ual": 5373,
      "noem": 5374,
      "clarisse": 5375,
      "aga": 5376,
      "kg": 5377,
      "wame": 5378,
      "xi": 5379,
      "leona": 5380,
      "mith": 5381,
      "serrat": 5382,
      "aleksand": 5383,
      "aleksandar": 5384,
      "jeremias": 5385,
      "michiel": 5386,
      "fli": 5387,
      "agi": 5388,
      "dilan": 5389,
      "gerrit": 5390,
      "bisi": 5391,
      "drago": 5392,
      "besart": 5393,
      "aurore": 5394,
      "ting": 5395,
      "wilfried": 5396,
      "pula": 5397,
      "patel": 5398,
      "joselyn": 5399,
      "riza": 5400,
      "jody": 5401,
      "sty": 5402,
      "josee": 5403,
      "przemek": 5404,
      "vikas": 5405,
      "mothusi": 5406,
      "laxmi": 5407,
      "thatayaone": 5408,
      "akin": 5409,
      "jaroslava": 5410,
      "faridah": 5411,
      "telmo": 5412,
      "nokuthula": 5413,
      "ivone": 5414,
      "giancarlo": 5415,
      "ovan": 5416,
      "brun": 5417,
      "lazar": 5418,
      "pesh": 5419,
      "marites": 5420,
      "luljeta": 5421,
      "kica": 5422,
      "miso": 5423,
      "polo": 5424,
      "jeanfrancois": 5425,
      "yaya": 5426,
      "saimir": 5427,
      "riku": 5428,
      "yohan": 5429,
      "ljub": 5430,
      "rix": 5431,
      "ismet": 5432,
      "morad": 5433,
      "beatrix": 5434,
      "bikash": 5435,
      "jib": 5436,
      "taina": 5437,
      "genaro": 5438,
      "wiga": 5439,
      "jadwiga": 5440,
      "gao": 5441,
      "mohmad": 5442,
      "dred": 5443,
      "mildred": 5444,
      "borg": 5445,
      "marilia": 5446,
      "bonnie": 5447,
      "oumarou": 5448,
      "pang": 5449,
      "pinky": 5450,
      "chelse": 5451,
      "donat": 5452,
      "chelsea": 5453,
      "up": 5454,
      "enes": 5455,
      "aki": 5456,
      "thorsten": 5457,
      "bontle": 5458,
      "heni": 5459,
      "lilla": 5460,
      "vlad": 5461,
      "hya": 5462,
      "tir": 5463,
      "joost": 5464,
      "cham": 5465,
      "tee": 5466,
      "ury": 5467,
      "besi": 5468,
      "ferdinand": 5469,
      "ttu": 5470,
      "edana": 5471,
      "loredana": 5472,
      "nirmal": 5473,
      "bismark": 5474,
      "althea": 5475,
      "rafi": 5476,
      "rosangela": 5477,
      "emili": 5478,
      "tok": 5479,
      "ruud": 5480,
      "wilber": 5481,
      "katka": 5482,
      "annelies": 5483,
      "cristofer": 5484,
      "havard": 5485,
      "karmen": 5486,
      "tarek": 5487,
      "cian": 5488,
      "anisa": 5489,
      "shanice": 5490,
      "tari": 5491,
      "gerti": 5492,
      "perpar": 5493,
      "perparim": 5494,
      "fath": 5495,
      "meryem": 5496,
      "ceu": 5497,
      "poul": 5498,
      "cinthya": 5499,
      "dieud": 5500,
      "dieudonne": 5501,
      "boah": 5502,
      "britta": 5503,
      "gazmen": 5504,
      "iliano": 5505,
      "idalia": 5506,
      "massim": 5507,
      "mayte": 5508,
      "utam": 5509,
      "massimiliano": 5510,
      "kish": 5511,
      "kishor": 5512,
      "flu": 5513,
      "lewis": 5514,
      "sona": 5515,
      "merete": 5516,
      "damjan": 5517,
      "heinrich": 5518,
      "curt": 5519,
      "rejoice": 5520,
      "errol": 5521,
      "selv": 5522,
      "wilhelm": 5523,
      "wisdom": 5524,
      "mounir": 5525,
      "ilash": 5526,
      "marte": 5527,
      "nawa": 5528,
      "slam": 5529,
      "loh": 5530,
      "marieke": 5531,
      "lindita": 5532,
      "enea": 5533,
      "eira": 5534,
      "nadeem": 5535,
      "raimundo": 5536,
      "lucien": 5537,
      "wawan": 5538,
      "vlasta": 5539,
      "miroslaw": 5540,
      "apare": 5541,
      "mishel": 5542,
      "afi": 5543,
      "alejo": 5544,
      "rida": 5545,
      "usy": 5546,
      "giusy": 5547,
      "driton": 5548,
      "fredi": 5549,
      "subhash": 5550,
      "happy": 5551,
      "lucrecia": 5552,
      "harsh": 5553,
      "liss": 5554,
      "estefani": 5555,
      "sacha": 5556,
      "deisy": 5557,
      "tiia": 5558,
      "robbie": 5559,
      "gunawan": 5560,
      "guis": 5561,
      "ary": 5562,
      "gael": 5563,
      "gyong": 5564,
      "sharifah": 5565,
      "valmir": 5566,
      "mili": 5567,
      "vusi": 5568,
      "bent": 5569,
      "som": 5570,
      "ove": 5571,
      "miia": 5572,
      "steen": 5573,
      "chee": 5574,
      "kitti": 5575,
      "seija": 5576,
      "horst": 5577,
      "sheer": 5578,
      "lety": 5579,
      "aldi": 5580,
      "mensah": 5581,
      "jeannine": 5582,
      "majid": 5583,
      "ryn": 5584,
      "zack": 5585,
      "hanka": 5586,
      "keletso": 5587,
      "sabir": 5588,
      "kong": 5589,
      "jeanpaul": 5590,
      "majda": 5591,
      "otman": 5592,
      "gani": 5593,
      "tiro": 5594,
      "lourenco": 5595,
      "gaurav": 5596,
      "ip": 5597,
      "majo": 5598,
      "rebeka": 5599,
      "najib": 5600,
      "seam": 5601,
      "elao": 5602,
      "amant": 5603,
      "kitso": 5604,
      "amantle": 5605,
      "elen": 5606,
      "dedy": 5607,
      "eeva": 5608,
      "soul": 5609,
      "oul": 5610,
      "eras": 5611,
      "raoul": 5612,
      "jeanmarie": 5613,
      "amaka": 5614,
      "sbusiso": 5615,
      "jaira": 5616,
      "yajaira": 5617,
      "rone": 5618,
      "tyrone": 5619,
      "nura": 5620,
      "ridwan": 5621,
      "sma": 5622,
      "giorg": 5623,
      "jeanmarc": 5624,
      "dragana": 5625,
      "giorgia": 5626,
      "kiss": 5627,
      "alyssa": 5628,
      "yeo": 5629,
      "ljubica": 5630,
      "hong": 5631,
      "remi": 5632,
      "appiah": 5633,
      "uleko": 5634,
      "bere": 5635,
      "balo": 5636,
      "kululeko": 5637,
      "einar": 5638,
      "jyo": 5639,
      "sacky": 5640,
      "alexia": 5641,
      "tumis": 5642,
      "tumisang": 5643,
      "nikhil": 5644,
      "laurin": 5645,
      "cora": 5646,
      "melelo": 5647,
      "ndin": 5648,
      "zoraida": 5649,
      "marsha": 5650,
      "klevis": 5651,
      "vidar": 5652,
      "ms": 5653,
      "dipu": 5654,
      "ramazan": 5655,
      "larka": 5656,
      "amoah": 5657,
      "ore": 5658,
      "keabetswe": 5659,
      "silvan": 5660,
      "poku": 5661,
      "soraia": 5662,
      "idar": 5663,
      "nitin": 5664,
      "jeanluc": 5665,
      "caterina": 5666,
      "nkosin": 5667,
      "isile": 5668,
      "gilio": 5669,
      "virgilio": 5670,
      "zinhle": 5671,
      "corey": 5672,
      "krista": 5673,
      "avinash": 5674,
      "rak": 5675,
      "azizah": 5676,
      "bre": 5677,
      "marlies": 5678,
      "pepa": 5679,
      "witha": 5680,
      "shin": 5681,
      "roswitha": 5682,
      "wagner": 5683,
      "adamou": 5684,
      "geraldo": 5685,
      "saima": 5686,
      "danica": 5687,
      "gelang": 5688,
      "amogelang": 5689,
      "poon": 5690,
      "rauna": 5691,
      "cristiane": 5692,
      "besa": 5693,
      "pil": 5694,
      "dik": 5695,
      "indrit": 5696,
      "toril": 5697,
      "hugh": 5698,
      "callum": 5699,
      "erald": 5700,
      "raija": 5701,
      "mohit": 5702,
      "saida": 5703,
      "fae": 5704,
      "ranjeet": 5705,
      "gal": 5706,
      "rizwan": 5707,
      "kishan": 5708,
      "martins": 5709,
      "mynor": 5710,
      "donovan": 5711,
      "faton": 5712,
      "pernilla": 5713,
      "anor": 5714,
      "vince": 5715,
      "geni": 5716,
      "sylvester": 5717,
      "yee": 5718,
      "collen": 5719,
      "busisiwe": 5720,
      "seamus": 5721,
      "sheikh": 5722,
      "jarek": 5723,
      "anka": 5724,
      "carmel": 5725,
      "hama": 5726,
      "ady": 5727,
      "temi": 5728,
      "asmaa": 5729,
      "melita": 5730,
      "xho": 5731,
      "leszek": 5732,
      "malou": 5733,
      "dd": 5734,
      "arttu": 5735,
      "rajeev": 5736,
      "jai": 5737,
      "adelino": 5738,
      "jernej": 5739,
      "lalo": 5740,
      "ragnhild": 5741,
      "helo": 5742,
      "mohamd": 5743,
      "fundo": 5744,
      "aurel": 5745,
      "jali": 5746,
      "adib": 5747,
      "delfina": 5748,
      "ummi": 5749,
      "yazmin": 5750,
      "gema": 5751,
      "laksh": 5752,
      "teuta": 5753,
      "sura": 5754,
      "hau": 5755,
      "bouba": 5756,
      "mmo": 5757,
      "fauzi": 5758,
      "mmoloki": 5759,
      "raman": 5760,
      "mikel": 5761,
      "wee": 5762,
      "kifli": 5763,
      "isah": 5764,
      "naa": 5765,
      "adalberto": 5766,
      "emine": 5767,
      "marwan": 5768,
      "maud": 5769,
      "eraj": 5770,
      "ivar": 5771,
      "eero": 5772,
      "zdravko": 5773,
      "mc": 5774,
      "perla": 5775,
      "motsi": 5776,
      "mogomotsi": 5777,
      "isak": 5778,
      "steinar": 5779,
      "olabi": 5780,
      "jin": 5781,
      "andine": 5782,
      "liton": 5783,
      "blandine": 5784,
      "itlin": 5785,
      "johanne": 5786,
      "lien": 5787,
      "klodi": 5788,
      "toh": 5789,
      "nita": 5790,
      "singh": 5791,
      "jyoti": 5792,
      "boz": 5793,
      "idiso": 5794,
      "zofia": 5795,
      "bardh": 5796,
      "reth": 5797,
      "curtis": 5798,
      "talal": 5799,
      "wafi": 5800,
      "vao": 5801,
      "kimberley": 5802,
      "abdoulaye": 5803,
      "milson": 5804,
      "firman": 5805,
      "shanique": 5806,
      "drilon": 5807,
      "maciek": 5808,
      "gazmend": 5809,
      "kjer": 5810,
      "madu": 5811,
      "gilson": 5812,
      "kresimir": 5813,
      "phindile": 5814,
      "kathrine": 5815,
      "edou": 5816,
      "uska": 5817,
      "modes": 5818,
      "breda": 5819,
      "grete": 5820,
      "anass": 5821,
      "edouard": 5822,
      "loris": 5823,
      "viola": 5824,
      "simeon": 5825,
      "sain": 5826,
      "sanae": 5827,
      "hossain": 5828,
      "zoila": 5829,
      "puja": 5830,
      "geri": 5831,
      "vikram": 5832,
      "constance": 5833,
      "arild": 5834,
      "alisson": 5835,
      "anki": 5836,
      "nathaly": 5837,
      "paulin": 5838,
      "elif": 5839,
      "rosalie": 5840,
      "cco": 5841,
      "tumi": 5842,
      "joona": 5843,
      "janja": 5844,
      "vlado": 5845,
      "ndapand": 5846,
      "dimakatso": 5847,
      "ndapandula": 5848,
      "rati": 5849,
      "petrina": 5850,
      "sissel": 5851,
      "vie": 5852,
      "aine": 5853,
      "ult": 5854,
      "kirsty": 5855,
      "thibault": 5856,
      "fermin": 5857,
      "zile": 5858,
      "inne": 5859,
      "iy": 5860,
      "robi": 5861,
      "haik": 5862,
      "haikal": 5863,
      "sch": 5864,
      "afia": 5865,
      "maren": 5866,
      "onimo": 5867,
      "teof": 5868,
      "laz": 5869,
      "helmi": 5870,
      "theoph": 5871,
      "molly": 5872,
      "basheer": 5873,
      "gee": 5874,
      "abderrahim": 5875,
      "radim": 5876,
      "atu": 5877,
      "jeppe": 5878,
      "dionis": 5879,
      "jamil": 5880,
      "chinedu": 5881,
      "shivam": 5882,
      "cody": 5883,
      "hinde": 5884,
      "kehinde": 5885,
      "serena": 5886,
      "pule": 5887,
      "allen": 5888,
      "olya": 5889,
      "ibolya": 5890,
      "marielle": 5891,
      "tsa": 5892,
      "bagus": 5893,
      "nilton": 5894,
      "nilesh": 5895,
      "stipe": 5896,
      "france": 5897,
      "samsul": 5898,
      "rania": 5899,
      "aldair": 5900,
      "avel": 5901,
      "angele": 5902,
      "ibrah": 5903,
      "cine": 5904,
      "rai": 5905,
      "lubos": 5906,
      "sandip": 5907,
      "beka": 5908,
      "adams": 5909,
      "danna": 5910,
      "eivind": 5911,
      "chie": 5912,
      "simen": 5913,
      "nella": 5914,
      "ariff": 5915,
      "ingvil": 5916,
      "kemi": 5917,
      "anish": 5918,
      "hous": 5919,
      "tlot": 5920,
      "matsh": 5921,
      "thanda": 5922,
      "pepi": 5923,
      "wek": 5924,
      "tamil": 5925,
      "dede": 5926,
      "tteri": 5927,
      "rocco": 5928,
      "hafid": 5929,
      "sonny": 5930,
      "darek": 5931,
      "dish": 5932,
      "tonny": 5933,
      "bay": 5934,
      "gareth": 5935,
      "jagdish": 5936,
      "ntokozo": 5937,
      "alois": 5938,
      "kin": 5939,
      "opoku": 5940,
      "hajn": 5941,
      "lhogonolo": 5942,
      "alisa": 5943,
      "neide": 5944,
      "beverley": 5945,
      "efren": 5946,
      "nikolaj": 5947,
      "jp": 5948,
      "ingeborg": 5949,
      "gudrun": 5950,
      "teng": 5951,
      "aino": 5952,
      "bna": 5953,
      "erd": 5954,
      "kosi": 5955,
      "sky": 5956,
      "micheline": 5957,
      "shey": 5958,
      "soukaina": 5959,
      "hajah": 5960,
      "diri": 5961,
      "phang": 5962,
      "fajar": 5963,
      "irving": 5964,
      "doug": 5965,
      "jaap": 5966,
      "vegard": 5967,
      "albion": 5968,
      "mesh": 5969,
      "riya": 5970,
      "grazi": 5971,
      "akwasi": 5972,
      "eti": 5973,
      "azeez": 5974,
      "edona": 5975,
      "tech": 5976,
      "asy": 5977,
      "subash": 5978,
      "valerio": 5979,
      "vojtech": 5980,
      "amer": 5981,
      "biju": 5982,
      "bud": 5983,
      "odette": 5984,
      "raden": 5985,
      "doni": 5986,
      "lahcen": 5987,
      "dile": 5988,
      "kesego": 5989,
      "lope": 5990,
      "candice": 5991,
      "alamgir": 5992,
      "philo": 5993,
      "sadie": 5994,
      "rebekka": 5995,
      "olsi": 5996,
      "richie": 5997,
      "thais": 5998,
      "zvonimir": 5999,
      "kiel": 6000,
      "ezekiel": 6001,
      "katrien": 6002,
      "moni": 6003,
      "gertrude": 6004,
      "dney": 6005,
      "roisin": 6006,
      "jaf": 6007,
      "sydney": 6008,
      "deolinda": 6009,
      "juanito": 6010,
      "bishnu": 6011,
      "kailash": 6012,
      "garfi": 6013,
      "marcelina": 6014,
      "dietmar": 6015,
      "pascual": 6016,
      "garfield": 6017,
      "elvin": 6018,
      "ifeoma": 6019,
      "cz": 6020,
      "ksen": 6021,
      "fery": 6022,
      "edvin": 6023,
      "jannie": 6024,
      "abiba": 6025,
      "same": 6026,
      "boik": 6027,
      "ajit": 6028,
      "ornela": 6029,
      "kamrul": 6030,
      "agneta": 6031,
      "marica": 6032,
      "hope": 6033,
      "trish": 6034,
      "rh": 6035,
      "eddine": 6036,
      "lance": 6037,
      "gzim": 6038,
      "hind": 6039,
      "beko": 6040,
      "kwasi": 6041,
      "erva": 6042,
      "nieves": 6043,
      "hs": 6044,
      "manik": 6045,
      "tadeusz": 6046,
      "klea": 6047,
      "robinson": 6048,
      "hendrina": 6049,
      "issam": 6050,
      "pran": 6051,
      "euseb": 6052,
      "edinson": 6053,
      "eusebio": 6054,
      "edilson": 6055,
      "edmilson": 6056,
      "ghn": 6057,
      "gendra": 6058,
      "poonam": 6059,
      "aobak": 6060,
      "juancarlos": 6061,
      "richar": 6062,
      "guille": 6063,
      "abood": 6064,
      "aobakwe": 6065,
      "hermine": 6066,
      "jirina": 6067,
      "narendra": 6068,
      "durga": 6069,
      "fes": 6070,
      "none": 6071,
      "esti": 6072,
      "tsho": 6073,
      "gasper": 6074,
      "njabulo": 6075,
      "veli": 6076,
      "claudette": 6077,
      "kerryann": 6078,
      "aimee": 6079,
      "aparecida": 6080,
      "asare": 6081,
      "demi": 6082,
      "marilou": 6083,
      "rre": 6084,
      "viane": 6085,
      "zulkifli": 6086,
      "oar": 6087,
      "nordin": 6088,
      "nathaniel": 6089,
      "oarabile": 6090,
      "dona": 6091,
      "tonje": 6092,
      "durim": 6093,
      "lazarus": 6094,
      "yang": 6095,
      "emese": 6096,
      "gelson": 6097,
      "russel": 6098,
      "jorma": 6099,
      "ruzica": 6100,
      "aa": 6101,
      "redi": 6102,
      "frankie": 6103,
      "grover": 6104,
      "stela": 6105,
      "manisha": 6106,
      "elito": 6107,
      "carmine": 6108,
      "sole": 6109,
      "yenifer": 6110,
      "faustino": 6111,
      "yanda": 6112,
      "saroj": 6113,
      "roxanne": 6114,
      "daphne": 6115,
      "nhar": 6116,
      "wandile": 6117,
      "izah": 6118,
      "zby": 6119,
      "rea": 6120,
      "leydi": 6121,
      "grant": 6122,
      "slamet": 6123,
      "yeboah": 6124,
      "trin": 6125,
      "sthem": 6126,
      "roko": 6127,
      "irshad": 6128,
      "mohamadou": 6129,
      "kjersti": 6130,
      "pirkko": 6131,
      "azri": 6132,
      "kike": 6133,
      "bogeng": 6134,
      "olebogeng": 6135,
      "azlan": 6136,
      "basia": 6137,
      "gugu": 6138,
      "valentine": 6139,
      "kirsti": 6140,
      "kwadwo": 6141,
      "vald": 6142,
      "baby": 6143,
      "aishah": 6144,
      "marissa": 6145,
      "marga": 6146,
      "aliisa": 6147,
      "ajith": 6148,
      "chelle": 6149,
      "urban": 6150,
      "arnel": 6151,
      "minerva": 6152,
      "temitope": 6153,
      "mbah": 6154,
      "gim": 6155,
      "stiven": 6156,
      "sek": 6157,
      "liseth": 6158,
      "gwen": 6159,
      "vka": 6160,
      "sabelo": 6161,
      "maso": 6162,
      "robson": 6163,
      "gomolemo": 6164,
      "brey": 6165,
      "siz": 6166,
      "aubrey": 6167,
      "pradip": 6168,
      "houda": 6169,
      "angwe": 6170,
      "bijay": 6171,
      "serene": 6172,
      "piwa": 6173,
      "ghan": 6174,
      "carmo": 6175,
      "outi": 6176,
      "jm": 6177,
      "jomar": 6178,
      "bogus": 6179,
      "siegfried": 6180,
      "wig": 6181,
      "mariglen": 6182,
      "jennie": 6183,
      "rinor": 6184,
      "murali": 6185,
      "bru": 6186,
      "romel": 6187,
      "davy": 6188,
      "bladimir": 6189,
      "bruce": 6190,
      "conchi": 6191,
      "ilkka": 6192,
      "lulu": 6193,
      "achille": 6194,
      "monu": 6195,
      "luthando": 6196,
      "emal": 6197,
      "matyas": 6198,
      "geoffrey": 6199,
      "hed": 6200,
      "hanspeter": 6201,
      "liesbeth": 6202,
      "aung": 6203,
      "jang": 6204,
      "inna": 6205,
      "antonius": 6206,
      "zee": 6207,
      "lovro": 6208,
      "icka": 6209,
      "frederick": 6210,
      "unni": 6211,
      "gyongyi": 6212,
      "uy": 6213,
      "tlotlo": 6214,
      "sabri": 6215,
      "kathryn": 6216,
      "vojta": 6217,
      "hamada": 6218,
      "madeline": 6219,
      "santeri": 6220,
      "fahmi": 6221,
      "albina": 6222,
      "fortune": 6223,
      "yovana": 6224,
      "tshepho": 6225,
      "nkosinathi": 6226,
      "hane": 6227,
      "emre": 6228,
      "milla": 6229,
      "braian": 6230,
      "elita": 6231,
      "wael": 6232,
      "wellington": 6233,
      "remco": 6234,
      "hany": 6235,
      "horten": 6236,
      "tahir": 6237,
      "franjo": 6238,
      "firoz": 6239,
      "niv": 6240,
      "anze": 6241,
      "etsana": 6242,
      "ineke": 6243,
      "emmi": 6244,
      "memo": 6245,
      "izzat": 6246,
      "dayang": 6247,
      "manso": 6248,
      "nosipho": 6249,
      "cao": 6250,
      "sindre": 6251,
      "andira": 6252,
      "daryl": 6253,
      "nazmi": 6254,
      "tori": 6255,
      "admir": 6256,
      "selvam": 6257,
      "lucka": 6258,
      "antonietta": 6259,
      "ungo": 6260,
      "fem": 6261,
      "lumb": 6262,
      "yasser": 6263,
      "dinis": 6264,
      "femke": 6265,
      "kiki": 6266,
      "dea": 6267,
      "silas": 6268,
      "ashu": 6269,
      "kov": 6270,
      "flory": 6271,
      "zaneta": 6272,
      "guddu": 6273,
      "volker": 6274,
      "bza": 6275,
      "oge": 6276,
      "tessa": 6277,
      "wazi": 6278,
      "chantelle": 6279,
      "fernandes": 6280,
      "ripon": 6281,
      "jocelyne": 6282,
      "ksenija": 6283,
      "valery": 6284,
      "manny": 6285,
      "sizwe": 6286,
      "samo": 6287,
      "roni": 6288,
      "borut": 6289,
      "hafizah": 6290,
      "edwi": 6291,
      "willi": 6292,
      "farida": 6293,
      "edwige": 6294,
      "salisu": 6295,
      "amandla": 6296,
      "celestino": 6297,
      "asante": 6298,
      "eida": 6299,
      "pame": 6300,
      "kamilla": 6301,
      "cielo": 6302,
      "miika": 6303,
      "zimi": 6304,
      "klodian": 6305,
      "hui": 6306,
      "garcia": 6307,
      "gape": 6308,
      "yaritza": 6309,
      "boitshe": 6310,
      "marcial": 6311,
      "rena": 6312,
      "italo": 6313,
      "abril": 6314,
      "lucila": 6315,
      "arpad": 6316,
      "mirella": 6317,
      "andressa": 6318,
      "kutlo": 6319,
      "gabrielle": 6320,
      "hatice": 6321,
      "boliv": 6322,
      "adek": 6323,
      "mauri": 6324,
      "bolivar": 6325,
      "landry": 6326,
      "rohani": 6327,
      "odete": 6328,
      "nangula": 6329,
      "marisela": 6330,
      "mariluz": 6331,
      "evon": 6332,
      "lalit": 6333,
      "fauziah": 6334,
      "salomon": 6335,
      "kabiru": 6336,
      "atik": 6337,
      "keba": 6338,
      "matu": 6339,
      "salom": 6340,
      "cheng": 6341,
      "themb": 6342,
      "hajnalka": 6343,
      "elou": 6344,
      "foo": 6345,
      "giuliana": 6346,
      "mafer": 6347,
      "romi": 6348,
      "zulema": 6349,
      "shafiq": 6350,
      "jia": 6351,
      "janaina": 6352,
      "mohm": 6353,
      "suela": 6354,
      "baone": 6355,
      "dwa": 6356,
      "beiro": 6357,
      "try": 6358,
      "kadian": 6359,
      "samson": 6360,
      "gordon": 6361,
      "maikel": 6362,
      "marcello": 6363,
      "mee": 6364,
      "kresh": 6365,
      "kc": 6366,
      "iner": 6367,
      "mariv": 6368,
      "christy": 6369,
      "jeremie": 6370,
      "suleiman": 6371,
      "sadiq": 6372,
      "logan": 6373,
      "paz": 6374,
      "valtteri": 6375,
      "yara": 6376,
      "ragh": 6377,
      "rosal": 6378,
      "darragh": 6379,
      "rj": 6380,
      "niki": 6381,
      "ew": 6382,
      "ulia": 6383,
      "bhe": 6384,
      "marjana": 6385,
      "feliciano": 6386,
      "tariq": 6387,
      "emmanuelle": 6388,
      "nazri": 6389,
      "lindsey": 6390,
      "sne": 6391,
      "sini": 6392,
      "abdulai": 6393,
      "ibrahima": 6394,
      "jakov": 6395,
      "suhaimi": 6396,
      "antal": 6397,
      "siew": 6398,
      "ladi": 6399,
      "visar": 6400,
      "tshidi": 6401,
      "mairead": 6402,
      "resh": 6403,
      "hawa": 6404,
      "caitlin": 6405,
      "antun": 6406,
      "reginaldo": 6407,
      "maeva": 6408,
      "antonin": 6409,
      "mergim": 6410,
      "corine": 6411,
      "maipelo": 6412,
      "ndi": 6413,
      "seng": 6414,
      "moren": 6415,
      "bastien": 6416,
      "tommaso": 6417,
      "ynor": 6418,
      "lindokuhle": 6419,
      "mam": 6420,
      "elisabetta": 6421,
      "kunal": 6422,
      "pravin": 6423,
      "edmund": 6424,
      "syn": 6425,
      "neville": 6426,
      "mariette": 6427,
      "antonela": 6428,
      "bokamo": 6429,
      "bokamoso": 6430,
      "issah": 6431,
      "osi": 6432,
      "evandro": 6433,
      "stefanus": 6434,
      "kornelia": 6435,
      "hold": 6436,
      "sama": 6437,
      "reinhold": 6438,
      "alya": 6439,
      "jarmila": 6440,
      "brent": 6441,
      "nubia": 6442,
      "ingvild": 6443,
      "franky": 6444,
      "bongiwe": 6445,
      "shkelzen": 6446,
      "tal": 6447,
      "donika": 6448,
      "rodrigues": 6449,
      "izabel": 6450,
      "maricarmen": 6451,
      "aries": 6452,
      "ouane": 6453,
      "lani": 6454,
      "tapio": 6455,
      "rajib": 6456,
      "kki": 6457,
      "wethu": 6458,
      "pius": 6459,
      "emiljano": 6460,
      "coralie": 6461,
      "analyn": 6462,
      "abde": 6463,
      "vany": 6464,
      "shahin": 6465,
      "kedib": 6466,
      "pero": 6467,
      "erlend": 6468,
      "anuar": 6469,
      "cliff": 6470,
      "ankica": 6471,
      "morit": 6472,
      "gui": 6473,
      "cicero": 6474,
      "moritz": 6475,
      "augustin": 6476,
      "ziano": 6477,
      "mant": 6478,
      "kattia": 6479,
      "igli": 6480,
      "narcisa": 6481,
      "bianka": 6482,
      "rodel": 6483,
      "mhiz": 6484,
      "thuto": 6485,
      "sfiso": 6486,
      "todd": 6487,
      "vielka": 6488,
      "lenin": 6489,
      "chari": 6490,
      "sondre": 6491,
      "samuli": 6492,
      "hajia": 6493,
      "sanni": 6494,
      "tette": 6495,
      "asanda": 6496,
      "maryse": 6497,
      "chinyer": 6498,
      "chinyere": 6499,
      "fie": 6500,
      "kadir": 6501,
      "gopi": 6502,
      "siek": 6503,
      "spar": 6504,
      "lop": 6505,
      "ivas": 6506,
      "prashant": 6507,
      "srinivas": 6508,
      "manoel": 6509,
      "indira": 6510,
      "gosego": 6511,
      "sushil": 6512,
      "fara": 6513,
      "jandira": 6514,
      "linton": 6515,
      "elize": 6516,
      "andries": 6517,
      "ije": 6518,
      "reena": 6519,
      "terhi": 6520,
      "mervi": 6521,
      "ijeoma": 6522,
      "marly": 6523,
      "smail": 6524,
      "shafi": 6525,
      "anastasia": 6526,
      "bit": 6527,
      "yud": 6528,
      "cristy": 6529,
      "slavko": 6530,
      "ep": 6531,
      "ilus": 6532,
      "abed": 6533,
      "denilson": 6534,
      "belle": 6535,
      "landi": 6536,
      "ohe": 6537,
      "donal": 6538,
      "ferre": 6539,
      "rosie": 6540,
      "eel": 6541,
      "marino": 6542,
      "renan": 6543,
      "clemente": 6544,
      "oumaima": 6545,
      "avelino": 6546,
      "onkab": 6547,
      "juhani": 6548,
      "jarda": 6549,
      "gunn": 6550,
      "onkabetse": 6551,
      "coren": 6552,
      "jared": 6553,
      "agyei": 6554,
      "corentin": 6555,
      "atunde": 6556,
      "lida": 6557,
      "bernarda": 6558,
      "babatunde": 6559,
      "lada": 6560,
      "kristjan": 6561,
      "mitchell": 6562,
      "ramadan": 6563,
      "dimas": 6564,
      "bey": 6565,
      "dania": 6566,
      "loubna": 6567,
      "kye": 6568,
      "nilsa": 6569,
      "kreshnik": 6570,
      "inah": 6571,
      "quita": 6572,
      "selim": 6573,
      "muneer": 6574,
      "bame": 6575,
      "udo": 6576,
      "franca": 6577,
      "hartono": 6578,
      "lilli": 6579,
      "yohanes": 6580,
      "ijan": 6581,
      "good": 6582,
      "hilario": 6583,
      "anta": 6584,
      "athe": 6585,
      "sheena": 6586,
      "yode": 6587,
      "agwe": 6588,
      "joselin": 6589,
      "nonofo": 6590,
      "rafiq": 6591,
      "mud": 6592,
      "kwesi": 6593,
      "enda": 6594,
      "haira": 6595,
      "deniz": 6596,
      "cathal": 6597,
      "virpi": 6598,
      "edilberto": 6599,
      "zona": 6600,
      "brett": 6601,
      "egzona": 6602,
      "hak": 6603,
      "selvin": 6604,
      "rory": 6605,
      "ganga": 6606,
      "didik": 6607,
      "peder": 6608,
      "lungile": 6609,
      "pellumb": 6610,
      "souley": 6611,
      "pru": 6612,
      "xiao": 6613,
      "olti": 6614,
      "pruden": 6615,
      "endar": 6616,
      "margau": 6617,
      "dula": 6618,
      "margaux": 6619,
      "ipelo": 6620,
      "trudy": 6621,
      "boipelo": 6622,
      "jossy": 6623,
      "allo": 6624,
      "waltraud": 6625,
      "ghislain": 6626,
      "murielle": 6627,
      "cale": 6628,
      "rosanna": 6629,
      "pertti": 6630,
      "caleb": 6631,
      "rinku": 6632,
      "azad": 6633,
      "adeyemi": 6634,
      "veerle": 6635,
      "enza": 6636,
      "eduar": 6637,
      "asyraf": 6638,
      "letty": 6639,
      "boglarka": 6640,
      "amirah": 6641,
      "vicki": 6642,
      "fle": 6643,
      "nawal": 6644,
      "jeison": 6645,
      "fleur": 6646,
      "zio": 6647,
      "editse": 6648,
      "aden": 6649,
      "preben": 6650,
      "faris": 6651,
      "org": 6652,
      "armindo": 6653,
      "arlindo": 6654,
      "jing": 6655,
      "pontus": 6656,
      "oliveira": 6657,
      "dafina": 6658,
      "alecia": 6659,
      "shil": 6660,
      "phe": 6661,
      "gurpreet": 6662,
      "op": 6663,
      "ravindra": 6664,
      "renu": 6665,
      "abdl": 6666,
      "eucl": 6667,
      "wioletta": 6668,
      "euclides": 6669,
      "erkki": 6670,
      "usitse": 6671,
      "christin": 6672,
      "mikaela": 6673,
      "uis": 6674,
      "leotrim": 6675,
      "joseluis": 6676,
      "demet": 6677,
      "sello": 6678,
      "bhav": 6679,
      "raz": 6680,
      "imms": 6681,
      "vidal": 6682,
      "hale": 6683,
      "sela": 6684,
      "oslav": 6685,
      "siraj": 6686,
      "ume": 6687,
      "xto": 6688,
      "asmae": 6689,
      "jei": 6690,
      "kenroy": 6691,
      "oi": 6692,
      "amjad": 6693,
      "tap": 6694,
      "sherry": 6695,
      "polina": 6696,
      "candida": 6697,
      "marivic": 6698,
      "fenny": 6699,
      "esihle": 6700,
      "zirah": 6701,
      "ifa": 6702,
      "ndina": 6703,
      "onkem": 6704,
      "onkemetse": 6705,
      "swa": 6706,
      "saso": 6707,
      "tshepi": 6708,
      "delcio": 6709,
      "ahlam": 6710,
      "megi": 6711,
      "lebohang": 6712,
      "hossam": 6713,
      "vinia": 6714,
      "setia": 6715,
      "fola": 6716,
      "rry": 6717,
      "tru": 6718,
      "zsofi": 6719,
      "ilyn": 6720,
      "haki": 6721,
      "henrry": 6722,
      "lissette": 6723,
      "ilene": 6724,
      "hauwa": 6725,
      "giz": 6726,
      "qir": 6727,
      "arya": 6728,
      "ermira": 6729,
      "rickard": 6730,
      "hala": 6731,
      "honda": 6732,
      "adeni": 6733,
      "birthe": 6734,
      "matshidiso": 6735,
      "lut": 6736,
      "wieslaw": 6737,
      "ted": 6738,
      "jochen": 6739,
      "sola": 6740,
      "maaike": 6741,
      "aini": 6742,
      "kyaw": 6743,
      "erling": 6744,
      "taufik": 6745,
      "emmy": 6746,
      "najat": 6747,
      "anele": 6748,
      "valdemar": 6749,
      "shahad": 6750,
      "mariska": 6751,
      "edon": 6752,
      "maman": 6753,
      "zach": 6754,
      "maikol": 6755,
      "rommel": 6756,
      "dhu": 6757,
      "edmundo": 6758,
      "josep": 6759,
      "misani": 6760,
      "memory": 6761,
      "dhurata": 6762,
      "noushad": 6763,
      "vinko": 6764,
      "kus": 6765,
      "stalin": 6766,
      "mondi": 6767,
      "juanjo": 6768,
      "avi": 6769,
      "ijo": 6770,
      "lilliam": 6771,
      "emba": 6772,
      "ivin": 6773,
      "jessa": 6774,
      "gabo": 6775,
      "waseem": 6776,
      "greivin": 6777,
      "tineke": 6778,
      "rosaura": 6779,
      "krzysiek": 6780,
      "ohemaa": 6781,
      "christo": 6782,
      "fong": 6783,
      "trina": 6784,
      "andiswa": 6785,
      "piia": 6786,
      "syahmi": 6787,
      "slawek": 6788,
      "kren": 6789,
      "xolo": 6790,
      "abilio": 6791,
      "rekha": 6792,
      "barbro": 6793,
      "valentino": 6794,
      "yamila": 6795,
      "dau": 6796,
      "tuomo": 6797,
      "odile": 6798,
      "vuy": 6799,
      "jat": 6800,
      "zaini": 6801,
      "kajal": 6802,
      "essi": 6803,
      "brianna": 6804,
      "fana": 6805,
      "enhle": 6806,
      "brune": 6807,
      "ibnu": 6808,
      "brunei": 6809,
      "ibe": 6810,
      "iness": 6811,
      "happiness": 6812,
      "lakshmi": 6813,
      "pili": 6814,
      "endre": 6815,
      "marten": 6816,
      "cj": 6817,
      "musah": 6818,
      "giovana": 6819,
      "imma": 6820,
      "soh": 6821,
      "winder": 6822,
      "dang": 6823,
      "jal": 6824,
      "res": 6825,
      "tresia": 6826,
      "friday": 6827,
      "jabulani": 6828,
      "louie": 6829,
      "clemence": 6830,
      "ferreira": 6831,
      "ditte": 6832,
      "nely": 6833,
      "carlton": 6834,
      "rehan": 6835,
      "greet": 6836,
      "suzette": 6837,
      "ilton": 6838,
      "kak": 6839,
      "tau": 6840,
      "olam": 6841,
      "sap": 6842,
      "melody": 6843,
      "varga": 6844,
      "robby": 6845,
      "amarilis": 6846,
      "yorleny": 6847,
      "gara": 6848,
      "eslam": 6849,
      "hery": 6850,
      "genta": 6851,
      "timi": 6852,
      "constant": 6853,
      "fransis": 6854,
      "ajayi": 6855,
      "natangwe": 6856,
      "ilesh": 6857,
      "zipho": 6858,
      "fitz": 6859,
      "joop": 6860,
      "carrie": 6861,
      "jeni": 6862,
      "chinna": 6863,
      "venkatesh": 6864,
      "vali": 6865,
      "lilibeth": 6866,
      "anica": 6867,
      "rous": 6868,
      "jassim": 6869,
      "arifin": 6870,
      "kes": 6871,
      "elwa": 6872,
      "grainne": 6873,
      "teboho": 6874,
      "fathima": 6875,
      "ulrik": 6876,
      "reyes": 6877,
      "nereida": 6878,
      "rashed": 6879,
      "idriss": 6880,
      "diah": 6881,
      "anel": 6882,
      "angelito": 6883,
      "festim": 6884,
      "nol": 6885,
      "pavan": 6886,
      "uran": 6887,
      "magdol": 6888,
      "genci": 6889,
      "claes": 6890,
      "magdolna": 6891,
      "medo": 6892,
      "jong": 6893,
      "keyla": 6894,
      "sudha": 6895,
      "zakari": 6896,
      "urabh": 6897,
      "lorenc": 6898,
      "nikoletta": 6899,
      "pold": 6900,
      "eletso": 6901,
      "hamidah": 6902,
      "leopold": 6903,
      "soraya": 6904,
      "elele": 6905,
      "riana": 6906,
      "nonto": 6907,
      "fabiano": 6908,
      "charo": 6909,
      "ghislaine": 6910,
      "riyas": 6911,
      "agon": 6912,
      "muhamet": 6913,
      "ranjith": 6914,
      "tenya": 6915,
      "babal": 6916,
      "kelsey": 6917,
      "aqilah": 6918,
      "pancho": 6919,
      "teodoro": 6920,
      "giada": 6921,
      "labino": 6922,
      "leonora": 6923,
      "brunilda": 6924,
      "labinot": 6925,
      "dedi": 6926,
      "isabela": 6927,
      "rexhe": 6928,
      "boago": 6929,
      "fifi": 6930,
      "ofori": 6931,
      "rexhep": 6932,
      "ughn": 6933,
      "darja": 6934,
      "donny": 6935,
      "yll": 6936,
      "zimierz": 6937,
      "mylene": 6938,
      "margie": 6939,
      "mayela": 6940,
      "angelita": 6941,
      "quelin": 6942,
      "pino": 6943,
      "katica": 6944,
      "gve": 6945,
      "oko": 6946,
      "jurica": 6947,
      "julianna": 6948,
      "radoslaw": 6949,
      "aryan": 6950,
      "keamo": 6951,
      "ranjan": 6952,
      "elisabet": 6953,
      "prudence": 6954,
      "odane": 6955,
      "arelis": 6956,
      "lucyna": 6957,
      "idowu": 6958,
      "riyaz": 6959,
      "job": 6960,
      "sugeng": 6961,
      "suraya": 6962,
      "rost": 6963,
      "katerin": 6964,
      "opeyemi": 6965,
      "bayron": 6966,
      "asri": 6967,
      "jami": 6968,
      "shaji": 6969,
      "obed": 6970,
      "fisnik": 6971,
      "adar": 6972,
      "mato": 6973,
      "dash": 6974,
      "christiaan": 6975,
      "petteri": 6976,
      "merve": 6977,
      "nitish": 6978,
      "remo": 6979,
      "samp": 6980,
      "salla": 6981,
      "grega": 6982,
      "virag": 6983,
      "trisha": 6984,
      "elva": 6985,
      "rabi": 6986,
      "joselito": 6987,
      "samar": 6988,
      "ivelis": 6989,
      "pauli": 6990,
      "ndeshi": 6991,
      "ivelisse": 6992,
      "adio": 6993,
      "tiho": 6994,
      "borna": 6995,
      "phumzile": 6996,
      "net": 6997,
      "tess": 6998,
      "muh": 6999,
      "tshephang": 7000,
      "tsaone": 7001,
      "pong": 7002,
      "zura": 7003,
      "harriet": 7004,
      "gjergji": 7005,
      "unle": 7006,
      "samer": 7007,
      "beau": 7008,
      "cita": 7009,
      "ayomi": 7010,
      "adekunle": 7011,
      "bby": 7012,
      "utt": 7013,
      "urim": 7014,
      "elfried": 7015,
      "mikola": 7016,
      "costa": 7017,
      "evelina": 7018,
      "uttam": 7019,
      "elfriede": 7020,
      "rato": 7021,
      "josa": 7022,
      "dikel": 7023,
      "nagara": 7024,
      "kristiina": 7025,
      "dikeledi": 7026,
      "heba": 7027,
      "malena": 7028,
      "oliwia": 7029,
      "even": 7030,
      "biljana": 7031,
      "dubravka": 7032,
      "tame": 7033,
      "reu": 7034,
      "kayode": 7035,
      "gautam": 7036,
      "dary": 7037,
      "pumelelo": 7038,
      "nompumelelo": 7039,
      "wasim": 7040,
      "lynne": 7041,
      "rossella": 7042,
      "arsen": 7043,
      "izan": 7044,
      "jerson": 7045,
      "gianfranco": 7046,
      "benedik": 7047,
      "jind": 7048,
      "sasi": 7049,
      "ord": 7050,
      "silvi": 7051,
      "enoch": 7052,
      "lid": 7053,
      "wilda": 7054,
      "etsang": 7055,
      "lenny": 7056,
      "mogen": 7057,
      "noelle": 7058,
      "kathia": 7059,
      "blanche": 7060,
      "mogens": 7061,
      "arlinda": 7062,
      "justo": 7063,
      "benja": 7064,
      "jonida": 7065,
      "shamar": 7066,
      "qe": 7067,
      "alk": 7068,
      "aljaz": 7069,
      "seema": 7070,
      "jeronimo": 7071,
      "aune": 7072,
      "ratan": 7073,
      "annelie": 7074,
      "soso": 7075,
      "alfon": 7076,
      "rki": 7077,
      "jyrki": 7078,
      "mook": 7079,
      "soon": 7080,
      "yoli": 7081,
      "hannele": 7082,
      "zenaida": 7083,
      "mooketsi": 7084,
      "himan": 7085,
      "lisette": 7086,
      "elouise": 7087,
      "sonila": 7088,
      "heber": 7089,
      "klaas": 7090,
      "carlene": 7091,
      "jeeb": 7092,
      "hidayah": 7093,
      "onie": 7094,
      "milo": 7095,
      "adriatik": 7096,
      "satya": 7097,
      "nabilah": 7098,
      "rab": 7099,
      "cecy": 7100,
      "piotre": 7101,
      "piotrek": 7102,
      "ornella": 7103,
      "sylviane": 7104,
      "leevi": 7105,
      "yanique": 7106,
      "almir": 7107,
      "teija": 7108,
      "hasna": 7109,
      "bed": 7110,
      "isai": 7111,
      "lomie": 7112,
      "gerlinde": 7113,
      "ronel": 7114,
      "siah": 7115,
      "bartlomie": 7116,
      "shaban": 7117,
      "bartlomiej": 7118,
      "nq": 7119,
      "ojo": 7120,
      "sanda": 7121,
      "abdela": 7122,
      "neng": 7123,
      "enid": 7124,
      "marjeta": 7125,
      "verito": 7126,
      "laurinda": 7127,
      "ender": 7128,
      "shantel": 7129,
      "erni": 7130,
      "iddris": 7131,
      "minor": 7132,
      "sbon": 7133,
      "kavi": 7134,
      "arbnor": 7135,
      "tuhafeni": 7136,
      "nazmul": 7137,
      "pl": 7138,
      "uri": 7139,
      "gula": 7140,
      "amrit": 7141,
      "rohana": 7142,
      "manel": 7143,
      "neeraj": 7144,
      "henryk": 7145,
      "candi": 7146,
      "kader": 7147,
      "oskari": 7148,
      "buso": 7149,
      "shelley": 7150,
      "rhe": 7151,
      "azam": 7152,
      "julienne": 7153,
      "adewale": 7154,
      "njo": 7155,
      "nem": 7156,
      "rochelle": 7157,
      "sakaria": 7158,
      "ingela": 7159,
      "josefin": 7160,
      "ikechukwu": 7161,
      "padraig": 7162,
      "lej": 7163,
      "kavita": 7164,
      "paule": 7165,
      "hermin": 7166,
      "hernando": 7167,
      "jeremiah": 7168,
      "bol": 7169,
      "djoko": 7170,
      "hlen": 7171,
      "ermir": 7172,
      "mok": 7173,
      "phem": 7174,
      "fikile": 7175,
      "hlengiwe": 7176,
      "phemelo": 7177,
      "dav": 7178,
      "elago": 7179,
      "miran": 7180,
      "aidil": 7181,
      "faro": 7182,
      "daiane": 7183,
      "elijah": 7184,
      "duncan": 7185,
      "shqipe": 7186,
      "raffaella": 7187,
      "tapiwa": 7188,
      "liljana": 7189,
      "onneile": 7190,
      "adeola": 7191,
      "tlamelo": 7192,
      "obi": 7193,
      "richmond": 7194,
      "nanang": 7195,
      "zahid": 7196,
      "lopes": 7197,
      "cquel": 7198,
      "racquel": 7199,
      "ramli": 7200,
      "nathalia": 7201,
      "salwa": 7202,
      "godfred": 7203,
      "marsel": 7204,
      "lein": 7205,
      "marjolein": 7206,
      "cata": 7207,
      "abr": 7208,
      "zodwa": 7209,
      "kayleigh": 7210,
      "akhilesh": 7211,
      "ansari": 7212,
      "ruan": 7213,
      "augustina": 7214,
      "encarna": 7215,
      "soka": 7216,
      "mxol": 7217,
      "norhayati": 7218,
      "aqil": 7219,
      "mxolisi": 7220,
      "nisa": 7221,
      "viki": 7222,
      "emelia": 7223,
      "nevenka": 7224,
      "lavinia": 7225,
      "hazim": 7226,
      "fry": 7227,
      "nouf": 7228,
      "augusta": 7229,
      "obinna": 7230,
      "vje": 7231,
      "vipin": 7232,
      "mompati": 7233,
      "anjali": 7234,
      "arnoldo": 7235,
      "nawaf": 7236,
      "kesha": 7237,
      "ukka": 7238,
      "iren": 7239,
      "koos": 7240,
      "sheik": 7241,
      "tetteh": 7242,
      "keshav": 7243,
      "nobuhle": 7244,
      "jahir": 7245,
      "mouad": 7246,
      "kela": 7247,
      "martim": 7248,
      "osmar": 7249,
      "rizky": 7250,
      "dumisani": 7251,
      "agnesa": 7252,
      "thobile": 7253,
      "shikongo": 7254,
      "tihomir": 7255,
      "jide": 7256,
      "boitshepo": 7257,
      "mikolaj": 7258,
      "zha": 7259,
      "berat": 7260,
      "supri": 7261,
      "afif": 7262,
      "carito": 7263,
      "marielouise": 7264,
      "dustin": 7265,
      "satou": 7266,
      "torio": 7267,
      "micael": 7268,
      "marleni": 7269,
      "moustapha": 7270,
      "vittorio": 7271,
      "thibaut": 7272,
      "maynor": 7273,
      "seidu": 7274,
      "ovi": 7275,
      "sphiwe": 7276,
      "ovidio": 7277,
      "roosa": 7278,
      "ulfo": 7279,
      "olorato": 7280,
      "arnulfo": 7281,
      "azie": 7282,
      "fatih": 7283,
      "ritesh": 7284,
      "pascaline": 7285,
      "laszlone": 7286,
      "vasil": 7287,
      "pranvera": 7288,
      "alphon": 7289,
      "lopez": 7290,
      "muna": 7291,
      "hysen": 7292,
      "arsim": 7293,
      "gomes": 7294,
      "arianna": 7295,
      "haxhi": 7296,
      "orville": 7297,
      "laur": 7298,
      "germaine": 7299,
      "liyana": 7300,
      "izlan": 7301,
      "ghizlan": 7302,
      "radha": 7303,
      "atang": 7304,
      "meti": 7305,
      "og": 7306,
      "dessy": 7307,
      "thandiwe": 7308,
      "abid": 7309,
      "evelien": 7310,
      "vendula": 7311,
      "aftab": 7312,
      "fransina": 7313,
      "polona": 7314,
      "jodi": 7315,
      "betina": 7316,
      "robyn": 7317,
      "mesha": 7318,
      "faye": 7319,
      "muiz": 7320,
      "hul": 7321,
      "taru": 7322,
      "jafet": 7323,
      "oag": 7324,
      "anju": 7325,
      "eris": 7326,
      "unia": 7327,
      "botsh": 7328,
      "nerea": 7329,
      "botshelo": 7330,
      "uan": 7331,
      "daysi": 7332,
      "annalisa": 7333,
      "noreen": 7334,
      "nii": 7335,
      "adama": 7336,
      "marlena": 7337,
      "eneida": 7338,
      "clemens": 7339,
      "omaira": 7340,
      "inye": 7341,
      "nango": 7342,
      "onyinye": 7343,
      "cilia": 7344,
      "ayush": 7345,
      "miroslava": 7346,
      "tissam": 7347,
      "lette": 7348,
      "shadra": 7349,
      "natasja": 7350,
      "dalal": 7351,
      "sajmir": 7352,
      "sakthi": 7353,
      "gben": 7354,
      "barnab": 7355,
      "hisham": 7356,
      "gbenga": 7357,
      "barnabas": 7358,
      "colo": 7359,
      "samu": 7360,
      "paige": 7361,
      "amoy": 7362,
      "manja": 7363,
      "mansoor": 7364,
      "qend": 7365,
      "resa": 7366,
      "sthafa": 7367,
      "musthafa": 7368,
      "kutl": 7369,
      "wano": 7370,
      "lynda": 7371,
      "dall": 7372,
      "qendresa": 7373,
      "kutlwano": 7374,
      "utenya": 7375,
      "luisito": 7376,
      "hellen": 7377,
      "karlheinz": 7378,
      "zira": 7379,
      "margu": 7380,
      "alzira": 7381,
      "erite": 7382,
      "guiselle": 7383,
      "marguerite": 7384,
      "jab": 7385,
      "geza": 7386,
      "yadav": 7387,
      "cko": 7388,
      "sree": 7389,
      "fadz": 7390,
      "gimena": 7391,
      "izzah": 7392,
      "eny": 7393,
      "jouko": 7394,
      "fitzroy": 7395,
      "betsy": 7396,
      "khair": 7397,
      "hendry": 7398,
      "altaf": 7399,
      "arely": 7400,
      "zakir": 7401,
      "meriam": 7402,
      "demetrio": 7403,
      "jurg": 7404,
      "alvine": 7405,
      "corinna": 7406,
      "eamonn": 7407,
      "lieve": 7408,
      "lisseth": 7409,
      "dimo": 7410,
      "jamilah": 7411,
      "jhun": 7412,
      "nav": 7413,
      "rupesh": 7414,
      "mazlan": 7415,
      "rou": 7416,
      "phyl": 7417,
      "clay": 7418,
      "ndeshy": 7419,
      "sifiso": 7420,
      "phyllis": 7421,
      "mdudu": 7422,
      "nohe": 7423,
      "vinda": 7424,
      "ylber": 7425,
      "molnar": 7426,
      "mduduzi": 7427,
      "nohemi": 7428,
      "sang": 7429,
      "siphiwe": 7430,
      "katerine": 7431,
      "antwi": 7432,
      "timote": 7433,
      "giselle": 7434,
      "brigita": 7435,
      "cees": 7436,
      "helvi": 7437,
      "andrija": 7438,
      "jytte": 7439,
      "ndam": 7440,
      "zsan": 7441,
      "ateng": 7442,
      "olle": 7443,
      "boateng": 7444,
      "chaimae": 7445,
      "zsanett": 7446,
      "asad": 7447,
      "yoel": 7448,
      "miloslav": 7449,
      "ndinelao": 7450,
      "rabiu": 7451,
      "kristen": 7452,
      "tumie": 7453,
      "bukola": 7454,
      "bhim": 7455,
      "cula": 7456,
      "anjan": 7457,
      "noxolo": 7458,
      "nizar": 7459,
      "turid": 7460,
      "sphamandla": 7461,
      "clifford": 7462,
      "culada": 7463,
      "toto": 7464,
      "giulio": 7465,
      "khany": 7466,
      "kond": 7467,
      "sherif": 7468,
      "syafiqah": 7469,
      "benn": 7470,
      "dermot": 7471,
      "kenan": 7472,
      "ionut": 7473,
      "russell": 7474,
      "ses": 7475,
      "juri": 7476,
      "asbjorn": 7477,
      "annakay": 7478,
      "maricruz": 7479,
      "carin": 7480,
      "sake": 7481,
      "pauliina": 7482,
      "awg": 7483,
      "iida": 7484,
      "odiri": 7485,
      "roope": 7486,
      "annabel": 7487,
      "caio": 7488,
      "limber": 7489,
      "odirile": 7490,
      "awilda": 7491,
      "emir": 7492,
      "sanu": 7493,
      "magano": 7494,
      "bonga": 7495,
      "candido": 7496,
      "bair": 7497,
      "johny": 7498,
      "nomfundo": 7499,
      "tilen": 7500,
      "fay": 7501,
      "mirja": 7502,
      "vilho": 7503,
      "lun": 7504,
      "hilmi": 7505,
      "syazwan": 7506,
      "annia": 7507,
      "casey": 7508,
      "tza": 7509,
      "chika": 7510,
      "dajana": 7511,
      "fj": 7512,
      "ilid": 7513,
      "teja": 7514,
      "yousuf": 7515,
      "drew": 7516,
      "najwa": 7517,
      "graziella": 7518,
      "hameed": 7519,
      "weku": 7520,
      "vlast": 7521,
      "yusri": 7522,
      "shamsu": 7523,
      "arek": 7524,
      "andela": 7525,
      "jarle": 7526,
      "fatime": 7527,
      "basha": 7528,
      "sarai": 7529,
      "dauda": 7530,
      "emetse": 7531,
      "yahaira": 7532,
      "ttya": 7533,
      "dorottya": 7534,
      "omphemetse": 7535,
      "habiba": 7536,
      "eden": 7537,
      "nativida": 7538,
      "iddrisu": 7539,
      "oye": 7540,
      "regis": 7541,
      "kani": 7542,
      "tj": 7543,
      "ergy": 7544,
      "jafar": 7545,
      "ergys": 7546,
      "xha": 7547,
      "monday": 7548,
      "sigit": 7549,
      "soha": 7550,
      "josette": 7551,
      "kamarul": 7552,
      "alio": 7553,
      "roos": 7554,
      "debra": 7555,
      "mariella": 7556,
      "faa": 7557,
      "nitesh": 7558,
      "noemia": 7559,
      "jhoan": 7560,
      "enolo": 7561,
      "tshenolo": 7562,
      "lalu": 7563,
      "pun": 7564,
      "iken": 7565,
      "katari": 7566,
      "kevine": 7567,
      "gracia": 7568,
      "katariina": 7569,
      "arvid": 7570,
      "annalena": 7571,
      "kapil": 7572,
      "iran": 7573,
      "galo": 7574,
      "bath": 7575,
      "conc": 7576,
      "vilde": 7577,
      "vlora": 7578,
      "salleh": 7579,
      "tura": 7580,
      "vlat": 7581,
      "flutura": 7582,
      "mamat": 7583,
      "naft": 7584,
      "severin": 7585,
      "mislav": 7586,
      "rona": 7587,
      "eime": 7588,
      "thuli": 7589,
      "teh": 7590,
      "terence": 7591,
      "klod": 7592,
      "eimear": 7593,
      "ansar": 7594,
      "marli": 7595,
      "ster": 7596,
      "ummu": 7597,
      "fruz": 7598,
      "garry": 7599,
      "antje": 7600,
      "yesi": 7601,
      "nele": 7602,
      "kristel": 7603,
      "mayara": 7604,
      "rayon": 7605,
      "ernestina": 7606,
      "horace": 7607,
      "pajtim": 7608,
      "jaromir": 7609,
      "dren": 7610,
      "ingunn": 7611,
      "giuseppina": 7612,
      "kaltrina": 7613,
      "sheyla": 7614,
      "eladio": 7615,
      "chita": 7616,
      "moke": 7617,
      "rishi": 7618,
      "ooi": 7619,
      "komal": 7620,
      "monda": 7621,
      "poh": 7622,
      "earl": 7623,
      "dore": 7624,
      "valen": 7625,
      "iley": 7626,
      "samuele": 7627,
      "liselo": 7628,
      "nazar": 7629,
      "landa": 7630,
      "seer": 7631,
      "krystal": 7632,
      "divya": 7633,
      "huguette": 7634,
      "genn": 7635,
      "chibu": 7636,
      "bojana": 7637,
      "gijs": 7638,
      "fidan": 7639,
      "gennaro": 7640,
      "enye": 7641,
      "patricija": 7642,
      "chinenye": 7643,
      "vander": 7644,
      "sofian": 7645,
      "sre": 7646,
      "botho": 7647,
      "olof": 7648,
      "ruedi": 7649,
      "elder": 7650,
      "naga": 7651,
      "choo": 7652,
      "cit": 7653,
      "mallam": 7654,
      "aminat": 7655,
      "mihai": 7656,
      "boa": 7657,
      "quim": 7658,
      "zachar": 7659,
      "vanne": 7660,
      "das": 7661,
      "mola": 7662,
      "salmah": 7663,
      "yami": 7664,
      "istvanne": 7665,
      "nives": 7666,
      "bheki": 7667,
      "anan": 7668,
      "erique": 7669,
      "frederique": 7670,
      "venu": 7671,
      "krun": 7672,
      "domenica": 7673,
      "ndahafa": 7674,
      "afiqah": 7675,
      "kia": 7676,
      "yal": 7677,
      "helal": 7678,
      "begona": 7679,
      "mouhamed": 7680,
      "szilard": 7681,
      "jhoel": 7682,
      "mirco": 7683,
      "reid": 7684,
      "guillermina": 7685,
      "reijo": 7686,
      "secilia": 7687,
      "nozipho": 7688,
      "seraf": 7689,
      "ness": 7690,
      "elkin": 7691,
      "henrietta": 7692,
      "salifu": 7693,
      "modise": 7694,
      "dic": 7695,
      "amalina": 7696,
      "atla": 7697,
      "ronja": 7698,
      "taty": 7699,
      "dicky": 7700,
      "goaba": 7701,
      "staf": 7702,
      "stacyann": 7703,
      "quinton": 7704,
      "theophilus": 7705,
      "carlota": 7706,
      "mily": 7707,
      "sirkka": 7708,
      "maycol": 7709,
      "geovany": 7710,
      "syahirah": 7711,
      "bha": 7712,
      "ngu": 7713,
      "rika": 7714,
      "lineth": 7715,
      "yass": 7716,
      "afolabi": 7717,
      "manikand": 7718,
      "manikandan": 7719,
      "sver": 7720,
      "olayinka": 7721,
      "getse": 7722,
      "xe": 7723,
      "yola": 7724,
      "antonino": 7725,
      "sindy": 7726,
      "zule": 7727,
      "keamogetse": 7728,
      "vard": 7729,
      "celestine": 7730,
      "cidalia": 7731,
      "gna": 7732,
      "zeyne": 7733,
      "romuald": 7734,
      "zeynep": 7735,
      "sjo": 7736,
      "lokesh": 7737,
      "melani": 7738,
      "sofyan": 7739,
      "rachelle": 7740,
      "vasile": 7741,
      "meshack": 7742,
      "ruel": 7743,
      "buku": 7744,
      "anssi": 7745,
      "jessi": 7746,
      "syarif": 7747,
      "erito": 7748,
      "iliana": 7749,
      "lazaro": 7750,
      "rhea": 7751,
      "pent": 7752,
      "taha": 7753,
      "juni": 7754,
      "orjan": 7755,
      "andreina": 7756,
      "balu": 7757,
      "reshma": 7758,
      "pentti": 7759,
      "top": 7760,
      "srecko": 7761,
      "jostein": 7762,
      "olwethu": 7763,
      "hoda": 7764,
      "ohene": 7765,
      "tje": 7766,
      "vula": 7767,
      "zer": 7768,
      "ambar": 7769,
      "kevon": 7770,
      "pontsho": 7771,
      "enock": 7772,
      "arah": 7773,
      "raimo": 7774,
      "inacio": 7775,
      "carmita": 7776,
      "herita": 7777,
      "milica": 7778,
      "margherita": 7779,
      "nasiru": 7780,
      "moe": 7781,
      "yase": 7782,
      "natividad": 7783,
      "binda": 7784,
      "manoli": 7785,
      "tevin": 7786,
      "ashwin": 7787,
      "mahla": 7788,
      "oniel": 7789,
      "alfons": 7790,
      "concetta": 7791,
      "eek": 7792,
      "nkululeko": 7793,
      "qman": 7794,
      "uchen": 7795,
      "luqman": 7796,
      "sahar": 7797,
      "fitore": 7798,
      "junaidi": 7799,
      "uchenna": 7800,
      "vim": 7801,
      "rudina": 7802,
      "kyer": 7803,
      "oluchi": 7804,
      "zenon": 7805,
      "sp": 7806,
      "wai": 7807,
      "joaquina": 7808,
      "corrie": 7809,
      "xheni": 7810,
      "ergi": 7811,
      "roar": 7812,
      "dahi": 7813,
      "novi": 7814,
      "vinoth": 7815,
      "gilmar": 7816,
      "obile": 7817,
      "kurnia": 7818,
      "adeniyi": 7819,
      "nqobile": 7820,
      "nja": 7821,
      "iem": 7822,
      "aleena": 7823,
      "vimal": 7824,
      "marcell": 7825,
      "segolame": 7826,
      "thokozani": 7827,
      "nexh": 7828,
      "laurens": 7829,
      "lorenz": 7830,
      "sv": 7831,
      "sixto": 7832,
      "rajiv": 7833,
      "ilias": 7834,
      "ilija": 7835,
      "magne": 7836,
      "bur": 7837,
      "kleo": 7838,
      "mza": 7839,
      "sueli": 7840,
      "ching": 7841,
      "dasa": 7842,
      "assun": 7843,
      "urd": 7844,
      "jorunn": 7845,
      "prasan": 7846,
      "gret": 7847,
      "sigurd": 7848,
      "oluwato": 7849,
      "ello": 7850,
      "moise": 7851,
      "sujit": 7852,
      "margr": 7853,
      "mithun": 7854,
      "kadri": 7855,
      "eveli": 7856,
      "some": 7857,
      "neel": 7858,
      "winsome": 7859,
      "cheong": 7860,
      "mohs": 7861,
      "mimie": 7862,
      "mmaagwe": 7863,
      "eveliina": 7864,
      "nica": 7865,
      "sahe": 7866,
      "zdz": 7867,
      "verio": 7868,
      "luyanda": 7869,
      "alketa": 7870,
      "shadrack": 7871,
      "adjei": 7872,
      "wayan": 7873,
      "irawan": 7874,
      "iful": 7875,
      "palani": 7876,
      "krenar": 7877,
      "arvin": 7878,
      "taimi": 7879,
      "andreea": 7880,
      "sadik": 7881,
      "albano": 7882,
      "nyo": 7883,
      "asser": 7884,
      "juliano": 7885,
      "sinikka": 7886,
      "sera": 7887,
      "aracelly": 7888,
      "alalelo": 7889,
      "kgalalelo": 7890,
      "nemeth": 7891,
      "nuala": 7892,
      "hanny": 7893,
      "abdoul": 7894,
      "ukri": 7895,
      "mahamat": 7896,
      "jayden": 7897,
      "sudhir": 7898,
      "maher": 7899,
      "jodie": 7900,
      "aminah": 7901,
      "beauty": 7902,
      "amade": 7903,
      "edilma": 7904,
      "paavo": 7905,
      "ix": 7906,
      "varsha": 7907,
      "moreno": 7908,
      "ermelinda": 7909,
      "ineelo": 7910,
      "und": 7911,
      "boineelo": 7912,
      "deepa": 7913,
      "khtar": 7914,
      "ruddy": 7915,
      "nesh": 7916,
      "prisca": 7917,
      "zvonko": 7918,
      "armelle": 7919,
      "unmi": 7920,
      "akhona": 7921,
      "kri": 7922,
      "jeanmichel": 7923,
      "rabiatul": 7924,
      "sparta": 7925,
      "bw": 7926,
      "wieslawa": 7927,
      "diar": 7928,
      "georgette": 7929,
      "esperanca": 7930,
      "clovis": 7931,
      "santy": 7932,
      "annica": 7933,
      "mosa": 7934,
      "yair": 7935,
      "mbar": 7936,
      "opp": 7937,
      "letlhogonolo": 7938,
      "clari": 7939,
      "oppong": 7940,
      "ful": 7941,
      "monse": 7942,
      "grett": 7943,
      "teopolina": 7944,
      "jeffery": 7945,
      "oluwaseun": 7946,
      "ledio": 7947,
      "grettel": 7948,
      "toyin": 7949,
      "piros": 7950,
      "noureddine": 7951,
      "eus": 7952,
      "lujan": 7953,
      "valdir": 7954,
      "salvo": 7955,
      "onyeka": 7956,
      "aide": 7957,
      "lh": 7958,
      "arjeta": 7959,
      "sanela": 7960,
      "hilya": 7961,
      "eliezer": 7962,
      "szabina": 7963,
      "dod": 7964,
      "meena": 7965,
      "estre": 7966,
      "yono": 7967,
      "fikri": 7968,
      "dileep": 7969,
      "aan": 7970,
      "saray": 7971,
      "justino": 7972,
      "satria": 7973,
      "iver": 7974,
      "sugi": 7975,
      "dries": 7976,
      "pardeep": 7977,
      "debby": 7978,
      "hendro": 7979,
      "ilyass": 7980,
      "binu": 7981,
      "rethabile": 7982,
      "clayton": 7983,
      "ilola": 7984,
      "carly": 7985,
      "niraj": 7986,
      "chit": 7987,
      "petro": 7988,
      "hemant": 7989,
      "sindi": 7990,
      "ulay": 7991,
      "nayara": 7992,
      "yazid": 7993,
      "romulo": 7994,
      "azrul": 7995,
      "jozsefne": 7996,
      "wiktor": 7997,
      "charito": 7998,
      "dica": 7999,
      "ying": 8000,
      "evaris": 8001,
      "terri": 8002,
      "wille": 8003,
      "nette": 8004,
      "seini": 8005,
      "aish": 8006,
      "jago": 8007,
      "saw": 8008,
      "siya": 8009,
      "sidonie": 8010,
      "alphonse": 8011,
      "jagoda": 8012,
      "jda": 8013,
      "maka": 8014,
      "simpl": 8015,
      "simplice": 8016,
      "toivo": 8017,
      "dalila": 8018,
      "atle": 8019,
      "moch": 8020,
      "tera": 8021,
      "adelaida": 8022,
      "balaji": 8023,
      "ewan": 8024,
      "riina": 8025,
      "america": 8026,
      "keila": 8027,
      "dini": 8028,
      "svend": 8029,
      "pinge": 8030,
      "bintang": 8031,
      "jolien": 8032,
      "orhan": 8033,
      "jeanine": 8034,
      "giuliano": 8035,
      "abdellatif": 8036,
      "himanshu": 8037,
      "boon": 8038,
      "belu": 8039,
      "khoo": 8040,
      "kaye": 8041,
      "abiola": 8042,
      "mostapha": 8043,
      "saurabh": 8044,
      "silvija": 8045,
      "sverre": 8046,
      "weta": 8047,
      "mais": 8048,
      "kamati": 8049,
      "digna": 8050,
      "kare": 8051,
      "baz": 8052,
      "elisangela": 8053,
      "fatbardha": 8054,
      "othusitse": 8055,
      "biso": 8056,
      "fadi": 8057,
      "erlinda": 8058,
      "enxhi": 8059,
      "laci": 8060,
      "bomir": 8061,
      "tide": 8062,
      "milayo": 8063,
      "nertila": 8064,
      "tatiane": 8065,
      "funmilayo": 8066,
      "aristide": 8067,
      "sthembiso": 8068,
      "mash": 8069,
      "isuf": 8070,
      "hema": 8071,
      "mirsad": 8072,
      "turi": 8073,
      "shahul": 8074,
      "cim": 8075,
      "abh": 8076,
      "assia": 8077,
      "martti": 8078,
      "anniina": 8079,
      "ramiz": 8080,
      "trude": 8081,
      "marigona": 8082,
      "ignacia": 8083,
      "lle": 8084,
      "moem": 8085,
      "karthi": 8086,
      "ethemba": 8087,
      "zuzanna": 8088,
      "safet": 8089,
      "moemedi": 8090,
      "obeng": 8091,
      "vilson": 8092,
      "sbongile": 8093,
      "tro": 8094,
      "alva": 8095,
      "emina": 8096,
      "loreto": 8097,
      "yoni": 8098,
      "tserrat": 8099,
      "tol": 8100,
      "jasim": 8101,
      "montserrat": 8102,
      "becca": 8103,
      "fakh": 8104,
      "faby": 8105,
      "viktori": 8106,
      "fadwa": 8107,
      "terezinha": 8108,
      "sna": 8109,
      "kauna": 8110,
      "hassna": 8111,
      "giovanny": 8112,
      "shiela": 8113,
      "atsimo": 8114,
      "beren": 8115,
      "phatsimo": 8116,
      "vasek": 8117,
      "samad": 8118,
      "soma": 8119,
      "heid": 8120,
      "huang": 8121,
      "mala": 8122,
      "tendai": 8123,
      "ayodele": 8124,
      "brooke": 8125,
      "dipuo": 8126,
      "annabelle": 8127,
      "djamila": 8128,
      "arton": 8129,
      "mora": 8130,
      "huda": 8131,
      "zamri": 8132,
      "ginette": 8133,
      "vish": 8134,
      "yenni": 8135,
      "lex": 8136,
      "bakari": 8137,
      "bokang": 8138,
      "faan": 8139,
      "anoop": 8140,
      "hugues": 8141,
      "endi": 8142,
      "nasar": 8143,
      "thami": 8144,
      "sajan": 8145,
      "martinho": 8146,
      "shehu": 8147,
      "zelda": 8148,
      "albino": 8149,
      "ousmane": 8150,
      "deddy": 8151,
      "pj": 8152,
      "zhang": 8153,
      "aderito": 8154,
      "visi": 8155,
      "retno": 8156,
      "annelise": 8157,
      "tash": 8158,
      "carolin": 8159,
      "jessenia": 8160,
      "luzmila": 8161,
      "lynette": 8162,
      "atika": 8163,
      "hasnah": 8164,
      "friedrich": 8165,
      "lejla": 8166,
      "kv": 8167,
      "monde": 8168,
      "jeanphilippe": 8169,
      "bry": 8170,
      "liu": 8171,
      "chay": 8172,
      "aloo": 8173,
      "florencio": 8174,
      "benedicta": 8175,
      "iyaloo": 8176,
      "nelo": 8177,
      "toini": 8178,
      "duvan": 8179,
      "pelagie": 8180,
      "idou": 8181,
      "erwan": 8182,
      "iola": 8183,
      "luuk": 8184,
      "agathe": 8185,
      "larona": 8186,
      "xhon": 8187,
      "geeta": 8188,
      "piedad": 8189,
      "mathi": 8190,
      "bunmi": 8191,
      "veton": 8192,
      "mandisa": 8193,
      "normah": 8194,
      "jimoh": 8195,
      "mayer": 8196,
      "laimi": 8197,
      "tanisha": 8198,
      "junias": 8199,
      "nisar": 8200,
      "marijo": 8201,
      "bety": 8202,
      "gabrijela": 8203,
      "goni": 8204,
      "imatou": 8205,
      "fadimatou": 8206,
      "dhe": 8207,
      "oral": 8208,
      "yoann": 8209,
      "fion": 8210,
      "ignati": 8211,
      "ignatius": 8212,
      "laina": 8213,
      "lata": 8214,
      "atte": 8215,
      "josemar": 8216,
      "cosimo": 8217,
      "nagendra": 8218,
      "birendra": 8219,
      "jeffry": 8220,
      "klaudio": 8221,
      "lijn": 8222,
      "putera": 8223,
      "kelechi": 8224,
      "madel": 8225,
      "andrina": 8226,
      "xavi": 8227,
      "syamsul": 8228,
      "bani": 8229,
      "anali": 8230,
      "hamilton": 8231,
      "nair": 8232,
      "bongi": 8233,
      "isidora": 8234,
      "upendra": 8235,
      "thandazo": 8236,
      "hairul": 8237,
      "vijaya": 8238,
      "simran": 8239,
      "roseli": 8240,
      "loni": 8241,
      "palmira": 8242,
      "jenifer": 8243,
      "push": 8244,
      "marsi": 8245,
      "genc": 8246,
      "iraj": 8247,
      "lete": 8248,
      "dhiraj": 8249,
      "lehlo": 8250,
      "aakash": 8251,
      "odu": 8252,
      "ott": 8253,
      "kara": 8254,
      "nydia": 8255,
      "bikram": 8256,
      "rupert": 8257,
      "valde": 8258,
      "danie": 8259,
      "pato": 8260,
      "bedri": 8261,
      "janko": 8262,
      "floor": 8263,
      "jozica": 8264,
      "janneke": 8265,
      "fahd": 8266,
      "ryl": 8267,
      "halimah": 8268,
      "eq": 8269,
      "moa": 8270,
      "shameer": 8271,
      "ursa": 8272,
      "roderick": 8273,
      "akhmad": 8274,
      "ista": 8275,
      "olta": 8276,
      "andreita": 8277,
      "tiziano": 8278,
      "entela": 8279,
      "bron": 8280,
      "gjergj": 8281,
      "wandi": 8282,
      "bai": 8283,
      "keel": 8284,
      "osu": 8285,
      "julieth": 8286,
      "svenja": 8287,
      "zsuzsi": 8288,
      "kleber": 8289,
      "donatella": 8290,
      "piroska": 8291,
      "wina": 8292,
      "hary": 8293,
      "wahab": 8294,
      "monserrat": 8295,
      "candela": 8296,
      "torill": 8297,
      "kweku": 8298,
      "foibe": 8299,
      "redouane": 8300,
      "karlita": 8301,
      "rosalina": 8302,
      "kristo": 8303,
      "lilis": 8304,
      "goncal": 8305,
      "kendall": 8306,
      "detlef": 8307,
      "reuben": 8308,
      "goncalves": 8309,
      "clet": 8310,
      "moza": 8311,
      "shemar": 8312,
      "encer": 8313,
      "spencer": 8314,
      "mmag": 8315,
      "opelo": 8316,
      "modimo": 8317,
      "phu": 8318,
      "khawla": 8319,
      "goitsemodimo": 8320,
      "gulam": 8321,
      "staffan": 8322,
      "mmagwe": 8323,
      "laer": 8324,
      "dounia": 8325,
      "liina": 8326,
      "clarice": 8327,
      "bartolo": 8328,
      "elifas": 8329,
      "naushad": 8330,
      "tihana": 8331,
      "hitesh": 8332,
      "chidinma": 8333,
      "tengku": 8334,
      "sampson": 8335,
      "tessy": 8336,
      "nw": 8337,
      "merry": 8338,
      "darryl": 8339,
      "delano": 8340,
      "thabani": 8341,
      "tunji": 8342,
      "ketut": 8343,
      "hmd": 8344,
      "mba": 8345,
      "ileni": 8346,
      "edli": 8347,
      "usiku": 8348,
      "elore": 8349,
      "iztok": 8350,
      "yamile": 8351,
      "hannelore": 8352,
      "edlira": 8353,
      "gry": 8354,
      "mp": 8355,
      "tayo": 8356,
      "janete": 8357,
      "aziza": 8358,
      "karoliina": 8359,
      "kobby": 8360,
      "mbal": 8361,
      "tuel": 8362,
      "iades": 8363,
      "ademola": 8364,
      "senzo": 8365,
      "nilson": 8366,
      "baptista": 8367,
      "tuelo": 8368,
      "swe": 8369,
      "safae": 8370,
      "pierr": 8371,
      "aracelis": 8372,
      "edoardo": 8373,
      "natalee": 8374,
      "hadiza": 8375,
      "souleyman": 8376,
      "thalia": 8377,
      "nuhu": 8378,
      "xii": 8379,
      "mouna": 8380,
      "cory": 8381,
      "berti": 8382,
      "oua": 8383,
      "kathi": 8384,
      "azizul": 8385,
      "nabila": 8386,
      "vlastim": 8387,
      "manar": 8388,
      "alita": 8389,
      "gregoire": 8390,
      "neto": 8391,
      "olani": 8392,
      "fawa": 8393,
      "roseline": 8394,
      "sune": 8395,
      "tate": 8396,
      "fawaz": 8397,
      "gha": 8398,
      "jahan": 8399,
      "janette": 8400,
      "mujeeb": 8401,
      "mayur": 8402,
      "xhevdet": 8403,
      "yussif": 8404,
      "rosalinda": 8405,
      "marlyse": 8406,
      "arul": 8407,
      "abeer": 8408,
      "dago": 8409,
      "saud": 8410,
      "nek": 8411,
      "donjeta": 8412,
      "rayane": 8413,
      "gentrit": 8414,
      "bozica": 8415,
      "kaija": 8416,
      "duje": 8417,
      "soufian": 8418,
      "ebu": 8419,
      "chana": 8420,
      "rewa": 8421,
      "kaarina": 8422,
      "samara": 8423,
      "cep": 8424,
      "matty": 8425,
      "eeq": 8426,
      "zdenko": 8427,
      "olanrewa": 8428,
      "jibril": 8429,
      "olanrewaju": 8430,
      "nanda": 8431,
      "rauha": 8432,
      "naseer": 8433,
      "heen": 8434,
      "razali": 8435,
      "juliane": 8436,
      "kgotso": 8437,
      "tta": 8438,
      "maca": 8439,
      "deyanira": 8440,
      "jayne": 8441,
      "mariangel": 8442,
      "reiner": 8443,
      "gentjan": 8444,
      "sjoerd": 8445,
      "klav": 8446,
      "murt": 8447,
      "ub": 8448,
      "amol": 8449,
      "arianit": 8450,
      "krister": 8451,
      "millie": 8452,
      "azizi": 8453,
      "bjornar": 8454,
      "wladys": 8455,
      "mlung": 8456,
      "rahel": 8457,
      "subra": 8458,
      "mosetsana": 8459,
      "devendra": 8460,
      "clementine": 8461,
      "narcisse": 8462,
      "mlungisi": 8463,
      "gagan": 8464,
      "bek": 8465,
      "merlin": 8466,
      "oona": 8467,
      "alana": 8468,
      "susanto": 8469,
      "hengky": 8470,
      "maw": 8471,
      "mercia": 8472,
      "esko": 8473,
      "ramana": 8474,
      "ananias": 8475,
      "masum": 8476,
      "nikolai": 8477,
      "anuj": 8478,
      "aitor": 8479,
      "mamta": 8480,
      "iya": 8481,
      "vani": 8482,
      "rens": 8483,
      "florim": 8484,
      "pereira": 8485,
      "destiny": 8486,
      "sundar": 8487,
      "kitty": 8488,
      "bibiana": 8489,
      "babo": 8490,
      "botlhe": 8491,
      "nouha": 8492,
      "bishal": 8493,
      "baboloki": 8494,
      "nke": 8495,
      "zrin": 8496,
      "mamou": 8497,
      "olawale": 8498,
      "aminul": 8499,
      "ebba": 8500,
      "zaiton": 8501,
      "nkechi": 8502,
      "pcion": 8503,
      "jada": 8504,
      "emilly": 8505,
      "popp": 8506,
      "eleanor": 8507,
      "ylva": 8508,
      "concepcion": 8509,
      "poppy": 8510,
      "slind": 8511,
      "asamoah": 8512,
      "nove": 8513,
      "shef": 8514,
      "vaino": 8515,
      "brisa": 8516,
      "yasmina": 8517,
      "linea": 8518,
      "puleng": 8519,
      "slindile": 8520,
      "neli": 8521,
      "menegil": 8522,
      "hermenegil": 8523,
      "umberto": 8524,
      "abdelhak": 8525,
      "kalai": 8526,
      "wana": 8527,
      "erb": 8528,
      "zeem": 8529,
      "afzal": 8530,
      "penda": 8531,
      "celestin": 8532,
      "rubiela": 8533,
      "fjol": 8534,
      "ludek": 8535,
      "rex": 8536,
      "abdelkader": 8537,
      "ousmanou": 8538,
      "reidun": 8539,
      "fjolla": 8540,
      "nkamo": 8541,
      "aleth": 8542,
      "onaleth": 8543,
      "sto": 8544,
      "see": 8545,
      "refilo": 8546,
      "chimene": 8547,
      "ellio": 8548,
      "jindrich": 8549,
      "fruzsina": 8550,
      "onalethata": 8551,
      "refiloe": 8552,
      "kine": 8553,
      "micke": 8554,
      "not": 8555,
      "gernot": 8556,
      "yulia": 8557,
      "rokiah": 8558,
      "tameka": 8559,
      "vlastimil": 8560,
      "marques": 8561,
      "mawan": 8562,
      "mendes": 8563,
      "zef": 8564,
      "yusof": 8565,
      "shilongo": 8566,
      "victorine": 8567,
      "selam": 8568,
      "morne": 8569,
      "nazirul": 8570,
      "neven": 8571,
      "rodney": 8572,
      "balogun": 8573,
      "jhay": 8574,
      "tie": 8575,
      "roj": 8576,
      "manjola": 8577,
      "diallo": 8578,
      "firoj": 8579,
      "iracelma": 8580,
      "senad": 8581,
      "khosi": 8582,
      "krunoslav": 8583,
      "troels": 8584,
      "juanma": 8585,
      "isaiah": 8586,
      "siel": 8587,
      "myra": 8588,
      "bien": 8589,
      "hys": 8590,
      "meme": 8591,
      "ahir": 8592,
      "hysni": 8593,
      "ook": 8594,
      "use": 8595,
      "cht": 8596,
      "olebile": 8597,
      "bonang": 8598,
      "jamilu": 8599,
      "ookeditse": 8600,
      "ebere": 8601,
      "exe": 8602,
      "chung": 8603,
      "aliff": 8604,
      "nix": 8605,
      "shibu": 8606,
      "rizki": 8607,
      "sanaa": 8608,
      "dulal": 8609,
      "nishan": 8610,
      "eino": 8611,
      "kobus": 8612,
      "jarka": 8613,
      "nathi": 8614,
      "nardi": 8615,
      "dna": 8616,
      "ite": 8617,
      "pim": 8618,
      "diswa": 8619,
      "ariadna": 8620,
      "fendy": 8621,
      "angy": 8622,
      "killian": 8623,
      "miloud": 8624,
      "nfor": 8625,
      "pelle": 8626,
      "zamo": 8627,
      "olger": 8628,
      "mirjeta": 8629,
      "aneesh": 8630,
      "inho": 8631,
      "putu": 8632,
      "yuly": 8633,
      "kundan": 8634,
      "nyoman": 8635,
      "amara": 8636,
      "janny": 8637,
      "ones": 8638,
      "leva": 8639,
      "wilbard": 8640,
      "durdica": 8641,
      "shellyann": 8642,
      "amarachi": 8643,
      "onesmus": 8644,
      "fino": 8645,
      "etan": 8646,
      "toon": 8647,
      "chetan": 8648,
      "carias": 8649,
      "zacarias": 8650,
      "wilian": 8651,
      "modesto": 8652,
      "sameh": 8653,
      "jj": 8654,
      "mariet": 8655,
      "zaki": 8656,
      "rosnah": 8657,
      "cormac": 8658,
      "klevi": 8659,
      "margoth": 8660,
      "rober": 8661,
      "gott": 8662,
      "rosibel": 8663,
      "tamer": 8664,
      "coal": 8665,
      "alexand": 8666,
      "terrence": 8667,
      "cristal": 8668,
      "pascoal": 8669,
      "jhan": 8670,
      "mariu": 8671,
      "riska": 8672,
      "banyana": 8673,
      "chidi": 8674,
      "corne": 8675,
      "kornel": 8676,
      "that": 8677,
      "muzi": 8678,
      "celio": 8679,
      "eph": 8680,
      "xana": 8681,
      "nomvula": 8682,
      "anup": 8683,
      "hyacinth": 8684,
      "liselotte": 8685,
      "ake": 8686,
      "sbu": 8687,
      "elson": 8688,
      "frimpong": 8689,
      "shima": 8690,
      "kary": 8691,
      "donato": 8692,
      "bethany": 8693,
      "endo": 8694,
      "idalina": 8695,
      "benedict": 8696,
      "taufiq": 8697,
      "hester": 8698,
      "land": 8699,
      "mandi": 8700,
      "enkel": 8701,
      "joeri": 8702,
      "ollie": 8703,
      "naw": 8704,
      "kemo": 8705,
      "olavi": 8706,
      "andrews": 8707,
      "zuzka": 8708,
      "ludwig": 8709,
      "mulyadi": 8710,
      "mimmo": 8711,
      "stepanka": 8712,
      "dos": 8713,
      "lidi": 8714,
      "cleide": 8715,
      "nametso": 8716,
      "marsela": 8717,
      "ono": 8718,
      "tajay": 8719,
      "ouda": 8720,
      "abdelilah": 8721,
      "renaud": 8722,
      "dahiana": 8723,
      "riona": 8724,
      "muhamed": 8725,
      "ophelie": 8726,
      "billal": 8727,
      "kilian": 8728,
      "hazwan": 8729,
      "hes": 8730,
      "sergi": 8731,
      "viktorija": 8732,
      "vedrana": 8733,
      "clinton": 8734,
      "nde": 8735,
      "pene": 8736,
      "lama": 8737,
      "kazimierz": 8738,
      "miikka": 8739,
      "anowar": 8740,
      "cu": 8741,
      "eila": 8742,
      "garba": 8743,
      "trinidad": 8744,
      "caoim": 8745,
      "aljosa": 8746,
      "jot": 8747,
      "ismaila": 8748,
      "kajsa": 8749,
      "wout": 8750,
      "xter": 8751,
      "dexter": 8752,
      "niku": 8753,
      "johanes": 8754,
      "dorine": 8755,
      "candel": 8756,
      "dionisio": 8757,
      "aram": 8758,
      "rasha": 8759,
      "jual": 8760,
      "germain": 8761,
      "fabi": 8762,
      "eliaser": 8763,
      "palle": 8764,
      "blen": 8765,
      "pandi": 8766,
      "fercho": 8767,
      "susann": 8768,
      "larbi": 8769,
      "blendi": 8770,
      "mahal": 8771,
      "loo": 8772,
      "gresa": 8773,
      "wna": 8774,
      "ianto": 8775,
      "shawna": 8776,
      "wisnu": 8777,
      "hra": 8778,
      "pana": 8779,
      "anael": 8780,
      "adriaan": 8781,
      "guro": 8782,
      "nova": 8783,
      "natanael": 8784,
      "damiano": 8785,
      "alfeus": 8786,
      "anayan": 8787,
      "nori": 8788,
      "migena": 8789,
      "wawa": 8790,
      "sabino": 8791,
      "maiken": 8792,
      "gyorgyi": 8793,
      "vz": 8794,
      "rianne": 8795,
      "lebza": 8796,
      "diell": 8797,
      "petaga": 8798,
      "marcelle": 8799,
      "nurin": 8800,
      "matevz": 8801,
      "josimar": 8802,
      "diellza": 8803,
      "cka": 8804,
      "kn": 8805,
      "orine": 8806,
      "sujan": 8807,
      "ophie": 8808,
      "damilola": 8809,
      "honorine": 8810,
      "rebecka": 8811,
      "annesophie": 8812,
      "borja": 8813,
      "adenike": 8814,
      "knud": 8815,
      "pali": 8816,
      "albeiro": 8817,
      "nokw": 8818,
      "phumlani": 8819,
      "murtala": 8820,
      "nokwanda": 8821,
      "anti": 8822,
      "olman": 8823,
      "paol": 8824,
      "kimone": 8825,
      "dumiso": 8826,
      "yambo": 8827,
      "chantel": 8828,
      "nondumiso": 8829,
      "merveille": 8830,
      "nangolo": 8831,
      "oriel": 8832,
      "adelia": 8833,
      "luise": 8834,
      "abdu": 8835,
      "jossel": 8836,
      "zola": 8837,
      "fatlum": 8838,
      "ngwa": 8839,
      "blake": 8840,
      "meriton": 8841,
      "felis": 8842,
      "segam": 8843,
      "saji": 8844,
      "noha": 8845,
      "conroy": 8846,
      "xhulio": 8847,
      "segametsi": 8848,
      "bing": 8849,
      "fessy": 8850,
      "tando": 8851,
      "liri": 8852,
      "philani": 8853,
      "pinkie": 8854,
      "mahlatse": 8855,
      "carlita": 8856,
      "uschi": 8857,
      "shajahan": 8858,
      "hekuran": 8859,
      "oya": 8860,
      "xu": 8861,
      "esor": 8862,
      "unah": 8863,
      "annakarin": 8864,
      "nury": 8865,
      "tresor": 8866,
      "ahamed": 8867,
      "joann": 8868,
      "guida": 8869,
      "noluthando": 8870,
      "nordia": 8871,
      "mikey": 8872,
      "shambhu": 8873,
      "widya": 8874,
      "aissatou": 8875,
      "oriana": 8876,
      "erno": 8877,
      "danitza": 8878,
      "ahmadou": 8879,
      "ivannia": 8880,
      "hilkka": 8881,
      "prabhu": 8882,
      "florjan": 8883,
      "rajae": 8884,
      "anyo": 8885,
      "miki": 8886,
      "noa": 8887,
      "neuza": 8888,
      "kuda": 8889,
      "lanie": 8890,
      "zorica": 8891,
      "kenza": 8892,
      "boikanyo": 8893,
      "saheed": 8894,
      "omayra": 8895,
      "andraz": 8896,
      "abdrahim": 8897,
      "garth": 8898,
      "branimir": 8899,
      "ugochukwu": 8900,
      "cleon": 8901,
      "nth": 8902,
      "uday": 8903,
      "franzi": 8904,
      "adrienne": 8905,
      "lubomir": 8906,
      "zenka": 8907,
      "kwan": 8908,
      "juraj": 8909,
      "lindy": 8910,
      "khali": 8911,
      "dagmara": 8912,
      "fendi": 8913,
      "vladka": 8914,
      "mishell": 8915,
      "teofilo": 8916,
      "zbynek": 8917,
      "elli": 8918,
      "dalton": 8919,
      "ebrahim": 8920,
      "teu": 8921,
      "yariela": 8922,
      "tur": 8923,
      "eoghan": 8924,
      "sene": 8925,
      "arsene": 8926,
      "abang": 8927,
      "hambel": 8928,
      "ruusa": 8929,
      "maicon": 8930,
      "gomodi": 8931,
      "margrethe": 8932,
      "abim": 8933,
      "shakeel": 8934,
      "sarath": 8935,
      "nono": 8936,
      "janosne": 8937,
      "ikhwan": 8938,
      "abimbola": 8939,
      "fra": 8940,
      "hamo": 8941,
      "ashvin": 8942,
      "lovemore": 8943,
      "doriane": 8944,
      "klavdija": 8945,
      "arlete": 8946,
      "maje": 8947,
      "annem": 8948,
      "ndumiso": 8949,
      "majeed": 8950,
      "annemette": 8951,
      "josua": 8952,
      "etleva": 8953,
      "sakh": 8954,
      "bee": 8955,
      "charline": 8956,
      "busi": 8957,
      "wilhelmina": 8958,
      "zrinka": 8959,
      "sakhile": 8960,
      "vesh": 8961,
      "erg": 8962,
      "anika": 8963,
      "rahimah": 8964,
      "meriem": 8965,
      "funke": 8966,
      "ogechi": 8967,
      "awal": 8968,
      "elian": 8969,
      "tah": 8970,
      "godira": 8971,
      "shola": 8972,
      "evy": 8973,
      "samia": 8974,
      "godiraone": 8975,
      "oa": 8976,
      "kolaw": 8977,
      "thobeka": 8978,
      "gonza": 8979,
      "besarta": 8980,
      "gertjan": 8981,
      "nicoletta": 8982,
      "inmaculada": 8983,
      "kolawole": 8984,
      "wira": 8985,
      "rock": 8986,
      "maxence": 8987,
      "synnove": 8988,
      "naftal": 8989,
      "ehab": 8990,
      "oisin": 8991,
      "vii": 8992,
      "bafana": 8993,
      "muhar": 8994,
      "elizangela": 8995,
      "jaber": 8996,
      "muharrem": 8997,
      "peng": 8998,
      "franko": 8999,
      "lihle": 9000,
      "salete": 9001,
      "tinashe": 9002,
      "bih": 9003,
      "oksana": 9004,
      "hanneke": 9005,
      "razd": 9006,
      "gorazd": 9007,
      "metka": 9008,
      "llan": 9009,
      "yiso": 9010,
      "asllan": 9011,
      "michell": 9012,
      "sik": 9013,
      "aniket": 9014,
      "chipo": 9015,
      "nazare": 9016,
      "meghan": 9017,
      "yllka": 9018,
      "nothando": 9019,
      "lahja": 9020,
      "cande": 9021,
      "fuseini": 9022,
      "wunmi": 9023,
      "gill": 9024,
      "shinta": 9025,
      "scar": 9026,
      "archie": 9027,
      "merel": 9028,
      "jeanlouis": 9029,
      "catharina": 9030,
      "mathis": 9031,
      "klever": 9032,
      "safwan": 9033,
      "noemy": 9034,
      "arbi": 9035,
      "ilka": 9036,
      "asun": 9037,
      "youssouf": 9038,
      "chinwe": 9039,
      "olamide": 9040,
      "frane": 9041,
      "fait": 9042,
      "zaw": 9043,
      "seri": 9044,
      "joelma": 9045,
      "parfait": 9046,
      "margaretha": 9047,
      "yeny": 9048,
      "kale": 9049,
      "sakari": 9050,
      "araf": 9051,
      "oagile": 9052,
      "ure": 9053,
      "rawan": 9054,
      "moagi": 9055,
      "ivon": 9056,
      "bipin": 9057,
      "majbritt": 9058,
      "liridona": 9059,
      "rett": 9060,
      "moya": 9061,
      "lilliana": 9062,
      "timoteus": 9063,
      "sakeus": 9064,
      "iker": 9065,
      "ganesan": 9066,
      "biswa": 9067,
      "xenia": 9068,
      "mayma": 9069,
      "jahid": 9070,
      "zuleika": 9071,
      "mariuxi": 9072,
      "biswajit": 9073,
      "vili": 9074,
      "ulena": 9075,
      "mido": 9076,
      "fai": 9077,
      "ilirjan": 9078,
      "albulena": 9079,
      "futhi": 9080,
      "loveth": 9081,
      "mugam": 9082,
      "terka": 9083,
      "amado": 9084,
      "kunle": 9085,
      "dalma": 9086,
      "suria": 9087,
      "bonge": 9088,
      "isson": 9089,
      "abong": 9090,
      "sherwin": 9091,
      "yanis": 9092,
      "eurico": 9093,
      "arist": 9094,
      "dyah": 9095,
      "pratik": 9096,
      "chow": 9097,
      "bozidar": 9098,
      "aristides": 9099,
      "leth": 9100,
      "milon": 9101,
      "mahle": 9102,
      "estevao": 9103,
      "lethabo": 9104,
      "derick": 9105,
      "gton": 9106,
      "barrin": 9107,
      "kira": 9108,
      "barrington": 9109,
      "hando": 9110,
      "alok": 9111,
      "marloes": 9112,
      "ferney": 9113,
      "siby": 9114,
      "kum": 9115,
      "sebastiaan": 9116,
      "valerija": 9117,
      "evaristo": 9118,
      "sibylle": 9119,
      "mason": 9120,
      "petse": 9121,
      "gue": 9122,
      "gaola": 9123,
      "dorothee": 9124,
      "lule": 9125,
      "lipus": 9126,
      "ikhona": 9127,
      "fillipus": 9128,
      "hm": 9129,
      "varun": 9130,
      "yur": 9131,
      "simane": 9132,
      "piro": 9133,
      "cus": 9134,
      "edc": 9135,
      "aleja": 9136,
      "hamzah": 9137,
      "rust": 9138,
      "ajet": 9139,
      "qa": 9140,
      "yet": 9141,
      "jostin": 9142,
      "unathi": 9143,
      "cak": 9144,
      "camii": 9145,
      "layla": 9146,
      "pard": 9147,
      "uma": 9148,
      "edivaldo": 9149,
      "veed": 9150,
      "belal": 9151,
      "zamira": 9152,
      "abbie": 9153,
      "uleni": 9154,
      "matthijs": 9155,
      "shailesh": 9156,
      "milka": 9157,
      "sebastiano": 9158,
      "panduleni": 9159,
      "elizabet": 9160,
      "oluwatoyin": 9161,
      "bienvenu": 9162,
      "qemal": 9163,
      "uff": 9164,
      "ludivine": 9165,
      "faz": 9166,
      "heart": 9167,
      "toniel": 9168,
      "siyanda": 9169,
      "freja": 9170,
      "silvano": 9171,
      "iton": 9172,
      "kga": 9173,
      "nk": 9174,
      "poloki": 9175,
      "liezel": 9176,
      "cleiton": 9177,
      "ernestine": 9178,
      "mompoloki": 9179,
      "adarsh": 9180,
      "apol": 9181,
      "gato": 9182,
      "arjana": 9183,
      "ellin": 9184,
      "dadang": 9185,
      "bonifa": 9186,
      "hafida": 9187,
      "argelis": 9188,
      "gatot": 9189,
      "ellinor": 9190,
      "rhonda": 9191,
      "sian": 9192,
      "engracia": 9193,
      "maeve": 9194,
      "saija": 9195,
      "nicolo": 9196,
      "milagro": 9197,
      "hermenegildo": 9198,
      "lamar": 9199,
      "seyi": 9200,
      "ceyann": 9201,
      "ameen": 9202,
      "rushane": 9203,
      "vlatka": 9204,
      "paolita": 9205,
      "air": 9206,
      "zelia": 9207,
      "esvin": 9208,
      "latif": 9209,
      "ueli": 9210,
      "chuy": 9211,
      "wumi": 9212,
      "dillon": 9213,
      "exequiel": 9214,
      "zsom": 9215,
      "janelle": 9216,
      "betzaida": 9217,
      "jend": 9218,
      "megane": 9219,
      "argjend": 9220,
      "ilidio": 9221,
      "hammed": 9222,
      "goabaone": 9223,
      "ble": 9224,
      "eleni": 9225,
      "fazal": 9226,
      "gazi": 9227,
      "ibtissam": 9228,
      "chima": 9229,
      "nikolin": 9230,
      "aphiwe": 9231,
      "sc": 9232,
      "niek": 9233,
      "kelo": 9234,
      "panda": 9235,
      "isela": 9236,
      "icio": 9237,
      "koso": 9238,
      "bozo": 9239,
      "samkelo": 9240,
      "aliz": 9241,
      "sandhya": 9242,
      "ndapanda": 9243,
      "ndue": 9244,
      "rif": 9245,
      "roza": 9246,
      "elihle": 9247,
      "medina": 9248,
      "vladim": 9249,
      "stanko": 9250,
      "teoh": 9251,
      "candelaria": 9252,
      "anbu": 9253,
      "marceline": 9254,
      "farkas": 9255,
      "astri": 9256,
      "mohsen": 9257,
      "kedibone": 9258,
      "dagoberto": 9259,
      "jeevan": 9260,
      "nikita": 9261,
      "hiram": 9262,
      "henriques": 9263,
      "shamsul": 9264,
      "serafim": 9265,
      "aye": 9266,
      "regula": 9267,
      "neft": 9268,
      "maryline": 9269,
      "nomthandazo": 9270,
      "jasminka": 9271,
      "abderah": 9272,
      "jyri": 9273,
      "okechukwu": 9274,
      "snezana": 9275,
      "babalwa": 9276,
      "mamoudou": 9277,
      "neftali": 9278,
      "fio": 9279,
      "long": 9280,
      "massiel": 9281,
      "peppe": 9282,
      "aude": 9283,
      "abubakari": 9284,
      "dupe": 9285,
      "raymundo": 9286,
      "felicite": 9287,
      "hashim": 9288,
      "pierrette": 9289,
      "ayelen": 9290,
      "margarete": 9291,
      "kalam": 9292,
      "mohmmad": 9293,
      "tata": 9294,
      "eria": 9295,
      "karlene": 9296,
      "libu": 9297,
      "gentiana": 9298,
      "balogh": 9299,
      "libuse": 9300,
      "rikard": 9301,
      "naeem": 9302,
      "wak": 9303,
      "zeer": 9304,
      "youss": 9305,
      "zdzislaw": 9306,
      "ellita": 9307,
      "ilie": 9308,
      "jesaya": 9309,
      "hilary": 9310,
      "estrellita": 9311,
      "hamood": 9312,
      "marva": 9313,
      "edvaldo": 9314,
      "reine": 9315,
      "levi": 9316,
      "madison": 9317,
      "muti": 9318,
      "brigi": 9319,
      "maricar": 9320,
      "britney": 9321,
      "dubravko": 9322,
      "cimi": 9323,
      "ujang": 9324,
      "marlyn": 9325,
      "roberth": 9326,
      "olalek": 9327,
      "selene": 9328,
      "miroslawa": 9329,
      "yatie": 9330,
      "olalekan": 9331,
      "jhen": 9332,
      "anic": 9333,
      "asya": 9334,
      "navin": 9335,
      "jesica": 9336,
      "syasya": 9337,
      "aldana": 9338,
      "larisa": 9339,
      "deepu": 9340,
      "yesid": 9341,
      "florinda": 9342,
      "vjeko": 9343,
      "inald": 9344,
      "maim": 9345,
      "roly": 9346,
      "firio": 9347,
      "ademir": 9348,
      "tangi": 9349,
      "porfirio": 9350,
      "reginald": 9351,
      "boakye": 9352,
      "caoimhe": 9353,
      "anayansi": 9354,
      "dae": 9355,
      "nate": 9356,
      "szek": 9357,
      "ariffin": 9358,
      "bhat": 9359,
      "erka": 9360,
      "deji": 9361,
      "isabell": 9362,
      "brittmarie": 9363,
      "biserka": 9364,
      "abrar": 9365,
      "jeric": 9366,
      "addo": 9367,
      "angjel": 9368,
      "bowo": 9369,
      "novita": 9370,
      "herlina": 9371,
      "santoso": 9372,
      "zenel": 9373,
      "ayuba": 9374,
      "cole": 9375,
      "unya": 9376,
      "johari": 9377,
      "ademar": 9378,
      "anyang": 9379,
      "marinko": 9380,
      "malakia": 9381,
      "sethunya": 9382,
      "oaitse": 9383,
      "fata": 9384,
      "utrim": 9385,
      "leutrim": 9386,
      "ikko": 9387,
      "faik": 9388,
      "mirza": 9389,
      "veikko": 9390,
      "keni": 9391,
      "magar": 9392,
      "hernand": 9393,
      "dorjan": 9394,
      "ludvig": 9395,
      "hernandez": 9396,
      "graeme": 9397,
      "purna": 9398,
      "uhir": 9399,
      "zouhir": 9400,
      "bernardita": 9401,
      "omprakash": 9402,
      "eliseu": 9403,
      "dorien": 9404,
      "ephraim": 9405,
      "frid": 9406,
      "poli": 9407,
      "alberta": 9408,
      "tomo": 9409,
      "azem": 9410,
      "eyka": 9411,
      "islawa": 9412,
      "berenice": 9413,
      "gjon": 9414,
      "enma": 9415,
      "siphokazi": 9416,
      "sange": 9417,
      "tosin": 9418,
      "katlo": 9419,
      "hutso": 9420,
      "letso": 9421,
      "rafeek": 9422,
      "warelo": 9423,
      "eeb": 9424,
      "nombul": 9425,
      "habeeb": 9426,
      "boikhutso": 9427,
      "ewald": 9428,
      "sangeeta": 9429,
      "nombulelo": 9430,
      "ppo": 9431,
      "laine": 9432,
      "evangeline": 9433,
      "mahmood": 9434,
      "clirim": 9435,
      "nelisiwe": 9436,
      "tuukka": 9437,
      "sinan": 9438,
      "nunzia": 9439,
      "cony": 9440,
      "hila": 9441,
      "keli": 9442,
      "wise": 9443,
      "erisa": 9444,
      "patri": 9445,
      "bogu": 9446,
      "sebastjan": 9447,
      "yeimy": 9448,
      "ackeem": 9449,
      "ibhav": 9450,
      "vaibhav": 9451,
      "chanceline": 9452,
      "yulieth": 9453,
      "zarta": 9454,
      "zuan": 9455,
      "josy": 9456,
      "tobi": 9457,
      "shakes": 9458,
      "yanu": 9459,
      "xhevahir": 9460,
      "bardo": 9461,
      "hbib": 9462,
      "erja": 9463,
      "neza": 9464,
      "nabin": 9465,
      "vigdis": 9466,
      "ndamona": 9467,
      "dara": 9468,
      "etsile": 9469,
[...]
