{
    "version": "1.0",
    "truncation": null,
    "padding": null,
    "added_tokens": [
        {
            "id": 0,
            "content": "[UNK]",
            "single_word": false,
            "lstrip": false,
            "rstrip": false,
            "normalized": false,
            "special": true
        },
        {
            "id": 1,
            "content": "[CLS]",
            "single_word": false,
            "lstrip": false,
            "rstrip": false,
            "normalized": false,
            "special": true
        },
        {
            "id": 2,
            "content": "[SEP]",
            "single_word": false,
            "lstrip": false,
            "rstrip": false,
            "normalized": false,
            "special": true
        },
        {
            "id": 3,
            "content": "[PAD]",
            "single_word": false,
            "lstrip": false,
            "rstrip": false,
            "normalized": false,
            "special": true
        },
        {
            "id": 4,
            "content": "[MASK]",
            "single_word": false,
            "lstrip": false,
            "rstrip": false,
            "normalized": false,
            "special": true
        }
    ],
    "normalizer": null,
    "pre_tokenizer": {
        "type": "Whitespace"
    },
    "post_processor": null,
    "decoder": null,
    "model": {
        "type": "BPE",
        "dropout": null,
        "unk_token": "[UNK]",
        "continuing_subword_prefix": null,
        "end_of_word_suffix": null,
        "fuse_unk": false,
        "vocab": {
            "[UNK]": 0,
            "[CLS]": 1,
            "[SEP]": 2,
            "[PAD]": 3,
            "[MASK]": 4,
            "-": 5,
            "a": 6,
            "b": 7,
            "c": 8,
            "d": 9,
            "e": 10,
            "f": 11,
            "g": 12,
            "h": 13,
            "i": 14,
            "j": 15,
            "k": 16,
            "l": 17,
            "m": 18,
            "n": 19,
            "o": 20,
            "p": 21,
            "q": 22,
            "r": 23,
            "s": 24,
            "t": 25,
            "u": 26,
            "v": 27,
            "w": 28,
            "x": 29,
            "y": 30,
            "z": 31,
            "an": 32,
            "el": 33,
            "ma": 34,
            "na": 35,
            "ia": 36,
            "us": 37,
            "en": 38,
            "er": 39,
            "jo": 40,
            "on": 41,
            "es": 42,
            "il": 43,
            "ha": 44,
            "in": 45,
            "ri": 46,
            "da": 47,
            "et": 48,
            "ina": 49,
            "ul": 50,
            "sa": 51,
            "mar": 52,
            "as": 53,
            "le": 54,
            "ic": 55,
            "joh": 56,
            "im": 57,
            "ra": 58,
            "se": 59,
            "re": 60,
            "pa": 61,
            "th": 62,
            "ka": 63,
            "and": 64,
            "ab": 65,
            "to": 66,
            "la": 67,
            "ja": 68,
            "ang": 69,
            "lo": 70,
            "hel": 71,
            "hil": 72,
            "eni": 73,
            "pet": 74,
            "ta": 75,
            "id": 76,
            "ine": 77,
            "ph": 78,
            "em": 79,
            "ro": 80,
            "nes": 81,
            "eli": 82,
            "te": 83,
            "nda": 84,
            "mon": 85,
            "ck": 86,
            "ly": 87,
            "li": 88,
            "ar": 89,
            "nd": 90,
            "al": 91,
            "sim": 92,
            "lu": 93,
            "wil": 94,
            "tus": 95,
            "ias": 96,
            "ris": 97,
            "ya": 98,
            "ch": 99,
            "sel": 100,
            "har": 101,
            "enn": 102,
            "or": 103,
            "ela": 104,
            "fr": 105,
            "eth": 106,
            "the": 107,
            "dav": 108,
            "un": 109,
            "ik": 110,
            "ter": 111,
            "sy": 112,
            "vic": 113,
            "eliz": 114,
            "uel": 115,
            "mas": 116,
            "ert": 117,
            "ie": 118,
            "man": 119,
            "rus": 120,
            "sh": 121,
            "is": 122,
            "son": 123,
            "be": 124,
            "abeth": 125,
            "me": 126,
            "mag": 127,
            "ge": 128,
            "go": 129,
            "co": 130,
            "ce": 131,
            "dia": 132,
            "os": 133,
            "ria": 134,
            "ti": 135,
            "mic": 136,
            "ena": 137,
            "ula": 138,
            "char": 139,
            "ndap": 140,
            "ed": 141,
            "jul": 142,
            "ne": 143,
            "wa": 144,
            "haf": 145,
            "ani": 146,
            "end": 147,
            "lia": 148,
            "fri": 149,
            "cky": 150,
            "ica": 151,
            "mb": 152,
            "ide": 153,
            "ol": 154,
            "victo": 155,
            "tu": 156,
            "fil": 157,
            "hael": 158,
            "luc": 159,
            "via": 160,
            "ru": 161,
            "eras": 162,
            "sam": 163,
            "ust": 164,
            "ana": 165,
            "ben": 166,
            "tho": 167,
            "ika": 168,
            "ev": 169,
            "jam": 170,
            "ene": 171,
            "lin": 172,
            "ndes": 173,
            "mos": 174,
            "ir": 175,
            "iv": 176,
            "fes": 177,
            "nic": 178,
            "nel": 179,
            "kas": 180,
            "eda": 181,
            "ky": 182,
            "una": 183,
            "gab": 184,
            "imman": 185,
            "ongo": 186,
            "ca": 187,
            "ste": 188,
            "isa": 189,
            "ard": 190,
            "ndesh": 191,
            "ther": 192,
            "cy": 193,
            "ver": 194,
            "ona": 195,
            "ley": 196,
            "mer": 197,
            "mu": 198,
            "ius": 199,
            "ess": 200,
            "hend": 201,
            "esia": 202,
            "lau": 203,
            "eon": 204,
            "salo": 205,
            "su": 206,
            "lemon": 207,
            "syl": 208,
            "ton": 209,
            "ren": 210,
            "ke": 211,
            "jas": 212,
            "magg": 213,
            "pr": 214,
            "prin": 215,
            "riel": 216,
            "imi": 217,
            "ger": 218,
            "po": 219,
            "jer": 220,
            "pand": 221,
            "lem": 222,
            "tri": 223,
            "ewa": 224,
            "laudia": 225,
            "ry": 226,
            "ii": 227,
            "elao": 228,
            "fre": 229,
            "so": 230,
            "mat": 231,
            "orge": 232,
            "ven": 233,
            "jun": 234,
            "ga": 235,
            "ale": 236,
            "ino": 237,
            "veron": 238,
            "iku": 239,
            "ike": 240,
            "ho": 241,
            "vin": 242,
            "tas": 243,
            "ham": 244,
            "ty": 245,
            "ima": 246,
            "lip": 247,
            "dy": 248,
            "di": 249,
            "helm": 250,
            "raham": 251,
            "ndin": 252,
            "car": 253,
            "ner": 254,
            "op": 255,
            "ara": 256,
            "io": 257,
            "ama": 258,
            "bias": 259,
            "oli": 260,
            "andula": 261,
            "imo": 262,
            "cia": 263,
            "tul": 264,
            "anus": 265,
            "rd": 266,
            "sil": 267,
            "we": 268,
            "qu": 269,
            "ini": 270,
            "sha": 271,
            "imm": 272,
            "ssy": 273,
            "gra": 274,
            "ek": 275,
            "hen": 276,
            "hard": 277,
            "he": 278,
            "ny": 279,
            "if": 280,
            "vi": 281,
            "pi": 282,
            "bea": 283,
            "ing": 284,
            "mi": 285,
            "de": 286,
            "ot": 287,
            "my": 288,
            "ko": 289,
            "resia": 290,
            "vis": 291,
            "ten": 292,
            "emia": 293,
            "mus": 294,
            "iya": 295,
            "bi": 296,
            "karia": 297,
            "gide": 298,
            "ano": 299,
            "ikongo": 300,
            "tuy": 301,
            "vil": 302,
            "ice": 303,
            "her": 304,
            "sus": 305,
            "une": 306,
            "bet": 307,
            "edw": 308,
            "fta": 309,
            "shi": 310,
            "tenya": 311,
            "des": 312,
            "ron": 313,
            "alf": 314,
            "hafa": 315,
            "mbo": 316,
            "zar": 317,
            "fas": 318,
            "ug": 319,
            "eus": 320,
            "soph": 321,
            "mutenya": 322,
            "ior": 323,
            "kia": 324,
            "joe": 325,
            "lipus": 326,
            "giv": 327,
            "kon": 328,
            "kond": 329,
            "max": 330,
            "nafta": 331,
            "st": 332,
            "ash": 333,
            "lah": 334,
            "ise": 335,
            "ku": 336,
            "lavin": 337,
            "ime": 338,
            "cen": 339,
            "mbe": 340,
            "mir": 341,
            "ell": 342,
            "cent": 343,
            "ser": 344,
            "ld": 345,
            "charma": 346,
            "ail": 347,
            "han": 348,
            "pin": 349,
            "pinge": 350,
            "wer": 351,
            "ad": 352,
            "kka": 353,
            "mmy": 354,
            "cor": 355,
            "usa": 356,
            "hamb": 357,
            "anga": 358,
            "loo": 359,
            "eva": 360,
            "card": 361,
            "fo": 362,
            "ibe": 363,
            "ind": 364,
            "usiku": 365,
            "inda": 366,
            "nan": 367,
            "omi": 368,
            "neli": 369,
            "sie": 370,
            "uha": 371,
            "von": 372,
            "va": 373,
            "anan": 374,
            "pen": 375,
            "pris": 376,
            "shil": 377,
            "sem": 378,
            "ag": 379,
            "dne": 380,
            "dney": 381,
            "men": 382,
            "ones": 383,
            "olf": 384,
            "pene": 385,
            "fa": 386,
            "shar": 387,
            "py": 388,
            "eun": 389,
            "hambel": 390,
            "aria": 391,
            "lie": 392,
            "nesto": 393,
            "willia": 394,
            "kev": 395,
            "no": 396,
            "sake": 397,
            "uleni": 398,
            "toiv": 399,
            "rud": 400,
            "jan": 401,
            "mw": 402,
            "wend": 403,
            "fia": 404,
            "ifer": 405,
            "aya": 406,
            "jes": 407,
            "ve": 408,
            "inus": 409,
            "los": 410,
            "nday": 411,
            "tius": 412,
            "denn": 413,
            "anuel": 414,
            "col": 415,
            "fanus": 416,
            "ef": 417,
            "raim": 418,
            "nde": 419,
            "heno": 420,
            "fel": 421,
            "pala": 422,
            "magr": 423,
            "bel": 424,
            "anley": 425,
            "benjam": 426,
            "cio": 427,
            "fet": 428,
            "pre": 429,
            "nelius": 430,
            "cious": 431,
            "illa": 432,
            "lou": 433,
            "sal": 434,
            "que": 435,
            "teo": 436,
            "kus": 437,
            "ilime": 438,
            "ndilime": 439,
            "hau": 440,
            "hol": 441,
            "iam": 442,
            "inhol": 443,
            "reinhol": 444,
            "leo": 445,
            "has": 446,
            "cca": 447,
            "van": 448,
            "bri": 449,
            "dan": 450,
            "til": 451,
            "edy": 452,
            "ottil": 453,
            "lee": 454,
            "ango": 455,
            "nand": 456,
            "lus": 457,
            "mem": 458,
            "ory": 459,
            "flo": 460,
            "iana": 461,
            "rence": 462,
            "kor": 463,
            "fi": 464,
            "tha": 465,
            "apo": 466,
            "ig": 467,
            "kie": 468,
            "ennie": 469,
            "wal": 470,
            "naem": 471,
            "hert": 472,
            "rid": 473,
            "mel": 474,
            "ody": 475,
            "tte": 476,
            "rael": 477,
            "etu": 478,
            "pine": 479,
            "alet": 480,
            "ber": 481,
            "meno": 482,
            "bb": 483,
            "ita": 484,
            "bby": 485,
            "bl": 486,
            "ros": 487,
            "bon": 488,
            "rena": 489,
            "yambe": 490,
            "ped": 491,
            "inri": 492,
            "heinri": 493,
            "wilika": 494,
            "ppy": 495,
            "rome": 496,
            "thew": 497,
            "masiku": 498,
            "sias": 499,
            "yo": 500,
            "nald": 501,
            "nu": 502,
            "fiku": 503,
            "emus": 504,
            "cand": 505,
            "lly": 506,
            "aug": 507,
            "eug": 508,
            "ire": 509,
            "ua": 510,
            "bever": 511,
            "bra": 512,
            "cqu": 513,
            "fab": 514,
            "mo": 515,
            "inno": 516,
            "sea": 517,
            "jacqu": 518,
            "mba": 519,
            "ip": 520,
            "ith": 521,
            "bo": 522,
            "kwa": 523,
            "nat": 524,
            "kwaya": 525,
            "ila": 526,
            "tra": 527,
            "ant": 528,
            "onga": 529,
            "chant": 530,
            "mekond": 531,
            "fried": 532,
            "zel": 533,
            "uma": 534,
            "ute": 535,
            "hafo": 536,
            "gif": 537,
            "kle": 538,
            "les": 539,
            "onia": 540,
            "lea": 541,
            "opas": 542,
            "pe": 543,
            "mwa": 544,
            "yce": 545,
            "got": 546,
            "ique": 547,
            "uk": 548,
            "ili": 549,
            "mbili": 550,
            "ustinus": 551,
            "iaan": 552,
            "nth": 553,
            "sack": 554,
            "aster": 555,
            "she": 556,
            "cynth": 557,
            "wid": 558,
            "yela": 559,
            "job": 560,
            "unyela": 561,
            "br": 562,
            "nik": 563,
            "ola": 564,
            "pau": 565,
            "mee": 566,
            "jie": 567,
            "naka": 568,
            "let": 569,
            "sia": 570,
            "nam": 571,
            "ence": 572,
            "kkie": 573,
            "win": 574,
            "ura": 575,
            "jus": 576,
            "tz": 577,
            "yambo": 578,
            "demus": 579,
            "gu": 580,
            "eny": 581,
            "essing": 582,
            "do": 583,
            "mor": 584,
            "elhe": 585,
            "adelhe": 586,
            "natius": 587,
            "phanus": 588,
            "imy": 589,
            "ons": 590,
            "dir": 591,
            "iola": 592,
            "kim": 593,
            "leev": 594,
            "anael": 595,
            "rra": 596,
            "lorra": 597,
            "ndahambel": 598,
            "sir": 599,
            "taa": 600,
            "tre": 601,
            "vor": 602,
            "peneyambe": 603,
            "du": 604,
            "yne": 605,
            "shang": 606,
            "leni": 607,
            "his": 608,
            "nst": 609,
            "ses": 610,
            "inton": 611,
            "dee": 612,
            "kius": 613,
            "kelao": 614,
            "len": 615,
            "imasiku": 616,
            "sarus": 617,
            "hole": 618,
            "mand": 619,
            "ume": 620,
            "nevil": 621,
            "cha": 622,
            "umba": 623,
            "lieb": 624,
            "vanus": 625,
            "kamw": 626,
            "muron": 627,
            "mukwaya": 628,
            "jeni": 629,
            "dley": 630,
            "oo": 631,
            "shoo": 632,
            "kes": 633,
            "kamb": 634,
            "beam": 635,
            "kson": 636,
            "prisk": 637,
            "gus": 638,
            "hemia": 639,
            "ipala": 640,
            "icco": 641,
            "tav": 642,
            "olene": 643,
            "ao": 644,
            "den": 645,
            "kan": 646,
            "wy": 647,
            "war": 648,
            "andjo": 649,
            "louren": 650,
            "yapo": 651,
            "isie": 652,
            "ey": 653,
            "dhil": 654,
            "eka": 655,
            "tk": 656,
            "japh": 657,
            "ung": 658,
            "amadhil": 659,
            "am": 660,
            "anor": 661,
            "haing": 662,
            "alwe": 663,
            "endo": 664,
            "filus": 665,
            "amb": 666,
            "etjie": 667,
            "muko": 668,
            "rosius": 669,
            "itha": 670,
            "upe": 671,
            "witha": 672,
            "shek": 673,
            "wanga": 674,
            "bus": 675,
            "gw": 676,
            "ann": 677,
            "edha": 678,
            "shigw": 679,
            "gg": 680,
            "get": 681,
            "ity": 682,
            "uste": 683,
            "icity": 684,
            "megg": 685,
            "ll": 686,
            "vy": 687,
            "dall": 688,
            "alber": 689,
            "felus": 690,
            "engu": 691,
            "mbu": 692,
            "elfried": 693,
            "epa": 694,
            "emon": 695,
            "fras": 696,
            "hona": 697,
            "uus": 698,
            "isia": 699,
            "bhard": 700,
            "phas": 701,
            "uyo": 702,
            "nuuyo": 703,
            "ambo": 704,
            "non": 705,
            "eneni": 706,
            "iska": 707,
            "av": 708,
            "gfried": 709,
            "haim": 710,
            "paav": 711,
            "eha": 712,
            "kongo": 713,
            "oleni": 714,
            "sheeha": 715,
            "atius": 716,
            "tlieb": 717,
            "taun": 718,
            "ifatius": 719,
            "hedw": 720,
            "set": 721,
            "oma": 722,
            "oiv": 723,
            "ens": 724,
            "hepo": 725,
            "for": 726,
            "tune": 727,
            "ulik": 728,
            "kach": 729,
            "tuulik": 730,
            "dor": 731,
            "longo": 732,
            "elri": 733,
            "kave": 734,
            "tea": 735,
            "kudu": 736,
            "iko": 737,
            "cd": 738,
            "fan": 739,
            "lk": 740,
            "mcd": 741,
            "tta": 742,
            "pax": 743,
            "jala": 744,
            "onald": 745,
            "pomw": 746,
            "eks": 747,
            "efta": 748,
            "keni": 749,
            "olo": 750,
            "pus": 751,
            "joolo": 752,
            "unik": 753,
            "ndapunik": 754,
            "hanneli": 755,
            "yen": 756,
            "annel": 757,
            "hafela": 758,
            "muyen": 759,
            "bas": 760,
            "bar": 761,
            "nabas": 762,
            "lep": 763,
            "kali": 764,
            "bson": 765,
            "eimo": 766,
            "kk": 767,
            "pro": 768,
            "rakk": 769,
            "phine": 770,
            "tasius": 771,
            "dika": 772,
            "fenn": 773,
            "lle": 774,
            "sin": 775,
            "sis": 776,
            "vula": 777,
            "wel": 778,
            "weni": 779,
            "yuk": 780,
            "anyuk": 781,
            "nyanyuk": 782,
            "destus": 783,
            "ameno": 784,
            "bbe": 785,
            "panga": 786,
            "rebbe": 787,
            "pawa": 788,
            "muku": 789,
            "ew": 790,
            "kula": 791,
            "rel": 792,
            "hali": 793,
            "habeam": 794,
            "lizel": 795,
            "yakula": 796,
            "theus": 797,
            "oshali": 798,
            "ndapew": 799,
            "hu": 800,
            "hem": 801,
            "jila": 802,
            "pha": 803,
            "yol": 804,
            "namba": 805,
            "taapo": 806,
            "ckaria": 807,
            "pend": 808,
            "sen": 809,
            "sebl": 810,
            "ukeni": 811,
            "hime": 812,
            "kand": 813,
            "rias": 814,
            "zen": 815,
            "inana": 816,
            "dux": 817,
            "iu": 818,
            "lab": 819,
            "mp": 820,
            "vas": 821,
            "esmer": 822,
            "abiu": 823,
            "lohole": 824,
            "pheus": 825,
            "gervas": 826,
            "ingana": 827,
            "him": 828,
            "irus": 829,
            "ze": 830,
            "kahim": 831,
            "tusnel": 832,
            "dusa": 833,
            "odemus": 834,
            "sca": 835,
            "tie": 836,
            "tjie": 837,
            "naapo": 838,
            "dai": 839,
            "medusa": 840,
            "negu": 841,
            "pohamb": 842,
            "pye": 843,
            "gela": 844,
            "kii": 845,
            "pie": 846,
            "iata": 847,
            "era": 848,
            "abiata": 849,
            "tiel": 850,
            "wyk": 851,
            "cl": 852,
            "pu": 853,
            "uko": 854,
            "erence": 855,
            "hale": 856,
            "ule": 857,
            "ulo": 858,
            "kalo": 859,
            "ligo": 860,
            "ikulo": 861,
            "popy": 862,
            "iipu": 863,
            "dh": 864,
            "pumba": 865,
            "ska": 866,
            "uer": 867,
            "uug": 868,
            "onde": 869,
            "isaska": 870,
            "mwadh": 871,
            "afa": 872,
            "jii": 873,
            "metu": 874,
            "uend": 875,
            "uetu": 876,
            "nakan": 877,
            "ete": 878,
            "ndamon": 879,
            "yala": 880,
            "ianus": 881,
            "nsa": 882,
            "namu": 883,
            "etie": 884,
            "ulu": 885,
            "kava": 886,
            "kalen": 887,
            "meek": 888,
            "jek": 889,
            "mun": 890,
            "und": 891,
            "hamuko": 892,
            "tonat": 893,
            "beuk": 894,
            "fn": 895,
            "met": 896,
            "uta": 897,
            "ere": 898,
            "hatu": 899,
            "pety": 900,
            "tago": 901,
            "phina": 902,
            "arere": 903,
            "mubi": 904,
            "hofn": 905,
            "koku": 906,
            "nokoku": 907,
            "ndeuta": 908
        },
        "merges": [
            "a n",
            "e l",
            "m a",
            "n a",
            "i a",
            "u s",
            "e n",
            "e r",
            "j o",
            "o n",
            "e s",
            "i l",
            "h a",
            "i n",
            "r i",
            "d a",
            "e t",
            "i na",
            "u l",
            "s a",
            "ma r",
            "a s",
            "l e",
            "i c",
            "jo h",
            "i m",
            "r a",
            "s e",
            "r e",
            "p a",
            "t h",
            "k a",
            "an d",
            "a b",
            "t o",
            "l a",
            "j a",
            "an g",
            "l o",
            "h el",
            "h il",
            "en i",
            "p et",
            "t a",
            "i d",
            "in e",
            "p h",
            "e m",
            "r o",
            "n es",
            "el i",
            "t e",
            "n da",
            "m on",
            "c k",
            "l y",
            "l i",
            "a r",
            "n d",
            "a l",
            "s im",
            "l u",
            "w il",
            "t us",
            "ia s",
            "ri s",
            "y a",
            "c h",
            "s el",
            "ha r",
            "en n",
            "o r",
            "el a",
            "f r",
            "et h",
            "th e",
            "da v",
            "u n",
            "i k",
            "t er",
            "s y",
            "v ic",
            "eli z",
            "u el",
            "ma s",
            "er t",
            "i e",
            "m an",
            "r us",
            "s h",
            "i s",
            "s on",
            "b e",
            "ab eth",
            "m e",
            "ma g",
            "g e",
            "g o",
            "c o",
            "c e",
            "d ia",
            "o s",
            "r ia",
            "t i",
            "m ic",
            "e na",
            "ul a",
            "c har",
            "nda p",
            "e d",
            "j ul",
            "n e",
            "w a",
            "ha f",
            "an i",
            "en d",
            "l ia",
            "f ri",
            "ck y",
            "ic a",
            "m b",
            "id e",
            "o l",
            "vic to",
            "t u",
            "f il",
            "ha el",
            "lu c",
            "v ia",
            "r u",
            "er as",
            "sa m",
            "us t",
            "an a",
            "b en",
            "th o",
            "i ka",
            "e v",
            "ja m",
            "en e",
            "l in",
            "nd es",
            "m os",
            "i r",
            "i v",
            "f es",
            "n ic",
            "n el",
            "k as",
            "e da",
            "k y",
            "u na",
            "g ab",
            "im man",
            "on go",
            "c a",
            "s te",
            "i sa",
            "ar d",
            "ndes h",
            "th er",
            "c y",
            "v er",
            "o na",
            "le y",
            "m er",
            "m u",
            "i us",
            "es s",
            "h end",
            "es ia",
            "la u",
            "e on",
            "sa lo",
            "s u",
            "le mon",
            "sy l",
            "t on",
            "r en",
            "k e",
            "j as",
            "mag g",
            "p r",
            "pr in",
            "ri el",
            "im i",
            "g er",
            "p o",
            "j er",
            "p and",
            "le m",
            "t ri",
            "e wa",
            "lau dia",
            "r y",
            "i i",
            "ela o",
            "f re",
            "s o",
            "ma t",
            "or ge",
            "v en",
            "j un",
            "g a",
            "a le",
            "in o",
            "ver on",
            "ik u",
            "ik e",
            "h o",
            "v in",
            "t as",
            "ha m",
            "t y",
            "i ma",
            "li p",
            "d y",
            "d i",
            "hel m",
            "ra ham",
            "nd in",
            "c ar",
            "n er",
            "o p",
            "a ra",
            "i o",
            "a ma",
            "b ias",
            "o li",
            "and ula",
            "im o",
            "c ia",
            "t ul",
            "an us",
            "r d",
            "s il",
            "w e",
            "q u",
            "in i",
            "s ha",
            "im m",
            "s sy",
            "g ra",
            "e k",
            "h en",
            "har d",
            "h e",
            "n y",
            "i f",
            "v i",
            "p i",
            "be a",
            "in g",
            "m i",
            "d e",
            "o t",
            "m y",
            "k o",
            "r esia",
            "v is",
            "t en",
            "em ia",
            "m us",
            "i ya",
            "b i",
            "ka ria",
            "g ide",
            "an o",
            "ik ongo",
            "tu y",
            "v il",
            "ic e",
            "h er",
            "s us",
            "un e",
            "b et",
            "ed w",
            "f ta",
            "sh i",
            "ten ya",
            "d es",
            "r on",
            "al f",
            "haf a",
            "mb o",
            "z ar",
            "f as",
            "u g",
            "e us",
            "so ph",
            "mu tenya",
            "i or",
            "k ia",
            "jo e",
            "lip us",
            "g iv",
            "k on",
            "kon d",
            "ma x",
            "na fta",
            "s t",
            "as h",
            "la h",
            "i se",
            "k u",
            "la vin",
            "im e",
            "c en",
            "m be",
            "m ir",
            "el l",
            "cen t",
            "s er",
            "l d",
            "char ma",
            "a il",
            "h an",
            "p in",
            "pin ge",
            "w er",
            "a d",
            "k ka",
            "m my",
            "c or",
            "us a",
            "ha mb",
            "ang a",
            "lo o",
            "ev a",
            "c ard",
            "f o",
            "i be",
            "in d",
            "us iku",
            "in da",
            "n an",
            "o mi",
            "n eli",
            "s ie",
            "u ha",
            "v on",
            "v a",
            "an an",
            "p en",
            "p ris",
            "s hil",
            "se m",
            "a g",
            "d ne",
            "dne y",
            "m en",
            "on es",
            "ol f",
            "p ene",
            "f a",
            "s har",
            "p y",
            "e un",
            "hamb el",
            "ar ia",
            "li e",
            "nes to",
            "wil lia",
            "k ev",
            "n o",
            "sa ke",
            "ul eni",
            "to iv",
            "ru d",
            "j an",
            "m w",
            "w end",
            "f ia",
            "if er",
            "a ya",
            "j es",
            "v e",
            "in us",
            "lo s",
            "nda y",
            "ti us",
            "d enn",
            "an uel",
            "co l",
            "f anus",
            "e f",
            "ra im",
            "nd e",
            "hen o",
            "f el",
            "pa la",
            "mag r",
            "b el",
            "an ley",
            "ben jam",
            "c io",
            "f et",
            "p re",
            "neli us",
            "cio us",
            "il la",
            "lo u",
            "sa l",
            "qu e",
            "te o",
            "k us",
            "il ime",
            "nd ilime",
            "ha u",
            "h ol",
            "ia m",
            "in hol",
            "re inhol",
            "le o",
            "ha s",
            "c ca",
            "v an",
            "b ri",
            "d an",
            "t il",
            "ed y",
            "ot til",
            "le e",
            "ang o",
            "n and",
            "l us",
            "m em",
            "or y",
            "f lo",
            "i ana",
            "ren ce",
            "k or",
            "f i",
            "t ha",
            "a po",
            "i g",
            "k ie",
            "enn ie",
            "w al",
            "na em",
            "h ert",
            "ri d",
            "m el",
            "o dy",
            "t te",
            "ra el",
            "et u",
            "p ine",
            "al et",
            "b er",
            "men o",
            "b b",
            "i ta",
            "bb y",
            "b l",
            "ro s",
            "b on",
            "re na",
            "ya mbe",
            "p ed",
            "in ri",
            "he inri",
            "wil ika",
            "p py",
            "ro me",
            "the w",
            "mas iku",
            "s ias",
            "y o",
            "na ld",
            "n u",
            "f iku",
            "em us",
            "c and",
            "l ly",
            "a ug",
            "e ug",
            "i re",
            "u a",
            "be ver",
            "b ra",
            "c qu",
            "f ab",
            "m o",
            "in no",
            "se a",
            "ja cqu",
            "mb a",
            "i p",
            "i th",
            "b o",
            "k wa",
            "na t",
            "kwa ya",
            "il a",
            "t ra",
            "an t",
            "on ga",
            "ch ant",
            "me kond",
            "fri ed",
            "z el",
            "u ma",
            "u te",
            "haf o",
            "g if",
            "k le",
            "l es",
            "on ia",
            "le a",
            "op as",
            "p e",
            "m wa",
            "y ce",
            "go t",
            "i que",
            "u k",
            "il i",
            "mb ili",
            "ust inus",
            "ia an",
            "n th",
            "sa ck",
            "as ter",
            "sh e",
            "cy nth",
            "w id",
            "y ela",
            "jo b",
            "un yela",
            "b r",
            "n ik",
            "o la",
            "pa u",
            "me e",
            "j ie",
            "na ka",
            "l et",
            "s ia",
            "na m",
            "en ce",
            "k kie",
            "w in",
            "u ra",
            "j us",
            "t z",
            "ya mbo",
            "d emus",
            "g u",
            "en y",
            "ess ing",
            "d o",
            "m or",
            "el he",
            "ad elhe",
            "na tius",
            "ph anus",
            "im y",
            "on s",
            "d ir",
            "io la",
            "k im",
            "le ev",
            "ana el",
            "r ra",
            "lo rra",
            "nda hambel",
            "s ir",
            "ta a",
            "t re",
            "v or",
            "pene yambe",
            "d u",
            "y ne",
            "sh ang",
            "l eni",
            "h is",
            "n st",
            "s es",
            "in ton",
            "de e",
            "k ius",
            "k elao",
            "l en",
            "i masiku",
            "sa rus",
            "ho le",
            "m and",
            "u me",
            "ne vil",
            "c ha",
            "u mba",
            "lie b",
            "v anus",
            "ka mw",
            "mu ron",
            "mu kwaya",
            "j eni",
            "d ley",
            "o o",
            "sh oo",
            "k es",
            "ka mb",
            "bea m",
            "k son",
            "pris k",
            "g us",
            "h emia",
            "i pala",
            "ic co",
            "ta v",
            "ol ene",
            "a o",
            "d en",
            "k an",
            "w y",
            "w ar",
            "and jo",
            "lou ren",
            "ya po",
            "is ie",
            "e y",
            "d hil",
            "e ka",
            "t k",
            "ja ph",
            "un g",
            "ama dhil",
            "a m",
            "an or",
            "ha ing",
            "al we",
            "end o",
            "fil us",
            "a mb",
            "et jie",
            "mu ko",
            "ros ius",
            "i tha",
            "u pe",
            "w itha",
            "sh ek",
            "w anga",
            "b us",
            "g w",
            "an n",
            "ed ha",
            "shi gw",
            "g g",
            "g et",
            "i ty",
            "us te",
            "ic ity",
            "me gg",
            "l l",
            "v y",
            "da ll",
            "al ber",
            "fel us",
            "en gu",
            "mb u",
            "el fried",
            "e pa",
            "em on",
            "fr as",
            "h ona",
            "u us",
            "is ia",
            "b hard",
            "p has",
            "u yo",
            "nu uyo",
            "a mbo",
            "n on",
            "en eni",
            "is ka",
            "a v",
            "g fried",
            "ha im",
            "pa av",
            "e ha",
            "k ongo",
            "ol eni",
            "she eha",
            "a tius",
            "t lieb",
            "ta un",
            "if atius",
            "h edw",
            "s et",
            "o ma",
            "o iv",
            "en s",
            "he po",
            "f or",
            "t une",
            "ul ik",
            "ka ch",
            "tu ulik",
            "d or",
            "l ongo",
            "el ri",
            "ka ve",
            "te a",
            "ku du",
            "ik o",
            "c d",
            "f an",
            "l k",
            "m cd",
            "t ta",
            "pa x",
            "ja la",
            "ona ld",
            "po mw",
            "ek s",
            "e fta",
            "k eni",
            "o lo",
            "p us",
            "jo olo",
            "un ik",
            "ndap unik",
            "han neli",
            "y en",
            "an nel",
            "haf ela",
            "mu yen",
            "b as",
            "b ar",
            "na bas",
            "le p",
            "ka li",
            "b son",
            "e imo",
            "k k",
            "p ro",
            "ra kk",
            "ph ine",
            "tas ius",
            "d ika",
            "f enn",
            "l le",
            "s in",
            "s is",
            "v ula",
            "w el",
            "w eni",
            "y uk",
            "an yuk",
            "ny anyuk",
            "des tus",
            "a meno",
            "b be",
            "p anga",
            "re bbe",
            "pa wa",
            "mu ku",
            "e w",
            "k ula",
            "r el",
            "ha li",
            "ha beam",
            "li zel",
            "ya kula",
            "the us",
            "os hali",
            "ndap ew",
            "h u",
            "h em",
            "j ila",
            "p ha",
            "y ol",
            "na mba",
            "ta apo",
            "c karia",
            "p end",
            "s en",
            "se bl",
            "uk eni",
            "h ime",
            "k and",
            "r ias",
            "z en",
            "in ana",
            "du x",
            "i u",
            "l ab",
            "m p",
            "v as",
            "es mer",
            "ab iu",
            "lo hole",
            "ph eus",
            "ger vas",
            "ing ana",
            "h im",
            "i rus",
            "z e",
            "ka him",
            "tus nel",
            "d usa",
            "o demus",
            "s ca",
            "t ie",
            "t jie",
            "na apo",
            "da i",
            "me dusa",
            "ne gu",
            "po hamb",
            "py e",
            "g ela",
            "k ii",
            "p ie",
            "ia ta",
            "er a",
            "ab iata",
            "ti el",
            "wy k",
            "c l",
            "p u",
            "u ko",
            "er ence",
            "ha le",
            "ul e",
            "ul o",
            "ka lo",
            "li go",
            "ik ulo",
            "po py",
            "ii pu",
            "d h",
            "p umba",
            "s ka",
            "u er",
            "u ug",
            "on de",
            "isa ska",
            "mwa dh",
            "a fa",
            "j ii",
            "m etu",
            "u end",
            "u etu",
            "na kan",
            "et e",
            "nda mon",
            "ya la",
            "i anus",
            "n sa",
            "na mu",
            "et ie",
            "ul u",
            "ka va",
            "ka len",
            "me ek",
            "j ek",
            "m un",
            "u nd",
            "ha muko",
            "to nat",
            "be uk",
            "f n",
            "m et",
            "u ta",
            "er e",
            "ha tu",
            "pet y",
            "ta go",
            "ph ina",
            "ar ere",
            "mu bi",
            "ho fn",
            "ko ku",
            "no koku",
            "nde uta"
        ]
    }
}