{
    "version": "1.0",
    "truncation": null,
    "padding": null,
    "added_tokens": [
        {
            "id": 0,
            "content": "[UNK]",
            "single_word": false,
            "lstrip": false,
            "rstrip": false,
            "normalized": false,
            "special": true
        },
        {
            "id": 1,
            "content": "[CLS]",
            "single_word": false,
            "lstrip": false,
            "rstrip": false,
            "normalized": false,
            "special": true
        },
        {
            "id": 2,
            "content": "[SEP]",
            "single_word": false,
            "lstrip": false,
            "rstrip": false,
            "normalized": false,
            "special": true
        },
        {
            "id": 3,
            "content": "[PAD]",
            "single_word": false,
            "lstrip": false,
            "rstrip": false,
            "normalized": false,
            "special": true
        },
        {
            "id": 4,
            "content": "[MASK]",
            "single_word": false,
            "lstrip": false,
            "rstrip": false,
            "normalized": false,
            "special": true
        }
    ],
    "normalizer": null,
    "pre_tokenizer": {
        "type": "Whitespace"
    },
    "post_processor": null,
    "decoder": null,
    "model": {
        "type": "BPE",
        "dropout": null,
        "unk_token": "[UNK]",
        "continuing_subword_prefix": null,
        "end_of_word_suffix": null,
        "fuse_unk": false,
        "vocab": {
            "[UNK]": 0,
            "[CLS]": 1,
            "[SEP]": 2,
            "[PAD]": 3,
            "[MASK]": 4,
            "-": 5,
            "a": 6,
            "b": 7,
            "c": 8,
            "d": 9,
            "e": 10,
            "f": 11,
            "g": 12,
            "h": 13,
            "i": 14,
            "j": 15,
            "k": 16,
            "l": 17,
            "m": 18,
            "n": 19,
            "o": 20,
            "p": 21,
            "q": 22,
            "r": 23,
            "s": 24,
            "t": 25,
            "u": 26,
            "v": 27,
            "w": 28,
            "x": 29,
            "y": 30,
            "z": 31,
            "an": 32,
            "ar": 33,
            "in": 34,
            "am": 35,
            "el": 36,
            "en": 37,
            "al": 38,
            "ra": 39,
            "on": 40,
            "ri": 41,
            "ma": 42,
            "sh": 43,
            "er": 44,
            "mar": 45,
            "ka": 46,
            "il": 47,
            "ab": 48,
            "la": 49,
            "mo": 50,
            "ed": 51,
            "mi": 52,
            "jo": 53,
            "ch": 54,
            "ja": 55,
            "ia": 56,
            "et": 57,
            "at": 58,
            "es": 59,
            "ul": 60,
            "is": 61,
            "na": 62,
            "ina": 63,
            "us": 64,
            "and": 65,
            "ana": 66,
            "ham": 67,
            "ad": 68,
            "or": 69,
            "im": 70,
            "it": 71,
            "ah": 72,
            "da": 73,
            "th": 74,
            "le": 75,
            "vi": 76,
            "ro": 77,
            "ko": 78,
            "as": 79,
            "re": 80,
            "se": 81,
            "un": 82,
            "ani": 83,
            "ir": 84,
            "to": 85,
            "ol": 86,
            "di": 87,
            "ta": 88,
            "md": 89,
            "te": 90,
            "ha": 91,
            "moham": 92,
            "ni": 93,
            "go": 94,
            "man": 95,
            "ti": 96,
            "pa": 97,
            "mad": 98,
            "si": 99,
            "sa": 100,
            "bo": 101,
            "ang": 102,
            "ur": 103,
            "ris": 104,
            "ph": 105,
            "em": 106,
            "ce": 107,
            "lo": 108,
            "lu": 109,
            "abd": 110,
            "jan": 111,
            "ali": 112,
            "mu": 113,
            "pet": 114,
            "ek": 115,
            "oni": 116,
            "ya": 117,
            "esh": 118,
            "ari": 119,
            "han": 120,
            "su": 121,
            "sam": 122,
            "iv": 123,
            "ena": 124,
            "ela": 125,
            "id": 126,
            "med": 127,
            "ku": 128,
            "iz": 129,
            "kar": 130,
            "so": 131,
            "san": 132,
            "ca": 133,
            "ran": 134,
            "no": 135,
            "ine": 136,
            "de": 137,
            "ara": 138,
            "uel": 139,
            "ard": 140,
            "ju": 141,
            "ber": 142,
            "za": 143,
            "rah": 144,
            "ik": 145,
            "ne": 146,
            "wa": 147,
            "ag": 148,
            "sz": 149,
            "li": 150,
            "yo": 151,
            "tan": 152,
            "vin": 153,
            "ck": 154,
            "ba": 155,
            "end": 156,
            "fa": 157,
            "muham": 158,
            "ong": 159,
            "fat": 160,
            "az": 161,
            "ke": 162,
            "ry": 163,
            "ale": 164,
            "do": 165,
            "moh": 166,
            "sha": 167,
            "ram": 168,
            "elo": 169,
            "son": 170,
            "kat": 171,
            "ile": 172,
            "mir": 173,
            "ga": 174,
            "va": 175,
            "tin": 176,
            "ie": 177,
            "raj": 178,
            "nur": 179,
            "vid": 180,
            "eri": 181,
            "kh": 182,
            "pat": 183,
            "ant": 184,
            "ita": 185,
            "ona": 186,
            "joh": 187,
            "ny": 188,
            "isa": 189,
            "lin": 190,
            "jam": 191,
            "ben": 192,
            "ru": 193,
            "rin": 194,
            "jay": 195,
            "ib": 196,
            "ila": 197,
            "os": 198,
            "wan": 199,
            "fi": 200,
            "io": 201,
            "we": 202,
            "ge": 203,
            "je": 204,
            "mas": 205,
            "sal": 206,
            "mon": 207,
            "ly": 208,
            "tu": 209,
            "hi": 210,
            "ata": 211,
            "eta": 212,
            "ter": 213,
            "ili": 214,
            "bi": 215,
            "den": 216,
            "she": 217,
            "co": 218,
            "onika": 219,
            "kam": 220,
            "lav": 221,
            "has": 222,
            "ren": 223,
            "har": 224,
            "sy": 225,
            "be": 226,
            "ji": 227,
            "hel": 228,
            "mah": 229,
            "ud": 230,
            "ve": 231,
            "gor": 232,
            "eth": 233,
            "ty": 234,
            "gab": 235,
            "sim": 236,
            "eng": 237,
            "ola": 238,
            "car": 239,
            "dy": 240,
            "les": 241,
            "jul": 242,
            "nes": 243,
            "if": 244,
            "ula": 245,
            "bar": 246,
            "prin": 247,
            "um": 248,
            "zi": 249,
            "ak": 250,
            "ent": 251,
            "fer": 252,
            "min": 253,
            "abu": 254,
            "vel": 255,
            "zy": 256,
            "ija": 257,
            "one": 258,
            "bu": 259,
            "jen": 260,
            "ze": 261,
            "po": 262,
            "pe": 263,
            "sar": 264,
            "jar": 265,
            "mal": 266,
            "ros": 267,
            "luc": 268,
            "ste": 269,
            "ene": 270,
            "van": 271,
            "ye": 272,
            "me": 273,
            "kel": 274,
            "yn": 275,
            "pra": 276,
            "sin": 277,
            "ki": 278,
            "hen": 279,
            "mil": 280,
            "mat": 281,
            "iso": 282,
            "he": 283,
            "edi": 284,
            "ho": 285,
            "ria": 286,
            "sun": 287,
            "jon": 288,
            "thab": 289,
            "iti": 290,
            "ura": 291,
            "nat": 292,
            "eva": 293,
            "din": 294,
            "cky": 295,
            "ade": 296,
            "olo": 297,
            "mag": 298,
            "ash": 299,
            "ton": 300,
            "usz": 301,
            "nor": 302,
            "gra": 303,
            "endra": 304,
            "yan": 305,
            "wi": 306,
            "lan": 307,
            "bal": 308,
            "esa": 309,
            "pu": 310,
            "law": 311,
            "mus": 312,
            "yu": 313,
            "dan": 314,
            "pho": 315,
            "wil": 316,
            "ai": 317,
            "tho": 318,
            "kw": 319,
            "len": 320,
            "joa": 321,
            "red": 322,
            "char": 323,
            "win": 324,
            "rim": 325,
            "tha": 326,
            "dra": 327,
            "ver": 328,
            "st": 329,
            "gy": 330,
            "jit": 331,
            "tshe": 332,
            "tam": 333,
            "adi": 334,
            "mer": 335,
            "eni": 336,
            "jus": 337,
            "oj": 338,
            "ger": 339,
            "joy": 340,
            "vic": 341,
            "eli": 342,
            "lam": 343,
            "jer": 344,
            "od": 345,
            "lah": 346,
            "sel": 347,
            "rach": 348,
            "dee": 349,
            "ven": 350,
            "tor": 351,
            "andra": 352,
            "ann": 353,
            "ess": 354,
            "wel": 355,
            "ou": 356,
            "cia": 357,
            "sab": 358,
            "rad": 359,
            "sef": 360,
            "ther": 361,
            "yas": 362,
            "val": 363,
            "izab": 364,
            "lor": 365,
            "esz": 366,
            "kash": 367,
            "ilip": 368,
            "lee": 369,
            "ken": 370,
            "her": 371,
            "dar": 372,
            "uno": 373,
            "yous": 374,
            "sus": 375,
            "dor": 376,
            "ati": 377,
            "hu": 378,
            "ame": 379,
            "raf": 380,
            "ley": 381,
            "pi": 382,
            "vla": 383,
            "ron": 384,
            "ot": 385,
            "mos": 386,
            "nel": 387,
            "jun": 388,
            "cy": 389,
            "far": 390,
            "bog": 391,
            "lim": 392,
            "ee": 393,
            "bas": 394,
            "vis": 395,
            "pre": 396,
            "rit": 397,
            "ser": 398,
            "my": 399,
            "katar": 400,
            "ug": 401,
            "kha": 402,
            "kim": 403,
            "art": 404,
            "nie": 405,
            "ando": 406,
            "abo": 407,
            "du": 408,
            "the": 409,
            "war": 410,
            "ok": 411,
            "cent": 412,
            "ald": 413,
            "gorz": 414,
            "mel": 415,
            "elizab": 416,
            "dia": 417,
            "bor": 418,
            "kr": 419,
            "alid": 420,
            "bes": 421,
            "lasz": 422,
            "qu": 423,
            "jes": 424,
            "ped": 425,
            "fan": 426,
            "tr": 427,
            "zol": 428,
            "tom": 429,
            "pri": 430,
            "ele": 431,
            "bab": 432,
            "hd": 433,
            "mis": 434,
            "ardo": 435,
            "pio": 436,
            "rze": 437,
            "br": 438,
            "ung": 439,
            "nik": 440,
            "los": 441,
            "shi": 442,
            "chi": 443,
            "ato": 444,
            "domin": 445,
            "don": 446,
            "ez": 447,
            "pan": 448,
            "jas": 449,
            "per": 450,
            "haf": 451,
            "tia": 452,
            "yi": 453,
            "geor": 454,
            "ence": 455,
            "bin": 456,
            "uf": 457,
            "om": 458,
            "ub": 459,
            "zyna": 460,
            "chu": 461,
            "fiq": 462,
            "tof": 463,
            "ac": 464,
            "hle": 465,
            "magd": 466,
            "onica": 467,
            "fia": 468,
            "toria": 469,
            "cat": 470,
            "tar": 471,
            "pak": 472,
            "bogo": 473,
            "ayo": 474,
            "vik": 475,
            "joe": 476,
            "gan": 477,
            "dam": 478,
            "kir": 479,
            "sil": 480,
            "ist": 481,
            "nan": 482,
            "niesz": 483,
            "agniesz": 484,
            "sol": 485,
            "iwe": 486,
            "jel": 487,
            "yus": 488,
            "zu": 489,
            "day": 490,
            "uni": 491,
            "hil": 492,
            "lil": 493,
            "ing": 494,
            "ef": 495,
            "sen": 496,
            "riz": 497,
            "enc": 498,
            "itum": 499,
            "ida": 500,
            "tim": 501,
            "gar": 502,
            "syl": 503,
            "abi": 504,
            "kla": 505,
            "bri": 506,
            "vil": 507,
            "ane": 508,
            "olu": 509,
            "ay": 510,
            "fil": 511,
            "erina": 512,
            "pal": 513,
            "ind": 514,
            "bus": 515,
            "etse": 516,
            "jaku": 517,
            "ivi": 518,
            "put": 519,
            "ith": 520,
            "ini": 521,
            "via": 522,
            "bel": 523,
            "zel": 524,
            "bon": 525,
            "ama": 526,
            "gh": 527,
            "alb": 528,
            "nu": 529,
            "cil": 530,
            "xh": 531,
            "zo": 532,
            "sia": 533,
            "kab": 534,
            "rish": 535,
            "sir": 536,
            "mig": 537,
            "asi": 538,
            "ony": 539,
            "bl": 540,
            "sat": 541,
            "una": 542,
            "musta": 543,
            "shu": 544,
            "ric": 545,
            "des": 546,
            "fo": 547,
            "uli": 548,
            "zden": 549,
            "sah": 550,
            "pin": 551,
            "them": 552,
            "zan": 553,
            "kko": 554,
            "udia": 555,
            "pha": 556,
            "sk": 557,
            "amo": 558,
            "zul": 559,
            "rul": 560,
            "sya": 561,
            "anth": 562,
            "ide": 563,
            "yl": 564,
            "miros": 565,
            "gi": 566,
            "iva": 567,
            "hal": 568,
            "kka": 569,
            "zim": 570,
            "af": 571,
            "irul": 572,
            "sul": 573,
            "evel": 574,
            "rato": 575,
            "cio": 576,
            "men": 577,
            "tsh": 578,
            "ng": 579,
            "rey": 580,
            "vo": 581,
            "jef": 582,
            "ewa": 583,
            "ray": 584,
            "eka": 585,
            "leo": 586,
            "cious": 587,
            "iza": 588,
            "lyn": 589,
            "wo": 590,
            "nom": 591,
            "nar": 592,
            "tosh": 593,
            "fah": 594,
            "sri": 595,
            "naz": 596,
            "par": 597,
            "for": 598,
            "non": 599,
            "jud": 600,
            "jaros": 601,
            "era": 602,
            "joz": 603,
            "etso": 604,
            "kal": 605,
            "malgorz": 606,
            "eer": 607,
            "zsol": 608,
            "edu": 609,
            "suz": 610,
            "kgo": 611,
            "by": 612,
            "dri": 613,
            "itse": 614,
            "ada": 615,
            "bles": 616,
            "may": 617,
            "jamin": 618,
            "che": 619,
            "pr": 620,
            "cin": 621,
            "ky": 622,
            "nab": 623,
            "sad": 624,
            "jor": 625,
            "ika": 626,
            "cham": 627,
            "jonat": 628,
            "iah": 629,
            "edy": 630,
            "anu": 631,
            "zsuz": 632,
            "sing": 633,
            "gen": 634,
            "sur": 635,
            "emi": 636,
            "flo": 637,
            "bet": 638,
            "ego": 639,
            "zah": 640,
            "mot": 641,
            "asa": 642,
            "shad": 643,
            "rat": 644,
            "ian": 645,
            "god": 646,
            "yam": 647,
            "let": 648,
            "oba": 649,
            "cel": 650,
            "khad": 651,
            "vit": 652,
            "gif": 653,
            "ves": 654,
            "hj": 655,
            "ala": 656,
            "zena": 657,
            "kwu": 658,
            "rui": 659,
            "usi": 660,
            "sou": 661,
            "tun": 662,
            "ias": 663,
            "hon": 664,
            "een": 665,
            "dari": 666,
            "endy": 667,
            "zen": 668,
            "neo": 669,
            "nd": 670,
            "khal": 671,
            "rzej": 672,
            "cie": 673,
            "eg": 674,
            "rol": 675,
            "kle": 676,
            "pp": 677,
            "shua": 678,
            "jim": 679,
            "dio": 680,
            "fern": 681,
            "aw": 682,
            "zelj": 683,
            "fili": 684,
            "ut": 685,
            "lebog": 686,
            "inda": 687,
            "bil": 688,
            "hay": 689,
            "hus": 690,
            "zbi": 691,
            "esi": 692,
            "cla": 693,
            "lind": 694,
            "azs": 695,
            "hab": 696,
            "bad": 697,
            "cs": 698,
            "ino": 699,
            "mam": 700,
            "ci": 701,
            "abio": 702,
            "mur": 703,
            "ow": 704,
            "nis": 705,
            "jet": 706,
            "hend": 707,
            "bam": 708,
            "mun": 709,
            "csab": 710,
            "mahmo": 711,
            "isal": 712,
            "maj": 713,
            "lie": 714,
            "isi": 715,
            "lul": 716,
            "alo": 717,
            "katle": 718,
            "aya": 719,
            "cja": 720,
            "arm": 721,
            "yah": 722,
            "hit": 723,
            "gel": 724,
            "wid": 725,
            "arina": 726,
            "tafa": 727,
            "vladi": 728,
            "ira": 729,
            "eza": 730,
            "eko": 731,
            "lar": 732,
            "ish": 733,
            "kry": 734,
            "iswa": 735,
            "tshep": 736,
            "itumelo": 737,
            "oliv": 738,
            "tlo": 739,
            "kit": 740,
            "ernes": 741,
            "iw": 742,
            "dine": 743,
            "glo": 744,
            "fari": 745,
            "jad": 746,
            "ayu": 747,
            "filwe": 748,
            "thew": 749,
            "bran": 750,
            "krys": 751,
            "arl": 752,
            "mia": 753,
            "cyn": 754,
            "thia": 755,
            "ako": 756,
            "itta": 757,
            "gon": 758,
            "ekka": 759,
            "fe": 760,
            "mai": 761,
            "met": 762,
            "kag": 763,
            "mit": 764,
            "thu": 765,
            "bun": 766,
            "eem": 767,
            "sud": 768,
            "szil": 769,
            "vas": 770,
            "ilah": 771,
            "fit": 772,
            "ach": 773,
            "wal": 774,
            "udu": 775,
            "von": 776,
            "der": 777,
            "melo": 778,
            "av": 779,
            "islav": 780,
            "col": 781,
            "ett": 782,
            "shid": 783,
            "sai": 784,
            "kaj": 785,
            "wah": 786,
            "anie": 787,
            "hla": 788,
            "cilia": 789,
            "etta": 790,
            "aj": 791,
            "amy": 792,
            "og": 793,
            "teo": 794,
            "lovel": 795,
            "con": 796,
            "gu": 797,
            "vor": 798,
            "xol": 799,
            "max": 800,
            "erz": 801,
            "idi": 802,
            "bern": 803,
            "fir": 804,
            "omo": 805,
            "karia": 806,
            "marg": 807,
            "vu": 808,
            "mie": 809,
            "woj": 810,
            "fri": 811,
            "tat": 812,
            "zam": 813,
            "euni": 814,
            "yaw": 815,
            "oo": 816,
            "fes": 817,
            "uta": 818,
            "ity": 819,
            "tri": 820,
            "haj": 821,
            "bh": 822,
            "jah": 823,
            "lon": 824,
            "ora": 825,
            "cha": 826,
            "sylw": 827,
            "roy": 828,
            "ond": 829,
            "ved": 830,
            "sain": 831,
            "meh": 832,
            "bra": 833,
            "rok": 834,
            "yin": 835,
            "solo": 836,
            "ete": 837,
            "cca": 838,
            "pris": 839,
            "lal": 840,
            "eug": 841,
            "rid": 842,
            "mb": 843,
            "kay": 844,
            "youn": 845,
            "nda": 846,
            "gre": 847,
            "iq": 848,
            "lea": 849,
            "nad": 850,
            "veen": 851,
            "jtim": 852,
            "eda": 853,
            "kul": 854,
            "ziq": 855,
            "zar": 856,
            "motso": 857,
            "lem": 858,
            "fun": 859,
            "tek": 860,
            "jir": 861,
            "was": 862,
            "lawren": 863,
            "zor": 864,
            "uk": 865,
            "ea": 866,
            "bby": 867,
            "xhe": 868,
            "gyor": 869,
            "lava": 870,
            "nal": 871,
            "ike": 872,
            "jos": 873,
            "klo": 874,
            "jdi": 875,
            "jith": 876,
            "elzbi": 877,
            "olas": 878,
            "kin": 879,
            "eleng": 880,
            "ets": 881,
            "priscil": 882,
            "thand": 883,
            "lady": 884,
            "pand": 885,
            "vind": 886,
            "lou": 887,
            "fort": 888,
            "hlan": 889,
            "hlanhla": 890,
            "nas": 891,
            "vir": 892,
            "cek": 893,
            "aku": 894,
            "akh": 895,
            "rom": 896,
            "old": 897,
            "egz": 898,
            "ath": 899,
            "bash": 900,
            "ife": 901,
            "thi": 902,
            "pir": 903,
            "ikka": 904,
            "isiwe": 905,
            "hjh": 906,
            "cholas": 907,
            "por": 908,
            "pon": 909,
            "uso": 910,
            "ivo": 911,
            "var": 912,
            "las": 913,
            "dwi": 914,
            "tea": 915,
            "kwa": 916,
            "mh": 917,
            "emu": 918,
            "tade": 919,
            "aug": 920,
            "augus": 921,
            "fad": 922,
            "bha": 923,
            "ble": 924,
            "bile": 925,
            "bla": 926,
            "raham": 927,
            "ladys": 928,
            "roz": 929,
            "lau": 930,
            "iru": 931,
            "jaz": 932,
            "zem": 933,
            "tus": 934,
            "quel": 935,
            "com": 936,
            "umi": 937,
            "macie": 938,
            "nen": 939,
            "au": 940,
            "dev": 941,
            "kan": 942,
            "ano": 943,
            "tis": 944,
            "dim": 945,
            "rej": 946,
            "lax": 947,
            "of": 948,
            "die": 949,
            "jol": 950,
            "jee": 951,
            "lung": 952,
            "eed": 953,
            "ilesh": 954,
            "hr": 955,
            "boy": 956,
            "imi": 957,
            "shek": 958,
            "gil": 959,
            "nam": 960,
            "kas": 961,
            "ise": 962,
            "sale": 963,
            "ivy": 964,
            "onga": 965,
            "ig": 966,
            "ema": 967,
            "ip": 968,
            "dija": 969,
            "lat": 970,
            "kes": 971,
            "herine": 972,
            "oth": 973,
            "ntom": 974,
            "brigh": 975,
            "mae": 976,
            "saj": 977,
            "wer": 978,
            "ain": 979,
            "ede": 980,
            "pul": 981,
            "bian": 982,
            "obak": 983,
            "ole": 984,
            "busiso": 985,
            "lov": 986,
            "clav": 987,
            "ais": 988,
            "rie": 989,
            "oma": 990,
            "ome": 991,
            "inno": 992,
            "sn": 993,
            "tl": 994,
            "tit": 995,
            "ior": 996,
            "sho": 997,
            "szab": 998,
            "sie": 999,
            "tari": 1000,
            "alber": 1001,
            "gora": 1002,
            "goh": 1003,
            "nej": 1004,
            "kol": 1005,
            "sley": 1006,
            "male": 1007,
            "trit": 1008,
            "shkel": 1009,
            "ner": 1010,
            "usu": 1011,
            "abdula": 1012,
            "hos": 1013,
            "kand": 1014,
            "sti": 1015,
            "kok": 1016,
            "voj": 1017,
            "mau": 1018,
            "ethu": 1019,
            "sebet": 1020,
            "gie": 1021,
            "esia": 1022,
            "izz": 1023,
            "app": 1024,
            "felo": 1025,
            "fau": 1026,
            "int": 1027,
            "ewel": 1028,
            "ket": 1029,
            "khu": 1030,
            "nthab": 1031,
            "siy": 1032,
            "mine": 1033,
            "cher": 1034,
            "ibu": 1035,
            "dip": 1036,
            "kor": 1037,
            "ette": 1038,
            "nah": 1039,
            "sak": 1040,
            "shar": 1041,
            "andla": 1042,
            "ezer": 1043,
            "dur": 1044,
            "rek": 1045,
            "eno": 1046,
            "ct": 1047,
            "moj": 1048,
            "tshi": 1049,
            "lavi": 1050,
            "hali": 1051,
            "abile": 1052,
            "pol": 1053,
            "pav": 1054,
            "slav": 1055,
            "ender": 1056,
            "rag": 1057,
            "bhar": 1058,
            "ziz": 1059,
            "ilo": 1060,
            "ikki": 1061,
            "kac": 1062,
            "tah": 1063,
            "adwo": 1064,
            "phum": 1065,
            "bernad": 1066,
            "srin": 1067,
            "dhar": 1068,
            "athi": 1069,
            "thul": 1070,
            "rus": 1071,
            "wik": 1072,
            "calo": 1073,
            "alyn": 1074,
            "celyn": 1075,
            "thy": 1076,
            "jib": 1077,
            "zak": 1078,
            "omph": 1079,
            "sula": 1080,
            "arida": 1081,
            "mou": 1082,
            "maz": 1083,
            "bis": 1084,
            "gesh": 1085,
            "nit": 1086,
            "angeli": 1087,
            "lad": 1088,
            "voje": 1089,
            "abonga": 1090,
            "lawa": 1091,
            "ase": 1092,
            "wis": 1093,
            "shal": 1094,
            "ciech": 1095,
            "kon": 1096,
            "oja": 1097,
            "sei": 1098,
            "gide": 1099,
            "rome": 1100,
            "wad": 1101,
            "dus": 1102,
            "gaz": 1103,
            "ban": 1104,
            "bogile": 1105,
            "lip": 1106,
            "stje": 1107,
            "liz": 1108,
            "omi": 1109,
            "dol": 1110,
            "ikh": 1111,
            "get": 1112,
            "sp": 1113,
            "gr": 1114,
            "maril": 1115,
            "mul": 1116,
            "seg": 1117,
            "tice": 1118,
            "omir": 1119,
            "que": 1120,
            "zica": 1121,
            "joon": 1122,
            "soph": 1123,
            "ago": 1124,
            "yap": 1125,
            "aq": 1126,
            "xhi": 1127,
            "maa": 1128,
            "mla": 1129,
            "gio": 1130,
            "vet": 1131,
            "yen": 1132,
            "brig": 1133,
            "dun": 1134,
            "ogelo": 1135,
            "margar": 1136,
            "div": 1137,
            "sta": 1138,
            "kun": 1139,
            "pum": 1140,
            "suha": 1141,
            "etu": 1142,
            "bler": 1143,
            "yaz": 1144,
            "itya": 1145,
            "well": 1146,
            "are": 1147,
            "tta": 1148,
            "bou": 1149,
            "tuo": 1150,
            "sua": 1151,
            "yaku": 1152,
            "koh": 1153,
            "amari": 1154,
            "shik": 1155,
            "ii": 1156,
            "tai": 1157,
            "anga": 1158,
            "joaqu": 1159,
            "ime": 1160,
            "eke": 1161,
            "nko": 1162,
            "qend": 1163,
            "bost": 1164,
            "dorc": 1165,
            "ous": 1166,
            "zso": 1167,
            "viol": 1168,
            "gergel": 1169,
            "mik": 1170,
            "urav": 1171,
            "murug": 1172,
            "szy": 1173,
            "cah": 1174,
            "usa": 1175,
            "pram": 1176,
            "blan": 1177,
            "ace": 1178,
            "snje": 1179,
            "ilwe": 1180,
            "uddin": 1181,
            "yed": 1182,
            "hang": 1183,
            "fik": 1184,
            "tti": 1185,
            "hy": 1186,
            "tso": 1187,
            "iseng": 1188,
            "ofo": 1189,
            "ks": 1190,
            "dag": 1191,
            "noku": 1192,
            "pia": 1193,
            "etsi": 1194,
            "uda": 1195,
            "isu": 1196,
            "ope": 1197,
            "kur": 1198,
            "bek": 1199,
            "itz": 1200,
            "ito": 1201,
            "ami": 1202,
            "flam": 1203,
            "olcs": 1204,
            "entse": 1205,
            "yol": 1206,
            "lum": 1207,
            "eki": 1208,
            "mod": 1209,
            "ndesh": 1210,
            "lai": 1211,
            "ioma": 1212,
            "gir": 1213,
            "vina": 1214,
            "mma": 1215,
            "til": 1216,
            "csil": 1217,
            "amil": 1218,
            "eal": 1219,
            "bir": 1220,
            "ras": 1221,
            "pel": 1222,
            "gnie": 1223,
            "zbignie": 1224,
            "kene": 1225,
            "lati": 1226,
            "saf": 1227,
            "kaw": 1228,
            "dharm": 1229,
            "stus": 1230,
            "bat": 1231,
            "yaa": 1232,
            "shil": 1233,
            "shpet": 1234,
            "hor": 1235,
            "zlat": 1236,
            "thil": 1237,
            "lia": 1238,
            "aba": 1239,
            "zin": 1240,
            "kush": 1241,
            "soufi": 1242,
            "une": 1243,
            "tle": 1244,
            "ongo": 1245,
            "rosal": 1246,
            "ijo": 1247,
            "abder": 1248,
            "agye": 1249,
            "jac": 1250,
            "anxh": 1251,
            "bul": 1252,
            "zv": 1253,
            "lud": 1254,
            "barto": 1255,
            "xhul": 1256,
            "cho": 1257,
            "bhu": 1258,
            "riot": 1259,
            "kast": 1260,
            "adu": 1261,
            "hir": 1262,
            "priyan": 1263,
            "dai": 1264,
            "shub": 1265,
            "zal": 1266,
            "lid": 1267,
            "aur": 1268,
            "iton": 1269,
            "mei": 1270,
            "nou": 1271,
            "dk": 1272,
            "kova": 1273,
            "dali": 1274,
            "sub": 1275,
            "ire": 1276,
            "wei": 1277,
            "favo": 1278,
            "vie": 1279,
            "eez": 1280,
            "onye": 1281,
            "pro": 1282,
            "qim": 1283,
            "low": 1284,
            "arn": 1285,
            "jie": 1286,
            "boit": 1287,
            "zd": 1288,
            "fiso": 1289,
            "ppo": 1290,
            "juna": 1291,
            "gj": 1292,
            "fu": 1293,
            "vek": 1294,
            "tul": 1295,
            "ppy": 1296,
            "fatso": 1297,
            "mogo": 1298,
            "etswe": 1299,
            "vko": 1300,
            "atu": 1301,
            "hone": 1302,
            "set": 1303,
            "lj": 1304,
            "nir": 1305,
            "lemon": 1306,
            "pas": 1307,
            "frey": 1308,
            "shant": 1309,
            "kg": 1310,
            "kandar": 1311,
            "angir": 1312,
            "emetse": 1313,
            "zuz": 1314,
            "ppu": 1315,
            "way": 1316,
            "lju": 1317,
            "ttu": 1318,
            "shpr": 1319,
            "luk": 1320,
            "cik": 1321,
            "wena": 1322,
            "lca": 1323,
            "vjol": 1324,
            "gran": 1325,
            "rod": 1326,
            "karth": 1327,
            "rab": 1328,
            "jeev": 1329,
            "dh": 1330,
            "ment": 1331,
            "molo": 1332,
            "ell": 1333,
            "zile": 1334,
            "hau": 1335,
            "giv": 1336,
            "mesh": 1337,
            "eze": 1338,
            "oluw": 1339,
            "yeo": 1340,
            "inah": 1341,
            "borah": 1342,
            "pam": 1343,
            "santho": 1344,
            "ska": 1345,
            "zine": 1346,
            "urdes": 1347,
            "mise": 1348,
            "xhev": 1349,
            "ndu": 1350,
            "thula": 1351,
            "isra": 1352,
            "wasi": 1353,
            "ileen": 1354,
            "keitum": 1355,
            "ms": 1356,
            "horv": 1357,
            "faus": 1358,
            "rashe": 1359,
            "theus": 1360,
            "ese": 1361,
            "tik": 1362,
            "mj": 1363,
            "ulia": 1364,
            "esan": 1365,
            "leh": 1366,
            "bru": 1367,
            "tra": 1368,
            "rai": 1369,
            "iki": 1370,
            "dhi": 1371,
            "use": 1372,
            "ursz": 1373,
            "haz": 1374,
            "tee": 1375,
            "abdal": 1376,
            "sre": 1377,
            "kica": 1378,
            "kis": 1379,
            "sii": 1380,
            "boga": 1381,
            "keale": 1382,
            "moz": 1383,
            "anab": 1384,
            "ere": 1385,
            "gul": 1386,
            "themb": 1387,
            "moun": 1388,
            "nag": 1389,
            "imal": 1390,
            "isile": 1391,
            "lho": 1392,
            "raz": 1393,
            "arb": 1394,
            "gjer": 1395,
            "yun": 1396,
            "nia": 1397,
            "qi": 1398,
            "ked": 1399,
            "guh": 1400,
            "maar": 1401,
            "ima": 1402,
            "vuy": 1403,
            "fou": 1404,
            "led": 1405,
            "sathi": 1406,
            "rysz": 1407,
            "shor": 1408,
            "zek": 1409,
            "ej": 1410,
            "mor": 1411,
            "dget": 1412,
            "avi": 1413,
            "sis": 1414,
            "orat": 1415,
            "pur": 1416,
            "enyo": 1417,
            "unde": 1418,
            "jram": 1419,
            "gug": 1420,
            "ford": 1421,
            "nade": 1422,
            "eev": 1423,
            "ljil": 1424,
            "amr": 1425,
            "jako": 1426,
            "olebog": 1427,
            "urad": 1428,
            "zai": 1429,
            "tok": 1430,
            "hin": 1431,
            "cen": 1432,
            "ced": 1433,
            "dom": 1434,
            "sang": 1435,
            "wiol": 1436,
            "aji": 1437,
            "diusz": 1438,
            "zdra": 1439,
            "ngo": 1440,
            "kho": 1441,
            "endar": 1442,
            "ob": 1443,
            "chra": 1444,
            "tob": 1445,
            "gica": 1446,
            "amant": 1447,
            "dubra": 1448,
            "tay": 1449,
            "mole": 1450,
            "jy": 1451,
            "elvi": 1452,
            "tlhe": 1453,
            "temi": 1454,
            "jag": 1455,
            "dard": 1456,
            "orsol": 1457,
            "uko": 1458,
            "arp": 1459,
            "benedi": 1460,
            "gin": 1461,
            "mund": 1462,
            "afer": 1463,
            "mom": 1464,
            "kai": 1465,
            "nand": 1466,
            "indile": 1467,
            "ulant": 1468,
            "arka": 1469,
            "abetswe": 1470,
            "fundo": 1471,
            "tif": 1472,
            "paa": 1473,
            "agi": 1474,
            "yon": 1475,
            "leven": 1476,
            "ril": 1477,
            "yll": 1478,
            "hiday": 1479,
            "gonolo": 1480,
            "emy": 1481,
            "waa": 1482,
            "tlam": 1483,
            "inash": 1484,
            "tse": 1485,
            "mith": 1486,
            "evi": 1487,
            "pula": 1488,
            "jur": 1489,
            "slavi": 1490,
            "ney": 1491,
            "yere": 1492,
            "boi": 1493,
            "pesh": 1494,
            "onso": 1495,
            "eti": 1496,
            "chid": 1497,
            "bah": 1498,
            "pg": 1499,
            "wiga": 1500,
            "eme": 1501,
            "nt": 1502,
            "aki": 1503,
            "tir": 1504,
            "lak": 1505,
            "bib": 1506,
            "udio": 1507,
            "perpar": 1508,
            "ufik": 1509,
            "boah": 1510,
            "utam": 1511,
            "shmi": 1512,
            "pong": 1513,
            "ice": 1514,
            "selv": 1515,
            "ilash": 1516,
            "ques": 1517,
            "slam": 1518,
            "loh": 1519,
            "afi": 1520,
            "subha": 1521,
            "wilhel": 1522,
            "maima": 1523,
            "siph": 1524,
            "ua": 1525,
            "gyong": 1526,
            "hard": 1527,
            "bro": 1528,
            "aid": 1529,
            "sheer": 1530,
            "oar": 1531,
            "oum": 1532,
            "elao": 1533,
            "fid": 1534,
            "mend": 1535,
            "sma": 1536,
            "sas": 1537,
            "uleko": 1538,
            "kululeko": 1539,
            "tumis": 1540,
            "nikh": 1541,
            "eraj": 1542,
            "elelo": 1543,
            "pumelelo": 1544,
            "ndin": 1545,
            "mz": 1546,
            "gas": 1547,
            "larka": 1548,
            "poku": 1549,
            "nkosin": 1550,
            "bud": 1551,
            "ten": 1552,
            "amogel": 1553,
            "wu": 1554,
            "fae": 1555,
            "sylves": 1556,
            "ksen": 1557,
            "bol": 1558,
            "xho": 1559,
            "oke": 1560,
            "ges": 1561,
            "oluwas": 1562,
            "mak": 1563,
            "naj": 1564,
            "mmolo": 1565,
            "kif": 1566,
            "wee": 1567,
            "naa": 1568,
            "cor": 1569,
            "mc": 1570,
            "motsi": 1571,
            "olabi": 1572,
            "raim": 1573,
            "bica": 1574,
            "kresi": 1575,
            "fortun": 1576,
            "jai": 1577,
            "sem": 1578,
            "hs": 1579,
            "sph": 1580,
            "dah": 1581,
            "ndapand": 1582,
            "yee": 1583,
            "hat": 1584,
            "iy": 1585,
            "haik": 1586,
            "flu": 1587,
            "nil": 1588,
            "rija": 1589,
            "gee": 1590,
            "zie": 1591,
            "ft": 1592,
            "kehin": 1593,
            "bea": 1594,
            "kie": 1595,
            "yat": 1596,
            "olya": 1597,
            "beka": 1598,
            "rudol": 1599,
            "liv": 1600,
            "maci": 1601,
            "dish": 1602,
            "lhogonolo": 1603,
            "zvoni": 1604,
            "iao": 1605,
            "hous": 1606,
            "ady": 1607,
            "lab": 1608,
            "kosi": 1609,
            "licent": 1610,
            "asya": 1611,
            "diri": 1612,
            "jyo": 1613,
            "vesh": 1614,
            "elwa": 1615,
            "onne": 1616,
            "asy": 1617,
            "tech": 1618,
            "tapha": 1619,
            "ruz": 1620,
            "rem": 1621,
            "obi": 1622,
            "ezeki": 1623,
            "ev": 1624,
            "shnu": 1625,
            "elele": 1626,
            "ey": 1627,
            "fauz": 1628,
            "boik": 1629,
            "had": 1630,
            "lot": 1631,
            "beko": 1632,
            "cz": 1633,
            "pran": 1634,
            "aobak": 1635,
            "ces": 1636,
            "bob": 1637,
            "mol": 1638,
            "tsho": 1639,
            "sof": 1640,
            "ica": 1641,
            "nhar": 1642,
            "camil": 1643,
            "reth": 1644,
            "idu": 1645,
            "tura": 1646,
            "gao": 1647,
            "frim": 1648,
            "ugo": 1649,
            "gam": 1650,
            "keem": 1651,
            "vka": 1652,
            "gomole": 1653,
            "siz": 1654,
            "angwe": 1655,
            "piwa": 1656,
            "eh": 1657,
            "osa": 1658,
            "jm": 1659,
            "gang": 1660,
            "siek": 1661,
            "chibu": 1662,
            "pendra": 1663,
            "nase": 1664,
            "unle": 1665,
            "zou": 1666,
            "wit": 1667,
            "manso": 1668,
            "nolu": 1669,
            "zee": 1670,
            "det": 1671,
            "ungo": 1672,
            "sue": 1673,
            "dea": 1674,
            "tab": 1675,
            "gud": 1676,
            "bza": 1677,
            "oge": 1678,
            "shaq": 1679,
            "ret": 1680,
            "hamandla": 1681,
            "afa": 1682,
            "milo": 1683,
            "hui": 1684,
            "boitshe": 1685,
            "shim": 1686,
            "fis": 1687,
            "oh": 1688,
            "elyn": 1689,
            "eddine": 1690,
            "swa": 1691,
            "mand": 1692,
            "foo": 1693,
            "mous": 1694,
            "jia": 1695,
            "hav": 1696,
            "mohm": 1697,
            "toh": 1698,
            "aa": 1699,
            "kc": 1700,
            "shed": 1701,
            "rj": 1702,
            "hima": 1703,
            "dash": 1704,
            "gus": 1705,
            "hap": 1706,
            "ggy": 1707,
            "ook": 1708,
            "unmi": 1709,
            "abe": 1710,
            "eef": 1711,
            "pros": 1712,
            "aub": 1713,
            "erico": 1714,
            "wethu": 1715,
            "sug": 1716,
            "glor": 1717,
            "kedib": 1718,
            "oluwase": 1719,
            "dul": 1720,
            "rre": 1721,
            "esmer": 1722,
            "tette": 1723,
            "ivas": 1724,
            "mola": 1725,
            "eliz": 1726,
            "ije": 1727,
            "guil": 1728,
            "gim": 1729,
            "ohe": 1730,
            "charlot": 1731,
            "rio": 1732,
            "nin": 1733,
            "ogo": 1734,
            "vend": 1735,
            "tesh": 1736,
            "onkab": 1737,
            "chant": 1738,
            "atunde": 1739,
            "ic": 1740,
            "zia": 1741,
            "saone": 1742,
            "harton": 1743,
            "ker": 1744,
            "good": 1745,
            "fie": 1746,
            "kayo": 1747,
            "agwe": 1748,
            "wen": 1749,
            "jin": 1750,
            "hannel": 1751,
            "reyn": 1752,
            "lumb": 1753,
            "gal": 1754,
            "shqi": 1755,
            "dil": 1756,
            "gur": 1757,
            "gat": 1758,
            "oliw": 1759,
            "fian": 1760,
            "chlo": 1761,
            "abdl": 1762,
            "usitse": 1763,
            "wazi": 1764,
            "leot": 1765,
            "ssi": 1766,
            "dimo": 1767,
            "tap": 1768,
            "esihle": 1769,
            "aus": 1770,
            "kemetse": 1771,
            "rau": 1772,
            "sky": 1773,
            "adeni": 1774,
            "matshid": 1775,
            "res": 1776,
            "ail": 1777,
            "mory": 1778,
            "urata": 1779,
            "waz": 1780,
            "abdes": 1781,
            "flavi": 1782,
            "kren": 1783,
            "xolo": 1784,
            "sura": 1785,
            "dad": 1786,
            "emal": 1787,
            "brune": 1788,
            "piness": 1789,
            "soh": 1790,
            "kki": 1791,
            "wn": 1792,
            "boat": 1793,
            "zb": 1794,
            "kak": 1795,
            "tau": 1796,
            "sap": 1797,
            "pend": 1798,
            "arte": 1799,
            "drag": 1800,
            "tya": 1801,
            "mohs": 1802,
            "olna": 1803,
            "urabh": 1804,
            "eletso": 1805,
            "babal": 1806,
            "pil": 1807,
            "inot": 1808,
            "rexhe": 1809,
            "mierz": 1810,
            "hun": 1811,
            "sig": 1812,
            "olam": 1813,
            "keamo": 1814,
            "keamog": 1815,
            "idow": 1816,
            "nem": 1817,
            "emo": 1818,
            "samp": 1819,
            "rabi": 1820,
            "muh": 1821,
            "sind": 1822,
            "ore": 1823,
            "gji": 1824,
            "ayomi": 1825,
            "josa": 1826,
            "dikel": 1827,
            "nagara": 1828,
            "jind": 1829,
            "loub": 1830,
            "celes": 1831,
            "etsang": 1832,
            "alk": 1833,
            "myr": 1834,
            "rki": 1835,
            "vikto": 1836,
            "mook": 1837,
            "jeeb": 1838,
            "trek": 1839,
            "bed": 1840,
            "bartlo": 1841,
            "miej": 1842,
            "nq": 1843,
            "ojo": 1844,
            "pus": 1845,
            "mocham": 1846,
            "jale": 1847,
            "hya": 1848,
            "jc": 1849,
            "sbon": 1850,
            "loy": 1851,
            "shak": 1852,
            "youss": 1853,
            "buso": 1854,
            "rhe": 1855,
            "phem": 1856,
            "heman": 1857,
            "gun": 1858,
            "rora": 1859,
            "herme": 1860,
            "olus": 1861,
            "rack": 1862,
            "mxol": 1863,
            "ogun": 1864,
            "hak": 1865,
            "zvon": 1866,
            "obin": 1867,
            "lay": 1868,
            "thandaz": 1869,
            "kather": 1870,
            "tris": 1871,
            "aden": 1872,
            "ukka": 1873,
            "cija": 1874,
            "ouane": 1875,
            "svet": 1876,
            "virgin": 1877,
            "izlan": 1878,
            "ibe": 1879,
            "lus": 1880,
            "oag": 1881,
            "botsh": 1882,
            "liez": 1883,
            "nii": 1884,
            "cka": 1885,
            "inye": 1886,
            "laur": 1887,
            "tissam": 1888,
            "ijah": 1889,
            "unga": 1890,
            "benga": 1891,
            "barnab": 1892,
            "resa": 1893,
            "kutl": 1894,
            "wano": 1895,
            "mustha": 1896,
            "enya": 1897,
            "kah": 1898,
            "utenya": 1899,
            "aar": 1900,
            "tka": 1901,
            "jab": 1902,
            "yada": 1903,
            "cko": 1904,
            "fadz": 1905,
            "dorot": 1906,
            "khair": 1907,
            "uska": 1908,
            "itha": 1909,
            "azu": 1910,
            "sif": 1911,
            "mdudu": 1912,
            "jal": 1913,
            "isy": 1914,
            "bie": 1915,
            "oe": 1916,
            "zsan": 1917,
            "benedic": 1918,
            "fon": 1919,
            "hah": 1920,
            "arth": 1921,
            "awg": 1922,
            "oko": 1923,
            "odiri": 1924,
            "matil": 1925,
            "omena": 1926,
            "sid": 1927,
            "nea": 1928,
            "icia": 1929,
            "kri": 1930,
            "aded": 1931,
            "fj": 1932,
            "hum": 1933,
            "tobeko": 1934,
            "muni": 1935,
            "ely": 1936,
            "oye": 1937,
            "hafi": 1938,
            "kani": 1939,
            "ergy": 1940,
            "xha": 1941,
            "oslav": 1942,
            "soha": 1943,
            "faa": 1944,
            "ap": 1945,
            "enolo": 1946,
            "thak": 1947,
            "pun": 1948,
            "ariina": 1949,
            "tre": 1950,
            "iola": 1951,
            "ynek": 1952,
            "naft": 1953,
            "teh": 1954,
            "ep": 1955,
            "xin": 1956,
            "fruz": 1957,
            "dica": 1958,
            "damil": 1959,
            "jell": 1960,
            "poh": 1961,
            "ooi": 1962,
            "dira": 1963,
            "enye": 1964,
            "rei": 1965,
            "hek": 1966,
            "ler": 1967,
            "vy": 1968,
            "anan": 1969,
            "ahafa": 1970,
            "tie": 1971,
            "krun": 1972,
            "swe": 1973,
            "zuba": 1974,
            "cj": 1975,
            "ness": 1976,
            "sit": 1977,
            "yud": 1978,
            "atla": 1979,
            "aga": 1980,
            "abisa": 1981,
            "bit": 1982,
            "rapha": 1983,
            "nez": 1984,
            "fab": 1985,
            "ack": 1986,
            "lis": 1987,
            "buku": 1988,
            "pent": 1989,
            "adar": 1990,
            "his": 1991,
            "vula": 1992,
            "anti": 1993,
            "kga": 1994,
            "arah": 1995,
            "lavin": 1996,
            "fola": 1997,
            "rine": 1998,
            "qman": 1999,
            "wai": 2000,
            "obile": 2001,
            "teres": 2002,
            "nja": 2003,
            "cine": 2004,
            "olame": 2005,
            "nexh": 2006,
            "bonye": 2007,
            "ate": 2008,
            "prasan": 2009,
            "eras": 2010,
            "oluwato": 2011,
            "lut": 2012,
            "adje": 2013,
            "iful": 2014,
            "ande": 2015,
            "boine": 2016,
            "khtar": 2017,
            "gn": 2018,
            "gnesh": 2019,
            "hou": 2020,
            "zdz": 2021,
            "eel": 2022,
            "mbar": 2023,
            "opp": 2024,
            "xu": 2025,
            "lh": 2026,
            "dile": 2027,
            "etan": 2028,
            "dod": 2029,
            "zdzis": 2030,
            "aan": 2031,
            "mok": 2032,
            "vlast": 2033,
            "jago": 2034,
            "saw": 2035,
            "pinge": 2036,
            "sein": 2037,
            "weta": 2038,
            "sthemb": 2039,
            "oz": 2040,
            "rud": 2041,
            "egun": 2042,
            "moem": 2043,
            "emba": 2044,
            "ethemba": 2045,
            "fakh": 2046,
            "gusta": 2047,
            "sna": 2048,
            "fuse": 2049,
            "jda": 2050,
            "argj": 2051,
            "akan": 2052,
            "dami": 2053,
            "tes": 2054,
            "anoo": 2055,
            "hamo": 2056,
            "kv": 2057,
            "chay": 2058,
            "aloo": 2059,
            "sake": 2060,
            "hm": 2061,
            "jem": 2062,
            "bever": 2063,
            "brun": 2064,
            "dhe": 2065,
            "tak": 2066,
            "kem": 2067,
            "ulo": 2068,
            "push": 2069,
            "wole": 2070,
            "lehlo": 2071,
            "odu": 2072,
            "anou": 2073,
            "eq": 2074,
            "andel": 2075,
            "ilika": 2076,
            "rar": 2077,
            "uben": 2078,
            "dir": 2079,
            "oro": 2080,
            "mmag": 2081,
            "wla": 2082,
            "modimo": 2083,
            "ushad": 2084,
            "daph": 2085,
            "hul": 2086,
            "edli": 2087,
            "usiku": 2088,
            "alph": 2089,
            "tuel": 2090,
            "rea": 2091,
            "xii": 2092,
            "vlastim": 2093,
            "fal": 2094,
            "yos": 2095,
            "olani": 2096,
            "jahan": 2097,
            "gods": 2098,
            "szek": 2099,
            "jesa": 2100,
            "ebu": 2101,
            "nol": 2102,
            "anre": 2103,
            "chana": 2104,
            "olanre": 2105,
            "waju": 2106,
            "eeq": 2107,
            "shre": 2108,
            "ayi": 2109,
            "liu": 2110,
            "mlung": 2111,
            "baz": 2112,
            "qir": 2113,
            "nw": 2114,
            "masu": 2115,
            "sao": 2116,
            "ngu": 2117,
            "oloki": 2118,
            "nke": 2119,
            "zrin": 2120,
            "amah": 2121,
            "lloy": 2122,
            "slind": 2123,
            "shef": 2124,
            "skh": 2125,
            "erb": 2126,
            "fjol": 2127,
            "rex": 2128,
            "jesh": 2129,
            "aleth": 2130,
            "onaleth": 2131,
            "refil": 2132,
            "tshid": 2133,
            "etsile": 2134,
            "ekela": 2135,
            "zef": 2136,
            "roj": 2137,
            "pilo": 2138,
            "sni": 2139,
            "editse": 2140,
            "yal": 2141,
            "zuan": 2142,
            "nyo": 2143,
            "amara": 2144,
            "ones": 2145,
            "leva": 2146,
            "jumo": 2147,
            "sv": 2148,
            "mita": 2149,
            "maw": 2150,
            "eph": 2151,
            "sbu": 2152,
            "zuk": 2153,
            "naw": 2154,
            "sela": 2155,
            "oster": 2156,
            "ys": 2157,
            "fet": 2158,
            "pene": 2159,
            "binda": 2160,
            "xter": 2161,
            "dney": 2162,
            "blen": 2163,
            "loo": 2164,
            "vje": 2165,
            "alfe": 2166,
            "abh": 2167,
            "gram": 2168,
            "vz": 2169,
            "diell": 2170,
            "umbu": 2171,
            "hesh": 2172,
            "tala": 2173,
            "unia": 2174,
            "nokw": 2175,
            "kef": 2176,
            "yambo": 2177,
            "libus": 2178,
            "net": 2179,
            "ametsi": 2180,
            "oua": 2181,
            "mahlat": 2182,
            "nun": 2183,
            "reb": 2184,
            "anyo": 2185,
            "animir": 2186,
            "csi": 2187,
            "sc": 2188,
            "zenka": 2189,
            "fy": 2190,
            "sne": 2191,
            "khali": 2192,
            "lej": 2193,
            "teu": 2194,
            "hambel": 2195,
            "abim": 2196,
            "abisi": 2197,
            "keel": 2198,
            "klav": 2199,
            "maje": 2200,
            "gos": 2201,
            "aria": 2202,
            "sakh": 2203,
            "bee": 2204,
            "queline": 2205,
            "godira": 2206,
            "oa": 2207,
            "kolaw": 2208,
            "jp": 2209,
            "hussa": 2210,
            "muhar": 2211,
            "shma": 2212,
            "llan": 2213,
            "wunmi": 2214,
            "rak": 2215,
            "tey": 2216,
            "zid": 2217,
            "mbal": 2218,
            "zaw": 2219,
            "bbie": 2220,
            "kale": 2221,
            "araf": 2222,
            "lirid": 2223,
            "oluwat": 2224,
            "lei": 2225,
            "biswa": 2226,
            "mayma": 2227,
            "ulena": 2228,
            "futhi": 2229,
            "ank": 2230,
            "mugam": 2231,
            "atile": 2232,
            "phi": 2233,
            "bozid": 2234,
            "leth": 2235,
            "rk": 2236,
            "petse": 2237,
            "gaola": 2238,
            "kiru": 2239,
            "fillip": 2240,
            "njo": 2241,
            "simane": 2242,
            "edc": 2243,
            "hale": 2244,
            "qa": 2245,
            "cak": 2246,
            "veed": 2247,
            "eb": 2248,
            "nde": 2249,
            "uleni": 2250,
            "faz": 2251,
            "ferdin": 2252,
            "rude": 2253,
            "wumi": 2254,
            "zsom": 2255,
            "maham": 2256,
            "cli": 2257,
            "fford": 2258,
            "kelo": 2259,
            "qip": 2260,
            "shqip": 2261,
            "koso": 2262,
            "bernar": 2263,
            "elihle": 2264,
            "abdela": 2265,
            "berly": 2266,
            "hair": 2267,
            "batso": 2268,
            "cit": 2269,
            "ogh": 2270,
            "cle": 2271,
            "muti": 2272,
            "ottil": 2273,
            "nh": 2274,
            "maim": 2275,
            "boak": 2276,
            "ses": 2277,
            "erka": 2278,
            "deji": 2279,
            "ary": 2280,
            "toso": 2281,
            "angjel": 2282,
            "oka": 2283,
            "unya": 2284,
            "bron": 2285,
            "leut": 2286,
            "ikko": 2287,
            "som": 2288,
            "eera": 2289,
            "azan": 2290,
            "eek": 2291,
            "eeta": 2292,
            "hutso": 2293,
            "eeb": 2294,
            "warelo": 2295,
            "nombul": 2296,
            "dem": 2297,
            "idon": 2298,
            "bogum": 2299,
            "vaib": 2300,
            "zarta": 2301,
            "shy": 2302,
            "yanu": 2303,
            "ades": 2304,
            "sford": 2305,
            "enka": 2306,
            "jho": 2307,
            "sudhe": 2308,
            "swap": 2309,
            "kus": 2310,
            "anle": 2311,
            "see": 2312,
            "yush": 2313,
            "qah": 2314,
            "chiz": 2315,
            "jaleena": 2316,
            "neli": 2317,
            "rik": 2318,
            "aish": 2319,
            "gfj": 2320,
            "pala": 2321,
            "dit": 2322,
            "zby": 2323,
            "itswe": 2324,
            "nhla": 2325,
            "mawan": 2326,
            "ontlam": 2327,
            "suri": 2328,
            "jsi": 2329,
            "rodol": 2330,
            "arin": 2331,
            "phet": 2332,
            "chaib": 2333,
            "andana": 2334,
            "coraz": 2335,
            "ejf": 2336,
            "tsi": 2337,
            "nelius": 2338,
            "inkosi": 2339,
            "mpum": 2340,
            "luz": 2341,
            "gjo": 2342,
            "ery": 2343,
            "aru": 2344,
            "ampon": 2345,
            "shit": 2346,
            "reg": 2347,
            "hai": 2348,
            "eu": 2349,
            "nwa": 2350,
            "kopan": 2351,
            "sl": 2352,
            "alfon": 2353,
            "ulam": 2354,
            "miljen": 2355,
            "pru": 2356,
            "dence": 2357,
            "nnam": 2358,
            "ghan": 2359,
            "lodi": 2360,
            "mza": 2361,
            "bhas": 2362,
            "ston": 2363,
            "yet": 2364,
            "aliza": 2365,
            "yapo": 2366,
            "obaka": 2367,
            "osi": 2368,
            "rosh": 2369,
            "fica": 2370,
            "diwe": 2371,
            "mahabu": 2372,
            "elani": 2373,
            "bai": 2374,
            "qis": 2375,
            "ilim": 2376,
            "ndilim": 2377,
            "ss": 2378,
            "myo": 2379,
            "ned": 2380,
            "teef": 2381,
            "soo": 2382,
            "bach": 2383,
            "syuk": 2384,
            "nkan": 2385,
            "tal": 2386,
            "hold": 2387,
            "inhold": 2388,
            "tius": 2389,
            "kwo": 2390,
            "kl": 2391,
            "pit": 2392,
            "hika": 2393,
            "zale": 2394,
            "pana": 2395,
            "sius": 2396,
            "eny": 2397,
            "cra": 2398,
            "wyn": 2399,
            "gozie": 2400,
            "nne": 2401,
            "bos": 2402,
            "spar": 2403,
            "anao": 2404,
            "daw": 2405,
            "cathr": 2406,
            "mpu": 2407,
            "uh": 2408,
            "jj": 2409,
            "lek": 2410,
            "rost": 2411,
            "jko": 2412,
            "tur": 2413,
            "kena": 2414,
            "rathe": 2415,
            "tii": 2416,
            "aud": 2417,
            "uma": 2418,
            "eso": 2419,
            "tlhale": 2420,
            "sidor": 2421,
            "ghani": 2422,
            "chiso": 2423,
            "faroo": 2424,
            "jio": 2425,
            "kye": 2426,
            "osin": 2427,
            "chijio": 2428,
            "qet": 2429,
            "inus": 2430,
            "abong": 2431,
            "ilayo": 2432,
            "honolo": 2433,
            "zos": 2434,
            "giz": 2435,
            "tem": 2436,
            "ezi": 2437,
            "rif": 2438,
            "lef": 2439,
            "emana": 2440,
            "czes": 2441,
            "ekan": 2442,
            "rukay": 2443,
            "mek": 2444,
            "eji": 2445,
            "hem": 2446,
            "mokg": 2447,
            "aiz": 2448,
            "wanto": 2449,
            "hando": 2450,
            "yar": 2451,
            "zad": 2452,
            "kacs": 2453,
            "mud": 2454,
            "ify": 2455,
            "kelisiwe": 2456,
            "etal": 2457,
            "china": 2458,
            "nadi": 2459,
            "kozi": 2460,
            "ramani": 2461,
            "dal": 2462,
            "urai": 2463,
            "ricim": 2464,
            "gendra": 2465,
            "boton": 2466,
            "idele": 2467,
            "kond": 2468,
            "naze": 2469,
            "hayu": 2470,
            "boye": 2471,
            "keo": 2472,
            "prati": 2473,
            "anta": 2474,
            "mayan": 2475,
            "cry": 2476,
            "roris": 2477,
            "stal": 2478,
            "iis": 2479,
            "kiso": 2480,
            "pelang": 2481,
            "ores": 2482,
            "ass": 2483,
            "onth": 2484,
            "ontir": 2485,
            "csen": 2486,
            "kia": 2487,
            "adeye": 2488,
            "trin": 2489,
            "shkur": 2490,
            "iko": 2491,
            "pab": 2492,
            "kau": 2493,
            "erd": 2494,
            "adhar": 2495,
            "ohar": 2496,
            "tla": 2497,
            "xhen": 2498,
            "kayna": 2499,
            "regin": 2500,
            "sey": 2501,
            "bohum": 2502,
            "tet": 2503,
            "phu": 2504,
            "imon": 2505,
            "imti": 2506,
            "pei": 2507,
            "raia": 2508,
            "mire": 2509,
            "laka": 2510,
            "etjie": 2511,
            "govin": 2512,
            "binkosi": 2513,
            "jn": 2514,
            "kisu": 2515,
            "jnr": 2516,
            "lale": 2517,
            "motlale": 2518,
            "hao": 2519,
            "hoo": 2520,
            "zint": 2521,
            "araj": 2522,
            "ono": 2523,
            "enal": 2524,
            "hiwa": 2525,
            "lnet": 2526,
            "vul": 2527,
            "jovel": 2528,
            "hli": 2529,
            "abg": 2530,
            "vez": 2531,
            "dzi": 2532,
            "iin": 2533,
            "feek": 2534,
            "pine": 2535,
            "nazi": 2536,
            "bur": 2537,
            "cezar": 2538,
            "fol": 2539,
            "awu": 2540,
            "skhumbu": 2541,
            "vad": 2542,
            "onia": 2543,
            "uny": 2544,
            "krim": 2545,
            "qeri": 2546,
            "bina": 2547,
            "rije": 2548,
            "zej": 2549,
            "rez": 2550,
            "abos": 2551,
            "jed": 2552,
            "city": 2553,
            "any": 2554,
            "tabo": 2555,
            "ader": 2556,
            "zakh": 2557,
            "mee": 2558,
            "xie": 2559,
            "raa": 2560,
            "czy": 2561,
            "uz": 2562,
            "rox": 2563,
            "kee": 2564,
            "mieczy": 2565,
            "anje": 2566,
            "hafo": 2567,
            "noriz": 2568,
            "esiek": 2569,
            "aye": 2570,
            "valin": 2571,
            "itshe": 2572,
            "mais": 2573,
            "iseni": 2574,
            "dik": 2575,
            "qase": 2576,
            "yna": 2577,
            "isia": 2578,
            "haim": 2579,
            "ufi": 2580,
            "maul": 2581,
            "adh": 2582,
            "can": 2583,
            "qin": 2584,
            "uzo": 2585,
            "entle": 2586,
            "kshi": 2587,
            "taw": 2588,
            "nokul": 2589,
            "ferson": 2590,
            "sip": 2591,
            "shade": 2592,
            "arko": 2593,
            "angida": 2594,
            "yew": 2595,
            "uren": 2596,
            "louren": 2597,
            "khi": 2598,
            "hona": 2599,
            "wilika": 2600,
            "ety": 2601,
            "ceba": 2602,
            "zeez": 2603,
            "ouan": 2604,
            "sack": 2605,
            "stin": 2606,
            "eska": 2607,
            "hed": 2608,
            "tung": 2609,
            "wul": 2610,
            "orm": 2611,
            "dika": 2612,
            "lob": 2613,
            "cica": 2614,
            "oyin": 2615,
            "vio": 2616,
            "sla": 2617,
            "shwarelo": 2618,
            "gole": 2619,
            "ume": 2620,
            "jka": 2621,
            "oph": 2622,
            "sampat": 2623,
            "grz": 2624,
            "buisi": 2625,
            "ifa": 2626,
            "ekile": 2627,
            "kanth": 2628,
            "koz": 2629,
            "tudu": 2630,
            "olivi": 2631,
            "hanu": 2632,
            "cal": 2633,
            "suja": 2634,
            "fiku": 2635,
            "dha": 2636,
            "mac": 2637,
            "rogel": 2638,
            "etha": 2639,
            "lefi": 2640,
            "kobo": 2641,
            "monye": 2642,
            "edo": 2643,
            "islava": 2644,
            "rd": 2645,
            "adet": 2646,
            "lw": 2647,
            "wlo": 2648,
            "anura": 2649,
            "heesh": 2650,
            "endo": 2651,
            "ganetso": 2652,
            "kaou": 2653,
            "kanipho": 2654,
            "hdi": 2655,
            "zhi": 2656,
            "tos": 2657,
            "aul": 2658,
            "sirk": 2659,
            "ulethu": 2660,
            "chak": 2661,
            "enna": 2662,
            "onkgo": 2663,
            "pau": 2664,
            "potse": 2665,
            "shoko": 2666,
            "jb": 2667,
            "won": 2668,
            "anez": 2669,
            "pok": 2670,
            "babalo": 2671,
            "ew": 2672,
            "nya": 2673,
            "sea": 2674,
            "unka": 2675,
            "drah": 2676,
            "loven": 2677,
            "agu": 2678,
            "onkar": 2679,
            "ache": 2680,
            "mtho": 2681,
            "pard": 2682,
            "anam": 2683,
            "jemi": 2684,
            "del": 2685,
            "gag": 2686,
            "pred": 2687,
            "ireletso": 2688,
            "phas": 2689,
            "keora": 2690,
            "vanus": 2691,
            "hole": 2692,
            "virgil": 2693,
            "kabe": 2694,
            "isie": 2695,
            "vee": 2696,
            "jr": 2697,
            "chim": 2698,
            "waya": 2699,
            "cze": 2700,
            "ulek": 2701,
            "khulek": 2702,
            "yiso": 2703,
            "alys": 2704,
            "keolebog": 2705,
            "motshid": 2706,
            "xi": 2707,
            "isola": 2708,
            "fai": 2709,
            "pep": 2710,
            "fren": 2711,
            "souf": 2712,
            "tuul": 2713,
            "amade": 2714,
            "taju": 2715,
            "adede": 2716,
            "peleng": 2717,
            "aloj": 2718,
            "mosimane": 2719,
            "ust": 2720,
            "mn": 2721,
            "vim": 2722,
            "kik": 2723,
            "ongezi": 2724,
            "chidie": 2725,
            "ondjo": 2726,
            "ebo": 2727,
            "qe": 2728,
            "fetse": 2729,
            "tsit": 2730,
            "zikh": 2731,
            "shko": 2732,
            "edza": 2733,
            "gopol": 2734,
            "orun": 2735,
            "moek": 2736,
            "pjet": 2737,
            "mide": 2738,
            "kos": 2739,
            "ceu": 2740,
            "fre": 2741,
            "atif": 2742,
            "khush": 2743,
            "uju": 2744,
            "nast": 2745,
            "mouhs": 2746,
            "bath": 2747,
            "qw": 2748,
            "kolodi": 2749,
            "tafadz": 2750,
            "moditse": 2751,
            "olamil": 2752,
            "nauf": 2753,
            "sanqa": 2754,
            "batris": 2755,
            "esika": 2756,
            "dak": 2757,
            "biah": 2758,
            "moe": 2759,
            "nug": 2760,
            "inu": 2761,
            "roho": 2762,
            "nathali": 2763,
            "shpe": 2764,
            "fha": 2765,
            "lath": 2766,
            "amfi": 2767,
            "khut": 2768,
            "mof": 2769,
            "oreed": 2770,
            "pherd": 2771,
            "peo": 2772,
            "iba": 2773,
            "sm": 2774,
            "gardo": 2775,
            "ntswa": 2776,
            "mdu": 2777,
            "mr": 2778,
            "seli": 2779,
            "rice": 2780,
            "joyn": 2781,
            "josel": 2782,
            "got": 2783,
            "boh": 2784,
            "pomb": 2785,
            "alzb": 2786,
            "you": 2787,
            "kea": 2788,
            "mhd": 2789,
            "suba": 2790,
            "boni": 2791,
            "anit": 2792,
            "juhas": 2793,
            "mouh": 2794,
            "mum": 2795,
            "hra": 2796,
            "ango": 2797,
            "jman": 2798,
            "bd": 2799,
            "ei": 2800,
            "thembis": 2801,
            "ock": 2802,
            "oladim": 2803,
            "yie": 2804,
            "taou": 2805,
            "hait": 2806,
            "riger": 2807,
            "jez": 2808,
            "fta": 2809,
            "aste": 2810,
            "supar": 2811,
            "tko": 2812,
            "beh": 2813,
            "antse": 2814,
            "meen": 2815,
            "job": 2816,
            "soe": 2817,
            "fay": 2818,
            "unyela": 2819,
            "elsab": 2820,
            "nain": 2821,
            "karnain": 2822,
            "wak": 2823,
            "hman": 2824,
            "rhman": 2825,
            "tolul": 2826,
            "motlat": 2827,
            "peri": 2828,
            "zyg": 2829,
            "asz": 2830,
            "hmd": 2831,
            "nka": 2832,
            "ule": 2833,
            "bot": 2834,
            "agostin": 2835,
            "gbe": 2836,
            "amu": 2837,
            "esah": 2838,
            "idemi": 2839,
            "rigel": 2840,
            "osethu": 2841,
            "gis": 2842,
            "ich": 2843,
            "ntu": 2844,
            "odo": 2845,
            "wija": 2846,
            "endran": 2847,
            "thuko": 2848,
            "phe": 2849,
            "kenale": 2850,
            "tasi": 2851,
            "kavit": 2852,
            "nay": 2853,
            "nafi": 2854,
            "nyan": 2855,
            "ush": 2856,
            "uria": 2857,
            "ude": 2858,
            "sofe": 2859,
            "ori": 2860,
            "ts": 2861,
            "goke": 2862,
            "salo": 2863,
            "shem": 2864,
            "doua": 2865,
            "slo": 2866,
            "ero": 2867,
            "bodan": 2868,
            "afri": 2869,
            "eve": 2870,
            "zik": 2871,
            "moor": 2872,
            "juma": 2873,
            "cliv": 2874,
            "gito": 2875,
            "vaish": 2876,
            "ghese": 2877,
            "emaa": 2878,
            "walo": 2879,
            "zeli": 2880,
            "itan": 2881,
            "pj": 2882,
            "phyll": 2883,
            "hati": 2884,
            "asim": 2885,
            "sibon": 2886,
            "narasim": 2887,
            "fei": 2888,
            "lol": 2889,
            "jaou": 2890,
            "dragu": 2891,
            "torina": 2892,
            "ayobam": 2893,
            "prana": 2894,
            "zvjez": 2895,
            "nim": 2896,
            "masi": 2897,
            "haiq": 2898,
            "gomot": 2899,
            "chal": 2900,
            "oki": 2901,
            "olub": 2902,
            "frit": 2903,
            "iu": 2904,
            "dipan": 2905,
            "sako": 2906,
            "eniusz": 2907,
            "bonna": 2908,
            "apa": 2909,
            "adol": 2910,
            "tinyi": 2911,
            "oab": 2912,
            "shta": 2913,
            "mogang": 2914,
            "megam": 2915,
            "amodimo": 2916,
            "demus": 2917,
            "itshepi": 2918,
            "ethi": 2919,
            "khethi": 2920,
            "ffo": 2921,
            "mana": 2922,
            "sila": 2923,
            "vna": 2924,
            "munt": 2925,
            "dzimierz": 2926,
            "aja": 2927,
            "isetso": 2928,
            "heid": 2929,
            "yip": 2930,
            "hur": 2931,
            "ique": 2932,
            "oli": 2933,
            "kholo": 2934,
            "hirah": 2935,
            "oga": 2936,
            "saq": 2937,
            "neri": 2938,
            "woo": 2939,
            "bari": 2940,
            "taz": 2941,
            "alefa": 2942,
            "ezie": 2943,
            "emel": 2944,
            "hanee": 2945,
            "imy": 2946,
            "bodh": 2947,
            "kelelo": 2948,
            "dharth": 2949,
            "wola": 2950,
            "olayi": 2951,
            "bahu": 2952,
            "diso": 2953,
            "kb": 2954,
            "moat": 2955,
            "atlar": 2956,
            "takal": 2957,
            "keatlar": 2958,
            "buy": 2959,
            "py": 2960,
            "olade": 2961,
            "alene": 2962,
            "ota": 2963,
            "taa": 2964,
            "sivuy": 2965,
            "mahbu": 2966,
            "bekile": 2967,
            "ive": 2968,
            "funo": 2969,
            "gfi": 2970,
            "kgod": 2971,
            "nek": 2972,
            "ysius": 2973,
            "anya": 2974,
            "kaiz": 2975,
            "tidim": 2976,
            "shego": 2977,
            "zuki": 2978,
            "koya": 2979,
            "amaija": 2980,
            "emon": 2981,
            "ktar": 2982,
            "uyo": 2983,
            "quah": 2984,
            "namari": 2985,
            "djell": 2986,
            "isha": 2987,
            "shame": 2988,
            "anael": 2989,
            "omina": 2990,
            "buchi": 2991,
            "obus": 2992,
            "abelo": 2993,
            "boip": 2994,
            "athe": 2995,
            "ndahambel": 2996,
            "vetka": 2997,
            "fjd": 2998,
            "ilyn": 2999,
            "leka": 3000,
            "jv": 3001,
            "cut": 3002,
            "dred": 3003,
            "jandra": 3004,
            "cep": 3005,
            "suwar": 3006,
            "miter": 3007,
            "ireleng": 3008,
            "nyam": 3009,
            "ful": 3010,
            "fek": 3011,
            "mesz": 3012,
            "aros": 3013,
            "cim": 3014,
            "cid": 3015,
            "chho": 3016,
            "gyo": 3017,
            "moide": 3018,
            "ivel": 3019,
            "wlady": 3020,
            "yambeko": 3021,
            "brin": 3022,
            "aib": 3023,
            "aje": 3024,
            "atti": 3025,
            "hamatti": 3026,
            "yinwa": 3027,
            "clet": 3028,
            "belani": 3029,
            "vuyol": 3030,
            "buj": 3031,
            "pertun": 3032,
            "ipho": 3033,
            "lew": 3034,
            "kyer": 3035,
            "delo": 3036,
            "klaud": 3037,
            "annat": 3038,
            "nst": 3039,
            "etz": 3040,
            "hag": 3041,
            "much": 3042,
            "snen": 3043,
            "idor": 3044,
            "jaype": 3045,
            "ulagan": 3046,
            "barulagan": 3047,
            "poola": 3048,
            "helo": 3049,
            "ulelo": 3050,
            "vaness": 3051,
            "gafo": 3052,
            "adeg": 3053,
            "kkie": 3054,
            "liki": 3055,
            "ws": 3056,
            "gom": 3057,
            "ikelao": 3058,
            "tuyen": 3059,
            "bip": 3060,
            "basi": 3061,
            "flav": 3062,
            "kky": 3063,
            "uza": 3064,
            "pias": 3065,
            "uo": 3066,
            "wend": 3067,
            "usou": 3068,
            "bk": 3069,
            "lel": 3070,
            "lwan": 3071,
            "lasar": 3072,
            "siku": 3073,
            "utlwan": 3074,
            "hmi": 3075,
            "siza": 3076,
            "onique": 3077,
            "jue": 3078,
            "mayo": 3079,
            "ilendra": 3080,
            "yv": 3081,
            "ehh": 3082,
            "gha": 3083,
            "gali": 3084,
            "ppa": 3085,
            "weli": 3086,
            "shru": 3087,
            "yok": 3088,
            "ejh": 3089,
            "aka": 3090,
            "iga": 3091,
            "kaya": 3092,
            "szu": 3093,
            "tsak": 3094,
            "yad": 3095,
            "gl": 3096,
            "gomod": 3097,
            "ikin": 3098,
            "kegomod": 3099,
            "szilv": 3100,
            "vine": 3101,
            "lieb": 3102,
            "unji": 3103,
            "fairu": 3104,
            "ukwaya": 3105,
            "dran": 3106,
            "kras": 3107,
            "niqi": 3108,
            "dall": 3109,
            "aph": 3110,
            "wac": 3111,
            "agyi": 3112,
            "folorun": 3113,
            "lala": 3114,
            "rra": 3115,
            "setswe": 3116,
            "olabo": 3117,
            "beri": 3118,
            "lir": 3119,
            "vle": 3120,
            "antha": 3121,
            "ilio": 3122,
            "lushe": 3123,
            "ongwa": 3124,
            "engjel": 3125,
            "loren": 3126,
            "iwo": 3127,
            "ple": 3128,
            "vraj": 3129,
            "ratho": 3130,
            "onora": 3131,
            "emen": 3132,
            "rahaman": 3133,
            "kanhai": 3134,
            "azz": 3135,
            "benhle": 3136,
            "jeni": 3137,
            "hee": 3138,
            "how": 3139,
            "confid": 3140,
            "mosho": 3141,
            "cec": 3142,
            "merced": 3143,
            "shk": 3144,
            "urshid": 3145,
            "luck": 3146,
            "vao": 3147,
            "mes": 3148,
            "suis": 3149,
            "dd": 3150,
            "illa": 3151,
            "janan": 3152,
            "ezslav": 3153,
            "ddg": 3154,
            "muhaim": 3155,
            "csis": 3156,
            "rayo": 3157,
            "shou": 3158,
            "marjet": 3159,
            "unrayo": 3160,
            "velo": 3161,
            "hedvi": 3162,
            "sr": 3163,
            "laz": 3164,
            "diq": 3165,
            "gia": 3166,
            "iya": 3167,
            "moga": 3168,
            "gai": 3169,
            "jeri": 3170,
            "wakh": 3171,
            "mzwakh": 3172,
            "dz": 3173,
            "ljer": 3174,
            "pto": 3175,
            "shka": 3176,
            "kole": 3177,
            "agyap": 3178,
            "olasun": 3179,
            "kanmi": 3180,
            "hmz": 3181,
            "qoba": 3182,
            "prisk": 3183,
            "arbin": 3184,
            "kafu": 3185,
            "fatee": 3186,
            "ndiv": 3187,
            "nav": 3188,
            "huwo": 3189,
            "majl": 3190,
            "lend": 3191,
            "matsh": 3192,
            "biz": 3193,
            "cco": 3194,
            "ipala": 3195,
            "ndi": 3196,
            "qy": 3197,
            "rrag": 3198,
            "isani": 3199,
            "adzi": 3200,
            "kobam": 3201,
            "nehe": 3202,
            "terren": 3203,
            "munyar": 3204,
            "ntombiz": 3205,
            "shyqy": 3206,
            "cos": 3207,
            "nwan": 3208,
            "irus": 3209,
            "baffo": 3210,
            "athen": 3211,
            "imete": 3212,
            "medin": 3213,
            "hok": 3214,
            "moip": 3215,
            "harve": 3216,
            "ifhiwa": 3217,
            "ugelo": 3218,
            "azoo": 3219,
            "ruv": 3220,
            "sala": 3221,
            "fiz": 3222,
            "pis": 3223,
            "anast": 3224,
            "ahe": 3225,
            "iretse": 3226,
            "milola": 3227,
            "jvi": 3228,
            "oak": 3229,
            "qas": 3230,
            "sto": 3231,
            "sidah": 3232,
            "eus": 3233,
            "andjo": 3234,
            "irman": 3235,
            "oby": 3236,
            "maksy": 3237,
            "cr": 3238,
            "jdan": 3239,
            "ual": 3240,
            "yel": 3241,
            "chide": 3242,
            "petual": 3243,
            "mahade": 3244,
            "deka": 3245,
            "egi": 3246,
            "ndea": 3247,
            "khona": 3248,
            "umetse": 3249,
            "poju": 3250,
            "nangom": 3251,
            "kop": 3252,
            "ibade": 3253,
            "fel": 3254,
            "yia": 3255,
            "kolek": 3256,
            "zeka": 3257,
            "ded": 3258,
            "fez": 3259,
            "kayise": 3260,
            "wf": 3261,
            "yc": 3262,
            "ditha": 3263,
            "imo": 3264,
            "msi": 3265,
            "pren": 3266,
            "smil": 3267,
            "eseng": 3268,
            "enao": 3269,
            "aleena": 3270,
            "tshepile": 3271,
            "gem": 3272,
            "tk": 3273,
            "amadh": 3274,
            "diek": 3275,
            "agros": 3276,
            "etseng": 3277,
            "yak": 3278,
            "guo": 3279,
            "jamai": 3280,
            "celo": 3281,
            "resha": 3282,
            "cedisi": 3283,
            "jil": 3284,
            "anor": 3285,
            "alwe": 3286,
            "haing": 3287,
            "rissa": 3288,
            "mpend": 3289,
            "edine": 3290,
            "efe": 3291,
            "ndudu": 3292,
            "oat": 3293,
            "laad": 3294,
            "isano": 3295,
            "ite": 3296,
            "siyam": 3297,
            "monkgo": 3298,
            "otlaad": 3299,
            "wene": 3300,
            "sch": 3301,
            "chor": 3302,
            "agy": 3303,
            "umusa": 3304,
            "charia": 3305,
            "cumi": 3306,
            "ifi": 3307,
            "ncumi": 3308,
            "power": 3309,
            "karu": 3310,
            "dek": 3311,
            "ello": 3312,
            "lemu": 3313,
            "mbin": 3314,
            "shku": 3315,
            "mobile": 3316,
            "etie": 3317,
            "adhu": 3318,
            "olind": 3319,
            "tio": 3320,
            "noa": 3321,
            "ongor": 3322,
            "mbat": 3323,
            "sbo": 3324,
            "ujun": 3325,
            "indon": 3326,
            "ambro": 3327,
            "rapetse": 3328,
            "haw": 3329,
            "ikany": 3330,
            "gaole": 3331,
            "peh": 3332,
            "kgomot": 3333,
            "apart": 3334,
            "ofeek": 3335,
            "inav": 3336,
            "xue": 3337,
            "iri": 3338,
            "vashi": 3339,
            "eya": 3340,
            "ged": 3341,
            "vya": 3342,
            "rislav": 3343,
            "heged": 3344,
            "oduna": 3345,
            "upe": 3346,
            "ampo": 3347,
            "kasi": 3348,
            "andu": 3349,
            "zay": 3350,
            "pop": 3351,
            "roswit": 3352,
            "honora": 3353,
            "hayla": 3354,
            "folas": 3355,
            "kant": 3356,
            "wanga": 3357,
            "zib": 3358,
            "tints": 3359,
            "onja": 3360,
            "shrik": 3361,
            "iusz": 3362,
            "jendra": 3363,
            "nte": 3364,
            "sard": 3365,
            "moula": 3366,
            "dapo": 3367,
            "remig": 3368,
            "yau": 3369,
            "bogang": 3370,
            "gw": 3371,
            "hmo": 3372,
            "aly": 3373,
            "edha": 3374,
            "nima": 3375,
            "biyi": 3376,
            "ashfa": 3377,
            "shigw": 3378,
            "anyan": 3379,
            "olale": 3380,
            "veri": 3381,
            "unanya": 3382,
            "sos": 3383,
            "hua": 3384,
            "uar": 3385,
            "joak": 3386,
            "gih": 3387,
            "eun": 3388,
            "oon": 3389,
            "zhan": 3390,
            "raq": 3391,
            "ert": 3392,
            "chaw": 3393,
            "yotlhe": 3394,
            "mahle": 3395,
            "dyg": 3396,
            "fhiwa": 3397,
            "pk": 3398,
            "iaa": 3399,
            "unas": 3400,
            "zur": 3401,
            "das": 3402,
            "vair": 3403,
            "ponja": 3404,
            "dete": 3405,
            "ebe": 3406,
            "yand": 3407,
            "iminda": 3408,
            "luzv": 3409,
            "nosiph": 3410,
            "butrin": 3411,
            "kwah": 3412,
            "ogunle": 3413,
            "bris": 3414,
            "shari": 3415,
            "uhan": 3416,
            "choua": 3417,
            "cai": 3418,
            "yue": 3419,
            "famodimo": 3420,
            "kvet": 3421,
            "wanelo": 3422,
            "kwashe": 3423,
            "teofel": 3424,
            "unke": 3425,
            "diswa": 3426,
            "issi": 3427,
            "thola": 3428,
            "arikat": 3429,
            "umal": 3430,
            "kelani": 3431,
            "bia": 3432,
            "rele": 3433,
            "sisi": 3434,
            "ieu": 3435,
            "turie": 3436,
            "serxh": 3437,
            "bohile": 3438,
            "echi": 3439,
            "kusu": 3440,
            "nama": 3441,
            "yala": 3442,
            "rii": 3443,
            "rius": 3444,
            "erges": 3445,
            "maris": 3446,
            "gorius": 3447,
            "phile": 3448,
            "engu": 3449,
            "wiek": 3450,
            "giphile": 3451,
            "sbah": 3452,
            "cale": 3453,
            "prim": 3454,
            "xane": 3455,
            "liga": 3456,
            "ld": 3457,
            "nna": 3458,
            "come": 3459,
            "fja": 3460,
            "ksa": 3461,
            "qtr": 3462,
            "elfri": 3463,
            "manjun": 3464,
            "hade": 3465,
            "vete": 3466,
            "dnyan": 3467,
            "attil": 3468,
            "irfa": 3469,
            "eshwar": 3470,
            "hann": 3471,
            "epa": 3472,
            "fras": 3473,
            "vene": 3474,
            "chta": 3475,
            "dawo": 3476,
            "boph": 3477,
            "dyl": 3478,
            "wish": 3479,
            "weletse": 3480,
            "ganedi": 3481,
            "lhodi": 3482,
            "adesan": 3483,
            "bena": 3484,
            "cus": 3485,
            "arna": 3486,
            "rosha": 3487,
            "kou": 3488,
            "fin": 3489,
            "uush": 3490,
            "alh": 3491,
            "haid": 3492,
            "vincen": 3493,
            "iora": 3494,
            "biso": 3495,
            "mry": 3496,
            "rhul": 3497,
            "sith": 3498,
            "tch": 3499,
            "aderi": 3500,
            "unba": 3501,
            "boo": 3502,
            "embiso": 3503,
            "jepo": 3504,
            "bry": 3505,
            "eladi": 3506,
            "andzeli": 3507,
            "syuh": 3508,
            "kyo": 3509,
            "amangwe": 3510,
            "onti": 3511,
            "ticha": 3512,
            "phine": 3513,
            "odor": 3514,
            "etsegang": 3515,
            "gebh": 3516,
            "wier": 3517,
            "nuuyo": 3518,
            "bjor": 3519,
            "chah": 3520,
            "artha": 3521,
            "ilid": 3522,
            "lahi": 3523,
            "adda": 3524,
            "dipo": 3525,
            "gayat": 3526,
            "tshilid": 3527,
            "rc": 3528,
            "enji": 3529,
            "thenji": 3530,
            "oniyi": 3531,
            "mwen": 3532,
            "ssa": 3533,
            "ambo": 3534,
            "ryl": 3535,
            "salvad": 3536,
            "akor": 3537,
            "tisam": 3538,
            "lsa": 3539,
            "mpa": 3540,
            "arewa": 3541,
            "elbas": 3542,
            "edz": 3543,
            "adete": 3544,
            "olarewa": 3545,
            "taza": 3546,
            "sylej": 3547,
            "segang": 3548,
            "uth": 3549,
            "kafa": 3550,
            "rushik": 3551,
            "guz": 3552,
            "olug": 3553,
            "emz": 3554,
            "oslava": 3555,
            "iliyas": 3556,
            "bag": 3557,
            "jd": 3558,
            "iseka": 3559,
            "andin": 3560,
            "kost": 3561,
            "sewer": 3562,
            "yayu": 3563,
            "oei": 3564,
            "celi": 3565,
            "gida": 3566,
            "mmad": 3567,
            "vard": 3568,
            "vusu": 3569,
            "zta": 3570,
            "alzi": 3571,
            "khitha": 3572,
            "ose": 3573,
            "amola": 3574,
            "ifred": 3575,
            "damola": 3576,
            "rrez": 3577,
            "hamd": 3578,
            "diong": 3579,
            "murit": 3580,
            "ezim": 3581,
            "gad": 3582,
            "jis": 3583,
            "mha": 3584,
            "obon": 3585,
            "enyon": 3586,
            "maiz": 3587,
            "usego": 3588,
            "face": 3589,
            "ifele": 3590,
            "kwart": 3591,
            "premy": 3592,
            "yendra": 3593,
            "zda": 3594,
            "dashu": 3595,
            "sieg": 3596,
            "sava": 3597,
            "rukh": 3598,
            "basav": 3599,
            "fried": 3600,
            "jeli": 3601,
            "ibuk": 3602,
            "akind": 3603,
            "zula": 3604,
            "thivel": 3605,
            "tomor": 3606,
            "ikha": 3607,
            "gyi": 3608,
            "sg": 3609,
            "wes": 3610,
            "xole": 3611,
            "esit": 3612,
            "hama": 3613,
            "idong": 3614,
            "domon": 3615,
            "tuyol": 3616,
            "sahad": 3617,
            "hing": 3618,
            "anurad": 3619,
            "inde": 3620,
            "molebog": 3621,
            "asamy": 3622,
            "sudin": 3623,
            "nedil": 3624,
            "welo": 3625,
            "zz": 3626,
            "kagel": 3627,
            "baft": 3628,
            "bio": 3629,
            "gum": 3630,
            "ukam": 3631,
            "mini": 3632,
            "nwo": 3633,
            "tlieb": 3634,
            "tiar": 3635,
            "yao": 3636,
            "harto": 3637,
            "csa": 3638,
            "gusz": 3639,
            "onda": 3640,
            "isse": 3641,
            "urama": 3642,
            "debas": 3643,
            "prasen": 3644,
            "fee": 3645,
            "sor": 3646,
            "eshi": 3647,
            "gla": 3648,
            "kbir": 3649,
            "seni": 3650,
            "raki": 3651,
            "szimon": 3652,
            "khum": 3653,
            "ifer": 3654,
            "senifer": 3655,
            "bulani": 3656,
            "bolo": 3657,
            "mmus": 3658,
            "volo": 3659,
            "enng": 3660,
            "ravan": 3661,
            "shat": 3662,
            "idzai": 3663,
            "gaof": 3664,
            "rumb": 3665,
            "wig": 3666,
            "tosho": 3667,
            "enngwe": 3668,
            "wabisi": 3669,
            "enia": 3670,
            "miya": 3671,
            "cun": 3672,
            "rison": 3673,
            "nket": 3674,
            "sharm": 3675,
            "chaf": 3676,
            "asande": 3677,
            "apar": 3678,
            "llum": 3679,
            "ndo": 3680,
            "yede": 3681,
            "mije": 3682,
            "umba": 3683,
            "hepo": 3684,
            "mens": 3685,
            "jacin": 3686,
            "nafis": 3687,
            "efi": 3688,
            "motshe": 3689,
            "rahem": 3690,
            "buike": 3691,
            "okun": 3692,
            "ganyo": 3693,
            "getsi": 3694,
            "cing": 3695,
            "vela": 3696,
            "modie": 3697,
            "itte": 3698,
            "dakal": 3699,
            "kirah": 3700,
            "darwis": 3701,
            "bronis": 3702,
            "mwa": 3703,
            "pud": 3704,
            "uco": 3705,
            "uram": 3706,
            "sutik": 3707,
            "grac": 3708,
            "bim": 3709,
            "fjor": 3710,
            "ghaz": 3711,
            "arad": 3712,
            "adebim": 3713,
            "zaharad": 3714,
            "spo": 3715,
            "menka": 3716,
            "eid": 3717,
            "kru": 3718,
            "shna": 3719,
            "kamani": 3720,
            "stime": 3721,
            "emeh": 3722,
            "cquel": 3723,
            "dmit": 3724,
            "op": 3725,
            "lato": 3726,
            "kudu": 3727,
            "prise": 3728,
            "nhan": 3729,
            "nkul": 3730,
            "onuo": 3731,
            "adeer": 3732,
            "pjer": 3733,
            "haan": 3734,
            "mushta": 3735,
            "olayan": 3736,
            "hannat": 3737,
            "shashik": 3738,
            "oto": 3739,
            "zat": 3740,
            "makin": 3741,
            "gho": 3742,
            "wabile": 3743,
            "jagan": 3744,
            "nazu": 3745,
            "noh": 3746,
            "tiao": 3747,
            "ftar": 3748,
            "imaa": 3749,
            "sed": 3750,
            "nontsi": 3751,
            "udo": 3752,
            "veni": 3753,
            "lako": 3754,
            "saje": 3755,
            "zue": 3756,
            "golo": 3757,
            "mth": 3758,
            "nti": 3759,
            "try": 3760,
            "wld": 3761,
            "eledi": 3762,
            "alakan": 3763,
            "makal": 3764,
            "abunmi": 3765,
            "atijah": 3766,
            "atinu": 3767,
            "atshego": 3768,
            "ulane": 3769,
            "sek": 3770,
            "semakal": 3771,
            "unzi": 3772,
            "botse": 3773,
            "ekum": 3774,
            "okete": 3775,
            "awi": 3776,
            "jala": 3777,
            "mwene": 3778,
            "thfi": 3779,
            "pax": 3780,
            "eks": 3781,
            "twa": 3782,
            "up": 3783,
            "aduse": 3784,
            "tej": 3785,
            "luig": 3786,
            "jt": 3787,
            "laume": 3788,
            "jaw": 3789,
            "tomis": 3790,
            "kujt": 3791,
            "awin": 3792,
            "gist": 3793,
            "krat": 3794,
            "mzuk": 3795,
            "vrat": 3796,
            "lade": 3797,
            "esela": 3798,
            "lamulo": 3799,
            "aad": 3800,
            "bisa": 3801,
            "fhd": 3802,
            "gco": 3803,
            "keni": 3804,
            "yelihle": 3805,
            "joolo": 3806,
            "muyi": 3807,
            "ikwa": 3808,
            "asiku": 3809,
            "ndapun": 3810,
            "sekh": 3811,
            "kno": 3812,
            "lha": 3813,
            "mph": 3814,
            "ps": 3815,
            "tw": 3816,
            "vus": 3817,
            "zhu": 3818,
            "mogor": 3819,
            "mishe": 3820,
            "eto": 3821,
            "sikelelo": 3822,
            "ineetse": 3823,
            "fays": 3824,
            "dos": 3825,
            "khole": 3826,
            "umzi": 3827,
            "loreta": 3828,
            "godkno": 3829,
            "anoint": 3830,
            "cer": 3831,
            "iel": 3832,
            "nith": 3833,
            "ntso": 3834,
            "asyi": 3835,
            "sidi": 3836,
            "zafi": 3837,
            "neet": 3838,
            "efj": 3839,
            "czar": 3840,
            "dila": 3841,
            "rjo": 3842,
            "ukh": 3843,
            "kagi": 3844,
            "jot": 3845,
            "muyen": 3846,
            "salau": 3847,
            "pion": 3848,
            "hafela": 3849,
            "boyega": 3850,
            "rath": 3851,
            "ivoj": 3852,
            "aleel": 3853,
            "rho": 3854,
            "anj": 3855,
            "seben": 3856,
            "empr": 3857,
            "elomo": 3858,
            "vaci": 3859,
            "salvaci": 3860,
            "lalb": 3861,
            "sng": 3862,
            "svit": 3863,
            "tofer": 3864,
            "dukag": 3865,
            "eesh": 3866,
            "ozie": 3867,
            "inatu": 3868,
            "amak": 3869,
            "lae": 3870,
            "laks": 3871,
            "ems": 3872,
            "surat": 3873,
            "jennel": 3874,
            "dzai": 3875,
            "ebogo": 3876,
            "tesz": 3877,
            "onka": 3878,
            "kail": 3879,
            "ollah": 3880,
            "somo": 3881,
            "gwan": 3882,
            "hol": 3883,
            "rant": 3884,
            "arajan": 3885,
            "llaz": 3886,
            "twu": 3887,
            "vllaz": 3888,
            "ragi": 3889,
            "shrad": 3890,
            "tav": 3891,
            "osun": 3892,
            "gracin": 3893,
            "pirit": 3894,
            "hvi": 3895,
            "opar": 3896,
            "ujj": 3897,
            "enyi": 3898,
            "ervo": 3899,
            "mahbo": 3900,
            "ax": 3901,
            "drim": 3902,
            "evo": 3903,
            "hini": 3904,
            "kthula": 3905,
            "qri": 3906,
            "qais": 3907,
            "yolo": 3908,
            "katok": 3909,
            "iasz": 3910,
            "nasi": 3911,
            "itul": 3912,
            "boxolo": 3913,
            "tuye": 3914,
            "protasi": 3915,
            "anok": 3916,
            "ilesan": 3917,
            "chaba": 3918,
            "sanji": 3919,
            "szcze": 3920,
            "douh": 3921,
            "zenna": 3922,
            "nedjel": 3923,
            "jhe": 3924,
            "oura": 3925,
            "shath": 3926,
            "reck": 3927,
            "khumi": 3928,
            "bexh": 3929,
            "honoura": 3930,
            "srine": 3931,
            "zulkef": 3932,
            "titilo": 3933,
            "lle": 3934,
            "mmai": 3935,
            "owe": 3936,
            "modes": 3937,
            "romu": 3938,
            "ekye": 3939,
            "yukw": 3940,
            "wellyn": 3941,
            "genowe": 3942,
            "nyanyukw": 3943,
            "itra": 3944,
            "sebes": 3945,
            "tyen": 3946,
            "yasamy": 3947,
            "ppiah": 3948,
            "kta": 3949,
            "vlor": 3950,
            "enko": 3951,
            "abata": 3952,
            "moumi": 3953,
            "joub": 3954,
            "solay": 3955,
            "coura": 3956,
            "begu": 3957,
            "firdaw": 3958,
            "nedel": 3959,
            "anastasi": 3960,
            "avel": 3961,
            "jl": 3962,
            "reta": 3963,
            "onca": 3964,
            "manzo": 3965,
            "eku": 3966,
            "hasbul": 3967,
            "adish": 3968,
            "fale": 3969,
            "mnq": 3970,
            "panga": 3971,
            "ameno": 3972,
            "adetu": 3973,
            "pawa": 3974,
            "siyas": 3975,
            "lukit": 3976,
            "muku": 3977,
            "sukam": 3978,
            "sono": 3979,
            "mss": 3980,
            "dhd": 3981,
            "vadar": 3982,
            "elwe": 3983,
            "kao": 3984,
            "ado": 3985,
            "itah": 3986,
            "itiretse": 3987,
            "gofi": 3988,
            "patile": 3989,
            "yego": 3990,
            "limon": 3991,
            "palelwe": 3992,
            "wenyego": 3993,
            "bhe": 3994,
            "nz": 3995,
            "uoma": 3996,
            "rasy": 3997,
            "nawi": 3998,
            "thir": 3999,
            "safi": 4000,
            "soum": 4001,
            "cii": 4002,
            "freke": 4003,
            "fki": 4004,
            "ige": 4005,
            "alem": 4006,
            "seer": 4007,
            "inera": 4008,
            "crt": 4009,
            "eam": 4010,
            "shoo": 4011,
            "koo": 4012,
            "rehab": 4013,
            "tuyaku": 4014,
            "pewo": 4015,
            "ndapewo": 4016,
            "mudzo": 4017,
            "dise": 4018,
            "jelo": 4019,
            "uy": 4020,
            "wesi": 4021,
            "xa": 4022,
            "inaka": 4023,
            "thjesh": 4024,
            "roga": 4025,
            "unj": 4026,
            "adeban": 4027,
            "lorin": 4028,
            "avuy": 4029,
            "prah": 4030,
            "tando": 4031,
            "cee": 4032,
            "band": 4033,
            "broz": 4034,
            "oyed": 4035,
            "alom": 4036,
            "moren": 4037,
            "andle": 4038,
            "ckam": 4039,
            "vacla": 4040,
            "ikeji": 4041,
            "hler": 4042,
            "jsa": 4043,
            "mbi": 4044,
            "uw": 4045,
            "uba": 4046,
            "zsar": 4047,
            "anani": 4048,
            "moag": 4049,
            "boika": 4050,
            "bojsa": 4051,
            "lovu": 4052,
            "adeyan": 4053,
            "ganyi": 4054,
            "bite": 4055,
            "ajo": 4056,
            "gri": 4057,
            "jila": 4058,
            "uah": 4059,
            "unrul": 4060,
            "sikon": 4061,
            "abdelo": 4062,
            "juxh": 4063,
            "popi": 4064,
            "khayal": 4065,
            "uahed": 4066,
            "dum": 4067,
            "wor": 4068,
            "zla": 4069,
            "inio": 4070,
            "raini": 4071,
            "shres": 4072,
            "dirat": 4073,
            "soula": 4074,
            "szo": 4075,
            "faze": 4076,
            "icka": 4077,
            "bosun": 4078,
            "news": 4079,
            "olatun": 4080,
            "ezo": 4081,
            "bhab": 4082,
            "ees": 4083,
            "hbi": 4084,
            "lun": 4085,
            "erem": 4086,
            "pap": 4087,
            "ariikka": 4088,
            "zoe": 4089,
            "ckaria": 4090,
            "dud": 4091,
            "ega": 4092,
            "fas": 4093,
            "ffa": 4094,
            "hwan": 4095,
            "menc": 4096,
            "qib": 4097,
            "ydi": 4098,
            "esya": 4099,
            "naqib": 4100,
            "sebl": 4101,
            "undai": 4102,
            "mukh": 4103,
            "julai": 4104,
            "olagun": 4105,
            "radhesh": 4106,
            "istyo": 4107,
            "ukeni": 4108,
            "fisa": 4109,
            "folu": 4110,
            "lona": 4111,
            "nuut": 4112,
            "gile": 4113,
            "geng": 4114,
            "giso": 4115,
            "uthu": 4116,
            "zsig": 4117,
            "marim": 4118,
            "kakan": 4119,
            "moitshe": 4120,
            "seraf": 4121,
            "gaok": 4122,
            "gakal": 4123,
            "lahs": 4124,
            "ompon": 4125,
            "gane": 4126,
            "ikeyan": 4127,
            "gaokgakal": 4128,
            "dei": 4129,
            "hrete": 4130,
            "eho": 4131,
            "oden": 4132,
            "elem": 4133,
            "dux": 4134,
            "babaj": 4135,
            "ombe": 4136,
            "geller": 4137,
            "ein": 4138,
            "rajit": 4139,
            "anuju": 4140,
            "igna": 4141,
            "boluwat": 4142,
            "vag": 4143,
            "anko": 4144,
            "fiong": 4145,
            "yudu": 4146,
            "ariah": 4147,
            "arabe": 4148,
            "gav": 4149,
            "adewu": 4150,
            "bias": 4151,
            "mem": 4152,
            "obe": 4153,
            "qso": 4154,
            "talo": 4155,
            "vasi": 4156,
            "main": 4157,
            "maqso": 4158,
            "shon": 4159,
            "miklo": 4160,
            "romay": 4161,
            "gervasi": 4162,
            "jerobe": 4163,
            "bant": 4164,
            "badi": 4165,
            "ls": 4166,
            "nn": 4167,
            "nchid": 4168,
            "pedi": 4169,
            "amiso": 4170,
            "enot": 4171,
            "rapedi": 4172,
            "onkag": 4173,
            "rile": 4174,
            "maitse": 4175,
            "orene": 4176,
            "kolob": 4177,
            "tiraf": 4178,
            "kebab": 4179,
            "osenot": 4180,
            "efo": 4181,
            "ayyap": 4182,
            "tlhole": 4183,
            "fufa": 4184,
            "dhir": 4185,
            "psa": 4186,
            "qeel": 4187,
            "vri": 4188,
            "wy": 4189,
            "zhar": 4190,
            "adeta": 4191,
            "itun": 4192,
            "irete": 4193,
            "abdera": 4194,
            "ekar": 4195,
            "inee": 4196,
            "terezi": 4197,
            "bigbe": 4198,
            "hada": 4199,
            "nsi": 4200,
            "seh": 4201,
            "teek": 4202,
            "sukan": 4203,
            "nyi": 4204,
            "ouf": 4205,
            "eju": 4206,
            "kti": 4207,
            "msta": 4208,
            "nus": 4209,
            "nini": 4210,
            "qou": 4211,
            "kaak": 4212,
            "edou": 4213,
            "jap": 4214,
            "kodie": 4215,
            "tot": 4216,
            "alija": 4217,
            "yaqou": 4218,
            "sanje": 4219,
            "nomo": 4220,
            "oky": 4221,
            "yire": 4222,
            "kaar": 4223,
            "chaz": 4224,
            "imbi": 4225,
            "lysia": 4226,
            "nelde": 4227,
            "aara": 4228,
            "nneo": 4229,
            "rhi": 4230,
            "shkol": 4231,
            "thal": 4232,
            "komola": 4233,
            "reig": 4234,
            "oui": 4235,
            "ebatso": 4236,
            "ophi": 4237,
            "pile": 4238,
            "pant": 4239,
            "tty": 4240,
            "ambr": 4241,
            "raza": 4242,
            "moalo": 4243,
            "molat": 4244,
            "atha": 4245,
            "lefo": 4246,
            "unang": 4247,
            "goeme": 4248,
            "bood": 4249,
            "loj": 4250,
            "hankar": 4251,
            "keolo": 4252,
            "welelo": 4253,
            "boles": 4254,
            "dend": 4255,
            "tjon": 4256,
            "eds": 4257,
            "dije": 4258,
            "siu": 4259,
            "yoj": 4260,
            "racio": 4261,
            "issal": 4262,
            "usalem": 4263,
            "hamba": 4264,
            "hanshu": 4265,
            "negum": 4266,
            "naapop": 4267,
            "graci": 4268,
            "danlam": 4269,
            "beli": 4270,
            "gje": 4271,
            "rja": 4272,
            "wia": 4273,
            "maring": 4274,
            "olorun": 4275,
            "bolarin": 4276,
            "jmi": 4277,
            "rtko": 4278,
            "tv": 4279,
            "armen": 4280,
            "etislav": 4281,
            "isag": 4282,
            "tohe": 4283,
            "karya": 4284,
            "abueze": 4285,
            "malek": 4286,
            "mst": 4287,
            "pie": 4288,
            "slim": 4289,
            "shena": 4290,
            "kase": 4291,
            "abia": 4292,
            "dipe": 4293,
            "tiel": 4294,
            "tiraq": 4295,
            "mudu": 4296,
            "zafer": 4297,
            "azza": 4298,
            "shau": 4299,
            "wyk": 4300,
            "dis": 4301,
            "mba": 4302,
            "stu": 4303,
            "uan": 4304,
            "inam": 4305,
            "onkg": 4306,
            "andran": 4307,
            "tiroy": 4308,
            "ekes": 4309,
            "agba": 4310,
            "kebad": 4311,
            "ramach": 4312,
            "hom": 4313,
            "hodi": 4314,
            "olotse": 4315,
            "iol": 4316,
            "qile": 4317,
            "usia": 4318,
            "hangi": 4319,
            "aey": 4320,
            "ym": 4321,
            "yibu": 4322,
            "enu": 4323,
            "chym": 4324,
            "boaa": 4325,
            "jennil": 4326,
            "essen": 4327,
            "forgiv": 4328,
            "cler": 4329,
            "flak": 4330,
            "gros": 4331,
            "ihu": 4332,
            "iip": 4333,
            "pung": 4334,
            "sret": 4335,
            "rial": 4336,
            "marno": 4337,
            "esk": 4338,
            "gola": 4339,
            "bohd": 4340,
            "suah": 4341,
            "supra": 4342,
            "neez": 4343,
            "harjon": 4344,
            "dymyr": 4345,
            "afar": 4346,
            "aras": 4347,
            "amand": 4348,
            "ercia": 4349,
            "moy": 4350,
            "karsh": 4351,
            "hew": 4352,
            "arow": 4353,
            "boub": 4354,
            "gapor": 4355,
            "singapor": 4356,
            "zuzan": 4357,
            "efd": 4358,
            "slm": 4359,
            "jhap": 4360,
            "roshe": 4361,
            "rojit": 4362,
            "dosh": 4363,
            "nyl": 4364,
            "bisho": 4365,
            "mahfo": 4366,
            "bale": 4367,
            "bedi": 4368,
            "git": 4369,
            "lda": 4370,
            "yame": 4371,
            "enyin": 4372,
            "chdi": 4373,
            "esang": 4374,
            "sebah": 4375,
            "goope": 4376,
            "mubar": 4377,
            "ikantse": 4378,
            "domo": 4379,
            "shaki": 4380,
            "tlotl": 4381,
            "bw": 4382,
            "braj": 4383,
            "hina": 4384,
            "mwad": 4385,
            "sku": 4386,
            "ueri": 4387,
            "uug": 4388,
            "zene": 4389,
            "eld": 4390,
            "miku": 4391,
            "isas": 4392,
            "shapum": 4393,
            "kambon": 4394,
            "mitraq": 4395,
            "mp": 4396,
            "pen": 4397,
            "praj": 4398,
            "aling": 4399,
            "eres": 4400,
            "chala": 4401,
            "iss": 4402,
            "roha": 4403,
            "ramaling": 4404,
            "anteng": 4405,
            "thomp": 4406,
            "penchala": 4407,
            "evic": 4408,
            "gari": 4409,
            "zho": 4410,
            "shti": 4411,
            "anthi": 4412,
            "endyshe": 4413,
            "aikin": 4414,
            "hri": 4415,
            "oom": 4416,
            "yne": 4417,
            "doy": 4418,
            "lye": 4419,
            "hoe": 4420,
            "resia": 4421,
            "umo": 4422,
            "uend": 4423,
            "uetu": 4424,
            "risha": 4425,
            "rietha": 4426,
            "nakan": 4427,
            "ahire": 4428,
            "jii": 4429,
            "entia": 4430,
            "zejen": 4431,
            "jiv": 4432,
            "yra": 4433,
            "nagar": 4434,
            "luo": 4435,
            "doe": 4436,
            "zei": 4437,
            "apo": 4438,
            "elik": 4439,
            "sayn": 4440,
            "bhi": 4441,
            "ukas": 4442,
            "ahari": 4443,
            "avdh": 4444,
            "snr": 4445,
            "abderraz": 4446,
            "cso": 4447,
            "mrin": 4448,
            "upa": 4449,
            "enga": 4450,
            "kava": 4451,
            "ulu": 4452,
            "daim": 4453,
            "ekulu": 4454,
            "namten": 4455,
            "urang": 4456,
            "mmi": 4457,
            "vjer": 4458,
            "sheen": 4459,
            "djo": 4460,
            "fti": 4461,
            "makw": 4462,
            "naou": 4463,
            "bouta": 4464,
            "abdlil": 4465,
            "mhm": 4466,
            "jek": 4467,
            "odrag": 4468,
            "ateni": 4469,
            "hamuko": 4470,
            "undu": 4471,
            "mdm": 4472,
            "beuk": 4473,
            "cef": 4474,
            "sume": 4475,
            "jemaa": 4476,
            "bida": 4477,
            "hara": 4478,
            "husz": 4479,
            "igh": 4480,
            "kyll": 4481,
            "amaz": 4482,
            "idoo": 4483,
            "bita": 4484,
            "cud": 4485,
            "csar": 4486,
            "dnar": 4487,
            "fni": 4488,
            "ztor": 4489,
            "arere": 4490,
            "enbi": 4491,
            "mikha": 4492,
            "koku": 4493,
            "tago": 4494,
            "phina": 4495,
            "pety": 4496,
            "nokoku": 4497,
            "utale": 4498,
            "utapo": 4499,
            "het": 4500,
            "adir": 4501,
            "tei": 4502,
            "demok": 4503,
            "cas": 4504,
            "groz": 4505,
            "wladys": 4506,
            "csk": 4507,
            "fim": 4508,
            "kecsk": 4509,
            "meal": 4510,
            "kwt": 4511,
            "egj": 4512,
            "bosil": 4513,
            "afo": 4514,
            "gjim": 4515,
            "otu": 4516,
            "sf": 4517,
            "shatu": 4518,
            "moulo": 4519,
            "anasz": 4520,
            "tazia": 4521,
            "urh": 4522,
            "liud": 4523,
            "ppaiah": 4524,
            "teti": 4525,
            "joua": 4526,
            "abdess": 4527,
            "jibach": 4528,
            "djur": 4529,
            "eur": 4530,
            "eter": 4531,
            "assun": 4532,
            "reira": 4533,
            "cao": 4534,
            "coeur": 4535,
            "jica": 4536,
            "baranya": 4537,
            "meuni": 4538,
            "vlasti": 4539,
            "djurd": 4540,
            "pluk": 4541,
            "rda": 4542,
            "spe": 4543,
            "kajet": 4544,
            "izen": 4545,
            "atopluk": 4546,
            "kyi": 4547,
            "lgo": 4548,
            "lhs": 4549,
            "obo": 4550,
            "bohun": 4551,
            "qka": 4552,
            "toum": 4553,
            "atka": 4554,
            "asza": 4555,
            "hjr": 4556,
            "hulu": 4557,
            "ssm": 4558,
            "kke": 4559,
            "anat": 4560,
            "pany": 4561,
            "ankam": 4562,
            "amg": 4563,
            "iako": 4564,
            "itey": 4565,
            "olim": 4566,
            "bjon": 4567,
            "fres": 4568,
            "edade": 4569,
            "chame": 4570,
            "tovao": 4571,
            "wahd": 4572,
            "casi": 4573,
            "nwe": 4574,
            "vick": 4575,
            "iku": 4576,
            "pad": 4577,
            "silves": 4578,
            "pepin": 4579,
            "krm": 4580,
            "fus": 4581,
            "njen": 4582,
            "elyi": 4583,
            "urat": 4584,
            "balle": 4585,
            "gyes": 4586,
            "acs": 4587,
            "famo": 4588,
            "kabi": 4589,
            "adjo": 4590,
            "degra": 4591,
            "heen": 4592,
            "aca": 4593,
            "bik": 4594,
            "clen": 4595,
            "illah": 4596,
            "mawu": 4597,
            "hamer": 4598,
            "sier": 4599,
            "borbel": 4600,
            "zlati": 4601,
            "dacos": 4602,
            "keresz": 4603,
            "zsu": 4604,
            "ill": 4605,
            "mote": 4606,
            "tymote": 4607,
            "jna": 4608,
            "twene": 4609,
            "yha": 4610,
            "imte": 4611,
            "agyen": 4612,
            "cika": 4613,
            "dt": 4614,
            "hna": 4615,
            "midt": 4616,
            "yaad": 4617,
            "licin": 4618,
            "akak": 4619,
            "ffie": 4620,
            "alcin": 4621,
            "riti": 4622,
            "abran": 4623,
            "abea": 4624,
            "emed": 4625,
            "obaaya": 4626,
            "qwa": 4627,
            "amena": 4628,
            "zm": 4629,
            "aljka": 4630,
            "esie": 4631,
            "awo": 4632,
            "dmy": 4633,
            "tro": 4634,
            "usset": 4635,
            "rousset": 4636,
            "tell": 4637,
            "ucine": 4638,
            "haq": 4639,
            "azar": 4640,
            "zuhay": 4641,
            "ffe": 4642,
            "jmaa": 4643,
            "mm": 4644,
            "caffe": 4645,
            "sheini": 4646,
            "dadi": 4647,
            "slad": 4648,
            "wlad": 4649,
            "ellin": 4650,
            "riit": 4651,
            "oora": 4652,
            "fry": 4653,
            "ghafo": 4654,
            "lhak": 4655,
            "cson": 4656,
            "osz": 4657,
            "orka": 4658,
            "bdr": 4659,
            "fle": 4660,
            "oza": 4661,
            "yman": 4662,
            "dimir": 4663,
            "nha": 4664,
            "ziv": 4665,
            "ador": 4666,
            "apra": 4667,
            "fett": 4668,
            "ure": 4669,
            "wanee": 4670,
            "zezin": 4671,
            "ptey": 4672,
            "swas": 4673,
            "ucz": 4674,
            "intis": 4675,
            "joom": 4676,
            "adjet": 4677,
            "lovor": 4678,
            "stasi": 4679,
            "ltif": 4680,
            "xid": 4681,
            "zk": 4682,
            "zsi": 4683,
            "amii": 4684,
            "ussain": 4685,
            "irsha": 4686,
            "harat": 4687,
            "csor": 4688,
            "bohu": 4689,
            "smo": 4690,
            "tad": 4691,
            "zane": 4692,
            "ulf": 4693,
            "itto": 4694,
            "rofi": 4695,
            "aszar": 4696,
            "recija": 4697,
            "szeg": 4698,
            "szig": 4699,
            "cana": 4700,
            "ion": 4701,
            "tmir": 4702,
            "yzz": 4703,
            "abot": 4704,
            "youna": 4705,
            "enam": 4706,
            "chmee": 4707,
            "iszi": 4708,
            "asir": 4709,
            "unyo": 4710,
            "siv": 4711,
            "katery": 4712,
            "redeem": 4713,
            "him": 4714,
            "chur": 4715,
            "adoo": 4716,
            "ramchur": 4717,
            "sallam": 4718,
            "stro": 4719,
            "bdo": 4720,
            "pold": 4721,
            "alay": 4722,
            "etor": 4723,
            "dogbe": 4724,
            "ossef": 4725,
            "hii": 4726,
            "fosua": 4727,
            "icu": 4728,
            "dhoo": 4729,
            "lkrim": 4730,
            "vok": 4731,
            "orvok": 4732,
            "siwaa": 4733,
            "devan": 4734,
            "jza": 4735,
            "ll": 4736,
            "vani": 4737,
            "uszi": 4738,
            "ollo": 4739,
            "ikhla": 4740,
            "szollo": 4741,
            "csu": 4742,
            "ishi": 4743,
            "ivik": 4744,
            "nv": 4745,
            "nariikka": 4746,
            "rzak": 4747,
            "paivik": 4748,
            "pernil": 4749,
            "zenko": 4750,
            "cray": 4751,
            "arasz": 4752,
            "andjel": 4753,
            "hercze": 4754,
            "kre": 4755,
            "smaa": 4756,
            "winee": 4757,
            "ichra": 4758,
            "opg": 4759,
            "szidon": 4760,
            "bakon": 4761,
            "mirtil": 4762,
            "bbe": 4763,
            "mung": 4764,
            "uii": 4765,
            "veig": 4766,
            "zsak": 4767,
            "encser": 4768,
            "sada": 4769,
            "dobri": 4770,
            "iiv": 4771,
            "sza": 4772,
            "sio": 4773,
            "vics": 4774,
            "cup": 4775,
            "jlo": 4776,
            "anee": 4777,
            "armo": 4778,
            "intu": 4779,
            "jaj": 4780,
            "bov": 4781,
            "oktaw": 4782,
            "ogum": 4783,
            "kiril": 4784,
            "vesz": 4785,
            "abas": 4786,
            "ors": 4787,
            "nee": 4788,
            "shaye": 4789,
            "zab": 4790,
            "chmun": 4791,
            "salone": 4792,
            "wery": 4793,
            "intia": 4794,
            "radi": 4795,
            "rob": 4796,
            "kra": 4797,
            "srd": 4798,
            "csal": 4799,
            "pek": 4800,
            "zka": 4801,
            "maromi": 4802,
            "ados": 4803,
            "sebo": 4804,
            "ceg": 4805,
            "vai": 4806,
            "podin": 4807,
            "hornya": 4808,
            "itus": 4809,
            "ibor": 4810,
            "csiz": 4811,
            "jk": 4812,
            "kt": 4813,
            "vra": 4814,
            "rast": 4815,
            "madia": 4816,
            "devit": 4817,
            "benedy": 4818,
            "ibi": 4819,
            "peli": 4820,
            "sko": 4821,
            "iit": 4822,
            "kapit": 4823,
            "tua": 4824,
            "gara": 4825,
            "vari": 4826,
            "alas": 4827,
            "yai": 4828,
            "gacs": 4829,
            "tuse": 4830,
            "miesz": 4831,
            "ffan": 4832,
            "arvas": 4833,
            "vig": 4834,
            "vat": 4835,
            "veta": 4836,
            "bereni": 4837,
            "roslav": 4838,
            "jusz": 4839,
            "yosi": 4840,
            "meliss": 4841,
            "oner": 4842,
            "zije": 4843,
            "pimir": 4844,
            "aat": 4845,
            "yhar": 4846,
            "menyhar": 4847,
            "lik": 4848,
            "tomin": 4849,
            "gec": 4850,
            "pica": 4851,
            "ebas": 4852,
            "ujv": 4853,
            "zson": 4854,
            "anyos": 4855,
            "kosz": 4856,
            "ludwi": 4857,
            "dezson": 4858,
            "szebas": 4859,
            "dobro": 4860,
            "cses": 4861,
            "auk": 4862,
            "kku": 4863,
            "usti": 4864,
            "gea": 4865,
            "hrvoj": 4866,
            "cza": 4867,
            "pko": 4868,
            "pusz": 4869,
            "rij": 4870,
            "lacz": 4871,
            "itrai": 4872,
            "emeti": 4873,
            "harasz": 4874,
            "xen": 4875,
            "kait": 4876,
            "lota": 4877,
            "iks": 4878,
            "tinka": 4879,
            "hes": 4880,
            "lna": 4881,
            "uuli": 4882,
            "eles": 4883,
            "raak": 4884,
            "ordo": 4885,
            "lep": 4886,
            "tolna": 4887,
            "suvit": 4888,
            "zygfry": 4889,
            "cro": 4890,
            "njica": 4891,
            "ysa": 4892,
            "ycy": 4893,
            "maur": 4894,
            "dusi": 4895,
            "mpar": 4896,
            "psu": 4897,
            "napsu": 4898,
            "kolo": 4899,
            "tihan": 4900,
            "zvi": 4901,
            "jepan": 4902,
            "bike": 4903,
            "cse": 4904,
            "egy": 4905,
            "iuli": 4906,
            "tesi": 4907,
            "mogyor": 4908,
            "vija": 4909,
            "szvet": 4910,
            "zenob": 4911,
            "cti": 4912,
            "zdes": 4913,
            "inko": 4914,
            "ewe": 4915,
            "svi": 4916,
            "enek": 4917,
            "dyslav": 4918,
            "cis": 4919,
            "vos": 4920,
            "ragh": 4921,
            "tojka": 4922,
            "tawi": 4923,
            "muves": 4924,
            "harango": 4925,
            "megy": 4926,
            "hegy": 4927,
            "oktawi": 4928,
            "narcis": 4929,
            "oty": 4930,
            "swi": 4931,
            "tas": 4932,
            "esiu": 4933,
            "talos": 4934,
            "udie": 4935,
            "szka": 4936,
            "ruga": 4937,
            "pcel": 4938,
            "arst": 4939,
            "pcelarst": 4940,
            "mowit": 4941,
            "rozar": 4942,
            "paw": 4943,
            "iwa": 4944,
            "rs": 4945,
            "ches": 4946,
            "denka": 4947,
            "viaches": 4948,
            "tofa": 4949,
            "korneli": 4950,
            "pela": 4951,
            "vady": 4952,
            "enly": 4953,
            "strej": 4954,
            "wir": 4955,
            "nict": 4956,
            "wincen": 4957,
            "ginia": 4958,
            "klar": 4959,
            "lome": 4960,
            "iar": 4961,
            "pka": 4962,
            "imil": 4963,
            "aniel": 4964,
            "bodz": 4965,
            "ilii": 4966,
            "bka": 4967,
            "lka": 4968,
            "zio": 4969,
            "uslu": 4970,
            "kot": 4971,
            "dzo": 4972,
            "zichu": 4973,
            "zynka": 4974,
            "rzy": 4975,
            "wrzy": 4976,
            "zja": 4977,
            "rav": 4978,
            "wacla": 4979,
            "wawrzy": 4980,
            "dozja": 4981,
            "sybil": 4982,
            "eliusz": 4983,
            "mykha": 4984,
            "niec": 4985,
            "qba": 4986,
            "uro": 4987,
            "vhen": 4988,
            "yevhen": 4989,
            "eligi": 4990,
            "nadzie": 4991,
            "czi": 4992,
            "mlo": 4993,
            "zela": 4994,
            "mitr": 4995,
            "szko": 4996,
            "kunegun": 4997,
            "chna": 4998,
            "oslaw": 4999,
            "bros": 5000,
            "dzid": 5001,
            "iaci": 5002,
            "alij": 5003,
            "rys": 5004,
            "dobros": 5005,
            "osp": 5006,
            "tyn": 5007,
            "kwiaci": 5008,
            "giej": 5009,
            "arnia": 5010,
            "ksy": 5011,
            "ysia": 5012,
            "bozy": 5013,
            "uka": 5014,
            "wnia": 5015,
            "zed": 5016,
            "onna": 5017,
            "martus": 5018,
            "szkole": 5019,
            "cownia": 5020,
            "cyz": 5021,
            "przed": 5022,
            "isiek": 5023
        },
        "merges": [
            "a n",
            "a r",
            "i n",
            "a m",
            "e l",
            "e n",
            "a l",
            "r a",
            "o n",
            "r i",
            "m a",
            "s h",
            "e r",
            "m ar",
            "k a",
            "i l",
            "a b",
            "l a",
            "m o",
            "e d",
            "m i",
            "j o",
            "c h",
            "j a",
            "i a",
            "e t",
            "a t",
            "e s",
            "u l",
            "i s",
            "n a",
            "in a",
            "u s",
            "an d",
            "an a",
            "h am",
            "a d",
            "o r",
            "i m",
            "i t",
            "a h",
            "d a",
            "t h",
            "l e",
            "v i",
            "r o",
            "k o",
            "a s",
            "r e",
            "s e",
            "u n",
            "an i",
            "i r",
            "t o",
            "o l",
            "d i",
            "t a",
            "m d",
            "t e",
            "h a",
            "mo ham",
            "n i",
            "g o",
            "m an",
            "t i",
            "p a",
            "ma d",
            "s i",
            "s a",
            "b o",
            "an g",
            "u r",
            "ri s",
            "p h",
            "e m",
            "c e",
            "l o",
            "l u",
            "ab d",
            "j an",
            "al i",
            "m u",
            "p et",
            "e k",
            "on i",
            "y a",
            "e sh",
            "ar i",
            "h an",
            "s u",
            "s am",
            "i v",
            "en a",
            "el a",
            "i d",
            "m ed",
            "k u",
            "i z",
            "k ar",
            "s o",
            "s an",
            "c a",
            "r an",
            "n o",
            "in e",
            "d e",
            "ar a",
            "u el",
            "ar d",
            "j u",
            "b er",
            "z a",
            "ra h",
            "i k",
            "n e",
            "w a",
            "a g",
            "s z",
            "l i",
            "y o",
            "t an",
            "v in",
            "c k",
            "b a",
            "en d",
            "f a",
            "mu ham",
            "on g",
            "f at",
            "a z",
            "k e",
            "r y",
            "al e",
            "d o",
            "mo h",
            "sh a",
            "r am",
            "el o",
            "s on",
            "ka t",
            "il e",
            "mi r",
            "g a",
            "v a",
            "t in",
            "i e",
            "ra j",
            "n ur",
            "vi d",
            "e ri",
            "k h",
            "p at",
            "an t",
            "it a",
            "on a",
            "jo h",
            "n y",
            "is a",
            "l in",
            "j am",
            "b en",
            "r u",
            "r in",
            "ja y",
            "i b",
            "il a",
            "o s",
            "w an",
            "f i",
            "i o",
            "w e",
            "g e",
            "j e",
            "ma s",
            "s al",
            "m on",
            "l y",
            "t u",
            "h i",
            "at a",
            "et a",
            "t er",
            "il i",
            "b i",
            "d en",
            "sh e",
            "c o",
            "oni ka",
            "k am",
            "la v",
            "h as",
            "r en",
            "h ar",
            "s y",
            "b e",
            "j i",
            "h el",
            "ma h",
            "u d",
            "v e",
            "g or",
            "et h",
            "t y",
            "g ab",
            "s im",
            "en g",
            "o la",
            "c ar",
            "d y",
            "l es",
            "j ul",
            "n es",
            "i f",
            "u la",
            "b ar",
            "p rin",
            "u m",
            "z i",
            "a k",
            "en t",
            "f er",
            "m in",
            "ab u",
            "v el",
            "z y",
            "i ja",
            "on e",
            "b u",
            "j en",
            "z e",
            "p o",
            "p e",
            "s ar",
            "j ar",
            "m al",
            "ro s",
            "lu c",
            "s te",
            "en e",
            "v an",
            "y e",
            "m e",
            "k el",
            "y n",
            "p ra",
            "s in",
            "k i",
            "h en",
            "m il",
            "ma t",
            "is o",
            "h e",
            "ed i",
            "h o",
            "ri a",
            "s un",
            "j on",
            "th ab",
            "it i",
            "u ra",
            "n at",
            "e va",
            "d in",
            "ck y",
            "ad e",
            "ol o",
            "ma g",
            "a sh",
            "t on",
            "us z",
            "n or",
            "g ra",
            "end ra",
            "y an",
            "w i",
            "l an",
            "b al",
            "es a",
            "p u",
            "la w",
            "m us",
            "y u",
            "d an",
            "ph o",
            "w il",
            "a i",
            "th o",
            "k w",
            "l en",
            "jo a",
            "r ed",
            "ch ar",
            "w in",
            "ri m",
            "th a",
            "d ra",
            "v er",
            "s t",
            "g y",
            "j it",
            "t she",
            "t am",
            "ad i",
            "m er",
            "en i",
            "j us",
            "o j",
            "g er",
            "jo y",
            "vi c",
            "el i",
            "l am",
            "j er",
            "o d",
            "la h",
            "s el",
            "ra ch",
            "de e",
            "v en",
            "t or",
            "and ra",
            "an n",
            "es s",
            "w el",
            "o u",
            "c ia",
            "s ab",
            "ra d",
            "se f",
            "th er",
            "y as",
            "v al",
            "iz ab",
            "l or",
            "es z",
            "ka sh",
            "ili p",
            "le e",
            "k en",
            "h er",
            "d ar",
            "un o",
            "yo us",
            "s us",
            "d or",
            "at i",
            "h u",
            "am e",
            "ra f",
            "le y",
            "p i",
            "v la",
            "r on",
            "o t",
            "mo s",
            "n el",
            "j un",
            "c y",
            "f ar",
            "bo g",
            "l im",
            "e e",
            "b as",
            "v is",
            "p re",
            "ri t",
            "s er",
            "m y",
            "kat ar",
            "u g",
            "k ha",
            "k im",
            "ar t",
            "ni e",
            "and o",
            "ab o",
            "d u",
            "th e",
            "w ar",
            "o k",
            "c ent",
            "al d",
            "gor z",
            "m el",
            "el izab",
            "d ia",
            "b or",
            "k r",
            "ali d",
            "b es",
            "la sz",
            "q u",
            "j es",
            "p ed",
            "f an",
            "t r",
            "z ol",
            "to m",
            "p ri",
            "el e",
            "b ab",
            "h d",
            "mi s",
            "ard o",
            "p io",
            "r ze",
            "b r",
            "un g",
            "ni k",
            "lo s",
            "sh i",
            "ch i",
            "at o",
            "do min",
            "d on",
            "e z",
            "p an",
            "ja s",
            "p er",
            "ha f",
            "t ia",
            "y i",
            "ge or",
            "en ce",
            "b in",
            "u f",
            "o m",
            "u b",
            "zy na",
            "ch u",
            "fi q",
            "to f",
            "a c",
            "h le",
            "mag d",
            "oni ca",
            "f ia",
            "to ria",
            "c at",
            "t ar",
            "pa k",
            "bo go",
            "a yo",
            "vi k",
            "jo e",
            "g an",
            "d am",
            "k ir",
            "s il",
            "is t",
            "n an",
            "ni esz",
            "ag niesz",
            "s ol",
            "i we",
            "j el",
            "y us",
            "z u",
            "da y",
            "un i",
            "h il",
            "l il",
            "in g",
            "e f",
            "s en",
            "ri z",
            "en c",
            "it um",
            "i da",
            "t im",
            "g ar",
            "sy l",
            "ab i",
            "k la",
            "b ri",
            "v il",
            "an e",
            "ol u",
            "a y",
            "f il",
            "er ina",
            "p al",
            "in d",
            "b us",
            "et se",
            "ja ku",
            "i vi",
            "pu t",
            "it h",
            "in i",
            "v ia",
            "b el",
            "z el",
            "b on",
            "am a",
            "g h",
            "al b",
            "n u",
            "c il",
            "x h",
            "z o",
            "s ia",
            "ka b",
            "ri sh",
            "s ir",
            "mi g",
            "as i",
            "on y",
            "b l",
            "s at",
            "u na",
            "mus ta",
            "sh u",
            "ri c",
            "d es",
            "f o",
            "ul i",
            "z den",
            "s ah",
            "p in",
            "th em",
            "z an",
            "k ko",
            "ud ia",
            "p ha",
            "s k",
            "am o",
            "z ul",
            "r ul",
            "s ya",
            "an th",
            "id e",
            "y l",
            "mi ros",
            "g i",
            "iv a",
            "h al",
            "k ka",
            "z im",
            "a f",
            "ir ul",
            "s ul",
            "e vel",
            "ra to",
            "c io",
            "m en",
            "t sh",
            "n g",
            "re y",
            "v o",
            "je f",
            "e wa",
            "ra y",
            "e ka",
            "le o",
            "cio us",
            "iz a",
            "ly n",
            "w o",
            "no m",
            "n ar",
            "to sh",
            "f ah",
            "s ri",
            "na z",
            "p ar",
            "f or",
            "n on",
            "ju d",
            "jar os",
            "e ra",
            "jo z",
            "et so",
            "k al",
            "mal gorz",
            "e er",
            "z sol",
            "ed u",
            "su z",
            "k go",
            "b y",
            "d ri",
            "it se",
            "ad a",
            "b les",
            "ma y",
            "jam in",
            "ch e",
            "p r",
            "c in",
            "k y",
            "n ab",
            "s ad",
            "jo r",
            "i ka",
            "ch am",
            "jon at",
            "ia h",
            "ed y",
            "an u",
            "z suz",
            "sin g",
            "g en",
            "s ur",
            "e mi",
            "f lo",
            "b et",
            "e go",
            "z ah",
            "mo t",
            "as a",
            "sh ad",
            "ra t",
            "i an",
            "go d",
            "y am",
            "l et",
            "o ba",
            "c el",
            "kh ad",
            "v it",
            "g if",
            "v es",
            "h j",
            "al a",
            "z ena",
            "kw u",
            "ru i",
            "us i",
            "so u",
            "t un",
            "ia s",
            "h on",
            "e en",
            "d ari",
            "end y",
            "z en",
            "ne o",
            "n d",
            "kh al",
            "rze j",
            "c ie",
            "e g",
            "ro l",
            "k le",
            "p p",
            "shu a",
            "j im",
            "di o",
            "fer n",
            "a w",
            "zel j",
            "f ili",
            "u t",
            "le bog",
            "in da",
            "b il",
            "ha y",
            "h us",
            "z bi",
            "es i",
            "c la",
            "lin d",
            "az s",
            "h ab",
            "b ad",
            "c s",
            "in o",
            "m am",
            "c i",
            "ab io",
            "m ur",
            "o w",
            "n is",
            "j et",
            "h end",
            "b am",
            "m un",
            "c sab",
            "mah mo",
            "is al",
            "ma j",
            "li e",
            "is i",
            "l ul",
            "al o",
            "kat le",
            "a ya",
            "c ja",
            "ar m",
            "y ah",
            "h it",
            "g el",
            "w id",
            "ar ina",
            "ta fa",
            "vla di",
            "i ra",
            "e za",
            "e ko",
            "l ar",
            "i sh",
            "k ry",
            "is wa",
            "tshe p",
            "itum elo",
            "ol iv",
            "t lo",
            "k it",
            "er nes",
            "i w",
            "d ine",
            "g lo",
            "f ari",
            "ja d",
            "a yu",
            "fil we",
            "the w",
            "b ran",
            "kry s",
            "ar l",
            "mi a",
            "c yn",
            "th ia",
            "a ko",
            "it ta",
            "g on",
            "ek ka",
            "f e",
            "ma i",
            "m et",
            "ka g",
            "mi t",
            "th u",
            "b un",
            "e em",
            "su d",
            "sz il",
            "v as",
            "il ah",
            "f it",
            "a ch",
            "w al",
            "ud u",
            "v on",
            "d er",
            "m elo",
            "a v",
            "is lav",
            "c ol",
            "et t",
            "sh id",
            "sa i",
            "ka j",
            "w ah",
            "ani e",
            "h la",
            "cil ia",
            "et ta",
            "a j",
            "am y",
            "o g",
            "te o",
            "lo vel",
            "c on",
            "g u",
            "v or",
            "x ol",
            "ma x",
            "er z",
            "i di",
            "ber n",
            "f ir",
            "o mo",
            "kar ia",
            "mar g",
            "v u",
            "mi e",
            "w oj",
            "f ri",
            "t at",
            "z am",
            "e uni",
            "ya w",
            "o o",
            "f es",
            "u ta",
            "it y",
            "t ri",
            "ha j",
            "b h",
            "ja h",
            "l on",
            "o ra",
            "ch a",
            "syl w",
            "ro y",
            "on d",
            "v ed",
            "sa in",
            "me h",
            "b ra",
            "ro k",
            "y in",
            "s olo",
            "et e",
            "c ca",
            "p ris",
            "l al",
            "e ug",
            "ri d",
            "m b",
            "ka y",
            "yo un",
            "n da",
            "g re",
            "i q",
            "le a",
            "na d",
            "ve en",
            "j tim",
            "ed a",
            "k ul",
            "zi q",
            "z ar",
            "mot so",
            "le m",
            "f un",
            "te k",
            "j ir",
            "w as",
            "law ren",
            "z or",
            "u k",
            "e a",
            "b by",
            "x he",
            "gy or",
            "la va",
            "n al",
            "ik e",
            "jo s",
            "k lo",
            "j di",
            "jit h",
            "el zbi",
            "ola s",
            "k in",
            "el eng",
            "et s",
            "pris cil",
            "th and",
            "la dy",
            "p and",
            "vin d",
            "lo u",
            "for t",
            "h lan",
            "hlan hla",
            "na s",
            "vi r",
            "ce k",
            "a ku",
            "a kh",
            "ro m",
            "ol d",
            "eg z",
            "at h",
            "ba sh",
            "if e",
            "th i",
            "p ir",
            "ik ka",
            "is iwe",
            "hj h",
            "ch olas",
            "p or",
            "p on",
            "us o",
            "iv o",
            "v ar",
            "la s",
            "d wi",
            "te a",
            "k wa",
            "m h",
            "em u",
            "t ade",
            "a ug",
            "aug us",
            "f ad",
            "b ha",
            "b le",
            "b ile",
            "b la",
            "ra ham",
            "lady s",
            "ro z",
            "la u",
            "ir u",
            "ja z",
            "z em",
            "t us",
            "q uel",
            "co m",
            "u mi",
            "ma cie",
            "n en",
            "a u",
            "de v",
            "k an",
            "an o",
            "t is",
            "d im",
            "re j",
            "la x",
            "o f",
            "di e",
            "jo l",
            "je e",
            "l ung",
            "e ed",
            "il esh",
            "h r",
            "bo y",
            "i mi",
            "sh ek",
            "g il",
            "n am",
            "ka s",
            "is e",
            "s ale",
            "iv y",
            "ong a",
            "i g",
            "e ma",
            "i p",
            "di ja",
            "la t",
            "k es",
            "her ine",
            "o th",
            "n tom",
            "bri gh",
            "ma e",
            "sa j",
            "w er",
            "a in",
            "ed e",
            "p ul",
            "bi an",
            "oba k",
            "o le",
            "bus iso",
            "lo v",
            "c lav",
            "a is",
            "ri e",
            "o ma",
            "o me",
            "in no",
            "s n",
            "t l",
            "t it",
            "i or",
            "sh o",
            "sz ab",
            "si e",
            "t ari",
            "al ber",
            "go ra",
            "go h",
            "ne j",
            "ko l",
            "s ley",
            "m ale",
            "t rit",
            "sh kel",
            "n er",
            "us u",
            "abd ula",
            "h os",
            "k and",
            "s ti",
            "ko k",
            "v oj",
            "ma u",
            "eth u",
            "se bet",
            "g ie",
            "es ia",
            "iz z",
            "a pp",
            "f elo",
            "fa u",
            "in t",
            "e wel",
            "k et",
            "kh u",
            "n thab",
            "si y",
            "m ine",
            "ch er",
            "ib u",
            "di p",
            "k or",
            "et te",
            "na h",
            "sa k",
            "sh ar",
            "and la",
            "ez er",
            "d ur",
            "re k",
            "en o",
            "c t",
            "mo j",
            "t shi",
            "la vi",
            "h ali",
            "ab ile",
            "p ol",
            "pa v",
            "s lav",
            "end er",
            "ra g",
            "b har",
            "z iz",
            "il o",
            "ik ki",
            "ka c",
            "t ah",
            "ad wo",
            "ph um",
            "ber nad",
            "s rin",
            "d har",
            "at hi",
            "th ul",
            "r us",
            "w ik",
            "c alo",
            "al yn",
            "cel yn",
            "th y",
            "j ib",
            "za k",
            "om ph",
            "su la",
            "ari da",
            "mo u",
            "ma z",
            "b is",
            "g esh",
            "n it",
            "ang eli",
            "la d",
            "vo je",
            "ab onga",
            "la wa",
            "as e",
            "w is",
            "sh al",
            "cie ch",
            "k on",
            "o ja",
            "se i",
            "g ide",
            "ro me",
            "w ad",
            "d us",
            "g az",
            "b an",
            "bog ile",
            "li p",
            "st je",
            "l iz",
            "o mi",
            "d ol",
            "ik h",
            "g et",
            "s p",
            "g r",
            "mar il",
            "m ul",
            "se g",
            "ti ce",
            "o mir",
            "qu e",
            "zi ca",
            "jo on",
            "so ph",
            "a go",
            "ya p",
            "a q",
            "x hi",
            "ma a",
            "m la",
            "g io",
            "v et",
            "y en",
            "bri g",
            "d un",
            "og elo",
            "mar gar",
            "di v",
            "s ta",
            "k un",
            "p um",
            "su ha",
            "et u",
            "bl er",
            "ya z",
            "it ya",
            "wel l",
            "ar e",
            "t ta",
            "bo u",
            "tu o",
            "su a",
            "ya ku",
            "ko h",
            "am ari",
            "sh ik",
            "i i",
            "ta i",
            "ang a",
            "joa qu",
            "im e",
            "ek e",
            "n ko",
            "q end",
            "bo st",
            "dor c",
            "o us",
            "z so",
            "vi ol",
            "ger gel",
            "mi k",
            "ura v",
            "mur ug",
            "sz y",
            "c ah",
            "us a",
            "p ram",
            "b lan",
            "a ce",
            "sn je",
            "il we",
            "ud din",
            "y ed",
            "h ang",
            "f ik",
            "t ti",
            "h y",
            "t so",
            "is eng",
            "o fo",
            "k s",
            "da g",
            "no ku",
            "p ia",
            "et si",
            "u da",
            "is u",
            "o pe",
            "k ur",
            "b ek",
            "it z",
            "it o",
            "am i",
            "f lam",
            "ol cs",
            "ent se",
            "y ol",
            "lu m",
            "ek i",
            "mo d",
            "nd esh",
            "la i",
            "io ma",
            "g ir",
            "v ina",
            "m ma",
            "t il",
            "c sil",
            "am il",
            "e al",
            "b ir",
            "ra s",
            "p el",
            "g nie",
            "zbi gnie",
            "k ene",
            "la ti",
            "sa f",
            "ka w",
            "dhar m",
            "st us",
            "b at",
            "ya a",
            "sh il",
            "sh pet",
            "h or",
            "z lat",
            "th il",
            "l ia",
            "ab a",
            "z in",
            "ku sh",
            "sou fi",
            "un e",
            "t le",
            "on go",
            "ro sal",
            "i jo",
            "abd er",
            "ag ye",
            "ja c",
            "an xh",
            "b ul",
            "z v",
            "lu d",
            "bar to",
            "xh ul",
            "ch o",
            "b hu",
            "ri ot",
            "ka st",
            "ad u",
            "h ir",
            "pri yan",
            "da i",
            "sh ub",
            "z al",
            "l id",
            "a ur",
            "it on",
            "me i",
            "no u",
            "d k",
            "ko va",
            "d ali",
            "su b",
            "i re",
            "we i",
            "fa vo",
            "vi e",
            "ee z",
            "on ye",
            "p ro",
            "q im",
            "lo w",
            "ar n",
            "j ie",
            "bo it",
            "z d",
            "f iso",
            "p po",
            "ju na",
            "g j",
            "f u",
            "v ek",
            "t ul",
            "pp y",
            "fat so",
            "mo go",
            "ets we",
            "v ko",
            "at u",
            "h one",
            "s et",
            "l j",
            "n ir",
            "le mon",
            "p as",
            "f rey",
            "sh ant",
            "k g",
            "kand ar",
            "ang ir",
            "em etse",
            "zu z",
            "p pu",
            "wa y",
            "l ju",
            "t tu",
            "sh pr",
            "lu k",
            "c ik",
            "w ena",
            "l ca",
            "v jol",
            "g ran",
            "ro d",
            "kar th",
            "ra b",
            "jee v",
            "d h",
            "m ent",
            "mo lo",
            "el l",
            "z ile",
            "ha u",
            "g iv",
            "m esh",
            "e ze",
            "olu w",
            "ye o",
            "ina h",
            "bo rah",
            "p am",
            "san tho",
            "s ka",
            "z ine",
            "ur des",
            "mi se",
            "xhe v",
            "n du",
            "th ula",
            "is ra",
            "w asi",
            "ile en",
            "ke itum",
            "m s",
            "hor v",
            "fa us",
            "ra she",
            "the us",
            "es e",
            "ti k",
            "m j",
            "ul ia",
            "es an",
            "le h",
            "b ru",
            "t ra",
            "ra i",
            "ik i",
            "d hi",
            "us e",
            "ur sz",
            "ha z",
            "te e",
            "abd al",
            "s re",
            "ki ca",
            "k is",
            "si i",
            "bo ga",
            "ke ale",
            "mo z",
            "an ab",
            "er e",
            "g ul",
            "them b",
            "mo un",
            "na g",
            "im al",
            "is ile",
            "l ho",
            "ra z",
            "ar b",
            "g jer",
            "y un",
            "n ia",
            "q i",
            "k ed",
            "gu h",
            "ma ar",
            "i ma",
            "vu y",
            "f ou",
            "l ed",
            "sat hi",
            "ry sz",
            "sh or",
            "z ek",
            "e j",
            "mo r",
            "d get",
            "a vi",
            "s is",
            "o rat",
            "p ur",
            "en yo",
            "un de",
            "j ram",
            "g ug",
            "for d",
            "na de",
            "ee v",
            "lj il",
            "am r",
            "ja ko",
            "o lebog",
            "ura d",
            "za i",
            "to k",
            "h in",
            "c en",
            "c ed",
            "do m",
            "s ang",
            "wi ol",
            "a ji",
            "di usz",
            "z dra",
            "n go",
            "kh o",
            "end ar",
            "o b",
            "ch ra",
            "to b",
            "gi ca",
            "am ant",
            "du bra",
            "ta y",
            "mo le",
            "j y",
            "el vi",
            "tl he",
            "te mi",
            "ja g",
            "d ard",
            "or sol",
            "u ko",
            "ar p",
            "ben edi",
            "g in",
            "mun d",
            "a fer",
            "mo m",
            "ka i",
            "n and",
            "ind ile",
            "ul ant",
            "ar ka",
            "ab etswe",
            "fun do",
            "ti f",
            "pa a",
            "ag i",
            "y on",
            "le ven",
            "ri l",
            "yl l",
            "hi day",
            "gon olo",
            "em y",
            "wa a",
            "t lam",
            "ina sh",
            "t se",
            "mi th",
            "e vi",
            "p ula",
            "j ur",
            "s lavi",
            "ne y",
            "y ere",
            "bo i",
            "p esh",
            "on so",
            "et i",
            "ch id",
            "b ah",
            "p g",
            "wi ga",
            "em e",
            "n t",
            "ak i",
            "t ir",
            "la k",
            "b ib",
            "u dio",
            "per par",
            "uf ik",
            "bo ah",
            "u tam",
            "sh mi",
            "p ong",
            "i ce",
            "sel v",
            "ila sh",
            "qu es",
            "s lam",
            "lo h",
            "a fi",
            "su bha",
            "wil hel",
            "mai ma",
            "si ph",
            "u a",
            "gy ong",
            "h ard",
            "b ro",
            "a id",
            "she er",
            "o ar",
            "o um",
            "ela o",
            "f id",
            "m end",
            "s ma",
            "s as",
            "ul eko",
            "kul uleko",
            "tu mis",
            "ni kh",
            "e raj",
            "el elo",
            "pum elelo",
            "n din",
            "m z",
            "g as",
            "lar ka",
            "po ku",
            "nko sin",
            "b ud",
            "t en",
            "amo gel",
            "w u",
            "fa e",
            "syl ves",
            "k sen",
            "b ol",
            "x ho",
            "o ke",
            "g es",
            "olu was",
            "ma k",
            "na j",
            "m molo",
            "k if",
            "we e",
            "na a",
            "c or",
            "m c",
            "mot si",
            "ol abi",
            "ra im",
            "bi ca",
            "kr esi",
            "for tun",
            "ja i",
            "se m",
            "h s",
            "s ph",
            "d ah",
            "nda pand",
            "ye e",
            "h at",
            "i y",
            "ha ik",
            "f lu",
            "n il",
            "ri ja",
            "ge e",
            "z ie",
            "f t",
            "ke hin",
            "be a",
            "k ie",
            "y at",
            "ol ya",
            "be ka",
            "ru dol",
            "l iv",
            "ma ci",
            "di sh",
            "lho gonolo",
            "zv oni",
            "ia o",
            "ho us",
            "ad y",
            "l ab",
            "ko si",
            "li cent",
            "as ya",
            "di ri",
            "j yo",
            "v esh",
            "el wa",
            "on ne",
            "as y",
            "te ch",
            "ta pha",
            "ru z",
            "re m",
            "o bi",
            "ez eki",
            "e v",
            "sh nu",
            "el ele",
            "e y",
            "fau z",
            "bo ik",
            "h ad",
            "lo t",
            "be ko",
            "c z",
            "p ran",
            "a obak",
            "c es",
            "bo b",
            "mo l",
            "tsh o",
            "so f",
            "i ca",
            "n har",
            "c amil",
            "r eth",
            "id u",
            "tu ra",
            "ga o",
            "f rim",
            "u go",
            "g am",
            "ke em",
            "v ka",
            "go mole",
            "si z",
            "ang we",
            "pi wa",
            "e h",
            "o sa",
            "j m",
            "g ang",
            "si ek",
            "ch ibu",
            "p endra",
            "na se",
            "un le",
            "z ou",
            "w it",
            "man so",
            "n olu",
            "ze e",
            "d et",
            "un go",
            "su e",
            "de a",
            "t ab",
            "g ud",
            "b za",
            "o ge",
            "sha q",
            "r et",
            "ham andla",
            "a fa",
            "mil o",
            "hu i",
            "boit she",
            "sh im",
            "f is",
            "o h",
            "el yn",
            "ed dine",
            "s wa",
            "m and",
            "fo o",
            "mo us",
            "j ia",
            "ha v",
            "moh m",
            "to h",
            "a a",
            "k c",
            "sh ed",
            "r j",
            "hi ma",
            "da sh",
            "g us",
            "ha p",
            "g gy",
            "o ok",
            "un mi",
            "ab e",
            "ee f",
            "p ros",
            "a ub",
            "eri co",
            "w ethu",
            "su g",
            "g lor",
            "ked ib",
            "oluwas e",
            "d ul",
            "r re",
            "es mer",
            "t ette",
            "iv as",
            "mo la",
            "el iz",
            "i je",
            "gu il",
            "g im",
            "o he",
            "char lot",
            "ri o",
            "n in",
            "o go",
            "v end",
            "te sh",
            "on kab",
            "ch ant",
            "at unde",
            "i c",
            "z ia",
            "sa one",
            "har ton",
            "k er",
            "go od",
            "f ie",
            "ka yo",
            "ag we",
            "w en",
            "j in",
            "han nel",
            "re yn",
            "lu mb",
            "g al",
            "sh qi",
            "d il",
            "g ur",
            "g at",
            "ol iw",
            "fi an",
            "ch lo",
            "abd l",
            "us itse",
            "wa zi",
            "le ot",
            "s si",
            "di mo",
            "ta p",
            "esi hle",
            "a us",
            "k emetse",
            "ra u",
            "sk y",
            "ad eni",
            "mat shid",
            "r es",
            "a il",
            "mo ry",
            "ura ta",
            "wa z",
            "abd es",
            "f lavi",
            "k ren",
            "x olo",
            "su ra",
            "d ad",
            "em al",
            "br une",
            "pin ess",
            "so h",
            "k ki",
            "w n",
            "bo at",
            "z b",
            "ka k",
            "ta u",
            "sa p",
            "p end",
            "ar te",
            "dra g",
            "t ya",
            "moh s",
            "ol na",
            "ura bh",
            "el etso",
            "bab al",
            "p il",
            "in ot",
            "re xhe",
            "mi erz",
            "h un",
            "si g",
            "ol am",
            "ke amo",
            "keamo g",
            "id ow",
            "n em",
            "e mo",
            "sam p",
            "ra bi",
            "mu h",
            "sin d",
            "or e",
            "g ji",
            "ayo mi",
            "jo sa",
            "di kel",
            "nag ara",
            "j ind",
            "lo ub",
            "cel es",
            "ets ang",
            "al k",
            "my r",
            "r ki",
            "vik to",
            "mo ok",
            "jee b",
            "t rek",
            "b ed",
            "bar tlo",
            "mie j",
            "n q",
            "o jo",
            "p us",
            "mo cham",
            "j ale",
            "h ya",
            "j c",
            "s bon",
            "lo y",
            "sha k",
            "yous s",
            "bus o",
            "r he",
            "ph em",
            "he man",
            "g un",
            "ro ra",
            "her me",
            "ol us",
            "ra ck",
            "m xol",
            "og un",
            "ha k",
            "z von",
            "o bin",
            "la y",
            "thand az",
            "ka ther",
            "t ris",
            "ad en",
            "u kka",
            "c ija",
            "ou ane",
            "s vet",
            "vir gin",
            "iz lan",
            "ib e",
            "l us",
            "o ag",
            "bo tsh",
            "li ez",
            "ni i",
            "c ka",
            "in ye",
            "la ur",
            "tis sam",
            "ija h",
            "un ga",
            "ben ga",
            "bar nab",
            "r esa",
            "ku tl",
            "wan o",
            "mus tha",
            "en ya",
            "ka h",
            "ut enya",
            "a ar",
            "t ka",
            "j ab",
            "y ada",
            "c ko",
            "fad z",
            "dor ot",
            "kha ir",
            "us ka",
            "it ha",
            "az u",
            "si f",
            "md udu",
            "j al",
            "is y",
            "b ie",
            "o e",
            "z san",
            "benedi c",
            "f on",
            "h ah",
            "ar th",
            "aw g",
            "o ko",
            "o diri",
            "mat il",
            "om ena",
            "si d",
            "ne a",
            "i cia",
            "k ri",
            "ad ed",
            "f j",
            "h um",
            "to beko",
            "m uni",
            "el y",
            "o ye",
            "ha fi",
            "k ani",
            "er gy",
            "x ha",
            "os lav",
            "so ha",
            "fa a",
            "a p",
            "en olo",
            "th ak",
            "p un",
            "ari ina",
            "t re",
            "io la",
            "yn ek",
            "na ft",
            "te h",
            "e p",
            "x in",
            "f ruz",
            "di ca",
            "dam il",
            "jel l",
            "po h",
            "oo i",
            "di ra",
            "en ye",
            "re i",
            "h ek",
            "l er",
            "v y",
            "an an",
            "ah afa",
            "ti e",
            "kr un",
            "s we",
            "zu ba",
            "c j",
            "nes s",
            "s it",
            "y ud",
            "at la",
            "ag a",
            "ab isa",
            "b it",
            "ra pha",
            "ne z",
            "f ab",
            "a ck",
            "l is",
            "bu ku",
            "p ent",
            "ad ar",
            "h is",
            "v ula",
            "an ti",
            "k ga",
            "ar ah",
            "la vin",
            "f ola",
            "r ine",
            "q man",
            "wa i",
            "o bile",
            "ter es",
            "n ja",
            "c ine",
            "ol ame",
            "ne xh",
            "bon ye",
            "at e",
            "pra san",
            "era s",
            "oluw ato",
            "lu t",
            "ad je",
            "if ul",
            "and e",
            "bo ine",
            "kh tar",
            "g n",
            "gn esh",
            "ho u",
            "zd z",
            "e el",
            "m bar",
            "o pp",
            "x u",
            "l h",
            "d ile",
            "et an",
            "do d",
            "zdz is",
            "a an",
            "mo k",
            "vla st",
            "ja go",
            "sa w",
            "pin ge",
            "se in",
            "w eta",
            "s themb",
            "o z",
            "ru d",
            "eg un",
            "mo em",
            "em ba",
            "eth emba",
            "fa kh",
            "gus ta",
            "s na",
            "f use",
            "j da",
            "ar gj",
            "ak an",
            "dam i",
            "t es",
            "an oo",
            "ham o",
            "k v",
            "ch ay",
            "alo o",
            "sa ke",
            "h m",
            "j em",
            "be ver",
            "br un",
            "d he",
            "ta k",
            "k em",
            "ul o",
            "pu sh",
            "wo le",
            "leh lo",
            "od u",
            "an ou",
            "e q",
            "and el",
            "ili ka",
            "r ar",
            "u ben",
            "d ir",
            "or o",
            "m mag",
            "w la",
            "mo dimo",
            "u shad",
            "da ph",
            "h ul",
            "ed li",
            "usi ku",
            "al ph",
            "t uel",
            "re a",
            "x ii",
            "vlast im",
            "f al",
            "yo s",
            "ol ani",
            "ja han",
            "god s",
            "sz ek",
            "j esa",
            "e bu",
            "n ol",
            "an re",
            "ch ana",
            "ol anre",
            "wa ju",
            "ee q",
            "sh re",
            "a yi",
            "li u",
            "m lung",
            "ba z",
            "q ir",
            "n w",
            "ma su",
            "sa o",
            "ng u",
            "olo ki",
            "n ke",
            "z rin",
            "am ah",
            "l loy",
            "s lind",
            "she f",
            "s kh",
            "er b",
            "f jol",
            "re x",
            "j esh",
            "al eth",
            "on aleth",
            "re fil",
            "tsh id",
            "ets ile",
            "ek ela",
            "ze f",
            "ro j",
            "p ilo",
            "s ni",
            "ed itse",
            "y al",
            "zu an",
            "n yo",
            "am ara",
            "on es",
            "le va",
            "ju mo",
            "s v",
            "mi ta",
            "ma w",
            "e ph",
            "s bu",
            "zu k",
            "na w",
            "s ela",
            "os ter",
            "y s",
            "f et",
            "p ene",
            "bin da",
            "x ter",
            "d ney",
            "b len",
            "lo o",
            "v je",
            "al fe",
            "ab h",
            "g ram",
            "v z",
            "di ell",
            "um bu",
            "h esh",
            "t ala",
            "un ia",
            "no kw",
            "ke f",
            "yam bo",
            "li bus",
            "n et",
            "am etsi",
            "ou a",
            "mah lat",
            "n un",
            "re b",
            "an yo",
            "ani mir",
            "c si",
            "s c",
            "zen ka",
            "f y",
            "s ne",
            "kh ali",
            "le j",
            "te u",
            "ham bel",
            "ab im",
            "ab isi",
            "ke el",
            "k lav",
            "ma je",
            "go s",
            "ar ia",
            "sa kh",
            "be e",
            "quel ine",
            "go dira",
            "o a",
            "ko law",
            "j p",
            "hus sa",
            "mu har",
            "sh ma",
            "l lan",
            "w unmi",
            "ra k",
            "te y",
            "z id",
            "m bal",
            "za w",
            "b bie",
            "k ale",
            "ara f",
            "li rid",
            "oluw at",
            "le i",
            "b iswa",
            "may ma",
            "ul ena",
            "fu thi",
            "an k",
            "mu gam",
            "at ile",
            "ph i",
            "bo zid",
            "l eth",
            "r k",
            "pet se",
            "ga ola",
            "kir u",
            "fil lip",
            "n jo",
            "sim ane",
            "ed c",
            "h ale",
            "q a",
            "ca k",
            "ve ed",
            "e b",
            "n de",
            "ul eni",
            "fa z",
            "fer din",
            "ru de",
            "w umi",
            "zso m",
            "ma ham",
            "c li",
            "f ford",
            "k elo",
            "q ip",
            "sh qip",
            "ko so",
            "ber nar",
            "eli hle",
            "abd ela",
            "ber ly",
            "ha ir",
            "bat so",
            "c it",
            "o gh",
            "c le",
            "mu ti",
            "ot til",
            "n h",
            "ma im",
            "bo ak",
            "s es",
            "er ka",
            "de ji",
            "ar y",
            "to so",
            "ang jel",
            "o ka",
            "un ya",
            "b ron",
            "le ut",
            "ik ko",
            "so m",
            "ee ra",
            "az an",
            "e ek",
            "e eta",
            "hu tso",
            "ee b",
            "war elo",
            "nom bul",
            "d em",
            "id on",
            "bog um",
            "va ib",
            "zar ta",
            "sh y",
            "yan u",
            "ad es",
            "s ford",
            "en ka",
            "j ho",
            "sud he",
            "swa p",
            "k us",
            "an le",
            "se e",
            "yu sh",
            "q ah",
            "ch iz",
            "jale ena",
            "n eli",
            "ri k",
            "ai sh",
            "g fj",
            "pal a",
            "d it",
            "z by",
            "it swe",
            "n hla",
            "ma wan",
            "on tlam",
            "su ri",
            "j si",
            "ro dol",
            "ar in",
            "ph et",
            "cha ib",
            "and ana",
            "co raz",
            "ej f",
            "t si",
            "neli us",
            "in kosi",
            "m pum",
            "lu z",
            "g jo",
            "er y",
            "ar u",
            "am pon",
            "sh it",
            "re g",
            "ha i",
            "e u",
            "n wa",
            "ko pan",
            "s l",
            "al fon",
            "ul am",
            "mil jen",
            "p ru",
            "den ce",
            "n nam",
            "g han",
            "lo di",
            "m za",
            "b has",
            "s ton",
            "y et",
            "ali za",
            "ya po",
            "oba ka",
            "o si",
            "ro sh",
            "fi ca",
            "di we",
            "mah abu",
            "el ani",
            "ba i",
            "q is",
            "il im",
            "nd ilim",
            "s s",
            "m yo",
            "n ed",
            "te ef",
            "so o",
            "ba ch",
            "sy uk",
            "n kan",
            "t al",
            "h old",
            "in hold",
            "ti us",
            "kw o",
            "k l",
            "p it",
            "hi ka",
            "z ale",
            "p ana",
            "si us",
            "en y",
            "c ra",
            "w yn",
            "go zie",
            "n ne",
            "bo s",
            "s par",
            "ana o",
            "da w",
            "cat hr",
            "m pu",
            "u h",
            "j j",
            "le k",
            "ros t",
            "j ko",
            "t ur",
            "k ena",
            "ra the",
            "ti i",
            "a ud",
            "u ma",
            "es o",
            "tl hale",
            "si dor",
            "gh ani",
            "ch iso",
            "far oo",
            "j io",
            "k ye",
            "os in",
            "chi jio",
            "q et",
            "in us",
            "ab ong",
            "ila yo",
            "hon olo",
            "z os",
            "g iz",
            "te m",
            "e zi",
            "ri f",
            "le f",
            "em ana",
            "cz es",
            "ek an",
            "ru kay",
            "m ek",
            "e ji",
            "h em",
            "mo kg",
            "a iz",
            "wan to",
            "h ando",
            "y ar",
            "z ad",
            "ka cs",
            "mu d",
            "if y",
            "kel isiwe",
            "et al",
            "ch ina",
            "na di",
            "ko zi",
            "ram ani",
            "d al",
            "ura i",
            "ric im",
            "g endra",
            "bo ton",
            "id ele",
            "k ond",
            "na ze",
            "ha yu",
            "bo ye",
            "ke o",
            "pra ti",
            "an ta",
            "ma yan",
            "c ry",
            "ro ris",
            "st al",
            "i is",
            "k iso",
            "pel ang",
            "or es",
            "as s",
            "on th",
            "on tir",
            "c sen",
            "k ia",
            "ade ye",
            "t rin",
            "sh kur",
            "i ko",
            "p ab",
            "ka u",
            "er d",
            "ad har",
            "o har",
            "t la",
            "x hen",
            "kay na",
            "re gin",
            "se y",
            "bo hum",
            "t et",
            "ph u",
            "im on",
            "im ti",
            "pe i",
            "ra ia",
            "mi re",
            "la ka",
            "et jie",
            "go vin",
            "bin kosi",
            "j n",
            "k isu",
            "jn r",
            "l ale",
            "mot lale",
            "ha o",
            "ho o",
            "z int",
            "ara j",
            "on o",
            "en al",
            "hi wa",
            "l net",
            "v ul",
            "jo vel",
            "h li",
            "ab g",
            "ve z",
            "d zi",
            "i in",
            "fe ek",
            "p ine",
            "na zi",
            "b ur",
            "ce zar",
            "f ol",
            "aw u",
            "skh umbu",
            "v ad",
            "on ia",
            "un y",
            "k rim",
            "q eri",
            "b ina",
            "ri je",
            "ze j",
            "re z",
            "ab os",
            "j ed",
            "c ity",
            "an y",
            "t abo",
            "ad er",
            "za kh",
            "me e",
            "x ie",
            "ra a",
            "c zy",
            "u z",
            "ro x",
            "ke e",
            "mie czy",
            "an je",
            "haf o",
            "no riz",
            "esi ek",
            "a ye",
            "val in",
            "it she",
            "ma is",
            "is eni",
            "di k",
            "q ase",
            "y na",
            "is ia",
            "ha im",
            "u fi",
            "ma ul",
            "ad h",
            "c an",
            "q in",
            "u zo",
            "ent le",
            "k shi",
            "ta w",
            "no kul",
            "fer son",
            "si p",
            "sh ade",
            "ar ko",
            "ang ida",
            "ye w",
            "ur en",
            "lo uren",
            "kh i",
            "h ona",
            "w ilika",
            "et y",
            "ce ba",
            "ze ez",
            "ou an",
            "sa ck",
            "s tin",
            "es ka",
            "h ed",
            "t ung",
            "w ul",
            "or m",
            "di ka",
            "lo b",
            "ci ca",
            "o yin",
            "vi o",
            "s la",
            "sh warelo",
            "go le",
            "um e",
            "j ka",
            "o ph",
            "sam pat",
            "gr z",
            "bu isi",
            "i fa",
            "ek ile",
            "k anth",
            "ko z",
            "tu du",
            "ol ivi",
            "han u",
            "c al",
            "su ja",
            "fi ku",
            "d ha",
            "ma c",
            "ro gel",
            "et ha",
            "le fi",
            "ko bo",
            "mon ye",
            "ed o",
            "is lava",
            "r d",
            "ad et",
            "l w",
            "w lo",
            "an ura",
            "he esh",
            "end o",
            "gan etso",
            "ka ou",
            "kani pho",
            "h di",
            "z hi",
            "to s",
            "a ul",
            "sir k",
            "ul ethu",
            "ch ak",
            "en na",
            "on kgo",
            "pa u",
            "po tse",
            "sho ko",
            "j b",
            "w on",
            "an ez",
            "po k",
            "bab alo",
            "e w",
            "n ya",
            "se a",
            "un ka",
            "d rah",
            "lo ven",
            "ag u",
            "on kar",
            "a che",
            "m tho",
            "p ard",
            "an am",
            "je mi",
            "d el",
            "g ag",
            "p red",
            "ir eletso",
            "ph as",
            "ke ora",
            "van us",
            "ho le",
            "vir gil",
            "ka be",
            "is ie",
            "ve e",
            "j r",
            "ch im",
            "wa ya",
            "c ze",
            "ul ek",
            "kh ulek",
            "y iso",
            "al ys",
            "ke olebog",
            "mo tshid",
            "x i",
            "is ola",
            "fa i",
            "pe p",
            "f ren",
            "so uf",
            "tu ul",
            "am ade",
            "ta ju",
            "ad ede",
            "p eleng",
            "al oj",
            "mo simane",
            "us t",
            "m n",
            "v im",
            "k ik",
            "ong ezi",
            "chi die",
            "ond jo",
            "e bo",
            "q e",
            "f etse",
            "t sit",
            "z ikh",
            "sh ko",
            "ed za",
            "go pol",
            "or un",
            "mo ek",
            "p jet",
            "mi de",
            "ko s",
            "ce u",
            "f re",
            "at if",
            "khu sh",
            "u ju",
            "na st",
            "mou hs",
            "b ath",
            "q w",
            "ko lodi",
            "ta fadz",
            "mod itse",
            "ol amil",
            "na uf",
            "san qa",
            "bat ris",
            "es ika",
            "da k",
            "b iah",
            "mo e",
            "n ug",
            "in u",
            "ro ho",
            "nat hali",
            "sh pe",
            "f ha",
            "la th",
            "am fi",
            "kh ut",
            "mo f",
            "or eed",
            "ph erd",
            "pe o",
            "i ba",
            "s m",
            "g ardo",
            "nt swa",
            "md u",
            "m r",
            "s eli",
            "ri ce",
            "jo yn",
            "jo sel",
            "go t",
            "bo h",
            "po mb",
            "al zb",
            "yo u",
            "ke a",
            "m hd",
            "su ba",
            "b oni",
            "an it",
            "ju has",
            "mou h",
            "mu m",
            "h ra",
            "an go",
            "j man",
            "b d",
            "e i",
            "them bis",
            "o ck",
            "ola dim",
            "y ie",
            "ta ou",
            "ha it",
            "ri ger",
            "je z",
            "f ta",
            "as te",
            "su par",
            "t ko",
            "be h",
            "ant se",
            "me en",
            "jo b",
            "so e",
            "fa y",
            "uny ela",
            "el sab",
            "na in",
            "kar nain",
            "wa k",
            "h man",
            "r hman",
            "to lul",
            "mot lat",
            "p eri",
            "zy g",
            "as z",
            "h md",
            "n ka",
            "ul e",
            "bo t",
            "ago stin",
            "g be",
            "am u",
            "es ah",
            "ide mi",
            "ri gel",
            "os ethu",
            "g is",
            "i ch",
            "n tu",
            "o do",
            "w ija",
            "end ran",
            "thu ko",
            "ph e",
            "ken ale",
            "t asi",
            "ka vit",
            "na y",
            "na fi",
            "ny an",
            "u sh",
            "u ria",
            "u de",
            "so fe",
            "o ri",
            "t s",
            "go ke",
            "sal o",
            "sh em",
            "do ua",
            "s lo",
            "er o",
            "bo dan",
            "af ri",
            "e ve",
            "z ik",
            "mo or",
            "ju ma",
            "c liv",
            "g ito",
            "va ish",
            "gh ese",
            "ema a",
            "w alo",
            "z eli",
            "it an",
            "p j",
            "ph yll",
            "h ati",
            "as im",
            "si bon",
            "nar asim",
            "fe i",
            "l ol",
            "ja ou",
            "dra gu",
            "tor ina",
            "ayo bam",
            "pr ana",
            "zv jez",
            "n im",
            "ma si",
            "ha iq",
            "go mot",
            "ch al",
            "o ki",
            "ol ub",
            "f rit",
            "i u",
            "di pan",
            "sa ko",
            "eni usz",
            "bon na",
            "a pa",
            "ad ol",
            "tin yi",
            "o ab",
            "sh ta",
            "mo gang",
            "me gam",
            "amo dimo",
            "dem us",
            "itshe pi",
            "et hi",
            "kh ethi",
            "f fo",
            "m ana",
            "s ila",
            "v na",
            "mun t",
            "dzi mierz",
            "a ja",
            "is etso",
            "he id",
            "yi p",
            "h ur",
            "i que",
            "ol i",
            "kh olo",
            "hi rah",
            "o ga",
            "sa q",
            "ne ri",
            "wo o",
            "b ari",
            "ta z",
            "ale fa",
            "ez ie",
            "em el",
            "han ee",
            "im y",
            "bo dh",
            "kel elo",
            "dhar th",
            "w ola",
            "ola yi",
            "bah u",
            "d iso",
            "k b",
            "mo at",
            "at lar",
            "ta kal",
            "ke atlar",
            "bu y",
            "p y",
            "ola de",
            "al ene",
            "o ta",
            "ta a",
            "si vuy",
            "mah bu",
            "bek ile",
            "iv e",
            "f uno",
            "g fi",
            "kgo d",
            "n ek",
            "y sius",
            "an ya",
            "ka iz",
            "ti dim",
            "she go",
            "zu ki",
            "ko ya",
            "ama ija",
            "em on",
            "k tar",
            "u yo",
            "qu ah",
            "nam ari",
            "d jell",
            "i sha",
            "sh ame",
            "ana el",
            "om ina",
            "bu chi",
            "o bus",
            "ab elo",
            "bo ip",
            "at he",
            "nda hambel",
            "vet ka",
            "fj d",
            "il yn",
            "le ka",
            "j v",
            "c ut",
            "d red",
            "j andra",
            "ce p",
            "su war",
            "mi ter",
            "ir eleng",
            "ny am",
            "f ul",
            "f ek",
            "m esz",
            "ar os",
            "c im",
            "c id",
            "ch ho",
            "g yo",
            "mo ide",
            "iv el",
            "w lady",
            "yam beko",
            "b rin",
            "a ib",
            "a je",
            "at ti",
            "ham atti",
            "yin wa",
            "c let",
            "bel ani",
            "vu yol",
            "bu j",
            "per tun",
            "i pho",
            "le w",
            "ky er",
            "d elo",
            "kla ud",
            "an nat",
            "n st",
            "et z",
            "ha g",
            "mu ch",
            "s nen",
            "id or",
            "jay pe",
            "ula gan",
            "bar ulagan",
            "po ola",
            "h elo",
            "ul elo",
            "van ess",
            "ga fo",
            "ade g",
            "k kie",
            "l iki",
            "w s",
            "go m",
            "ik elao",
            "tu yen",
            "bi p",
            "bas i",
            "f lav",
            "k ky",
            "u za",
            "p ias",
            "u o",
            "w end",
            "us ou",
            "b k",
            "l el",
            "l wan",
            "la sar",
            "si ku",
            "ut lwan",
            "h mi",
            "si za",
            "oni que",
            "ju e",
            "ma yo",
            "il endra",
            "y v",
            "eh h",
            "g ha",
            "g ali",
            "p pa",
            "w eli",
            "sh ru",
            "yo k",
            "ej h",
            "a ka",
            "i ga",
            "ka ya",
            "sz u",
            "t sak",
            "y ad",
            "g l",
            "go mod",
            "ik in",
            "ke gomod",
            "szil v",
            "v ine",
            "lie b",
            "un ji",
            "fa iru",
            "uk waya",
            "d ran",
            "k ras",
            "ni qi",
            "dal l",
            "a ph",
            "wa c",
            "ag yi",
            "fol orun",
            "l ala",
            "r ra",
            "s etswe",
            "ol abo",
            "b eri",
            "l ir",
            "v le",
            "an tha",
            "il io",
            "lu she",
            "ong wa",
            "eng jel",
            "lor en",
            "i wo",
            "p le",
            "v raj",
            "ra tho",
            "on ora",
            "em en",
            "raham an",
            "kan hai",
            "az z",
            "ben hle",
            "jen i",
            "he e",
            "ho w",
            "con fid",
            "mo sho",
            "ce c",
            "mer ced",
            "sh k",
            "ur shid",
            "lu ck",
            "va o",
            "m es",
            "su is",
            "d d",
            "il la",
            "jan an",
            "ez slav",
            "dd g",
            "mu haim",
            "cs is",
            "ra yo",
            "sh ou",
            "mar jet",
            "un rayo",
            "v elo",
            "hed vi",
            "s r",
            "la z",
            "di q",
            "g ia",
            "i ya",
            "mo ga",
            "ga i",
            "j eri",
            "wa kh",
            "mz wakh",
            "d z",
            "l jer",
            "p to",
            "sh ka",
            "ko le",
            "ag yap",
            "ola sun",
            "kan mi",
            "h mz",
            "q oba",
            "pris k",
            "ar bin",
            "ka fu",
            "fat ee",
            "n div",
            "na v",
            "hu wo",
            "maj l",
            "l end",
            "mat sh",
            "b iz",
            "c co",
            "i pala",
            "n di",
            "q y",
            "r rag",
            "is ani",
            "ad zi",
            "ko bam",
            "ne he",
            "ter ren",
            "mun yar",
            "ntom biz",
            "shy qy",
            "c os",
            "n wan",
            "ir us",
            "ba ffo",
            "at hen",
            "im ete",
            "med in",
            "ho k",
            "mo ip",
            "har ve",
            "if hiwa",
            "ug elo",
            "az oo",
            "ru v",
            "sal a",
            "f iz",
            "p is",
            "ana st",
            "ah e",
            "ir etse",
            "mil ola",
            "j vi",
            "o ak",
            "q as",
            "s to",
            "si dah",
            "e us",
            "and jo",
            "ir man",
            "o by",
            "mak sy",
            "c r",
            "j dan",
            "u al",
            "y el",
            "ch ide",
            "pet ual",
            "mah ade",
            "de ka",
            "e gi",
            "n dea",
            "kh ona",
            "um etse",
            "po ju",
            "nan gom",
            "ko p",
            "ib ade",
            "f el",
            "y ia",
            "ko lek",
            "ze ka",
            "d ed",
            "f ez",
            "kay ise",
            "w f",
            "y c",
            "d itha",
            "i mo",
            "m si",
            "p ren",
            "s mil",
            "es eng",
            "ena o",
            "ale ena",
            "tshep ile",
            "g em",
            "t k",
            "am adh",
            "di ek",
            "ag ros",
            "ets eng",
            "ya k",
            "gu o",
            "jam ai",
            "c elo",
            "re sha",
            "ced isi",
            "j il",
            "an or",
            "al we",
            "ha ing",
            "ris sa",
            "m pend",
            "ed ine",
            "ef e",
            "nd udu",
            "o at",
            "la ad",
            "is ano",
            "it e",
            "si yam",
            "mon kgo",
            "ot laad",
            "w ene",
            "s ch",
            "ch or",
            "ag y",
            "um usa",
            "char ia",
            "c umi",
            "i fi",
            "n cumi",
            "po wer",
            "kar u",
            "d ek",
            "el lo",
            "le mu",
            "m bin",
            "sh ku",
            "mo bile",
            "et ie",
            "ad hu",
            "ol ind",
            "ti o",
            "no a",
            "ong or",
            "mb at",
            "s bo",
            "u jun",
            "in don",
            "am bro",
            "ra petse",
            "ha w",
            "ik any",
            "ga ole",
            "pe h",
            "kgo mot",
            "ap art",
            "o feek",
            "ina v",
            "xu e",
            "i ri",
            "va shi",
            "e ya",
            "g ed",
            "v ya",
            "ris lav",
            "he ged",
            "od una",
            "u pe",
            "am po",
            "ka si",
            "and u",
            "za y",
            "po p",
            "ros wit",
            "hon ora",
            "hay la",
            "f olas",
            "k ant",
            "w anga",
            "z ib",
            "tin ts",
            "on ja",
            "sh rik",
            "i usz",
            "j endra",
            "n te",
            "s ard",
            "mo ula",
            "da po",
            "re mig",
            "ya u",
            "bog ang",
            "g w",
            "h mo",
            "al y",
            "ed ha",
            "ni ma",
            "bi yi",
            "ash fa",
            "shi gw",
            "an yan",
            "ol ale",
            "v eri",
            "un anya",
            "so s",
            "hu a",
            "u ar",
            "jo ak",
            "gi h",
            "e un",
            "o on",
            "z han",
            "ra q",
            "er t",
            "ch aw",
            "yo tlhe",
            "mah le",
            "dy g",
            "f hiwa",
            "p k",
            "ia a",
            "una s",
            "z ur",
            "da s",
            "va ir",
            "pon ja",
[...]
