{
    "version": "1.0",
    "truncation": null,
    "padding": null,
    "added_tokens": [
        {
            "id": 0,
            "content": "[UNK]",
            "single_word": false,
            "lstrip": false,
            "rstrip": false,
            "normalized": false,
            "special": true
        },
        {
            "id": 1,
            "content": "[CLS]",
            "single_word": false,
            "lstrip": false,
            "rstrip": false,
            "normalized": false,
            "special": true
        },
        {
            "id": 2,
            "content": "[SEP]",
            "single_word": false,
            "lstrip": false,
            "rstrip": false,
            "normalized": false,
            "special": true
        },
        {
            "id": 3,
            "content": "[PAD]",
            "single_word": false,
            "lstrip": false,
            "rstrip": false,
            "normalized": false,
            "special": true
        },
        {
            "id": 4,
            "content": "[MASK]",
            "single_word": false,
            "lstrip": false,
            "rstrip": false,
            "normalized": false,
            "special": true
        }
    ],
    "normalizer": null,
    "pre_tokenizer": {
        "type": "Whitespace"
    },
    "post_processor": null,
    "decoder": null,
    "model": {
        "type": "BPE",
        "dropout": null,
        "unk_token": "[UNK]",
        "continuing_subword_prefix": null,
        "end_of_word_suffix": null,
        "fuse_unk": false,
        "vocab": {
            "[UNK]": 0,
            "[CLS]": 1,
            "[SEP]": 2,
            "[PAD]": 3,
            "[MASK]": 4,
            "-": 5,
            "a": 6,
            "b": 7,
            "c": 8,
            "d": 9,
            "e": 10,
            "f": 11,
            "g": 12,
            "h": 13,
            "i": 14,
            "j": 15,
            "k": 16,
            "l": 17,
            "m": 18,
            "n": 19,
            "o": 20,
            "p": 21,
            "q": 22,
            "r": 23,
            "s": 24,
            "t": 25,
            "u": 26,
            "v": 27,
            "w": 28,
            "x": 29,
            "y": 30,
            "z": 31,
            "an": 32,
            "ar": 33,
            "el": 34,
            "ia": 35,
            "in": 36,
            "mar": 37,
            "er": 38,
            "is": 39,
            "en": 40,
            "io": 41,
            "al": 42,
            "ic": 43,
            "on": 44,
            "jo": 45,
            "es": 46,
            "dr": 47,
            "la": 48,
            "at": 49,
            "lo": 50,
            "ana": 51,
            "il": 52,
            "se": 53,
            "car": 54,
            "lu": 55,
            "andr": 56,
            "co": 57,
            "ie": 58,
            "ma": 59,
            "ra": 60,
            "ro": 61,
            "uel": 62,
            "do": 63,
            "ina": 64,
            "ant": 65,
            "ab": 66,
            "fr": 67,
            "vi": 68,
            "to": 69,
            "pa": 70,
            "pe": 71,
            "da": 72,
            "ine": 73,
            "ri": 74,
            "man": 75,
            "te": 76,
            "ann": 77,
            "le": 78,
            "lau": 79,
            "ju": 80,
            "ta": 81,
            "mi": 82,
            "ris": 83,
            "go": 84,
            "gi": 85,
            "ch": 86,
            "ric": 87,
            "ed": 88,
            "im": 89,
            "ani": 90,
            "ara": 91,
            "sa": 92,
            "ber": 93,
            "rist": 94,
            "ca": 95,
            "ru": 96,
            "ian": 97,
            "re": 98,
            "ale": 99,
            "ela": 100,
            "joa": 101,
            "gio": 102,
            "ang": 103,
            "qu": 104,
            "us": 105,
            "ph": 106,
            "no": 107,
            "sandr": 108,
            "pau": 109,
            "iana": 110,
            "ren": 111,
            "ja": 112,
            "men": 113,
            "ica": 114,
            "ico": 115,
            "dro": 116,
            "so": 117,
            "vid": 118,
            "isab": 119,
            "hel": 120,
            "th": 121,
            "ardo": 122,
            "ol": 123,
            "mig": 124,
            "ena": 125,
            "crist": 126,
            "rg": 127,
            "mic": 128,
            "pat": 129,
            "giu": 130,
            "ili": 131,
            "mo": 132,
            "ste": 133,
            "ath": 134,
            "na": 135,
            "jul": 136,
            "em": 137,
            "ppe": 138,
            "ce": 139,
            "sim": 140,
            "fab": 141,
            "ien": 142,
            "luc": 143,
            "ier": 144,
            "ael": 145,
            "je": 146,
            "tor": 147,
            "fer": 148,
            "mon": 149,
            "am": 150,
            "riz": 151,
            "as": 152,
            "au": 153,
            "val": 154,
            "ser": 155,
            "vier": 156,
            "nan": 157,
            "van": 158,
            "mas": 159,
            "vin": 160,
            "isa": 161,
            "ter": 162,
            "bru": 163,
            "jes": 164,
            "tia": 165,
            "zo": 166,
            "nu": 167,
            "be": 168,
            "fernan": 169,
            "que": 170,
            "son": 171,
            "me": 172,
            "ent": 173,
            "vic": 174,
            "giuse": 175,
            "mat": 176,
            "ben": 177,
            "raf": 178,
            "de": 179,
            "cat": 180,
            "ros": 181,
            "cel": 182,
            "alv": 183,
            "sil": 184,
            "rge": 185,
            "fili": 186,
            "ver": 187,
            "gu": 188,
            "pao": 189,
            "silv": 190,
            "ino": 191,
            "esa": 192,
            "iano": 193,
            "fan": 194,
            "et": 195,
            "giov": 196,
            "id": 197,
            "gab": 198,
            "yl": 199,
            "ane": 200,
            "rui": 201,
            "loren": 202,
            "adr": 203,
            "ique": 204,
            "ria": 205,
            "min": 206,
            "ato": 207,
            "mau": 208,
            "ima": 209,
            "vinc": 210,
            "dio": 211,
            "sof": 212,
            "salv": 213,
            "die": 214,
            "cal": 215,
            "hu": 216,
            "sus": 217,
            "va": 218,
            "quel": 219,
            "ari": 220,
            "ham": 221,
            "marg": 222,
            "aro": 223,
            "rd": 224,
            "del": 225,
            "fat": 226,
            "ger": 227,
            "pas": 228,
            "mel": 229,
            "tte": 230,
            "ne": 231,
            "seb": 232,
            "ilar": 233,
            "ton": 234,
            "guil": 235,
            "arina": 236,
            "ast": 237,
            "giul": 238,
            "syl": 239,
            "zia": 240,
            "gon": 241,
            "lou": 242,
            "sam": 243,
            "con": 244,
            "cio": 245,
            "ul": 246,
            "massim": 247,
            "ry": 248,
            "ard": 249,
            "jer": 250,
            "valer": 251,
            "lui": 252,
            "chi": 253,
            "ga": 254,
            "ti": 255,
            "alic": 256,
            "ise": 257,
            "rizio": 258,
            "edu": 259,
            "veron": 260,
            "ke": 261,
            "ene": 262,
            "nat": 263,
            "oli": 264,
            "teo": 265,
            "sebast": 266,
            "eva": 267,
            "moham": 268,
            "toph": 269,
            "flo": 270,
            "gra": 271,
            "or": 272,
            "andra": 273,
            "bar": 274,
            "atore": 275,
            "ali": 276,
            "ime": 277,
            "max": 278,
            "ba": 279,
            "anie": 280,
            "ge": 281,
            "phili": 282,
            "joaqu": 283,
            "margari": 284,
            "mer": 285,
            "sab": 286,
            "ha": 287,
            "igo": 288,
            "nad": 289,
            "rel": 290,
            "za": 291,
            "omas": 292,
            "di": 293,
            "elisab": 294,
            "her": 295,
            "vie": 296,
            "nel": 297,
            "tta": 298,
            "bel": 299,
            "calo": 300,
            "rice": 301,
            "lil": 302,
            "tan": 303,
            "jac": 304,
            "kar": 305,
            "ka": 306,
            "domin": 307,
            "mil": 308,
            "ora": 309,
            "alej": 310,
            "os": 311,
            "ain": 312,
            "onso": 313,
            "gia": 314,
            "virg": 315,
            "enn": 316,
            "li": 317,
            "fonso": 318,
            "lor": 319,
            "pab": 320,
            "char": 321,
            "virgin": 322,
            "yo": 323,
            "gus": 324,
            "rodr": 325,
            "st": 326,
            "cor": 327,
            "bern": 328,
            "riam": 329,
            "cle": 330,
            "elo": 331,
            "ilde": 332,
            "jon": 333,
            "phie": 334,
            "cil": 335,
            "eli": 336,
            "jord": 337,
            "and": 338,
            "ly": 339,
            "vio": 340,
            "ieu": 341,
            "sant": 342,
            "edo": 343,
            "les": 344,
            "raff": 345,
            "rdes": 346,
            "clemen": 347,
            "pp": 348,
            "med": 349,
            "ome": 350,
            "anth": 351,
            "laume": 352,
            "cin": 353,
            "xa": 354,
            "camil": 355,
            "main": 356,
            "thier": 357,
            "elisabe": 358,
            "ony": 359,
            "carm": 360,
            "my": 361,
            "mir": 362,
            "pie": 363,
            "rizia": 364,
            "ire": 365,
            "eu": 366,
            "gil": 367,
            "ele": 368,
            "inda": 369,
            "cy": 370,
            "eo": 371,
            "ve": 372,
            "ur": 373,
            "dal": 374,
            "tro": 375,
            "ze": 376,
            "gre": 377,
            "fa": 378,
            "den": 379,
            "dami": 380,
            "der": 381,
            "auro": 382,
            "ud": 383,
            "erine": 384,
            "nes": 385,
            "fla": 386,
            "ther": 387,
            "ano": 388,
            "dy": 389,
            "joh": 390,
            "ey": 391,
            "conce": 392,
            "iane": 393,
            "athan": 394,
            "ces": 395,
            "ves": 396,
            "qui": 397,
            "floren": 398,
            "pasqu": 399,
            "it": 400,
            "ib": 401,
            "rgio": 402,
            "ah": 403,
            "yol": 404,
            "mag": 405,
            "dolor": 406,
            "ass": 407,
            "mont": 408,
            "gaet": 409,
            "etta": 410,
            "gen": 411,
            "este": 412,
            "tom": 413,
            "idia": 414,
            "dric": 415,
            "kael": 416,
            "ya": 417,
            "ppo": 418,
            "dalena": 419,
            "ced": 420,
            "zi": 421,
            "ad": 422,
            "lea": 423,
            "tat": 424,
            "est": 425,
            "glo": 426,
            "quent": 427,
            "via": 428,
            "tiz": 429,
            "uri": 430,
            "arna": 431,
            "merced": 432,
            "kat": 433,
            "tin": 434,
            "aria": 435,
            "gius": 436,
            "ag": 437,
            "un": 438,
            "vo": 439,
            "did": 440,
            "ko": 441,
            "ida": 442,
            "drey": 443,
            "laet": 444,
            "ho": 445,
            "rach": 446,
            "ques": 447,
            "vas": 448,
            "alo": 449,
            "yne": 450,
            "ki": 451,
            "dine": 452,
            "leo": 453,
            "lan": 454,
            "ril": 455,
            "cla": 456,
            "lia": 457,
            "bri": 458,
            "wil": 459,
            "ado": 460,
            "vit": 461,
            "eri": 462,
            "ick": 463,
            "grego": 464,
            "fi": 465,
            "phine": 466,
            "giaco": 467,
            "ita": 468,
            "encar": 469,
            "cha": 470,
            "guilher": 471,
            "loe": 472,
            "don": 473,
            "ci": 474,
            "ig": 475,
            "vittor": 476,
            "du": 477,
            "ou": 478,
            "art": 479,
            "noe": 480,
            "morg": 481,
            "geo": 482,
            "igna": 483,
            "eleon": 484,
            "mano": 485,
            "tis": 486,
            "giorg": 487,
            "ile": 488,
            "per": 489,
            "pep": 490,
            "iliano": 491,
            "ptis": 492,
            "baptis": 493,
            "he": 494,
            "oit": 495,
            "thib": 496,
            "thibau": 497,
            "ietta": 498,
            "sora": 499,
            "ada": 500,
            "ifer": 501,
            "dou": 502,
            "melo": 503,
            "gis": 504,
            "ite": 505,
            "arte": 506,
            "erina": 507,
            "zio": 508,
            "gusta": 509,
            "icao": 510,
            "mire": 511,
            "maril": 512,
            "kel": 513,
            "dyl": 514,
            "sal": 515,
            "matth": 516,
            "dan": 517,
            "paro": 518,
            "ata": 519,
            "pasc": 520,
            "ea": 521,
            "su": 522,
            "tel": 523,
            "salvado": 524,
            "genn": 525,
            "meh": 526,
            "ax": 527,
            "mim": 528,
            "edana": 529,
            "maso": 530,
            "sever": 531,
            "oce": 532,
            "nade": 533,
            "lio": 534,
            "fio": 535,
            "hard": 536,
            "bened": 537,
            "muri": 538,
            "elyne": 539,
            "ila": 540,
            "lette": 541,
            "guy": 542,
            "rah": 543,
            "cons": 544,
            "wal": 545,
            "annal": 546,
            "nun": 547,
            "ray": 548,
            "laur": 549,
            "ky": 550,
            "cion": 551,
            "icia": 552,
            "ello": 553,
            "ner": 554,
            "ban": 555,
            "fo": 556,
            "lfo": 557,
            "judi": 558,
            "augus": 559,
            "ev": 560,
            "cco": 561,
            "ler": 562,
            "guiller": 563,
            "elvi": 564,
            "arth": 565,
            "cia": 566,
            "nie": 567,
            "begon": 568,
            "queline": 569,
            "ago": 570,
            "agost": 571,
            "ido": 572,
            "zalo": 573,
            "che": 574,
            "gar": 575,
            "ille": 576,
            "maric": 577,
            "ernes": 578,
            "margher": 579,
            "ai": 580,
            "dia": 581,
            "gh": 582,
            "gw": 583,
            "nic": 584,
            "madou": 585,
            "bea": 586,
            "ivo": 587,
            "cho": 588,
            "fel": 589,
            "ni": 590,
            "rand": 591,
            "noem": 592,
            "armen": 593,
            "ty": 594,
            "yous": 595,
            "bo": 596,
            "bia": 597,
            "ette": 598,
            "iv": 599,
            "luz": 600,
            "coren": 601,
            "kh": 602,
            "rob": 603,
            "giusepp": 604,
            "bal": 605,
            "uro": 606,
            "can": 607,
            "may": 608,
            "blan": 609,
            "sol": 610,
            "ilio": 611,
            "ias": 612,
            "hass": 613,
            "cu": 614,
            "din": 615,
            "ctor": 616,
            "pha": 617,
            "enia": 618,
            "sef": 619,
            "dad": 620,
            "maris": 621,
            "you": 622,
            "usta": 623,
            "dul": 624,
            "ticia": 625,
            "bast": 626,
            "ion": 627,
            "khal": 628,
            "rin": 629,
            "jos": 630,
            "lt": 631,
            "peran": 632,
            "aux": 633,
            "bor": 634,
            "po": 635,
            "rat": 636,
            "riane": 637,
            "rid": 638,
            "lar": 639,
            "imo": 640,
            "yoh": 641,
            "gine": 642,
            "ay": 643,
            "ide": 644,
            "abe": 645,
            "samant": 646,
            "esperan": 647,
            "musta": 648,
            "ac": 649,
            "rodo": 650,
            "jim": 651,
            "des": 652,
            "moren": 653,
            "faus": 654,
            "pia": 655,
            "ira": 656,
            "mu": 657,
            "ven": 658,
            "ussa": 659,
            "hic": 660,
            "assun": 661,
            "azi": 662,
            "tri": 663,
            "ama": 664,
            "fania": 665,
            "mad": 666,
            "ainho": 667,
            "ienne": 668,
            "inha": 669,
            "iol": 670,
            "zabe": 671,
            "elizabe": 672,
            "felic": 673,
            "bian": 674,
            "giam": 675,
            "inho": 676,
            "orlan": 677,
            "ises": 678,
            "ffr": 679,
            "mud": 680,
            "almud": 681,
            "ffrey": 682,
            "ese": 683,
            "ito": 684,
            "uelo": 685,
            "serrat": 686,
            "mitri": 687,
            "rio": 688,
            "ume": 689,
            "yas": 690,
            "mid": 691,
            "ceu": 692,
            "bil": 693,
            "verio": 694,
            "ode": 695,
            "yes": 696,
            "cine": 697,
            "far": 698,
            "oph": 699,
            "erw": 700,
            "maryl": 701,
            "grid": 702,
            "bernade": 703,
            "cas": 704,
            "gas": 705,
            "sao": 706,
            "graz": 707,
            "etto": 708,
            "kim": 709,
            "od": 710,
            "vine": 711,
            "ludi": 712,
            "ence": 713,
            "jacin": 714,
            "trin": 715,
            "tty": 716,
            "nai": 717,
            "las": 718,
            "aracel": 719,
            "amb": 720,
            "yv": 721,
            "vieve": 722,
            "trist": 723,
            "dali": 724,
            "gros": 725,
            "cid": 726,
            "are": 727,
            "jam": 728,
            "isi": 729,
            "ugo": 730,
            "gasp": 731,
            "ik": 732,
            "arant": 733,
            "stant": 734,
            "kil": 735,
            "sta": 736,
            "gero": 737,
            "esmer": 738,
            "ful": 739,
            "the": 740,
            "isse": 741,
            "mauric": 742,
            "arita": 743,
            "gore": 744,
            "constan": 745,
            "sou": 746,
            "alb": 747,
            "rine": 748,
            "eve": 749,
            "kha": 750,
            "edi": 751,
            "dija": 752,
            "mou": 753,
            "athe": 754,
            "vano": 755,
            "isra": 756,
            "she": 757,
            "ayou": 758,
            "si": 759,
            "sera": 760,
            "ure": 761,
            "elaure": 762,
            "nab": 763,
            "pol": 764,
            "hugu": 765,
            "ddy": 766,
            "lian": 767,
            "iro": 768,
            "idad": 769,
            "uc": 770,
            "minia": 771,
            "rie": 772,
            "met": 773,
            "iree": 774,
            "suz": 775,
            "az": 776,
            "uard": 777,
            "eles": 778,
            "paz": 779,
            "mine": 780,
            "ny": 781,
            "ran": 782,
            "aic": 783,
            "pi": 784,
            "ys": 785,
            "nth": 786,
            "cynth": 787,
            "cca": 788,
            "ionu": 789,
            "viane": 790,
            "ff": 791,
            "rad": 792,
            "rezia": 793,
            "ruz": 794,
            "icte": 795,
            "gau": 796,
            "iz": 797,
            "naz": 798,
            "ort": 799,
            "carena": 800,
            "neu": 801,
            "xe": 802,
            "cen": 803,
            "fato": 804,
            "seraf": 805,
            "emi": 806,
            "myl": 807,
            "ir": 808,
            "fed": 809,
            "res": 810,
            "iss": 811,
            "jp": 812,
            "one": 813,
            "pal": 814,
            "renau": 815,
            "uy": 816,
            "lot": 817,
            "eus": 818,
            "abra": 819,
            "cand": 820,
            "jeann": 821,
            "nas": 822,
            "ando": 823,
            "ferdin": 824,
            "pcion": 825,
            "zoe": 826,
            "phaine": 827,
            "rome": 828,
            "nor": 829,
            "bou": 830,
            "meric": 831,
            "ilien": 832,
            "renco": 833,
            "gwena": 834,
            "ophie": 835,
            "esophie": 836,
            "natas": 837,
            "ison": 838,
            "martia": 839,
            "dna": 840,
            "tit": 841,
            "valdo": 842,
            "sia": 843,
            "adal": 844,
            "kyl": 845,
            "upe": 846,
            "guadal": 847,
            "tilio": 848,
            "ual": 849,
            "tolo": 850,
            "tha": 851,
            "ffan": 852,
            "tiffan": 853,
            "isio": 854,
            "giord": 855,
            "gane": 856,
            "brand": 857,
            "wilfr": 858,
            "eunic": 859,
            "victo": 860,
            "sv": 861,
            "jonat": 862,
            "vinia": 863,
            "cic": 864,
            "edeo": 865,
            "ald": 866,
            "romu": 867,
            "xab": 868,
            "itzi": 869,
            "holas": 870,
            "jan": 871,
            "ande": 872,
            "stel": 873,
            "fort": 874,
            "iza": 875,
            "lph": 876,
            "rodolph": 877,
            "pris": 878,
            "yer": 879,
            "alc": 880,
            "gue": 881,
            "ios": 882,
            "remed": 883,
            "rka": 884,
            "cta": 885,
            "octa": 886,
            "alzi": 887,
            "lah": 888,
            "vino": 889,
            "gg": 890,
            "pegg": 891,
            "iul": 892,
            "lie": 893,
            "moun": 894,
            "onimo": 895,
            "sica": 896,
            "cillia": 897,
            "fou": 898,
            "ika": 899,
            "hem": 900,
            "lady": 901,
            "ladys": 902,
            "hammad": 903,
            "lin": 904,
            "arlin": 905,
            "dem": 906,
            "gli": 907,
            "pin": 908,
            "gugli": 909,
            "joe": 910,
            "ucena": 911,
            "eze": 912,
            "sebio": 913,
            "quiel": 914,
            "ema": 915,
            "helo": 916,
            "saria": 917,
            "bob": 918,
            "ige": 919,
            "wige": 920,
            "jc": 921,
            "uz": 922,
            "rug": 923,
            "ccio": 924,
            "gdan": 925,
            "chry": 926,
            "clot": 927,
            "anasta": 928,
            "ius": 929,
            "pu": 930,
            "xane": 931,
            "ot": 932,
            "arc": 933,
            "rghe": 934,
            "eorghe": 935,
            "eul": 936,
            "dom": 937,
            "jb": 938,
            "sion": 939,
            "vien": 940,
            "nord": 941,
            "costant": 942,
            "ait": 943,
            "dade": 944,
            "av": 945,
            "ron": 946,
            "elino": 947,
            "mam": 948,
            "tru": 949,
            "ied": 950,
            "han": 951,
            "ppa": 952,
            "aela": 953,
            "gui": 954,
            "souf": 955,
            "amau": 956,
            "md": 957,
            "gan": 958,
            "afr": 959,
            "ix": 960,
            "irat": 961,
            "sin": 962,
            "hab": 963,
            "pio": 964,
            "raim": 965,
            "impia": 966,
            "lic": 967,
            "ice": 968,
            "licin": 969,
            "lw": 970,
            "otta": 971,
            "tz": 972,
            "nolw": 973,
            "oum": 974,
            "tier": 975,
            "mosta": 976,
            "egi": 977,
            "ilcar": 978,
            "orl": 979,
            "rachi": 980,
            "nio": 981,
            "sel": 982,
            "vra": 983,
            "junio": 984,
            "gr": 985,
            "ercia": 986,
            "sagr": 987,
            "fco": 988,
            "fle": 989,
            "ero": 990,
            "vy": 991,
            "ore": 992,
            "ye": 993,
            "laye": 994,
            "hora": 995,
            "kek": 996,
            "cus": 997,
            "sto": 998,
            "custo": 999,
            "icol": 1000,
            "loud": 1001,
            "ket": 1002,
            "cef": 1003,
            "valde": 1004,
            "deu": 1005,
            "chino": 1006,
            "gioac": 1007,
            "denn": 1008,
            "fari": 1009,
            "von": 1010,
            "txe": 1011,
            "oni": 1012,
            "alize": 1013,
            "zakar": 1014,
            "hra": 1015,
            "vao": 1016,
            "fid": 1017,
            "nisio": 1018,
            "ue": 1019,
            "uccia": 1020,
            "ola": 1021,
            "erman": 1022,
            "ermel": 1023,
            "mata": 1024,
            "graci": 1025,
            "dant": 1026,
            "inata": 1027,
            "dor": 1028,
            "doun": 1029,
            "tare": 1030,
            "aret": 1031,
            "margu": 1032,
            "reira": 1033,
            "erite": 1034,
            "xis": 1035,
            "abdal": 1036,
            "isido": 1037,
            "felis": 1038,
            "mant": 1039,
            "capu": 1040,
            "svit": 1041,
            "ibrah": 1042,
            "uis": 1043,
            "xel": 1044,
            "eluis": 1045,
            "lati": 1046,
            "minio": 1047,
            "merit": 1048,
            "xell": 1049,
            "zur": 1050,
            "azzur": 1051,
            "ous": 1052,
            "cur": 1053,
            "ges": 1054,
            "ona": 1055,
            "tari": 1056,
            "ondo": 1057,
            "ague": 1058,
            "dica": 1059,
            "xi": 1060,
            "unato": 1061,
            "ole": 1062,
            "wel": 1063,
            "bra": 1064,
            "cie": 1065,
            "atino": 1066,
            "len": 1067,
            "dil": 1068,
            "mur": 1069,
            "milo": 1070,
            "katius": 1071,
            "ach": 1072,
            "cl": 1073,
            "fica": 1074,
            "iem": 1075,
            "mes": 1076,
            "rne": 1077,
            "vil": 1078,
            "ieta": 1079,
            "etano": 1080,
            "nil": 1081,
            "oussa": 1082,
            "usou": 1083,
            "bali": 1084,
            "mia": 1085,
            "tra": 1086,
            "raba": 1087,
            "baliz": 1088,
            "arle": 1089,
            "fortu": 1090,
            "dja": 1091,
            "eddine": 1092,
            "undo": 1093,
            "ader": 1094,
            "chic": 1095,
            "aca": 1096,
            "zul": 1097,
            "aza": 1098,
            "hara": 1099,
            "ikel": 1100,
            "uss": 1101,
            "hort": 1102,
            "cao": 1103,
            "horten": 1104,
            "roy": 1105,
            "dj": 1106,
            "uan": 1107,
            "chra": 1108,
            "ibril": 1109,
            "djo": 1110,
            "fim": 1111,
            "yre": 1112,
            "fra": 1113,
            "enger": 1114,
            "berenger": 1115,
            "ufi": 1116,
            "toufi": 1117,
            "kun": 1118,
            "sul": 1119,
            "imilien": 1120,
            "askun": 1121,
            "was": 1122,
            "yin": 1123,
            "seyin": 1124,
            "redou": 1125,
            "pres": 1126,
            "zine": 1127,
            "babe": 1128,
            "marien": 1129,
            "lamo": 1130,
            "los": 1131,
            "rolamo": 1132,
            "ccia": 1133,
            "fe": 1134,
            "ycal": 1135,
            "ilys": 1136,
            "delaria": 1137,
            "mana": 1138,
            "erva": 1139,
            "rot": 1140,
            "modes": 1141,
            "cric": 1142,
            "uria": 1143,
            "sale": 1144,
            "bat": 1145,
            "tista": 1146,
            "har": 1147,
            "ux": 1148,
            "bran": 1149,
            "uren": 1150,
            "yuren": 1151,
            "ruccio": 1152,
            "ofr": 1153,
            "onofr": 1154,
            "rela": 1155,
            "siane": 1156,
            "pepp": 1157,
            "yetano": 1158,
            "alcid": 1159,
            "bre": 1160,
            "glio": 1161,
            "mbre": 1162,
            "ombre": 1163,
            "giglio": 1164,
            "cer": 1165,
            "tul": 1166,
            "ndo": 1167,
            "segu": 1168,
            "maid": 1169,
            "celest": 1170,
            "gual": 1171,
            "xo": 1172,
            "laine": 1173,
            "sev": 1174,
            "dac": 1175,
            "bi": 1176,
            "etrio": 1177,
            "fu": 1178,
            "oel": 1179,
            "giudi": 1180,
            "fin": 1181,
            "iba": 1182,
            "ms": 1183,
            "fam": 1184,
            "vette": 1185,
            "zar": 1186,
            "eno": 1187,
            "icius": 1188,
            "giacin": 1189,
            "nazzar": 1190,
            "smin": 1191,
            "tt": 1192,
            "gues": 1193,
            "ere": 1194,
            "berang": 1195,
            "bas": 1196,
            "giero": 1197,
            "phile": 1198,
            "giosu": 1199,
            "liud": 1200,
            "hina": 1201,
            "tti": 1202,
            "non": 1203,
            "abder": 1204,
            "lis": 1205,
            "illa": 1206,
            "mundo": 1207,
            "pes": 1208,
            "almer": 1209,
            "rt": 1210,
            "sli": 1211,
            "vis": 1212,
            "virt": 1213,
            "soles": 1214,
            "udes": 1215,
            "hi": 1216,
            "ialen": 1217,
            "cova": 1218,
            "mitru": 1219,
            "donga": 1220,
            "hen": 1221,
            "khe": 1222,
            "romo": 1223,
            "bina": 1224,
            "arde": 1225,
            "madal": 1226,
            "bernarde": 1227,
            "ikh": 1228,
            "vina": 1229,
            "elvina": 1230,
            "esinha": 1231,
            "phanie": 1232,
            "xav": 1233,
            "kol": 1234,
            "yra": 1235,
            "arinho": 1236,
            "mait": 1237,
            "gaiz": 1238,
            "enne": 1239,
            "idade": 1240,
            "iu": 1241,
            "iva": 1242,
            "iaco": 1243,
            "ersil": 1244,
            "pela": 1245,
            "lumin": 1246,
            "tof": 1247,
            "ouis": 1248,
            "vinda": 1249,
            "uliss": 1250,
            "cri": 1251,
            "annun": 1252,
            "chu": 1253,
            "ziata": 1254,
            "mal": 1255,
            "uta": 1256,
            "ance": 1257,
            "iomar": 1258,
            "ritin": 1259,
            "laury": 1260,
            "soiz": 1261,
            "ef": 1262,
            "lloren": 1263,
            "estro": 1264,
            "ricio": 1265,
            "ioa": 1266,
            "cre": 1267,
            "erco": 1268,
            "rogio": 1269,
            "milde": 1270,
            "pri": 1271,
            "iglia": 1272,
            "fon": 1273,
            "iry": 1274,
            "kin": 1275,
            "anjos": 1276,
            "alfon": 1277,
            "dos": 1278,
            "paol": 1279,
            "ruy": 1280,
            "gertru": 1281,
            "dje": 1282,
            "iy": 1283,
            "zu": 1284,
            "arka": 1285,
            "mama": 1286,
            "racion": 1287,
            "zazu": 1288,
            "itz": 1289,
            "hane": 1290,
            "ihane": 1291,
            "ksandr": 1292,
            "narc": 1293,
            "sso": 1294,
            "wag": 1295,
            "iso": 1296,
            "zete": 1297,
            "uba": 1298,
            "alme": 1299,
            "silvest": 1300,
            "onzo": 1301,
            "ribe": 1302,
            "dgero": 1303,
            "viana": 1304,
            "aitzi": 1305,
            "cres": 1306,
            "itor": 1307,
            "xita": 1308,
            "lody": 1309,
            "ilica": 1310,
            "myr": 1311,
            "volody": 1312,
            "fia": 1313,
            "ixe": 1314,
            "mme": 1315,
            "sid": 1316,
            "tto": 1317,
            "arca": 1318,
            "onio": 1319,
            "teixe": 1320,
            "fiamme": 1321,
            "geles": 1322,
            "tias": 1323,
            "xaso": 1324,
            "iar": 1325,
            "llo": 1326,
            "carval": 1327,
            "cul": 1328,
            "hercul": 1329,
            "ayo": 1330,
            "iru": 1331,
            "suel": 1332,
            "annaro": 1333,
            "alaz": 1334,
            "teiro": 1335,
            "biana": 1336,
            "pra": 1337,
            "pre": 1338,
            "zer": 1339,
            "ciosa": 1340,
            "prazer": 1341,
            "nin": 1342,
            "pos": 1343,
            "tx": 1344,
            "elet": 1345,
            "espos": 1346,
            "setta": 1347,
            "margali": 1348,
            "gel": 1349,
            "speran": 1350,
            "cacil": 1351,
            "dea": 1352,
            "orqui": 1353,
            "liban": 1354,
            "tiero": 1355,
            "ive": 1356,
            "edmil": 1357,
            "mpe": 1358,
            "reia": 1359,
            "pompe": 1360,
            "mele": 1361,
            "uccio": 1362,
            "bale": 1363,
            "otel": 1364,
            "ares": 1365,
            "ap": 1366,
            "kas": 1367,
            "mba": 1368,
            "zina": 1369,
            "enzina": 1370,
            "atrice": 1371,
            "dira": 1372,
            "erino": 1373,
            "mao": 1374,
            "has": 1375,
            "anin": 1376,
            "leopol": 1377,
            "aus": 1378,
            "edmon": 1379,
            "das": 1380,
            "silda": 1381,
            "sinda": 1382,
            "tu": 1383
        },
        "merges": [
            "a n",
            "a r",
            "e l",
            "i a",
            "i n",
            "m ar",
            "e r",
            "i s",
            "e n",
            "i o",
            "a l",
            "i c",
            "o n",
            "j o",
            "e s",
            "d r",
            "l a",
            "a t",
            "l o",
            "an a",
            "i l",
            "s e",
            "c ar",
            "l u",
            "an dr",
            "c o",
            "i e",
            "m a",
            "r a",
            "r o",
            "u el",
            "d o",
            "in a",
            "an t",
            "a b",
            "f r",
            "v i",
            "t o",
            "p a",
            "p e",
            "d a",
            "in e",
            "r i",
            "m an",
            "t e",
            "an n",
            "l e",
            "la u",
            "j u",
            "t a",
            "m i",
            "r is",
            "g o",
            "g i",
            "c h",
            "r ic",
            "e d",
            "i m",
            "an i",
            "ar a",
            "s a",
            "b er",
            "ris t",
            "c a",
            "r u",
            "i an",
            "r e",
            "al e",
            "el a",
            "jo a",
            "g io",
            "an g",
            "q u",
            "u s",
            "p h",
            "n o",
            "s andr",
            "pa u",
            "i ana",
            "r en",
            "j a",
            "m en",
            "ic a",
            "ic o",
            "dr o",
            "s o",
            "vi d",
            "is ab",
            "h el",
            "t h",
            "ar do",
            "o l",
            "mi g",
            "en a",
            "c rist",
            "r g",
            "m ic",
            "p at",
            "gi u",
            "il i",
            "m o",
            "s te",
            "at h",
            "n a",
            "ju l",
            "e m",
            "p pe",
            "c e",
            "s im",
            "f ab",
            "i en",
            "lu c",
            "i er",
            "a el",
            "j e",
            "to r",
            "f er",
            "m on",
            "a m",
            "ri z",
            "a s",
            "a u",
            "v al",
            "s er",
            "vi er",
            "n an",
            "v an",
            "ma s",
            "v in",
            "is a",
            "t er",
            "b ru",
            "j es",
            "t ia",
            "z o",
            "n u",
            "b e",
            "fer nan",
            "qu e",
            "s on",
            "m e",
            "en t",
            "v ic",
            "giu se",
            "m at",
            "b en",
            "ra f",
            "d e",
            "c at",
            "ro s",
            "c el",
            "al v",
            "s il",
            "rg e",
            "f ili",
            "v er",
            "g u",
            "pa o",
            "sil v",
            "in o",
            "es a",
            "ian o",
            "f an",
            "e t",
            "gio v",
            "i d",
            "g ab",
            "y l",
            "an e",
            "ru i",
            "lo ren",
            "a dr",
            "i que",
            "r ia",
            "m in",
            "at o",
            "ma u",
            "i ma",
            "vin c",
            "d io",
            "so f",
            "s alv",
            "d ie",
            "c al",
            "h u",
            "s us",
            "v a",
            "q uel",
            "ar i",
            "h am",
            "mar g",
            "ar o",
            "r d",
            "d el",
            "f at",
            "g er",
            "pa s",
            "m el",
            "t te",
            "n e",
            "se b",
            "il ar",
            "t on",
            "gu il",
            "ar ina",
            "as t",
            "giu l",
            "s yl",
            "z ia",
            "g on",
            "lo u",
            "sa m",
            "c on",
            "c io",
            "u l",
            "mas sim",
            "r y",
            "ar d",
            "j er",
            "val er",
            "lu i",
            "ch i",
            "g a",
            "t i",
            "al ic",
            "is e",
            "riz io",
            "ed u",
            "ver on",
            "k e",
            "en e",
            "n at",
            "ol i",
            "te o",
            "seb ast",
            "e va",
            "mo ham",
            "to ph",
            "f lo",
            "g ra",
            "o r",
            "andr a",
            "b ar",
            "ato re",
            "al i",
            "im e",
            "ma x",
            "b a",
            "an ie",
            "g e",
            "ph ili",
            "joa qu",
            "marg ari",
            "m er",
            "s ab",
            "h a",
            "i go",
            "na d",
            "r el",
            "z a",
            "o mas",
            "d i",
            "el isab",
            "h er",
            "v ie",
            "n el",
            "t ta",
            "b el",
            "cal o",
            "ric e",
            "l il",
            "t an",
            "ja c",
            "k ar",
            "k a",
            "do min",
            "m il",
            "o ra",
            "ale j",
            "o s",
            "a in",
            "on so",
            "g ia",
            "vi rg",
            "en n",
            "l i",
            "f onso",
            "lo r",
            "p ab",
            "ch ar",
            "virg in",
            "y o",
            "g us",
            "ro dr",
            "s t",
            "co r",
            "ber n",
            "ria m",
            "c le",
            "el o",
            "il de",
            "j on",
            "ph ie",
            "c il",
            "el i",
            "jo rd",
            "an d",
            "l y",
            "v io",
            "ie u",
            "s ant",
            "e do",
            "l es",
            "raf f",
            "rd es",
            "cle men",
            "p p",
            "m ed",
            "o me",
            "ant h",
            "lau me",
            "c in",
            "x a",
            "ca mil",
            "ma in",
            "th ier",
            "elisab e",
            "on y",
            "car m",
            "m y",
            "mi r",
            "p ie",
            "riz ia",
            "i re",
            "e u",
            "g il",
            "el e",
            "in da",
            "c y",
            "e o",
            "v e",
            "u r",
            "d al",
            "t ro",
            "z e",
            "g re",
            "f a",
            "d en",
            "da mi",
            "d er",
            "au ro",
            "u d",
            "er ine",
            "n es",
            "f la",
            "th er",
            "an o",
            "d y",
            "jo h",
            "e y",
            "con ce",
            "ian e",
            "ath an",
            "c es",
            "v es",
            "qu i",
            "f loren",
            "pas qu",
            "i t",
            "i b",
            "r gio",
            "a h",
            "y ol",
            "ma g",
            "do lor",
            "as s",
            "mon t",
            "ga et",
            "et ta",
            "g en",
            "es te",
            "to m",
            "id ia",
            "dr ic",
            "k ael",
            "y a",
            "pp o",
            "dal ena",
            "c ed",
            "z i",
            "a d",
            "le a",
            "t at",
            "es t",
            "g lo",
            "qu ent",
            "v ia",
            "ti z",
            "u ri",
            "ar na",
            "mer ced",
            "k at",
            "t in",
            "ar ia",
            "gi us",
            "a g",
            "u n",
            "v o",
            "d id",
            "k o",
            "i da",
            "dr ey",
            "la et",
            "h o",
            "ra ch",
            "qu es",
            "v as",
            "al o",
            "y ne",
            "k i",
            "d ine",
            "le o",
            "l an",
            "r il",
            "c la",
            "l ia",
            "b ri",
            "w il",
            "a do",
            "vi t",
            "er i",
            "ic k",
            "gre go",
            "f i",
            "ph ine",
            "gia co",
            "i ta",
            "en car",
            "ch a",
            "guil her",
            "lo e",
            "d on",
            "c i",
            "i g",
            "vit tor",
            "d u",
            "o u",
            "ar t",
            "no e",
            "mo rg",
            "ge o",
            "ig na",
            "ele on",
            "man o",
            "t is",
            "gio rg",
            "il e",
            "p er",
            "pe p",
            "il iano",
            "p tis",
            "ba ptis",
            "h e",
            "o it",
            "th ib",
            "thib au",
            "ie tta",
            "so ra",
            "a da",
            "i fer",
            "do u",
            "mel o",
            "g is",
            "i te",
            "ar te",
            "er ina",
            "z io",
            "gus ta",
            "ica o",
            "mi re",
            "mar il",
            "k el",
            "d yl",
            "s al",
            "mat th",
            "d an",
            "p aro",
            "at a",
            "pas c",
            "e a",
            "s u",
            "t el",
            "salv ado",
            "g enn",
            "me h",
            "a x",
            "mi m",
            "ed ana",
            "ma so",
            "se ver",
            "o ce",
            "na de",
            "l io",
            "f io",
            "h ard",
            "ben ed",
            "m uri",
            "el yne",
            "i la",
            "le tte",
            "gu y",
            "ra h",
            "con s",
            "w al",
            "ann al",
            "nu n",
            "ra y",
            "lau r",
            "k y",
            "cio n",
            "ic ia",
            "el lo",
            "n er",
            "b an",
            "f o",
            "l fo",
            "ju di",
            "au gus",
            "e v",
            "c co",
            "l er",
            "guil ler",
            "el vi",
            "ar th",
            "c ia",
            "n ie",
            "be gon",
            "quel ine",
            "a go",
            "ago st",
            "i do",
            "z alo",
            "ch e",
            "g ar",
            "il le",
            "mar ic",
            "er nes",
            "marg her",
            "a i",
            "d ia",
            "g h",
            "g w",
            "n ic",
            "ma dou",
            "be a",
            "i vo",
            "ch o",
            "f el",
            "n i",
            "r and",
            "no em",
            "ar men",
            "t y",
            "yo us",
            "b o",
            "b ia",
            "et te",
            "i v",
            "lu z",
            "co ren",
            "k h",
            "ro b",
            "giuse pp",
            "b al",
            "u ro",
            "c an",
            "ma y",
            "b lan",
            "so l",
            "il io",
            "ia s",
            "h ass",
            "c u",
            "d in",
            "c tor",
            "ph a",
            "en ia",
            "se f",
            "da d",
            "mar is",
            "yo u",
            "us ta",
            "d ul",
            "t icia",
            "b ast",
            "io n",
            "kh al",
            "r in",
            "jo s",
            "l t",
            "per an",
            "au x",
            "b or",
            "p o",
            "r at",
            "ri ane",
            "ri d",
            "l ar",
            "im o",
            "yo h",
            "g ine",
            "a y",
            "i de",
            "ab e",
            "sam ant",
            "es peran",
            "m usta",
            "a c",
            "ro do",
            "j im",
            "d es",
            "mo ren",
            "fa us",
            "p ia",
            "i ra",
            "m u",
            "v en",
            "us sa",
            "h ic",
            "ass un",
            "a zi",
            "t ri",
            "a ma",
            "fan ia",
            "ma d",
            "ain ho",
            "ien ne",
            "in ha",
            "io l",
            "z abe",
            "eli zabe",
            "fel ic",
            "b ian",
            "gia m",
            "in ho",
            "or lan",
            "is es",
            "f fr",
            "m ud",
            "al mud",
            "ffr ey",
            "es e",
            "i to",
            "uel o",
            "ser rat",
            "mi tri",
            "r io",
            "u me",
            "y as",
            "mi d",
            "ce u",
            "b il",
            "ver io",
            "o de",
            "y es",
            "c ine",
            "f ar",
            "o ph",
            "er w",
            "mar yl",
            "g rid",
            "ber nade",
            "ca s",
            "g as",
            "sa o",
            "gra z",
            "et to",
            "k im",
            "o d",
            "v ine",
            "lu di",
            "en ce",
            "jac in",
            "t rin",
            "t ty",
            "na i",
            "la s",
            "ara cel",
            "am b",
            "y v",
            "vie ve",
            "t rist",
            "d ali",
            "g ros",
            "c id",
            "ar e",
            "ja m",
            "is i",
            "u go",
            "gas p",
            "i k",
            "ar ant",
            "st ant",
            "k il",
            "s ta",
            "ger o",
            "es mer",
            "f ul",
            "th e",
            "is se",
            "mau ric",
            "ari ta",
            "go re",
            "cons tan",
            "so u",
            "al b",
            "r ine",
            "e ve",
            "k ha",
            "ed i",
            "di ja",
            "mo u",
            "ath e",
            "van o",
            "is ra",
            "s he",
            "a you",
            "s i",
            "ser a",
            "u re",
            "ela ure",
            "n ab",
            "p ol",
            "hu gu",
            "d dy",
            "l ian",
            "i ro",
            "ida d",
            "u c",
            "min ia",
            "r ie",
            "me t",
            "ire e",
            "su z",
            "a z",
            "u ard",
            "el es",
            "pa z",
            "m ine",
            "n y",
            "r an",
            "a ic",
            "p i",
            "y s",
            "n th",
            "cy nth",
            "c ca",
            "io nu",
            "vi ane",
            "f f",
            "ra d",
            "re zia",
            "ru z",
            "ic te",
            "g au",
            "i z",
            "na z",
            "or t",
            "car ena",
            "ne u",
            "x e",
            "c en",
            "f ato",
            "sera f",
            "e mi",
            "m yl",
            "i r",
            "f ed",
            "r es",
            "is s",
            "j p",
            "on e",
            "p al",
            "ren au",
            "u y",
            "lo t",
            "e us",
            "ab ra",
            "c and",
            "je ann",
            "na s",
            "an do",
            "fer din",
            "p cion",
            "zo e",
            "pha ine",
            "ro me",
            "no r",
            "b ou",
            "mer ic",
            "ili en",
            "ren co",
            "gw ena",
            "o phie",
            "es ophie",
            "nat as",
            "is on",
            "mar tia",
            "d na",
            "ti t",
            "val do",
            "s ia",
            "a dal",
            "k yl",
            "u pe",
            "gu adal",
            "t ilio",
            "u al",
            "to lo",
            "th a",
            "f fan",
            "ti ffan",
            "is io",
            "gio rd",
            "g ane",
            "b rand",
            "wil fr",
            "eu nic",
            "vic to",
            "s v",
            "jon at",
            "vin ia",
            "c ic",
            "ed eo",
            "al d",
            "ro mu",
            "x ab",
            "it zi",
            "ho las",
            "j an",
            "an de",
            "st el",
            "f ort",
            "i za",
            "l ph",
            "rodo lph",
            "p ris",
            "y er",
            "al c",
            "gu e",
            "io s",
            "re med",
            "r ka",
            "c ta",
            "o cta",
            "al zi",
            "la h",
            "vin o",
            "g g",
            "pe gg",
            "i ul",
            "l ie",
            "mo un",
            "on imo",
            "s ica",
            "cil lia",
            "f ou",
            "i ka",
            "h em",
            "la dy",
            "lady s",
            "ham mad",
            "l in",
            "ar lin",
            "d em",
            "g li",
            "p in",
            "gu gli",
            "jo e",
            "uc ena",
            "e ze",
            "seb io",
            "qui el",
            "e ma",
            "hel o",
            "s aria",
            "bo b",
            "i ge",
            "w ige",
            "j c",
            "u z",
            "ru g",
            "c cio",
            "g dan",
            "ch ry",
            "c lot",
            "ana sta",
            "i us",
            "p u",
            "x ane",
            "o t",
            "ar c",
            "rg he",
            "eo rghe",
            "e ul",
            "do m",
            "j b",
            "s ion",
            "vi en",
            "no rd",
            "co stant",
            "a it",
            "da de",
            "a v",
            "r on",
            "el ino",
            "ma m",
            "t ru",
            "ie d",
            "h an",
            "p pa",
            "a ela",
            "gu i",
            "sou f",
            "a mau",
            "m d",
            "g an",
            "a fr",
            "i x",
            "i rat",
            "s in",
            "h ab",
            "p io",
            "ra im",
            "im pia",
            "l ic",
            "ic e",
            "lic in",
            "l w",
            "o tta",
            "t z",
            "no lw",
            "ou m",
            "t ier",
            "mo sta",
            "e gi",
            "il car",
            "or l",
            "ra chi",
            "n io",
            "s el",
            "v ra",
            "ju nio",
            "g r",
            "er cia",
            "sa gr",
            "f co",
            "f le",
            "er o",
            "v y",
            "o re",
            "y e",
            "la ye",
            "h ora",
            "ke k",
            "c us",
            "s to",
            "cus to",
            "ico l",
            "lou d",
            "k et",
            "ce f",
            "val de",
            "de u",
            "ch ino",
            "gio ac",
            "d enn",
            "f ari",
            "v on",
            "t xe",
            "on i",
            "ali ze",
            "za kar",
            "h ra",
            "va o",
            "f id",
            "n isio",
            "u e",
            "uc cia",
            "o la",
            "er man",
            "er mel",
            "mat a",
            "gra ci",
            "d ant",
            "in ata",
            "do r",
            "do un",
            "t are",
            "ar et",
            "mar gu",
            "re ira",
            "eri te",
            "x is",
            "ab dal",
            "is ido",
            "fel is",
            "m ant",
            "ca pu",
            "s vit",
            "ib rah",
            "u is",
            "x el",
            "el uis",
            "la ti",
            "min io",
            "mer it",
            "xel l",
            "z ur",
            "az zur",
            "o us",
            "c ur",
            "g es",
            "on a",
            "t ari",
            "on do",
            "a gue",
            "d ica",
            "x i",
            "un ato",
            "o le",
            "w el",
            "b ra",
            "c ie",
            "at ino",
            "l en",
            "d il",
            "m ur",
            "mi lo",
            "kat ius",
            "a ch",
            "c l",
            "f ica",
            "ie m",
            "m es",
            "r ne",
            "v il",
            "ie ta",
            "et ano",
            "n il",
            "o ussa",
            "us ou",
            "b ali",
            "m ia",
            "t ra",
            "ra ba",
            "bali z",
            "ar le",
            "fort u",
            "d ja",
            "ed dine",
            "un do",
            "a der",
            "ch ic",
            "a ca",
            "z ul",
            "a za",
            "h ara",
            "i kel",
            "us s",
            "h ort",
            "ca o",
            "hort en",
            "ro y",
            "d j",
            "u an",
            "ch ra",
            "ib ril",
            "d jo",
            "f im",
            "y re",
            "f ra",
            "en ger",
            "ber enger",
            "u fi",
            "to ufi",
            "k un",
            "s ul",
            "im ilien",
            "as kun",
            "w as",
            "y in",
            "se yin",
            "re dou",
            "p res",
            "z ine",
            "b abe",
            "mar ien",
            "la mo",
            "lo s",
            "ro lamo",
            "c cia",
            "f e",
            "y cal",
            "il ys",
            "del aria",
            "m ana",
            "er va",
            "ro t",
            "mo des",
            "c ric",
            "u ria",
            "s ale",
            "b at",
            "tis ta",
            "h ar",
            "u x",
            "b ran",
            "u ren",
            "y uren",
            "ru ccio",
            "o fr",
            "on ofr",
            "r ela",
            "s iane",
            "pe pp",
            "y etano",
            "al cid",
            "b re",
            "g lio",
            "m bre",
            "o mbre",
            "gi glio",
            "c er",
            "t ul",
            "n do",
            "se gu",
            "ma id",
            "cel est",
            "gu al",
            "x o",
            "la ine",
            "se v",
            "da c",
            "b i",
            "et rio",
            "f u",
            "o el",
            "giu di",
            "f in",
            "i ba",
            "m s",
            "f am",
            "v ette",
            "z ar",
            "en o",
            "ic ius",
            "gia cin",
            "naz zar",
            "s min",
            "t t",
            "gu es",
            "er e",
            "ber ang",
            "b as",
            "gi ero",
            "ph ile",
            "gio su",
            "li ud",
            "h ina",
            "t ti",
            "n on",
            "ab der",
            "l is",
            "il la",
            "m undo",
            "p es",
            "al mer",
            "r t",
            "s li",
            "v is",
            "vi rt",
            "so les",
            "ud es",
            "h i",
            "ia len",
            "co va",
            "mi tru",
            "don ga",
            "h en",
            "k he",
            "ro mo",
            "b ina",
            "ar de",
            "ma dal",
            "bern arde",
            "i kh",
            "v ina",
            "el vina",
            "es inha",
            "ph anie",
            "xa v",
            "k ol",
            "y ra",
            "ar inho",
            "ma it",
            "ga iz",
            "en ne",
            "ida de",
            "i u",
            "i va",
            "ia co",
            "er sil",
            "p ela",
            "lu min",
            "to f",
            "ou is",
            "vin da",
            "ul iss",
            "c ri",
            "ann un",
            "ch u",
            "zia ta",
            "m al",
            "u ta",
            "an ce",
            "io mar",
            "ri tin",
            "lau ry",
            "so iz",
            "e f",
            "l loren",
            "es tro",
            "ric io",
            "io a",
            "c re",
            "er co",
            "ro gio",
            "mil de",
            "p ri",
            "ig lia",
            "f on",
            "i ry",
            "k in",
            "an jos",
            "al fon",
            "do s",
            "pa ol",
            "ru y",
            "ger tru",
            "d je",
            "i y",
            "z u",
            "ar ka",
            "ma ma",
            "ra cion",
            "za zu",
            "it z",
            "h ane",
            "i hane",
            "k sandr",
            "n arc",
            "s so",
            "w ag",
            "is o",
            "ze te",
            "u ba",
            "al me",
            "silv est",
            "on zo",
            "ri be",
            "d gero",
            "vi ana",
            "a itzi",
            "c res",
            "i tor",
            "x ita",
            "lo dy",
            "il ica",
            "my r",
            "vo lody",
            "f ia",
            "i xe",
            "m me",
            "s id",
            "t to",
            "ar ca",
            "on io",
            "te ixe",
            "fia mme",
            "g eles",
            "tia s",
            "xa so",
            "i ar",
            "l lo",
            "car val",
            "c ul",
            "her cul",
            "a yo",
            "i ru",
            "s uel",
            "ann aro",
            "al az",
            "te iro",
            "b iana",
            "p ra",
            "p re",
            "z er",
            "cio sa",
            "pra zer",
            "n in",
            "p os",
            "t x",
            "el et",
            "es pos",
            "se tta",
            "marg ali",
            "g el",
            "s peran",
            "ca cil",
            "de a",
            "or qui",
            "li ban",
            "tier o",
            "i ve",
            "ed mil",
            "m pe",
            "re ia",
            "po mpe",
            "mel e",
            "uc cio",
            "b ale",
            "o tel",
            "ar es",
            "a p",
            "k as",
            "m ba",
            "z ina",
            "en zina",
            "at rice",
            "di ra",
            "er ino",
            "ma o",
            "h as",
            "an in",
            "leo pol",
            "a us",
            "ed mon",
            "da s",
            "sil da",
            "s inda",
            "t u"
        ]
    }
}