{
  "version": "1.0",
  "truncation": null,
  "padding": null,
  "added_tokens": [
    {
      "id": 0,
      "content": "[UNK]",
      "single_word": false,
      "lstrip": false,
      "rstrip": false,
      "normalized": false,
      "special": true
    },
    {
      "id": 1,
      "content": "[CLS]",
      "single_word": false,
      "lstrip": false,
      "rstrip": false,
      "normalized": false,
      "special": true
    },
    {
      "id": 2,
      "content": "[SEP]",
      "single_word": false,
      "lstrip": false,
      "rstrip": false,
      "normalized": false,
      "special": true
    },
    {
      "id": 3,
      "content": "[PAD]",
      "single_word": false,
      "lstrip": false,
      "rstrip": false,
      "normalized": false,
      "special": true
    },
    {
      "id": 4,
      "content": "[MASK]",
      "single_word": false,
      "lstrip": false,
      "rstrip": false,
      "normalized": false,
      "special": true
    }
  ],
  "normalizer": null,
  "pre_tokenizer": {
    "type": "Whitespace"
  },
  "post_processor": null,
  "decoder": null,
  "model": {
    "type": "BPE",
    "dropout": null,
    "unk_token": "[UNK]",
    "continuing_subword_prefix": null,
    "end_of_word_suffix": null,
    "fuse_unk": false,
    "vocab": {
      "[UNK]": 0,
      "[CLS]": 1,
      "[SEP]": 2,
      "[PAD]": 3,
      "[MASK]": 4,
      "-": 5,
      "a": 6,
      "b": 7,
      "c": 8,
      "d": 9,
      "e": 10,
      "f": 11,
      "g": 12,
      "h": 13,
      "i": 14,
      "j": 15,
      "k": 16,
      "l": 17,
      "m": 18,
      "n": 19,
      "o": 20,
      "p": 21,
      "r": 22,
      "s": 23,
      "t": 24,
      "u": 25,
      "v": 26,
      "w": 27,
      "x": 28,
      "y": 29,
      "z": 30,
      "sh": 31,
      "an": 32,
      "ra": 33,
      "ar": 34,
      "esh": 35,
      "it": 36,
      "vi": 37,
      "ee": 38,
      "raj": 39,
      "am": 40,
      "su": 41,
      "ja": 42,
      "al": 43,
      "ish": 44,
      "il": 45,
      "ka": 46,
      "san": 47,
      "man": 48,
      "in": 49,
      "jay": 50,
      "sa": 51,
      "bh": 52,
      "nd": 53,
      "ku": 54,
      "na": 55,
      "pa": 56,
      "pra": 57,
      "oh": 58,
      "ul": 59,
      "dee": 60,
      "ma": 61,
      "ash": 62,
      "end": 63,
      "ch": 64,
      "ya": 65,
      "endra": 66,
      "mar": 67,
      "dh": 68,
      "ran": 69,
      "kesh": 70,
      "ram": 71,
      "kumar": 72,
      "on": 73,
      "kash": 74,
      "hul": 75,
      "pr": 76,
      "rahul": 77,
      "ik": 78,
      "jit": 79,
      "sha": 80,
      "un": 81,
      "sun": 82,
      "md": 83,
      "deep": 84,
      "moh": 85,
      "th": 86,
      "ita": 87,
      "ir": 88,
      "ta": 89,
      "son": 90,
      "and": 91,
      "iv": 92,
      "kar": 93,
      "pak": 94,
      "ravi": 95,
      "ab": 96,
      "mu": 97,
      "osh": 98,
      "ip": 99,
      "eet": 100,
      "bha": 101,
      "ajay": 102,
      "oj": 103,
      "sunil": 104,
      "sur": 105,
      "sanjay": 106,
      "rajesh": 107,
      "mah": 108,
      "ush": 109,
      "ek": 110,
      "roh": 111,
      "go": 112,
      "yan": 113,
      "amit": 114,
      "od": 115,
      "deepak": 116,
      "har": 117,
      "ti": 118,
      "vijay": 119,
      "ak": 120,
      "vin": 121,
      "raju": 122,
      "ga": 123,
      "sant": 124,
      "anil": 125,
      "iya": 126,
      "abh": 127,
      "sonu": 128,
      "manoj": 129,
      "shiv": 130,
      "rakesh": 131,
      "ura": 132,
      "rohit": 133,
      "mukesh": 134,
      "pan": 135,
      "santosh": 136,
      "ha": 137,
      "rish": 138,
      "ok": 139,
      "manish": 140,
      "vish": 141,
      "hil": 142,
      "tu": 143,
      "shan": 144,
      "vee": 145,
      "chand": 146,
      "shu": 147,
      "jeet": 148,
      "bab": 149,
      "arun": 150,
      "ru": 151,
      "gan": 152,
      "dip": 153,
      "mit": 154,
      "ramesh": 155,
      "din": 156,
      "dinesh": 157,
      "par": 158,
      "ashok": 159,
      "akash": 160,
      "as": 161,
      "yo": 162,
      "suresh": 163,
      "pu": 164,
      "im": 165,
      "po": 166,
      "suraj": 167,
      "ank": 168,
      "krish": 169,
      "om": 170,
      "wan": 171,
      "ck": 172,
      "pin": 173,
      "kaj": 174,
      "pankaj": 175,
      "raja": 176,
      "chin": 177,
      "prakash": 178,
      "el": 179,
      "nit": 180,
      "anu": 181,
      "ju": 182,
      "sam": 183,
      "ad": 184,
      "jan": 185,
      "sat": 186,
      "vishal": 187,
      "mahesh": 188,
      "sandeep": 189,
      "mohd": 190,
      "pal": 191,
      "vind": 192,
      "lu": 193,
      "vinod": 194,
      "veen": 195,
      "nar": 196,
      "cky": 197,
      "gesh": 198,
      "sw": 199,
      "sachin": 200,
      "sk": 201,
      "urav": 202,
      "krishna": 203,
      "ut": 204,
      "kam": 205,
      "han": 206,
      "gar": 207,
      "ganesh": 208,
      "nu": 209,
      "bham": 210,
      "ki": 211,
      "priya": 212,
      "oja": 213,
      "pooja": 214,
      "ishek": 215,
      "abhishek": 216,
      "va": 217,
      "dhar": 218,
      "ri": 219,
      "de": 220,
      "ne": 221,
      "rat": 222,
      "ni": 223,
      "la": 224,
      "chandan": 225,
      "sagar": 226,
      "vina": 227,
      "ashish": 228,
      "ika": 229,
      "kish": 230,
      "ankit": 231,
      "neha": 232,
      "hi": 233,
      "swa": 234,
      "jal": 235,
      "shubham": 236,
      "et": 237,
      "pawan": 238,
      "dil": 239,
      "ed": 240,
      "ali": 241,
      "bi": 242,
      "ji": 243,
      "rin": 244,
      "vikash": 245,
      "sar": 246,
      "if": 247,
      "rit": 248,
      "sumit": 249,
      "iyan": 250,
      "priyan": 251,
      "du": 252,
      "yam": 253,
      "so": 254,
      "eev": 255,
      "mon": 256,
      "dha": 257,
      "moham": 258,
      "um": 259,
      "or": 260,
      "ilesh": 261,
      "jun": 262,
      "arjun": 263,
      "pradeep": 264,
      "kiran": 265,
      "sal": 266,
      "ce": 267,
      "ince": 268,
      "prince": 269,
      "abhi": 270,
      "nish": 271,
      "dev": 272,
      "aman": 273,
      "suman": 274,
      "imran": 275,
      "priyanka": 276,
      "jitendra": 277,
      "en": 278,
      "er": 279,
      "shay": 280,
      "akshay": 281,
      "naresh": 282,
      "van": 283,
      "mi": 284,
      "sahil": 285,
      "satish": 286,
      "bal": 287,
      "yogesh": 288,
      "vika": 289,
      "vikas": 290,
      "mad": 291,
      "ay": 292,
      "karan": 293,
      "ranjan": 294,
      "mod": 295,
      "em": 296,
      "gopal": 297,
      "dul": 298,
      "abdul": 299,
      "umesh": 300,
      "lesh": 301,
      "eena": 302,
      "dilip": 303,
      "pi": 304,
      "dharm": 305,
      "adit": 306,
      "nik": 307,
      "kul": 308,
      "vek": 309,
      "vivek": 310,
      "lal": 311,
      "anand": 312,
      "shant": 313,
      "re": 314,
      "arvind": 315,
      "mohan": 316,
      "riya": 317,
      "ud": 318,
      "lax": 319,
      "pat": 320,
      "shad": 321,
      "ajit": 322,
      "shyam": 323,
      "bhav": 324,
      "vicky": 325,
      "prem": 326,
      "pintu": 327,
      "bharat": 328,
      "nee": 329,
      "he": 330,
      "mohit": 331,
      "gaurav": 332,
      "kan": 333,
      "yu": 334,
      "lo": 335,
      "pesh": 336,
      "pramod": 337,
      "vik": 338,
      "jyo": 339,
      "ender": 340,
      "jyoti": 341,
      "govind": 342,
      "eer": 343,
      "shaik": 344,
      "sameer": 345,
      "bablu": 346,
      "aditya": 347,
      "nitin": 348,
      "patel": 349,
      "ba": 350,
      "tik": 351,
      "ny": 352,
      "sunny": 353,
      "babu": 354,
      "amar": 355,
      "ravind": 356,
      "kamlesh": 357,
      "shiva": 358,
      "manju": 359,
      "shivam": 360,
      "av": 361,
      "kamal": 362,
      "harsh": 363,
      "di": 364,
      "dipak": 365,
      "kal": 366,
      "kishor": 367,
      "ranjit": 368,
      "utam": 369,
      "naveen": 370,
      "shil": 371,
      "kh": 372,
      "prashant": 373,
      "chan": 374,
      "ppu": 375,
      "sanj": 376,
      "sad": 377,
      "vikram": 378,
      "nilesh": 379,
      "mahendra": 380,
      "dish": 381,
      "shankar": 382,
      "mith": 383,
      "sunita": 384,
      "monu": 385,
      "hari": 386,
      "madh": 387,
      "madhu": 388,
      "mohammad": 389,
      "sang": 390,
      "praveen": 391,
      "rajkumar": 392,
      "subh": 393,
      "rosh": 394,
      "nikhil": 395,
      "sandip": 396,
      "urabh": 397,
      "bin": 398,
      "dharmendra": 399,
      "arti": 400,
      "rag": 401,
      "prit": 402,
      "puja": 403,
      "vinay": 404,
      "pappu": 405,
      "ranjeet": 406,
      "mal": 407,
      "harish": 408,
      "etan": 409,
      "salman": 410,
      "shi": 411,
      "sanju": 412,
      "ol": 413,
      "kuldeep": 414,
      "rajendra": 415,
      "pravin": 416,
      "nisha": 417,
      "anita": 418,
      "bala": 419,
      "mun": 420,
      "munna": 421,
      "shash": 422,
      "sub": 423,
      "rinku": 424,
      "mani": 425,
      "yash": 426,
      "anku": 427,
      "eeta": 428,
      "kun": 429,
      "at": 430,
      "subhash": 431,
      "kishan": 432,
      "chi": 433,
      "akhil": 434,
      "sanjeev": 435,
      "vita": 436,
      "ini": 437,
      "ro": 438,
      "avina": 439,
      "avinash": 440,
      "karth": 441,
      "neeraj": 442,
      "war": 443,
      "asif": 444,
      "ant": 445,
      "rek": 446,
      "rekha": 447,
      "dhi": 448,
      "kail": 449,
      "veer": 450,
      "mam": 451,
      "manisha": 452,
      "heman": 453,
      "khan": 454,
      "onam": 455,
      "poonam": 456,
      "gud": 457,
      "anjal": 458,
      "anjali": 459,
      "lam": 460,
      "lak": 461,
      "vishnu": 462,
      "see": 463,
      "seema": 464,
      "dhan": 465,
      "roshan": 466,
      "kajal": 467,
      "pavan": 468,
      "mayu": 469,
      "nath": 470,
      "tam": 471,
      "lucky": 472,
      "narendra": 473,
      "div": 474,
      "bhu": 475,
      "laxman": 476,
      "rohan": 477,
      "gautam": 478,
      "manshu": 479,
      "himanshu": 480,
      "saurabh": 481,
      "khush": 482,
      "shmi": 483,
      "kunal": 484,
      "gdish": 485,
      "jagdish": 486,
      "dhir": 487,
      "aryan": 488,
      "pendra": 489,
      "sy": 490,
      "syed": 491,
      "bip": 492,
      "siv": 493,
      "siva": 494,
      "surendra": 495,
      "sushil": 496,
      "me": 497,
      "kom": 498,
      "komal": 499,
      "guddu": 500,
      "nitesh": 501,
      "ayush": 502,
      "pradip": 503,
      "anish": 504,
      "andan": 505,
      "hit": 506,
      "hitesh": 507,
      "amir": 508,
      "samir": 509,
      "sai": 510,
      "chandra": 511,
      "fan": 512,
      "irfan": 513,
      "hid": 514,
      "rani": 515,
      "amol": 516,
      "anuj": 517,
      "mamta": 518,
      "kailash": 519,
      "lalit": 520,
      "bikash": 521,
      "dur": 522,
      "ravindra": 523,
      "atul": 524,
      "tin": 525,
      "ndan": 526,
      "kundan": 527,
      "chetan": 528,
      "arif": 529,
      "meena": 530,
      "radh": 531,
      "rajeev": 532,
      "med": 533,
      "mohammed": 534,
      "hemant": 535,
      "divya": 536,
      "sin": 537,
      "pil": 538,
      "kapil": 539,
      "endar": 540,
      "bit": 541,
      "si": 542,
      "anup": 543,
      "ang": 544,
      "pran": 545,
      "ven": 546,
      "kat": 547,
      "venkat": 548,
      "renu": 549,
      "lokesh": 550,
      "mayur": 551,
      "dam": 552,
      "saddam": 553,
      "sudhir": 554,
      "oy": 555,
      "rupesh": 556,
      "swajit": 557,
      "biswajit": 558,
      "shaikh": 559,
      "pratik": 560,
      "pna": 561,
      "alok": 562,
      "ritesh": 563,
      "mithun": 564,
      "shailesh": 565,
      "was": 566,
      "pay": 567,
      "rajan": 568,
      "tha": 569,
      "rath": 570,
      "soh": 571,
      "srin": 572,
      "sath": 573,
      "bhat": 574,
      "anura": 575,
      "vel": 576,
      "sujit": 577,
      "lovel": 578,
      "lovely": 579,
      "nil": 580,
      "asha": 581,
      "shal": 582,
      "arman": 583,
      "prasan": 584,
      "nir": 585,
      "nirmal": 586,
      "ibhav": 587,
      "surya": 588,
      "vaibhav": 589,
      "mita": 590,
      "smita": 591,
      "eta": 592,
      "uttam": 593,
      "naga": 594,
      "ushan": 595,
      "gn": 596,
      "gnesh": 597,
      "gul": 598,
      "shashi": 599,
      "tush": 600,
      "yush": 601,
      "piyush": 602,
      "tushar": 603,
      "bir": 604,
      "otu": 605,
      "kavita": 606,
      "aru": 607,
      "ankita": 608,
      "kartik": 609,
      "niraj": 610,
      "monika": 611,
      "sonali": 612,
      "rayan": 613,
      "narayan": 614,
      "saroj": 615,
      "bhavesh": 616,
      "dik": 617,
      "archan": 618,
      "archana": 619,
      "swati": 620,
      "mahi": 621,
      "golu": 622,
      "angel": 623,
      "jitu": 624,
      "akhilesh": 625,
      "laxmi": 626,
      "push": 627,
      "fir": 628,
      "jayesh": 629,
      "sak": 630,
      "anik": 631,
      "aniket": 632,
      "sourav": 633,
      "tarun": 634,
      "nitish": 635,
      "devendra": 636,
      "bittu": 637,
      "sudha": 638,
      "soni": 639,
      "vipin": 640,
      "cha": 641,
      "ankush": 642,
      "sangita": 643,
      "aakash": 644,
      "shahid": 645,
      "ramu": 646,
      "sankar": 647,
      "abha": 648,
      "ashw": 649,
      "abhay": 650,
      "dhiraj": 651,
      "eem": 652,
      "mo": 653,
      "geeta": 654,
      "mayan": 655,
      "uday": 656,
      "mayank": 657,
      "payal": 658,
      "pul": 659,
      "vipul": 660,
      "chirag": 661,
      "kaush": 662,
      "anju": 663,
      "ritu": 664,
      "min": 665,
      "usha": 666,
      "satya": 667,
      "vir": 668,
      "sneha": 669,
      "ved": 670,
      "javed": 671,
      "bhas": 672,
      "sapna": 673,
      "sid": 674,
      "preet": 675,
      "preeti": 676,
      "pardeep": 677,
      "karthik": 678,
      "ani": 679,
      "shivani": 680,
      "ravan": 681,
      "dhav": 682,
      "reena": 683,
      "rush": 684,
      "salim": 685,
      "rik": 686,
      "dar": 687,
      "madan": 688,
      "darshan": 689,
      "manu": 690,
      "bind": 691,
      "nand": 692,
      "sathish": 693,
      "neet": 694,
      "fa": 695,
      "saji": 696,
      "sajid": 697,
      "sava": 698,
      "ashu": 699,
      "sonam": 700,
      "priti": 701,
      "gendra": 702,
      "sarita": 703,
      "var": 704,
      "varsha": 705,
      "ankar": 706,
      "prasad": 707,
      "rehan": 708,
      "hu": 709,
      "jai": 710,
      "rajat": 711,
      "rashmi": 712,
      "kir": 713,
      "ky": 714,
      "pinky": 715,
      "kur": 716,
      "thakur": 717,
      "pun": 718,
      "shah": 719,
      "binod": 720,
      "resh": 721,
      "pnil": 722,
      "swapnil": 723,
      "pritam": 724,
      "bipin": 725,
      "niranjan": 726,
      "anurag": 727,
      "aslam": 728,
      "ajeet": 729,
      "gopi": 730,
      "ratan": 731,
      "bik": 732,
      "neelam": 733,
      "danish": 734,
      "varun": 735,
      "deepa": 736,
      "abhijit": 737,
      "gh": 738,
      "arp": 739,
      "bri": 740,
      "jesh": 741,
      "brijesh": 742,
      "hardik": 743,
      "karthi": 744,
      "rama": 745,
      "sangeeta": 746,
      "eeraj": 747,
      "jaya": 748,
      "dheeraj": 749,
      "rishi": 750,
      "manik": 751,
      "jana": 752,
      "parmar": 753,
      "radha": 754,
      "sandh": 755,
      "sandhya": 756,
      "rajpu": 757,
      "omkar": 758,
      "rajput": 759,
      "andana": 760,
      "aarti": 761,
      "khushi": 762,
      "omprakash": 763,
      "rajiv": 764,
      "mantu": 765,
      "ankur": 766,
      "rad": 767,
      "sen": 768,
      "ashut": 769,
      "kanchan": 770,
      "ashutosh": 771,
      "joh": 772,
      "john": 773,
      "rocky": 774,
      "nikita": 775,
      "venkatesh": 776,
      "li": 777,
      "pinki": 778,
      "zwan": 779,
      "parth": 780,
      "rizwan": 781,
      "khushb": 782,
      "oo": 783,
      "tapan": 784,
      "parveen": 785,
      "bish": 786,
      "mee": 787,
      "thu": 788,
      "mura": 789,
      "muthu": 790,
      "santh": 791,
      "santhosh": 792,
      "az": 793,
      "babul": 794,
      "balaji": 795,
      "tinku": 796,
      "wani": 797,
      "kalpesh": 798,
      "raman": 799,
      "vimal": 800,
      "weta": 801,
      "shweta": 802,
      "kanha": 803,
      "shilpa": 804,
      "lakhan": 805,
      "durgesh": 806,
      "anjay": 807,
      "dhananjay": 808,
      "ansh": 809,
      "wasim": 810,
      "bhaskar": 811,
      "musk": 812,
      "pana": 813,
      "kalpana": 814,
      "muskan": 815,
      "eep": 816,
      "dileep": 817,
      "pushpa": 818,
      "chau": 819,
      "uma": 820,
      "nishant": 821,
      "ib": 822,
      "rajib": 823,
      "rana": 824,
      "sona": 825,
      "sri": 826,
      "simran": 827,
      "anshu": 828,
      "goutam": 829,
      "ganga": 830,
      "sabir": 831,
      "nidhi": 832,
      "saurav": 833,
      "chandu": 834,
      "paresh": 835,
      "gu": 836,
      "durga": 837,
      "guru": 838,
      "anm": 839,
      "nayan": 840,
      "rk": 841,
      "sana": 842,
      "mehul": 843,
      "babita": 844,
      "virendra": 845,
      "sonal": 846,
      "irshad": 847,
      "krishan": 848,
      "gir": 849,
      "ishali": 850,
      "vaishali": 851,
      "girish": 852,
      "prati": 853,
      "deepika": 854,
      "lakshmi": 855,
      "subash": 856,
      "ayan": 857,
      "joy": 858,
      "som": 859,
      "somnath": 860,
      "hir": 861,
      "shar": 862,
      "ashwini": 863,
      "raushan": 864,
      "mintu": 865,
      "satyam": 866,
      "bijay": 867,
      "manoh": 868,
      "navin": 869,
      "manohar": 870,
      "shek": 871,
      "jatin": 872,
      "dipankar": 873,
      "shekhar": 874,
      "sujeet": 875,
      "sanjeet": 876,
      "balu": 877,
      "ravinder": 878,
      "mir": 879,
      "sakshi": 880,
      "iz": 881,
      "faiz": 882,
      "faizan": 883,
      "subham": 884,
      "ivas": 885,
      "srinivas": 886,
      "upendra": 887,
      "jignesh": 888,
      "odh": 889,
      "savita": 890,
      "pas": 891,
      "tapas": 892,
      "dharth": 893,
      "subodh": 894,
      "siddharth": 895,
      "nadee": 896,
      "prata": 897,
      "deepu": 898,
      "nadeem": 899,
      "pratap": 900,
      "ajith": 901,
      "supriya": 902,
      "raghu": 903,
      "rashi": 904,
      "rashid": 905,
      "ghan": 906,
      "keshav": 907,
      "ghanshyam": 908,
      "rupal": 909,
      "soma": 910,
      "rupali": 911,
      "khi": 912,
      "rakhi": 913,
      "neetu": 914,
      "sir": 915,
      "mangesh": 916,
      "nasir": 917,
      "sanjit": 918,
      "nagesh": 919,
      "rupa": 920,
      "mil": 921,
      "radhika": 922,
      "nitu": 923,
      "aamir": 924,
      "vandana": 925,
      "ola": 926,
      "bhola": 927,
      "rushi": 928,
      "palla": 929,
      "pallavi": 930,
      "hotu": 931,
      "chhotu": 932,
      "alta": 933,
      "altaf": 934,
      "srinu": 935,
      "thak": 936,
      "thakor": 937,
      "punam": 938,
      "prasanta": 939,
      "reshma": 940,
      "saravan": 941,
      "saravanan": 942,
      "rock": 943,
      "shma": 944,
      "sushma": 945,
      "sanji": 946,
      "sanjib": 947,
      "singh": 948,
      "suja": 949,
      "sujata": 950,
      "rajni": 951,
      "oz": 952,
      "firoz": 953,
      "chotu": 954,
      "annu": 955,
      "anta": 956,
      "jayanta": 957,
      "rata": 958,
      "subrata": 959,
      "bikram": 960,
      "ban": 961,
      "shit": 962,
      "banti": 963,
      "shital": 964,
      "ala": 965,
      "bhanu": 966,
      "bapi": 967,
      "ilendra": 968,
      "shailendra": 969,
      "gourav": 970,
      "hema": 971,
      "dhaval": 972,
      "gha": 973,
      "shru": 974,
      "amarjeet": 975,
      "megha": 976,
      "sohan": 977,
      "shruti": 978,
      "papu": 979,
      "bita": 980,
      "no": 981,
      "noor": 982,
      "heena": 983,
      "ket": 984,
      "sham": 985,
      "sanket": 986,
      "pinku": 987,
      "shambhu": 988,
      "anwar": 989,
      "arshad": 990,
      "ritik": 991,
      "vignesh": 992,
      "bharti": 993,
      "af": 994,
      "tab": 995,
      "eety": 996,
      "sweety": 997,
      "aftab": 998,
      "ketan": 999,
      "rajveer": 1000,
      "vraj": 1001,
      "yuvraj": 1002,
      "rathod": 1003,
      "kanhaiya": 1004,
      "jitender": 1005,
      "vasava": 1006,
      "bhupendra": 1007,
      "waseem": 1008,
      "virat": 1009,
      "gokul": 1010,
      "gajan": 1011,
      "gajanan": 1012,
      "abhijeet": 1013,
      "manjeet": 1014,
      "bad": 1015,
      "dharmesh": 1016,
      "badal": 1017,
      "dav": 1018,
      "ansar": 1019,
      "yadav": 1020,
      "ansari": 1021,
      "jitendar": 1022,
      "bhushan": 1023,
      "akram": 1024,
      "murali": 1025,
      "soniya": 1026,
      "haresh": 1027,
      "radhe": 1028,
      "kaushal": 1029,
      "sushant": 1030,
      "nav": 1031,
      "pari": 1032,
      "riyaz": 1033,
      "firoj": 1034,
      "eik": 1035,
      "sheik": 1036,
      "anam": 1037,
      "ind": 1038,
      "sheikh": 1039,
      "anamika": 1040,
      "arsh": 1041,
      "adarsh": 1042,
      "balram": 1043,
      "prabhat": 1044,
      "surender": 1045,
      "rishabh": 1046,
      "shalini": 1047,
      "sanu": 1048,
      "lalu": 1049,
      "prabhu": 1050,
      "wal": 1051,
      "manas": 1052,
      "dhru": 1053,
      "dipu": 1054,
      "dhruv": 1055,
      "bar": 1056,
      "shre": 1057,
      "akbar": 1058,
      "gulshan": 1059,
      "shreya": 1060,
      "hariom": 1061,
      "gal": 1062,
      "susan": 1063,
      "mangal": 1064,
      "mohsin": 1065,
      "susanta": 1066,
      "ev": 1067,
      "mahad": 1068,
      "mahadev": 1069,
      "sharad": 1070,
      "saif": 1071,
      "kalu": 1072,
      "mithlesh": 1073,
      "las": 1074,
      "vilas": 1075,
      "srik": 1076,
      "anth": 1077,
      "nagaraj": 1078,
      "srikanth": 1079,
      "yak": 1080,
      "deva": 1081,
      "vinayak": 1082,
      "saleem": 1083,
      "susmita": 1084,
      "tham": 1085,
      "anmol": 1086,
      "eja": 1087,
      "teja": 1088,
      "tejas": 1089,
      "alpesh": 1090,
      "kaushik": 1091,
      "ashwani": 1092,
      "gagan": 1093,
      "birendra": 1094,
      "jakir": 1095,
      "nagendra": 1096,
      "sourabh": 1097,
      "sudhakar": 1098,
      "jigar": 1099,
      "madhuri": 1100,
      "azad": 1101,
      "inav": 1102,
      "abhinav": 1103,
      "sweta": 1104,
      "parmod": 1105,
      "hiren": 1106,
      "vya": 1107,
      "kavya": 1108,
      "baby": 1109,
      "shadab": 1110,
      "dra": 1111,
      "rudra": 1112,
      "arpita": 1113,
      "shrik": 1114,
      "shrikant": 1115,
      "jendra": 1116,
      "ras": 1117,
      "ishwar": 1118,
      "paras": 1119,
      "gajendra": 1120,
      "aruna": 1121,
      "muru": 1122,
      "murugan": 1123,
      "thi": 1124,
      "sakthi": 1125,
      "meet": 1126,
      "santu": 1127,
      "jeetu": 1128,
      "sarika": 1129,
      "kishore": 1130,
      "sharma": 1131,
      "kumari": 1132,
      "harshit": 1133,
      "obha": 1134,
      "pk": 1135,
      "shobha": 1136,
      "rajnish": 1137,
      "yogendra": 1138,
      "lank": 1139,
      "sheet": 1140,
      "rav": 1141,
      "solank": 1142,
      "sheetal": 1143,
      "solanki": 1144,
      "alka": 1145,
      "sajan": 1146,
      "chauhan": 1147,
      "sanjana": 1148,
      "thil": 1149,
      "senthil": 1150,
      "shik": 1151,
      "shivaji": 1152,
      "shikha": 1153,
      "ranjith": 1154,
      "amrit": 1155,
      "chintu": 1156,
      "bijoy": 1157,
      "nak": 1158,
      "ronak": 1159,
      "kirti": 1160,
      "sanjoy": 1161,
      "prachi": 1162,
      "dya": 1163,
      "oth": 1164,
      "vidya": 1165,
      "vinoth": 1166,
      "parul": 1167,
      "manjunath": 1168,
      "swapan": 1169,
      "tamil": 1170,
      "aj": 1171,
      "raaj": 1172,
      "rinki": 1173,
      "brajesh": 1174,
      "dn": 1175,
      "eshwar": 1176,
      "yaneshwar": 1177,
      "dnyaneshwar": 1178,
      "aad": 1179,
      "sudip": 1180,
      "sahid": 1181,
      "arup": 1182,
      "aadil": 1183,
      "usu": 1184,
      "mousu": 1185,
      "mousumi": 1186,
      "kalyan": 1187,
      "veena": 1188,
      "ruchi": 1189,
      "roshni": 1190,
      "khushboo": 1191,
      "dat": 1192,
      "nan": 1193,
      "prabha": 1194,
      "shanu": 1195,
      "dipika": 1196,
      "aditi": 1197,
      "kannan": 1198,
      "datta": 1199,
      "prabhakar": 1200,
      "mansi": 1201,
      "vesh": 1202,
      "sarvesh": 1203,
      "kant": 1204,
      "chandrakant": 1205,
      "tri": 1206,
      "anjana": 1207,
      "yatri": 1208,
      "ramya": 1209,
      "gayatri": 1210,
      "tanu": 1211,
      "pranav": 1212,
      "manikandan": 1213,
      "mukul": 1214,
      "bharath": 1215,
      "bishnu": 1216,
      "meera": 1217,
      "bun": 1218,
      "ty": 1219,
      "basant": 1220,
      "bunty": 1221,
      "lata": 1222,
      "sohel": 1223,
      "rushikesh": 1224,
      "sum": 1225,
      "kusum": 1226,
      "dipali": 1227,
      "dhanraj": 1228,
      "anupam": 1229,
      "nirmala": 1230,
      "het": 1231,
      "ruhi": 1232,
      "ritika": 1233,
      "hetal": 1234,
      "jeev": 1235,
      "hav": 1236,
      "raghav": 1237,
      "arpit": 1238,
      "bishal": 1239,
      "meenu": 1240,
      "jeevan": 1241,
      "avi": 1242,
      "sund": 1243,
      "manyu": 1244,
      "madhav": 1245,
      "hilesh": 1246,
      "mithilesh": 1247,
      "abhimanyu": 1248,
      "avijit": 1249,
      "sundar": 1250,
      "pushpendra": 1251,
      "nandu": 1252,
      "partha": 1253,
      "khushbu": 1254,
      "bim": 1255,
      "kshi": 1256,
      "yendra": 1257,
      "rukh": 1258,
      "satyendra": 1259,
      "basava": 1260,
      "meenakshi": 1261,
      "gulab": 1262,
      "shahrukh": 1263,
      "bimal": 1264,
      "basavaraj": 1265,
      "anoo": 1266,
      "vijaya": 1267,
      "anoop": 1268,
      "kushal": 1269,
      "ashwin": 1270,
      "sita": 1271,
      "rambabu": 1272,
      "parkash": 1273,
      "shashank": 1274,
      "sitaram": 1275,
      "anuradha": 1276,
      "janvi": 1277,
      "lalan": 1278,
      "govinda": 1279,
      "pranjal": 1280,
      "renuka": 1281,
      "bas": 1282,
      "rita": 1283,
      "amrita": 1284,
      "prasen": 1285,
      "harsha": 1286,
      "satendra": 1287,
      "debas": 1288,
      "prasenjit": 1289,
      "debasish": 1290,
      "sik": 1291,
      "andar": 1292,
      "vasu": 1293,
      "bipul": 1294,
      "sikandar": 1295,
      "surajit": 1296,
      "mithu": 1297,
      "nilam": 1298,
      "shravan": 1299,
      "ou": 1300,
      "chou": 1301,
      "dhary": 1302,
      "choudhary": 1303,
      "ushad": 1304,
      "naushad": 1305,
      "narender": 1306,
      "ranjana": 1307,
      "babulal": 1308,
      "dipti": 1309,
      "apar": 1310,
      "mitesh": 1311,
      "prasanna": 1312,
      "aparna": 1313,
      "rameshwar": 1314,
      "chinna": 1315,
      "rmil": 1316,
      "urmil": 1317,
      "yaz": 1318,
      "tiyaz": 1319,
      "imtiyaz": 1320,
      "urmila": 1321,
      "aravind": 1322,
      "pratibha": 1323,
      "rabind": 1324,
      "richa": 1325,
      "pratima": 1326,
      "rabindra": 1327,
      "desh": 1328,
      "gun": 1329,
      "krush": 1330,
      "lab": 1331,
      "nam": 1332,
      "sandesh": 1333,
      "biplab": 1334,
      "gunjan": 1335,
      "krushna": 1336,
      "namita": 1337,
      "aran": 1338,
      "charan": 1339,
      "aarif": 1340,
      "prashan": 1341,
      "vineet": 1342,
      "priyanshu": 1343,
      "devraj": 1344,
      "prashanth": 1345,
      "ikant": 1346,
      "harshad": 1347,
      "shashikant": 1348,
      "shalu": 1349,
      "thala": 1350,
      "swapna": 1351,
      "aashish": 1352,
      "jiya": 1353,
      "pam": 1354,
      "rni": 1355,
      "jagan": 1356,
      "indu": 1357,
      "chal": 1358,
      "ramkumar": 1359,
      "rupam": 1360,
      "purni": 1361,
      "chanchal": 1362,
      "hemanta": 1363,
      "jagannath": 1364,
      "purnima": 1365,
      "rajender": 1366,
      "ranu": 1367,
      "utpal": 1368,
      "bhavna": 1369,
      "moin": 1370,
      "aveer": 1371,
      "mahaveer": 1372,
      "rihan": 1373,
      "nagaraju": 1374,
      "gamit": 1375,
      "mannu": 1376,
      "aasif": 1377,
      "adhan": 1378,
      "ppa": 1379,
      "ina": 1380,
      "naina": 1381,
      "samadhan": 1382,
      "dilshad": 1383,
      "bappa": 1384,
      "siddu": 1385,
      "nandini": 1386,
      "ful": 1387,
      "praful": 1388,
      "hal": 1389,
      "hem": 1390,
      "kti": 1391,
      "sne": 1392,
      "shakti": 1393,
      "hemraj": 1394,
      "snehal": 1395,
      "jaydeep": 1396,
      "bhim": 1397,
      "karthick": 1398,
      "arba": 1399,
      "arbaz": 1400,
      "sahe": 1401,
      "navneet": 1402,
      "saheb": 1403,
      "sharu": 1404,
      "anshul": 1405,
      "sharukh": 1406,
      "dash": 1407,
      "ammu": 1408,
      "akshi": 1409,
      "samrat": 1410,
      "dharmendar": 1411,
      "mayuri": 1412,
      "gulam": 1413,
      "minakshi": 1414,
      "dashrath": 1415,
      "ree": 1416,
      "shree": 1417,
      "ranveer": 1418,
      "sathya": 1419,
      "puran": 1420,
      "disha": 1421,
      "hanu": 1422,
      "raaz": 1423,
      "surjeet": 1424,
      "kailas": 1425,
      "pranab": 1426,
      "hanuman": 1427,
      "gwan": 1428,
      "nandan": 1429,
      "viraj": 1430,
      "sabita": 1431,
      "rant": 1432,
      "bhagwan": 1433,
      "gobind": 1434,
      "shivu": 1435,
      "vikrant": 1436,
      "gobinda": 1437,
      "kr": 1438,
      "shrad": 1439,
      "sanoj": 1440,
      "unal": 1441,
      "krunal": 1442,
      "shraddha": 1443,
      "jj": 1444,
      "kin": 1445,
      "ujj": 1446,
      "jitesh": 1447,
      "jiten": 1448,
      "kinjal": 1449,
      "ujjwal": 1450,
      "rohini": 1451,
      "harendra": 1452,
      "santanu": 1453,
      "diksha": 1454,
      "gita": 1455,
      "praja": 1456,
      "pati": 1457,
      "yogita": 1458,
      "prajapati": 1459,
      "arbind": 1460,
      "dhari": 1461,
      "sohil": 1462,
      "chaudhari": 1463,
      "ata": 1464,
      "mamata": 1465,
      "farman": 1466,
      "sta": 1467,
      "pabit": 1468,
      "musta": 1469,
      "bhavin": 1470,
      "shivraj": 1471,
      "vishu": 1472,
      "nishu": 1473,
      "vansh": 1474,
      "pabitra": 1475,
      "mustak": 1476,
      "vinit": 1477,
      "dipesh": 1478,
      "umita": 1479,
      "moumita": 1480,
      "aayush": 1481,
      "wtham": 1482,
      "jaga": 1483,
      "gowtham": 1484,
      "jagadish": 1485,
      "shivkumar": 1486,
      "sumitra": 1487,
      "raz": 1488,
      "sarfa": 1489,
      "sintu": 1490,
      "sarfaraz": 1491,
      "tan": 1492,
      "may": 1493,
      "ashvin": 1494,
      "chandru": 1495,
      "soum": 1496,
      "meraj": 1497,
      "pranay": 1498,
      "punit": 1499,
      "tanmay": 1500,
      "soumen": 1501,
      "virender": 1502,
      "ko": 1503,
      "anan": 1504,
      "eel": 1505,
      "sasmita": 1506,
      "suneel": 1507,
      "surendar": 1508,
      "mahender": 1509,
      "ushik": 1510,
      "rishu": 1511,
      "prasanth": 1512,
      "koushik": 1513,
      "ananya": 1514,
      "sudarshan": 1515,
      "nikun": 1516,
      "nikunj": 1517,
      "hl": 1518,
      "shman": 1519,
      "amresh": 1520,
      "prahl": 1521,
      "lakshman": 1522,
      "prahlad": 1523,
      "palash": 1524,
      "pihu": 1525,
      "balaram": 1526,
      "sukumar": 1527,
      "biki": 1528,
      "appu": 1529,
      "barun": 1530,
      "shyamal": 1531,
      "harshal": 1532,
      "gangadhar": 1533,
      "milind": 1534,
      "basu": 1535,
      "eshyam": 1536,
      "kabita": 1537,
      "radheshyam": 1538,
      "payel": 1539,
      "babli": 1540,
      "montu": 1541,
      "ajoy": 1542,
      "rajit": 1543,
      "mahendar": 1544,
      "indrajit": 1545,
      "oranjan": 1546,
      "manoranjan": 1547,
      "ela": 1548,
      "palak": 1549,
      "vagh": 1550,
      "vaghela": 1551,
      "arga": 1552,
      "bharga": 1553,
      "bhargav": 1554,
      "uti": 1555,
      "maruti": 1556,
      "deepali": 1557,
      "ganpat": 1558,
      "bant": 1559,
      "banty": 1560,
      "inash": 1561,
      "path": 1562,
      "ramchandra": 1563,
      "abinash": 1564,
      "ekta": 1565,
      "dhirendra": 1566,
      "murari": 1567,
      "pathan": 1568,
      "tee": 1569,
      "sukan": 1570,
      "pratee": 1571,
      "sukanta": 1572,
      "prateek": 1573,
      "yesh": 1574,
      "zala": 1575,
      "divyesh": 1576,
      "aa": 1577,
      "vit": 1578,
      "thal": 1579,
      "aarav": 1580,
      "vitthal": 1581,
      "subhankar": 1582,
      "binay": 1583,
      "pratiksha": 1584,
      "sushan": 1585,
      "subhas": 1586,
      "sushanta": 1587,
      "sudhan": 1588,
      "satyajit": 1589,
      "sudhanshu": 1590,
      "ranju": 1591,
      "prity": 1592,
      "sayan": 1593,
      "bapan": 1594,
      "nandkishor": 1595,
      "manash": 1596,
      "sharvan": 1597,
      "bhang": 1598,
      "shubhang": 1599,
      "shubhangi": 1600,
      "ishu": 1601,
      "mitali": 1602,
      "tanm": 1603,
      "karsh": 1604,
      "utkarsh": 1605,
      "sumanta": 1606,
      "tanmoy": 1607,
      "devender": 1608,
      "das": 1609,
      "ojit": 1610,
      "ramdas": 1611,
      "surojit": 1612,
      "ahir": 1613,
      "dim": 1614,
      "praj": 1615,
      "dimpal": 1616,
      "prajwal": 1617,
      "navnath": 1618,
      "rishav": 1619,
      "sangram": 1620,
      "bandana": 1621,
      "bhi": 1622,
      "dhesh": 1623,
      "surbhi": 1624,
      "avdhesh": 1625,
      "goh": 1626,
      "mrin": 1627,
      "gohil": 1628,
      "mrinal": 1629,
      "pand": 1630,
      "uran": 1631,
      "panduran": 1632,
      "pandurang": 1633,
      "jade": 1634,
      "jadeja": 1635,
      "kwan": 1636,
      "makwan": 1637,
      "raval": 1638,
      "makwana": 1639,
      "jaydip": 1640,
      "pratham": 1641,
      "prathamesh": 1642,
      "gudiya": 1643,
      "aar": 1644,
      "ohi": 1645,
      "aarohi": 1646
    },
    "merges": [
      "s h",
      "a n",
      "r a",
      "a r",
      "e sh",
      "i t",
      "v i",
      "e e",
      "ra j",
      "a m",
      "s u",
      "j a",
      "a l",
      "i sh",
      "i l",
      "k a",
      "s an",
      "m an",
      "i n",
      "ja y",
      "s a",
      "b h",
      "n d",
      "k u",
      "n a",
      "p a",
      "p ra",
      "o h",
      "u l",
      "d ee",
      "m a",
      "a sh",
      "e nd",
      "c h",
      "y a",
      "end ra",
      "m ar",
      "d h",
      "r an",
      "k esh",
      "ra m",
      "ku mar",
      "o n",
      "ka sh",
      "h ul",
      "p r",
      "ra hul",
      "i k",
      "j it",
      "sh a",
      "u n",
      "su n",
      "m d",
      "dee p",
      "m oh",
      "t h",
      "it a",
      "i r",
      "t a",
      "s on",
      "an d",
      "i v",
      "k ar",
      "pa k",
      "ra vi",
      "a b",
      "m u",
      "o sh",
      "i p",
      "ee t",
      "bh a",
      "a jay",
      "o j",
      "sun il",
      "su r",
      "san jay",
      "raj esh",
      "ma h",
      "u sh",
      "e k",
      "r oh",
      "g o",
      "y an",
      "am it",
      "o d",
      "dee pak",
      "h ar",
      "t i",
      "vi jay",
      "a k",
      "vi n",
      "raj u",
      "g a",
      "san t",
      "an il",
      "i ya",
      "a bh",
      "son u",
      "man oj",
      "sh iv",
      "ra kesh",
      "u ra",
      "roh it",
      "mu kesh",
      "p an",
      "sant osh",
      "h a",
      "r ish",
      "o k",
      "man ish",
      "vi sh",
      "h il",
      "t u",
      "sh an",
      "v ee",
      "ch and",
      "sh u",
      "j eet",
      "b ab",
      "ar un",
      "r u",
      "g an",
      "d ip",
      "m it",
      "ram esh",
      "d in",
      "din esh",
      "p ar",
      "ash ok",
      "a kash",
      "a s",
      "y o",
      "sur esh",
      "p u",
      "i m",
      "p o",
      "su raj",
      "an k",
      "k rish",
      "o m",
      "w an",
      "c k",
      "p in",
      "ka j",
      "pan kaj",
      "raj a",
      "ch in",
      "pra kash",
      "e l",
      "n it",
      "an u",
      "j u",
      "s am",
      "a d",
      "j an",
      "sa t",
      "vish al",
      "mah esh",
      "san deep",
      "moh d",
      "p al",
      "vi nd",
      "l u",
      "vin od",
      "vee n",
      "n ar",
      "ck y",
      "g esh",
      "s w",
      "sa chin",
      "s k",
      "ura v",
      "krish na",
      "u t",
      "k am",
      "h an",
      "g ar",
      "gan esh",
      "n u",
      "bh am",
      "k i",
      "pr iya",
      "o ja",
      "po oja",
      "ish ek",
      "abh ishek",
      "v a",
      "dh ar",
      "r i",
      "d e",
      "n e",
      "ra t",
      "n i",
      "l a",
      "chand an",
      "sa gar",
      "vi na",
      "ash ish",
      "i ka",
      "k ish",
      "ank it",
      "ne ha",
      "h i",
      "sw a",
      "ja l",
      "shu bham",
      "e t",
      "pa wan",
      "d il",
      "e d",
      "al i",
      "b i",
      "j i",
      "r in",
      "vi kash",
      "s ar",
      "i f",
      "r it",
      "su mit",
      "i yan",
      "pr iyan",
      "d u",
      "y am",
      "s o",
      "ee v",
      "m on",
      "dh a",
      "moh am",
      "u m",
      "o r",
      "il esh",
      "j un",
      "ar jun",
      "pra deep",
      "ki ran",
      "s al",
      "c e",
      "in ce",
      "pr ince",
      "abh i",
      "n ish",
      "de v",
      "am an",
      "su man",
      "im ran",
      "priyan ka",
      "jit endra",
      "e n",
      "e r",
      "sha y",
      "ak shay",
      "nar esh",
      "v an",
      "m i",
      "sa hil",
      "sat ish",
      "b al",
      "yo gesh",
      "vi ka",
      "vika s",
      "ma d",
      "a y",
      "kar an",
      "ran jan",
      "m od",
      "e m",
      "go pal",
      "d ul",
      "ab dul",
      "um esh",
      "l esh",
      "ee na",
      "dil ip",
      "p i",
      "dhar m",
      "ad it",
      "n ik",
      "ku l",
      "v ek",
      "vi vek",
      "l al",
      "an and",
      "shan t",
      "r e",
      "ar vind",
      "moh an",
      "r iya",
      "u d",
      "la x",
      "pa t",
      "sha d",
      "a jit",
      "sh yam",
      "bha v",
      "vi cky",
      "pr em",
      "pin tu",
      "bha rat",
      "n ee",
      "h e",
      "moh it",
      "ga urav",
      "k an",
      "y u",
      "l o",
      "p esh",
      "pra mod",
      "vi k",
      "j yo",
      "end er",
      "jyo ti",
      "go vind",
      "ee r",
      "sha ik",
      "sam eer",
      "bab lu",
      "adit ya",
      "nit in",
      "pat el",
      "b a",
      "t ik",
      "n y",
      "sun ny",
      "bab u",
      "am ar",
      "ravi nd",
      "kam lesh",
      "shiv a",
      "man ju",
      "shiv am",
      "a v",
      "kam al",
      "har sh",
      "d i",
      "di pak",
      "k al",
      "kish or",
      "ran jit",
      "ut am",
      "na veen",
      "sh il",
      "k h",
      "pra shant",
      "ch an",
      "p pu",
      "san j",
      "sa d",
      "vik ram",
      "n ilesh",
      "mah endra",
      "d ish",
      "shan kar",
      "mit h",
      "sun ita",
      "mon u",
      "har i",
      "ma dh",
      "madh u",
      "moham mad",
      "san g",
      "pra veen",
      "raj kumar",
      "su bh",
      "r osh",
      "nik hil",
      "san dip",
      "ura bh",
      "b in",
      "dharm endra",
      "ar ti",
      "ra g",
      "pr it",
      "pu ja",
      "vina y",
      "pa ppu",
      "ran jeet",
      "m al",
      "har ish",
      "et an",
      "sal man",
      "sh i",
      "san ju",
      "o l",
      "kul deep",
      "raj endra",
      "pra vin",
      "nish a",
      "an ita",
      "bal a",
      "m un",
      "mun na",
      "sh ash",
      "su b",
      "rin ku",
      "man i",
      "y ash",
      "an ku",
      "ee ta",
      "ku n",
      "a t",
      "subh ash",
      "kish an",
      "ch i",
      "ak hil",
      "sanj eev",
      "v ita",
      "in i",
      "r o",
      "a vina",
      "avina sh",
      "kar th",
      "nee raj",
      "w ar",
      "as if",
      "an t",
      "r ek",
      "rek ha",
      "dh i",
      "ka il",
      "vee r",
      "m am",
      "manish a",
      "he man",
      "k han",
      "on am",
      "po onam",
      "g ud",
      "an jal",
      "anjal i",
      "l am",
      "l ak",
      "vish nu",
      "s ee",
      "see ma",
      "dh an",
      "rosh an",
      "ka jal",
      "pa van",
      "ma yu",
      "na th",
      "t am",
      "lu cky",
      "nar endra",
      "d iv",
      "bh u",
      "lax man",
      "roh an",
      "ga utam",
      "man shu",
      "hi manshu",
      "sa urabh",
      "kh ush",
      "sh mi",
      "kun al",
      "g dish",
      "ja gdish",
      "dh ir",
      "ar yan",
      "p endra",
      "s y",
      "sy ed",
      "b ip",
      "s iv",
      "siv a",
      "sur endra",
      "su shil",
      "m e",
      "k om",
      "kom al",
      "gud du",
      "nit esh",
      "ay ush",
      "pra dip",
      "an ish",
      "and an",
      "h it",
      "hit esh",
      "am ir",
      "sam ir",
      "sa i",
      "chand ra",
      "f an",
      "ir fan",
      "hi d",
      "ran i",
      "am ol",
      "anu j",
      "mam ta",
      "kail ash",
      "lal it",
      "bi kash",
      "du r",
      "ravind ra",
      "at ul",
      "t in",
      "nd an",
      "ku ndan",
      "ch etan",
      "ar if",
      "m eena",
      "ra dh",
      "raj eev",
      "m ed",
      "moham med",
      "heman t",
      "div ya",
      "s in",
      "p il",
      "ka pil",
      "end ar",
      "b it",
      "s i",
      "anu p",
      "an g",
      "p ran",
      "v en",
      "ka t",
      "ven kat",
      "re nu",
      "lo kesh",
      "mayu r",
      "d am",
      "sad dam",
      "su dhir",
      "o y",
      "ru pesh",
      "swa jit",
      "bi swajit",
      "shaik h",
      "pra tik",
      "p na",
      "al ok",
      "rit esh",
      "mith un",
      "sha ilesh",
      "w as",
      "pa y",
      "raj an",
      "th a",
      "ra th",
      "s oh",
      "s rin",
      "sa th",
      "bha t",
      "an ura",
      "v el",
      "su jit",
      "lo vel",
      "lovel y",
      "n il",
      "ash a",
      "sh al",
      "ar man",
      "pra san",
      "n ir",
      "nir mal",
      "i bhav",
      "sur ya",
      "va ibhav",
      "m ita",
      "s mita",
      "e ta",
      "ut tam",
      "na ga",
      "ush an",
      "g n",
      "gn esh",
      "g ul",
      "shash i",
      "t ush",
      "y ush",
      "pi yush",
      "tush ar",
      "b ir",
      "o tu",
      "ka vita",
      "ar u",
      "ank ita",
      "kar tik",
      "ni raj",
      "mon ika",
      "son ali",
      "ra yan",
      "na rayan",
      "sar oj",
      "bhav esh",
      "d ik",
      "ar chan",
      "archan a",
      "swa ti",
      "mah i",
      "go lu",
      "ang el",
      "jit u",
      "akhil esh",
      "lax mi",
      "p ush",
      "f ir",
      "jay esh",
      "sa k",
      "an ik",
      "anik et",
      "so urav",
      "t arun",
      "nit ish",
      "dev endra",
      "bit tu",
      "su dha",
      "son i",
      "vi pin",
      "ch a",
      "anku sh",
      "sang ita",
      "a akash",
      "sha hid",
      "ram u",
      "san kar",
      "a bha",
      "ash w",
      "abha y",
      "dhi raj",
      "ee m",
      "m o",
      "g eeta",
      "ma yan",
      "ud ay",
      "mayan k",
      "pay al",
      "p ul",
      "vi pul",
      "chi rag",
      "ka ush",
      "an ju",
      "rit u",
      "m in",
      "u sha",
      "sat ya",
      "vi r",
      "s neha",
      "v ed",
      "ja ved",
      "bha s",
      "sa pna",
      "si d",
      "pr eet",
      "preet i",
      "par deep",
      "karth ik",
      "an i",
      "shiv ani",
      "ra van",
      "dha v",
      "r eena",
      "r ush",
      "sal im",
      "r ik",
      "d ar",
      "mad an",
      "dar shan",
      "man u",
      "bin d",
      "n and",
      "sath ish",
      "n eet",
      "f a",
      "sa ji",
      "saji d",
      "sa va",
      "ash u",
      "son am",
      "prit i",
      "g endra",
      "sar ita",
      "v ar",
      "var sha",
      "an kar",
      "pra sad",
      "re han",
      "h u",
      "ja i",
      "raja t",
      "ra shmi",
      "k ir",
      "k y",
      "pin ky",
      "ku r",
      "tha kur",
      "p un",
      "sha h",
      "bin od",
      "r esh",
      "p nil",
      "swa pnil",
      "prit am",
      "bip in",
      "ni ranjan",
      "anura g",
      "as lam",
      "a jeet",
      "go pi",
      "rat an",
      "b ik",
      "nee lam",
      "d anish",
      "v arun",
      "dee pa",
      "abhi jit",
      "g h",
      "ar p",
      "b ri",
      "j esh",
      "bri jesh",
      "har dik",
      "karth i",
      "ra ma",
      "sang eeta",
      "ee raj",
      "jay a",
      "dh eeraj",
      "rish i",
      "man ik",
      "jan a",
      "par mar",
      "ra dha",
      "san dh",
      "sandh ya",
      "raj pu",
      "om kar",
      "rajpu t",
      "andan a",
      "a arti",
      "khush i",
      "om prakash",
      "raj iv",
      "man tu",
      "anku r",
      "ra d",
      "s en",
      "ash ut",
      "kan chan",
      "ashut osh",
      "j oh",
      "joh n",
      "ro cky",
      "nik ita",
      "venkat esh",
      "l i",
      "pin ki",
      "z wan",
      "par th",
      "ri zwan",
      "khush b",
      "o o",
      "ta pan",
      "par veen",
      "b ish",
      "m ee",
      "th u",
      "mu ra",
      "mu thu",
      "san th",
      "santh osh",
      "a z",
      "bab ul",
      "bala ji",
      "tin ku",
      "wan i",
      "kal pesh",
      "ra man",
      "vi mal",
      "w eta",
      "sh weta",
      "kan ha",
      "shil pa",
      "lak han",
      "dur gesh",
      "an jay",
      "dhan anjay",
      "an sh",
      "was im",
      "bhas kar",
      "mu sk",
      "pan a",
      "kal pana",
      "musk an",
      "ee p",
      "dil eep",
      "push pa",
      "cha u",
      "u ma",
      "nish ant",
      "i b",
      "raj ib",
      "ran a",
      "so na",
      "s ri",
      "s imran",
      "an shu",
      "go utam",
      "gan ga",
      "sa bir",
      "ni dhi",
      "sa urav",
      "chand u",
      "par esh",
      "g u",
      "dur ga",
      "gu ru",
      "an m",
      "na yan",
      "r k",
      "san a",
      "me hul",
      "bab ita",
      "vir endra",
      "son al",
      "ir shad",
      "krish an",
      "g ir",
      "ish ali",
      "va ishali",
      "gir ish",
      "pra ti",
      "deep ika",
      "lak shmi",
      "sub ash",
      "a yan",
      "j oy",
      "s om",
      "som nath",
      "h ir",
      "sh ar",
      "ashw ini",
      "ra ushan",
      "min tu",
      "sat yam",
      "bi jay",
      "man oh",
      "na vin",
      "manoh ar",
      "sh ek",
      "ja tin",
      "dip ankar",
      "shek har",
      "su jeet",
      "san jeet",
      "bal u",
      "ravind er",
      "m ir",
      "sak shi",
      "i z",
      "fa iz",
      "faiz an",
      "su bham",
      "iv as",
      "srin ivas",
      "u pendra",
      "ji gnesh",
      "o dh",
      "sa vita",
      "pa s",
      "ta pas",
      "dhar th",
      "sub odh",
      "sid dharth",
      "na dee",
      "pra ta",
      "deep u",
      "nadee m",
      "prata p",
      "ajit h",
      "su priya",
      "rag hu",
      "ra shi",
      "rashi d",
      "g han",
      "kesh av",
      "ghan shyam",
      "ru pal",
      "so ma",
      "rupal i",
      "k hi",
      "ra khi",
      "neet u",
      "s ir",
      "man gesh",
      "na sir",
      "san jit",
      "na gesh",
      "ru pa",
      "m il",
      "radh ika",
      "nit u",
      "a amir",
      "v andana",
      "o la",
      "bh ola",
      "rush i",
      "pal la",
      "palla vi",
      "h otu",
      "ch hotu",
      "al ta",
      "alta f",
      "srin u",
      "th ak",
      "thak or",
      "pun am",
      "prasan ta",
      "resh ma",
      "sa ravan",
      "saravan an",
      "ro ck",
      "sh ma",
      "su shma",
      "san ji",
      "sanji b",
      "sin gh",
      "su ja",
      "suja ta",
      "raj ni",
      "o z",
      "fir oz",
      "ch otu",
      "an nu",
      "an ta",
      "jay anta",
      "ra ta",
      "sub rata",
      "bik ram",
      "b an",
      "sh it",
      "ban ti",
      "shit al",
      "al a",
      "bh anu",
      "ba pi",
      "il endra",
      "sha ilendra",
      "go urav",
      "he ma",
      "dhav al",
      "g ha",
      "sh ru",
      "amar jeet",
      "me gha",
      "soh an",
      "shru ti",
      "pa pu",
      "b ita",
      "n o",
      "no or",
      "h eena",
      "k et",
      "sh am",
      "san ket",
      "pin ku",
      "sham bhu",
      "an war",
      "ar shad",
      "rit ik",
      "vi gnesh",
      "bh arti",
      "a f",
      "ta b",
      "eet y",
      "sw eety",
      "af tab",
      "k etan",
      "raj veer",
      "v raj",
      "yu vraj",
      "rath od",
      "kanha iya",
      "jit ender",
      "va sava",
      "bhu pendra",
      "was eem",
      "vi rat",
      "go kul",
      "ga jan",
      "gajan an",
      "abhi jeet",
      "man jeet",
      "b ad",
      "dharm esh",
      "bad al",
      "d av",
      "an sar",
      "ya dav",
      "ansar i",
      "jit endar",
      "bh ushan",
      "ak ram",
      "mura li",
      "son iya",
      "har esh",
      "radh e",
      "kaush al",
      "su shant",
      "na v",
      "par i",
      "riya z",
      "fir oj",
      "e ik",
      "sh eik",
      "an am",
      "in d",
      "sheik h",
      "anam ika",
      "ar sh",
      "ad arsh",
      "bal ram",
      "pra bhat",
      "sur ender",
      "rish abh",
      "shal ini",
      "san u",
      "lal u",
      "pra bhu",
      "w al",
      "man as",
      "dh ru",
      "dip u",
      "dhru v",
      "b ar",
      "sh re",
      "ak bar",
      "gul shan",
      "shre ya",
      "hari om",
      "g al",
      "su san",
      "man gal",
      "moh sin",
      "susan ta",
      "e v",
      "mah ad",
      "mahad ev",
      "sha rad",
      "sa if",
      "kal u",
      "mith lesh",
      "l as",
      "vi las",
      "s rik",
      "an th",
      "naga raj",
      "srik anth",
      "ya k",
      "de va",
      "vina yak",
      "sal eem",
      "su smita",
      "th am",
      "anm ol",
      "e ja",
      "t eja",
      "teja s",
      "al pesh",
      "kaush ik",
      "ash wani",
      "ga gan",
      "bir endra",
      "ja kir",
      "na gendra",
      "so urabh",
      "sudha kar",
      "ji gar",
      "madhu ri",
      "az ad",
      "in av",
      "abh inav",
      "sw eta",
      "par mod",
      "hir en",
      "v ya",
      "ka vya",
      "bab y",
      "shad ab",
      "d ra",
      "ru dra",
      "arp ita",
      "sh rik",
      "shrik ant",
      "j endra",
      "ra s",
      "ish war",
      "pa ras",
      "ga jendra",
      "aru na",
      "mu ru",
      "muru gan",
      "th i",
      "sak thi",
      "m eet",
      "sant u",
      "jeet u",
      "sar ika",
      "kishor e",
      "shar ma",
      "kumar i",
      "harsh it",
      "o bha",
      "p k",
      "sh obha",
      "raj nish",
      "yo gendra",
      "l ank",
      "sh eet",
      "ra v",
      "so lank",
      "sheet al",
      "solank i",
      "al ka",
      "sa jan",
      "chau han",
      "san jana",
      "th il",
      "sen thil",
      "sh ik",
      "shiva ji",
      "shik ha",
      "ranjit h",
      "am rit",
      "chin tu",
      "bi joy",
      "na k",
      "ro nak",
      "kir ti",
      "sanj oy",
      "pra chi",
      "d ya",
      "o th",
      "vi dya",
      "vin oth",
      "par ul",
      "manju nath",
      "swa pan",
      "tam il",
      "a j",
      "ra aj",
      "rin ki",
      "b rajesh",
      "d n",
      "esh war",
      "yan eshwar",
      "dn yaneshwar",
      "a ad",
      "su dip",
      "sa hid",
      "aru p",
      "aad il",
      "u su",
      "mo usu",
      "mousu mi",
      "kal yan",
      "vee na",
      "ru chi",
      "rosh ni",
      "khushb oo",
      "d at",
      "n an",
      "pra bha",
      "shan u",
      "dip ika",
      "adit i",
      "kan nan",
      "dat ta",
      "prabha kar",
      "man si",
      "v esh",
      "sar vesh",
      "kan t",
      "chandra kant",
      "t ri",
      "an jana",
      "ya tri",
      "ram ya",
      "ga yatri",
      "t anu",
      "pran av",
      "manik andan",
      "mu kul",
      "bha rath",
      "bish nu",
      "mee ra",
      "b un",
      "t y",
      "ba sant",
      "bun ty",
      "la ta",
      "soh el",
      "rushi kesh",
      "su m",
      "ku sum",
      "dip ali",
      "dhan raj",
      "anup am",
      "nirmal a",
      "h et",
      "ru hi",
      "rit ika",
      "het al",
      "j eev",
      "ha v",
      "rag hav",
      "arp it",
      "bish al",
      "mee nu",
      "jeev an",
      "a vi",
      "su nd",
      "man yu",
      "ma dhav",
      "hil esh",
      "mit hilesh",
      "abhi manyu",
      "avi jit",
      "sund ar",
      "push pendra",
      "nand u",
      "par tha",
      "khushb u",
      "b im",
      "k shi",
      "y endra",
      "ru kh",
      "sat yendra",
      "ba sava",
      "meena kshi",
      "gul ab",
      "shah rukh",
      "bim al",
      "basava raj",
      "an oo",
      "vijay a",
      "anoo p",
      "ku shal",
      "ashw in",
      "s ita",
      "ram babu",
      "par kash",
      "shash ank",
      "sita ram",
      "anura dha",
      "jan vi",
      "lal an",
      "govind a",
      "pran jal",
      "renu ka",
      "b as",
      "r ita",
      "am rita",
      "pra sen",
      "har sha",
      "sat endra",
      "de bas",
      "prasen jit",
      "debas ish",
      "s ik",
      "and ar",
      "va su",
      "bip ul",
      "sik andar",
      "suraj it",
      "mith u",
      "nil am",
      "sh ravan",
      "o u",
      "ch ou",
      "dhar y",
      "chou dhary",
      "u shad",
      "na ushad",
      "nar ender",
      "ranjan a",
      "babul al",
      "dip ti",
      "a par",
      "mit esh",
      "prasan na",
      "apar na",
      "ramesh war",
      "chin na",
      "r mil",
      "u rmil",
      "ya z",
      "ti yaz",
      "im tiyaz",
      "urmil a",
      "a ravind",
      "prati bha",
      "ra bind",
      "ri cha",
      "prati ma",
      "rabind ra",
      "d esh",
      "g un",
      "k rush",
      "l ab",
      "n am",
      "san desh",
      "bip lab",
      "gun jan",
      "krush na",
      "nam ita",
      "ar an",
      "ch aran",
      "a arif",
      "pra shan",
      "vin eet",
      "priyan shu",
      "dev raj",
      "prashan th",
      "ik ant",
      "har shad",
      "shash ikant",
      "shal u",
      "th ala",
      "swa pna",
      "a ashish",
      "j iya",
      "p am",
      "r ni",
      "ja gan",
      "in du",
      "ch al",
      "ram kumar",
      "ru pam",
      "pu rni",
      "chan chal",
      "heman ta",
      "jagan nath",
      "purni ma",
      "raj ender",
      "ran u",
      "ut pal",
      "bhav na",
      "mo in",
      "a veer",
      "mah aveer",
      "ri han",
      "naga raju",
      "g amit",
      "man nu",
      "a asif",
      "a dhan",
      "p pa",
      "in a",
      "na ina",
      "sam adhan",
      "dil shad",
      "ba ppa",
      "sid du",
      "nand ini",
      "f ul",
      "pra ful",
      "h al",
      "h em",
      "k ti",
      "s ne",
      "sha kti",
      "hem raj",
      "sne hal",
      "jay deep",
      "bh im",
      "karthi ck",
      "ar ba",
      "arba z",
      "sa he",
      "nav neet",
      "sahe b",
      "sh aru",
      "ansh ul",
      "sharu kh",
      "d ash",
      "am mu",
      "ak shi",
      "sam rat",
      "dharm endar",
      "mayu ri",
      "gul am",
      "min akshi",
      "dash rath",
      "r ee",
      "sh ree",
      "ran veer",
      "sath ya",
      "pu ran",
      "dish a",
      "h anu",
      "ra az",
      "sur jeet",
      "kail as",
      "pran ab",
      "hanu man",
      "g wan",
      "n andan",
      "vi raj",
      "sa bita",
      "ran t",
      "bha gwan",
      "go bind",
      "shiv u",
      "vik rant",
      "gobind a",
      "k r",
      "sh rad",
      "san oj",
      "un al",
      "kr unal",
      "shrad dha",
      "j j",
      "k in",
      "u jj",
      "jit esh",
      "jit en",
      "kin jal",
      "ujj wal",
      "roh ini",
      "har endra",
      "sant anu",
      "dik sha",
      "g ita",
      "p raja",
      "pa ti",
      "yo gita",
      "praja pati",
      "ar bind",
      "dhar i",
      "soh il",
      "chau dhari",
      "a ta",
      "mam ata",
      "f arman",
      "s ta",
      "pa bit",
      "mu sta",
      "bha vin",
      "shiv raj",
      "vish u",
      "nish u",
      "van sh",
      "pabit ra",
      "musta k",
      "vin it",
      "dip esh",
      "um ita",
      "mo umita",
      "a ayush",
      "w tham",
      "ja ga",
      "go wtham",
      "jaga dish",
      "shiv kumar",
      "sumit ra",
      "ra z",
      "sar fa",
      "sin tu",
      "sarfa raz",
      "t an",
      "ma y",
      "ash vin",
      "chand ru",
      "so um",
      "me raj",
      "pran ay",
      "pun it",
      "tan may",
      "soum en",
      "vir ender",
      "k o",
      "an an",
      "ee l",
      "sa smita",
      "sun eel",
      "sur endar",
      "mah ender",
      "ush ik",
      "rish u",
      "prasan th",
      "ko ushik",
      "anan ya",
      "su darshan",
      "ni kun",
      "nikun j",
      "h l",
      "sh man",
      "am resh",
      "pra hl",
      "lak shman",
      "prahl ad",
      "pal ash",
      "pi hu",
      "bala ram",
      "su kumar",
      "bik i",
      "a ppu",
      "b arun",
      "shyam al",
      "harsh al",
      "ganga dhar",
      "mil ind",
      "ba su",
      "esh yam",
      "ka bita",
      "radh eshyam",
      "pay el",
      "bab li",
      "mon tu",
      "a joy",
      "raj it",
      "mah endar",
      "ind rajit",
      "o ranjan",
      "man oranjan",
      "el a",
      "pal ak",
      "va gh",
      "vagh ela",
      "ar ga",
      "bh arga",
      "bharga v",
      "u ti",
      "mar uti",
      "deep ali",
      "gan pat",
      "b ant",
      "bant y",
      "in ash",
      "pa th",
      "ram chandra",
      "ab inash",
      "ek ta",
      "dhir endra",
      "mura ri",
      "path an",
      "t ee",
      "su kan",
      "pra tee",
      "sukan ta",
      "pratee k",
      "y esh",
      "z ala",
      "div yesh",
      "a a",
      "v it",
      "th al",
      "aa rav",
      "vit thal",
      "subh ankar",
      "bin ay",
      "pratik sha",
      "su shan",
      "su bhas",
      "sushan ta",
      "su dhan",
      "satya jit",
      "sudhan shu",
      "ran ju",
      "prit y",
      "sa yan",
      "ba pan",
      "nand kishor",
      "man ash",
      "shar van",
      "bh ang",
      "shu bhang",
      "shubhang i",
      "ish u",
      "mit ali",
      "t anm",
      "kar sh",
      "ut karsh",
      "suman ta",
      "tanm oy",
      "dev ender",
      "d as",
      "o jit",
      "ram das",
      "sur ojit",
      "a hir",
      "d im",
      "p raj",
      "dim pal",
      "praj wal",
      "nav nath",
      "rish av",
      "sang ram",
      "b andana",
      "bh i",
      "dh esh",
      "sur bhi",
      "av dhesh",
      "g oh",
      "m rin",
      "goh il",
      "mrin al",
      "p and",
      "u ran",
      "pand uran",
      "panduran g",
      "ja de",
      "jade ja",
      "k wan",
      "ma kwan",
      "rav al",
      "makwan a",
      "jay dip",
      "pra tham",
      "pratham esh",
      "gud iya",
      "a ar",
      "oh i",
      "aar ohi"
    ]
  }
}