{
    "version": "1.0",
    "truncation": null,
    "padding": null,
    "added_tokens": [
        {
            "id": 0,
            "content": "[UNK]",
            "single_word": false,
            "lstrip": false,
            "rstrip": false,
            "normalized": false,
            "special": true
        },
        {
            "id": 1,
            "content": "[CLS]",
            "single_word": false,
            "lstrip": false,
            "rstrip": false,
            "normalized": false,
            "special": true
        },
        {
            "id": 2,
            "content": "[SEP]",
            "single_word": false,
            "lstrip": false,
            "rstrip": false,
            "normalized": false,
            "special": true
        },
        {
            "id": 3,
            "content": "[PAD]",
            "single_word": false,
            "lstrip": false,
            "rstrip": false,
            "normalized": false,
            "special": true
        },
        {
            "id": 4,
            "content": "[MASK]",
            "single_word": false,
            "lstrip": false,
            "rstrip": false,
            "normalized": false,
            "special": true
        }
    ],
    "normalizer": null,
    "pre_tokenizer": {
        "type": "Whitespace"
    },
    "post_processor": null,
    "decoder": null,
    "model": {
        "type": "BPE",
        "dropout": null,
        "unk_token": "[UNK]",
        "continuing_subword_prefix": null,
        "end_of_word_suffix": null,
        "fuse_unk": false,
        "vocab": {
            "[UNK]": 0,
            "[CLS]": 1,
            "[SEP]": 2,
            "[PAD]": 3,
            "[MASK]": 4,
            "-": 5,
            "a": 6,
            "b": 7,
            "c": 8,
            "d": 9,
            "e": 10,
            "f": 11,
            "g": 12,
            "h": 13,
            "i": 14,
            "j": 15,
            "k": 16,
            "l": 17,
            "m": 18,
            "n": 19,
            "o": 20,
            "p": 21,
            "q": 22,
            "r": 23,
            "s": 24,
            "t": 25,
            "u": 26,
            "v": 27,
            "w": 28,
            "x": 29,
            "y": 30,
            "z": 31,
            "na": 32,
            "ar": 33,
            "an": 34,
            "sz": 35,
            "ka": 36,
            "ta": 37,
            "ia": 38,
            "al": 39,
            "mar": 40,
            "rz": 41,
            "la": 42,
            "ek": 43,
            "mi": 44,
            "ma": 45,
            "ie": 46,
            "to": 47,
            "yna": 48,
            "el": 49,
            "ina": 50,
            "usz": 51,
            "pa": 52,
            "ena": 53,
            "ra": 54,
            "da": 55,
            "tr": 56,
            "ol": 57,
            "ja": 58,
            "law": 59,
            "go": 60,
            "ata": 61,
            "st": 62,
            "ni": 63,
            "ro": 64,
            "rze": 65,
            "bar": 66,
            "ag": 67,
            "be": 68,
            "and": 69,
            "gorz": 70,
            "io": 71,
            "nie": 72,
            "ch": 73,
            "wel": 74,
            "in": 75,
            "rzy": 76,
            "sia": 77,
            "zyna": 78,
            "pio": 79,
            "mo": 80,
            "szka": 81,
            "wi": 82,
            "do": 83,
            "iusz": 84,
            "te": 85,
            "kar": 86,
            "lu": 87,
            "mag": 88,
            "ry": 89,
            "jo": 90,
            "wo": 91,
            "mal": 92,
            "ian": 93,
            "tof": 94,
            "sztof": 95,
            "tar": 96,
            "katar": 97,
            "ew": 98,
            "lia": 99,
            "ju": 100,
            "ewa": 101,
            "malgorz": 102,
            "styna": 103,
            "masz": 104,
            "dan": 105,
            "jan": 106,
            "kami": 107,
            "zb": 108,
            "teusz": 109,
            "rzej": 110,
            "ber": 111,
            "ba": 112,
            "ga": 113,
            "cie": 114,
            "patr": 115,
            "cja": 116,
            "bo": 117,
            "ada": 118,
            "dar": 119,
            "ur": 120,
            "ku": 121,
            "zena": 122,
            "kry": 123,
            "raf": 124,
            "pau": 125,
            "wia": 126,
            "sy": 127,
            "re": 128,
            "eta": 129,
            "woj": 130,
            "rena": 131,
            "syl": 132,
            "sa": 133,
            "iwo": 134,
            "tek": 135,
            "za": 136,
            "dia": 137,
            "ola": 138,
            "ieta": 139,
            "elzb": 140,
            "mek": 141,
            "er": 142,
            "jac": 143,
            "dawi": 144,
            "iza": 145,
            "li": 146,
            "macie": 147,
            "mian": 148,
            "ad": 149,
            "se": 150,
            "art": 151,
            "gra": 152,
            "jar": 153,
            "iel": 154,
            "adr": 155,
            "kub": 156,
            "iek": 157,
            "ewel": 158,
            "lo": 159,
            "lau": 160,
            "bog": 161,
            "ani": 162,
            "anta": 163,
            "jol": 164,
            "ed": 165,
            "ze": 166,
            "de": 167,
            "ciech": 168,
            "mie": 169,
            "we": 170,
            "ali": 171,
            "tor": 172,
            "mir": 173,
            "mon": 174,
            "ktor": 175,
            "on": 176,
            "nik": 177,
            "szy": 178,
            "ula": 179,
            "wie": 180,
            "yta": 181,
            "rad": 182,
            "ig": 183,
            "ard": 184,
            "niew": 185,
            "zbig": 186,
            "szek": 187,
            "zi": 188,
            "je": 189,
            "le": 190,
            "tosz": 191,
            "stani": 192,
            "emi": 193,
            "iola": 194,
            "zo": 195,
            "per": 196,
            "bogu": 197,
            "cper": 198,
            "ole": 199,
            "szula": 200,
            "ela": 201,
            "tta": 202,
            "siek": 203,
            "rysz": 204,
            "ika": 205,
            "man": 206,
            "en": 207,
            "diusz": 208,
            "jad": 209,
            "gab": 210,
            "arka": 211,
            "kon": 212,
            "wiga": 213,
            "oli": 214,
            "zu": 215,
            "elika": 216,
            "ang": 217,
            "oletta": 218,
            "fia": 219,
            "iela": 220,
            "wal": 221,
            "deusz": 222,
            "ciek": 223,
            "fi": 224,
            "lip": 225,
            "ryk": 226,
            "hen": 227,
            "zuz": 228,
            "gabr": 229,
            "zimie": 230,
            "luc": 231,
            "mik": 232,
            "or": 233,
            "ilo": 234,
            "zimierz": 235,
            "lomie": 236,
            "vi": 237,
            "hu": 238,
            "aga": 239,
            "dzi": 240,
            "zdzi": 241,
            "ste": 242,
            "bina": 243,
            "ne": 244,
            "gor": 245,
            "cze": 246,
            "wan": 247,
            "mu": 248,
            "dag": 249,
            "zen": 250,
            "ksa": 251,
            "os": 252,
            "lad": 253,
            "cz": 254,
            "ce": 255,
            "ksana": 256,
            "berna": 257,
            "ire": 258,
            "sta": 259,
            "jago": 260,
            "ster": 261,
            "sylwe": 262,
            "kor": 263,
            "neusz": 264,
            "wiol": 265,
            "nor": 266,
            "zby": 267,
            "iana": 268,
            "rek": 269,
            "ge": 270,
            "korn": 271,
            "mak": 272,
            "zar": 273,
            "tol": 274,
            "si": 275,
            "ara": 276,
            "cezar": 277,
            "mun": 278,
            "zia": 279,
            "zej": 280,
            "witol": 281,
            "miecz": 282,
            "wlad": 283,
            "jul": 284,
            "bla": 285,
            "milo": 286,
            "am": 287,
            "fr": 288,
            "lod": 289,
            "ska": 290,
            "eu": 291,
            "ana": 292,
            "wlod": 293,
            "reg": 294,
            "zy": 295,
            "nia": 296,
            "ii": 297,
            "ala": 298,
            "ex": 299,
            "ty": 300,
            "zyg": 301,
            "fa": 302,
            "ser": 303,
            "munt": 304,
            "dek": 305,
            "bernad": 306,
            "cy": 307,
            "mil": 308,
            "giusz": 309,
            "iga": 310,
            "son": 311,
            "ora": 312,
            "onora": 313,
            "ri": 314,
            "ir": 315,
            "gi": 316,
            "ti": 317,
            "maksy": 318,
            "ci": 319,
            "pan": 320,
            "gen": 321,
            "dzia": 322,
            "ryka": 323,
            "elwi": 324,
            "honora": 325,
            "bro": 326,
            "rd": 327,
            "wa": 328,
            "ewe": 329,
            "tom": 330,
            "bian": 331,
            "ru": 332,
            "tan": 333,
            "ane": 334,
            "anasta": 335,
            "bry": 336,
            "zelika": 337,
            "wier": 338,
            "va": 339,
            "sewe": 340,
            "ryn": 341,
            "gida": 342,
            "ode": 343,
            "nikode": 344,
            "milian": 345,
            "ha": 346,
            "dyta": 347,
            "ris": 348,
            "andr": 349,
            "lud": 350,
            "siu": 351,
            "wac": 352,
            "bia": 353,
            "broni": 354,
            "di": 355,
            "kazimie": 356,
            "jed": 357,
            "nis": 358,
            "ter": 359,
            "nic": 360,
            "my": 361,
            "cjan": 362,
            "lka": 363,
            "lii": 364,
            "szcze": 365,
            "maj": 366,
            "zenna": 367,
            "ael": 368,
            "iv": 369,
            "owe": 370,
            "romu": 371,
            "genowe": 372,
            "romual": 373,
            "max": 374,
            "mund": 375,
            "tka": 376,
            "aur": 377,
            "este": 378,
            "im": 379,
            "leo": 380,
            "erne": 381,
            "oliv": 382,
            "zja": 383,
            "wek": 384,
            "lav": 385,
            "rys": 386,
            "nka": 387,
            "liia": 388,
            "sha": 389,
            "olo": 390,
            "wik": 391,
            "gie": 392,
            "ger": 393,
            "pe": 394,
            "iia": 395,
            "cia": 396,
            "chu": 397,
            "dka": 398,
            "zek": 399,
            "sza": 400,
            "bole": 401,
            "hn": 402,
            "mat": 403,
            "rus": 404,
            "ev": 405,
            "volo": 406,
            "urii": 407,
            "fre": 408,
            "alfre": 409,
            "slav": 410,
            "oliw": 411,
            "bl": 412,
            "mire": 413,
            "lda": 414,
            "kaje": 415,
            "tro": 416,
            "ca": 417,
            "ssi": 418,
            "ach": 419,
            "joach": 420,
            "kl": 421,
            "luk": 422,
            "eni": 423,
            "lan": 424,
            "ann": 425,
            "pav": 426,
            "moteusz": 427,
            "ssa": 428,
            "zal": 429,
            "rozal": 430,
            "ko": 431,
            "kta": 432,
            "okta": 433,
            "ama": 434,
            "gre": 435,
            "kse": 436,
            "rol": 437,
            "us": 438,
            "lla": 439,
            "ctor": 440,
            "fry": 441,
            "bi": 442,
            "win": 443,
            "nek": 444,
            "nacy": 445,
            "dy": 446,
            "jmund": 447,
            "kas": 448,
            "inia": 449,
            "liu": 450,
            "blo": 451,
            "arn": 452,
            "pi": 453,
            "zela": 454,
            "vasi": 455,
            "vad": 456,
            "alo": 457,
            "min": 458,
            "mas": 459,
            "hii": 460,
            "eva": 461,
            "fel": 462,
            "as": 463,
            "ier": 464,
            "gu": 465,
            "bru": 466,
            "brun": 467,
            "iu": 468,
            "ele": 469,
            "siia": 470,
            "dyna": 471,
            "gii": 472,
            "hdan": 473,
            "myr": 474,
            "volody": 475,
            "dmy": 476,
            "ho": 477,
            "mp": 478,
            "sv": 479,
            "tho": 480,
            "mitr": 481,
            "olimp": 482,
            "kev": 483,
            "svi": 484,
            "arte": 485,
            "szko": 486,
            "kater": 487,
            "edy": 488,
            "manta": 489,
            "old": 490,
            "teo": 491,
            "em": 492,
            "adi": 493,
            "wery": 494,
            "jas": 495,
            "rob": 496,
            "hal": 497,
            "kle": 498,
            "zenka": 499,
            "kt": 500,
            "kew": 501,
            "nedy": 502,
            "ova": 503,
            "benedy": 504,
            "dmitr": 505,
            "don": 506,
            "dimir": 507,
            "myk": 508,
            "olgie": 509,
            "zka": 510,
            "tolii": 511,
            "ez": 512,
            "pat": 513,
            "deryk": 514,
            "mikha": 515,
            "teodo": 516,
            "flo": 517,
            "val": 518,
            "ynka": 519,
            "arle": 520,
            "aros": 521,
            "valer": 522,
            "aroslav": 523,
            "ida": 524,
            "mel": 525,
            "ng": 526,
            "ustyna": 527,
            "staw": 528,
            "jzy": 529,
            "bra": 530,
            "kto": 531,
            "uda": 532,
            "nasz": 533,
            "kat": 534,
            "truda": 535,
            "wit": 536,
            "zie": 537,
            "cha": 538,
            "ks": 539,
            "rda": 540,
            "skle": 541,
            "zio": 542,
            "zygfry": 543,
            "ira": 544,
            "lar": 545,
            "ury": 546,
            "ysa": 547,
            "maury": 548,
            "enty": 549,
            "uela": 550,
            "dol": 551,
            "hie": 552,
            "usia": 553,
            "nim": 554,
            "ronim": 555,
            "waler": 556,
            "wane": 557,
            "rudol": 558,
            "cj": 559,
            "il": 560,
            "kam": 561,
            "yslav": 562,
            "ny": 563,
            "wian": 564,
            "iw": 565,
            "oty": 566,
            "hor": 567,
            "swie": 568,
            "tas": 569,
            "sii": 570,
            "mia": 571,
            "remia": 572,
            "jtek": 573,
            "tin": 574,
            "uliia": 575,
            "paw": 576,
            "mowit": 577,
            "bal": 578,
            "eslav": 579,
            "ekater": 580,
            "iwa": 581,
            "via": 582,
            "cheslav": 583,
            "dobro": 584,
            "pin": 585,
            "spin": 586,
            "au": 587,
            "atka": 588,
            "gia": 589,
            "pela": 590,
            "ym": 591,
            "nadi": 592,
            "bov": 593,
            "bcia": 594,
            "centy": 595,
            "dze": 596,
            "ginia": 597,
            "rma": 598,
            "rginia": 599,
            "tus": 600,
            "wer": 601,
            "dzio": 602,
            "gna": 603,
            "kel": 604,
            "szk": 605,
            "sal": 606,
            "lugi": 607,
            "kot": 608,
            "bek": 609,
            "dzo": 610,
            "ble": 611,
            "eble": 612,
            "fer": 613,
            "mka": 614,
            "nd": 615,
            "wrzy": 616,
            "eliusz": 617,
            "rav": 618,
            "niec": 619,
            "sybi": 620,
            "czarn": 621,
            "wawrzy": 622,
            "hailo": 623,
            "dynand": 624,
            "dzie": 625,
            "jda": 626,
            "qba": 627,
            "uta": 628,
            "uro": 629,
            "wad": 630,
            "yev": 631,
            "nadzie": 632,
            "arna": 633,
            "elig": 634,
            "daw": 635,
            "czi": 636,
            "mlod": 637,
            "nda": 638,
            "ryl": 639,
            "kune": 640,
            "fil": 641,
            "liudmy": 642,
            "gunda": 643,
            "rand": 644,
            "chna": 645,
            "dmi": 646,
            "dri": 647,
            "kwia": 648,
            "ly": 649,
            "sier": 650,
            "yn": 651,
            "arnia": 652,
            "styn": 653,
            "cham": 654,
            "lij": 655,
            "osp": 656,
            "ciarnia": 657,
            "giej": 658,
            "gustyn": 659,
            "by": 660,
            "cio": 661,
            "gru": 662,
            "hel": 663,
            "ksy": 664,
            "wy": 665,
            "ysia": 666,
            "bozy": 667,
            "enka": 668,
            "bie": 669,
            "co": 670,
            "dszk": 671,
            "iwe": 672,
            "nna": 673,
            "pra": 674,
            "rcy": 675,
            "uka": 676,
            "wnia": 677,
            "narcy": 678,
            "ienka": 679,
            "wis": 680,
            "cownia": 681
        },
        "merges": [
            "n a",
            "a r",
            "a n",
            "s z",
            "k a",
            "t a",
            "i a",
            "a l",
            "m ar",
            "r z",
            "l a",
            "e k",
            "m i",
            "m a",
            "i e",
            "t o",
            "y na",
            "e l",
            "i na",
            "u sz",
            "p a",
            "e na",
            "r a",
            "d a",
            "t r",
            "o l",
            "j a",
            "la w",
            "g o",
            "a ta",
            "s t",
            "n i",
            "r o",
            "rz e",
            "b ar",
            "a g",
            "b e",
            "an d",
            "go rz",
            "i o",
            "n ie",
            "c h",
            "w el",
            "i n",
            "rz y",
            "s ia",
            "z yna",
            "p io",
            "m o",
            "sz ka",
            "w i",
            "d o",
            "i usz",
            "t e",
            "k ar",
            "l u",
            "ma g",
            "r y",
            "j o",
            "w o",
            "m al",
            "i an",
            "to f",
            "sz tof",
            "t ar",
            "ka tar",
            "e w",
            "l ia",
            "j u",
            "ew a",
            "mal gorz",
            "st yna",
            "ma sz",
            "d an",
            "j an",
            "ka mi",
            "z b",
            "te usz",
            "rze j",
            "be r",
            "b a",
            "g a",
            "c ie",
            "pa tr",
            "c ja",
            "b o",
            "a da",
            "d ar",
            "u r",
            "k u",
            "z ena",
            "k ry",
            "ra f",
            "pa u",
            "w ia",
            "s y",
            "r e",
            "e ta",
            "wo j",
            "r ena",
            "sy l",
            "s a",
            "i wo",
            "t ek",
            "z a",
            "d ia",
            "o la",
            "ie ta",
            "el zb",
            "m ek",
            "e r",
            "ja c",
            "da wi",
            "i za",
            "l i",
            "ma cie",
            "mi an",
            "a d",
            "s e",
            "ar t",
            "g ra",
            "j ar",
            "ie l",
            "ad r",
            "ku b",
            "i ek",
            "e wel",
            "l o",
            "la u",
            "bo g",
            "an i",
            "an ta",
            "j ol",
            "e d",
            "z e",
            "d e",
            "cie ch",
            "mi e",
            "w e",
            "al i",
            "to r",
            "mi r",
            "mo n",
            "k tor",
            "o n",
            "ni k",
            "sz y",
            "u la",
            "w ie",
            "y ta",
            "ra d",
            "i g",
            "ar d",
            "nie w",
            "zb ig",
            "sz ek",
            "z i",
            "j e",
            "l e",
            "to sz",
            "st ani",
            "e mi",
            "io la",
            "z o",
            "p er",
            "bog u",
            "c per",
            "ol e",
            "sz ula",
            "e la",
            "t ta",
            "s iek",
            "ry sz",
            "i ka",
            "m an",
            "e n",
            "d iusz",
            "ja d",
            "ga b",
            "ar ka",
            "k on",
            "wi ga",
            "ol i",
            "z u",
            "el ika",
            "an g",
            "ole tta",
            "f ia",
            "ie la",
            "w al",
            "de usz",
            "c iek",
            "f i",
            "li p",
            "ry k",
            "h en",
            "zu z",
            "gab r",
            "zi mie",
            "lu c",
            "mi k",
            "o r",
            "i lo",
            "zimie rz",
            "lo mie",
            "v i",
            "h u",
            "ag a",
            "d zi",
            "z dzi",
            "st e",
            "b ina",
            "n e",
            "go r",
            "c ze",
            "w an",
            "m u",
            "da g",
            "ze n",
            "k sa",
            "o s",
            "la d",
            "c z",
            "c e",
            "ksa na",
            "ber na",
            "i re",
            "s ta",
            "ja go",
            "st er",
            "syl we",
            "k or",
            "ne usz",
            "wi ol",
            "n or",
            "zb y",
            "ia na",
            "r ek",
            "g e",
            "kor n",
            "ma k",
            "z ar",
            "to l",
            "s i",
            "ar a",
            "ce zar",
            "mu n",
            "z ia",
            "ze j",
            "wi tol",
            "mie cz",
            "w lad",
            "ju l",
            "b la",
            "mi lo",
            "a m",
            "f r",
            "lo d",
            "s ka",
            "e u",
            "a na",
            "w lod",
            "re g",
            "z y",
            "n ia",
            "i i",
            "al a",
            "e x",
            "t y",
            "zy g",
            "f a",
            "s er",
            "mun t",
            "d ek",
            "berna d",
            "c y",
            "mi l",
            "g iusz",
            "i ga",
            "s on",
            "o ra",
            "on ora",
            "r i",
            "i r",
            "g i",
            "t i",
            "mak sy",
            "c i",
            "p an",
            "g en",
            "d zia",
            "ry ka",
            "el wi",
            "h onora",
            "b ro",
            "r d",
            "w a",
            "ew e",
            "to m",
            "b ian",
            "r u",
            "t an",
            "an e",
            "ana sta",
            "b ry",
            "z elika",
            "wie r",
            "v a",
            "s ewe",
            "ry n",
            "gi da",
            "o de",
            "nik ode",
            "mil ian",
            "h a",
            "d yta",
            "ri s",
            "and r",
            "lu d",
            "si u",
            "wa c",
            "b ia",
            "bro ni",
            "d i",
            "ka zimie",
            "j ed",
            "ni s",
            "te r",
            "ni c",
            "m y",
            "c jan",
            "l ka",
            "li i",
            "sz cze",
            "ma j",
            "zen na",
            "a el",
            "i v",
            "o we",
            "ro mu",
            "gen owe",
            "romu al",
            "ma x",
            "mun d",
            "t ka",
            "a ur",
            "e ste",
            "i m",
            "le o",
            "er ne",
            "oli v",
            "z ja",
            "w ek",
            "la v",
            "ry s",
            "n ka",
            "li ia",
            "s ha",
            "ol o",
            "wi k",
            "g ie",
            "g er",
            "p e",
            "i ia",
            "c ia",
            "ch u",
            "d ka",
            "z ek",
            "sz a",
            "b ole",
            "h n",
            "ma t",
            "ru s",
            "e v",
            "v olo",
            "ur ii",
            "f re",
            "al fre",
            "s lav",
            "oli w",
            "b l",
            "mi re",
            "l da",
            "ka je",
            "tr o",
            "c a",
            "s si",
            "a ch",
            "jo ach",
            "k l",
            "lu k",
            "e ni",
            "l an",
            "an n",
            "pa v",
            "mo teusz",
            "s sa",
            "z al",
            "ro zal",
            "k o",
            "k ta",
            "o kta",
            "a ma",
            "g re",
            "k se",
            "r ol",
            "u s",
            "l la",
            "c tor",
            "f ry",
            "b i",
            "w in",
            "n ek",
            "na cy",
            "d y",
            "j mund",
            "ka s",
            "in ia",
            "li u",
            "b lo",
            "ar n",
            "p i",
            "ze la",
            "va si",
            "v ad",
            "al o",
            "mi n",
            "ma s",
            "h ii",
            "e va",
            "f el",
            "a s",
            "ie r",
            "g u",
            "b ru",
            "bru n",
            "i u",
            "el e",
            "si ia",
            "d yna",
            "g ii",
            "h dan",
            "my r",
            "volo dy",
            "d my",
            "h o",
            "m p",
            "s v",
            "t ho",
            "mi tr",
            "oli mp",
            "k ev",
            "s vi",
            "ar te",
            "sz ko",
            "ka ter",
            "ed y",
            "m anta",
            "ol d",
            "te o",
            "e m",
            "ad i",
            "we ry",
            "ja s",
            "ro b",
            "h al",
            "k le",
            "zen ka",
            "k t",
            "k ew",
            "n edy",
            "o va",
            "be nedy",
            "d mitr",
            "do n",
            "di mir",
            "my k",
            "ol gie",
            "z ka",
            "to lii",
            "e z",
            "pa t",
            "de ryk",
            "mik ha",
            "teo do",
            "f lo",
            "v al",
            "y nka",
            "ar le",
            "ar os",
            "val er",
            "aros lav",
            "i da",
            "m el",
            "n g",
            "u styna",
            "sta w",
            "j zy",
            "b ra",
            "k to",
            "u da",
            "na sz",
            "ka t",
            "tr uda",
            "wi t",
            "z ie",
            "ch a",
            "k s",
            "r da",
            "s kle",
            "z io",
            "zyg fry",
            "i ra",
            "l ar",
            "u ry",
            "y sa",
            "ma ury",
            "en ty",
            "u ela",
            "d ol",
            "h ie",
            "u sia",
            "ni m",
            "ro nim",
            "wal er",
            "wan e",
            "ru dol",
            "c j",
            "i l",
            "ka m",
            "y slav",
            "n y",
            "wi an",
            "i w",
            "o ty",
            "h or",
            "s wie",
            "ta s",
            "si i",
            "m ia",
            "re mia",
            "j tek",
            "t in",
            "u liia",
            "pa w",
            "mo wit",
            "b al",
            "e slav",
            "e kater",
            "i wa",
            "v ia",
            "ch eslav",
            "do bro",
            "p in",
            "s pin",
            "a u",
            "a tka",
            "g ia",
            "p ela",
            "y m",
            "na di",
            "bo v",
            "b cia",
            "c enty",
            "d ze",
            "g inia",
            "r ma",
            "r ginia",
            "t us",
            "w er",
            "d zio",
            "g na",
            "k el",
            "sz k",
            "s al",
            "lu gi",
            "ko t",
            "b ek",
            "d zo",
            "b le",
            "e ble",
            "f er",
            "m ka",
            "n d",
            "w rzy",
            "el iusz",
            "ra v",
            "nie c",
            "sy bi",
            "cz arn",
            "wa wrzy",
            "ha ilo",
            "dyna nd",
            "d zie",
            "j da",
            "q ba",
            "u ta",
            "u ro",
            "w ad",
            "y ev",
            "na dzie",
            "ar na",
            "el ig",
            "da w",
            "c zi",
            "m lod",
            "n da",
            "ry l",
            "ku ne",
            "fi l",
            "liu dmy",
            "gu nda",
            "r and",
            "ch na",
            "d mi",
            "d ri",
            "k wia",
            "l y",
            "s ier",
            "y n",
            "ar nia",
            "st yn",
            "ch am",
            "li j",
            "os p",
            "ci arnia",
            "gie j",
            "gu styn",
            "b y",
            "c io",
            "g ru",
            "h el",
            "k sy",
            "w y",
            "y sia",
            "bo zy",
            "en ka",
            "b ie",
            "c o",
            "d szk",
            "i we",
            "n na",
            "p ra",
            "r cy",
            "u ka",
            "w nia",
            "na rcy",
            "ie nka",
            "wi s",
            "co wnia"
        ]
    }
}