{
  "version": "1.0",
  "truncation": null,
  "padding": null,
  "added_tokens": [
    {
      "id": 0,
      "content": "[UNK]",
      "single_word": false,
      "lstrip": false,
      "rstrip": false,
      "normalized": false,
      "special": true
    },
    {
      "id": 1,
      "content": "[CLS]",
      "single_word": false,
      "lstrip": false,
      "rstrip": false,
      "normalized": false,
      "special": true
    },
    {
      "id": 2,
      "content": "[SEP]",
      "single_word": false,
      "lstrip": false,
      "rstrip": false,
      "normalized": false,
      "special": true
    },
    {
      "id": 3,
      "content": "[PAD]",
      "single_word": false,
      "lstrip": false,
      "rstrip": false,
      "normalized": false,
      "special": true
    },
    {
      "id": 4,
      "content": "[MASK]",
      "single_word": false,
      "lstrip": false,
      "rstrip": false,
      "normalized": false,
      "special": true
    }
  ],
  "normalizer": null,
  "pre_tokenizer": {
    "type": "Whitespace"
  },
  "post_processor": null,
  "decoder": null,
  "model": {
    "type": "BPE",
    "dropout": null,
    "unk_token": "[UNK]",
    "continuing_subword_prefix": null,
    "end_of_word_suffix": null,
    "fuse_unk": false,
    "vocab": {
      "[UNK]": 0,
      "[CLS]": 1,
      "[SEP]": 2,
      "[PAD]": 3,
      "[MASK]": 4,
      "-": 5,
      "a": 6,
      "b": 7,
      "c": 8,
      "d": 9,
      "e": 10,
      "f": 11,
      "g": 12,
      "h": 13,
      "i": 14,
      "j": 15,
      "k": 16,
      "l": 17,
      "m": 18,
      "n": 19,
      "o": 20,
      "p": 21,
      "q": 22,
      "r": 23,
      "s": 24,
      "t": 25,
      "u": 26,
      "v": 27,
      "w": 28,
      "x": 29,
      "y": 30,
      "z": 31,
      "ha": 32,
      "ma": 33,
      "an": 34,
      "ah": 35,
      "in": 36,
      "ul": 37,
      "mo": 38,
      "mad": 39,
      "hd": 40,
      "ur": 41,
      "ri": 42,
      "mu": 43,
      "am": 44,
      "mohd": 45,
      "nur": 46,
      "al": 47,
      "ham": 48,
      "ng": 49,
      "ai": 50,
      "az": 51,
      "ir": 52,
      "no": 53,
      "hammad": 54,
      "ti": 55,
      "ch": 56,
      "li": 57,
      "si": 58,
      "ra": 59,
      "muhammad": 60,
      "en": 61,
      "ong": 62,
      "fa": 63,
      "ro": 64,
      "mi": 65,
      "ni": 66,
      "md": 67,
      "da": 68,
      "sy": 69,
      "ab": 70,
      "nor": 71,
      "siti": 72,
      "wan": 73,
      "za": 74,
      "fi": 75,
      "le": 76,
      "sha": 77,
      "man": 78,
      "nurul": 79,
      "il": 80,
      "hamad": 81,
      "el": 82,
      "na": 83,
      "tan": 84,
      "ja": 85,
      "ina": 86,
      "ahmad": 87,
      "te": 88,
      "ani": 89,
      "irul": 90,
      "muhd": 91,
      "rah": 92,
      "ali": 93,
      "ya": 94,
      "ros": 95,
      "ka": 96,
      "abd": 97,
      "on": 98,
      "oh": 99,
      "sh": 100,
      "kha": 101,
      "di": 102,
      "ck": 103,
      "abdul": 104,
      "im": 105,
      "iz": 106,
      "lee": 107,
      "lim": 108,
      "cha": 109,
      "ana": 110,
      "rul": 111,
      "us": 112,
      "mohamad": 113,
      "ik": 114,
      "shah": 115,
      "pu": 116,
      "mah": 117,
      "zul": 118,
      "sa": 119,
      "mar": 120,
      "su": 121,
      "zi": 122,
      "fai": 123,
      "or": 124,
      "vin": 125,
      "ang": 126,
      "din": 127,
      "es": 128,
      "fiq": 129,
      "che": 130,
      "dah": 131,
      "ain": 132,
      "wa": 133,
      "dy": 134,
      "muhamad": 135,
      "jo": 136,
      "mal": 137,
      "amir": 138,
      "wong": 139,
      "ia": 140,
      "lan": 141,
      "zal": 142,
      "vi": 143,
      "khairul": 144,
      "noor": 145,
      "oo": 146,
      "ly": 147,
      "mat": 148,
      "hafi": 149,
      "rif": 150,
      "ew": 151,
      "sya": 152,
      "ris": 153,
      "is": 154,
      "ad": 155,
      "ny": 156,
      "th": 157,
      "dani": 158,
      "lin": 159,
      "sal": 160,
      "aziz": 161,
      "has": 162,
      "un": 163,
      "as": 164,
      "tin": 165,
      "amirul": 166,
      "zain": 167,
      "cik": 168,
      "syah": 169,
      "hani": 170,
      "ed": 171,
      "mohammad": 172,
      "put": 173,
      "ce": 174,
      "hafiz": 175,
      "nora": 176,
      "aiman": 177,
      "ee": 178,
      "er": 179,
      "lina": 180,
      "haya": 181,
      "jack": 182,
      "son": 183,
      "ki": 184,
      "ta": 185,
      "sam": 186,
      "hana": 187,
      "ak": 188,
      "enny": 189,
      "adam": 190,
      "ram": 191,
      "chong": 192,
      "ida": 193,
      "zam": 194,
      "zai": 195,
      "chan": 196,
      "yan": 197,
      "ku": 198,
      "naz": 199,
      "ful": 200,
      "joh": 201,
      "john": 202,
      "daus": 203,
      "kel": 204,
      "nie": 205,
      "mas": 206,
      "la": 207,
      "mon": 208,
      "arif": 209,
      "ie": 210,
      "ex": 211,
      "alex": 212,
      "fari": 213,
      "jam": 214,
      "chin": 215,
      "sur": 216,
      "farah": 217,
      "ca": 218,
      "joe": 219,
      "alif": 220,
      "yu": 221,
      "aiful": 222,
      "ow": 223,
      "ar": 224,
      "ilah": 225,
      "adi": 226,
      "fir": 227,
      "pute": 228,
      "firdaus": 229,
      "nik": 230,
      "putra": 231,
      "chris": 232,
      "ei": 233,
      "fau": 234,
      "liza": 235,
      "maz": 236,
      "fatin": 237,
      "uan": 238,
      "azman": 239,
      "mail": 240,
      "ismail": 241,
      "fati": 242,
      "saiful": 243,
      "mari": 244,
      "anis": 245,
      "ok": 246,
      "nah": 247,
      "lah": 248,
      "faizal": 249,
      "sham": 250,
      "syafiq": 251,
      "amy": 252,
      "eng": 253,
      "ila": 254,
      "esh": 255,
      "yus": 256,
      "davi": 257,
      "david": 258,
      "faiz": 259,
      "fauzi": 260,
      "har": 261,
      "ent": 262,
      "daniel": 263,
      "suha": 264,
      "afiq": 265,
      "sul": 266,
      "amin": 267,
      "jun": 268,
      "lai": 269,
      "hari": 270,
      "abu": 271,
      "intan": 272,
      "mie": 273,
      "chu": 274,
      "far": 275,
      "rahim": 276,
      "raja": 277,
      "hayati": 278,
      "alvin": 279,
      "han": 280,
      "yong": 281,
      "zur": 282,
      "may": 283,
      "ef": 284,
      "aida": 285,
      "yap": 286,
      "jason": 287,
      "ib": 288,
      "fatimah": 289,
      "gan": 290,
      "kim": 291,
      "irah": 292,
      "wil": 293,
      "shahrul": 294,
      "jenny": 295,
      "linda": 296,
      "eri": 297,
      "norain": 298,
      "rifah": 299,
      "azmi": 300,
      "syed": 301,
      "andy": 302,
      "ann": 303,
      "iv": 304,
      "kar": 305,
      "ryan": 306,
      "mond": 307,
      "ton": 308,
      "rizal": 309,
      "puteri": 310,
      "oon": 311,
      "ct": 312,
      "khai": 313,
      "nab": 314,
      "ste": 315,
      "ven": 316,
      "steven": 317,
      "ther": 318,
      "james": 319,
      "dan": 320,
      "yah": 321,
      "ron": 322,
      "kelvin": 323,
      "kri": 324,
      "win": 325,
      "sarah": 326,
      "noraini": 327,
      "sara": 328,
      "syam": 329,
      "azwan": 330,
      "ete": 331,
      "pete": 332,
      "kamal": 333,
      "peter": 334,
      "ung": 335,
      "ran": 336,
      "tri": 337,
      "ril": 338,
      "aisyah": 339,
      "dz": 340,
      "idah": 341,
      "kh": 342,
      "yana": 343,
      "id": 344,
      "udin": 345,
      "my": 346,
      "alice": 347,
      "micha": 348,
      "michael": 349,
      "eric": 350,
      "wen": 351,
      "ati": 352,
      "azhar": 353,
      "leong": 354,
      "rina": 355,
      "zat": 356,
      "ddin": 357,
      "uddin": 358,
      "sharifah": 359,
      "ap": 360,
      "nadi": 361,
      "cent": 362,
      "rose": 363,
      "vincent": 364,
      "sk": 365,
      "rosli": 366,
      "nas": 367,
      "ira": 368,
      "min": 369,
      "goh": 370,
      "azizah": 371,
      "cho": 372,
      "raz": 373,
      "lily": 374,
      "alan": 375,
      "abdullah": 376,
      "ag": 377,
      "faridah": 378,
      "war": 379,
      "low": 380,
      "ke": 381,
      "bal": 382,
      "sue": 383,
      "fah": 384,
      "jul": 385,
      "pa": 386,
      "anna": 387,
      "eh": 388,
      "rin": 389,
      "akmal": 390,
      "aishah": 391,
      "siah": 392,
      "roslan": 393,
      "aini": 394,
      "nori": 395,
      "um": 396,
      "liew": 397,
      "rohani": 398,
      "kenny": 399,
      "uar": 400,
      "anuar": 401,
      "jim": 402,
      "jimmy": 403,
      "fli": 404,
      "zulki": 405,
      "zulkifli": 406,
      "imi": 407,
      "chel": 408,
      "michel": 409,
      "michelle": 410,
      "azlan": 411,
      "nizam": 412,
      "dar": 413,
      "raf": 414,
      "aina": 415,
      "ho": 416,
      "ura": 417,
      "teng": 418,
      "hel": 419,
      "ayu": 420,
      "hazi": 421,
      "haziq": 422,
      "annie": 423,
      "iren": 424,
      "irene": 425,
      "aidah": 426,
      "ooi": 427,
      "fan": 428,
      "irfan": 429,
      "rahman": 430,
      "nazri": 431,
      "ibrahim": 432,
      "ling": 433,
      "jef": 434,
      "hida": 435,
      "kelly": 436,
      "hidayah": 437,
      "liam": 438,
      "william": 439,
      "ken": 440,
      "maria": 441,
      "diana": 442,
      "pak": 443,
      "lu": 444,
      "zack": 445,
      "wei": 446,
      "nana": 447,
      "jamal": 448,
      "azlina": 449,
      "of": 450,
      "danial": 451,
      "rohana": 452,
      "rozi": 453,
      "nadia": 454,
      "kak": 455,
      "chai": 456,
      "naj": 457,
      "zainal": 458,
      "putri": 459,
      "zah": 460,
      "imah": 461,
      "sab": 462,
      "haz": 463,
      "ko": 464,
      "danny": 465,
      "norhayati": 466,
      "mary": 467,
      "yee": 468,
      "ep": 469,
      "ye": 470,
      "simon": 471,
      "suhaimi": 472,
      "em": 473,
      "iq": 474,
      "iao": 475,
      "roy": 476,
      "lau": 477,
      "fauziah": 478,
      "nasir": 479,
      "dra": 480,
      "faris": 481,
      "dil": 482,
      "aidil": 483,
      "nick": 484,
      "chew": 485,
      "yati": 486,
      "iman": 487,
      "halim": 488,
      "dr": 489,
      "andr": 490,
      "andrew": 491,
      "bung": 492,
      "bunga": 493,
      "ymond": 494,
      "raymond": 495,
      "farid": 496,
      "ry": 497,
      "haik": 498,
      "haikal": 499,
      "mazlan": 500,
      "wati": 501,
      "va": 502,
      "zan": 503,
      "siva": 504,
      "jan": 505,
      "elain": 506,
      "elaine": 507,
      "farhan": 508,
      "gra": 509,
      "hamidah": 510,
      "grace": 511,
      "loh": 512,
      "winnie": 513,
      "wendy": 514,
      "teh": 515,
      "are": 516,
      "hen": 517,
      "ivy": 518,
      "irle": 519,
      "shirle": 520,
      "shirley": 521,
      "cahaya": 522,
      "kumar": 523,
      "kiah": 524,
      "syazwan": 525,
      "zamri": 526,
      "tony": 527,
      "mai": 528,
      "angel": 529,
      "jeff": 530,
      "xi": 531,
      "moham": 532,
      "mohamed": 533,
      "chua": 534,
      "tina": 535,
      "sharon": 536,
      "bo": 537,
      "sri": 538,
      "boy": 539,
      "ariff": 540,
      "azrul": 541,
      "kevin": 542,
      "cin": 543,
      "cindy": 544,
      "amira": 545,
      "ben": 546,
      "hong": 547,
      "mawar": 548,
      "chee": 549,
      "jacky": 550,
      "danish": 551,
      "umi": 552,
      "vian": 553,
      "vivian": 554,
      "ramli": 555,
      "yin": 556,
      "ammar": 557,
      "ey": 558,
      "rd": 559,
      "richa": 560,
      "tengku": 561,
      "richard": 562,
      "chen": 563,
      "rash": 564,
      "mei": 565,
      "karen": 566,
      "sep": 567,
      "imran": 568,
      "josep": 569,
      "joseph": 570,
      "ria": 571,
      "zaka": 572,
      "zakaria": 573,
      "zu": 574,
      "jamilah": 575,
      "qman": 576,
      "joey": 577,
      "luqman": 578,
      "sally": 579,
      "shafiq": 580,
      "von": 581,
      "fadz": 582,
      "raj": 583,
      "aliff": 584,
      "las": 585,
      "nicho": 586,
      "fitri": 587,
      "yusof": 588,
      "nicholas": 589,
      "ine": 590,
      "cather": 591,
      "catherine": 592,
      "ummi": 593,
      "mimi": 594,
      "zarina": 595,
      "kong": 596,
      "mark": 597,
      "jane": 598,
      "yang": 599,
      "dayang": 600,
      "siew": 601,
      "bryan": 602,
      "jay": 603,
      "hasnah": 604,
      "awan": 605,
      "suria": 606,
      "awang": 607,
      "asy": 608,
      "asyraf": 609,
      "mira": 610,
      "zaidi": 611,
      "salmah": 612,
      "eddy": 613,
      "at": 614,
      "esther": 615,
      "aq": 616,
      "omas": 617,
      "ukri": 618,
      "thomas": 619,
      "ari": 620,
      "nes": 621,
      "putera": 622,
      "agnes": 623,
      "marul": 624,
      "tee": 625,
      "kamarul": 626,
      "angah": 627,
      "chia": 628,
      "ces": 629,
      "kah": 630,
      "prin": 631,
      "joann": 632,
      "cess": 633,
      "princess": 634,
      "joanne": 635,
      "lisa": 636,
      "henry": 637,
      "zainab": 638,
      "tang": 639,
      "kan": 640,
      "iskan": 641,
      "iskandar": 642,
      "ikin": 643,
      "me": 644,
      "hanis": 645,
      "chang": 646,
      "omar": 647,
      "jes": 648,
      "sica": 649,
      "jessica": 650,
      "zana": 651,
      "alia": 652,
      "razali": 653,
      "hu": 654,
      "hui": 655,
      "cheng": 656,
      "ivan": 657,
      "san": 658,
      "hassan": 659,
      "suresh": 660,
      "fer": 661,
      "jen": 662,
      "nifer": 663,
      "jennifer": 664,
      "sim": 665,
      "ting": 666,
      "norizan": 667,
      "hah": 668,
      "teoh": 669,
      "sky": 670,
      "ber": 671,
      "alber": 672,
      "albert": 673,
      "qas": 674,
      "zaiton": 675,
      "qaseh": 676,
      "afi": 677,
      "ji": 678,
      "ay": 679,
      "mia": 680,
      "izzat": 681,
      "anita": 682,
      "adib": 683,
      "calvin": 684,
      "rozita": 685,
      "tine": 686,
      "christine": 687,
      "mur": 688,
      "xiao": 689,
      "julia": 690,
      "sus": 691,
      "fahmi": 692,
      "susan": 693,
      "heng": 694,
      "abe": 695,
      "iwan": 696,
      "dh": 697,
      "koh": 698,
      "hafizah": 699,
      "wawa": 700,
      "paul": 701,
      "co": 702,
      "azli": 703,
      "nico": 704,
      "trick": 705,
      "patrick": 706,
      "nicole": 707,
      "jia": 708,
      "kok": 709,
      "helen": 710,
      "gu": 711,
      "christina": 712,
      "iana": 713,
      "juliana": 714,
      "yi": 715,
      "khair": 716,
      "amran": 717,
      "zaini": 718,
      "fong": 719,
      "yusri": 720,
      "sulaiman": 721,
      "hairul": 722,
      "ridz": 723,
      "ridzuan": 724,
      "hakim": 725,
      "normah": 726,
      "azri": 727,
      "ramesh": 728,
      "emma": 729,
      "emi": 730,
      "emily": 731,
      "teo": 732,
      "ju": 733,
      "azam": 734,
      "azura": 735,
      "salina": 736,
      "nisa": 737,
      "aa": 738,
      "pok": 739,
      "aaron": 740,
      "des": 741,
      "desmond": 742,
      "mak": 743,
      "wilson": 744,
      "hanif": 745,
      "fair": 746,
      "aya": 747,
      "kent": 748,
      "suraya": 749,
      "bad": 750,
      "badrul": 751,
      "mun": 752,
      "shahril": 753,
      "khoo": 754,
      "fen": 755,
      "jah": 756,
      "kin": 757,
      "nabila": 758,
      "wai": 759,
      "irwan": 760,
      "kamar": 761,
      "agus": 762,
      "foo": 763,
      "rosnah": 764,
      "nan": 765,
      "adnan": 766,
      "azie": 767,
      "choo": 768,
      "ady": 769,
      "yce": 770,
      "joyce": 771,
      "jackson": 772,
      "farhana": 773,
      "amirah": 774,
      "alya": 775,
      "ravi": 776,
      "roslina": 777,
      "azizi": 778,
      "asiah": 779,
      "suhaila": 780,
      "qis": 781,
      "pang": 782,
      "tau": 783,
      "nai": 784,
      "ming": 785,
      "naim": 786,
      "kc": 787,
      "asri": 788,
      "it": 789,
      "yen": 790,
      "nurin": 791,
      "loo": 792,
      "cheong": 793,
      "ramlah": 794,
      "shamsul": 795,
      "soon": 796,
      "rohaya": 797,
      "hi": 798,
      "fara": 799,
      "mariam": 800,
      "ne": 801,
      "yvon": 802,
      "puan": 803,
      "yvonne": 804,
      "laila": 805,
      "iqbal": 806,
      "oth": 807,
      "xii": 808,
      "othman": 809,
      "mhd": 810,
      "rahmat": 811,
      "tura": 812,
      "mastura": 813,
      "nordin": 814,
      "con": 815,
      "connie": 816,
      "tul": 817,
      "faisal": 818,
      "eha": 819,
      "zaleha": 820,
      "dew": 821,
      "rokiah": 822,
      "dewi": 823,
      "jani": 824,
      "aminah": 825,
      "janice": 826,
      "haris": 827,
      "amar": 828,
      "johari": 829,
      "june": 830,
      "wak": 831,
      "liyana": 832,
      "hasan": 833,
      "rashid": 834,
      "hali": 835,
      "sabari": 836,
      "halimah": 837,
      "sabariah": 838,
      "hab": 839,
      "syafiqah": 840,
      "tuan": 841,
      "wani": 842,
      "bang": 843,
      "fikri": 844,
      "nabil": 845,
      "rahimah": 846,
      "najwa": 847,
      "norliza": 848,
      "helmi": 849,
      "suzana": 850,
      "cheah": 851,
      "azizul": 852,
      "encik": 853,
      "mamat": 854,
      "tay": 855,
      "ple": 856,
      "azim": 857,
      "atikah": 858,
      "apple": 859,
      "hmd": 860,
      "mhmd": 861,
      "ayie": 862,
      "lo": 863,
      "nn": 864,
      "ve": 865,
      "anas": 866,
      "lynn": 867,
      "sabri": 868,
      "love": 869,
      "his": 870,
      "hisham": 871,
      "jai": 872,
      "hus": 873,
      "husna": 874,
      "iah": 875,
      "ika": 876,
      "jaya": 877,
      "lam": 878,
      "ima": 879,
      "shima": 880,
      "gat": 881,
      "megat": 882,
      "faizul": 883,
      "aung": 884,
      "hamdan": 885,
      "nazrul": 886,
      "isha": 887,
      "rad": 888,
      "ishak": 889,
      "hamzah": 890,
      "alias": 891,
      "soo": 892,
      "seng": 893,
      "maznah": 894,
      "aman": 895,
      "anwar": 896,
      "zaki": 897,
      "uha": 898,
      "uhada": 899,
      "ren": 900,
      "wee": 901,
      "darren": 902,
      "hadi": 903,
      "kamari": 904,
      "kamariah": 905,
      "yeoh": 906,
      "ba": 907,
      "hash": 908,
      "hashim": 909,
      "bee": 910,
      "mus": 911,
      "tha": 912,
      "syaz": 913,
      "izan": 914,
      "asmah": 915,
      "ying": 916,
      "chik": 917,
      "samsul": 918,
      "indra": 919,
      "zalina": 920,
      "law": 921,
      "khairil": 922,
      "shikin": 923,
      "ummu": 924,
      "rimah": 925,
      "sarimah": 926,
      "zura": 927,
      "long": 928,
      "faizah": 929,
      "sudin": 930,
      "azizan": 931,
      "nani": 932,
      "umar": 933,
      "rosnani": 934,
      "khor": 935,
      "tok": 936,
      "izwan": 937,
      "syahmi": 938,
      "qah": 939,
      "harith": 940,
      "atiqah": 941,
      "hwan": 942,
      "tun": 943,
      "chow": 944,
      "ikhwan": 945,
      "hayu": 946,
      "ash": 947,
      "kya": 948,
      "razak": 949,
      "ashraf": 950,
      "kyaw": 951,
      "ching": 952,
      "afif": 953,
      "aw": 954,
      "asma": 955,
      "awie": 956,
      "boon": 957,
      "kang": 958,
      "amer": 959,
      "suhana": 960,
      "harun": 961,
      "aizat": 962,
      "izz": 963,
      "wah": 964,
      "fae": 965,
      "jue": 966,
      "chung": 967,
      "van": 968,
      "fad": 969,
      "mizi": 970,
      "shan": 971,
      "saravan": 972,
      "ehh": 973,
      "saravanan": 974,
      "zuan": 975,
      "ks": 976,
      "idris": 977,
      "fiza": 978,
      "mohan": 979,
      "nabilah": 980,
      "uz": 981,
      "rafi": 982,
      "ikmal": 983,
      "zuraidah": 984,
      "fairuz": 985,
      "rafidah": 986,
      "haslina": 987,
      "bro": 988,
      "bala": 989,
      "fie": 990,
      "ilham": 991,
      "shukri": 992,
      "tifah": 993,
      "latifah": 994,
      "oke": 995,
      "khairi": 996,
      "ol": 997,
      "haji": 998,
      "aqil": 999,
      "ath": 1000,
      "yatie": 1001,
      "athirah": 1002,
      "leh": 1003,
      "salleh": 1004,
      "fatihah": 1005,
      "dinesh": 1006,
      "mimie": 1007,
      "syahirah": 1008,
      "nasrul": 1009,
      "mali": 1010,
      "jamali": 1011,
      "junaidah": 1012,
      "jamaliah": 1013,
      "harah": 1014,
      "zaharah": 1015,
      "kal": 1016,
      "pra": 1017,
      "kash": 1018,
      "kalai": 1019,
      "prakash": 1020,
      "poh": 1021,
      "xin": 1022,
      "zati": 1023,
      "izzati": 1024,
      "afiqah": 1025,
      "pr": 1026,
      "prem": 1027,
      "sidah": 1028,
      "sharul": 1029,
      "yew": 1030,
      "iani": 1031,
      "suriani": 1032,
      "wanie": 1033,
      "see": 1034,
      "norli": 1035,
      "kee": 1036,
      "guna": 1037,
      "syahrul": 1038,
      "khadi": 1039,
      "khadijah": 1040,
      "asrul": 1041,
      "haki": 1042,
      "hakimi": 1043,
      "fakh": 1044,
      "ainul": 1045,
      "choong": 1046,
      "fakhrul": 1047,
      "pei": 1048,
      "zakiah": 1049,
      "umie": 1050,
      "nurain": 1051,
      "iful": 1052,
      "shaiful": 1053,
      "bia": 1054,
      "mawati": 1055,
      "rabia": 1056,
      "rosmawati": 1057,
      "saw": 1058,
      "noriah": 1059,
      "rabiatul": 1060,
      "zainuddin": 1061,
      "tong": 1062,
      "balqis": 1063,
      "murni": 1064,
      "izzah": 1065,
      "kamarudin": 1066,
      "munirah": 1067,
      "haslinda": 1068,
      "ibah": 1069,
      "habibah": 1070,
      "baidah": 1071,
      "zubaidah": 1072,
      "aqilah": 1073,
      "hazim": 1074,
      "yeo": 1075,
      "sin": 1076,
      "syukri": 1077,
      "ganesh": 1078,
      "hafizi": 1079,
      "hanafi": 1080,
      "fazli": 1081,
      "chandra": 1082,
      "zurina": 1083,
      "syazwani": 1084,
      "maisarah": 1085,
      "xiiao": 1086,
      "zuraida": 1087,
      "bong": 1088,
      "rahmah": 1089,
      "meng": 1090,
      "miera": 1091,
      "amri": 1092,
      "hisyam": 1093,
      "normal": 1094,
      "yanti": 1095,
      "normala": 1096,
      "indah": 1097,
      "zaw": 1098,
      "zainudin": 1099,
      "nu": 1100,
      "ibnu": 1101,
      "tam": 1102,
      "ugan": 1103,
      "nadiah": 1104,
      "murugan": 1105,
      "tamil": 1106,
      "biah": 1107,
      "toh": 1108,
      "salbiah": 1109,
      "fadzil": 1110,
      "zahari": 1111,
      "fendi": 1112,
      "soh": 1113,
      "tham": 1114,
      "rosni": 1115,
      "ekin": 1116,
      "nain": 1117,
      "zulkar": 1118,
      "raden": 1119,
      "zulkarnain": 1120,
      "ewan": 1121,
      "seri": 1122,
      "chun": 1123,
      "syarifah": 1124,
      "amal": 1125,
      "dam": 1126,
      "amalina": 1127,
      "damia": 1128,
      "sakin": 1129,
      "sakinah": 1130,
      "chit": 1131,
      "syuhada": 1132,
      "saadi": 1133,
      "saadiah": 1134,
      "fo": 1135,
      "chuah": 1136,
      "syamsul": 1137,
      "fendy": 1138,
      "foong": 1139,
      "bun": 1140,
      "saya": 1141,
      "esan": 1142,
      "zuraini": 1143,
      "ganesan": 1144,
      "bakar": 1145,
      "bunda": 1146,
      "azrin": 1147,
      "faz": 1148,
      "fazilah": 1149,
      "fik": 1150,
      "ieda": 1151,
      "taufik": 1152,
      "mahani": 1153,
      "yaz": 1154,
      "yazid": 1155,
      "ihah": 1156,
      "kman": 1157,
      "mok": 1158,
      "lukman": 1159,
      "najihah": 1160,
      "taufiq": 1161,
      "ea": 1162,
      "sof": 1163,
      "sofea": 1164,
      "cy": 1165,
      "zta": 1166,
      "mizta": 1167,
      "acik": 1168,
      "rosdi": 1169,
      "achik": 1170,
      "fariz": 1171,
      "munah": 1172,
      "zatul": 1173,
      "maimunah": 1174,
      "maizatul": 1175,
      "cikk": 1176,
      "rus": 1177,
      "rusli": 1178,
      "aikha": 1179,
      "kavi": 1180,
      "zulaikha": 1181,
      "kavitha": 1182,
      "rashidah": 1183,
      "azlin": 1184,
      "hafizul": 1185,
      "cikgu": 1186,
      "jiwa": 1187,
      "miah": 1188,
      "salmiah": 1189,
      "samsudin": 1190,
      "hariz": 1191,
      "keong": 1192,
      "dhia": 1193,
      "iri": 1194,
      "hairi": 1195,
      "ariffin": 1196,
      "nazrin": 1197,
      "apit": 1198,
      "aien": 1199,
      "shida": 1200,
      "red": 1201,
      "sor": 1202,
      "mansor": 1203,
      "redzuan": 1204,
      "haiq": 1205,
      "rosman": 1206,
      "haiqal": 1207,
      "sih": 1208,
      "kasih": 1209,
      "haja": 1210,
      "hazwan": 1211,
      "hajar": 1212,
      "syaza": 1213,
      "aidi": 1214,
      "syikin": 1215,
      "zie": 1216,
      "junaidi": 1217,
      "kamaruddin": 1218,
      "atan": 1219,
      "nazirah": 1220,
      "samsiah": 1221,
      "bat": 1222,
      "ebat": 1223,
      "ghaz": 1224,
      "jebat": 1225,
      "adie": 1226,
      "jamaludin": 1227,
      "fadzilah": 1228,
      "ghazali": 1229,
      "azuan": 1230,
      "kuan": 1231,
      "syahir": 1232,
      "mazlina": 1233,
      "pha": 1234,
      "muth": 1235,
      "aimi": 1236,
      "phang": 1237,
      "muthu": 1238,
      "mirul": 1239,
      "azimah": 1240,
      "eyka": 1241,
      "hanisah": 1242,
      "aisya": 1243,
      "watie": 1244,
      "alang": 1245,
      "aniq": 1246,
      "anisah": 1247,
      "effa": 1248,
      "zainon": 1249,
      "zhi": 1250,
      "rosliza": 1251,
      "hanim": 1252,
      "fauzan": 1253,
      "zue": 1254,
      "afifah": 1255,
      "wal": 1256,
      "tijah": 1257,
      "khatijah": 1258,
      "syawal": 1259,
      "lew": 1260,
      "norazlina": 1261,
      "nuraini": 1262,
      "norsiah": 1263,
      "jefri": 1264,
      "suriati": 1265,
      "leng": 1266,
      "najmi": 1267,
      "amat": 1268,
      "sukri": 1269,
      "qistina": 1270,
      "kir": 1271,
      "scha": 1272,
      "syakir": 1273,
      "evon": 1274,
      "atie": 1275,
      "norashikin": 1276,
      "rahayu": 1277,
      "hasrul": 1278,
      "hasmah": 1279,
      "rmizi": 1280,
      "haliza": 1281,
      "nurhidayah": 1282,
      "hasni": 1283,
      "tarmizi": 1284,
      "wahyu": 1285,
      "au": 1286,
      "sel": 1287,
      "vam": 1288,
      "auni": 1289,
      "selvam": 1290,
      "hil": 1291,
      "azira": 1292,
      "nata": 1293,
      "zulhil": 1294,
      "saras": 1295,
      "khairuddin": 1296,
      "natasya": 1297,
      "zulhilmi": 1298,
      "how": 1299,
      "zila": 1300,
      "putry": 1301,
      "fadzli": 1302,
      "meor": 1303,
      "ian": 1304,
      "azian": 1305,
      "miza": 1306,
      "yusoff": 1307,
      "fadilah": 1308,
      "marzu": 1309,
      "akma": 1310,
      "marzuki": 1311,
      "zali": 1312,
      "tiong": 1313,
      "hafis": 1314,
      "loke": 1315,
      "syaiful": 1316,
      "iera": 1317,
      "mazni": 1318,
      "bintan": 1319,
      "eyra": 1320,
      "faez": 1321,
      "bintang": 1322,
      "kef": 1323,
      "zulkef": 1324,
      "zulkefli": 1325,
      "eina": 1326,
      "jang": 1327,
      "ujang": 1328,
      "azhari": 1329,
      "shahira": 1330,
      "noriza": 1331,
      "syasya": 1332,
      "yc": 1333,
      "zarul": 1334,
      "epul": 1335,
      "bul": 1336,
      "mazi": 1337,
      "hasbul": 1338,
      "khairol": 1339,
      "maziah": 1340,
      "hasbullah": 1341,
      "mel": 1342,
      "nurhayati": 1343,
      "hasliza": 1344,
      "nazirul": 1345,
      "melati": 1346,
      "tah": 1347,
      "masi": 1348,
      "rohayu": 1349,
      "arifin": 1350,
      "masitah": 1351,
      "een": 1352,
      "iew": 1353,
      "reen": 1354,
      "azreen": 1355,
      "chiew": 1356,
      "choy": 1357,
      "faezah": 1358,
      "duan": 1359,
      "hoo": 1360,
      "riduan": 1361,
      "arief": 1362,
      "if": 1363,
      "razif": 1364,
      "ayah": 1365,
      "bayu": 1366,
      "gayah": 1367,
      "voon": 1368,
      "fadh": 1369,
      "rogayah": 1370,
      "shafie": 1371,
      "syamil": 1372,
      "roziah": 1373,
      "fairus": 1374,
      "fieza": 1375,
      "fadhil": 1376,
      "zaidah": 1377,
      "arju": 1378,
      "shamsiah": 1379,
      "farra": 1380,
      "yeap": 1381,
      "arjuna": 1382,
      "azila": 1383,
      "rosidah": 1384,
      "diyana": 1385,
      "unnisa": 1386,
      "myo": 1387,
      "khairunnisa": 1388,
      "saz": 1389,
      "woo": 1390,
      "apai": 1391,
      "fadli": 1392,
      "sazali": 1393,
      "aniza": 1394,
      "beh": 1395,
      "suhaida": 1396,
      "hock": 1397,
      "dzul": 1398,
      "saida": 1399,
      "saidatul": 1400,
      "hafizuddin": 1401,
      "apis": 1402,
      "syamimi": 1403,
      "norle": 1404,
      "zainol": 1405,
      "winson": 1406,
      "norlela": 1407,
      "norhidayah": 1408,
      "izzul": 1409,
      "eyda": 1410,
      "norlia": 1411,
      "sah": 1412,
      "nitha": 1413,
      "punitha": 1414,
      "ramlan": 1415,
      "rozie": 1416,
      "habsah": 1417,
      "azril": 1418,
      "choon": 1419,
      "dayah": 1420,
      "shahrizal": 1421,
      "engku": 1422,
      "kecik": 1423,
      "hendra": 1424,
      "riah": 1425,
      "zanariah": 1426,
      "yoke": 1427,
      "hamizan": 1428,
      "tini": 1429,
      "kartini": 1430,
      "yip": 1431,
      "aziah": 1432,
      "zainun": 1433,
      "woon": 1434,
      "mior": 1435,
      "zaitun": 1436,
      "shuhada": 1437,
      "eez": 1438,
      "fareez": 1439,
      "radzi": 1440,
      "ili": 1441,
      "amiruddin": 1442,
      "suhaili": 1443,
      "norlida": 1444,
      "haim": 1445,
      "muhaim": 1446,
      "shamsudin": 1447,
      "hazwani": 1448,
      "muhaimin": 1449,
      "bra": 1450,
      "mani": 1451,
      "nadh": 1452,
      "subra": 1453,
      "maniam": 1454,
      "nadhirah": 1455,
      "subramaniam": 1456,
      "aril": 1457,
      "azmie": 1458,
      "siow": 1459,
      "harudin": 1460,
      "idham": 1461,
      "baharudin": 1462,
      "azroy": 1463,
      "leow": 1464,
      "rasidah": 1465,
      "syahira": 1466,
      "hee": 1467,
      "rosmah": 1468,
      "iqmal": 1469,
      "pel": 1470,
      "angi": 1471,
      "izzuddin": 1472,
      "pelangi": 1473,
      "ela": 1474,
      "ziela": 1475,
      "adibah": 1476,
      "fuan": 1477,
      "safuan": 1478,
      "zaimah": 1479,
      "ien": 1480,
      "zairul": 1481,
      "koay": 1482,
      "iena": 1483,
      "hamiz": 1484,
      "hamizah": 1485,
      "norhafizah": 1486,
      "izham": 1487,
      "hew": 1488,
      "shahirah": 1489,
      "razman": 1490,
      "salasiah": 1491,
      "hooi": 1492,
      "eyna": 1493,
      "haida": 1494,
      "rohaida": 1495,
      "azwa": 1496,
      "ijan": 1497,
      "yie": 1498,
      "rizuan": 1499,
      "ahari": 1500,
      "ijam": 1501,
      "azahari": 1502
    },
    "merges": [
      "h a",
      "m a",
      "a n",
      "a h",
      "i n",
      "u l",
      "m o",
      "ma d",
      "h d",
      "u r",
      "r i",
      "m u",
      "a m",
      "mo hd",
      "n ur",
      "a l",
      "ha m",
      "n g",
      "a i",
      "a z",
      "i r",
      "n o",
      "ham mad",
      "t i",
      "c h",
      "l i",
      "s i",
      "r a",
      "mu hammad",
      "e n",
      "o ng",
      "f a",
      "r o",
      "m i",
      "n i",
      "m d",
      "d a",
      "s y",
      "a b",
      "no r",
      "si ti",
      "w an",
      "z a",
      "f i",
      "l e",
      "s ha",
      "ma n",
      "nur ul",
      "i l",
      "ha mad",
      "e l",
      "n a",
      "t an",
      "j a",
      "in a",
      "ah mad",
      "t e",
      "an i",
      "ir ul",
      "mu hd",
      "r ah",
      "al i",
      "y a",
      "ro s",
      "k a",
      "ab d",
      "o n",
      "o h",
      "s h",
      "k ha",
      "d i",
      "c k",
      "abd ul",
      "i m",
      "i z",
      "le e",
      "li m",
      "c ha",
      "an a",
      "r ul",
      "u s",
      "mo hamad",
      "i k",
      "sha h",
      "p u",
      "ma h",
      "z ul",
      "s a",
      "ma r",
      "s u",
      "z i",
      "f ai",
      "o r",
      "v in",
      "an g",
      "d in",
      "e s",
      "fi q",
      "ch e",
      "d ah",
      "a in",
      "w a",
      "d y",
      "mu hamad",
      "j o",
      "ma l",
      "am ir",
      "w ong",
      "i a",
      "l an",
      "z al",
      "v i",
      "kha irul",
      "no or",
      "o o",
      "l y",
      "ma t",
      "ha fi",
      "ri f",
      "e w",
      "sy a",
      "ri s",
      "i s",
      "a d",
      "n y",
      "t h",
      "d ani",
      "l in",
      "s al",
      "az iz",
      "ha s",
      "u n",
      "a s",
      "t in",
      "am irul",
      "za in",
      "c ik",
      "sy ah",
      "ha ni",
      "e d",
      "mo hammad",
      "pu t",
      "c e",
      "hafi z",
      "no ra",
      "ai man",
      "e e",
      "e r",
      "l ina",
      "ha ya",
      "ja ck",
      "s on",
      "k i",
      "t a",
      "s am",
      "ha na",
      "a k",
      "en ny",
      "ad am",
      "r am",
      "ch ong",
      "i da",
      "z am",
      "z ai",
      "cha n",
      "y an",
      "k u",
      "n az",
      "f ul",
      "j oh",
      "joh n",
      "da us",
      "k el",
      "ni e",
      "ma s",
      "l a",
      "mo n",
      "a rif",
      "i e",
      "e x",
      "al ex",
      "fa ri",
      "j am",
      "ch in",
      "s ur",
      "fa rah",
      "c a",
      "jo e",
      "ali f",
      "y u",
      "ai ful",
      "o w",
      "a r",
      "il ah",
      "a di",
      "f ir",
      "pu te",
      "fir daus",
      "ni k",
      "put ra",
      "ch ris",
      "e i",
      "fa u",
      "li za",
      "ma z",
      "fa tin",
      "u an",
      "az man",
      "ma il",
      "is mail",
      "fa ti",
      "s aiful",
      "ma ri",
      "ani s",
      "o k",
      "n ah",
      "l ah",
      "fai zal",
      "s ham",
      "sya fiq",
      "am y",
      "e ng",
      "il a",
      "e sh",
      "y us",
      "da vi",
      "davi d",
      "fai z",
      "fau zi",
      "ha r",
      "en t",
      "dani el",
      "su ha",
      "a fiq",
      "s ul",
      "am in",
      "j un",
      "l ai",
      "ha ri",
      "ab u",
      "in tan",
      "mi e",
      "ch u",
      "fa r",
      "rah im",
      "ra ja",
      "haya ti",
      "al vin",
      "ha n",
      "y ong",
      "z ur",
      "ma y",
      "e f",
      "ai da",
      "ya p",
      "ja son",
      "i b",
      "fati mah",
      "g an",
      "k im",
      "ir ah",
      "w il",
      "shah rul",
      "j enny",
      "lin da",
      "e ri",
      "nora in",
      "rif ah",
      "az mi",
      "sy ed",
      "an dy",
      "an n",
      "i v",
      "ka r",
      "r yan",
      "mon d",
      "t on",
      "ri zal",
      "pute ri",
      "o on",
      "c t",
      "kha i",
      "n ab",
      "s te",
      "v en",
      "ste ven",
      "th er",
      "jam es",
      "d an",
      "y ah",
      "ro n",
      "kel vin",
      "k ri",
      "w in",
      "sa rah",
      "norain i",
      "sa ra",
      "sy am",
      "az wan",
      "e te",
      "p ete",
      "ka mal",
      "pete r",
      "u ng",
      "r an",
      "t ri",
      "ri l",
      "ai syah",
      "d z",
      "i dah",
      "k h",
      "y ana",
      "i d",
      "u din",
      "m y",
      "ali ce",
      "mi cha",
      "micha el",
      "eri c",
      "w en",
      "a ti",
      "az har",
      "le ong",
      "r ina",
      "za t",
      "d din",
      "u ddin",
      "sha rifah",
      "a p",
      "na di",
      "c ent",
      "ros e",
      "vin cent",
      "s k",
      "ros li",
      "na s",
      "ir a",
      "m in",
      "g oh",
      "aziz ah",
      "ch o",
      "r az",
      "li ly",
      "al an",
      "abdul lah",
      "a g",
      "fari dah",
      "wa r",
      "l ow",
      "k e",
      "b al",
      "su e",
      "f ah",
      "j ul",
      "p a",
      "an na",
      "e h",
      "r in",
      "ak mal",
      "ai shah",
      "si ah",
      "ros lan",
      "ain i",
      "no ri",
      "u m",
      "li ew",
      "ro hani",
      "k enny",
      "u ar",
      "an uar",
      "j im",
      "jim my",
      "f li",
      "zul ki",
      "zulki fli",
      "i mi",
      "ch el",
      "mi chel",
      "michel le",
      "az lan",
      "ni zam",
      "da r",
      "ra f",
      "a ina",
      "h o",
      "ur a",
      "te ng",
      "h el",
      "a yu",
      "ha zi",
      "hazi q",
      "an nie",
      "ir en",
      "iren e",
      "ai dah",
      "oo i",
      "f an",
      "ir fan",
      "rah man",
      "naz ri",
      "ib rahim",
      "lin g",
      "j ef",
      "h ida",
      "kel ly",
      "hida yah",
      "li am",
      "wil liam",
      "k en",
      "mari a",
      "di ana",
      "p ak",
      "l u",
      "za ck",
      "w ei",
      "n ana",
      "ja mal",
      "az lina",
      "o f",
      "dani al",
      "ro hana",
      "ro zi",
      "nadi a",
      "ka k",
      "cha i",
      "na j",
      "zain al",
      "put ri",
      "z ah",
      "i mah",
      "s ab",
      "ha z",
      "k o",
      "dan ny",
      "nor hayati",
      "mar y",
      "y ee",
      "e p",
      "y e",
      "si mon",
      "suha imi",
      "e m",
      "i q",
      "ia o",
      "ro y",
      "la u",
      "fauzi ah",
      "nas ir",
      "d ra",
      "fa ris",
      "d il",
      "ai dil",
      "ni ck",
      "che w",
      "ya ti",
      "i man",
      "ha lim",
      "d r",
      "an dr",
      "andr ew",
      "b ung",
      "bung a",
      "y mond",
      "ra ymond",
      "fari d",
      "r y",
      "ha ik",
      "haik al",
      "maz lan",
      "wa ti",
      "v a",
      "z an",
      "si va",
      "j an",
      "el ain",
      "elain e",
      "far han",
      "g ra",
      "ham idah",
      "gra ce",
      "l oh",
      "win nie",
      "wen dy",
      "te h",
      "ar e",
      "h en",
      "iv y",
      "ir le",
      "sh irle",
      "shirle y",
      "ca haya",
      "ku mar",
      "ki ah",
      "sy azwan",
      "zam ri",
      "ton y",
      "ma i",
      "ang el",
      "jef f",
      "x i",
      "mo ham",
      "moham ed",
      "chu a",
      "t ina",
      "sha ron",
      "b o",
      "s ri",
      "bo y",
      "arif f",
      "az rul",
      "ke vin",
      "c in",
      "cin dy",
      "amir a",
      "b en",
      "h ong",
      "ma war",
      "che e",
      "jack y",
      "dani sh",
      "u mi",
      "vi an",
      "vi vian",
      "ram li",
      "y in",
      "am mar",
      "e y",
      "r d",
      "ri cha",
      "teng ku",
      "richa rd",
      "ch en",
      "ra sh",
      "m ei",
      "kar en",
      "s ep",
      "im ran",
      "jo sep",
      "josep h",
      "ri a",
      "za ka",
      "zaka ria",
      "z u",
      "jam ilah",
      "q man",
      "joe y",
      "lu qman",
      "sal ly",
      "sha fiq",
      "v on",
      "fa dz",
      "ra j",
      "alif f",
      "l as",
      "ni cho",
      "fi tri",
      "yus of",
      "nicho las",
      "in e",
      "ca ther",
      "cather ine",
      "um mi",
      "mi mi",
      "za rina",
      "k ong",
      "mar k",
      "jan e",
      "y ang",
      "da yang",
      "si ew",
      "b ryan",
      "ja y",
      "has nah",
      "a wan",
      "sur ia",
      "awan g",
      "a sy",
      "asy raf",
      "m ira",
      "zai di",
      "sal mah",
      "ed dy",
      "a t",
      "es ther",
      "a q",
      "o mas",
      "u kri",
      "th omas",
      "a ri",
      "n es",
      "pute ra",
      "ag nes",
      "ma rul",
      "te e",
      "ka marul",
      "ang ah",
      "ch ia",
      "c es",
      "k ah",
      "p rin",
      "jo ann",
      "ces s",
      "prin cess",
      "joann e",
      "li sa",
      "hen ry",
      "zain ab",
      "tan g",
      "k an",
      "is kan",
      "iskan dar",
      "ik in",
      "m e",
      "hani s",
      "cha ng",
      "o mar",
      "j es",
      "si ca",
      "jes sica",
      "z ana",
      "ali a",
      "raz ali",
      "h u",
      "hu i",
      "che ng",
      "iv an",
      "s an",
      "has san",
      "sur esh",
      "f er",
      "j en",
      "ni fer",
      "jen nifer",
      "si m",
      "tin g",
      "nori zan",
      "ha h",
      "te oh",
      "sk y",
      "b er",
      "al ber",
      "alber t",
      "q as",
      "zai ton",
      "qas eh",
      "a fi",
      "j i",
      "a y",
      "mi a",
      "iz zat",
      "ani ta",
      "adi b",
      "c alvin",
      "rozi ta",
      "tin e",
      "chris tine",
      "m ur",
      "x iao",
      "jul ia",
      "s us",
      "fah mi",
      "sus an",
      "h eng",
      "ab e",
      "i wan",
      "d h",
      "k oh",
      "hafiz ah",
      "wa wa",
      "pa ul",
      "c o",
      "az li",
      "ni co",
      "tri ck",
      "pa trick",
      "nico le",
      "j ia",
      "k ok",
      "hel en",
      "g u",
      "chris tina",
      "i ana",
      "jul iana",
      "y i",
      "kha ir",
      "am ran",
      "zain i",
      "f ong",
      "yus ri",
      "sul aiman",
      "ha irul",
      "ri dz",
      "ridz uan",
      "ha kim",
      "nor mah",
      "az ri",
      "ram esh",
      "em ma",
      "e mi",
      "emi ly",
      "te o",
      "j u",
      "az am",
      "az ura",
      "sal ina",
      "ni sa",
      "a a",
      "p ok",
      "aa ron",
      "d es",
      "des mond",
      "ma k",
      "wil son",
      "hani f",
      "fai r",
      "a ya",
      "k ent",
      "sur aya",
      "b ad",
      "bad rul",
      "mu n",
      "shah ril",
      "kh oo",
      "f en",
      "j ah",
      "k in",
      "nab ila",
      "w ai",
      "ir wan",
      "ka mar",
      "ag us",
      "f oo",
      "ros nah",
      "n an",
      "ad nan",
      "az ie",
      "ch oo",
      "a dy",
      "y ce",
      "jo yce",
      "jack son",
      "far hana",
      "amir ah",
      "al ya",
      "ra vi",
      "ros lina",
      "aziz i",
      "a siah",
      "suha ila",
      "q is",
      "p ang",
      "ta u",
      "n ai",
      "min g",
      "nai m",
      "k c",
      "as ri",
      "i t",
      "y en",
      "nur in",
      "l oo",
      "che ong",
      "ram lah",
      "sham sul",
      "s oon",
      "ro haya",
      "h i",
      "fa ra",
      "mari am",
      "n e",
      "y von",
      "pu an",
      "yvon ne",
      "lai la",
      "iq bal",
      "o th",
      "xi i",
      "oth man",
      "m hd",
      "rah mat",
      "t ura",
      "mas tura",
      "nor din",
      "c on",
      "con nie",
      "t ul",
      "fai sal",
      "e ha",
      "zal eha",
      "d ew",
      "ro kiah",
      "dew i",
      "j ani",
      "amin ah",
      "jani ce",
      "ha ris",
      "a mar",
      "jo hari",
      "jun e",
      "wa k",
      "li yana",
      "has an",
      "rash id",
      "ha li",
      "sab ari",
      "hali mah",
      "sabari ah",
      "ha b",
      "syafiq ah",
      "t uan",
      "wan i",
      "b ang",
      "fi kri",
      "nab il",
      "rah imah",
      "naj wa",
      "nor liza",
      "hel mi",
      "su zana",
      "che ah",
      "aziz ul",
      "en cik",
      "ma mat",
      "ta y",
      "p le",
      "az im",
      "ati kah",
      "ap ple",
      "h md",
      "m hmd",
      "ay ie",
      "l o",
      "n n",
      "v e",
      "ana s",
      "ly nn",
      "sab ri",
      "lo ve",
      "h is",
      "his ham",
      "j ai",
      "h us",
      "hus na",
      "i ah",
      "i ka",
      "ja ya",
      "l am",
      "i ma",
      "sh ima",
      "g at",
      "me gat",
      "fai zul",
      "a ung",
      "ham dan",
      "naz rul",
      "i sha",
      "ra d",
      "isha k",
      "ham zah",
      "ali as",
      "s oo",
      "s eng",
      "maz nah",
      "a man",
      "an war",
      "za ki",
      "u ha",
      "uha da",
      "r en",
      "w ee",
      "dar ren",
      "ha di",
      "ka mari",
      "kamari ah",
      "ye oh",
      "b a",
      "ha sh",
      "hash im",
      "b ee",
      "mu s",
      "t ha",
      "sy az",
      "iz an",
      "as mah",
      "yin g",
      "ch ik",
      "sam sul",
      "in dra",
      "zal ina",
      "la w",
      "khai ril",
      "sh ikin",
      "um mu",
      "ri mah",
      "sa rimah",
      "zur a",
      "l ong",
      "faiz ah",
      "su din",
      "aziz an",
      "n ani",
      "u mar",
      "ros nani",
      "kh or",
      "t ok",
      "iz wan",
      "syah mi",
      "q ah",
      "hari th",
      "ati qah",
      "h wan",
      "t un",
      "ch ow",
      "ik hwan",
      "ha yu",
      "a sh",
      "k ya",
      "raz ak",
      "ash raf",
      "kya w",
      "chin g",
      "afi f",
      "a w",
      "as ma",
      "aw ie",
      "b oon",
      "k ang",
      "am er",
      "su hana",
      "har un",
      "ai zat",
      "iz z",
      "w ah",
      "fa e",
      "ju e",
      "chu ng",
      "v an",
      "fa d",
      "mi zi",
      "sha n",
      "sara van",
      "eh h",
      "saravan an",
      "z uan",
      "k s",
      "id ris",
      "fi za",
      "mo han",
      "nab ilah",
      "u z",
      "ra fi",
      "ik mal",
      "zur aidah",
      "fair uz",
      "rafi dah",
      "has lina",
      "b ro",
      "bal a",
      "fi e",
      "il ham",
      "sh ukri",
      "ti fah",
      "la tifah",
      "ok e",
      "khai ri",
      "o l",
      "ha ji",
      "aq il",
      "a th",
      "yati e",
      "ath irah",
      "le h",
      "sal leh",
      "fati hah",
      "din esh",
      "mi mie",
      "syah irah",
      "nas rul",
      "ma li",
      "ja mali",
      "jun aidah",
      "jamali ah",
      "ha rah",
      "za harah",
      "k al",
      "p ra",
      "ka sh",
      "kal ai",
      "pra kash",
      "p oh",
      "x in",
      "za ti",
      "iz zati",
      "afiq ah",
      "p r",
      "pr em",
      "si dah",
      "sha rul",
      "y ew",
      "i ani",
      "sur iani",
      "wan ie",
      "s ee",
      "nor li",
      "k ee",
      "gu na",
      "syah rul",
      "kha di",
      "khadi jah",
      "as rul",
      "ha ki",
      "haki mi",
      "fa kh",
      "ain ul",
      "cho ong",
      "fakh rul",
      "p ei",
      "za kiah",
      "u mie",
      "nur ain",
      "i ful",
      "sha iful",
      "b ia",
      "ma wati",
      "ra bia",
      "ros mawati",
      "sa w",
      "nori ah",
      "rabia tul",
      "zain uddin",
      "t ong",
      "bal qis",
      "mur ni",
      "iz zah",
      "kamar udin",
      "mun irah",
      "has linda",
      "ib ah",
      "hab ibah",
      "b aidah",
      "zu baidah",
      "aq ilah",
      "haz im",
      "ye o",
      "s in",
      "sy ukri",
      "gan esh",
      "hafi zi",
      "hana fi",
      "f azli",
      "chan dra",
      "zur ina",
      "syazwan i",
      "mai sarah",
      "xi iao",
      "zur aida",
      "b ong",
      "rah mah",
      "m eng",
      "mie ra",
      "am ri",
      "hi syam",
      "nor mal",
      "yan ti",
      "normal a",
      "in dah",
      "za w",
      "zain udin",
      "n u",
      "ib nu",
      "t am",
      "u gan",
      "nadi ah",
      "mur ugan",
      "tam il",
      "b iah",
      "t oh",
      "sal biah",
      "fadz il",
      "za hari",
      "fen di",
      "s oh",
      "t ham",
      "ros ni",
      "e kin",
      "na in",
      "zul kar",
      "rad en",
      "zulkar nain",
      "e wan",
      "s eri",
      "ch un",
      "sya rifah",
      "a mal",
      "d am",
      "amal ina",
      "dam ia",
      "sa kin",
      "sakin ah",
      "ch it",
      "sy uhada",
      "sa adi",
      "saadi ah",
      "f o",
      "chu ah",
      "syam sul",
      "fen dy",
      "fo ong",
      "b un",
      "sa ya",
      "es an",
      "zur aini",
      "gan esan",
      "ba kar",
      "bun da",
      "az rin",
      "f az",
      "faz ilah",
      "fi k",
      "ie da",
      "tau fik",
      "ma hani",
      "y az",
      "yaz id",
      "i hah",
      "k man",
      "mo k",
      "lu kman",
      "naj ihah",
      "tau fiq",
      "e a",
      "s of",
      "sof ea",
      "c y",
      "z ta",
      "mi zta",
      "a cik",
      "ros di",
      "a chik",
      "fari z",
      "mu nah",
      "zat ul",
      "mai munah",
      "mai zatul",
      "cik k",
      "r us",
      "rus li",
      "ai kha",
      "ka vi",
      "zul aikha",
      "kavi tha",
      "rash idah",
      "az lin",
      "hafi zul",
      "cik gu",
      "ji wa",
      "mi ah",
      "sal miah",
      "sam sudin",
      "hari z",
      "ke ong",
      "dh ia",
      "i ri",
      "ha iri",
      "ariff in",
      "naz rin",
      "ap it",
      "ai en",
      "sh ida",
      "r ed",
      "s or",
      "man sor",
      "red zuan",
      "ha iq",
      "ros man",
      "haiq al",
      "si h",
      "ka sih",
      "ha ja",
      "haz wan",
      "haja r",
      "syaz a",
      "ai di",
      "sy ikin",
      "zi e",
      "jun aidi",
      "kamar uddin",
      "a tan",
      "naz irah",
      "sam siah",
      "b at",
      "e bat",
      "g haz",
      "j ebat",
      "adi e",
      "jamal udin",
      "fadz ilah",
      "ghaz ali",
      "az uan",
      "ku an",
      "syah ir",
      "maz lina",
      "p ha",
      "mu th",
      "ai mi",
      "pha ng",
      "muth u",
      "m irul",
      "az imah",
      "ey ka",
      "hanis ah",
      "ai sya",
      "wati e",
      "al ang",
      "ani q",
      "anis ah",
      "ef fa",
      "zain on",
      "z hi",
      "ros liza",
      "hani m",
      "fau zan",
      "zu e",
      "afi fah",
      "w al",
      "ti jah",
      "kha tijah",
      "sya wal",
      "le w",
      "nor azlina",
      "nur aini",
      "nor siah",
      "jef ri",
      "suria ti",
      "le ng",
      "naj mi",
      "a mat",
      "su kri",
      "qis tina",
      "k ir",
      "s cha",
      "sya kir",
      "e von",
      "ati e",
      "nora shikin",
      "ra hayu",
      "has rul",
      "has mah",
      "r mizi",
      "ha liza",
      "nur hidayah",
      "has ni",
      "ta rmizi",
      "wah yu",
      "a u",
      "s el",
      "v am",
      "au ni",
      "sel vam",
      "h il",
      "az ira",
      "na ta",
      "zul hil",
      "sara s",
      "khair uddin",
      "nata sya",
      "zulhil mi",
      "h ow",
      "z ila",
      "put ry",
      "fadz li",
      "me or",
      "i an",
      "az ian",
      "mi za",
      "yusof f",
      "fad ilah",
      "mar zu",
      "ak ma",
      "marzu ki",
      "z ali",
      "ti ong",
      "hafi s",
      "l oke",
      "sy aiful",
      "ie ra",
      "maz ni",
      "b intan",
      "ey ra",
      "fae z",
      "bintan g",
      "k ef",
      "zul kef",
      "zulkef li",
      "e ina",
      "j ang",
      "u jang",
      "az hari",
      "shah ira",
      "nori za",
      "sya sya",
      "y c",
      "za rul",
      "ep ul",
      "b ul",
      "ma zi",
      "has bul",
      "khair ol",
      "mazi ah",
      "hasbul lah",
      "m el",
      "nur hayati",
      "has liza",
      "naz irul",
      "mel ati",
      "t ah",
      "ma si",
      "ro hayu",
      "arif in",
      "masi tah",
      "e en",
      "i ew",
      "r een",
      "az reen",
      "ch iew",
      "cho y",
      "fae zah",
      "d uan",
      "h oo",
      "ri duan",
      "ari ef",
      "i f",
      "raz if",
      "a yah",
      "b ayu",
      "g ayah",
      "v oon",
      "fa dh",
      "ro gayah",
      "sha fie",
      "syam il",
      "rozi ah",
      "fair us",
      "fie za",
      "fadh il",
      "zai dah",
      "ar ju",
      "sham siah",
      "far ra",
      "ye ap",
      "arju na",
      "az ila",
      "ro sidah",
      "di yana",
      "un nisa",
      "my o",
      "khair unnisa",
      "s az",
      "w oo",
      "ap ai",
      "fad li",
      "saz ali",
      "ani za",
      "b eh",
      "suha ida",
      "ho ck",
      "d zul",
      "s aida",
      "saida tul",
      "hafiz uddin",
      "ap is",
      "syam imi",
      "nor le",
      "zain ol",
      "win son",
      "norle la",
      "nor hidayah",
      "iz zul",
      "ey da",
      "norli a",
      "s ah",
      "ni tha",
      "pu nitha",
      "ram lan",
      "rozi e",
      "hab sah",
      "az ril",
      "ch oon",
      "da yah",
      "shah rizal",
      "eng ku",
      "ke cik",
      "hen dra",
      "ri ah",
      "zana riah",
      "y oke",
      "ham izan",
      "tin i",
      "kar tini",
      "yi p",
      "az iah",
      "zain un",
      "w oon",
      "mi or",
      "zai tun",
      "sh uhada",
      "ee z",
      "far eez",
      "rad zi",
      "i li",
      "amir uddin",
      "suha ili",
      "norli da",
      "ha im",
      "mu haim",
      "sham sudin",
      "haz wani",
      "muhaim in",
      "b ra",
      "ma ni",
      "na dh",
      "su bra",
      "mani am",
      "nadh irah",
      "subra maniam",
      "a ril",
      "az mie",
      "si ow",
      "har udin",
      "id ham",
      "ba harudin",
      "az roy",
      "le ow",
      "ra sidah",
      "syah ira",
      "h ee",
      "ros mah",
      "iq mal",
      "p el",
      "ang i",
      "izz uddin",
      "pel angi",
      "el a",
      "zi ela",
      "adib ah",
      "f uan",
      "sa fuan",
      "zai mah",
      "i en",
      "zai rul",
      "ko ay",
      "ien a",
      "ham iz",
      "hamiz ah",
      "nor hafizah",
      "iz ham",
      "h ew",
      "shah irah",
      "r azman",
      "sal asiah",
      "h ooi",
      "ey na",
      "ha ida",
      "ro haida",
      "az wa",
      "i jan",
      "y ie",
      "ri zuan",
      "a hari",
      "i jam",
      "az ahari"
    ]
  }
}