{
  "version": "1.0",
  "truncation": null,
  "padding": null,
  "added_tokens": [
    {
      "id": 0,
      "content": "[UNK]",
      "single_word": false,
      "lstrip": false,
      "rstrip": false,
      "normalized": false,
      "special": true
    },
    {
      "id": 1,
      "content": "[CLS]",
      "single_word": false,
      "lstrip": false,
      "rstrip": false,
      "normalized": false,
      "special": true
    },
    {
      "id": 2,
      "content": "[SEP]",
      "single_word": false,
      "lstrip": false,
      "rstrip": false,
      "normalized": false,
      "special": true
    },
    {
      "id": 3,
      "content": "[PAD]",
      "single_word": false,
      "lstrip": false,
      "rstrip": false,
      "normalized": false,
      "special": true
    },
    {
      "id": 4,
      "content": "[MASK]",
      "single_word": false,
      "lstrip": false,
      "rstrip": false,
      "normalized": false,
      "special": true
    }
  ],
  "normalizer": null,
  "pre_tokenizer": {
    "type": "Whitespace"
  },
  "post_processor": null,
  "decoder": null,
  "model": {
    "type": "BPE",
    "dropout": null,
    "unk_token": "[UNK]",
    "continuing_subword_prefix": null,
    "end_of_word_suffix": null,
    "fuse_unk": false,
    "vocab": {
      "[UNK]": 0,
      "[CLS]": 1,
      "[SEP]": 2,
      "[PAD]": 3,
      "[MASK]": 4,
      "-": 5,
      "a": 6,
      "b": 7,
      "c": 8,
      "d": 9,
      "e": 10,
      "f": 11,
      "g": 12,
      "h": 13,
      "i": 14,
      "j": 15,
      "k": 16,
      "l": 17,
      "m": 18,
      "n": 19,
      "o": 20,
      "p": 21,
      "q": 22,
      "r": 23,
      "s": 24,
      "t": 25,
      "u": 26,
      "v": 27,
      "x": 28,
      "y": 29,
      "z": 30,
      "an": 31,
      "ar": 32,
      "el": 33,
      "ia": 34,
      "mar": 35,
      "os": 36,
      "er": 37,
      "on": 38,
      "is": 39,
      "jos": 40,
      "jose": 41,
      "en": 42,
      "es": 43,
      "io": 44,
      "car": 45,
      "al": 46,
      "vi": 47,
      "maria": 48,
      "uel": 49,
      "ra": 50,
      "ju": 51,
      "in": 52,
      "or": 53,
      "ton": 54,
      "juan": 55,
      "and": 56,
      "avi": 57,
      "anton": 58,
      "man": 59,
      "ol": 60,
      "mi": 61,
      "ro": 62,
      "ana": 63,
      "antonio": 64,
      "lu": 65,
      "pa": 66,
      "ri": 67,
      "ma": 68,
      "ed": 69,
      "manuel": 70,
      "carm": 71,
      "la": 72,
      "us": 73,
      "co": 74,
      "fr": 75,
      "gel": 76,
      "carmen": 77,
      "angel": 78,
      "fran": 79,
      "ina": 80,
      "luis": 81,
      "mari": 82,
      "il": 83,
      "javi": 84,
      "bel": 85,
      "carl": 86,
      "franc": 87,
      "francis": 88,
      "carlos": 89,
      "isa": 90,
      "ta": 91,
      "to": 92,
      "mig": 93,
      "miguel": 94,
      "francisco": 95,
      "ca": 96,
      "ris": 97,
      "javier": 98,
      "na": 99,
      "jes": 100,
      "ale": 101,
      "davi": 102,
      "ber": 103,
      "david": 104,
      "ad": 105,
      "mon": 106,
      "cris": 107,
      "jesus": 108,
      "ros": 109,
      "vic": 110,
      "ena": 111,
      "ch": 112,
      "ani": 113,
      "fa": 114,
      "pe": 115,
      "cia": 116,
      "ti": 117,
      "di": 118,
      "qu": 119,
      "go": 120,
      "dani": 121,
      "lau": 122,
      "tor": 123,
      "berto": 124,
      "isabel": 125,
      "ara": 126,
      "jor": 127,
      "ea": 128,
      "am": 129,
      "ge": 130,
      "tina": 131,
      "ser": 132,
      "pil": 133,
      "te": 134,
      "ped": 135,
      "pedro": 136,
      "lo": 137,
      "do": 138,
      "andr": 139,
      "jo": 140,
      "ica": 141,
      "laura": 142,
      "fer": 143,
      "van": 144,
      "aro": 145,
      "cristina": 146,
      "serg": 147,
      "rosa": 148,
      "daniel": 149,
      "th": 150,
      "tri": 151,
      "pilar": 152,
      "rafa": 153,
      "ai": 154,
      "victor": 155,
      "jul": 156,
      "ter": 157,
      "lol": 158,
      "sergio": 159,
      "cio": 160,
      "marta": 161,
      "jand": 162,
      "alejand": 163,
      "ando": 164,
      "alberto": 165,
      "ria": 166,
      "elena": 167,
      "lor": 168,
      "alv": 169,
      "fern": 170,
      "ev": 171,
      "mo": 172,
      "ul": 173,
      "blo": 174,
      "pablo": 175,
      "mer": 176,
      "ru": 177,
      "jorge": 178,
      "fernando": 179,
      "esa": 180,
      "alex": 181,
      "ga": 182,
      "alejandro": 183,
      "adri": 184,
      "as": 185,
      "quel": 186,
      "ben": 187,
      "sara": 188,
      "marc": 189,
      "eli": 190,
      "rafael": 191,
      "re": 192,
      "ni": 193,
      "raul": 194,
      "ego": 195,
      "andra": 196,
      "ula": 197,
      "elia": 198,
      "so": 199,
      "ramon": 200,
      "ivan": 201,
      "con": 202,
      "eva": 203,
      "se": 204,
      "teresa": 205,
      "raquel": 206,
      "diego": 207,
      "tian": 208,
      "oscar": 209,
      "dia": 210,
      "angeles": 211,
      "qui": 212,
      "no": 213,
      "rocio": 214,
      "ali": 215,
      "ruben": 216,
      "emi": 217,
      "me": 218,
      "sandra": 219,
      "adrian": 220,
      "anda": 221,
      "alvaro": 222,
      "son": 223,
      "patri": 224,
      "merc": 225,
      "vicen": 226,
      "edu": 227,
      "sil": 228,
      "via": 229,
      "silvia": 230,
      "lucia": 231,
      "le": 232,
      "ardo": 233,
      "sonia": 234,
      "be": 235,
      "bea": 236,
      "san": 237,
      "andres": 238,
      "dol": 239,
      "toni": 240,
      "yol": 241,
      "sus": 242,
      "paco": 243,
      "ela": 244,
      "mont": 245,
      "tin": 246,
      "alia": 247,
      "monica": 248,
      "enri": 249,
      "paula": 250,
      "dolor": 251,
      "antonia": 252,
      "andrea": 253,
      "paqui": 254,
      "que": 255,
      "manol": 256,
      "inma": 257,
      "jordi": 258,
      "nu": 259,
      "nuria": 260,
      "belen": 261,
      "yolanda": 262,
      "patricia": 263,
      "ona": 264,
      "da": 265,
      "edes": 266,
      "mercedes": 267,
      "enrique": 268,
      "ba": 269,
      "susana": 270,
      "esth": 271,
      "esther": 272,
      "dolores": 273,
      "roberto": 274,
      "mario": 275,
      "vicente": 276,
      "ham": 277,
      "chi": 278,
      "loli": 279,
      "ver": 280,
      "gu": 281,
      "joa": 282,
      "emil": 283,
      "feli": 284,
      "triz": 285,
      "beatriz": 286,
      "ja": 287,
      "sa": 288,
      "alba": 289,
      "ik": 290,
      "ir": 291,
      "onso": 292,
      "joaqu": 293,
      "nat": 294,
      "jai": 295,
      "lola": 296,
      "luisa": 297,
      "ene": 298,
      "montse": 299,
      "ion": 300,
      "encar": 301,
      "del": 302,
      "alicia": 303,
      "eduardo": 304,
      "gus": 305,
      "za": 306,
      "alo": 307,
      "des": 308,
      "gab": 309,
      "joaquin": 310,
      "natalia": 311,
      "ur": 312,
      "tia": 313,
      "fonso": 314,
      "ario": 315,
      "irene": 316,
      "ricar": 317,
      "pi": 318,
      "pepe": 319,
      "marina": 320,
      "conchi": 321,
      "cristian": 322,
      "angela": 323,
      "ari": 324,
      "julia": 325,
      "alfonso": 326,
      "marcos": 327,
      "ian": 328,
      "jaime": 329,
      "ger": 330,
      "riam": 331,
      "gabri": 332,
      "noelia": 333,
      "onica": 334,
      "veronica": 335,
      "lorena": 336,
      "julio": 337,
      "ig": 338,
      "ricardo": 339,
      "guil": 340,
      "moham": 341,
      "marian": 342,
      "carol": 343,
      "he": 344,
      "elisa": 345,
      "ines": 346,
      "maribel": 347,
      "salv": 348,
      "joan": 349,
      "clau": 350,
      "pepi": 351,
      "ania": 352,
      "elo": 353,
      "emilio": 354,
      "miriam": 355,
      "paro": 356,
      "amparo": 357,
      "victoria": 358,
      "santia": 359,
      "santiago": 360,
      "igna": 361,
      "este": 362,
      "anna": 363,
      "agus": 364,
      "mohamed": 365,
      "mai": 366,
      "uro": 367,
      "olga": 368,
      "bert": 369,
      "lour": 370,
      "lourdes": 371,
      "josep": 372,
      "glor": 373,
      "lara": 374,
      "gloria": 375,
      "rosario": 376,
      "ignacio": 377,
      "xavi": 378,
      "claudia": 379,
      "manolo": 380,
      "carolina": 381,
      "isma": 382,
      "mma": 383,
      "min": 384,
      "fina": 385,
      "per": 386,
      "gabriel": 387,
      "ces": 388,
      "cesar": 389,
      "cion": 390,
      "marisa": 391,
      "maite": 392,
      "jona": 393,
      "juani": 394,
      "tr": 395,
      "essa": 396,
      "vanessa": 397,
      "encarna": 398,
      "idia": 399,
      "lidia": 400,
      "juana": 401,
      "fati": 402,
      "eu": 403,
      "ismael": 404,
      "gema": 405,
      "julian": 406,
      "ador": 407,
      "salvador": 408,
      "ler": 409,
      "mas": 410,
      "tomas": 411,
      "guiller": 412,
      "guillermo": 413,
      "josefa": 414,
      "ain": 415,
      "ner": 416,
      "nerea": 417,
      "eves": 418,
      "nieves": 419,
      "mila": 420,
      "gona": 421,
      "begona": 422,
      "ini": 423,
      "may": 424,
      "gon": 425,
      "zalo": 426,
      "gonzalo": 427,
      "manuela": 428,
      "val": 429,
      "tx": 430,
      "mary": 431,
      "manoli": 432,
      "pili": 433,
      "carla": 434,
      "ab": 435,
      "marg": 436,
      "fatima": 437,
      "sol": 438,
      "agustin": 439,
      "nach": 440,
      "felix": 441,
      "nacho": 442,
      "vir": 443,
      "mara": 444,
      "med": 445,
      "arita": 446,
      "margarita": 447,
      "albert": 448,
      "bas": 449,
      "sebas": 450,
      "gen": 451,
      "eugen": 452,
      "gin": 453,
      "virgin": 454,
      "virginia": 455,
      "sica": 456,
      "vanesa": 457,
      "tere": 458,
      "bl": 459,
      "sam": 460,
      "anca": 461,
      "blanca": 462,
      "samuel": 463,
      "ard": 464,
      "luz": 465,
      "ce": 466,
      "mu": 467,
      "aitor": 468,
      "ctor": 469,
      "hector": 470,
      "clara": 471,
      "col": 472,
      "nicol": 473,
      "fia": 474,
      "sofia": 475,
      "alfr": 476,
      "edo": 477,
      "maricarmen": 478,
      "alfredo": 479,
      "ha": 480,
      "bor": 481,
      "borja": 482,
      "che": 483,
      "oa": 484,
      "charo": 485,
      "judi": 486,
      "manu": 487,
      "juanjo": 488,
      "than": 489,
      "jonathan": 490,
      "palo": 491,
      "paloma": 492,
      "un": 493,
      "jessica": 494,
      "cula": 495,
      "celia": 496,
      "inmacula": 497,
      "inmaculada": 498,
      "maris": 499,
      "marisol": 500,
      "tamara": 501,
      "diana": 502,
      "pepa": 503,
      "anza": 504,
      "felipe": 505,
      "cha": 506,
      "martin": 507,
      "kel": 508,
      "beth": 509,
      "santi": 510,
      "tania": 511,
      "ya": 512,
      "almu": 513,
      "auro": 514,
      "aurora": 515,
      "alejandra": 516,
      "encarni": 517,
      "uri": 518,
      "esper": 519,
      "esperanza": 520,
      "francisca": 521,
      "mariano": 522,
      "sebastian": 523,
      "jen": 524,
      "gor": 525,
      "fania": 526,
      "estefania": 527,
      "mire": 528,
      "gemma": 529,
      "hoa": 530,
      "ainhoa": 531,
      "art": 532,
      "valen": 533,
      "flor": 534,
      "aran": 535,
      "edad": 536,
      "kik": 537,
      "hu": 538,
      "hugo": 539,
      "ban": 540,
      "ristian": 541,
      "christian": 542,
      "bal": 543,
      "cristo": 544,
      "eri": 545,
      "domin": 546,
      "domingo": 547,
      "sergi": 548,
      "dena": 549,
      "almudena": 550,
      "id": 551,
      "yo": 552,
      "ka": 553,
      "asun": 554,
      "evi": 555,
      "mag": 556,
      "adriana": 557,
      "nicolas": 558,
      "rat": 559,
      "serrat": 560,
      "montserrat": 561,
      "mayte": 562,
      "rebe": 563,
      "rebeca": 564,
      "daniela": 565,
      "xavier": 566,
      "ume": 567,
      "jaume": 568,
      "marco": 569,
      "nes": 570,
      "marga": 571,
      "noemi": 572,
      "cons": 573,
      "ier": 574,
      "men": 575,
      "ne": 576,
      "aida": 577,
      "nai": 578,
      "kevi": 579,
      "kevin": 580,
      "erik": 581,
      "ander": 582,
      "puri": 583,
      "esteban": 584,
      "omar": 585,
      "mireia": 586,
      "tav": 587,
      "cristobal": 588,
      "ola": 589,
      "pau": 590,
      "trini": 591,
      "celi": 592,
      "dri": 593,
      "rodri": 594,
      "araceli": 595,
      "rodrigo": 596,
      "alina": 597,
      "juanma": 598,
      "mikel": 599,
      "cat": 600,
      "arturo": 601,
      "mariana": 602,
      "gros": 603,
      "milagros": 604,
      "merche": 605,
      "jon": 606,
      "cand": 607,
      "imo": 608,
      "loren": 609,
      "merce": 610,
      "german": 611,
      "ki": 612,
      "inaki": 613,
      "abel": 614,
      "de": 615,
      "anabel": 616,
      "tan": 617,
      "eugenia": 618,
      "ac": 619,
      "isaac": 620,
      "rosi": 621,
      "iker": 622,
      "leon": 623,
      "tz": 624,
      "uelo": 625,
      "consuelo": 626,
      "fo": 627,
      "ises": 628,
      "josefina": 629,
      "moises": 630,
      "ire": 631,
      "judith": 632,
      "guille": 633,
      "az": 634,
      "tony": 635,
      "miquel": 636,
      "soledad": 637,
      "bar": 638,
      "bara": 639,
      "barbara": 640,
      "dor": 641,
      "nati": 642,
      "joel": 643,
      "luca": 644,
      "lucas": 645,
      "raya": 646,
      "teo": 647,
      "soraya": 648,
      "gustav": 649,
      "gustavo": 650,
      "ella": 651,
      "estr": 652,
      "ticia": 653,
      "leticia": 654,
      "estrella": 655,
      "aar": 656,
      "aaron": 657,
      "zo": 658,
      "alexandra": 659,
      "emilia": 660,
      "lorenzo": 661,
      "ah": 662,
      "isid": 663,
      "adela": 664,
      "ahmed": 665,
      "iz": 666,
      "elvi": 667,
      "elvira": 668,
      "ruth": 669,
      "kar": 670,
      "ny": 671,
      "yes": 672,
      "isra": 673,
      "israel": 674,
      "ila": 675,
      "she": 676,
      "paola": 677,
      "sheila": 678,
      "beni": 679,
      "dal": 680,
      "ky": 681,
      "magdal": 682,
      "magdalena": 683,
      "nifer": 684,
      "gabriela": 685,
      "jennifer": 686,
      "mamen": 687,
      "ama": 688,
      "manel": 689,
      "laia": 690,
      "dad": 691,
      "ernes": 692,
      "ernesto": 693,
      "fi": 694,
      "cil": 695,
      "carles": 696,
      "cecil": 697,
      "cecilia": 698,
      "paz": 699,
      "sai": 700,
      "said": 701,
      "ester": 702,
      "hi": 703,
      "fab": 704,
      "gerard": 705,
      "valentin": 706,
      "chari": 707,
      "salva": 708,
      "fed": 709,
      "aria": 710,
      "eliza": 711,
      "elizabeth": 712,
      "carme": 713,
      "pere": 714,
      "eugenio": 715,
      "vicky": 716,
      "erika": 717,
      "inigo": 718,
      "josu": 719,
      "jam": 720,
      "eric": 721,
      "helena": 722,
      "olfo": 723,
      "adolfo": 724,
      "cru": 725,
      "cruz": 726,
      "alu": 727,
      "rachi": 728,
      "concha": 729,
      "rachid": 730,
      "tela": 731,
      "estela": 732,
      "carena": 733,
      "macarena": 734,
      "elisabeth": 735,
      "txa": 736,
      "arantxa": 737,
      "amalia": 738,
      "lluis": 739,
      "kike": 740,
      "tati": 741,
      "tatiana": 742,
      "esc": 743,
      "francesc": 744,
      "gre": 745,
      "gorio": 746,
      "gregorio": 747,
      "chelo": 748,
      "asier": 749,
      "cu": 750,
      "mariangeles": 751,
      "reme": 752,
      "ilde": 753,
      "emma": 754,
      "robert": 755,
      "reyes": 756,
      "gerardo": 757,
      "si": 758,
      "roger": 759,
      "aroa": 760,
      "catalina": 761,
      "carmelo": 762,
      "paquita": 763,
      "asuncion": 764,
      "rian": 765,
      "leo": 766,
      "iano": 767,
      "ino": 768,
      "kh": 769,
      "pcion": 770,
      "conce": 771,
      "concepcion": 772,
      "nadia": 773,
      "ly": 774,
      "eloy": 775,
      "lydia": 776,
      "ci": 777,
      "iol": 778,
      "oriol": 779,
      "paul": 780,
      "saray": 781,
      "judit": 782,
      "isidro": 783,
      "af": 784,
      "cati": 785,
      "benito": 786,
      "ay": 787,
      "nan": 788,
      "pol": 789,
      "joana": 790,
      "tias": 791,
      "raham": 792,
      "abraham": 793,
      "gar": 794,
      "edgar": 795,
      "alexis": 796,
      "kiko": 797,
      "ota": 798,
      "vio": 799,
      "carlota": 800,
      "berta": 801,
      "ran": 802,
      "amanda": 803,
      "ferran": 804,
      "dario": 805,
      "cin": 806,
      "mando": 807,
      "armando": 808,
      "rosana": 809,
      "valentina": 810,
      "ios": 811,
      "rita": 812,
      "dna": 813,
      "ariadna": 814,
      "amelia": 815,
      "adalu": 816,
      "guadalu": 817,
      "neus": 818,
      "leonor": 819,
      "guadalupe": 820,
      "gra": 821,
      "scu": 822,
      "ane": 823,
      "pascu": 824,
      "pascual": 825,
      "has": 826,
      "unai": 827,
      "andre": 828,
      "hassan": 829,
      "anita": 830,
      "nardo": 831,
      "bernardo": 832,
      "enric": 833,
      "bru": 834,
      "hn": 835,
      "tilde": 836,
      "matilde": 837,
      "john": 838,
      "bruno": 839,
      "alexander": 840,
      "chema": 841,
      "ido": 842,
      "erico": 843,
      "federico": 844,
      "dolors": 845,
      "vero": 846,
      "ens": 847,
      "jenny": 848,
      "mian": 849,
      "damian": 850,
      "asc": 851,
      "susi": 852,
      "yas": 853,
      "iana": 854,
      "lil": 855,
      "moha": 856,
      "elias": 857,
      "liliana": 858,
      "arna": 859,
      "arnau": 860,
      "amaia": 861,
      "bo": 862,
      "xab": 863,
      "yoli": 864,
      "txe": 865,
      "tzi": 866,
      "nico": 867,
      "florin": 868,
      "adria": 869,
      "bet": 870,
      "elisabet": 871,
      "loly": 872,
      "rich": 873,
      "matias": 874,
      "chus": 875,
      "richard": 876,
      "yai": 877,
      "yaiza": 878,
      "yer": 879,
      "elsa": 880,
      "yeray": 881,
      "fermin": 882,
      "remed": 883,
      "jairo": 884,
      "remedios": 885,
      "lina": 886,
      "gorka": 887,
      "usse": 888,
      "yousse": 889,
      "youssef": 890,
      "leire": 891,
      "jonatan": 892,
      "guillem": 893,
      "tino": 894,
      "abdel": 895,
      "roman": 896,
      "noe": 897,
      "marilo": 898,
      "encarnacion": 899,
      "desire": 900,
      "desiree": 901,
      "oni": 902,
      "esmer": 903,
      "alda": 904,
      "marcelo": 905,
      "esmeralda": 906,
      "adam": 907,
      "mery": 908,
      "saul": 909,
      "benjam": 910,
      "trinidad": 911,
      "dori": 912,
      "benjamin": 913,
      "antoni": 914,
      "mateo": 915,
      "ainara": 916,
      "vicenta": 917,
      "pepita": 918,
      "jer": 919,
      "maik": 920,
      "mohammed": 921,
      "iris": 922,
      "irina": 923,
      "marth": 924,
      "martha": 925,
      "cena": 926,
      "ucena": 927,
      "ximo": 928,
      "eria": 929,
      "valeria": 930,
      "azucena": 931,
      "martina": 932,
      "angelica": 933,
      "eduard": 934,
      "kari": 935,
      "sole": 936,
      "karim": 937,
      "dio": 938,
      "claudio": 939,
      "bra": 940,
      "bego": 941,
      "cy": 942,
      "lolo": 943,
      "ramona": 944,
      "nancy": 945,
      "luna": 946,
      "alonso": 947,
      "mariluz": 948,
      "rosalia": 949,
      "roser": 950,
      "josue": 951,
      "quim": 952,
      "alid": 953,
      "leta": 954,
      "khalid": 955,
      "violeta": 956,
      "marivi": 957,
      "karen": 958,
      "leonardo": 959,
      "itzi": 960,
      "nora": 961,
      "aziz": 962,
      "itziar": 963,
      "aur": 964,
      "elio": 965,
      "aurelio": 966,
      "miha": 967,
      "conchita": 968,
      "igor": 969,
      "fabian": 970,
      "mihaela": 971,
      "her": 972,
      "micha": 973,
      "michael": 974,
      "him": 975,
      "iver": 976,
      "rafi": 977,
      "oliver": 978,
      "pep": 979,
      "ghe": 980,
      "ension": 981,
      "ascension": 982,
      "bla": 983,
      "vane": 984,
      "piedad": 985,
      "blas": 986,
      "frank": 987,
      "lore": 988,
      "ze": 989,
      "tono": 990,
      "marius": 991,
      "simon": 992,
      "gines": 993,
      "nina": 994,
      "jacin": 995,
      "magda": 996,
      "jacinto": 997,
      "tana": 998,
      "angelines": 999,
      "aitana": 1000,
      "delia": 1001,
      "mariajose": 1002,
      "nestor": 1003,
      "angels": 1004,
      "vicent": 1005,
      "karina": 1006,
      "peter": 1007,
      "andreu": 1008,
      "maru": 1009,
      "carmina": 1010,
      "cham": 1011,
      "naiara": 1012,
      "hicham": 1013,
      "itx": 1014,
      "ix": 1015,
      "iola": 1016,
      "rica": 1017,
      "aleix": 1018,
      "julen": 1019,
      "arancha": 1020,
      "fabiola": 1021,
      "africa": 1022,
      "ira": 1023,
      "ko": 1024,
      "gabi": 1025,
      "joseba": 1026,
      "juli": 1027,
      "idad": 1028,
      "mcarmen": 1029,
      "quique": 1030,
      "felisa": 1031,
      "tito": 1032,
      "mid": 1033,
      "hamid": 1034,
      "vas": 1035,
      "ile": 1036,
      "vasile": 1037,
      "mabel": 1038,
      "marimar": 1039,
      "marti": 1040,
      "tos": 1041,
      "santos": 1042,
      "rafaela": 1043,
      "vidad": 1044,
      "natividad": 1045,
      "gr": 1046,
      "rober": 1047,
      "sagr": 1048,
      "sagrario": 1049,
      "fco": 1050,
      "cobo": 1051,
      "fernanda": 1052,
      "jacobo": 1053,
      "xabier": 1054,
      "orge": 1055,
      "mirian": 1056,
      "george": 1057,
      "fan": 1058,
      "gri": 1059,
      "rami": 1060,
      "ingri": 1061,
      "mama": 1062,
      "nay": 1063,
      "dou": 1064,
      "fanny": 1065,
      "ramiro": 1066,
      "ingrid": 1067,
      "mamadou": 1068,
      "ux": 1069,
      "aina": 1070,
      "ayo": 1071,
      "mati": 1072,
      "ricard": 1073,
      "my": 1074,
      "myriam": 1075,
      "bio": 1076,
      "eus": 1077,
      "ebio": 1078,
      "sto": 1079,
      "justo": 1080,
      "marcela": 1081,
      "eusebio": 1082,
      "agustina": 1083,
      "der": 1084,
      "hai": 1085,
      "mihai": 1086,
      "lupe": 1087,
      "rakel": 1088,
      "brian": 1089,
      "ita": 1090,
      "gis": 1091,
      "andoni": 1092,
      "gisela": 1093,
      "eze": 1094,
      "ut": 1095,
      "onimo": 1096,
      "quiel": 1097,
      "mariola": 1098,
      "hamza": 1099,
      "ionut": 1100,
      "jeronimo": 1101,
      "ezequiel": 1102,
      "mus": 1103,
      "pha": 1104,
      "tapha": 1105,
      "mustapha": 1106,
      "mina": 1107,
      "ue": 1108,
      "mariam": 1109,
      "mauri": 1110,
      "fidel": 1111,
      "yasmina": 1112,
      "mauricio": 1113,
      "ciela": 1114,
      "graciela": 1115,
      "cor": 1116,
      "coral": 1117,
      "joaquina": 1118,
      "amador": 1119,
      "br": 1120,
      "ib": 1121,
      "ty": 1122,
      "yan": 1123,
      "katy": 1124,
      "bryan": 1125,
      "dy": 1126,
      "gla": 1127,
      "imanol": 1128,
      "candela": 1129,
      "dys": 1130,
      "gladys": 1131,
      "et": 1132,
      "xana": 1133,
      "zar": 1134,
      "roxana": 1135,
      "nazar": 1136,
      "idoia": 1137,
      "nazaret": 1138,
      "xis": 1139,
      "elino": 1140,
      "andro": 1141,
      "marcelino": 1142,
      "leandro": 1143,
      "oro": 1144,
      "eneko": 1145,
      "isidoro": 1146,
      "andrei": 1147,
      "bart": 1148,
      "gi": 1149,
      "ome": 1150,
      "angi": 1151,
      "olome": 1152,
      "jamal": 1153,
      "bartolome": 1154,
      "angie": 1155,
      "uis": 1156,
      "ell": 1157,
      "eluis": 1158,
      "isi": 1159,
      "joseluis": 1160,
      "meritx": 1161,
      "meritxell": 1162,
      "imma": 1163,
      "simo": 1164,
      "cur": 1165,
      "nor": 1166,
      "patricio": 1167,
      "curro": 1168,
      "norma": 1169,
      "nia": 1170,
      "davinia": 1171,
      "agu": 1172,
      "patx": 1173,
      "eda": 1174,
      "izan": 1175,
      "andreea": 1176,
      "agueda": 1177,
      "patxi": 1178,
      "ciano": 1179,
      "luciano": 1180,
      "bil": 1181,
      "espe": 1182,
      "bilal": 1183,
      "dul": 1184,
      "mariela": 1185,
      "camila": 1186,
      "dulce": 1187,
      "brahim": 1188,
      "anais": 1189,
      "milo": 1190,
      "camilo": 1191,
      "mireya": 1192,
      "mad": 1193,
      "hammad": 1194,
      "muhammad": 1195,
      "candido": 1196,
      "gracia": 1197,
      "amay": 1198,
      "iria": 1199,
      "amaya": 1200,
      "cristi": 1201,
      "fica": 1202,
      "purifica": 1203,
      "purificacion": 1204,
      "carmela": 1205,
      "rne": 1206,
      "edurne": 1207,
      "ioan": 1208,
      "mariona": 1209,
      "seraf": 1210,
      "serafin": 1211,
      "eta": 1212,
      "ub": 1213,
      "zai": 1214,
      "minia": 1215,
      "nicoleta": 1216,
      "herminia": 1217,
      "ayoub": 1218,
      "zaira": 1219,
      "bali": 1220,
      "len": 1221,
      "esti": 1222,
      "baliz": 1223,
      "estibaliz": 1224,
      "emiliano": 1225,
      "nando": 1226,
      "tza": 1227,
      "luci": 1228,
      "eloisa": 1229,
      "arantza": 1230,
      "rogel": 1231,
      "ussa": 1232,
      "adil": 1233,
      "moussa": 1234,
      "rogelio": 1235,
      "lali": 1236,
      "yani": 1237,
      "yanira": 1238,
      "rodol": 1239,
      "ainoa": 1240,
      "rodolfo": 1241,
      "aza": 1242,
      "hara": 1243,
      "maikel": 1244,
      "azahara": 1245,
      "juanjose": 1246,
      "ren": 1247,
      "rdes": 1248,
      "miren": 1249,
      "lurdes": 1250,
      "juanito": 1251,
      "sin": 1252,
      "maximo": 1253,
      "mayra": 1254,
      "yassin": 1255,
      "nines": 1256,
      "par": 1257,
      "spar": 1258,
      "gaspar": 1259,
      "mayka": 1260,
      "maika": 1261,
      "bernat": 1262,
      "ija": 1263,
      "yre": 1264,
      "ioana": 1265,
      "migue": 1266,
      "adan": 1267,
      "adija": 1268,
      "leyre": 1269,
      "joaquim": 1270,
      "fede": 1271,
      "khadija": 1272,
      "angelita": 1273,
      "suso": 1274,
      "pepito": 1275,
      "kun": 1276,
      "marijose": 1277,
      "askun": 1278,
      "caty": 1279,
      "izaskun": 1280,
      "caridad": 1281,
      "yago": 1282,
      "andru": 1283,
      "alexandru": 1284,
      "iratxe": 1285,
      "los": 1286,
      "aritz": 1287,
      "nayara": 1288,
      "fe": 1289,
      "eul": 1290,
      "orghe": 1291,
      "petri": 1292,
      "abdo": 1293,
      "gheorghe": 1294,
      "eulalia": 1295,
      "elaria": 1296,
      "anibal": 1297,
      "constan": 1298,
      "candelaria": 1299,
      "constantin": 1300,
      "va": 1301,
      "elad": 1302,
      "erva": 1303,
      "modes": 1304,
      "minerva": 1305,
      "eladio": 1306,
      "modesto": 1307,
      "flori": 1308,
      "naima": 1309,
      "maruja": 1310,
      "mos": 1311,
      "onis": 1312,
      "encio": 1313,
      "tafa": 1314,
      "dionis": 1315,
      "loles": 1316,
      "florencio": 1317,
      "mostafa": 1318,
      "dionisio": 1319,
      "ctav": 1320,
      "iban": 1321,
      "mjose": 1322,
      "octav": 1323,
      "yessica": 1324,
      "loreto": 1325,
      "octavio": 1326,
      "alin": 1327,
      "ustino": 1328,
      "luismi": 1329,
      "faustino": 1330,
      "ignasi": 1331,
      "catalin": 1332,
      "cinta": 1333,
      "im": 1334,
      "jim": 1335,
      "yur": 1336,
      "txema": 1337,
      "jimena": 1338,
      "yurena": 1339,
      "zaida": 1340,
      "dan": 1341,
      "gdan": 1342,
      "pino": 1343,
      "patr": 1344,
      "bogdan": 1345,
      "patry": 1346,
      "etan": 1347,
      "sor": 1348,
      "yetan": 1349,
      "marcia": 1350,
      "juanmi": 1351,
      "cayetan": 1352,
      "sorin": 1353,
      "marcial": 1354,
      "cayetano": 1355,
      "cle": 1356,
      "salu": 1357,
      "lah": 1358,
      "valle": 1359,
      "mente": 1360,
      "xabi": 1361,
      "abdellah": 1362,
      "clemente": 1363,
      "salud": 1364,
      "iago": 1365,
      "maripaz": 1366,
      "goyo": 1367,
      "brais": 1368,
      "dris": 1369,
      "ndo": 1370,
      "segu": 1371,
      "maider": 1372,
      "paulino": 1373,
      "driss": 1374,
      "segundo": 1375,
      "xo": 1376,
      "nagor": 1377,
      "nagore": 1378,
      "ae": 1379,
      "dida": 1380,
      "nicolae": 1381,
      "didac": 1382,
      "bi": 1383,
      "juancarlos": 1384,
      "candi": 1385,
      "hernan": 1386,
      "biel": 1387,
      "fu": 1388,
      "rel": 1389,
      "ensan": 1390,
      "doro": 1391,
      "teodoro": 1392,
      "viorel": 1393,
      "fuensan": 1394,
      "fuensanta": 1395,
      "fini": 1396,
      "ibai": 1397,
      "sarai": 1398,
      "irati": 1399,
      "dioni": 1400,
      "ionela": 1401,
      "elaida": 1402,
      "adelaida": 1403,
      "encarnita": 1404,
      "cidad": 1405,
      "felicidad": 1406,
      "kane": 1407,
      "nekane": 1408,
      "olatz": 1409,
      "josemaria": 1410,
      "rahim": 1411,
      "macu": 1412,
      "merchi": 1413,
      "abder": 1414,
      "ildefonso": 1415,
      "abderrahim": 1416,
      "aux": 1417,
      "cos": 1418,
      "tel": 1419,
      "josemanuel": 1420,
      "enriqueta": 1421,
      "auxi": 1422,
      "costel": 1423,
      "juanfran": 1424,
      "ionel": 1425,
      "agusti": 1426,
      "jonay": 1427,
      "jero": 1428,
      "xisco": 1429,
      "xisca": 1430,
      "hor": 1431,
      "tu": 1432,
      "tens": 1433,
      "tome": 1434,
      "sonsol": 1435,
      "virtu": 1436,
      "yoana": 1437,
      "hortens": 1438,
      "tomeu": 1439,
      "sonsoles": 1440,
      "virtudes": 1441,
      "hortensia": 1442,
      "victoriano": 1443,
      "vad": 1444,
      "ialen": 1445,
      "onga": 1446,
      "paca": 1447,
      "maica": 1448,
      "maialen": 1449,
      "covad": 1450,
      "maricruz": 1451,
      "covadonga": 1452,
      "hen": 1453,
      "henar": 1454,
      "eloi": 1455,
      "gai": 1456,
      "kol": 1457,
      "zka": 1458,
      "juanan": 1459,
      "maitan": 1460,
      "ascen": 1461,
      "nayra": 1462,
      "ibon": 1463,
      "gaizka": 1464,
      "koldo": 1465,
      "maitane": 1466,
      "fel": 1467,
      "pu": 1468,
      "josema": 1469,
      "rafel": 1470,
      "juanlu": 1471,
      "pura": 1472,
      "ico": 1473,
      "geli": 1474,
      "perico": 1475,
      "pela": 1476,
      "josemi": 1477,
      "joseantonio": 1478,
      "pelayo": 1479,
      "mertxe": 1480,
      "chu": 1481,
      "paquito": 1482,
      "menchu": 1483,
      "oier": 1484,
      "antia": 1485,
      "cande": 1486,
      "fali": 1487,
      "lluisa": 1488,
      "lloren": 1489,
      "mariajo": 1490,
      "llorenc": 1491,
      "ve": 1492,
      "visi": 1493,
      "ioa": 1494,
      "marife": 1495,
      "saioa": 1496,
      "esteve": 1497,
      "xevi": 1498,
      "sal": 1499,
      "markel": 1500,
      "salvi": 1501,
      "kin": 1502,
      "endi": 1503,
      "jokin": 1504,
      "aimar": 1505,
      "endika": 1506,
      "jani": 1507,
      "kai": 1508,
      "ora": 1509,
      "zu": 1510,
      "aranza": 1511,
      "arkai": 1512,
      "adora": 1513,
      "janire": 1514,
      "aranzazu": 1515,
      "arkaitz": 1516,
      "adoracion": 1517,
      "hane": 1518,
      "ihane": 1519,
      "oihane": 1520,
      "josun": 1521,
      "juande": 1522,
      "vicenc": 1523,
      "josune": 1524,
      "yco": 1525,
      "rayco": 1526,
      "aday": 1527,
      "chin": 1528,
      "conchin": 1529,
      "camin": 1530,
      "camino": 1531,
      "ylen": 1532,
      "mariajesus": 1533,
      "uxia": 1534,
      "ylenia": 1535,
      "anxo": 1536,
      "mapi": 1537,
      "bena": 1538,
      "pra": 1539,
      "benat": 1540,
      "prado": 1541,
      "xita": 1542,
      "elis": 1543,
      "enda": 1544,
      "aitzi": 1545,
      "conxita": 1546,
      "sebastia": 1547,
      "elisenda": 1548,
      "aitziber": 1549,
      "sito": 1550,
      "angus": 1551,
      "mangel": 1552,
      "aso": 1553,
      "dolo": 1554,
      "itxaso": 1555,
      "angustias": 1556,
      "mangeles": 1557,
      "epa": 1558,
      "ici": 1559,
      "kepa": 1560,
      "olaya": 1561,
      "iciar": 1562,
      "alla": 1563,
      "olalla": 1564,
      "iru": 1565,
      "naroa": 1566,
      "ayoze": 1567,
      "irune": 1568,
      "uxue": 1569,
      "fefi": 1570,
      "alaz": 1571,
      "juanvi": 1572,
      "paky": 1573,
      "bela": 1574,
      "sabela": 1575,
      "alazne": 1576,
      "acion": 1577,
      "one": 1578,
      "consol": 1579,
      "jaione": 1580,
      "consolacion": 1581,
      "alida": 1582,
      "txus": 1583,
      "margalida": 1584,
      "urko": 1585,
      "mayca": 1586,
      "iosu": 1587,
      "natxo": 1588,
      "mel": 1589,
      "karmel": 1590,
      "karmele": 1591
    },
    "merges": [
      "a n",
      "a r",
      "e l",
      "i a",
      "m ar",
      "o s",
      "e r",
      "o n",
      "i s",
      "j os",
      "jos e",
      "e n",
      "e s",
      "i o",
      "c ar",
      "a l",
      "v i",
      "mar ia",
      "u el",
      "r a",
      "j u",
      "i n",
      "o r",
      "t on",
      "ju an",
      "an d",
      "a vi",
      "an ton",
      "m an",
      "o l",
      "m i",
      "r o",
      "an a",
      "anton io",
      "l u",
      "p a",
      "r i",
      "m a",
      "e d",
      "man uel",
      "car m",
      "l a",
      "u s",
      "c o",
      "f r",
      "g el",
      "carm en",
      "an gel",
      "fr an",
      "in a",
      "lu is",
      "mar i",
      "i l",
      "j avi",
      "b el",
      "car l",
      "fran c",
      "franc is",
      "carl os",
      "is a",
      "t a",
      "t o",
      "mi g",
      "mig uel",
      "francis co",
      "c a",
      "r is",
      "javi er",
      "n a",
      "j es",
      "al e",
      "d avi",
      "b er",
      "davi d",
      "a d",
      "m on",
      "c ris",
      "jes us",
      "r os",
      "vi c",
      "en a",
      "c h",
      "an i",
      "f a",
      "p e",
      "c ia",
      "t i",
      "d i",
      "q u",
      "g o",
      "d ani",
      "la u",
      "t or",
      "ber to",
      "isa bel",
      "ar a",
      "j or",
      "e a",
      "a m",
      "g e",
      "t ina",
      "s er",
      "p il",
      "t e",
      "p ed",
      "ped ro",
      "l o",
      "d o",
      "and r",
      "j o",
      "i ca",
      "lau ra",
      "f er",
      "v an",
      "ar o",
      "cris tina",
      "ser g",
      "ros a",
      "dani el",
      "t h",
      "t ri",
      "pil ar",
      "ra fa",
      "a i",
      "vic tor",
      "ju l",
      "t er",
      "l ol",
      "serg io",
      "c io",
      "mar ta",
      "j and",
      "ale jand",
      "and o",
      "al berto",
      "r ia",
      "el ena",
      "l or",
      "al v",
      "fer n",
      "e v",
      "m o",
      "u l",
      "b lo",
      "pa blo",
      "m er",
      "r u",
      "jor ge",
      "fern ando",
      "es a",
      "ale x",
      "g a",
      "alejand ro",
      "ad ri",
      "a s",
      "q uel",
      "b en",
      "s ara",
      "mar c",
      "el i",
      "rafa el",
      "r e",
      "n i",
      "ra ul",
      "e go",
      "and ra",
      "u la",
      "el ia",
      "s o",
      "ra mon",
      "i van",
      "c on",
      "ev a",
      "s e",
      "ter esa",
      "ra quel",
      "di ego",
      "ti an",
      "os car",
      "d ia",
      "angel es",
      "qu i",
      "n o",
      "ro cio",
      "al i",
      "ru ben",
      "e mi",
      "m e",
      "s andra",
      "adri an",
      "and a",
      "alv aro",
      "s on",
      "pa tri",
      "mer c",
      "vic en",
      "ed u",
      "s il",
      "v ia",
      "sil via",
      "lu cia",
      "l e",
      "ar do",
      "son ia",
      "b e",
      "b ea",
      "s an",
      "andr es",
      "d ol",
      "ton i",
      "y ol",
      "s us",
      "pa co",
      "el a",
      "mon t",
      "t in",
      "al ia",
      "mon ica",
      "en ri",
      "pa ula",
      "dol or",
      "anton ia",
      "andr ea",
      "pa qui",
      "qu e",
      "man ol",
      "in ma",
      "jor di",
      "n u",
      "nu ria",
      "bel en",
      "yol anda",
      "patri cia",
      "on a",
      "d a",
      "ed es",
      "merc edes",
      "enri que",
      "b a",
      "sus ana",
      "es th",
      "esth er",
      "dolor es",
      "ro berto",
      "mar io",
      "vicen te",
      "h am",
      "ch i",
      "lol i",
      "v er",
      "g u",
      "jo a",
      "emi l",
      "f eli",
      "tri z",
      "bea triz",
      "j a",
      "s a",
      "al ba",
      "i k",
      "i r",
      "on so",
      "joa qu",
      "na t",
      "j ai",
      "lol a",
      "luis a",
      "en e",
      "mont se",
      "i on",
      "en car",
      "d el",
      "ali cia",
      "edu ardo",
      "g us",
      "z a",
      "al o",
      "d es",
      "ga b",
      "joaqu in",
      "nat alia",
      "u r",
      "t ia",
      "f onso",
      "ar io",
      "ir ene",
      "ri car",
      "p i",
      "pe pe",
      "mar ina",
      "con chi",
      "cris tian",
      "angel a",
      "ar i",
      "jul ia",
      "al fonso",
      "marc os",
      "i an",
      "jai me",
      "g er",
      "ria m",
      "gab ri",
      "no elia",
      "on ica",
      "ver onica",
      "lor ena",
      "jul io",
      "i g",
      "ricar do",
      "gu il",
      "mo ham",
      "mari an",
      "car ol",
      "h e",
      "el isa",
      "in es",
      "mari bel",
      "s alv",
      "jo an",
      "c lau",
      "pe pi",
      "an ia",
      "el o",
      "emil io",
      "mi riam",
      "p aro",
      "am paro",
      "victor ia",
      "san tia",
      "santia go",
      "ig na",
      "es te",
      "an na",
      "a gus",
      "moham ed",
      "ma i",
      "u ro",
      "ol ga",
      "ber t",
      "lo ur",
      "lour des",
      "jose p",
      "g lor",
      "l ara",
      "glor ia",
      "ros ario",
      "igna cio",
      "x avi",
      "clau dia",
      "manol o",
      "carol ina",
      "is ma",
      "m ma",
      "m in",
      "f ina",
      "p er",
      "gabri el",
      "c es",
      "ces ar",
      "c ion",
      "mar isa",
      "mai te",
      "j ona",
      "juan i",
      "t r",
      "es sa",
      "van essa",
      "encar na",
      "i dia",
      "l idia",
      "juan a",
      "fa ti",
      "e u",
      "isma el",
      "ge ma",
      "jul ian",
      "ad or",
      "salv ador",
      "l er",
      "ma s",
      "to mas",
      "guil ler",
      "guiller mo",
      "jose fa",
      "a in",
      "n er",
      "ner ea",
      "ev es",
      "ni eves",
      "mi la",
      "g ona",
      "be gona",
      "in i",
      "ma y",
      "g on",
      "z alo",
      "gon zalo",
      "manuel a",
      "v al",
      "t x",
      "mar y",
      "manol i",
      "pil i",
      "car la",
      "a b",
      "mar g",
      "fati ma",
      "s ol",
      "agus tin",
      "na ch",
      "feli x",
      "nach o",
      "vi r",
      "mar a",
      "m ed",
      "ari ta",
      "marg arita",
      "al bert",
      "b as",
      "se bas",
      "g en",
      "eu gen",
      "g in",
      "vir gin",
      "virgin ia",
      "s ica",
      "van esa",
      "ter e",
      "b l",
      "s am",
      "an ca",
      "bl anca",
      "sam uel",
      "ar d",
      "lu z",
      "c e",
      "m u",
      "ai tor",
      "c tor",
      "he ctor",
      "c lara",
      "c ol",
      "ni col",
      "f ia",
      "so fia",
      "al fr",
      "ed o",
      "mari carmen",
      "alfr edo",
      "h a",
      "b or",
      "bor ja",
      "ch e",
      "o a",
      "ch aro",
      "ju di",
      "man u",
      "juan jo",
      "th an",
      "jona than",
      "p alo",
      "palo ma",
      "u n",
      "jes sica",
      "c ula",
      "c elia",
      "inma cula",
      "inmacula da",
      "mar is",
      "maris ol",
      "ta mara",
      "di ana",
      "pe pa",
      "an za",
      "feli pe",
      "ch a",
      "mar tin",
      "k el",
      "be th",
      "san ti",
      "t ania",
      "y a",
      "al mu",
      "a uro",
      "auro ra",
      "alejand ra",
      "encar ni",
      "u ri",
      "es per",
      "esper anza",
      "francis ca",
      "marian o",
      "sebas tian",
      "j en",
      "g or",
      "f ania",
      "este fania",
      "mi re",
      "ge mma",
      "h oa",
      "ain hoa",
      "ar t",
      "val en",
      "f lor",
      "ar an",
      "ed ad",
      "k ik",
      "h u",
      "hu go",
      "b an",
      "ris tian",
      "ch ristian",
      "b al",
      "cris to",
      "er i",
      "do min",
      "domin go",
      "serg i",
      "d ena",
      "almu dena",
      "i d",
      "y o",
      "k a",
      "as un",
      "e vi",
      "ma g",
      "adri ana",
      "nicol as",
      "ra t",
      "ser rat",
      "mont serrat",
      "may te",
      "re be",
      "rebe ca",
      "daniel a",
      "xavi er",
      "u me",
      "ja ume",
      "mar co",
      "n es",
      "mar ga",
      "no emi",
      "con s",
      "i er",
      "m en",
      "n e",
      "ai da",
      "na i",
      "k evi",
      "kevi n",
      "er ik",
      "and er",
      "p uri",
      "este ban",
      "o mar",
      "mire ia",
      "ta v",
      "cristo bal",
      "ol a",
      "pa u",
      "tr ini",
      "c eli",
      "d ri",
      "ro dri",
      "ara celi",
      "rodri go",
      "al ina",
      "juan ma",
      "mi kel",
      "ca t",
      "art uro",
      "mari ana",
      "g ros",
      "mila gros",
      "mer che",
      "j on",
      "c and",
      "i mo",
      "lor en",
      "merc e",
      "ger man",
      "k i",
      "ina ki",
      "a bel",
      "d e",
      "ana bel",
      "t an",
      "eugen ia",
      "a c",
      "isa ac",
      "ros i",
      "ik er",
      "le on",
      "t z",
      "uel o",
      "cons uelo",
      "f o",
      "is es",
      "jose fina",
      "mo ises",
      "i re",
      "judi th",
      "guil le",
      "a z",
      "ton y",
      "mi quel",
      "sol edad",
      "b ar",
      "b ara",
      "bar bara",
      "d or",
      "na ti",
      "jo el",
      "lu ca",
      "luca s",
      "ra ya",
      "te o",
      "so raya",
      "gus tav",
      "gustav o",
      "el la",
      "es tr",
      "ti cia",
      "le ticia",
      "estr ella",
      "a ar",
      "aar on",
      "z o",
      "alex andra",
      "emil ia",
      "loren zo",
      "a h",
      "is id",
      "ad ela",
      "ah med",
      "i z",
      "el vi",
      "elvi ra",
      "ru th",
      "k ar",
      "n y",
      "y es",
      "is ra",
      "isra el",
      "i la",
      "s he",
      "pa ola",
      "she ila",
      "ben i",
      "d al",
      "k y",
      "mag dal",
      "magdal ena",
      "ni fer",
      "gabri ela",
      "jen nifer",
      "ma men",
      "a ma",
      "man el",
      "la ia",
      "d ad",
      "er nes",
      "ernes to",
      "f i",
      "c il",
      "carl es",
      "ce cil",
      "cecil ia",
      "pa z",
      "s ai",
      "sai d",
      "es ter",
      "h i",
      "fa b",
      "ger ard",
      "valen tin",
      "ch ari",
      "salv a",
      "f ed",
      "ar ia",
      "eli za",
      "eliza beth",
      "carm e",
      "per e",
      "eugen io",
      "vic ky",
      "erik a",
      "ini go",
      "jos u",
      "j am",
      "eri c",
      "h elena",
      "ol fo",
      "ad olfo",
      "c ru",
      "cru z",
      "al u",
      "ra chi",
      "con cha",
      "rachi d",
      "t ela",
      "es tela",
      "car ena",
      "ma carena",
      "elisa beth",
      "tx a",
      "aran txa",
      "am alia",
      "l luis",
      "kik e",
      "ta ti",
      "tati ana",
      "es c",
      "franc esc",
      "g re",
      "gor io",
      "gre gorio",
      "ch elo",
      "as ier",
      "c u",
      "mari angeles",
      "re me",
      "il de",
      "e mma",
      "ro bert",
      "re yes",
      "ger ardo",
      "s i",
      "ro ger",
      "aro a",
      "cat alina",
      "carm elo",
      "paqui ta",
      "asun cion",
      "ri an",
      "le o",
      "ian o",
      "in o",
      "k h",
      "p cion",
      "con ce",
      "conce pcion",
      "na dia",
      "l y",
      "elo y",
      "ly dia",
      "c i",
      "io l",
      "or iol",
      "pa ul",
      "sara y",
      "judi t",
      "isid ro",
      "a f",
      "ca ti",
      "beni to",
      "a y",
      "n an",
      "p ol",
      "jo ana",
      "tia s",
      "ra ham",
      "ab raham",
      "g ar",
      "ed gar",
      "alex is",
      "kik o",
      "o ta",
      "v io",
      "carl ota",
      "ber ta",
      "r an",
      "am anda",
      "fer ran",
      "d ario",
      "c in",
      "m ando",
      "ar mando",
      "ros ana",
      "valen tina",
      "i os",
      "ri ta",
      "d na",
      "aria dna",
      "am elia",
      "ad alu",
      "gu adalu",
      "ne us",
      "leon or",
      "guadalu pe",
      "g ra",
      "s cu",
      "an e",
      "pa scu",
      "pascu al",
      "h as",
      "u nai",
      "andr e",
      "has san",
      "ani ta",
      "n ardo",
      "ber nardo",
      "enri c",
      "b ru",
      "h n",
      "t ilde",
      "ma tilde",
      "jo hn",
      "bru no",
      "alex ander",
      "che ma",
      "i do",
      "eri co",
      "fed erico",
      "dolor s",
      "ver o",
      "en s",
      "jen ny",
      "mi an",
      "da mian",
      "as c",
      "sus i",
      "y as",
      "i ana",
      "l il",
      "mo ha",
      "elia s",
      "lil iana",
      "ar na",
      "arna u",
      "ama ia",
      "b o",
      "x ab",
      "yol i",
      "tx e",
      "tz i",
      "ni co",
      "flor in",
      "ad ria",
      "be t",
      "elisa bet",
      "lol y",
      "ri ch",
      "ma tias",
      "ch us",
      "rich ard",
      "y ai",
      "yai za",
      "y er",
      "el sa",
      "yer ay",
      "fer min",
      "re med",
      "jai ro",
      "remed ios",
      "l ina",
      "gor ka",
      "us se",
      "yo usse",
      "yousse f",
      "le ire",
      "jona tan",
      "guille m",
      "tin o",
      "ab del",
      "ro man",
      "no e",
      "mari lo",
      "encarna cion",
      "des ire",
      "desire e",
      "on i",
      "es mer",
      "al da",
      "marc elo",
      "esmer alda",
      "ad am",
      "mer y",
      "sa ul",
      "ben jam",
      "trini dad",
      "dor i",
      "benjam in",
      "anton i",
      "ma teo",
      "ain ara",
      "vicen ta",
      "pepi ta",
      "j er",
      "ma ik",
      "moham med",
      "i ris",
      "ir ina",
      "mar th",
      "marth a",
      "c ena",
      "u cena",
      "x imo",
      "er ia",
      "val eria",
      "az ucena",
      "mar tina",
      "angel ica",
      "edu ard",
      "k ari",
      "sol e",
      "kari m",
      "d io",
      "clau dio",
      "b ra",
      "b ego",
      "c y",
      "lol o",
      "ramon a",
      "nan cy",
      "lu na",
      "al onso",
      "mari luz",
      "ros alia",
      "ros er",
      "josu e",
      "qui m",
      "ali d",
      "le ta",
      "kh alid",
      "vio leta",
      "mari vi",
      "kar en",
      "leon ardo",
      "i tzi",
      "no ra",
      "az iz",
      "itzi ar",
      "a ur",
      "el io",
      "aur elio",
      "mi ha",
      "conchi ta",
      "ig or",
      "fab ian",
      "miha ela",
      "h er",
      "mi cha",
      "micha el",
      "hi m",
      "i ver",
      "ra fi",
      "ol iver",
      "pe p",
      "g he",
      "ens ion",
      "asc ension",
      "b la",
      "van e",
      "pi edad",
      "bla s",
      "fran k",
      "lor e",
      "z e",
      "ton o",
      "mari us",
      "si mon",
      "g ines",
      "n ina",
      "ja cin",
      "mag da",
      "jacin to",
      "t ana",
      "angel ines",
      "ai tana",
      "d elia",
      "maria jose",
      "nes tor",
      "angel s",
      "vicen t",
      "kar ina",
      "pe ter",
      "andr eu",
      "mar u",
      "carm ina",
      "ch am",
      "nai ara",
      "hi cham",
      "i tx",
      "i x",
      "io la",
      "ri ca",
      "ale ix",
      "jul en",
      "aran cha",
      "fab iola",
      "af rica",
      "i ra",
      "k o",
      "gab i",
      "jose ba",
      "jul i",
      "id ad",
      "m carmen",
      "qui que",
      "f elisa",
      "ti to",
      "mi d",
      "ha mid",
      "v as",
      "il e",
      "vas ile",
      "ma bel",
      "mari mar",
      "mar ti",
      "t os",
      "san tos",
      "rafael a",
      "vi dad",
      "nati vidad",
      "g r",
      "ro ber",
      "sa gr",
      "sagr ario",
      "f co",
      "co bo",
      "fern anda",
      "ja cobo",
      "xab ier",
      "or ge",
      "mi rian",
      "ge orge",
      "f an",
      "g ri",
      "ra mi",
      "in gri",
      "ma ma",
      "na y",
      "do u",
      "fan ny",
      "rami ro",
      "ingri d",
      "mama dou",
      "u x",
      "a ina",
      "a yo",
      "ma ti",
      "ricar d",
      "m y",
      "my riam",
      "b io",
      "e us",
      "e bio",
      "s to",
      "ju sto",
      "marc ela",
      "eus ebio",
      "agus tina",
      "d er",
      "h ai",
      "mi hai",
      "lu pe",
      "ra kel",
      "b rian",
      "i ta",
      "g is",
      "and oni",
      "gis ela",
      "e ze",
      "u t",
      "on imo",
      "qui el",
      "mario la",
      "ham za",
      "ion ut",
      "jer onimo",
      "eze quiel",
      "m us",
      "p ha",
      "ta pha",
      "mus tapha",
      "m ina",
      "u e",
      "maria m",
      "ma uri",
      "fi del",
      "yas mina",
      "mauri cio",
      "ci ela",
      "gra ciela",
      "c or",
      "cor al",
      "joaqu ina",
      "ama dor",
      "b r",
      "i b",
      "t y",
      "y an",
      "ka ty",
      "br yan",
      "d y",
      "g la",
      "i manol",
      "cand ela",
      "dy s",
      "gla dys",
      "e t",
      "x ana",
      "z ar",
      "ro xana",
      "na zar",
      "ido ia",
      "nazar et",
      "x is",
      "el ino",
      "and ro",
      "marc elino",
      "le andro",
      "or o",
      "ene ko",
      "isid oro",
      "andre i",
      "b art",
      "g i",
      "o me",
      "an gi",
      "ol ome",
      "jam al",
      "bart olome",
      "angi e",
      "u is",
      "el l",
      "el uis",
      "is i",
      "jos eluis",
      "mer itx",
      "meritx ell",
      "i mma",
      "s imo",
      "c ur",
      "n or",
      "patri cio",
      "cur ro",
      "nor ma",
      "n ia",
      "davi nia",
      "a gu",
      "pa tx",
      "ed a",
      "iz an",
      "andre ea",
      "agu eda",
      "patx i",
      "c iano",
      "lu ciano",
      "b il",
      "es pe",
      "bil al",
      "d ul",
      "mari ela",
      "ca mila",
      "dul ce",
      "bra him",
      "ana is",
      "mi lo",
      "ca milo",
      "mire ya",
      "ma d",
      "ham mad",
      "mu hammad",
      "cand ido",
      "gra cia",
      "a may",
      "i ria",
      "amay a",
      "cris ti",
      "f ica",
      "puri fica",
      "purifica cion",
      "carm ela",
      "r ne",
      "edu rne",
      "io an",
      "mari ona",
      "ser af",
      "seraf in",
      "e ta",
      "u b",
      "z ai",
      "min ia",
      "nicol eta",
      "her minia",
      "ayo ub",
      "zai ra",
      "b ali",
      "l en",
      "es ti",
      "bali z",
      "esti baliz",
      "emil iano",
      "n ando",
      "t za",
      "lu ci",
      "elo isa",
      "aran tza",
      "ro gel",
      "us sa",
      "ad il",
      "mo ussa",
      "rogel io",
      "l ali",
      "y ani",
      "yani ra",
      "ro dol",
      "ain oa",
      "rodol fo",
      "a za",
      "h ara",
      "maik el",
      "aza hara",
      "juan jose",
      "r en",
      "r des",
      "mi ren",
      "lu rdes",
      "juani to",
      "s in",
      "ma ximo",
      "may ra",
      "yas sin",
      "n ines",
      "p ar",
      "s par",
      "ga spar",
      "may ka",
      "maik a",
      "ber nat",
      "i ja",
      "y re",
      "io ana",
      "mig ue",
      "ad an",
      "ad ija",
      "le yre",
      "joa quim",
      "fed e",
      "kh adija",
      "angel ita",
      "sus o",
      "pepi to",
      "k un",
      "mari jose",
      "as kun",
      "cat y",
      "iz askun",
      "car idad",
      "ya go",
      "andr u",
      "alex andru",
      "ira txe",
      "l os",
      "ari tz",
      "nay ara",
      "f e",
      "e ul",
      "or ghe",
      "pe tri",
      "ab do",
      "ghe orghe",
      "eul alia",
      "el aria",
      "ani bal",
      "cons tan",
      "cand elaria",
      "constan tin",
      "v a",
      "el ad",
      "er va",
      "mo des",
      "min erva",
      "elad io",
      "modes to",
      "flor i",
      "nai ma",
      "maru ja",
      "m os",
      "on is",
      "en cio",
      "ta fa",
      "di onis",
      "lol es",
      "flor encio",
      "mos tafa",
      "dionis io",
      "c tav",
      "i ban",
      "m jose",
      "o ctav",
      "yes sica",
      "lore to",
      "octav io",
      "al in",
      "us tino",
      "luis mi",
      "fa ustino",
      "igna si",
      "cat alin",
      "cin ta",
      "i m",
      "j im",
      "y ur",
      "txe ma",
      "jim ena",
      "yur ena",
      "z aida",
      "d an",
      "g dan",
      "p ino",
      "pa tr",
      "bo gdan",
      "patr y",
      "e tan",
      "s or",
      "y etan",
      "mar cia",
      "juan mi",
      "ca yetan",
      "sor in",
      "marcia l",
      "cayetan o",
      "c le",
      "s alu",
      "la h",
      "val le",
      "men te",
      "xab i",
      "abdel lah",
      "cle mente",
      "salu d",
      "ia go",
      "mari paz",
      "go yo",
      "bra is",
      "d ris",
      "n do",
      "se gu",
      "mai der",
      "paul ino",
      "dris s",
      "segu ndo",
      "x o",
      "na gor",
      "nagor e",
      "a e",
      "di da",
      "nicol ae",
      "dida c",
      "b i",
      "juan carlos",
      "cand i",
      "her nan",
      "bi el",
      "f u",
      "r el",
      "en san",
      "dor o",
      "teo doro",
      "vio rel",
      "fu ensan",
      "fuensan ta",
      "f ini",
      "ib ai",
      "sara i",
      "ira ti",
      "di oni",
      "ion ela",
      "el aida",
      "ad elaida",
      "encarni ta",
      "c idad",
      "feli cidad",
      "k ane",
      "ne kane",
      "ola tz",
      "jose maria",
      "ra him",
      "ma cu",
      "mer chi",
      "ab der",
      "ilde fonso",
      "abder rahim",
      "a ux",
      "c os",
      "t el",
      "jose manuel",
      "enrique ta",
      "aux i",
      "cos tel",
      "juan fran",
      "ion el",
      "agus ti",
      "jona y",
      "jer o",
      "xis co",
      "xis ca",
      "h or",
      "t u",
      "t ens",
      "to me",
      "son sol",
      "vir tu",
      "yo ana",
      "hor tens",
      "tome u",
      "sonsol es",
      "virtu des",
      "hortens ia",
      "victor iano",
      "v ad",
      "ia len",
      "on ga",
      "pa ca",
      "ma ica",
      "ma ialen",
      "co vad",
      "mari cruz",
      "covad onga",
      "h en",
      "hen ar",
      "elo i",
      "g ai",
      "k ol",
      "z ka",
      "juan an",
      "mai tan",
      "asc en",
      "nay ra",
      "ib on",
      "gai zka",
      "kol do",
      "maitan e",
      "f el",
      "p u",
      "jose ma",
      "ra fel",
      "juan lu",
      "pu ra",
      "i co",
      "gel i",
      "per ico",
      "p ela",
      "jose mi",
      "jose antonio",
      "pela yo",
      "mer txe",
      "ch u",
      "paqui to",
      "men chu",
      "o ier",
      "an tia",
      "cand e",
      "f ali",
      "l luisa",
      "l loren",
      "maria jo",
      "lloren c",
      "v e",
      "v isi",
      "io a",
      "mari fe",
      "sa ioa",
      "este ve",
      "x evi",
      "s al",
      "mar kel",
      "sal vi",
      "k in",
      "en di",
      "jo kin",
      "ai mar",
      "endi ka",
      "j ani",
      "k ai",
      "o ra",
      "z u",
      "ar anza",
      "ar kai",
      "ad ora",
      "jani re",
      "aranza zu",
      "arkai tz",
      "adora cion",
      "h ane",
      "i hane",
      "o ihane",
      "jos un",
      "juan de",
      "vicen c",
      "josun e",
      "y co",
      "ra yco",
      "ad ay",
      "ch in",
      "con chin",
      "ca min",
      "camin o",
      "y len",
      "maria jesus",
      "ux ia",
      "ylen ia",
      "an xo",
      "ma pi",
      "b ena",
      "p ra",
      "bena t",
      "pra do",
      "x ita",
      "el is",
      "en da",
      "ai tzi",
      "con xita",
      "sebas tia",
      "elis enda",
      "aitzi ber",
      "si to",
      "an gus",
      "man gel",
      "as o",
      "dol o",
      "itx aso",
      "angus tias",
      "mangel es",
      "e pa",
      "i ci",
      "k epa",
      "ola ya",
      "ici ar",
      "al la",
      "ol alla",
      "i ru",
      "n aroa",
      "ayo ze",
      "iru ne",
      "ux ue",
      "fe fi",
      "al az",
      "juan vi",
      "pa ky",
      "bel a",
      "sa bela",
      "alaz ne",
      "a cion",
      "on e",
      "con sol",
      "jai one",
      "consol acion",
      "ali da",
      "tx us",
      "marg alida",
      "ur ko",
      "may ca",
      "ios u",
      "nat xo",
      "m el",
      "kar mel",
      "karmel e"
    ]
  }
}