{
  "version": "1.0",
  "truncation": null,
  "padding": null,
  "added_tokens": [
    {
      "id": 0,
      "content": "[UNK]",
      "single_word": false,
      "lstrip": false,
      "rstrip": false,
      "normalized": false,
      "special": true
    },
    {
      "id": 1,
      "content": "[CLS]",
      "single_word": false,
      "lstrip": false,
      "rstrip": false,
      "normalized": false,
      "special": true
    },
    {
      "id": 2,
      "content": "[SEP]",
      "single_word": false,
      "lstrip": false,
      "rstrip": false,
      "normalized": false,
      "special": true
    },
    {
      "id": 3,
      "content": "[PAD]",
      "single_word": false,
      "lstrip": false,
      "rstrip": false,
      "normalized": false,
      "special": true
    },
    {
      "id": 4,
      "content": "[MASK]",
      "single_word": false,
      "lstrip": false,
      "rstrip": false,
      "normalized": false,
      "special": true
    }
  ],
  "normalizer": null,
  "pre_tokenizer": {
    "type": "Whitespace"
  },
  "post_processor": null,
  "decoder": null,
  "model": {
    "type": "BPE",
    "dropout": null,
    "unk_token": "[UNK]",
    "continuing_subword_prefix": null,
    "end_of_word_suffix": null,
    "fuse_unk": false,
    "vocab": {
      "[UNK]": 0,
      "[CLS]": 1,
      "[SEP]": 2,
      "[PAD]": 3,
      "[MASK]": 4,
      "-": 5,
      "a": 6,
      "b": 7,
      "c": 8,
      "d": 9,
      "e": 10,
      "f": 11,
      "g": 12,
      "h": 13,
      "i": 14,
      "j": 15,
      "k": 16,
      "l": 17,
      "m": 18,
      "n": 19,
      "o": 20,
      "p": 21,
      "q": 22,
      "r": 23,
      "s": 24,
      "t": 25,
      "u": 26,
      "v": 27,
      "w": 28,
      "x": 29,
      "y": 30,
      "z": 31,
      "an": 32,
      "ar": 33,
      "ia": 34,
      "el": 35,
      "jo": 36,
      "ana": 37,
      "mar": 38,
      "dr": 39,
      "is": 40,
      "in": 41,
      "io": 42,
      "car": 43,
      "er": 44,
      "on": 45,
      "lo": 46,
      "ri": 47,
      "at": 48,
      "au": 49,
      "ao": 50,
      "go": 51,
      "il": 52,
      "joao": 53,
      "uel": 54,
      "do": 55,
      "andr": 56,
      "ina": 57,
      "maria": 58,
      "da": 59,
      "pe": 60,
      "ru": 61,
      "lu": 62,
      "es": 63,
      "pau": 64,
      "se": 65,
      "al": 66,
      "dro": 67,
      "jose": 68,
      "pedro": 69,
      "en": 70,
      "no": 71,
      "iana": 72,
      "ab": 73,
      "luis": 74,
      "ca": 75,
      "la": 76,
      "andre": 77,
      "ta": 78,
      "ra": 79,
      "co": 80,
      "to": 81,
      "mi": 82,
      "man": 83,
      "ton": 84,
      "carlo": 85,
      "carlos": 86,
      "anton": 87,
      "ma": 88,
      "ela": 89,
      "antonio": 90,
      "paulo": 91,
      "vi": 92,
      "manuel": 93,
      "ro": 94,
      "guel": 95,
      "miguel": 96,
      "ern": 97,
      "rui": 98,
      "atri": 99,
      "ili": 100,
      "ricar": 101,
      "ricardo": 102,
      "nu": 103,
      "fili": 104,
      "tia": 105,
      "nuno": 106,
      "cat": 107,
      "ani": 108,
      "ara": 109,
      "dio": 110,
      "bru": 111,
      "tiago": 112,
      "so": 113,
      "cia": 114,
      "fr": 115,
      "isab": 116,
      "andra": 117,
      "dani": 118,
      "fern": 119,
      "fernan": 120,
      "joana": 121,
      "ris": 122,
      "te": 123,
      "cris": 124,
      "rg": 125,
      "us": 126,
      "bruno": 127,
      "diogo": 128,
      "sa": 129,
      "cis": 130,
      "fran": 131,
      "crist": 132,
      "paula": 133,
      "francis": 134,
      "ena": 135,
      "jorg": 136,
      "jorge": 137,
      "lau": 138,
      "ines": 139,
      "son": 140,
      "hel": 141,
      "arina": 142,
      "catarina": 143,
      "rita": 144,
      "isabel": 145,
      "ida": 146,
      "carla": 147,
      "ale": 148,
      "alex": 149,
      "dia": 150,
      "tor": 151,
      "francisco": 152,
      "im": 153,
      "ol": 154,
      "sandra": 155,
      "fia": 156,
      "sofia": 157,
      "du": 158,
      "clau": 159,
      "filipe": 160,
      "cristina": 161,
      "patri": 162,
      "le": 163,
      "fernando": 164,
      "be": 165,
      "ter": 166,
      "mariana": 167,
      "qu": 168,
      "patricia": 169,
      "de": 170,
      "sara": 171,
      "ce": 172,
      "gar": 173,
      "ica": 174,
      "hu": 175,
      "vitor": 176,
      "sus": 177,
      "susana": 178,
      "fat": 179,
      "ima": 180,
      "gon": 181,
      "fatima": 182,
      "duar": 183,
      "calo": 184,
      "goncalo": 185,
      "daniel": 186,
      "hugo": 187,
      "atriz": 188,
      "beatriz": 189,
      "marta": 190,
      "teres": 191,
      "teresa": 192,
      "margar": 193,
      "margarida": 194,
      "claudia": 195,
      "van": 196,
      "marco": 197,
      "andreia": 198,
      "fa": 199,
      "ser": 200,
      "fab": 201,
      "pa": 202,
      "filipa": 203,
      "rafa": 204,
      "gio": 205,
      "sergio": 206,
      "sonia": 207,
      "dri": 208,
      "carol": 209,
      "helena": 210,
      "davi": 211,
      "carolina": 212,
      "cel": 213,
      "ju": 214,
      "daniela": 215,
      "fabio": 216,
      "david": 217,
      "rodri": 218,
      "mario": 219,
      "der": 220,
      "quel": 221,
      "rodrigo": 222,
      "ber": 223,
      "raquel": 224,
      "sil": 225,
      "aqu": 226,
      "na": 227,
      "joaqu": 228,
      "silv": 229,
      "eduar": 230,
      "bela": 231,
      "tan": 232,
      "ben": 233,
      "ilia": 234,
      "leon": 235,
      "joaquim": 236,
      "luisa": 237,
      "fernanda": 238,
      "ang": 239,
      "rosa": 240,
      "diana": 241,
      "isa": 242,
      "berto": 243,
      "nel": 244,
      "onica": 245,
      "rafael": 246,
      "ver": 247,
      "alexandre": 248,
      "inda": 249,
      "catia": 250,
      "jul": 251,
      "gu": 252,
      "tania": 253,
      "ruben": 254,
      "manuela": 255,
      "ete": 256,
      "ze": 257,
      "lil": 258,
      "va": 259,
      "anabela": 260,
      "ren": 261,
      "or": 262,
      "alexandra": 263,
      "me": 264,
      "des": 265,
      "eduardo": 266,
      "liliana": 267,
      "nelson": 268,
      "monica": 269,
      "helder": 270,
      "alda": 271,
      "vera": 272,
      "her": 273,
      "ardo": 274,
      "silvia": 275,
      "gab": 276,
      "lara": 277,
      "rdes": 278,
      "ino": 279,
      "gabri": 280,
      "toma": 281,
      "tomas": 282,
      "elisab": 283,
      "lena": 284,
      "ilher": 285,
      "guilher": 286,
      "ic": 287,
      "cio": 288,
      "lurdes": 289,
      "elisabete": 290,
      "con": 291,
      "guilherme": 292,
      "af": 293,
      "inh": 294,
      "hen": 295,
      "riqu": 296,
      "henriqu": 297,
      "henrique": 298,
      "leonor": 299,
      "essa": 300,
      "vanessa": 301,
      "gus": 302,
      "jes": 303,
      "ano": 304,
      "ad": 305,
      "onso": 306,
      "afonso": 307,
      "falda": 308,
      "mafalda": 309,
      "bern": 310,
      "vas": 311,
      "ice": 312,
      "ed": 313,
      "bar": 314,
      "bara": 315,
      "barbara": 316,
      "eu": 317,
      "nat": 318,
      "ico": 319,
      "vo": 320,
      "gra": 321,
      "vasco": 322,
      "mo": 323,
      "elia": 324,
      "andro": 325,
      "duarte": 326,
      "ceic": 327,
      "conceic": 328,
      "conceicao": 329,
      "mat": 330,
      "bruna": 331,
      "marisa": 332,
      "renat": 333,
      "dalena": 334,
      "madalena": 335,
      "angela": 336,
      "am": 337,
      "sica": 338,
      "jessica": 339,
      "bernardo": 340,
      "lucia": 341,
      "ros": 342,
      "tel": 343,
      "ilde": 344,
      "carina": 345,
      "celia": 346,
      "marcia": 347,
      "alice": 348,
      "em": 349,
      "luc": 350,
      "alia": 351,
      "rute": 352,
      "min": 353,
      "elsa": 354,
      "vic": 355,
      "adr": 356,
      "adriana": 357,
      "vania": 358,
      "fla": 359,
      "flav": 360,
      "gos": 361,
      "alberto": 362,
      "fre": 363,
      "graca": 364,
      "re": 365,
      "francisca": 366,
      "laura": 367,
      "mena": 368,
      "claudio": 369,
      "tat": 370,
      "tatiana": 371,
      "matilde": 372,
      "arman": 373,
      "gabriel": 374,
      "val": 375,
      "ario": 376,
      "ja": 377,
      "ga": 378,
      "victor": 379,
      "li": 380,
      "dina": 381,
      "fi": 382,
      "tu": 383,
      "augus": 384,
      "ila": 385,
      "mart": 386,
      "clara": 387,
      "lor": 388,
      "cristiana": 389,
      "artu": 390,
      "artur": 391,
      "angel": 392,
      "renato": 393,
      "lomena": 394,
      "filomena": 395,
      "leandro": 396,
      "ger": 397,
      "marina": 398,
      "iano": 399,
      "emilia": 400,
      "ene": 401,
      "marcio": 402,
      "sim": 403,
      "ti": 404,
      "sora": 405,
      "natalia": 406,
      "ces": 407,
      "armando": 408,
      "inho": 409,
      "emanuel": 410,
      "marcel": 411,
      "inha": 412,
      "joel": 413,
      "soraia": 414,
      "lia": 415,
      "lina": 416,
      "gabriela": 417,
      "alv": 418,
      "juliana": 419,
      "ivo": 420,
      "muel": 421,
      "samuel": 422,
      "ora": 423,
      "julia": 424,
      "gil": 425,
      "marcelo": 426,
      "cesar": 427,
      "olga": 428,
      "tina": 429,
      "lan": 430,
      "flavio": 431,
      "lene": 432,
      "marlene": 433,
      "rafaela": 434,
      "julio": 435,
      "domin": 436,
      "cas": 437,
      "ide": 438,
      "amelia": 439,
      "iv": 440,
      "roger": 441,
      "rogerio": 442,
      "simao": 443,
      "leonardo": 444,
      "gina": 445,
      "aro": 446,
      "auro": 447,
      "alvaro": 448,
      "lce": 449,
      "dulce": 450,
      "men": 451,
      "freder": 452,
      "celes": 453,
      "ch": 454,
      "ira": 455,
      "domingos": 456,
      "telma": 457,
      "ilda": 458,
      "martim": 459,
      "frederico": 460,
      "mica": 461,
      "augusto": 462,
      "tavo": 463,
      "gustavo": 464,
      "rosario": 465,
      "carmo": 466,
      "edgar": 467,
      "eduarda": 468,
      "bora": 469,
      "debora": 470,
      "cristiano": 471,
      "gen": 472,
      "eugen": 473,
      "roberto": 474,
      "din": 475,
      "eli": 476,
      "mara": 477,
      "vanda": 478,
      "telmo": 479,
      "gor": 480,
      "celeste": 481,
      "ie": 482,
      "su": 483,
      "lucas": 484,
      "nadia": 485,
      "ceu": 486,
      "marcos": 487,
      "iren": 488,
      "irene": 489,
      "lidia": 490,
      "aul": 491,
      "angelo": 492,
      "ilio": 493,
      "elaide": 494,
      "adelaide": 495,
      "olinda": 496,
      "ime": 497,
      "jaime": 498,
      "sao": 499,
      "orlan": 500,
      "lou": 501,
      "one": 502,
      "cilia": 503,
      "cecilia": 504,
      "and": 505,
      "elis": 506,
      "raul": 507,
      "dora": 508,
      "th": 509,
      "ite": 510,
      "elino": 511,
      "cand": 512,
      "mila": 513,
      "virg": 514,
      "orlando": 515,
      "za": 516,
      "elisa": 517,
      "agos": 518,
      "agost": 519,
      "adri": 520,
      "igor": 521,
      "adriano": 522,
      "idalia": 523,
      "dete": 524,
      "eva": 525,
      "ir": 526,
      "flor": 527,
      "dinis": 528,
      "sandro": 529,
      "antonia": 530,
      "renata": 531,
      "alfre": 532,
      "alfredo": 533,
      "cin": 534,
      "mil": 535,
      "eugenia": 536,
      "carmen": 537,
      "erica": 538,
      "veronica": 539,
      "minda": 540,
      "os": 541,
      "agostinho": 542,
      "ria": 543,
      "eus": 544,
      "cidalia": 545,
      "cha": 546,
      "glor": 547,
      "luana": 548,
      "gloria": 549,
      "tino": 550,
      "odete": 551,
      "anca": 552,
      "regina": 553,
      "valter": 554,
      "mauro": 555,
      "flavia": 556,
      "ivan": 557,
      "marilia": 558,
      "bia": 559,
      "luz": 560,
      "gia": 561,
      "ligia": 562,
      "erico": 563,
      "americo": 564,
      "candida": 565,
      "inia": 566,
      "ik": 567,
      "alc": 568,
      "carlota": 569,
      "mira": 570,
      "alb": 571,
      "andrea": 572,
      "dor": 573,
      "leti": 574,
      "leonel": 575,
      "leticia": 576,
      "xana": 577,
      "manel": 578,
      "as": 579,
      "gda": 580,
      "magda": 581,
      "alina": 582,
      "jacin": 583,
      "deolinda": 584,
      "ivone": 585,
      "augusta": 586,
      "mberto": 587,
      "humberto": 588,
      "luciana": 589,
      "nico": 590,
      "micaela": 591,
      "mer": 592,
      "nan": 593,
      "grac": 594,
      "fabiana": 595,
      "oliv": 596,
      "ilson": 597,
      "micael": 598,
      "ane": 599,
      "abilio": 600,
      "vitoria": 601,
      "ieta": 602,
      "sandr": 603,
      "iris": 604,
      "lis": 605,
      "virginia": 606,
      "est": 607,
      "adelino": 608,
      "eira": 609,
      "stan": 610,
      "constan": 611,
      "oscar": 612,
      "renco": 613,
      "lourenco": 614,
      "arminda": 615,
      "aida": 616,
      "guida": 617,
      "helio": 618,
      "ine": 619,
      "lucilia": 620,
      "kik": 621,
      "abel": 622,
      "lang": 623,
      "solang": 624,
      "solange": 625,
      "san": 626,
      "tony": 627,
      "zab": 628,
      "elizab": 629,
      "fo": 630,
      "ita": 631,
      "lfo": 632,
      "dolfo": 633,
      "nicole": 634,
      "aurora": 635,
      "eliana": 636,
      "camila": 637,
      "seb": 638,
      "irina": 639,
      "idalina": 640,
      "aman": 641,
      "armin": 642,
      "lucinda": 643,
      "armindo": 644,
      "lino": 645,
      "nice": 646,
      "lui": 647,
      "anita": 648,
      "eunice": 649,
      "miro": 650,
      "bi": 651,
      "xa": 652,
      "bianca": 653,
      "dite": 654,
      "kat": 655,
      "linda": 656,
      "mel": 657,
      "miria": 658,
      "judite": 659,
      "katia": 660,
      "miriam": 661,
      "zelia": 662,
      "dario": 663,
      "cila": 664,
      "alber": 665,
      "neu": 666,
      "neuza": 667,
      "celso": 668,
      "lourdes": 669,
      "constanca": 670,
      "mic": 671,
      "florbela": 672,
      "sal": 673,
      "gore": 674,
      "vador": 675,
      "salvador": 676,
      "lar": 677,
      "ke": 678,
      "dan": 679,
      "uri": 680,
      "mary": 681,
      "wilson": 682,
      "ricio": 683,
      "edite": 684,
      "gis": 685,
      "hn": 686,
      "john": 687,
      "gisela": 688,
      "adelia": 689,
      "leo": 690,
      "zira": 691,
      "alzira": 692,
      "del": 693,
      "anna": 694,
      "nelia": 695,
      "gilberto": 696,
      "delf": 697,
      "bal": 698,
      "anibal": 699,
      "olivia": 700,
      "iara": 701,
      "esmer": 702,
      "esmeralda": 703,
      "vin": 704,
      "lome": 705,
      "salome": 706,
      "jesus": 707,
      "isau": 708,
      "isaura": 709,
      "rinda": 710,
      "laurinda": 711,
      "anie": 712,
      "lin": 713,
      "arlin": 714,
      "arlindo": 715,
      "celina": 716,
      "eth": 717,
      "ema": 718,
      "elio": 719,
      "vier": 720,
      "xavier": 721,
      "acha": 722,
      "natacha": 723,
      "tiao": 724,
      "astiao": 725,
      "sebastiao": 726,
      "elvi": 727,
      "elvira": 728,
      "hermin": 729,
      "silva": 730,
      "ariana": 731,
      "mateus": 732,
      "luciano": 733,
      "angelina": 734,
      "simone": 735,
      "rodolfo": 736,
      "toze": 737,
      "ot": 738,
      "albertina": 739,
      "otilia": 740,
      "michel": 741,
      "ali": 742,
      "lili": 743,
      "jacinta": 744,
      "gracinda": 745,
      "laris": 746,
      "bel": 747,
      "den": 748,
      "ny": 749,
      "pal": 750,
      "ise": 751,
      "denise": 752,
      "palmira": 753,
      "dade": 754,
      "ente": 755,
      "beta": 756,
      "joaquina": 757,
      "julieta": 758,
      "vicente": 759,
      "dalil": 760,
      "esto": 761,
      "ernesto": 762,
      "dalila": 763,
      "av": 764,
      "dino": 765,
      "avelino": 766,
      "feli": 767,
      "noem": 768,
      "gui": 769,
      "albino": 770,
      "luiz": 771,
      "felipe": 772,
      "noemia": 773,
      "armanda": 774,
      "melis": 775,
      "davide": 776,
      "nanda": 777,
      "melissa": 778,
      "virgilio": 779,
      "mau": 780,
      "mauricio": 781,
      "nal": 782,
      "arnal": 783,
      "kika": 784,
      "arnaldo": 785,
      "valen": 786,
      "elina": 787,
      "adelina": 788,
      "rberto": 789,
      "norberto": 790,
      "elena": 791,
      "iolan": 792,
      "suz": 793,
      "iolanda": 794,
      "lic": 795,
      "goreti": 796,
      "zita": 797,
      "ilcar": 798,
      "amilcar": 799,
      "micha": 800,
      "rosar": 801,
      "angelica": 802,
      "michael": 803,
      "die": 804,
      "are": 805,
      "diego": 806,
      "nio": 807,
      "junio": 808,
      "junior": 809,
      "hern": 810,
      "lilia": 811,
      "nina": 812,
      "hernani": 813,
      "ck": 814,
      "ercia": 815,
      "patrick": 816,
      "natercia": 817,
      "ilidio": 818,
      "silvana": 819,
      "silvio": 820,
      "gas": 821,
      "estela": 822,
      "edna": 823,
      "eugenio": 824,
      "hora": 825,
      "iro": 826,
      "horacio": 827,
      "cus": 828,
      "custo": 829,
      "ama": 830,
      "deu": 831,
      "demar": 832,
      "bernar": 833,
      "rosalina": 834,
      "valdemar": 835,
      "martinho": 836,
      "amadeu": 837,
      "ul": 838,
      "rico": 839,
      "eurico": 840,
      "ises": 841,
      "moises": 842,
      "toni": 843,
      "viana": 844,
      "iago": 845,
      "viviana": 846,
      "thiago": 847,
      "suse": 848,
      "idia": 849,
      "nidia": 850,
      "vao": 851,
      "tos": 852,
      "seraf": 853,
      "tita": 854,
      "santos": 855,
      "serafim": 856,
      "aline": 857,
      "zinha": 858,
      "ermel": 859,
      "fred": 860,
      "jacinto": 861,
      "ermelinda": 862,
      "kevin": 863,
      "karina": 864,
      "per": 865,
      "isma": 866,
      "luzia": 867,
      "sandrina": 868,
      "elizabete": 869,
      "ismael": 870,
      "cta": 871,
      "octa": 872,
      "vio": 873,
      "isilda": 874,
      "alcina": 875,
      "lisete": 876,
      "octavio": 877,
      "milene": 878,
      "sel": 879,
      "paul": 880,
      "ester": 881,
      "amandio": 882,
      "felis": 883,
      "nando": 884,
      "mantino": 885,
      "diamantino": 886,
      "zare": 887,
      "andrina": 888,
      "alexandrina": 889,
      "nazare": 890,
      "nela": 891,
      "rome": 892,
      "nuria": 893,
      "dany": 894,
      "romeu": 895,
      "lisa": 896,
      "ya": 897,
      "bea": 898,
      "valdo": 899,
      "osvaldo": 900,
      "quim": 901,
      "elizabeth": 902,
      "herminia": 903,
      "berta": 904,
      "dalia": 905,
      "santiago": 906,
      "beto": 907,
      "kel": 908,
      "ly": 909,
      "armen": 910,
      "ole": 911,
      "kelly": 912,
      "armenio": 913,
      "iete": 914,
      "ramiro": 915,
      "graciete": 916,
      "lana": 917,
      "tlana": 918,
      "mina": 919,
      "rina": 920,
      "sab": 921,
      "florinda": 922,
      "amanda": 923,
      "sabrina": 924,
      "delfina": 925,
      "iuri": 926,
      "suzana": 927,
      "antonieta": 928,
      "helia": 929,
      "sarah": 930,
      "claris": 931,
      "nil": 932,
      "milton": 933,
      "clarisse": 934,
      "pris": 935,
      "rosalia": 936,
      "priscila": 937,
      "heus": 938,
      "mia": 939,
      "relio": 940,
      "aurelio": 941,
      "nelio": 942,
      "edson": 943,
      "matheus": 944,
      "yuri": 945,
      "arle": 946,
      "eria": 947,
      "valeria": 948,
      "valentina": 949,
      "arlete": 950,
      "ndo": 951,
      "undo": 952,
      "ader": 953,
      "ito": 954,
      "gorete": 955,
      "albano": 956,
      "aderito": 957,
      "aca": 958,
      "zul": 959,
      "juan": 960,
      "victoria": 961,
      "alves": 962,
      "dores": 963,
      "acacio": 964,
      "zulmira": 965,
      "aldina": 966,
      "melanie": 967,
      "cao": 968,
      "pie": 969,
      "tito": 970,
      "eliane": 971,
      "susete": 972,
      "piedade": 973,
      "vina": 974,
      "yl": 975,
      "danilo": 976,
      "fel": 977,
      "hanie": 978,
      "ne": 979,
      "phanie": 980,
      "ste": 981,
      "amalia": 982,
      "felic": 983,
      "stephanie": 984,
      "ido": 985,
      "candido": 986,
      "tovao": 987,
      "cristovao": 988,
      "silvina": 989,
      "cintia": 990,
      "delfim": 991,
      "bened": 992,
      "rosana": 993,
      "rosaria": 994,
      "benedita": 995,
      "manu": 996,
      "leila": 997,
      "danny": 998,
      "mimi": 999,
      "fer": 1000,
      "neus": 1001,
      "reira": 1002,
      "ferreira": 1003,
      "neusa": 1004,
      "jona": 1005,
      "jonas": 1006,
      "ac": 1007,
      "isaac": 1008,
      "lalia": 1009,
      "eulalia": 1010,
      "alcino": 1011,
      "fau": 1012,
      "sto": 1013,
      "alicia": 1014,
      "fausto": 1015,
      "inio": 1016,
      "licinio": 1017,
      "ander": 1018,
      "carminda": 1019,
      "peter": 1020,
      "mike": 1021,
      "lucy": 1022,
      "anderson": 1023,
      "cela": 1024,
      "dilia": 1025,
      "jan": 1026,
      "par": 1027,
      "marcela": 1028,
      "gaspar": 1029,
      "erik": 1030,
      "adao": 1031,
      "adilia": 1032,
      "erika": 1033,
      "sale": 1034,
      "nadin": 1035,
      "zezinha": 1036,
      "michelle": 1037,
      "salete": 1038,
      "nadine": 1039,
      "edu": 1040,
      "zeza": 1041,
      "eila": 1042,
      "lucio": 1043,
      "cheila": 1044,
      "oliveira": 1045,
      "bernardino": 1046,
      "br": 1047,
      "inacio": 1048,
      "branca": 1049,
      "anter": 1050,
      "antero": 1051,
      "rela": 1052,
      "rose": 1053,
      "estrela": 1054,
      "ides": 1055,
      "tome": 1056,
      "zeca": 1057,
      "alcides": 1058,
      "johnny": 1059,
      "ks": 1060,
      "ldo": 1061,
      "oks": 1062,
      "ard": 1063,
      "rich": 1064,
      "inaldo": 1065,
      "tamara": 1066,
      "reinaldo": 1067,
      "custodio": 1068,
      "oksana": 1069,
      "richard": 1070,
      "emi": 1071,
      "fatinha": 1072,
      "guilhermina": 1073,
      "emidio": 1074,
      "sta": 1075,
      "costa": 1076,
      "celestino": 1077,
      "pereira": 1078,
      "cle": 1079,
      "kar": 1080,
      "elisabeth": 1081,
      "karla": 1082,
      "ncao": 1083,
      "yara": 1084,
      "martinha": 1085,
      "suncao": 1086,
      "assuncao": 1087,
      "essandra": 1088,
      "alessandra": 1089,
      "susy": 1090,
      "jp": 1091,
      "ruth": 1092,
      "adilson": 1093,
      "natalina": 1094,
      "andrei": 1095,
      "air": 1096,
      "don": 1097,
      "fina": 1098,
      "ius": 1099,
      "milia": 1100,
      "tra": 1101,
      "jota": 1102,
      "josu": 1103,
      "ins": 1104,
      "petra": 1105,
      "josefina": 1106,
      "familia": 1107,
      "nelo": 1108,
      "gabi": 1109,
      "icius": 1110,
      "martins": 1111,
      "luiza": 1112,
      "vinicius": 1113,
      "aires": 1114,
      "josue": 1115,
      "hil": 1116,
      "jer": 1117,
      "onim": 1118,
      "dos": 1119,
      "rodrigu": 1120,
      "gilda": 1121,
      "chico": 1122,
      "hilario": 1123,
      "jeronim": 1124,
      "rodrigues": 1125,
      "jeronimo": 1126,
      "dolor": 1127,
      "leandra": 1128,
      "gerson": 1129,
      "oleg": 1130,
      "dolores": 1131,
      "gaby": 1132,
      "milu": 1133,
      "milena": 1134,
      "sandrine": 1135,
      "licinia": 1136,
      "paulinho": 1137,
      "sous": 1138,
      "soraya": 1139,
      "herminio": 1140,
      "neide": 1141,
      "sousa": 1142,
      "eo": 1143,
      "geo": 1144,
      "aure": 1145,
      "noelia": 1146,
      "vivi": 1147,
      "rgina": 1148,
      "nair": 1149,
      "marcelino": 1150,
      "larissa": 1151,
      "georgina": 1152,
      "aurea": 1153,
      "viviane": 1154,
      "adolfo": 1155,
      "gh": 1156,
      "sin": 1157,
      "tti": 1158,
      "beca": 1159,
      "rebeca": 1160,
      "goretti": 1161,
      "singh": 1162,
      "isabela": 1163,
      "silvino": 1164,
      "emilio": 1165,
      "custodia": 1166,
      "selma": 1167,
      "etlana": 1168,
      "iane": 1169,
      "sv": 1170,
      "aninha": 1171,
      "cristiane": 1172,
      "lisandra": 1173,
      "svetlana": 1174,
      "mundo": 1175,
      "lope": 1176,
      "almer": 1177,
      "same": 1178,
      "edmundo": 1179,
      "kiko": 1180,
      "lopes": 1181,
      "almerinda": 1182,
      "sameiro": 1183,
      "idro": 1184,
      "ansel": 1185,
      "isidro": 1186,
      "janete": 1187,
      "anselmo": 1188,
      "syl": 1189,
      "vie": 1190,
      "sylvie": 1191,
      "imiro": 1192,
      "mes": 1193,
      "gomes": 1194,
      "domingas": 1195,
      "casimiro": 1196,
      "eze": 1197,
      "iel": 1198,
      "pil": 1199,
      "josefa": 1200,
      "quiel": 1201,
      "queline": 1202,
      "rosangela": 1203,
      "jaqueline": 1204,
      "albina": 1205,
      "belmiro": 1206,
      "ezequiel": 1207,
      "pilar": 1208,
      "bina": 1209,
      "pia": 1210,
      "saul": 1211,
      "rubina": 1212,
      "helga": 1213,
      "impia": 1214,
      "olimpia": 1215,
      "bernardete": 1216,
      "paulinha": 1217,
      "etel": 1218,
      "ion": 1219,
      "patricio": 1220,
      "teresinha": 1221,
      "felisbela": 1222,
      "etelvina": 1223,
      "decio": 1224,
      "belinha": 1225,
      "rosarinho": 1226,
      "idade": 1227,
      "orlanda": 1228,
      "elisio": 1229,
      "felicidade": 1230,
      "clo": 1231,
      "iva": 1232,
      "tilde": 1233,
      "clotilde": 1234,
      "bri": 1235,
      "gida": 1236,
      "tim": 1237,
      "duda": 1238,
      "bento": 1239,
      "belmira": 1240,
      "valentim": 1241,
      "brigida": 1242,
      "odilia": 1243,
      "ses": 1244,
      "ulis": 1245,
      "vinda": 1246,
      "marqu": 1247,
      "esper": 1248,
      "benvinda": 1249,
      "natali": 1250,
      "nilza": 1251,
      "ulisses": 1252,
      "marques": 1253,
      "esperanca": 1254,
      "nataliya": 1255,
      "felia": 1256,
      "ofelia": 1257,
      "fernandes": 1258,
      "celio": 1259,
      "liliane": 1260,
      "amar": 1261,
      "jus": 1262,
      "tinha": 1263,
      "iomar": 1264,
      "ritinha": 1265,
      "guiomar": 1266,
      "nilton": 1267,
      "amaro": 1268,
      "justino": 1269,
      "fabricio": 1270,
      "euseb": 1271,
      "eusebio": 1272,
      "joca": 1273,
      "mim": 1274,
      "vitorino": 1275,
      "benja": 1276,
      "benjamim": 1277,
      "cr": 1278,
      "calves": 1279,
      "mino": 1280,
      "rmino": 1281,
      "paulino": 1282,
      "caio": 1283,
      "goncalves": 1284,
      "emilde": 1285,
      "firmino": 1286,
      "cremilde": 1287,
      "ivi": 1288,
      "nis": 1289,
      "svi": 1290,
      "dionis": 1291,
      "nativi": 1292,
      "svitlana": 1293,
      "dionisio": 1294,
      "natividade": 1295,
      "ev": 1296,
      "tru": 1297,
      "yna": 1298,
      "anjo": 1299,
      "ruy": 1300,
      "gertru": 1301,
      "iryna": 1302,
      "albertino": 1303,
      "evandro": 1304,
      "anjos": 1305,
      "gertrudes": 1306,
      "ais": 1307,
      "iy": 1308,
      "andriy": 1309,
      "mano": 1310,
      "mama": 1311,
      "germano": 1312,
      "thais": 1313,
      "mamadu": 1314,
      "pat": 1315,
      "xico": 1316,
      "fabiano": 1317,
      "leonilde": 1318,
      "gilson": 1319,
      "mentina": 1320,
      "clementina": 1321,
      "paty": 1322,
      "ag": 1323,
      "clar": 1324,
      "ksandr": 1325,
      "nar": 1326,
      "ner": 1327,
      "pin": 1328,
      "wag": 1329,
      "altina": 1330,
      "ciso": 1331,
      "sile": 1332,
      "vasile": 1333,
      "cesaltina": 1334,
      "suzete": 1335,
      "oleksandr": 1336,
      "clarinda": 1337,
      "narciso": 1338,
      "pinto": 1339,
      "wagner": 1340,
      "erio": 1341,
      "silverio": 1342,
      "benilde": 1343,
      "inacia": 1344,
      "alme": 1345,
      "silvest": 1346,
      "mendes": 1347,
      "nicolau": 1348,
      "constantino": 1349,
      "almeida": 1350,
      "silvestre": 1351,
      "ribe": 1352,
      "ribeiro": 1353,
      "dger": 1354,
      "tin": 1355,
      "ludger": 1356,
      "alter": 1357,
      "gualter": 1358,
      "agostinha": 1359,
      "tininha": 1360,
      "ludgero": 1361,
      "ael": 1362,
      "dy": 1363,
      "ei": 1364,
      "hei": 1365,
      "kael": 1366,
      "len": 1367,
      "my": 1368,
      "ondina": 1369,
      "lody": 1370,
      "volody": 1371,
      "eliseu": 1372,
      "mickael": 1373,
      "heitor": 1374,
      "lenia": 1375,
      "myr": 1376,
      "volodymyr": 1377,
      "ix": 1378,
      "idon": 1379,
      "sidon": 1380,
      "teix": 1381,
      "sidonio": 1382,
      "teixeira": 1383,
      "feliciano": 1384,
      "ho": 1385,
      "minho": 1386,
      "arte": 1387,
      "carval": 1388,
      "carminho": 1389,
      "dovina": 1390,
      "ludovina": 1391,
      "raim": 1392,
      "dinarte": 1393,
      "alcinda": 1394,
      "carvalho": 1395,
      "raimundo": 1396,
      "cul": 1397,
      "dias": 1398,
      "hercul": 1399,
      "herculano": 1400,
      "suel": 1401,
      "joaninha": 1402,
      "este": 1403,
      "fabia": 1404,
      "elisangela": 1405,
      "yuriy": 1406,
      "sueli": 1407,
      "estevao": 1408,
      "bra": 1409,
      "hor": 1410,
      "ten": 1411,
      "manela": 1412,
      "rosinda": 1413,
      "braima": 1414,
      "horten": 1415,
      "hortense": 1416,
      "bson": 1417,
      "mon": 1418,
      "robson": 1419,
      "teiro": 1420,
      "francelina": 1421,
      "vasyl": 1422,
      "monteiro": 1423,
      "biana": 1424,
      "mor": 1425,
      "pio": 1426,
      "pra": 1427,
      "pre": 1428,
      "zer": 1429,
      "bebiana": 1430,
      "ciosa": 1431,
      "alipio": 1432,
      "felismina": 1433,
      "moreira": 1434,
      "prazer": 1435,
      "preciosa": 1436,
      "prazeres": 1437,
      "oisa": 1438,
      "heloisa": 1439,
      "bete": 1440,
      "elisete": 1441,
      "ban": 1442,
      "cilda": 1443,
      "jana": 1444,
      "marinho": 1445,
      "cacilda": 1446,
      "quide": 1447,
      "orquide": 1448,
      "liban": 1449,
      "janaina": 1450,
      "orquidea": 1451,
      "libania": 1452,
      "mize": 1453,
      "vieira": 1454,
      "edmil": 1455,
      "cesario": 1456,
      "ivete": 1457,
      "edmilson": 1458,
      "cinda": 1459,
      "rre": 1460,
      "tila": 1461,
      "anaisa": 1462,
      "corre": 1463,
      "rocha": 1464,
      "ricardina": 1465,
      "rosinha": 1466,
      "felisberto": 1467,
      "correia": 1468,
      "guga": 1469,
      "ipa": 1470,
      "pipa": 1471,
      "ves": 1472,
      "ares": 1473,
      "soares": 1474,
      "henriqueta": 1475,
      "armandina": 1476,
      "sandrinha": 1477,
      "neves": 1478,
      "etan": 1479,
      "zilia": 1480,
      "caetan": 1481,
      "viria": 1482,
      "donzilia": 1483,
      "caetano": 1484,
      "viriato": 1485,
      "ap": 1486,
      "cida": 1487,
      "iela": 1488,
      "ziela": 1489,
      "ilidia": 1490,
      "graziela": 1491,
      "kikas": 1492,
      "arecida": 1493,
      "cleide": 1494,
      "aparecida": 1495,
      "iene": 1496,
      "jand": 1497,
      "cardo": 1498,
      "luciene": 1499,
      "jandira": 1500,
      "cardoso": 1501,
      "beli": 1502,
      "mao": 1503,
      "nes": 1504,
      "ola": 1505,
      "zilda": 1506,
      "ruca": 1507,
      "romao": 1508,
      "nunes": 1509,
      "frederica": 1510,
      "belita": 1511,
      "olavo": 1512,
      "lais": 1513,
      "aninhas": 1514,
      "pol": 1515,
      "carna": 1516,
      "encarna": 1517,
      "leopol": 1518,
      "encarnacao": 1519,
      "leopoldina": 1520,
      "eta": 1521,
      "isaqu": 1522,
      "liseta": 1523,
      "isaque": 1524,
      "ezinha": 1525,
      "uario": 1526,
      "das": 1527,
      "altino": 1528,
      "terezinha": 1529,
      "herlan": 1530,
      "januario": 1531,
      "herlander": 1532,
      "damia": 1533,
      "toninho": 1534,
      "silda": 1535,
      "cassilda": 1536,
      "merces": 1537,
      "damiao": 1538,
      "micas": 1539,
      "sole": 1540,
      "tixa": 1541,
      "soledade": 1542,
      "ados": 1543,
      "jonat": 1544,
      "lauren": 1545,
      "verinha": 1546,
      "tuxa": 1547,
      "adosinda": 1548,
      "jonatas": 1549,
      "laurentina": 1550,
      "becas": 1551
    },
    "merges": [
      "a n",
      "a r",
      "i a",
      "e l",
      "j o",
      "an a",
      "m ar",
      "d r",
      "i s",
      "i n",
      "i o",
      "c ar",
      "e r",
      "o n",
      "l o",
      "r i",
      "a t",
      "a u",
      "a o",
      "g o",
      "i l",
      "jo ao",
      "u el",
      "d o",
      "an dr",
      "in a",
      "mar ia",
      "d a",
      "p e",
      "r u",
      "l u",
      "e s",
      "p au",
      "s e",
      "a l",
      "dr o",
      "jo se",
      "pe dro",
      "e n",
      "n o",
      "i ana",
      "a b",
      "lu is",
      "c a",
      "l a",
      "andr e",
      "t a",
      "r a",
      "c o",
      "t o",
      "m i",
      "m an",
      "t on",
      "car lo",
      "carlo s",
      "an ton",
      "m a",
      "el a",
      "anton io",
      "pau lo",
      "v i",
      "man uel",
      "r o",
      "g uel",
      "mi guel",
      "er n",
      "ru i",
      "at ri",
      "il i",
      "ri car",
      "ricar do",
      "n u",
      "f ili",
      "t ia",
      "nu no",
      "c at",
      "an i",
      "ar a",
      "d io",
      "b ru",
      "tia go",
      "s o",
      "c ia",
      "f r",
      "is ab",
      "andr a",
      "d ani",
      "f ern",
      "fern an",
      "jo ana",
      "r is",
      "t e",
      "c ris",
      "r g",
      "u s",
      "bru no",
      "dio go",
      "s a",
      "c is",
      "fr an",
      "cris t",
      "pau la",
      "fran cis",
      "en a",
      "jo rg",
      "jorg e",
      "l au",
      "in es",
      "s on",
      "h el",
      "ar ina",
      "cat arina",
      "ri ta",
      "isab el",
      "i da",
      "car la",
      "al e",
      "ale x",
      "d ia",
      "to r",
      "francis co",
      "i m",
      "o l",
      "s andra",
      "f ia",
      "so fia",
      "d u",
      "c lau",
      "fili pe",
      "crist ina",
      "p atri",
      "l e",
      "fernan do",
      "b e",
      "t er",
      "mar iana",
      "q u",
      "patri cia",
      "d e",
      "s ara",
      "c e",
      "g ar",
      "i ca",
      "h u",
      "vi tor",
      "s us",
      "sus ana",
      "f at",
      "i ma",
      "g on",
      "fat ima",
      "du ar",
      "ca lo",
      "gon calo",
      "dani el",
      "hu go",
      "atri z",
      "be atriz",
      "mar ta",
      "ter es",
      "teres a",
      "mar gar",
      "margar ida",
      "clau dia",
      "v an",
      "mar co",
      "andre ia",
      "f a",
      "s er",
      "f ab",
      "p a",
      "fili pa",
      "ra fa",
      "g io",
      "ser gio",
      "son ia",
      "dr i",
      "car ol",
      "hel ena",
      "da vi",
      "carol ina",
      "c el",
      "j u",
      "dani ela",
      "fab io",
      "davi d",
      "ro dri",
      "mar io",
      "d er",
      "q uel",
      "rodri go",
      "b er",
      "ra quel",
      "s il",
      "a qu",
      "n a",
      "jo aqu",
      "sil v",
      "e duar",
      "b ela",
      "t an",
      "b en",
      "il ia",
      "le on",
      "joaqu im",
      "luis a",
      "fernan da",
      "an g",
      "ro sa",
      "d iana",
      "is a",
      "ber to",
      "n el",
      "on ica",
      "rafa el",
      "v er",
      "alex andre",
      "in da",
      "cat ia",
      "ju l",
      "g u",
      "tan ia",
      "ru ben",
      "manuel a",
      "e te",
      "z e",
      "l il",
      "v a",
      "ana bela",
      "r en",
      "o r",
      "alex andra",
      "m e",
      "d es",
      "eduar do",
      "lil iana",
      "nel son",
      "m onica",
      "hel der",
      "al da",
      "ver a",
      "h er",
      "ar do",
      "silv ia",
      "g ab",
      "l ara",
      "r des",
      "in o",
      "gab ri",
      "to ma",
      "toma s",
      "el isab",
      "l ena",
      "il her",
      "gu ilher",
      "i c",
      "c io",
      "lu rdes",
      "elisab ete",
      "c on",
      "guilher me",
      "a f",
      "in h",
      "h en",
      "ri qu",
      "hen riqu",
      "henriqu e",
      "leon or",
      "es sa",
      "van essa",
      "g us",
      "j es",
      "an o",
      "a d",
      "on so",
      "af onso",
      "f alda",
      "ma falda",
      "b ern",
      "va s",
      "i ce",
      "e d",
      "b ar",
      "b ara",
      "bar bara",
      "e u",
      "n at",
      "i co",
      "v o",
      "g ra",
      "vas co",
      "m o",
      "el ia",
      "andr o",
      "duar te",
      "ce ic",
      "con ceic",
      "conceic ao",
      "m at",
      "bru na",
      "mar isa",
      "ren at",
      "da lena",
      "ma dalena",
      "ang ela",
      "a m",
      "s ica",
      "jes sica",
      "bern ardo",
      "lu cia",
      "ro s",
      "t el",
      "il de",
      "car ina",
      "cel ia",
      "mar cia",
      "al ice",
      "e m",
      "lu c",
      "al ia",
      "ru te",
      "m in",
      "el sa",
      "vi c",
      "a dr",
      "adr iana",
      "van ia",
      "f la",
      "fla v",
      "go s",
      "al berto",
      "fr e",
      "gra ca",
      "r e",
      "francis ca",
      "lau ra",
      "m ena",
      "clau dio",
      "t at",
      "tat iana",
      "mat ilde",
      "ar man",
      "gabri el",
      "v al",
      "ar io",
      "j a",
      "g a",
      "vic tor",
      "l i",
      "d ina",
      "f i",
      "t u",
      "au gus",
      "il a",
      "mar t",
      "c lara",
      "lo r",
      "crist iana",
      "ar tu",
      "artu r",
      "ang el",
      "renat o",
      "lo mena",
      "fi lomena",
      "le andro",
      "g er",
      "mar ina",
      "i ano",
      "em ilia",
      "en e",
      "mar cio",
      "s im",
      "t i",
      "so ra",
      "nat alia",
      "c es",
      "arman do",
      "inh o",
      "e manuel",
      "mar cel",
      "inh a",
      "jo el",
      "sora ia",
      "l ia",
      "l ina",
      "gabri ela",
      "al v",
      "jul iana",
      "i vo",
      "m uel",
      "sa muel",
      "o ra",
      "jul ia",
      "g il",
      "marcel o",
      "ces ar",
      "ol ga",
      "t ina",
      "l an",
      "flav io",
      "l ene",
      "mar lene",
      "rafa ela",
      "jul io",
      "do min",
      "ca s",
      "i de",
      "am elia",
      "i v",
      "ro ger",
      "roger io",
      "sim ao",
      "leon ardo",
      "g ina",
      "ar o",
      "au ro",
      "alv aro",
      "l ce",
      "du lce",
      "m en",
      "fre der",
      "cel es",
      "c h",
      "i ra",
      "domin gos",
      "tel ma",
      "il da",
      "mart im",
      "freder ico",
      "mi ca",
      "augus to",
      "ta vo",
      "gus tavo",
      "ros ario",
      "car mo",
      "ed gar",
      "eduar da",
      "b ora",
      "de bora",
      "crist iano",
      "g en",
      "eu gen",
      "ro berto",
      "d in",
      "el i",
      "mar a",
      "van da",
      "tel mo",
      "go r",
      "celes te",
      "i e",
      "s u",
      "lu cas",
      "na dia",
      "ce u",
      "marco s",
      "i ren",
      "iren e",
      "li dia",
      "au l",
      "angel o",
      "il io",
      "ela ide",
      "ad elaide",
      "ol inda",
      "im e",
      "ja ime",
      "s ao",
      "or lan",
      "lo u",
      "on e",
      "c ilia",
      "ce cilia",
      "an d",
      "el is",
      "r aul",
      "do ra",
      "t h",
      "i te",
      "el ino",
      "c and",
      "m ila",
      "vi rg",
      "orlan do",
      "z a",
      "el isa",
      "a gos",
      "agos t",
      "a dri",
      "i gor",
      "adri ano",
      "ida lia",
      "de te",
      "e va",
      "i r",
      "f lor",
      "din is",
      "s andro",
      "anton ia",
      "renat a",
      "al fre",
      "alfre do",
      "c in",
      "m il",
      "eugen ia",
      "car men",
      "er ica",
      "ver onica",
      "m inda",
      "o s",
      "agost inho",
      "r ia",
      "e us",
      "c idalia",
      "ch a",
      "g lor",
      "lu ana",
      "glor ia",
      "t ino",
      "o dete",
      "an ca",
      "re gina",
      "val ter",
      "m auro",
      "flav ia",
      "i van",
      "mar ilia",
      "b ia",
      "lu z",
      "g ia",
      "li gia",
      "er ico",
      "am erico",
      "cand ida",
      "in ia",
      "i k",
      "al c",
      "carlo ta",
      "mi ra",
      "al b",
      "andre a",
      "do r",
      "le ti",
      "leon el",
      "leti cia",
      "x ana",
      "man el",
      "a s",
      "g da",
      "ma gda",
      "al ina",
      "ja cin",
      "de olinda",
      "iv one",
      "augus ta",
      "m berto",
      "hu mberto",
      "luc iana",
      "n ico",
      "mica ela",
      "m er",
      "n an",
      "gra c",
      "fab iana",
      "ol iv",
      "il son",
      "mica el",
      "an e",
      "ab ilio",
      "vitor ia",
      "ie ta",
      "s andr",
      "i ris",
      "l is",
      "virg inia",
      "es t",
      "ad elino",
      "e ira",
      "s tan",
      "con stan",
      "os car",
      "ren co",
      "lou renco",
      "ar minda",
      "a ida",
      "gu ida",
      "hel io",
      "in e",
      "luc ilia",
      "k ik",
      "ab el",
      "l ang",
      "so lang",
      "solang e",
      "s an",
      "ton y",
      "z ab",
      "eli zab",
      "f o",
      "i ta",
      "l fo",
      "do lfo",
      "nico le",
      "auro ra",
      "el iana",
      "ca mila",
      "se b",
      "ir ina",
      "ida lina",
      "a man",
      "ar min",
      "luc inda",
      "armin do",
      "l ino",
      "n ice",
      "lu i",
      "ani ta",
      "eu nice",
      "mi ro",
      "b i",
      "x a",
      "bi anca",
      "d ite",
      "k at",
      "l inda",
      "m el",
      "mi ria",
      "ju dite",
      "kat ia",
      "miria m",
      "z elia",
      "d ario",
      "c ila",
      "al ber",
      "n eu",
      "neu za",
      "cel so",
      "lou rdes",
      "constan ca",
      "mi c",
      "flor bela",
      "s al",
      "go re",
      "va dor",
      "sal vador",
      "l ar",
      "k e",
      "d an",
      "u ri",
      "mar y",
      "w ilson",
      "ri cio",
      "ed ite",
      "g is",
      "h n",
      "jo hn",
      "gis ela",
      "ad elia",
      "le o",
      "z ira",
      "al zira",
      "d el",
      "an na",
      "nel ia",
      "gil berto",
      "del f",
      "b al",
      "ani bal",
      "oliv ia",
      "i ara",
      "es mer",
      "esmer alda",
      "v in",
      "lo me",
      "sa lome",
      "jes us",
      "is au",
      "isau ra",
      "r inda",
      "lau rinda",
      "ani e",
      "l in",
      "ar lin",
      "arlin do",
      "cel ina",
      "e th",
      "e ma",
      "el io",
      "vi er",
      "xa vier",
      "a cha",
      "nat acha",
      "tia o",
      "as tiao",
      "seb astiao",
      "el vi",
      "elvi ra",
      "her min",
      "silv a",
      "ar iana",
      "mat eus",
      "luc iano",
      "angel ina",
      "sim one",
      "ro dolfo",
      "to ze",
      "o t",
      "alber tina",
      "ot ilia",
      "mic hel",
      "al i",
      "l ili",
      "jacin ta",
      "grac inda",
      "lar is",
      "b el",
      "d en",
      "n y",
      "p al",
      "is e",
      "den ise",
      "pal mira",
      "da de",
      "en te",
      "be ta",
      "joaqu ina",
      "jul ieta",
      "vic ente",
      "da lil",
      "es to",
      "ern esto",
      "dalil a",
      "a v",
      "d ino",
      "av elino",
      "f eli",
      "no em",
      "gu i",
      "alb ino",
      "lui z",
      "feli pe",
      "noem ia",
      "arman da",
      "m elis",
      "davi de",
      "nan da",
      "melis sa",
      "virg ilio",
      "m au",
      "mau ricio",
      "n al",
      "ar nal",
      "kik a",
      "arnal do",
      "val en",
      "el ina",
      "ad elina",
      "r berto",
      "no rberto",
      "el ena",
      "io lan",
      "su z",
      "iolan da",
      "l ic",
      "gore ti",
      "z ita",
      "il car",
      "am ilcar",
      "mi cha",
      "ros ar",
      "angel ica",
      "micha el",
      "d ie",
      "ar e",
      "die go",
      "n io",
      "ju nio",
      "junio r",
      "h ern",
      "l ilia",
      "n ina",
      "hern ani",
      "c k",
      "er cia",
      "patri ck",
      "nat ercia",
      "ili dio",
      "silv ana",
      "silv io",
      "ga s",
      "est ela",
      "ed na",
      "eugen io",
      "h ora",
      "i ro",
      "hora cio",
      "c us",
      "cus to",
      "a ma",
      "de u",
      "de mar",
      "bern ar",
      "ros alina",
      "val demar",
      "mart inho",
      "ama deu",
      "u l",
      "ri co",
      "eu rico",
      "is es",
      "mo ises",
      "ton i",
      "v iana",
      "ia go",
      "vi viana",
      "th iago",
      "su se",
      "i dia",
      "n idia",
      "v ao",
      "to s",
      "ser af",
      "ti ta",
      "san tos",
      "seraf im",
      "al ine",
      "z inha",
      "er mel",
      "fr ed",
      "jacin to",
      "ermel inda",
      "ke vin",
      "k arina",
      "p er",
      "is ma",
      "luz ia",
      "sandr ina",
      "elizab ete",
      "isma el",
      "c ta",
      "o cta",
      "v io",
      "is ilda",
      "alc ina",
      "lis ete",
      "octa vio",
      "mil ene",
      "s el",
      "pau l",
      "es ter",
      "aman dio",
      "f elis",
      "nan do",
      "man tino",
      "dia mantino",
      "z are",
      "andr ina",
      "alex andrina",
      "na zare",
      "n ela",
      "ro me",
      "nu ria",
      "dan y",
      "rome u",
      "l isa",
      "y a",
      "be a",
      "val do",
      "os valdo",
      "qu im",
      "elizab eth",
      "hermin ia",
      "ber ta",
      "da lia",
      "san tiago",
      "be to",
      "k el",
      "l y",
      "ar men",
      "ol e",
      "kel ly",
      "armen io",
      "i ete",
      "ra miro",
      "grac iete",
      "l ana",
      "t lana",
      "m ina",
      "r ina",
      "s ab",
      "flor inda",
      "aman da",
      "sab rina",
      "delf ina",
      "i uri",
      "suz ana",
      "anton ieta",
      "hel ia",
      "sara h",
      "c laris",
      "n il",
      "mil ton",
      "claris se",
      "p ris",
      "ros alia",
      "pris cila",
      "h eus",
      "m ia",
      "r elio",
      "au relio",
      "nel io",
      "ed son",
      "mat heus",
      "y uri",
      "ar le",
      "er ia",
      "val eria",
      "valen tina",
      "arle te",
      "n do",
      "u ndo",
      "a der",
      "i to",
      "gor ete",
      "alb ano",
      "ader ito",
      "a ca",
      "z ul",
      "ju an",
      "victor ia",
      "alv es",
      "dor es",
      "aca cio",
      "zul mira",
      "al dina",
      "mel anie",
      "c ao",
      "p ie",
      "ti to",
      "eli ane",
      "suse te",
      "pie dade",
      "v ina",
      "y l",
      "dani lo",
      "f el",
      "h anie",
      "n e",
      "p hanie",
      "s te",
      "am alia",
      "fel ic",
      "ste phanie",
      "i do",
      "cand ido",
      "to vao",
      "cris tovao",
      "silv ina",
      "cin tia",
      "delf im",
      "ben ed",
      "ros ana",
      "rosar ia",
      "bened ita",
      "man u",
      "le ila",
      "dan ny",
      "mi mi",
      "f er",
      "n eus",
      "re ira",
      "fer reira",
      "neus a",
      "jo na",
      "jona s",
      "a c",
      "isa ac",
      "l alia",
      "eu lalia",
      "alc ino",
      "f au",
      "s to",
      "ali cia",
      "fau sto",
      "in io",
      "lic inio",
      "an der",
      "car minda",
      "pe ter",
      "mi ke",
      "luc y",
      "ander son",
      "c ela",
      "d ilia",
      "j an",
      "p ar",
      "mar cela",
      "gas par",
      "er ik",
      "ad ao",
      "ad ilia",
      "erik a",
      "s ale",
      "na din",
      "ze zinha",
      "michel le",
      "sale te",
      "nadin e",
      "e du",
      "ze za",
      "e ila",
      "lu cio",
      "ch eila",
      "oliv eira",
      "bernar dino",
      "b r",
      "ina cio",
      "br anca",
      "an ter",
      "anter o",
      "r ela",
      "ro se",
      "est rela",
      "i des",
      "to me",
      "ze ca",
      "alc ides",
      "john ny",
      "k s",
      "l do",
      "o ks",
      "ar d",
      "ri ch",
      "ina ldo",
      "ta mara",
      "re inaldo",
      "custo dio",
      "oks ana",
      "rich ard",
      "e mi",
      "fat inha",
      "guilher mina",
      "emi dio",
      "s ta",
      "co sta",
      "celes tino",
      "per eira",
      "c le",
      "k ar",
      "elisab eth",
      "kar la",
      "n cao",
      "y ara",
      "mart inha",
      "su ncao",
      "as suncao",
      "es sandra",
      "al essandra",
      "sus y",
      "j p",
      "ru th",
      "ad ilson",
      "nat alina",
      "andre i",
      "a ir",
      "d on",
      "f ina",
      "i us",
      "m ilia",
      "t ra",
      "jo ta",
      "jo su",
      "in s",
      "pe tra",
      "jose fina",
      "fa milia",
      "nel o",
      "gab i",
      "ic ius",
      "mart ins",
      "lui za",
      "vin icius",
      "air es",
      "josu e",
      "h il",
      "j er",
      "on im",
      "do s",
      "rodri gu",
      "gil da",
      "ch ico",
      "hil ario",
      "jer onim",
      "rodrigu es",
      "jeronim o",
      "do lor",
      "le andra",
      "ger son",
      "ole g",
      "dolor es",
      "gab y",
      "mil u",
      "mil ena",
      "sandr ine",
      "lic inia",
      "paul inho",
      "so us",
      "sora ya",
      "hermin io",
      "ne ide",
      "sous a",
      "e o",
      "g eo",
      "au re",
      "no elia",
      "vi vi",
      "rg ina",
      "na ir",
      "marcel ino",
      "laris sa",
      "geo rgina",
      "aure a",
      "vivi ane",
      "a dolfo",
      "g h",
      "s in",
      "t ti",
      "be ca",
      "re beca",
      "gore tti",
      "sin gh",
      "isab ela",
      "silv ino",
      "em ilio",
      "custo dia",
      "sel ma",
      "e tlana",
      "i ane",
      "s v",
      "an inha",
      "crist iane",
      "lis andra",
      "sv etlana",
      "m undo",
      "lo pe",
      "al mer",
      "sa me",
      "ed mundo",
      "kik o",
      "lope s",
      "almer inda",
      "same iro",
      "i dro",
      "an sel",
      "is idro",
      "jan ete",
      "ansel mo",
      "s yl",
      "vi e",
      "syl vie",
      "i miro",
      "m es",
      "go mes",
      "domin gas",
      "cas imiro",
      "e ze",
      "i el",
      "p il",
      "jose fa",
      "qu iel",
      "quel ine",
      "ros angela",
      "ja queline",
      "alb ina",
      "bel miro",
      "eze quiel",
      "pil ar",
      "b ina",
      "p ia",
      "s aul",
      "ru bina",
      "hel ga",
      "im pia",
      "ol impia",
      "bernar dete",
      "paul inha",
      "e tel",
      "io n",
      "patri cio",
      "teres inha",
      "felis bela",
      "etel vina",
      "de cio",
      "bel inha",
      "rosar inho",
      "ida de",
      "orlan da",
      "elis io",
      "felic idade",
      "c lo",
      "i va",
      "t ilde",
      "clo tilde",
      "b ri",
      "g ida",
      "t im",
      "du da",
      "ben to",
      "bel mira",
      "valen tim",
      "bri gida",
      "o dilia",
      "s es",
      "u lis",
      "v inda",
      "mar qu",
      "es per",
      "ben vinda",
      "nat ali",
      "nil za",
      "ulis ses",
      "marqu es",
      "esper anca",
      "natali ya",
      "f elia",
      "o felia",
      "fernan des",
      "cel io",
      "lili ane",
      "a mar",
      "j us",
      "t inha",
      "io mar",
      "ri tinha",
      "gu iomar",
      "nil ton",
      "amar o",
      "jus tino",
      "fab ricio",
      "eu seb",
      "euseb io",
      "jo ca",
      "mi m",
      "vitor ino",
      "ben ja",
      "benja mim",
      "c r",
      "c alves",
      "m ino",
      "r mino",
      "pau lino",
      "ca io",
      "gon calves",
      "em ilde",
      "fi rmino",
      "cr emilde",
      "i vi",
      "n is",
      "s vi",
      "dio nis",
      "nat ivi",
      "svi tlana",
      "dionis io",
      "nativi dade",
      "e v",
      "t ru",
      "y na",
      "an jo",
      "ru y",
      "ger tru",
      "ir yna",
      "alber tino",
      "ev andro",
      "anjo s",
      "gertru des",
      "a is",
      "i y",
      "andr iy",
      "man o",
      "ma ma",
      "ger mano",
      "th ais",
      "mama du",
      "p at",
      "x ico",
      "fab iano",
      "leon ilde",
      "gil son",
      "men tina",
      "cle mentina",
      "pat y",
      "a g",
      "c lar",
      "k sandr",
      "n ar",
      "n er",
      "p in",
      "w ag",
      "al tina",
      "cis o",
      "sil e",
      "va sile",
      "ces altina",
      "suz ete",
      "ole ksandr",
      "clar inda",
      "nar ciso",
      "pin to",
      "wag ner",
      "er io",
      "silv erio",
      "ben ilde",
      "ina cia",
      "al me",
      "silv est",
      "men des",
      "nico lau",
      "constan tino",
      "alme ida",
      "silvest re",
      "ri be",
      "ribe iro",
      "d ger",
      "t in",
      "lu dger",
      "al ter",
      "gu alter",
      "agost inha",
      "tin inha",
      "ludger o",
      "a el",
      "d y",
      "e i",
      "h ei",
      "k ael",
      "l en",
      "m y",
      "on dina",
      "lo dy",
      "vo lody",
      "elis eu",
      "mic kael",
      "hei tor",
      "len ia",
      "my r",
      "volody myr",
      "i x",
      "i don",
      "s idon",
      "te ix",
      "sidon io",
      "teix eira",
      "felic iano",
      "h o",
      "m inho",
      "ar te",
      "car val",
      "car minho",
      "do vina",
      "lu dovina",
      "ra im",
      "din arte",
      "alc inda",
      "carval ho",
      "raim undo",
      "c ul",
      "dia s",
      "her cul",
      "hercul ano",
      "s uel",
      "jo aninha",
      "es te",
      "fab ia",
      "elis angela",
      "yuri y",
      "suel i",
      "este vao",
      "b ra",
      "h or",
      "t en",
      "man ela",
      "ros inda",
      "bra ima",
      "hor ten",
      "horten se",
      "b son",
      "m on",
      "ro bson",
      "te iro",
      "fran celina",
      "vas yl",
      "mon teiro",
      "b iana",
      "m or",
      "p io",
      "p ra",
      "p re",
      "z er",
      "be biana",
      "cio sa",
      "ali pio",
      "felis mina",
      "mor eira",
      "pra zer",
      "pre ciosa",
      "prazer es",
      "o isa",
      "hel oisa",
      "be te",
      "elis ete",
      "b an",
      "c ilda",
      "j ana",
      "mar inho",
      "ca cilda",
      "qu ide",
      "or quide",
      "li ban",
      "jana ina",
      "orquide a",
      "liban ia",
      "mi ze",
      "vi eira",
      "ed mil",
      "ces ario",
      "iv ete",
      "edmil son",
      "c inda",
      "r re",
      "t ila",
      "ana isa",
      "co rre",
      "ro cha",
      "ricar dina",
      "ros inha",
      "felis berto",
      "corre ia",
      "gu ga",
      "i pa",
      "p ipa",
      "v es",
      "ar es",
      "so ares",
      "henrique ta",
      "arman dina",
      "sandr inha",
      "ne ves",
      "e tan",
      "z ilia",
      "ca etan",
      "vi ria",
      "don zilia",
      "caetan o",
      "viria to",
      "a p",
      "c ida",
      "i ela",
      "z iela",
      "ili dia",
      "gra ziela",
      "kik as",
      "are cida",
      "cle ide",
      "ap arecida",
      "i ene",
      "j and",
      "car do",
      "luc iene",
      "jand ira",
      "cardo so",
      "b eli",
      "m ao",
      "n es",
      "o la",
      "z ilda",
      "ru ca",
      "ro mao",
      "nu nes",
      "freder ica",
      "beli ta",
      "ola vo",
      "la is",
      "aninha s",
      "p ol",
      "car na",
      "en carna",
      "leo pol",
      "encarna cao",
      "leopol dina",
      "e ta",
      "is aqu",
      "lis eta",
      "isaqu e",
      "e zinha",
      "u ario",
      "da s",
      "al tino",
      "ter ezinha",
      "her lan",
      "jan uario",
      "herlan der",
      "da mia",
      "ton inho",
      "sil da",
      "cas silda",
      "mer ces",
      "damia o",
      "mi cas",
      "so le",
      "ti xa",
      "sole dade",
      "a dos",
      "jo nat",
      "lau ren",
      "ver inha",
      "tu xa",
      "ados inda",
      "jonat as",
      "lauren tina",
      "be cas"
    ]
  }
}