{
  "version": "1.0",
  "truncation": null,
  "padding": null,
  "added_tokens": [
    {
      "id": 0,
      "content": "[UNK]",
      "single_word": false,
      "lstrip": false,
      "rstrip": false,
      "normalized": false,
      "special": true
    },
    {
      "id": 1,
      "content": "[CLS]",
      "single_word": false,
      "lstrip": false,
      "rstrip": false,
      "normalized": false,
      "special": true
    },
    {
      "id": 2,
      "content": "[SEP]",
      "single_word": false,
      "lstrip": false,
      "rstrip": false,
      "normalized": false,
      "special": true
    },
    {
      "id": 3,
      "content": "[PAD]",
      "single_word": false,
      "lstrip": false,
      "rstrip": false,
      "normalized": false,
      "special": true
    },
    {
      "id": 4,
      "content": "[MASK]",
      "single_word": false,
      "lstrip": false,
      "rstrip": false,
      "normalized": false,
      "special": true
    }
  ],
  "normalizer": null,
  "pre_tokenizer": {
    "type": "Whitespace"
  },
  "post_processor": null,
  "decoder": null,
  "model": {
    "type": "BPE",
    "dropout": null,
    "unk_token": "[UNK]",
    "continuing_subword_prefix": null,
    "end_of_word_suffix": null,
    "fuse_unk": false,
    "vocab": {
      "[UNK]": 0,
      "[CLS]": 1,
      "[SEP]": 2,
      "[PAD]": 3,
      "[MASK]": 4,
      "-": 5,
      "a": 6,
      "b": 7,
      "c": 8,
      "d": 9,
      "e": 10,
      "f": 11,
      "g": 12,
      "h": 13,
      "i": 14,
      "j": 15,
      "k": 16,
      "l": 17,
      "m": 18,
      "n": 19,
      "o": 20,
      "p": 21,
      "q": 22,
      "r": 23,
      "s": 24,
      "t": 25,
      "u": 26,
      "v": 27,
      "w": 28,
      "x": 29,
      "y": 30,
      "z": 31,
      "an": 32,
      "ri": 33,
      "di": 34,
      "ma": 35,
      "en": 36,
      "in": 37,
      "ha": 38,
      "ra": 39,
      "us": 40,
      "li": 41,
      "er": 42,
      "dy": 43,
      "mad": 44,
      "to": 45,
      "ny": 46,
      "ti": 47,
      "de": 48,
      "da": 49,
      "ry": 50,
      "ang": 51,
      "wi": 52,
      "yu": 53,
      "mu": 54,
      "ag": 55,
      "wan": 56,
      "ni": 57,
      "na": 58,
      "hen": 59,
      "am": 60,
      "ah": 61,
      "ari": 62,
      "and": 63,
      "su": 64,
      "ta": 65,
      "vi": 66,
      "ham": 67,
      "al": 68,
      "anto": 69,
      "agus": 70,
      "her": 71,
      "hammad": 72,
      "jo": 73,
      "bu": 74,
      "ul": 75,
      "si": 76,
      "el": 77,
      "man": 78,
      "ch": 79,
      "ar": 80,
      "enny": 81,
      "muhammad": 82,
      "dra": 83,
      "ro": 84,
      "ani": 85,
      "ir": 86,
      "han": 87,
      "ly": 88,
      "ka": 89,
      "tri": 90,
      "nu": 91,
      "no": 92,
      "et": 93,
      "es": 94,
      "ed": 95,
      "ina": 96,
      "ko": 97,
      "ky": 98,
      "ya": 99,
      "budi": 100,
      "mo": 101,
      "yo": 102,
      "ana": 103,
      "ng": 104,
      "har": 105,
      "bang": 106,
      "adi": 107,
      "ru": 108,
      "ab": 109,
      "andi": 110,
      "re": 111,
      "fi": 112,
      "bam": 113,
      "bambang": 114,
      "sy": 115,
      "pu": 116,
      "sri": 117,
      "win": 118,
      "mi": 119,
      "nur": 120,
      "eddy": 121,
      "ahmad": 122,
      "sa": 123,
      "yan": 124,
      "do": 125,
      "ji": 126,
      "as": 127,
      "te": 128,
      "lia": 129,
      "fa": 130,
      "hendra": 131,
      "gi": 132,
      "ric": 133,
      "inda": 134,
      "indra": 135,
      "wa": 136,
      "ris": 137,
      "ga": 138,
      "dewi": 139,
      "nny": 140,
      "andre": 141,
      "gu": 142,
      "hend": 143,
      "ki": 144,
      "mas": 145,
      "andy": 146,
      "abd": 147,
      "ca": 148,
      "ria": 149,
      "tu": 150,
      "iwan": 151,
      "dwi": 152,
      "riz": 153,
      "abdul": 154,
      "fr": 155,
      "rudy": 156,
      "eko": 157,
      "dian": 158,
      "hamad": 159,
      "andra": 160,
      "arie": 161,
      "sus": 162,
      "arif": 163,
      "my": 164,
      "tin": 165,
      "erry": 166,
      "wah": 167,
      "wahyu": 168,
      "san": 169,
      "dang": 170,
      "hi": 171,
      "so": 172,
      "ung": 173,
      "dani": 174,
      "lina": 175,
      "chmad": 176,
      "mmy": 177,
      "siti": 178,
      "agung": 179,
      "ep": 180,
      "ayu": 181,
      "johan": 182,
      "ho": 183,
      "joko": 184,
      "vin": 185,
      "lu": 186,
      "achmad": 187,
      "linda": 188,
      "eni": 189,
      "ade": 190,
      "yuli": 191,
      "herman": 192,
      "fran": 193,
      "maria": 194,
      "is": 195,
      "wil": 196,
      "andri": 197,
      "davi": 198,
      "david": 199,
      "ber": 200,
      "bert": 201,
      "ali": 202,
      "didi": 203,
      "tan": 204,
      "fan": 205,
      "mar": 206,
      "sury": 207,
      "edy": 208,
      "cha": 209,
      "eli": 210,
      "ty": 211,
      "edi": 212,
      "eng": 213,
      "chris": 214,
      "eka": 215,
      "elly": 216,
      "ex": 217,
      "ima": 218,
      "alex": 219,
      "ak": 220,
      "endang": 221,
      "dan": 222,
      "za": 223,
      "war": 224,
      "daniel": 225,
      "sis": 226,
      "ad": 227,
      "ste": 228,
      "ferry": 229,
      "ida": 230,
      "novi": 231,
      "ku": 232,
      "herry": 233,
      "by": 234,
      "van": 235,
      "rudi": 236,
      "tina": 237,
      "hadi": 238,
      "imam": 239,
      "bo": 240,
      "benny": 241,
      "hendri": 242,
      "arief": 243,
      "lili": 244,
      "irwan": 245,
      "ci": 246,
      "heru": 247,
      "rina": 248,
      "tya": 249,
      "guna": 250,
      "erwin": 251,
      "hari": 252,
      "tra": 253,
      "va": 254,
      "yudi": 255,
      "dar": 256,
      "tna": 257,
      "yanto": 258,
      "ratna": 259,
      "diana": 260,
      "anton": 261,
      "lie": 262,
      "cky": 263,
      "andreas": 264,
      "ja": 265,
      "pri": 266,
      "bby": 267,
      "rah": 268,
      "ira": 269,
      "ricky": 270,
      "he": 271,
      "via": 272,
      "rus": 273,
      "tho": 274,
      "yus": 275,
      "muhamad": 276,
      "harry": 277,
      "guh": 278,
      "ddy": 279,
      "lily": 280,
      "fir": 281,
      "micha": 282,
      "michael": 283,
      "chandra": 284,
      "den": 285,
      "gunawan": 286,
      "yuni": 287,
      "ary": 288,
      "hary": 289,
      "henny": 290,
      "il": 291,
      "ke": 292,
      "yohan": 293,
      "teguh": 294,
      "sia": 295,
      "rini": 296,
      "henry": 297,
      "asep": 298,
      "fitri": 299,
      "denny": 300,
      "mat": 301,
      "angga": 302,
      "indah": 303,
      "wati": 304,
      "bayu": 305,
      "me": 306,
      "tony": 307,
      "syah": 308,
      "rid": 309,
      "ivan": 310,
      "nia": 311,
      "harto": 312,
      "anita": 313,
      "tau": 314,
      "eric": 315,
      "jar": 316,
      "uf": 317,
      "lim": 318,
      "surya": 319,
      "fari": 320,
      "heri": 321,
      "rita": 322,
      "etty": 323,
      "hn": 324,
      "teddy": 325,
      "john": 326,
      "evi": 327,
      "wo": 328,
      "ce": 329,
      "ut": 330,
      "liam": 331,
      "tommy": 332,
      "william": 333,
      "pet": 334,
      "sugi": 335,
      "nda": 336,
      "made": 337,
      "robert": 338,
      "bagus": 339,
      "putra": 340,
      "yenny": 341,
      "dedy": 342,
      "jimmy": 343,
      "hasan": 344,
      "nica": 345,
      "dede": 346,
      "fajar": 347,
      "yanti": 348,
      "wawan": 349,
      "firman": 350,
      "aditya": 351,
      "fik": 352,
      "yohanes": 353,
      "hartono": 354,
      "fransis": 355,
      "nes": 356,
      "erna": 357,
      "tia": 358,
      "reza": 359,
      "muly": 360,
      "nan": 361,
      "ing": 362,
      "mohammad": 363,
      "yusuf": 364,
      "eva": 365,
      "roy": 366,
      "kevin": 367,
      "tik": 368,
      "nius": 369,
      "albert": 370,
      "antonius": 371,
      "rian": 372,
      "dina": 373,
      "edwin": 374,
      "putri": 375,
      "lvia": 376,
      "anna": 377,
      "rizal": 378,
      "dedi": 379,
      "ridwan": 380,
      "feli": 381,
      "ronny": 382,
      "dhi": 383,
      "nani": 384,
      "ren": 385,
      "hery": 386,
      "nurul": 387,
      "ef": 388,
      "ek": 389,
      "lam": 390,
      "slam": 391,
      "hard": 392,
      "richard": 393,
      "slamet": 394,
      "moc": 395,
      "djoko": 396,
      "dia": 397,
      "aris": 398,
      "ba": 399,
      "ven": 400,
      "irma": 401,
      "steven": 402,
      "inta": 403,
      "amsu": 404,
      "im": 405,
      "dya": 406,
      "era": 407,
      "ful": 408,
      "iful": 409,
      "abu": 410,
      "maya": 411,
      "hendry": 412,
      "nina": 413,
      "muel": 414,
      "ulus": 415,
      "satri": 416,
      "samuel": 417,
      "toto": 418,
      "tius": 419,
      "joni": 420,
      "sigi": 421,
      "rahmat": 422,
      "sigit": 423,
      "susan": 424,
      "kman": 425,
      "le": 426,
      "din": 427,
      "devi": 428,
      "ander": 429,
      "lukman": 430,
      "willy": 431,
      "alexander": 432,
      "ika": 433,
      "sep": 434,
      "ryan": 435,
      "eth": 436,
      "abeth": 437,
      "fais": 438,
      "taufik": 439,
      "faisal": 440,
      "fer": 441,
      "dimas": 442,
      "dicky": 443,
      "heng": 444,
      "vivi": 445,
      "donny": 446,
      "rnia": 447,
      "mohamad": 448,
      "kurnia": 449,
      "amsul": 450,
      "pa": 451,
      "wayan": 452,
      "thomas": 453,
      "nin": 454,
      "diah": 455,
      "kang": 456,
      "les": 457,
      "nana": 458,
      "sari": 459,
      "tian": 460,
      "hendro": 461,
      "christian": 462,
      "farida": 463,
      "esia": 464,
      "ther": 465,
      "irfan": 466,
      "moch": 467,
      "theresia": 468,
      "lisa": 469,
      "rizky": 470,
      "alu": 471,
      "gra": 472,
      "iman": 473,
      "ret": 474,
      "deddy": 475,
      "robby": 476,
      "ilham": 477,
      "grace": 478,
      "retno": 479,
      "vera": 480,
      "rio": 481,
      "bunda": 482,
      "santi": 483,
      "frans": 484,
      "fen": 485,
      "deni": 486,
      "geng": 487,
      "hmad": 488,
      "ita": 489,
      "kar": 490,
      "ntu": 491,
      "raden": 492,
      "tot": 493,
      "sugeng": 494,
      "akhmad": 495,
      "tinus": 496,
      "ket": 497,
      "merry": 498,
      "ene": 499,
      "irene": 500,
      "edwar": 501,
      "didik": 502,
      "ketut": 503,
      "edward": 504,
      "ono": 505,
      "fenny": 506,
      "jenny": 507,
      "pi": 508,
      "amin": 509,
      "jaya": 510,
      "lis": 511,
      "fe": 512,
      "se": 513,
      "zul": 514,
      "freddy": 515,
      "susanto": 516,
      "nanang": 517,
      "seph": 518,
      "hengky": 519,
      "yulia": 520,
      "mawan": 521,
      "aji": 522,
      "oman": 523,
      "nyoman": 524,
      "agnes": 525,
      "nata": 526,
      "alvin": 527,
      "putu": 528,
      "kiki": 529,
      "adrian": 530,
      "hendrik": 531,
      "peter": 532,
      "leo": 533,
      "tang": 534,
      "eny": 535,
      "susi": 536,
      "mulyadi": 537,
      "cen": 538,
      "vincen": 539,
      "snu": 540,
      "antho": 541,
      "toni": 542,
      "wisnu": 543,
      "anthony": 544,
      "cto": 545,
      "tanto": 546,
      "erni": 547,
      "widya": 548,
      "victo": 549,
      "elda": 550,
      "adhi": 551,
      "irawan": 552,
      "imelda": 553,
      "paulus": 554,
      "victor": 555,
      "ld": 556,
      "nald": 557,
      "ronald": 558,
      "moh": 559,
      "cin": 560,
      "hinta": 561,
      "lenny": 562,
      "shinta": 563,
      "muh": 564,
      "tris": 565,
      "cindy": 566,
      "than": 567,
      "dyah": 568,
      "nathan": 569,
      "jonathan": 570,
      "tini": 571,
      "fanny": 572,
      "syarif": 573,
      "aan": 574,
      "jam": 575,
      "sandy": 576,
      "dadang": 577,
      "supri": 578,
      "gatot": 579,
      "james": 580,
      "elia": 581,
      "sandra": 582,
      "amir": 583,
      "amelia": 584,
      "arya": 585,
      "rach": 586,
      "ardi": 587,
      "ik": 588,
      "santo": 589,
      "sya": 590,
      "tonny": 591,
      "nita": 592,
      "herlina": 593,
      "sonny": 594,
      "novita": 595,
      "bowo": 596,
      "erick": 597,
      "setia": 598,
      "santoso": 599,
      "kus": 600,
      "uz": 601,
      "fauz": 602,
      "onica": 603,
      "rul": 604,
      "ver": 605,
      "yani": 606,
      "dini": 607,
      "haris": 608,
      "wiwi": 609,
      "arifin": 610,
      "tine": 611,
      "christine": 612,
      "mei": 613,
      "veronica": 614,
      "haji": 615,
      "joe": 616,
      "hans": 617,
      "budiman": 618,
      "doni": 619,
      "tuti": 620,
      "christina": 621,
      "mega": 622,
      "mochamad": 623,
      "intan": 624,
      "andry": 625,
      "andrew": 626,
      "danny": 627,
      "ssy": 628,
      "uar": 629,
      "anwar": 630,
      "dessy": 631,
      "nova": 632,
      "fian": 633,
      "felix": 634,
      "au": 635,
      "iq": 636,
      "bnu": 637,
      "ibnu": 638,
      "kan": 639,
      "enda": 640,
      "hanny": 641,
      "iskan": 642,
      "endah": 643,
      "iskandar": 644,
      "anni": 645,
      "inal": 646,
      "rati": 647,
      "agustinus": 648,
      "rizki": 649,
      "lucky": 650,
      "fanus": 651,
      "zainal": 652,
      "stefanus": 653,
      "lilis": 654,
      "annisa": 655,
      "ratih": 656,
      "bar": 657,
      "roni": 658,
      "monica": 659,
      "hardi": 660,
      "johanes": 661,
      "satria": 662,
      "char": 663,
      "hel": 664,
      "lan": 665,
      "set": 666,
      "arman": 667,
      "mira": 668,
      "yunita": 669,
      "natalia": 670,
      "charles": 671,
      "lanny": 672,
      "setyo": 673,
      "sen": 674,
      "pur": 675,
      "ck": 676,
      "candra": 677,
      "jan": 678,
      "sam": 679,
      "umi": 680,
      "rama": 681,
      "herm": 682,
      "esti": 683,
      "sylvia": 684,
      "jack": 685,
      "ian": 686,
      "umar": 687,
      "rika": 688,
      "mah": 689,
      "wanto": 690,
      "trisno": 691,
      "hand": 692,
      "jef": 693,
      "neng": 694,
      "hando": 695,
      "iis": 696,
      "jes": 697,
      "oli": 698,
      "randy": 699,
      "riri": 700,
      "desi": 701,
      "sica": 702,
      "silvia": 703,
      "lydia": 704,
      "abi": 705,
      "andika": 706,
      "yuliana": 707,
      "bobby": 708,
      "jessica": 709,
      "olivia": 710,
      "pan": 711,
      "gil": 712,
      "gro": 713,
      "aries": 714,
      "darwin": 715,
      "vincent": 716,
      "lus": 717,
      "lah": 718,
      "pra": 719,
      "reni": 720,
      "wandi": 721,
      "yadi": 722,
      "yoga": 723,
      "cak": 724,
      "abdullah": 725,
      "danang": 726,
      "haryanto": 727,
      "petrus": 728,
      "lusi": 729,
      "fah": 730,
      "iin": 731,
      "lalu": 732,
      "yeni": 733,
      "joseph": 734,
      "yat": 735,
      "mimi": 736,
      "saiful": 737,
      "dodi": 738,
      "riza": 739,
      "franky": 740,
      "martin": 741,
      "lilik": 742,
      "fransisca": 743,
      "fahmi": 744,
      "mang": 745,
      "ju": 746,
      "sta": 747,
      "zabeth": 748,
      "mutia": 749,
      "nadia": 750,
      "anasta": 751,
      "elizabeth": 752,
      "citra": 753,
      "rachmat": 754,
      "setiawan": 755,
      "juna": 756,
      "anastasia": 757,
      "bil": 758,
      "len": 759,
      "onny": 760,
      "sher": 761,
      "maul": 762,
      "yudhi": 763,
      "ellen": 764,
      "doddy": 765,
      "sony": 766,
      "fery": 767,
      "fendi": 768,
      "billy": 769,
      "sherly": 770,
      "maulana": 771,
      "dri": 772,
      "fyan": 773,
      "gna": 774,
      "igna": 775,
      "nd": 776,
      "untu": 777,
      "wul": 778,
      "ymo": 779,
      "indri": 780,
      "raymo": 781,
      "nik": 782,
      "puji": 783,
      "sofyan": 784,
      "wong": 785,
      "syaiful": 786,
      "aulia": 787,
      "ignatius": 788,
      "untung": 789,
      "wulan": 790,
      "raymond": 791,
      "lut": 792,
      "desy": 793,
      "syamsul": 794,
      "dody": 795,
      "gita": 796,
      "cia": 797,
      "farid": 798,
      "felicia": 799,
      "pto": 800,
      "kas": 801,
      "wahyudi": 802,
      "lukas": 803,
      "bi": 804,
      "uku": 805,
      "lita": 806,
      "dewa": 807,
      "budhi": 808,
      "irul": 809,
      "yati": 810,
      "teuku": 811,
      "siska": 812,
      "deny": 813,
      "rendy": 814,
      "dha": 815,
      "melly": 816,
      "sabeth": 817,
      "samsul": 818,
      "halim": 819,
      "dev": 820,
      "yudha": 821,
      "ardian": 822,
      "elisabeth": 823,
      "rusli": 824,
      "suna": 825,
      "arto": 826,
      "hus": 827,
      "la": 828,
      "welly": 829,
      "maman": 830,
      "tika": 831,
      "tiek": 832,
      "nila": 833,
      "nunu": 834,
      "boy": 835,
      "inge": 836,
      "kartika": 837,
      "wiwik": 838,
      "hermanto": 839,
      "kris": 840,
      "po": 841,
      "pak": 842,
      "wiwin": 843,
      "rony": 844,
      "handy": 845,
      "nugro": 846,
      "yogi": 847,
      "fifi": 848,
      "sugianto": 849,
      "mochammad": 850,
      "nugroho": 851,
      "gus": 852,
      "renny": 853,
      "daus": 854,
      "hendy": 855,
      "irvan": 856,
      "susy": 857,
      "johannes": 858,
      "prima": 859,
      "firdaus": 860,
      "kurniawan": 861,
      "ninik": 862,
      "gusti": 863,
      "hu": 864,
      "bin": 865,
      "djoni": 866,
      "ok": 867,
      "yana": 868,
      "ram": 869,
      "lies": 870,
      "titik": 871,
      "wira": 872,
      "heni": 873,
      "bintang": 874,
      "sup": 875,
      "radi": 876,
      "az": 877,
      "cah": 878,
      "ich": 879,
      "rani": 880,
      "erwan": 881,
      "wido": 882,
      "wijaya": 883,
      "suki": 884,
      "yanuar": 885,
      "riska": 886,
      "basuki": 887,
      "satrio": 888,
      "totok": 889,
      "handoko": 890,
      "widodo": 891,
      "ady": 892,
      "fry": 893,
      "udin": 894,
      "yun": 895,
      "yuyun": 896,
      "suwandi": 897,
      "hermawan": 898,
      "winda": 899,
      "fitria": 900,
      "nanda": 901,
      "fauzi": 902,
      "jeffry": 903,
      "bal": 904,
      "ike": 905,
      "ong": 906,
      "oki": 907,
      "wenny": 908,
      "anang": 909,
      "ratu": 910,
      "titin": 911,
      "sutrisno": 912,
      "tatang": 913,
      "handi": 914,
      "suryadi": 915,
      "rahman": 916,
      "evie": 917,
      "susanti": 918,
      "iqbal": 919,
      "helmi": 920,
      "sulis": 921,
      "bung": 922,
      "adji": 923,
      "asri": 924,
      "beny": 925,
      "rangga": 926,
      "riani": 927,
      "suci": 928,
      "yong": 929,
      "dony": 930,
      "didit": 931,
      "darma": 932,
      "syahrul": 933,
      "nining": 934,
      "yono": 935,
      "idi": 936,
      "kho": 937,
      "nen": 938,
      "vonny": 939,
      "dita": 940,
      "enal": 941,
      "deden": 942,
      "dadan": 943,
      "alfian": 944,
      "guntu": 945,
      "mardi": 946,
      "akbar": 947,
      "zaenal": 948,
      "effendi": 949,
      "fendy": 950,
      "junaidi": 951,
      "neneng": 952,
      "guntur": 953,
      "cep": 954,
      "cut": 955,
      "jang": 956,
      "jandra": 957,
      "oes": 958,
      "tjandra": 959,
      "ujang": 960,
      "yen": 961,
      "yetty": 962,
      "rif": 963,
      "usman": 964,
      "dayat": 965,
      "agoes": 966,
      "suwar": 967,
      "hidayat": 968,
      "alif": 969,
      "liem": 970,
      "cecep": 971,
      "gilang": 972,
      "yenni": 973,
      "ai": 974,
      "om": 975,
      "sinta": 976,
      "debby": 977,
      "widi": 978,
      "hendi": 979,
      "aldi": 980,
      "noer": 981,
      "edo": 982,
      "yulius": 983,
      "yulianto": 984,
      "niken": 985,
      "aisyah": 986,
      "apri": 987,
      "much": 988,
      "ddin": 989,
      "emmy": 990,
      "jemmy": 991,
      "uddin": 992,
      "riana": 993,
      "lih": 994,
      "budy": 995,
      "yok": 996,
      "yoyok": 997,
      "ruddy": 998,
      "pung": 999,
      "fad": 1000,
      "galih": 1001,
      "santy": 1002,
      "chairul": 1003,
      "priyo": 1004,
      "yohana": 1005,
      "ridho": 1006,
      "fransiska": 1007,
      "reno": 1008,
      "rully": 1009,
      "lutfi": 1010,
      "du": 1011,
      "iz": 1012,
      "icha": 1013,
      "lel": 1014,
      "tari": 1015,
      "mur": 1016,
      "heny": 1017,
      "agustina": 1018,
      "komang": 1019,
      "yayan": 1020,
      "windy": 1021,
      "faiz": 1022,
      "sugiarto": 1023,
      "lestari": 1024,
      "fauzan": 1025,
      "ririn": 1026,
      "bimo": 1027,
      "sunar": 1028,
      "lely": 1029,
      "faizal": 1030,
      "djohan": 1031,
      "gar": 1032,
      "pp": 1033,
      "pand": 1034,
      "tam": 1035,
      "lidya": 1036,
      "erny": 1037,
      "ron": 1038,
      "etha": 1039,
      "rumah": 1040,
      "sofian": 1041,
      "margar": 1042,
      "rusdi": 1043,
      "rustam": 1044,
      "mulyono": 1045,
      "nanik": 1046,
      "imron": 1047,
      "mutiara": 1048,
      "krisna": 1049,
      "popp": 1050,
      "pandu": 1051,
      "margaretha": 1052,
      "poppy": 1053,
      "bri": 1054,
      "dro": 1055,
      "rman": 1056,
      "tjo": 1057,
      "dinda": 1058,
      "dirman": 1059,
      "endro": 1060,
      "timah": 1061,
      "sudirman": 1062,
      "anik": 1063,
      "yos": 1064,
      "yoseph": 1065,
      "nurdin": 1066,
      "fatimah": 1067,
      "catu": 1068,
      "hariyanto": 1069,
      "feri": 1070,
      "febri": 1071,
      "nunung": 1072,
      "tjong": 1073,
      "catur": 1074,
      "ede": 1075,
      "gede": 1076,
      "hsan": 1077,
      "mmu": 1078,
      "netty": 1079,
      "tetty": 1080,
      "ummu": 1081,
      "mal": 1082,
      "timo": 1083,
      "andhi": 1084,
      "fiq": 1085,
      "rizka": 1086,
      "didin": 1087,
      "akmal": 1088,
      "darmawan": 1089,
      "taufiq": 1090,
      "fikri": 1091,
      "pit": 1092,
      "pipit": 1093,
      "ikhsan": 1094,
      "lusiana": 1095,
      "cahyo": 1096,
      "timotius": 1097,
      "andhika": 1098,
      "dh": 1099,
      "sel": 1100,
      "ery": 1101,
      "erlina": 1102,
      "tio": 1103,
      "wibowo": 1104,
      "ambar": 1105,
      "indrawati": 1106,
      "danu": 1107,
      "harianto": 1108,
      "haryono": 1109,
      "baiq": 1110,
      "ferdy": 1111,
      "seno": 1112,
      "panji": 1113,
      "raditya": 1114,
      "dhani": 1115,
      "selvi": 1116,
      "aj": 1117,
      "fandy": 1118,
      "phan": 1119,
      "shan": 1120,
      "sing": 1121,
      "tulus": 1122,
      "raka": 1123,
      "rachmad": 1124,
      "alwi": 1125,
      "gih": 1126,
      "wildan": 1127,
      "andrie": 1128,
      "stephan": 1129,
      "feby": 1130,
      "januar": 1131,
      "ajeng": 1132,
      "shanty": 1133,
      "singgih": 1134,
      "stephanus": 1135,
      "af": 1136,
      "asy": 1137,
      "dhar": 1138,
      "go": 1139,
      "gre": 1140,
      "iyan": 1141,
      "ldi": 1142,
      "nenny": 1143,
      "uma": 1144,
      "rius": 1145,
      "mariani": 1146,
      "hayu": 1147,
      "rahayu": 1148,
      "titiek": 1149,
      "deasy": 1150,
      "anggi": 1151,
      "nama": 1152,
      "aldy": 1153,
      "ardy": 1154,
      "hartanto": 1155,
      "winny": 1156,
      "astri": 1157,
      "tedy": 1158,
      "rinaldi": 1159,
      "kartini": 1160,
      "adhie": 1161,
      "kusuma": 1162,
      "wiwiek": 1163,
      "purnama": 1164,
      "devy": 1165,
      "huang": 1166,
      "ichwan": 1167,
      "afrizal": 1168,
      "dharma": 1169,
      "gorius": 1170,
      "gregorius": 1171,
      "asi": 1172,
      "bima": 1173,
      "fin": 1174,
      "fli": 1175,
      "teng": 1176,
      "toko": 1177,
      "ario": 1178,
      "suyanto": 1179,
      "alfin": 1180,
      "kifli": 1181,
      "andrian": 1182,
      "marlina": 1183,
      "martinus": 1184,
      "jaka": 1185,
      "zulkifli": 1186,
      "vincentius": 1187,
      "megawati": 1188,
      "helmy": 1189,
      "prasetyo": 1190,
      "husin": 1191,
      "suparman": 1192,
      "asih": 1193,
      "tengku": 1194,
      "aang": 1195,
      "atik": 1196,
      "bag": 1197,
      "bah": 1198,
      "bram": 1199,
      "ei": 1200,
      "eu": 1201,
      "galu": 1202,
      "mbah": 1203,
      "neni": 1204,
      "oei": 1205,
      "anti": 1206,
      "haya": 1207,
      "rara": 1208,
      "ragil": 1209,
      "yuk": 1210,
      "yuda": 1211,
      "henky": 1212,
      "amri": 1213,
      "yayuk": 1214,
      "adit": 1215,
      "asti": 1216,
      "kiky": 1217,
      "cahaya": 1218,
      "susil": 1219,
      "wahyuni": 1220,
      "yulianti": 1221,
      "tanti": 1222,
      "siswanto": 1223,
      "novia": 1224,
      "novie": 1225,
      "tyas": 1226,
      "aryo": 1227,
      "firmansyah": 1228,
      "albertus": 1229,
      "batik": 1230,
      "purwanto": 1231,
      "devina": 1232,
      "husni": 1233,
      "okky": 1234,
      "azka": 1235,
      "bagas": 1236,
      "euis": 1237,
      "galuh": 1238,
      "susilo": 1239,
      "atiek": 1240,
      "dham": 1241,
      "hesti": 1242,
      "ihan": 1243,
      "idham": 1244,
      "langga": 1245,
      "res": 1246,
      "selly": 1247,
      "thi": 1248,
      "urah": 1249,
      "raihan": 1250,
      "erlangga": 1251,
      "tiar": 1252,
      "decky": 1253,
      "nauf": 1254,
      "suhartono": 1255,
      "suhardi": 1256,
      "chtiar": 1257,
      "triana": 1258,
      "ngurah": 1259,
      "abah": 1260,
      "syam": 1261,
      "aswin": 1262,
      "suryo": 1263,
      "suryanto": 1264,
      "sisca": 1265,
      "kuh": 1266,
      "kukuh": 1267,
      "gunadi": 1268,
      "irawati": 1269,
      "yustina": 1270,
      "sugiharto": 1271,
      "bachtiar": 1272,
      "restu": 1273,
      "thio": 1274,
      "naufal": 1275,
      "ay": 1276,
      "afi": 1277,
      "cus": 1278,
      "cok": 1279,
      "dji": 1280,
      "ipung": 1281,
      "lman": 1282,
      "ucok": 1283,
      "wina": 1284,
      "maz": 1285,
      "hayati": 1286,
      "wida": 1287,
      "sutik": 1288,
      "hamdani": 1289,
      "hanafi": 1290,
      "ety": 1291,
      "yayat": 1292,
      "hartini": 1293,
      "pudji": 1294,
      "nurhayati": 1295,
      "doel": 1296,
      "hilman": 1297,
      "sole": 1298,
      "cilia": 1299,
      "cicilia": 1300,
      "rahmad": 1301,
      "fransiscus": 1302,
      "rendra": 1303,
      "ferdian": 1304,
      "natasya": 1305,
      "jansen": 1306,
      "jefri": 1307,
      "prabowo": 1308,
      "ramli": 1309,
      "bunga": 1310,
      "yongky": 1311,
      "ayi": 1312,
      "sutikno": 1313,
      "soleh": 1314,
      "ain": 1315,
      "awi": 1316,
      "awan": 1317,
      "fandi": 1318,
      "feni": 1319,
      "fera": 1320,
      "friska": 1321,
      "hfi": 1322,
      "lul": 1323,
      "pus": 1324,
      "tji": 1325,
      "thu": 1326,
      "uk": 1327,
      "venny": 1328,
      "riris": 1329,
      "mawar": 1330,
      "endi": 1331,
      "rawati": 1332,
      "wito": 1333,
      "yung": 1334,
      "muji": 1335,
      "suherman": 1336,
      "sumardi": 1337,
      "suwito": 1338,
      "tar": 1339,
      "buyung": 1340,
      "budianto": 1341,
      "adinda": 1342,
      "sapto": 1343,
      "astuti": 1344,
      "fathu": 1345,
      "hendrawan": 1346,
      "tubagus": 1347,
      "yuliani": 1348,
      "andrianto": 1349,
      "adhe": 1350,
      "herawati": 1351,
      "yuniar": 1352,
      "taufan": 1353,
      "fransiskus": 1354,
      "efendi": 1355,
      "syarifah": 1356,
      "syarifuddin": 1357,
      "rachman": 1358,
      "nengah": 1359,
      "handoyo": 1360,
      "luthfi": 1361,
      "supardi": 1362,
      "azis": 1363,
      "adjie": 1364,
      "muchtar": 1365,
      "fadly": 1366,
      "aini": 1367,
      "luluk": 1368,
      "puspa": 1369,
      "tjia": 1370,
      "fathur": 1371,
      "ifa": 1372,
      "lak": 1373,
      "meli": 1374,
      "qi": 1375,
      "sab": 1376,
      "smi": 1377,
      "riyanto": 1378,
      "wita": 1379,
      "nain": 1380,
      "amsyah": 1381,
      "sutan": 1382,
      "alamsyah": 1383,
      "heryanto": 1384,
      "bun": 1385,
      "nunik": 1386,
      "syifa": 1387,
      "risma": 1388,
      "warung": 1389,
      "cipto": 1390,
      "haryadi": 1391,
      "robertus": 1392,
      "karnain": 1393,
      "zulkarnain": 1394,
      "ajie": 1395,
      "supriyanto": 1396,
      "junaedi": 1397,
      "wirawan": 1398,
      "yongki": 1399,
      "rifky": 1400,
      "rifqi": 1401,
      "suwardi": 1402,
      "suwarno": 1403,
      "laksmi": 1404,
      "meliana": 1405,
      "sabar": 1406,
      "fonny": 1407,
      "janto": 1408,
      "kam": 1409,
      "pta": 1410,
      "sbi": 1411,
      "hasbi": 1412,
      "topan": 1413,
      "mulia": 1414,
      "ami": 1415,
      "sutanto": 1416,
      "sukam": 1417,
      "vita": 1418,
      "irsan": 1419,
      "trie": 1420,
      "yosep": 1421,
      "yopi": 1422,
      "yovita": 1423,
      "harso": 1424,
      "andik": 1425,
      "nurhadi": 1426,
      "sapta": 1427,
      "kito": 1428,
      "lukito": 1429,
      "lindawati": 1430,
      "tanty": 1431,
      "haryo": 1432,
      "meita": 1433,
      "woro": 1434,
      "utami": 1435,
      "dhika": 1436,
      "lisna": 1437,
      "trisna": 1438,
      "meity": 1439,
      "ardiansyah": 1440,
      "nunuk": 1441,
      "ichsan": 1442,
      "dudi": 1443,
      "murni": 1444,
      "sunardi": 1445,
      "sukamto": 1446,
      "harsono": 1447,
      "ben": 1448,
      "ct": 1449,
      "dhan": 1450,
      "ega": 1451,
      "ffa": 1452,
      "hlis": 1453,
      "kmur": 1454,
      "khlis": 1455,
      "ning": 1456,
      "rta": 1457,
      "tyo": 1458,
      "tjan": 1459,
      "rianto": 1460,
      "makmur": 1461,
      "tien": 1462,
      "tirta": 1463,
      "titien": 1464,
      "dek": 1465,
      "daffa": 1466,
      "ryo": 1467,
      "mukhlis": 1468,
      "arianto": 1469,
      "suwanto": 1470,
      "kadek": 1471,
      "nuning": 1472,
      "budiarto": 1473,
      "pujo": 1474,
      "indrawan": 1475,
      "tutik": 1476,
      "himawan": 1477,
      "edict": 1478,
      "stevan": 1479,
      "boedi": 1480,
      "liliek": 1481,
      "sugito": 1482,
      "hengki": 1483,
      "supriyadi": 1484,
      "hermin": 1485,
      "sunaryo": 1486,
      "sulistyo": 1487,
      "darmadi": 1488,
      "khoirul": 1489,
      "aprilia": 1490,
      "muchlis": 1491,
      "dudy": 1492,
      "sunarto": 1493,
      "benedict": 1494,
      "dhany": 1495,
      "stevanus": 1496,
      "benedictus": 1497,
      "adang": 1498,
      "bak": 1499,
      "co": 1500,
      "iek": 1501,
      "lau": 1502,
      "nco": 1503,
      "oky": 1504,
      "liadi": 1505,
      "desa": 1506,
      "wiyono": 1507,
      "yuanita": 1508,
      "muliadi": 1509,
      "suhendra": 1510,
      "suradi": 1511,
      "triono": 1512,
      "nomo": 1513,
      "budiono": 1514,
      "puguh": 1515,
      "srie": 1516,
      "gatu": 1517,
      "hermansyah": 1518,
      "andriani": 1519,
      "didiet": 1520,
      "suryana": 1521,
      "rudianto": 1522,
      "ratnawati": 1523,
      "jap": 1524,
      "hasanuddin": 1525,
      "naniek": 1526,
      "rensia": 1527,
      "niniek": 1528,
      "sentot": 1529,
      "purnomo": 1530,
      "panca": 1531,
      "kristanto": 1532,
      "ponco": 1533,
      "fadjar": 1534,
      "bakti": 1535,
      "laurensia": 1536,
      "desak": 1537,
      "gatut": 1538,
      "bandi": 1539,
      "gri": 1540,
      "min": 1541,
      "nto": 1542,
      "ndan": 1543,
      "rwan": 1544,
      "upi": 1545,
      "walu": 1546,
      "rial": 1547,
      "rinto": 1548,
      "hat": 1549,
      "tiadi": 1550,
      "anggita": 1551,
      "nirwan": 1552,
      "nadi": 1553,
      "sumar": 1554,
      "supra": 1555,
      "subandi": 1556,
      "jono": 1557,
      "sir": 1558,
      "roedy": 1559,
      "harjono": 1560,
      "syamsu": 1561,
      "sahat": 1562,
      "yance": 1563,
      "rudyanto": 1564,
      "bondan": 1565,
      "rusmin": 1566,
      "syahrial": 1567,
      "mulya": 1568,
      "setiadi": 1569,
      "kusnadi": 1570,
      "grosir": 1571,
      "cahyadi": 1572,
      "pungky": 1573,
      "griya": 1574,
      "upik": 1575,
      "waluyo": 1576,
      "sumarno": 1577,
      "suprapto": 1578
    },
    "merges": [
      "a n",
      "r i",
      "d i",
      "m a",
      "e n",
      "i n",
      "h a",
      "r a",
      "u s",
      "l i",
      "e r",
      "d y",
      "ma d",
      "t o",
      "n y",
      "t i",
      "d e",
      "d a",
      "r y",
      "an g",
      "w i",
      "y u",
      "m u",
      "a g",
      "w an",
      "n i",
      "n a",
      "h en",
      "a m",
      "a h",
      "a ri",
      "an d",
      "s u",
      "t a",
      "v i",
      "ha m",
      "a l",
      "an to",
      "ag us",
      "h er",
      "ham mad",
      "j o",
      "b u",
      "u l",
      "s i",
      "e l",
      "m an",
      "c h",
      "a r",
      "en ny",
      "mu hammad",
      "d ra",
      "r o",
      "an i",
      "i r",
      "h an",
      "l y",
      "k a",
      "t ri",
      "n u",
      "n o",
      "e t",
      "e s",
      "e d",
      "in a",
      "k o",
      "k y",
      "y a",
      "bu di",
      "m o",
      "y o",
      "an a",
      "n g",
      "ha r",
      "b ang",
      "a di",
      "r u",
      "a b",
      "an di",
      "r e",
      "f i",
      "b am",
      "bam bang",
      "s y",
      "p u",
      "s ri",
      "w in",
      "m i",
      "nu r",
      "ed dy",
      "ah mad",
      "s a",
      "y an",
      "d o",
      "j i",
      "a s",
      "t e",
      "li a",
      "f a",
      "hen dra",
      "g i",
      "ri c",
      "in da",
      "in dra",
      "w a",
      "ri s",
      "g a",
      "de wi",
      "n ny",
      "and re",
      "g u",
      "hen d",
      "k i",
      "ma s",
      "an dy",
      "ab d",
      "c a",
      "ri a",
      "t u",
      "i wan",
      "d wi",
      "ri z",
      "abd ul",
      "f r",
      "ru dy",
      "e ko",
      "di an",
      "ha mad",
      "and ra",
      "ari e",
      "s us",
      "ari f",
      "m y",
      "t in",
      "er ry",
      "w ah",
      "wah yu",
      "s an",
      "d ang",
      "h i",
      "s o",
      "u ng",
      "d ani",
      "l ina",
      "ch mad",
      "m my",
      "si ti",
      "ag ung",
      "e p",
      "a yu",
      "jo han",
      "h o",
      "jo ko",
      "v in",
      "l u",
      "a chmad",
      "l inda",
      "en i",
      "a de",
      "yu li",
      "her man",
      "fr an",
      "ma ria",
      "i s",
      "wi l",
      "and ri",
      "da vi",
      "davi d",
      "b er",
      "ber t",
      "a li",
      "di di",
      "t an",
      "f an",
      "ma r",
      "su ry",
      "e dy",
      "c ha",
      "e li",
      "t y",
      "e di",
      "en g",
      "ch ris",
      "e ka",
      "el ly",
      "e x",
      "i ma",
      "al ex",
      "a k",
      "en dang",
      "d an",
      "z a",
      "w ar",
      "dani el",
      "si s",
      "a d",
      "s te",
      "f erry",
      "i da",
      "no vi",
      "k u",
      "her ry",
      "b y",
      "v an",
      "ru di",
      "t ina",
      "ha di",
      "ima m",
      "b o",
      "b enny",
      "hend ri",
      "arie f",
      "li li",
      "ir wan",
      "c i",
      "her u",
      "ri na",
      "t ya",
      "gu na",
      "er win",
      "ha ri",
      "t ra",
      "v a",
      "yu di",
      "da r",
      "t na",
      "y anto",
      "ra tna",
      "di ana",
      "anto n",
      "li e",
      "c ky",
      "andre as",
      "j a",
      "p ri",
      "b by",
      "ra h",
      "i ra",
      "ric ky",
      "h e",
      "vi a",
      "r us",
      "t ho",
      "y us",
      "mu hamad",
      "har ry",
      "gu h",
      "d dy",
      "li ly",
      "f ir",
      "mi cha",
      "micha el",
      "ch andra",
      "d en",
      "guna wan",
      "yu ni",
      "a ry",
      "ha ry",
      "hen ny",
      "i l",
      "k e",
      "yo han",
      "te guh",
      "si a",
      "ri ni",
      "hen ry",
      "as ep",
      "fi tri",
      "d enny",
      "ma t",
      "ang ga",
      "inda h",
      "wa ti",
      "b ayu",
      "m e",
      "to ny",
      "sy ah",
      "ri d",
      "i van",
      "ni a",
      "har to",
      "ani ta",
      "ta u",
      "e ric",
      "j ar",
      "u f",
      "li m",
      "sury a",
      "f ari",
      "he ri",
      "ri ta",
      "et ty",
      "h n",
      "t eddy",
      "jo hn",
      "e vi",
      "w o",
      "c e",
      "u t",
      "li am",
      "to mmy",
      "wil liam",
      "p et",
      "su gi",
      "n da",
      "mad e",
      "ro bert",
      "b agus",
      "pu tra",
      "y enny",
      "de dy",
      "ji mmy",
      "ha san",
      "ni ca",
      "de de",
      "fa jar",
      "yan ti",
      "wa wan",
      "fir man",
      "adi tya",
      "fi k",
      "yohan es",
      "harto no",
      "fran sis",
      "n es",
      "er na",
      "ti a",
      "re za",
      "mu ly",
      "n an",
      "in g",
      "mo hammad",
      "yus uf",
      "e va",
      "ro y",
      "ke vin",
      "ti k",
      "ni us",
      "al bert",
      "anto nius",
      "ri an",
      "di na",
      "ed win",
      "pu tri",
      "l via",
      "an na",
      "riz al",
      "de di",
      "rid wan",
      "f eli",
      "ro nny",
      "d hi",
      "n ani",
      "r en",
      "her y",
      "nur ul",
      "e f",
      "e k",
      "l am",
      "s lam",
      "har d",
      "ric hard",
      "slam et",
      "mo c",
      "d joko",
      "di a",
      "ari s",
      "b a",
      "v en",
      "ir ma",
      "ste ven",
      "in ta",
      "am su",
      "i m",
      "dy a",
      "e ra",
      "f ul",
      "i ful",
      "a bu",
      "ma ya",
      "hend ry",
      "n ina",
      "mu el",
      "ul us",
      "sa tri",
      "sa muel",
      "to to",
      "ti us",
      "jo ni",
      "si gi",
      "rah mat",
      "sigi t",
      "sus an",
      "k man",
      "l e",
      "di n",
      "de vi",
      "and er",
      "lu kman",
      "wil ly",
      "alex ander",
      "i ka",
      "s ep",
      "ry an",
      "et h",
      "ab eth",
      "fa is",
      "tau fik",
      "fais al",
      "f er",
      "di mas",
      "di cky",
      "hen g",
      "vi vi",
      "do nny",
      "r nia",
      "mo hamad",
      "ku rnia",
      "amsu l",
      "p a",
      "wa yan",
      "tho mas",
      "n in",
      "di ah",
      "k ang",
      "l es",
      "n ana",
      "s ari",
      "ti an",
      "hend ro",
      "chris tian",
      "fari da",
      "e sia",
      "t her",
      "ir fan",
      "mo ch",
      "ther esia",
      "li sa",
      "riz ky",
      "al u",
      "g ra",
      "i man",
      "r et",
      "de ddy",
      "ro bby",
      "il ham",
      "gra ce",
      "ret no",
      "v era",
      "ri o",
      "bu nda",
      "san ti",
      "fran s",
      "f en",
      "d eni",
      "g eng",
      "h mad",
      "i ta",
      "k ar",
      "n tu",
      "ra den",
      "to t",
      "su geng",
      "ak hmad",
      "tin us",
      "k et",
      "m erry",
      "en e",
      "ir ene",
      "ed war",
      "didi k",
      "ket ut",
      "edwar d",
      "o no",
      "f enny",
      "j enny",
      "p i",
      "am in",
      "ja ya",
      "li s",
      "f e",
      "s e",
      "z ul",
      "fr eddy",
      "sus anto",
      "nan ang",
      "sep h",
      "heng ky",
      "yu lia",
      "ma wan",
      "a ji",
      "o man",
      "ny oman",
      "ag nes",
      "na ta",
      "al vin",
      "pu tu",
      "ki ki",
      "ad rian",
      "hendri k",
      "pet er",
      "le o",
      "t ang",
      "en y",
      "sus i",
      "muly adi",
      "c en",
      "vin cen",
      "s nu",
      "an tho",
      "to ni",
      "wi snu",
      "antho ny",
      "c to",
      "t anto",
      "er ni",
      "wi dya",
      "vi cto",
      "el da",
      "ad hi",
      "ira wan",
      "im elda",
      "pa ulus",
      "victo r",
      "l d",
      "na ld",
      "ro nald",
      "mo h",
      "c in",
      "h inta",
      "l enny",
      "s hinta",
      "mu h",
      "tri s",
      "cin dy",
      "t han",
      "dy ah",
      "na than",
      "jo nathan",
      "tin i",
      "fan ny",
      "sy arif",
      "a an",
      "j am",
      "s andy",
      "da dang",
      "su pri",
      "ga tot",
      "jam es",
      "e lia",
      "s andra",
      "am ir",
      "am elia",
      "ary a",
      "ra ch",
      "ar di",
      "i k",
      "s anto",
      "s ya",
      "to nny",
      "ni ta",
      "her lina",
      "so nny",
      "novi ta",
      "bo wo",
      "eric k",
      "se tia",
      "santo so",
      "k us",
      "u z",
      "fa uz",
      "o nica",
      "r ul",
      "v er",
      "y ani",
      "di ni",
      "ha ris",
      "wi wi",
      "arif in",
      "tin e",
      "chris tine",
      "me i",
      "ver onica",
      "ha ji",
      "jo e",
      "han s",
      "budi man",
      "do ni",
      "tu ti",
      "chris tina",
      "me ga",
      "moc hamad",
      "in tan",
      "and ry",
      "andre w",
      "dan ny",
      "s sy",
      "u ar",
      "an war",
      "de ssy",
      "no va",
      "fi an",
      "feli x",
      "a u",
      "i q",
      "b nu",
      "i bnu",
      "k an",
      "en da",
      "han ny",
      "is kan",
      "enda h",
      "iskan dar",
      "an ni",
      "in al",
      "ra ti",
      "agus tinus",
      "riz ki",
      "lu cky",
      "fan us",
      "za inal",
      "ste fanus",
      "lili s",
      "anni sa",
      "rati h",
      "b ar",
      "ro ni",
      "mo nica",
      "har di",
      "johan es",
      "satri a",
      "c har",
      "h el",
      "l an",
      "s et",
      "ar man",
      "mi ra",
      "yuni ta",
      "nata lia",
      "char les",
      "lan ny",
      "set yo",
      "s en",
      "pu r",
      "c k",
      "c andra",
      "j an",
      "s am",
      "u mi",
      "ra ma",
      "her m",
      "es ti",
      "sy lvia",
      "ja ck",
      "i an",
      "u mar",
      "ri ka",
      "ma h",
      "wan to",
      "tris no",
      "h and",
      "j ef",
      "n eng",
      "hand o",
      "i is",
      "j es",
      "o li",
      "r andy",
      "ri ri",
      "de si",
      "si ca",
      "si lvia",
      "ly dia",
      "ab i",
      "andi ka",
      "yuli ana",
      "bo bby",
      "jes sica",
      "oli via",
      "p an",
      "gi l",
      "g ro",
      "ari es",
      "dar win",
      "vincen t",
      "l us",
      "l ah",
      "p ra",
      "r eni",
      "wan di",
      "ya di",
      "yo ga",
      "ca k",
      "abdul lah",
      "dan ang",
      "hary anto",
      "pet rus",
      "lus i",
      "f ah",
      "i in",
      "l alu",
      "y eni",
      "jo seph",
      "ya t",
      "mi mi",
      "sa iful",
      "do di",
      "riz a",
      "fran ky",
      "mar tin",
      "lili k",
      "fransis ca",
      "fah mi",
      "m ang",
      "j u",
      "s ta",
      "z abeth",
      "mu tia",
      "na dia",
      "ana sta",
      "eli zabeth",
      "ci tra",
      "rach mat",
      "setia wan",
      "ju na",
      "anasta sia",
      "b il",
      "l en",
      "o nny",
      "s her",
      "ma ul",
      "yu dhi",
      "el len",
      "do ddy",
      "so ny",
      "fer y",
      "fen di",
      "bil ly",
      "sher ly",
      "maul ana",
      "d ri",
      "f yan",
      "g na",
      "i gna",
      "n d",
      "u ntu",
      "w ul",
      "y mo",
      "in dri",
      "ra ymo",
      "ni k",
      "pu ji",
      "so fyan",
      "wo ng",
      "sya iful",
      "au lia",
      "igna tius",
      "untu ng",
      "wul an",
      "raymo nd",
      "lu t",
      "de sy",
      "sy amsul",
      "do dy",
      "gi ta",
      "ci a",
      "fari d",
      "feli cia",
      "p to",
      "ka s",
      "wahyu di",
      "lu kas",
      "b i",
      "u ku",
      "li ta",
      "de wa",
      "bu dhi",
      "ir ul",
      "ya ti",
      "te uku",
      "sis ka",
      "den y",
      "ren dy",
      "d ha",
      "m elly",
      "s abeth",
      "s amsul",
      "ha lim",
      "de v",
      "yu dha",
      "ar dian",
      "eli sabeth",
      "rus li",
      "su na",
      "ar to",
      "h us",
      "l a",
      "w elly",
      "ma man",
      "ti ka",
      "ti ek",
      "ni la",
      "nu nu",
      "bo y",
      "ing e",
      "kar tika",
      "wiwi k",
      "herm anto",
      "k ris",
      "p o",
      "p ak",
      "wi win",
      "ro ny",
      "han dy",
      "nu gro",
      "yo gi",
      "fi fi",
      "sugi anto",
      "moc hammad",
      "nugro ho",
      "g us",
      "r enny",
      "da us",
      "hen dy",
      "ir van",
      "sus y",
      "johan nes",
      "pri ma",
      "fir daus",
      "kurnia wan",
      "nin ik",
      "gus ti",
      "h u",
      "b in",
      "d joni",
      "o k",
      "y ana",
      "ra m",
      "li es",
      "ti tik",
      "wi ra",
      "hen i",
      "bin tang",
      "su p",
      "ra di",
      "a z",
      "c ah",
      "i ch",
      "r ani",
      "er wan",
      "wi do",
      "wi jaya",
      "su ki",
      "yan uar",
      "ris ka",
      "ba suki",
      "satri o",
      "toto k",
      "hando ko",
      "wido do",
      "a dy",
      "f ry",
      "u din",
      "yu n",
      "yu yun",
      "su wandi",
      "her mawan",
      "win da",
      "fitri a",
      "nan da",
      "fauz i",
      "jef fry",
      "b al",
      "i ke",
      "o ng",
      "o ki",
      "w enny",
      "an ang",
      "ra tu",
      "ti tin",
      "su trisno",
      "ta tang",
      "han di",
      "sury adi",
      "rah man",
      "evi e",
      "susan ti",
      "iq bal",
      "hel mi",
      "su lis",
      "bu ng",
      "ad ji",
      "a sri",
      "b eny",
      "r angga",
      "ri ani",
      "su ci",
      "yo ng",
      "do ny",
      "didi t",
      "dar ma",
      "syah rul",
      "nin ing",
      "yo no",
      "i di",
      "k ho",
      "n en",
      "v onny",
      "di ta",
      "en al",
      "de den",
      "da dan",
      "al fian",
      "gu ntu",
      "mar di",
      "ak bar",
      "za enal",
      "ef fendi",
      "fen dy",
      "juna idi",
      "nen eng",
      "guntu r",
      "c ep",
      "c ut",
      "j ang",
      "j andra",
      "o es",
      "t jandra",
      "u jang",
      "y en",
      "y etty",
      "ri f",
      "us man",
      "da yat",
      "ag oes",
      "su war",
      "hi dayat",
      "ali f",
      "lie m",
      "ce cep",
      "gil ang",
      "yen ni",
      "a i",
      "o m",
      "s inta",
      "de bby",
      "wi di",
      "hen di",
      "al di",
      "no er",
      "ed o",
      "yuli us",
      "yuli anto",
      "nik en",
      "ai syah",
      "a pri",
      "mu ch",
      "d din",
      "e mmy",
      "j emmy",
      "u ddin",
      "ri ana",
      "li h",
      "bu dy",
      "yo k",
      "yo yok",
      "ru ddy",
      "pu ng",
      "fa d",
      "ga lih",
      "san ty",
      "cha irul",
      "pri yo",
      "yohan a",
      "rid ho",
      "fransis ka",
      "ren o",
      "rul ly",
      "lut fi",
      "d u",
      "i z",
      "i cha",
      "l el",
      "t ari",
      "mu r",
      "hen y",
      "agus tina",
      "ko mang",
      "ya yan",
      "win dy",
      "fa iz",
      "sugi arto",
      "les tari",
      "fauz an",
      "riri n",
      "bi mo",
      "suna r",
      "lel y",
      "faiz al",
      "d johan",
      "g ar",
      "p p",
      "p and",
      "t am",
      "li dya",
      "er ny",
      "ro n",
      "et ha",
      "ru mah",
      "so fian",
      "mar gar",
      "rus di",
      "rus tam",
      "muly ono",
      "nani k",
      "im ron",
      "mutia ra",
      "kris na",
      "po pp",
      "pand u",
      "margar etha",
      "popp y",
      "b ri",
      "d ro",
      "r man",
      "t jo",
      "di nda",
      "di rman",
      "en dro",
      "ti mah",
      "su dirman",
      "ani k",
      "yo s",
      "yo seph",
      "nur din",
      "fa timah",
      "ca tu",
      "hari yanto",
      "fe ri",
      "fe bri",
      "nunu ng",
      "tjo ng",
      "catu r",
      "e de",
      "g ede",
      "h san",
      "m mu",
      "n etty",
      "t etty",
      "u mmu",
      "ma l",
      "ti mo",
      "and hi",
      "fi q",
      "riz ka",
      "didi n",
      "ak mal",
      "dar mawan",
      "tau fiq",
      "fik ri",
      "pi t",
      "pi pit",
      "ik hsan",
      "lusi ana",
      "cah yo",
      "timo tius",
      "andhi ka",
      "d h",
      "s el",
      "er y",
      "er lina",
      "ti o",
      "wi bowo",
      "am bar",
      "indra wati",
      "dan u",
      "hari anto",
      "hary ono",
      "ba iq",
      "fer dy",
      "sen o",
      "pan ji",
      "radi tya",
      "dh ani",
      "sel vi",
      "a j",
      "f andy",
      "p han",
      "s han",
      "s ing",
      "t ulus",
      "ra ka",
      "ra chmad",
      "al wi",
      "gi h",
      "wil dan",
      "andri e",
      "ste phan",
      "fe by",
      "jan uar",
      "aj eng",
      "shan ty",
      "sing gih",
      "stephan us",
      "a f",
      "a sy",
      "d har",
      "g o",
      "g re",
      "i yan",
      "l di",
      "n enny",
      "u ma",
      "ri us",
      "ma riani",
      "ha yu",
      "ra hayu",
      "ti tiek",
      "de asy",
      "ang gi",
      "na ma",
      "al dy",
      "ar dy",
      "har tanto",
      "win ny",
      "as tri",
      "te dy",
      "rina ldi",
      "kar tini",
      "adhi e",
      "kus uma",
      "wiwi ek",
      "pur nama",
      "dev y",
      "hu ang",
      "ich wan",
      "af rizal",
      "dhar ma",
      "go rius",
      "gre gorius",
      "a si",
      "b ima",
      "f in",
      "f li",
      "t eng",
      "to ko",
      "ari o",
      "su yanto",
      "al fin",
      "ki fli",
      "andri an",
      "mar lina",
      "mar tinus",
      "ja ka",
      "zul kifli",
      "vincen tius",
      "mega wati",
      "hel my",
      "pra setyo",
      "hus in",
      "sup arman",
      "asi h",
      "teng ku",
      "a ang",
      "a tik",
      "b ag",
      "b ah",
      "b ram",
      "e i",
      "e u",
      "g alu",
      "m bah",
      "n eni",
      "o ei",
      "an ti",
      "ha ya",
      "ra ra",
      "ra gil",
      "yu k",
      "yu da",
      "hen ky",
      "am ri",
      "ya yuk",
      "adi t",
      "as ti",
      "ki ky",
      "ca haya",
      "sus il",
      "wahyu ni",
      "yuli anti",
      "tan ti",
      "sis wanto",
      "novi a",
      "novi e",
      "tya s",
      "ary o",
      "firman syah",
      "albert us",
      "ba tik",
      "pur wanto",
      "dev ina",
      "hus ni",
      "ok ky",
      "az ka",
      "bag as",
      "eu is",
      "galu h",
      "susil o",
      "a tiek",
      "d ham",
      "h esti",
      "i han",
      "i dham",
      "l angga",
      "r es",
      "s elly",
      "t hi",
      "u rah",
      "ra ihan",
      "er langga",
      "ti ar",
      "de cky",
      "na uf",
      "su hartono",
      "su hardi",
      "ch tiar",
      "tri ana",
      "ng urah",
      "ab ah",
      "sy am",
      "as win",
      "sury o",
      "sury anto",
      "sis ca",
      "ku h",
      "ku kuh",
      "guna di",
      "ira wati",
      "yus tina",
      "sugi harto",
      "ba chtiar",
      "res tu",
      "thi o",
      "nauf al",
      "a y",
      "a fi",
      "c us",
      "c ok",
      "d ji",
      "i pung",
      "l man",
      "u cok",
      "w ina",
      "ma z",
      "ha yati",
      "wi da",
      "su tik",
      "ham dani",
      "han afi",
      "et y",
      "ya yat",
      "har tini",
      "pu dji",
      "nur hayati",
      "do el",
      "hi lman",
      "so le",
      "ci lia",
      "ci cilia",
      "rah mad",
      "fransis cus",
      "ren dra",
      "fer dian",
      "nata sya",
      "jan sen",
      "jef ri",
      "pra bowo",
      "ram li",
      "bung a",
      "yong ky",
      "ay i",
      "sutik no",
      "sole h",
      "a in",
      "a wi",
      "a wan",
      "f andi",
      "f eni",
      "f era",
      "f riska",
      "h fi",
      "l ul",
      "p us",
      "t ji",
      "t hu",
      "u k",
      "v enny",
      "ri ris",
      "ma war",
      "en di",
      "ra wati",
      "wi to",
      "yu ng",
      "mu ji",
      "su herman",
      "su mardi",
      "su wito",
      "ta r",
      "bu yung",
      "budi anto",
      "adi nda",
      "sa pto",
      "as tuti",
      "fa thu",
      "hendra wan",
      "tu bagus",
      "yuli ani",
      "andri anto",
      "ad he",
      "he rawati",
      "yuni ar",
      "tau fan",
      "fransis kus",
      "ef endi",
      "syarif ah",
      "syarif uddin",
      "rach man",
      "neng ah",
      "hando yo",
      "lut hfi",
      "sup ardi",
      "az is",
      "adji e",
      "much tar",
      "fad ly",
      "ain i",
      "lul uk",
      "pus pa",
      "tji a",
      "fathu r",
      "i fa",
      "l ak",
      "m eli",
      "q i",
      "s ab",
      "s mi",
      "ri yanto",
      "wi ta",
      "na in",
      "am syah",
      "su tan",
      "al amsyah",
      "her yanto",
      "bu n",
      "nu nik",
      "sy ifa",
      "ris ma",
      "war ung",
      "ci pto",
      "hary adi",
      "robert us",
      "kar nain",
      "zul karnain",
      "aji e",
      "supri yanto",
      "juna edi",
      "wira wan",
      "yong ki",
      "rif ky",
      "rif qi",
      "suwar di",
      "suwar no",
      "lak smi",
      "meli ana",
      "sab ar",
      "f onny",
      "j anto",
      "k am",
      "p ta",
      "s bi",
      "ha sbi",
      "to pan",
      "mu lia",
      "am i",
      "su tanto",
      "su kam",
      "vi ta",
      "ir san",
      "tri e",
      "yo sep",
      "yo pi",
      "yo vita",
      "har so",
      "andi k",
      "nur hadi",
      "sa pta",
      "ki to",
      "lu kito",
      "linda wati",
      "tan ty",
      "hary o",
      "me ita",
      "wo ro",
      "ut ami",
      "dhi ka",
      "lis na",
      "tris na",
      "mei ty",
      "ardian syah",
      "nunu k",
      "ich san",
      "du di",
      "mur ni",
      "sunar di",
      "sukam to",
      "harso no",
      "b en",
      "c t",
      "d han",
      "e ga",
      "f fa",
      "h lis",
      "k mur",
      "k hlis",
      "n ing",
      "r ta",
      "t yo",
      "t jan",
      "ri anto",
      "ma kmur",
      "ti en",
      "ti rta",
      "ti tien",
      "de k",
      "da ffa",
      "ry o",
      "mu khlis",
      "ari anto",
      "su wanto",
      "ka dek",
      "nu ning",
      "budi arto",
      "pu jo",
      "indra wan",
      "tu tik",
      "hi mawan",
      "edi ct",
      "ste van",
      "bo edi",
      "lili ek",
      "sugi to",
      "heng ki",
      "supri yadi",
      "herm in",
      "suna ryo",
      "sulis tyo",
      "darma di",
      "kho irul",
      "apri lia",
      "much lis",
      "du dy",
      "sunar to",
      "ben edict",
      "dhan y",
      "stevan us",
      "benedict us",
      "a dang",
      "b ak",
      "c o",
      "i ek",
      "l au",
      "n co",
      "o ky",
      "li adi",
      "de sa",
      "wi yono",
      "yu anita",
      "mu liadi",
      "su hendra",
      "su radi",
      "tri ono",
      "no mo",
      "budi ono",
      "pu guh",
      "sri e",
      "ga tu",
      "herman syah",
      "andri ani",
      "didi et",
      "sury ana",
      "rudi anto",
      "ratna wati",
      "ja p",
      "hasan uddin",
      "nani ek",
      "ren sia",
      "nin iek",
      "sen tot",
      "pur nomo",
      "pan ca",
      "kris tanto",
      "po nco",
      "fad jar",
      "bak ti",
      "lau rensia",
      "desa k",
      "gatu t",
      "b andi",
      "g ri",
      "m in",
      "n to",
      "n dan",
      "r wan",
      "u pi",
      "w alu",
      "ri al",
      "ri nto",
      "ha t",
      "ti adi",
      "ang gita",
      "ni rwan",
      "na di",
      "su mar",
      "su pra",
      "su bandi",
      "jo no",
      "si r",
      "ro edy",
      "har jono",
      "sy amsu",
      "sa hat",
      "yan ce",
      "rudy anto",
      "bo ndan",
      "rus min",
      "syah rial",
      "muly a",
      "se tiadi",
      "kus nadi",
      "gro sir",
      "cah yadi",
      "pung ky",
      "gri ya",
      "upi k",
      "walu yo",
      "sumar no",
      "supra pto"
    ]
  }
}