{
    "version": "1.0",
    "truncation": null,
    "padding": null,
    "added_tokens": [
        {
            "id": 0,
            "content": "[UNK]",
            "single_word": false,
            "lstrip": false,
            "rstrip": false,
            "normalized": false,
            "special": true
        },
        {
            "id": 1,
            "content": "[CLS]",
            "single_word": false,
            "lstrip": false,
            "rstrip": false,
            "normalized": false,
            "special": true
        },
        {
            "id": 2,
            "content": "[SEP]",
            "single_word": false,
            "lstrip": false,
            "rstrip": false,
            "normalized": false,
            "special": true
        },
        {
            "id": 3,
            "content": "[PAD]",
            "single_word": false,
            "lstrip": false,
            "rstrip": false,
            "normalized": false,
            "special": true
        },
        {
            "id": 4,
            "content": "[MASK]",
            "single_word": false,
            "lstrip": false,
            "rstrip": false,
            "normalized": false,
            "special": true
        }
    ],
    "normalizer": null,
    "pre_tokenizer": {
        "type": "Whitespace"
    },
    "post_processor": null,
    "decoder": null,
    "model": {
        "type": "BPE",
        "dropout": null,
        "unk_token": "[UNK]",
        "continuing_subword_prefix": null,
        "end_of_word_suffix": null,
        "fuse_unk": false,
        "vocab": {
            "[UNK]": 0,
            "[CLS]": 1,
            "[SEP]": 2,
            "[PAD]": 3,
            "[MASK]": 4,
            "a": 5,
            "b": 6,
            "c": 7,
            "d": 8,
            "e": 9,
            "f": 10,
            "g": 11,
            "h": 12,
            "i": 13,
            "j": 14,
            "k": 15,
            "l": 16,
            "m": 17,
            "n": 18,
            "o": 19,
            "p": 20,
            "q": 21,
            "r": 22,
            "s": 23,
            "t": 24,
            "u": 25,
            "v": 26,
            "w": 27,
            "x": 28,
            "y": 29,
            "z": 30,
            "ma": 31,
            "la": 32,
            "in": 33,
            "ch": 34,
            "de": 35,
            "am": 36,
            "an": 37,
            "ab": 38,
            "el": 39,
            "ola": 40,
            "un": 41,
            "le": 42,
            "is": 43,
            "ra": 44,
            "em": 45,
            "en": 46,
            "us": 47,
            "ka": 48,
            "ade": 49,
            "on": 50,
            "ha": 51,
            "ba": 52,
            "jo": 53,
            "th": 54,
            "chi": 55,
            "wa": 56,
            "hi": 57,
            "da": 58,
            "er": 59,
            "man": 60,
            "ol": 61,
            "ri": 62,
            "ke": 63,
            "ce": 64,
            "mi": 65,
            "du": 66,
            "ham": 67,
            "se": 68,
            "yo": 69,
            "ss": 70,
            "li": 71,
            "to": 72,
            "uel": 73,
            "mar": 74,
            "mo": 75,
            "vi": 76,
            "di": 77,
            "uk": 78,
            "ib": 79,
            "ta": 80,
            "sa": 81,
            "olu": 82,
            "ti": 83,
            "wu": 84,
            "mu": 85,
            "emi": 86,
            "pe": 87,
            "pr": 88,
            "go": 89,
            "me": 90,
            "ji": 91,
            "if": 92,
            "es": 93,
            "or": 94,
            "ye": 95,
            "chuk": 96,
            "ibra": 97,
            "abi": 98,
            "ing": 99,
            "kar": 100,
            "cha": 101,
            "fa": 102,
            "him": 103,
            "abu": 104,
            "ju": 105,
            "ru": 106,
            "med": 107,
            "mad": 108,
            "ya": 109,
            "yi": 110,
            "ani": 111,
            "muham": 112,
            "ph": 113,
            "sam": 114,
            "ah": 115,
            "oma": 116,
            "ris": 117,
            "om": 118,
            "mus": 119,
            "day": 120,
            "hn": 121,
            "na": 122,
            "sh": 123,
            "bi": 124,
            "sun": 125,
            "pa": 126,
            "ble": 127,
            "ince": 128,
            "tun": 129,
            "lo": 130,
            "jam": 131,
            "ssing": 132,
            "tin": 133,
            "yin": 134,
            "su": 135,
            "bu": 136,
            "ze": 137,
            "dam": 138,
            "cto": 139,
            "victo": 140,
            "il": 141,
            "ayo": 142,
            "re": 143,
            "ge": 144,
            "wo": 145,
            "za": 146,
            "ali": 147,
            "lahi": 148,
            "si": 149,
            "yus": 150,
            "joy": 151,
            "ife": 152,
            "uf": 153,
            "st": 154,
            "cy": 155,
            "che": 156,
            "son": 157,
            "al": 158,
            "eli": 159,
            "yu": 160,
            "ni": 161,
            "gun": 162,
            "bo": 163,
            "wal": 164,
            "ther": 165,
            "god": 166,
            "isha": 167,
            "ran": 168,
            "ria": 169,
            "ama": 170,
            "ci": 171,
            "chael": 172,
            "od": 173,
            "unmi": 174,
            "ter": 175,
            "ee": 176,
            "ben": 177,
            "eka": 178,
            "zi": 179,
            "ja": 180,
            "id": 181,
            "ence": 182,
            "eth": 183,
            "ak": 184,
            "ck": 185,
            "au": 186,
            "ro": 187,
            "ga": 188,
            "bab": 189,
            "ley": 190,
            "rah": 191,
            "it": 192,
            "hass": 193,
            "eze": 194,
            "char": 195,
            "ony": 196,
            "tai": 197,
            "isi": 198,
            "enn": 199,
            "ustin": 200,
            "pha": 201,
            "mon": 202,
            "bas": 203,
            "isa": 204,
            "oke": 205,
            "et": 206,
            "ur": 207,
            "gra": 208,
            "ry": 209,
            "ere": 210,
            "fola": 211,
            "ent": 212,
            "gozi": 213,
            "ul": 214,
            "itz": 215,
            "ob": 216,
            "hu": 217,
            "san": 218,
            "eci": 219,
            "ous": 220,
            "preci": 221,
            "our": 222,
            "ine": 223,
            "tapha": 224,
            "lor": 225,
            "po": 226,
            "ok": 227,
            "nu": 228,
            "ua": 229,
            "adeni": 230,
            "mer": 231,
            "anth": 232,
            "odun": 233,
            "fai": 234,
            "tima": 235,
            "vour": 236,
            "omo": 237,
            "for": 238,
            "bel": 239,
            "sley": 240,
            "shua": 241,
            "oye": 242,
            "ez": 243,
            "win": 244,
            "ike": 245,
            "kun": 246,
            "kel": 247,
            "isu": 248,
            "kabi": 249,
            "omon": 250,
            "je": 251,
            "ku": 252,
            "ses": 253,
            "hen": 254,
            "fi": 255,
            "kan": 256,
            "enna": 257,
            "cent": 258,
            "les": 259,
            "ope": 260,
            "temi": 261,
            "ki": 262,
            "nn": 263,
            "as": 264,
            "mide": 265,
            "onye": 266,
            "tu": 267,
            "vin": 268,
            "tri": 269,
            "sol": 270,
            "inab": 271,
            "jan": 272,
            "inde": 273,
            "cis": 274,
            "sin": 275,
            "una": 276,
            "jib": 277,
            "eph": 278,
            "wole": 279,
            "gi": 280,
            "the": 281,
            "gif": 282,
            "tience": 283,
            "ia": 284,
            "obi": 285,
            "edu": 286,
            "hinde": 287,
            "lu": 288,
            "zab": 289,
            "elizab": 290,
            "eed": 291,
            "cheal": 292,
            "ty": 293,
            "ala": 294,
            "layo": 295,
            "moh": 296,
            "ace": 297,
            "aja": 298,
            "ac": 299,
            "sula": 300,
            "lin": 301,
            "zeez": 302,
            "ila": 303,
            "eem": 304,
            "ada": 305,
            "so": 306,
            "ale": 307,
            "ugo": 308,
            "we": 309,
            "yaku": 310,
            "chibu": 311,
            "cle": 312,
            "hel": 313,
            "thew": 314,
            "oge": 315,
            "nasi": 316,
            "buk": 317,
            "ong": 318,
            "ustine": 319,
            "gab": 320,
            "olus": 321,
            "riel": 322,
            "hau": 323,
            "bri": 324,
            "cky": 325,
            "wil": 326,
            "te": 327,
            "vian": 328,
            "glor": 329,
            "mhi": 330,
            "inn": 331,
            "yere": 332,
            "abiu": 333,
            "ije": 334,
            "lisu": 335,
            "glo": 336,
            "kayo": 337,
            "os": 338,
            "law": 339,
            "een": 340,
            "qu": 341,
            "com": 342,
            "sala": 343,
            "ifer": 344,
            "dor": 345,
            "alha": 346,
            "fri": 347,
            "nre": 348,
            "ise": 349,
            "lov": 350,
            "cia": 351,
            "afola": 352,
            "dra": 353,
            "deji": 354,
            "owu": 355,
            "eni": 356,
            "est": 357,
            "jamin": 358,
            "nth": 359,
            "cynth": 360,
            "yan": 361,
            "ojo": 362,
            "echi": 363,
            "toph": 364,
            "aug": 365,
            "anley": 366,
            "fort": 367,
            "jer": 368,
            "phi": 369,
            "dith": 370,
            "rin": 371,
            "ibu": 372,
            "onyin": 373,
            "waju": 374,
            "gben": 375,
            "orge": 376,
            "she": 377,
            "chid": 378,
            "usi": 379,
            "mat": 380,
            "ocent": 381,
            "zu": 382,
            "ice": 383,
            "onso": 384,
            "enye": 385,
            "thy": 386,
            "wola": 387,
            "be": 388,
            "bam": 389,
            "bami": 390,
            "ag": 391,
            "uch": 392,
            "oladi": 393,
            "des": 394,
            "fiu": 395,
            "yem": 396,
            "tee": 397,
            "ajib": 398,
            "gh": 399,
            "brigh": 400,
            "damil": 401,
            "rity": 402,
            "ini": 403,
            "rash": 404,
            "mau": 405,
            "ona": 406,
            "ny": 407,
            "omola": 408,
            "isola": 409,
            "zo": 410,
            "mola": 411,
            "good": 412,
            "olani": 413,
            "siu": 414,
            "col": 415,
            "lins": 416,
            "ebu": 417,
            "olanre": 418,
            "lip": 419,
            "prom": 420,
            "nke": 421,
            "abra": 422,
            "oka": 423,
            "balo": 424,
            "ustina": 425,
            "ams": 426,
            "liams": 427,
            "muk": 428,
            "tar": 429,
            "rachi": 430,
            "jumo": 431,
            "hali": 432,
            "gods": 433,
            "ezeki": 434,
            "pp": 435,
            "happ": 436,
            "iness": 437,
            "abo": 438,
            "zy": 439,
            "zzy": 440,
            "dre": 441,
            "rence": 442,
            "dan": 443,
            "rta": 444,
            "murta": 445,
            "ruka": 446,
            "mothy": 447,
            "heed": 448,
            "lian": 449,
            "rak": 450,
            "barak": 451,
            "fun": 452,
            "hus": 453,
            "hussa": 454,
            "wunmi": 455,
            "sede": 456,
            "uda": 457,
            "yat": 458,
            "mma": 459,
            "hiru": 460,
            "wumi": 461,
            "hab": 462,
            "akan": 463,
            "eun": 464,
            "dom": 465,
            "wis": 466,
            "ake": 467,
            "usa": 468,
            "sho": 469,
            "kaze": 470,
            "nle": 471,
            "sha": 472,
            "don": 473,
            "ev": 474,
            "yn": 475,
            "elyn": 476,
            "iy": 477,
            "ment": 478,
            "nwa": 479,
            "amdi": 480,
            "ndu": 481,
            "latee": 482,
            "fide": 483,
            "abiga": 484,
            "kwo": 485,
            "basi": 486,
            "chigozi": 487,
            "fsa": 488,
            "cob": 489,
            "fest": 490,
            "rba": 491,
            "ina": 492,
            "ori": 493,
            "isra": 494,
            "owola": 495,
            "nan": 496,
            "heem": 497,
            "nel": 498,
            "chis": 499,
            "chiji": 500,
            "ken": 501,
            "kene": 502,
            "rat": 503,
            "eji": 504,
            "gel": 505,
            "uju": 506,
            "egun": 507,
            "ify": 508,
            "ron": 509,
            "olola": 510,
            "ca": 511,
            "ica": 512,
            "ssica": 513,
            "gb": 514,
            "lope": 515,
            "endu": 516,
            "cas": 517,
            "hola": 518,
            "wan": 519,
            "azu": 520,
            "fe": 521,
            "mah": 522,
            "kiru": 523,
            "gr": 524,
            "fee": 525,
            "zie": 526,
            "ayu": 527,
            "ne": 528,
            "goodne": 529,
            "ogun": 530,
            "luk": 531,
            "nest": 532,
            "shi": 533,
            "bil": 534,
            "olai": 535,
            "ret": 536,
            "idu": 537,
            "shade": 538,
            "dy": 539,
            "gla": 540,
            "racle": 541,
            "dys": 542,
            "lazeez": 543,
            "abayo": 544,
            "oyin": 545,
            "leye": 546,
            "buisi": 547,
            "ann": 548,
            "adebo": 549,
            "dir": 550,
            "jah": 551,
            "ko": 552,
            "aded": 553,
            "gwe": 554,
            "ik": 555,
            "sel": 556,
            "rosel": 557,
            "rapha": 558,
            "ung": 559,
            "chizo": 560,
            "dar": 561,
            "iu": 562,
            "taju": 563,
            "hd": 564,
            "lv": 565,
            "sy": 566,
            "ede": 567,
            "alola": 568,
            "htar": 569,
            "adebi": 570,
            "ogo": 571,
            "obong": 572,
            "olor": 573,
            "olorun": 574,
            "ban": 575,
            "ius": 576,
            "olami": 577,
            "oro": 578,
            "ssy": 579,
            "ora": 580,
            "fre": 581,
            "mud": 582,
            "onia": 583,
            "lus": 584,
            "tus": 585,
            "gwu": 586,
            "ili": 587,
            "lis": 588,
            "sey": 589,
            "meji": 590,
            "osa": 591,
            "yun": 592,
            "dge": 593,
            "zor": 594,
            "bridge": 595,
            "adeyem": 596,
            "adego": 597,
            "juma": 598,
            "emiah": 599,
            "olait": 600,
            "danla": 601,
            "vine": 602,
            "adesin": 603,
            "arin": 604,
            "ogb": 605,
            "onna": 606,
            "uz": 607,
            "ude": 608,
            "nna": 609,
            "eeb": 610,
            "udu": 611,
            "chime": 612,
            "wel": 613,
            "xwel": 614,
            "maxwel": 615,
            "olayi": 616,
            "jus": 617,
            "tice": 618,
            "iah": 619,
            "elo": 620,
            "kgod": 621,
            "imon": 622,
            "pra": 623,
            "buchi": 624,
            "damila": 625,
            "mansu": 626,
            "han": 627,
            "kem": 628,
            "oni": 629,
            "yinwa": 630,
            "dat": 631,
            "ibe": 632,
            "etz": 633,
            "my": 634,
            "poola": 635,
            "adeg": 636,
            "ky": 637,
            "wendu": 638,
            "habi": 639,
            "kisu": 640,
            "ttu": 641,
            "mayo": 642,
            "ezer": 643,
            "folorun": 644,
            "olabo": 645,
            "oko": 646,
            "mosho": 647,
            "jisola": 648,
            "luck": 649,
            "rayo": 650,
            "motun": 651,
            "diq": 652,
            "okol": 653,
            "gam": 654,
            "pu": 655,
            "anie": 656,
            "oladipu": 657,
            "olasun": 658,
            "ril": 659,
            "kanmi": 660,
            "cel": 661,
            "fatee": 662,
            "nwan": 663,
            "enike": 664,
            "aka": 665,
            "kole": 666,
            "mmi": 667,
            "yanu": 668,
            "oby": 669,
            "dera": 670,
            "adepo": 671,
            "afee": 672,
            "bin": 673,
            "wf": 674,
            "ezinn": 675,
            "efe": 676,
            "dmus": 677,
            "eu": 678,
            "charia": 679,
            "godfre": 680,
            "wer": 681,
            "power": 682,
            "im": 683,
            "maim": 684,
            "jun": 685,
            "ujun": 686,
            "ofee": 687,
            "taofee": 688,
            "dwan": 689,
            "per": 690,
            "pros": 691,
            "olada": 692,
            "anyan": 693,
            "anya": 694,
            "unanya": 695,
            "ar": 696,
            "emu": 697,
            "inu": 698,
            "ton": 699,
            "ese": 700,
            "izu": 701,
            "gan": 702,
            "bus": 703,
            "eq": 704,
            "yya": 705,
            "rance": 706,
            "agu": 707,
            "njo": 708,
            "osi": 709,
            "ophi": 710,
            "theophi": 711,
            "adesan": 712,
            "saada": 713,
            "tune": 714,
            "alh": 715,
            "otun": 716,
            "ozi": 717,
            "adi": 718,
            "ullahi": 719,
            "iyi": 720,
            "ebel": 721,
            "okori": 722,
            "olare": 723,
            "uth": 724,
            "kafa": 725,
            "fon": 726,
            "hon": 727,
            "amola": 728,
            "damola": 729,
            "ukun": 730,
            "bahu": 731,
            "esit": 732,
            "idong": 733,
            "ayin": 734,
            "tuk": 735,
            "con": 736,
            "nce": 737,
            "rus": 738,
            "trus": 739,
            "uka": 740,
            "maka": 741,
            "fidence": 742,
            "nwo": 743,
            "rim": 744,
            "iru": 745,
            "bairu": 746,
            "nazi": 747,
            "dri": 748,
            "qua": 749,
            "zif": 750,
            "nazif": 751,
            "tosho": 752,
            "adeko": 753,
            "eh": 754,
            "oloye": 755,
            "eke": 756,
            "fisa": 757,
            "emisola": 758,
            "buike": 759,
            "okun": 760,
            "rashi": 761,
            "mpe": 762,
            "time": 763,
            "opa": 764,
            "oha": 765,
            "uoha": 766,
            "cce": 767,
            "kinde": 768,
            "succe": 769,
            "kv": 770,
            "ng": 771,
            "doka": 772,
            "atin": 773,
            "uke": 774,
            "wab": 775,
            "oluwab": 776,
            "nwe": 777,
            "nki": 778,
            "yau": 779,
            "viour": 780,
            "dejo": 781,
            "rajo": 782,
            "muyi": 783,
            "yega": 784,
            "boyega": 785,
            "ari": 786,
            "kelomo": 787,
            "dola": 788,
            "ozie": 789,
            "sse": 790,
            "blesse": 791,
            "surat": 792,
            "meen": 793,
            "osun": 794,
            "ima": 795,
            "ile": 796,
            "adeye": 797,
            "yahu": 798,
            "sanmi": 799,
            "tem": 800,
            "tiu": 801,
            "jumma": 802,
            "masi": 803,
            "bada": 804,
            "adetu": 805,
            "ndi": 806,
            "uoma": 807,
            "safi": 808,
            "freke": 809,
            "ige": 810,
            "mman": 811,
            "ome": 812,
            "at": 813,
            "gbu": 814,
            "adeban": 815,
            "erif": 816,
            "odina": 817,
            "ume": 818,
            "renike": 819,
            "morenike": 820,
            "uw": 821,
            "uba": 822,
            "adeyan": 823,
            "bite": 824,
            "orede": 825,
            "drack": 826,
            "dirat": 827,
            "ws": 828,
            "olatun": 829,
            "bosun": 830,
            "tie": 831,
            "olagun": 832,
            "folu": 833,
            "ito": 834,
            "busa": 835,
            "pan": 836,
            "adedi": 837,
            "lati": 838,
            "fat": 839,
            "anuju": 840,
            "ef": 841,
            "sisi": 842,
            "tife": 843,
            "fiong": 844,
            "rab": 845,
            "adewu": 846,
            "eedat": 847,
            "gie": 848,
            "uzo": 849,
            "gbe": 850,
            "aderi": 851,
            "bigbe": 852,
            "nsi": 853,
            "kak": 854,
            "eoma": 855,
            "komola": 856,
            "odi": 857,
            "ekun": 858,
            "heeb": 859,
            "nw": 860,
            "abueze": 861,
            "dipe": 862,
            "uko": 863,
            "baje": 864,
            "kuf": 865,
            "yyanu": 866,
            "pel": 867,
            "umi": 868,
            "ihu": 869,
            "unyi": 870,
            "aro": 871,
            "wol": 872,
            "arowol": 873,
            "ai": 874,
            "oss": 875,
            "enyin": 876,
            "orenyin": 877,
            "kirat": 878
        },
        "merges": [
            "m a",
            "l a",
            "i n",
            "c h",
            "d e",
            "a m",
            "a n",
            "a b",
            "e l",
            "o la",
            "u n",
            "l e",
            "i s",
            "r a",
            "e m",
            "e n",
            "u s",
            "k a",
            "a de",
            "o n",
            "h a",
            "b a",
            "j o",
            "t h",
            "ch i",
            "w a",
            "h i",
            "d a",
            "e r",
            "ma n",
            "o l",
            "r i",
            "k e",
            "c e",
            "m i",
            "d u",
            "h am",
            "s e",
            "y o",
            "s s",
            "l i",
            "t o",
            "u el",
            "ma r",
            "m o",
            "v i",
            "d i",
            "u k",
            "i b",
            "t a",
            "s a",
            "ol u",
            "t i",
            "w u",
            "m u",
            "em i",
            "p e",
            "p r",
            "g o",
            "m e",
            "j i",
            "i f",
            "e s",
            "o r",
            "y e",
            "ch uk",
            "ib ra",
            "ab i",
            "in g",
            "ka r",
            "ch a",
            "f a",
            "hi m",
            "ab u",
            "j u",
            "r u",
            "me d",
            "ma d",
            "y a",
            "y i",
            "an i",
            "mu ham",
            "p h",
            "s am",
            "a h",
            "o ma",
            "r is",
            "o m",
            "m us",
            "da y",
            "h n",
            "n a",
            "s h",
            "b i",
            "s un",
            "p a",
            "b le",
            "in ce",
            "t un",
            "l o",
            "j am",
            "ss ing",
            "t in",
            "y in",
            "s u",
            "b u",
            "z e",
            "d am",
            "c to",
            "vi cto",
            "i l",
            "a yo",
            "r e",
            "g e",
            "w o",
            "z a",
            "a li",
            "la hi",
            "s i",
            "y us",
            "jo y",
            "if e",
            "u f",
            "s t",
            "c y",
            "ch e",
            "s on",
            "a l",
            "el i",
            "y u",
            "n i",
            "g un",
            "b o",
            "wa l",
            "th er",
            "go d",
            "is ha",
            "r an",
            "ri a",
            "a ma",
            "c i",
            "cha el",
            "o d",
            "un mi",
            "t er",
            "e e",
            "b en",
            "e ka",
            "z i",
            "j a",
            "i d",
            "en ce",
            "e th",
            "a k",
            "c k",
            "a u",
            "r o",
            "g a",
            "b ab",
            "le y",
            "ra h",
            "i t",
            "ha ss",
            "e ze",
            "cha r",
            "on y",
            "ta i",
            "is i",
            "en n",
            "us tin",
            "p ha",
            "m on",
            "ba s",
            "is a",
            "o ke",
            "e t",
            "u r",
            "g ra",
            "r y",
            "er e",
            "f ola",
            "en t",
            "go zi",
            "u l",
            "it z",
            "o b",
            "h u",
            "s an",
            "e ci",
            "o us",
            "pr eci",
            "o ur",
            "in e",
            "ta pha",
            "l or",
            "p o",
            "o k",
            "n u",
            "u a",
            "ade ni",
            "m er",
            "an th",
            "od un",
            "fa i",
            "ti ma",
            "v our",
            "o mo",
            "f or",
            "b el",
            "s ley",
            "sh ua",
            "o ye",
            "e z",
            "w in",
            "i ke",
            "k un",
            "k el",
            "is u",
            "k abi",
            "om on",
            "j e",
            "k u",
            "se s",
            "h en",
            "f i",
            "k an",
            "en na",
            "c ent",
            "le s",
            "o pe",
            "t emi",
            "k i",
            "n n",
            "a s",
            "mi de",
            "on ye",
            "t u",
            "v in",
            "t ri",
            "s ol",
            "in ab",
            "j an",
            "in de",
            "c is",
            "s in",
            "un a",
            "j ib",
            "e ph",
            "wo le",
            "g i",
            "th e",
            "g if",
            "ti ence",
            "i a",
            "o bi",
            "e du",
            "h inde",
            "l u",
            "z ab",
            "eli zab",
            "ee d",
            "che al",
            "t y",
            "a la",
            "la yo",
            "mo h",
            "a ce",
            "a ja",
            "a c",
            "su la",
            "l in",
            "ze ez",
            "i la",
            "e em",
            "a da",
            "s o",
            "a le",
            "u go",
            "w e",
            "ya ku",
            "chi bu",
            "c le",
            "h el",
            "the w",
            "o ge",
            "na si",
            "b uk",
            "on g",
            "ustin e",
            "g ab",
            "ol us",
            "ri el",
            "ha u",
            "b ri",
            "ck y",
            "w il",
            "t e",
            "vi an",
            "g lor",
            "m hi",
            "in n",
            "y ere",
            "abi u",
            "i je",
            "l isu",
            "g lo",
            "ka yo",
            "o s",
            "la w",
            "e en",
            "q u",
            "c om",
            "sa la",
            "if er",
            "d or",
            "al ha",
            "f ri",
            "n re",
            "is e",
            "lo v",
            "ci a",
            "a fola",
            "d ra",
            "de ji",
            "o wu",
            "en i",
            "es t",
            "jam in",
            "n th",
            "cy nth",
            "y an",
            "o jo",
            "e chi",
            "to ph",
            "au g",
            "an ley",
            "for t",
            "j er",
            "p hi",
            "di th",
            "r in",
            "ib u",
            "on yin",
            "wa ju",
            "g ben",
            "or ge",
            "sh e",
            "chi d",
            "us i",
            "ma t",
            "o cent",
            "z u",
            "i ce",
            "on so",
            "en ye",
            "th y",
            "w ola",
            "b e",
            "b am",
            "bam i",
            "a g",
            "u ch",
            "ola di",
            "de s",
            "fi u",
            "y em",
            "t ee",
            "a jib",
            "g h",
            "bri gh",
            "dam il",
            "ri ty",
            "in i",
            "ra sh",
            "ma u",
            "on a",
            "n y",
            "om ola",
            "is ola",
            "z o",
            "m ola",
            "go od",
            "ola ni",
            "si u",
            "c ol",
            "lin s",
            "e bu",
            "ola nre",
            "li p",
            "pr om",
            "n ke",
            "ab ra",
            "o ka",
            "ba lo",
            "ustin a",
            "am s",
            "li ams",
            "m uk",
            "ta r",
            "ra chi",
            "ju mo",
            "ha li",
            "god s",
            "eze ki",
            "p p",
            "ha pp",
            "ine ss",
            "ab o",
            "z y",
            "z zy",
            "d re",
            "r ence",
            "d an",
            "r ta",
            "mu rta",
            "ru ka",
            "mo thy",
            "h eed",
            "li an",
            "ra k",
            "ba rak",
            "f un",
            "h us",
            "hus sa",
            "w unmi",
            "se de",
            "u da",
            "ya t",
            "m ma",
            "hi ru",
            "wu mi",
            "h ab",
            "ak an",
            "e un",
            "d om",
            "w is",
            "a ke",
            "us a",
            "sh o",
            "ka ze",
            "n le",
            "s ha",
            "d on",
            "e v",
            "y n",
            "el yn",
            "i y",
            "m ent",
            "n wa",
            "am di",
            "n du",
            "la tee",
            "fi de",
            "abi ga",
            "k wo",
            "ba si",
            "chi gozi",
            "f sa",
            "c ob",
            "f est",
            "r ba",
            "in a",
            "o ri",
            "is ra",
            "o wola",
            "n an",
            "h eem",
            "n el",
            "ch is",
            "chi ji",
            "k en",
            "ken e",
            "ra t",
            "e ji",
            "g el",
            "u ju",
            "e gun",
            "if y",
            "r on",
            "ol ola",
            "c a",
            "i ca",
            "ss ica",
            "g b",
            "lo pe",
            "en du",
            "c as",
            "h ola",
            "w an",
            "a zu",
            "f e",
            "ma h",
            "ki ru",
            "g r",
            "f ee",
            "zi e",
            "a yu",
            "n e",
            "good ne",
            "o gun",
            "l uk",
            "n est",
            "s hi",
            "bi l",
            "ola i",
            "re t",
            "i du",
            "sh ade",
            "d y",
            "g la",
            "ra cle",
            "dy s",
            "la zeez",
            "ab ayo",
            "o yin",
            "le ye",
            "bu isi",
            "an n",
            "ade bo",
            "di r",
            "j ah",
            "k o",
            "ade d",
            "g we",
            "i k",
            "s el",
            "ro sel",
            "ra pha",
            "un g",
            "chi zo",
            "da r",
            "i u",
            "ta ju",
            "h d",
            "l v",
            "s y",
            "e de",
            "al ola",
            "h tar",
            "ade bi",
            "o go",
            "ob ong",
            "ol or",
            "olor un",
            "b an",
            "i us",
            "ola mi",
            "or o",
            "ss y",
            "o ra",
            "f re",
            "mu d",
            "on ia",
            "l us",
            "t us",
            "g wu",
            "i li",
            "l is",
            "se y",
            "me ji",
            "o sa",
            "y un",
            "d ge",
            "z or",
            "bri dge",
            "ade yem",
            "ade go",
            "ju ma",
            "emi ah",
            "ola it",
            "dan la",
            "v ine",
            "ade sin",
            "a rin",
            "o gb",
            "on na",
            "u z",
            "u de",
            "n na",
            "ee b",
            "u du",
            "chi me",
            "w el",
            "x wel",
            "ma xwel",
            "ola yi",
            "j us",
            "ti ce",
            "i ah",
            "el o",
            "k god",
            "i mon",
            "p ra",
            "bu chi",
            "dam ila",
            "man su",
            "h an",
            "k em",
            "on i",
            "yin wa",
            "da t",
            "ib e",
            "et z",
            "m y",
            "po ola",
            "ade g",
            "k y",
            "w endu",
            "h abi",
            "k isu",
            "t tu",
            "ma yo",
            "ez er",
            "f olorun",
            "ola bo",
            "ok o",
            "mo sho",
            "j isola",
            "lu ck",
            "ra yo",
            "mo tun",
            "di q",
            "ok ol",
            "g am",
            "p u",
            "ani e",
            "oladi pu",
            "ola sun",
            "ri l",
            "kan mi",
            "c el",
            "fa tee",
            "n wan",
            "en ike",
            "a ka",
            "ko le",
            "m mi",
            "yan u",
            "ob y",
            "de ra",
            "ade po",
            "a fee",
            "b in",
            "w f",
            "ez inn",
            "e fe",
            "d mus",
            "e u",
            "cha ria",
            "god fre",
            "w er",
            "po wer",
            "i m",
            "ma im",
            "j un",
            "u jun",
            "o fee",
            "ta ofee",
            "d wan",
            "p er",
            "pr os",
            "ola da",
            "an yan",
            "an ya",
            "un anya",
            "a r",
            "em u",
            "in u",
            "t on",
            "e se",
            "i zu",
            "g an",
            "b us",
            "e q",
            "y ya",
            "ran ce",
            "ag u",
            "n jo",
            "o si",
            "o phi",
            "the ophi",
            "ade san",
            "sa ada",
            "tun e",
            "al h",
            "o tun",
            "o zi",
            "a di",
            "ul lahi",
            "i yi",
            "e bel",
            "ok ori",
            "ola re",
            "u th",
            "ka fa",
            "f on",
            "h on",
            "am ola",
            "dam ola",
            "uk un",
            "ba hu",
            "es it",
            "id ong",
            "a yin",
            "t uk",
            "c on",
            "n ce",
            "r us",
            "t rus",
            "u ka",
            "ma ka",
            "fide nce",
            "n wo",
            "ri m",
            "i ru",
            "ba iru",
            "na zi",
            "d ri",
            "q ua",
            "z if",
            "na zif",
            "to sho",
            "ade ko",
            "e h",
            "ol oye",
            "e ke",
            "f isa",
            "em isola",
            "bu ike",
            "ok un",
            "ra shi",
            "m pe",
            "ti me",
            "o pa",
            "o ha",
            "u oha",
            "c ce",
            "k inde",
            "su cce",
            "k v",
            "n g",
            "d oka",
            "a tin",
            "u ke",
            "w ab",
            "olu wab",
            "n we",
            "n ki",
            "ya u",
            "vi our",
            "de jo",
            "ra jo",
            "mu yi",
            "ye ga",
            "bo yega",
            "a ri",
            "kel omo",
            "d ola",
            "o zie",
            "s se",
            "ble sse",
            "su rat",
            "me en",
            "o sun",
            "i ma",
            "i le",
            "ade ye",
            "ya hu",
            "san mi",
            "t em",
            "ti u",
            "ju mma",
            "ma si",
            "ba da",
            "ade tu",
            "n di",
            "u oma",
            "sa fi",
            "fre ke",
            "i ge",
            "m man",
            "o me",
            "a t",
            "g bu",
            "ade ban",
            "er if",
            "od ina",
            "u me",
            "r enike",
            "mo renike",
            "u w",
            "u ba",
            "ade yan",
            "bi te",
            "or ede",
            "dra ck",
            "di rat",
            "w s",
            "ola tun",
            "bo sun",
            "ti e",
            "ola gun",
            "f olu",
            "i to",
            "b usa",
            "p an",
            "ade di",
            "la ti",
            "fa t",
            "an uju",
            "e f",
            "s isi",
            "ti fe",
            "fi ong",
            "r ab",
            "ade wu",
            "ee dat",
            "gi e",
            "u zo",
            "g be",
            "ade ri",
            "bi gbe",
            "n si",
            "ka k",
            "e oma",
            "k omola",
            "o di",
            "e kun",
            "h eeb",
            "n w",
            "abu eze",
            "di pe",
            "uk o",
            "ba je",
            "k uf",
            "y yanu",
            "p el",
            "u mi",
            "i hu",
            "un yi",
            "a ro",
            "w ol",
            "aro wol",
            "a i",
            "o ss",
            "en yin",
            "or enyin",
            "ki rat"
        ]
    }
}