{
  "version": "1.0",
  "truncation": null,
  "padding": null,
  "added_tokens": [
    {
      "id": 0,
      "content": "[UNK]",
      "single_word": false,
      "lstrip": false,
      "rstrip": false,
      "normalized": false,
      "special": true
    },
    {
      "id": 1,
      "content": "[CLS]",
      "single_word": false,
      "lstrip": false,
      "rstrip": false,
      "normalized": false,
      "special": true
    },
    {
      "id": 2,
      "content": "[SEP]",
      "single_word": false,
      "lstrip": false,
      "rstrip": false,
      "normalized": false,
      "special": true
    },
    {
      "id": 3,
      "content": "[PAD]",
      "single_word": false,
      "lstrip": false,
      "rstrip": false,
      "normalized": false,
      "special": true
    },
    {
      "id": 4,
      "content": "[MASK]",
      "single_word": false,
      "lstrip": false,
      "rstrip": false,
      "normalized": false,
      "special": true
    }
  ],
  "normalizer": null,
  "pre_tokenizer": {
    "type": "Whitespace"
  },
  "post_processor": null,
  "decoder": null,
  "model": {
    "type": "BPE",
    "dropout": null,
    "unk_token": "[UNK]",
    "continuing_subword_prefix": null,
    "end_of_word_suffix": null,
    "fuse_unk": false,
    "vocab": {
      "[UNK]": 0,
      "[CLS]": 1,
      "[SEP]": 2,
      "[PAD]": 3,
      "[MASK]": 4,
      "a": 5,
      "b": 6,
      "c": 7,
      "d": 8,
      "e": 9,
      "f": 10,
      "g": 11,
      "h": 12,
      "i": 13,
      "j": 14,
      "k": 15,
      "l": 16,
      "m": 17,
      "n": 18,
      "o": 19,
      "p": 20,
      "r": 21,
      "s": 22,
      "t": 23,
      "u": 24,
      "v": 25,
      "w": 26,
      "x": 27,
      "y": 28,
      "z": 29,
      "an": 30,
      "ka": 31,
      "ar": 32,
      "la": 33,
      "na": 34,
      "mi": 35,
      "mar": 36,
      "et": 37,
      "ana": 38,
      "ri": 39,
      "ra": 40,
      "pet": 41,
      "ti": 42,
      "el": 43,
      "on": 44,
      "lu": 45,
      "av": 46,
      "al": 47,
      "en": 48,
      "lav": 49,
      "marti": 50,
      "ch": 51,
      "ji": 52,
      "om": 53,
      "ek": 54,
      "os": 55,
      "te": 56,
      "re": 57,
      "ie": 58,
      "as": 59,
      "mich": 60,
      "petr": 61,
      "pav": 62,
      "martin": 63,
      "jana": 64,
      "tom": 65,
      "ela": 66,
      "da": 67,
      "jan": 68,
      "ika": 69,
      "tomas": 70,
      "va": 71,
      "li": 72,
      "mir": 73,
      "oslav": 74,
      "jiri": 75,
      "onika": 76,
      "enka": 77,
      "ta": 78,
      "er": 79,
      "jar": 80,
      "luc": 81,
      "pavel": 82,
      "eta": 83,
      "ena": 84,
      "is": 85,
      "mil": 86,
      "michal": 87,
      "iv": 88,
      "petra": 89,
      "za": 90,
      "rad": 91,
      "lenka": 92,
      "ja": 93,
      "lucie": 94,
      "ik": 95,
      "ver": 96,
      "bo": 97,
      "ku": 98,
      "kas": 99,
      "lukas": 100,
      "dre": 101,
      "kub": 102,
      "den": 103,
      "dav": 104,
      "rina": 105,
      "id": 106,
      "david": 107,
      "kate": 108,
      "katerina": 109,
      "martina": 110,
      "micha": 111,
      "st": 112,
      "lad": 113,
      "eva": 114,
      "kar": 115,
      "veronika": 116,
      "dan": 117,
      "rom": 118,
      "jakub": 119,
      "jaroslav": 120,
      "michaela": 121,
      "tka": 122,
      "nik": 123,
      "ma": 124,
      "tere": 125,
      "hana": 126,
      "ona": 127,
      "ol": 128,
      "bar": 129,
      "ca": 130,
      "monika": 131,
      "uz": 132,
      "ef": 133,
      "tereza": 134,
      "mark": 135,
      "alena": 136,
      "islav": 137,
      "rena": 138,
      "lina": 139,
      "mila": 140,
      "zden": 141,
      "zuz": 142,
      "jos": 143,
      "josef": 144,
      "miroslav": 145,
      "roman": 146,
      "vlad": 147,
      "milan": 148,
      "marketa": 149,
      "im": 150,
      "marek": 151,
      "zdenek": 152,
      "hon": 153,
      "radek": 154,
      "honza": 155,
      "ga": 156,
      "andre": 157,
      "jitka": 158,
      "kri": 159,
      "anka": 160,
      "karel": 161,
      "marie": 162,
      "ale": 163,
      "us": 164,
      "zuzana": 165,
      "pa": 166,
      "sar": 167,
      "ivana": 168,
      "yna": 169,
      "dra": 170,
      "marc": 171,
      "rka": 172,
      "ondre": 173,
      "ondrej": 174,
      "iel": 175,
      "daniel": 176,
      "andrea": 177,
      "clav": 178,
      "vaclav": 179,
      "anna": 180,
      "krist": 181,
      "fi": 182,
      "omi": 183,
      "kristyna": 184,
      "tis": 185,
      "lip": 186,
      "filip": 187,
      "vladi": 188,
      "lar": 189,
      "renata": 190,
      "ad": 191,
      "klar": 192,
      "sarka": 193,
      "sim": 194,
      "ada": 195,
      "marcela": 196,
      "barbo": 197,
      "dana": 198,
      "jirka": 199,
      "barbora": 200,
      "domi": 201,
      "pavla": 202,
      "zd": 203,
      "ran": 204,
      "adam": 205,
      "sa": 206,
      "ve": 207,
      "fran": 208,
      "oj": 209,
      "gab": 210,
      "elena": 211,
      "vera": 212,
      "klara": 213,
      "vladimir": 214,
      "ina": 215,
      "iska": 216,
      "voj": 217,
      "vi": 218,
      "ola": 219,
      "stan": 220,
      "iveta": 221,
      "pavlina": 222,
      "eliska": 223,
      "frantis": 224,
      "rich": 225,
      "radka": 226,
      "tri": 227,
      "bor": 228,
      "frantisek": 229,
      "denis": 230,
      "ste": 231,
      "olina": 232,
      "in": 233,
      "helena": 234,
      "aneta": 235,
      "patri": 236,
      "nikola": 237,
      "gabri": 238,
      "ic": 239,
      "nat": 240,
      "zdenka": 241,
      "vla": 242,
      "ro": 243,
      "ladislav": 244,
      "gabriela": 245,
      "karolina": 246,
      "ales": 247,
      "il": 248,
      "simona": 249,
      "patrik": 250,
      "mate": 251,
      "adela": 252,
      "natal": 253,
      "lud": 254,
      "iva": 255,
      "denisa": 256,
      "rob": 257,
      "stanislav": 258,
      "to": 259,
      "vlas": 260,
      "step": 261,
      "dominik": 262,
      "ondra": 263,
      "matej": 264,
      "gmar": 265,
      "dagmar": 266,
      "ven": 267,
      "ert": 268,
      "ton": 269,
      "irena": 270,
      "iela": 271,
      "daniela": 272,
      "romana": 273,
      "ia": 274,
      "libor": 275,
      "jaroslava": 276,
      "vik": 277,
      "robert": 278,
      "katka": 279,
      "alex": 280,
      "jin": 281,
      "hanka": 282,
      "bl": 283,
      "blanka": 284,
      "ivan": 285,
      "le": 286,
      "misa": 287,
      "lub": 288,
      "kamila": 289,
      "mira": 290,
      "di": 291,
      "radim": 292,
      "olga": 293,
      "lubos": 294,
      "ard": 295,
      "vas": 296,
      "du": 297,
      "tech": 298,
      "vojtech": 299,
      "pe": 300,
      "vit": 301,
      "drich": 302,
      "jirina": 303,
      "yn": 304,
      "vojta": 305,
      "natalie": 306,
      "bara": 307,
      "kuba": 308,
      "boh": 309,
      "nikol": 310,
      "omir": 311,
      "marta": 312,
      "anton": 313,
      "vikto": 314,
      "jarmila": 315,
      "kac": 316,
      "mirka": 317,
      "sona": 318,
      "ju": 319,
      "ilona": 320,
      "jarda": 321,
      "mag": 322,
      "lucka": 323,
      "mirek": 324,
      "richard": 325,
      "zb": 326,
      "stepan": 327,
      "icka": 328,
      "mari": 329,
      "and": 330,
      "vendu": 331,
      "nika": 332,
      "milos": 333,
      "andra": 334,
      "lada": 335,
      "ludmila": 336,
      "kamil": 337,
      "ty": 338,
      "jo": 339,
      "vlasta": 340,
      "antonin": 341,
      "vendula": 342,
      "asa": 343,
      "dominika": 344,
      "use": 345,
      "zka": 346,
      "miloslav": 347,
      "uska": 348,
      "michael": 349,
      "lin": 350,
      "ynek": 351,
      "miroslava": 352,
      "dita": 353,
      "jaromir": 354,
      "lib": 355,
      "vlasti": 356,
      "vie": 357,
      "dus": 358,
      "vasek": 359,
      "milena": 360,
      "ivo": 361,
      "pepa": 362,
      "dusan": 363,
      "tina": 364,
      "tislav": 365,
      "ren": 366,
      "vet": 367,
      "sab": 368,
      "ru": 369,
      "van": 370,
      "fan": 371,
      "viktor": 372,
      "slav": 373,
      "eri": 374,
      "lubo": 375,
      "ros": 376,
      "maty": 377,
      "ali": 378,
      "sara": 379,
      "ludek": 380,
      "kris": 381,
      "jindrich": 382,
      "vlastimil": 383,
      "jarka": 384,
      "ska": 385,
      "simon": 386,
      "stepanka": 387,
      "or": 388,
      "anicka": 389,
      "zuzka": 390,
      "marcel": 391,
      "lubomir": 392,
      "vladka": 393,
      "zbynek": 394,
      "sil": 395,
      "nada": 396,
      "terka": 397,
      "bohu": 398,
      "dalena": 399,
      "magdalena": 400,
      "anet": 401,
      "inka": 402,
      "sabina": 403,
      "se": 404,
      "libuse": 405,
      "nka": 406,
      "zaneta": 407,
      "dasa": 408,
      "linda": 409,
      "peter": 410,
      "peta": 411,
      "kacka": 412,
      "yl": 413,
      "milu": 414,
      "olf": 415,
      "nic": 416,
      "lana": 417,
      "ge": 418,
      "of": 419,
      "veta": 420,
      "kristina": 421,
      "standa": 422,
      "alic": 423,
      "alice": 424,
      "verca": 425,
      "arina": 426,
      "adri": 427,
      "silvie": 428,
      "zdena": 429,
      "dolf": 430,
      "rudolf": 431,
      "rene": 432,
      "sandra": 433,
      "adel": 434,
      "barca": 435,
      "paja": 436,
      "de": 437,
      "nela": 438,
      "ry": 439,
      "matyas": 440,
      "rostislav": 441,
      "alexandra": 442,
      "veru": 443,
      "ita": 444,
      "marian": 445,
      "tana": 446,
      "kveta": 447,
      "svet": 448,
      "rie": 449,
      "terezka": 450,
      "vladislav": 451,
      "dali": 452,
      "alexand": 453,
      "magda": 454,
      "kata": 455,
      "vladimira": 456,
      "ha": 457,
      "han": 458,
      "maria": 459,
      "oldrich": 460,
      "jindra": 461,
      "dalibor": 462,
      "jul": 463,
      "miluse": 464,
      "svetlana": 465,
      "my": 466,
      "zena": 467,
      "milada": 468,
      "br": 469,
      "mara": 470,
      "gor": 471,
      "igor": 472,
      "ezka": 473,
      "anezka": 474,
      "ny": 475,
      "adriana": 476,
      "ev": 477,
      "drah": 478,
      "erika": 479,
      "kry": 480,
      "stof": 481,
      "krystof": 482,
      "luk": 483,
      "syl": 484,
      "kaja": 485,
      "maj": 486,
      "julie": 487,
      "leona": 488,
      "stanislava": 489,
      "joh": 490,
      "nicol": 491,
      "ruz": 492,
      "be": 493,
      "petu": 494,
      "andrej": 495,
      "dy": 496,
      "rado": 497,
      "robin": 498,
      "alzb": 499,
      "alzbeta": 500,
      "terez": 501,
      "diana": 502,
      "bozena": 503,
      "mik": 504,
      "mon": 505,
      "edita": 506,
      "fanda": 507,
      "vlada": 508,
      "tyna": 509,
      "lida": 510,
      "dri": 511,
      "driska": 512,
      "maruska": 513,
      "ota": 514,
      "emil": 515,
      "klarka": 516,
      "ruzena": 517,
      "tian": 518,
      "janca": 519,
      "stefan": 520,
      "bohumil": 521,
      "tonda": 522,
      "franta": 523,
      "radovan": 524,
      "michala": 525,
      "sam": 526,
      "lka": 527,
      "erik": 528,
      "lena": 529,
      "jara": 530,
      "leos": 531,
      "ria": 532,
      "etka": 533,
      "jol": 534,
      "ynka": 535,
      "jolana": 536,
      "omira": 537,
      "kacenka": 538,
      "pre": 539,
      "lau": 540,
      "tade": 541,
      "patric": 542,
      "tadeas": 543,
      "ks": 544,
      "max": 545,
      "darina": 546,
      "kari": 547,
      "karin": 548,
      "jen": 549,
      "sva": 550,
      "alina": 551,
      "vitek": 552,
      "zef": 553,
      "jozef": 554,
      "alexandr": 555,
      "miloslava": 556,
      "verunka": 557,
      "natali": 558,
      "jindriska": 559,
      "ser": 560,
      "pep": 561,
      "oli": 562,
      "zslav": 563,
      "tezslav": 564,
      "vitezslav": 565,
      "zla": 566,
      "lucinka": 567,
      "bohus": 568,
      "viktorie": 569,
      "jura": 570,
      "zik": 571,
      "mis": 572,
      "honzik": 573,
      "tarina": 574,
      "katarina": 575,
      "natalia": 576,
      "stana": 577,
      "ivona": 578,
      "karla": 579,
      "vita": 580,
      "adelka": 581,
      "maja": 582,
      "linka": 583,
      "john": 584,
      "oks": 585,
      "bohuslav": 586,
      "oksana": 587,
      "sylva": 588,
      "andy": 589,
      "monca": 590,
      "edu": 591,
      "jenda": 592,
      "eduard": 593,
      "nina": 594,
      "venca": 595,
      "kvet": 596,
      "serge": 597,
      "baru": 598,
      "anast": 599,
      "juli": 600,
      "anastas": 601,
      "vendy": 602,
      "rosta": 603,
      "ladislava": 604,
      "mates": 605,
      "zdenda": 606,
      "drahomira": 607,
      "irina": 608,
      "tiana": 609,
      "tatiana": 610,
      "dar": 611,
      "vane": 612,
      "onislav": 613,
      "mato": 614,
      "bronislav": 615,
      "matous": 616,
      "val": 617,
      "uel": 618,
      "samuel": 619,
      "lucia": 620,
      "laura": 621,
      "hynek": 622,
      "marika": 623,
      "vale": 624,
      "valerie": 625,
      "ema": 626,
      "len": 627,
      "radomir": 628,
      "terezie": 629,
      "vra": 630,
      "ata": 631,
      "marina": 632,
      "beata": 633,
      "patricie": 634,
      "luca": 635,
      "verka": 636,
      "nicole": 637,
      "hel": 638,
      "aja": 639,
      "oslava": 640,
      "tatana": 641,
      "simca": 642,
      "evi": 643,
      "valen": 644,
      "ole": 645,
      "sl": 646,
      "nikca": 647,
      "mysl": 648,
      "premysl": 649,
      "zda": 650,
      "kaca": 651,
      "nade": 652,
      "luci": 653,
      "nadezda": 654,
      "naty": 655,
      "luky": 656,
      "bas": 657,
      "sebas": 658,
      "sebastian": 659,
      "gabina": 660,
      "ivca": 661,
      "bori": 662,
      "ir": 663,
      "barbara": 664,
      "vasyl": 665,
      "alexander": 666,
      "olda": 667,
      "kik": 668,
      "alenka": 669,
      "dv": 670,
      "edv": 671,
      "hedv": 672,
      "hedvika": 673,
      "misha": 674,
      "ivanka": 675,
      "martinka": 676,
      "hom": 677,
      "sand": 678,
      "thom": 679,
      "eksand": 680,
      "nikolka": 681,
      "thomas": 682,
      "eksandr": 683,
      "jaja": 684,
      "renca": 685,
      "ya": 686,
      "janicka": 687,
      "vile": 688,
      "natalka": 689,
      "nicola": 690,
      "vilem": 691,
      "johana": 692,
      "jarek": 693,
      "kaci": 694,
      "bert": 695,
      "sasa": 696,
      "miska": 697,
      "tibor": 698,
      "tony": 699,
      "orge": 700,
      "george": 701,
      "danuse": 702,
      "lea": 703,
      "anetka": 704,
      "alo": 705,
      "kristynka": 706,
      "ruda": 707,
      "petula": 708,
      "este": 709,
      "niki": 710,
      "ester": 711,
      "zen": 712,
      "janina": 713,
      "evzen": 714,
      "ludvik": 715,
      "die": 716,
      "jona": 717,
      "jonas": 718,
      "ule": 719,
      "mariana": 720,
      "bohumila": 721,
      "otakar": 722,
      "sylvie": 723,
      "vratislav": 724,
      "gita": 725,
      "asha": 726,
      "dom": 727,
      "deniska": 728,
      "zlata": 729,
      "domca": 730,
      "ofie": 731,
      "oleg": 732,
      "tamara": 733,
      "dave": 734,
      "vasil": 735,
      "am": 736,
      "majka": 737,
      "boris": 738,
      "kristian": 739,
      "julia": 740,
      "gina": 741,
      "regina": 742,
      "marketka": 743,
      "johny": 744,
      "andrejka": 745,
      "denca": 746,
      "vanda": 747,
      "olinka": 748,
      "ladka": 749,
      "romca": 750,
      "slavek": 751,
      "oliver": 752,
      "miria": 753,
      "alca": 754,
      "miriam": 755,
      "kvetoslava": 756,
      "anastasia": 757,
      "lumir": 758,
      "majda": 759,
      "niky": 760,
      "market": 761,
      "mario": 762,
      "alois": 763,
      "tynka": 764,
      "gri": 765,
      "ingri": 766,
      "ingrid": 767,
      "radmila": 768,
      "evca": 769,
      "juraj": 770,
      "rus": 771,
      "vaclava": 772,
      "eli": 773,
      "bob": 774,
      "helca": 775,
      "mca": 776,
      "jita": 777,
      "nikolas": 778,
      "nel": 779,
      "anita": 780,
      "janka": 781,
      "lid": 782,
      "hanca": 783,
      "ot": 784,
      "ivet": 785,
      "miluska": 786,
      "sofie": 787,
      "vitali": 788,
      "mike": 789,
      "jarca": 790,
      "danca": 791,
      "gabca": 792,
      "liba": 793,
      "kiki": 794,
      "emilie": 795,
      "tav": 796,
      "svatav": 797,
      "svatava": 798,
      "bedrich": 799,
      "tomi": 800,
      "petulka": 801,
      "tas": 802,
      "dmi": 803,
      "marty": 804,
      "dada": 805,
      "danny": 806,
      "andrei": 807,
      "slavka": 808,
      "barunka": 809,
      "kamca": 810,
      "uza": 811,
      "zuza": 812,
      "etislav": 813,
      "bretislav": 814,
      "adrian": 815,
      "otto": 816,
      "andri": 817,
      "vanes": 818,
      "valentina": 819,
      "vona": 820,
      "ym": 821,
      "yvona": 822,
      "chym": 823,
      "jirik": 824,
      "lucy": 825,
      "jachym": 826,
      "bohdana": 827,
      "vendulka": 828,
      "majk": 829,
      "mili": 830,
      "nikita": 831,
      "hanicka": 832,
      "ul": 833,
      "alie": 834,
      "karol": 835,
      "zuzanka": 836,
      "paul": 837,
      "natasa": 838,
      "venda": 839,
      "gu": 840,
      "bi": 841,
      "nos": 842,
      "arnos": 843,
      "tobi": 844,
      "arnost": 845,
      "tobias": 846,
      "hu": 847,
      "las": 848,
      "miku": 849,
      "jaruska": 850,
      "gabi": 851,
      "gabriel": 852,
      "bohdan": 853,
      "daria": 854,
      "mikulas": 855,
      "cka": 856,
      "evicka": 857,
      "aga": 858,
      "radoslav": 859,
      "agata": 860,
      "vasia": 861,
      "radana": 862,
      "ous": 863,
      "sarah": 864,
      "svit": 865,
      "pepe": 866,
      "svitlana": 867,
      "galina": 868,
      "alan": 869,
      "jane": 870,
      "lda": 871,
      "rada": 872,
      "vladislava": 873,
      "lan": 874,
      "martas": 875,
      "ruslan": 876,
      "los": 877,
      "albert": 878,
      "karlos": 879,
      "patrick": 880,
      "ekaterina": 881,
      "yveta": 882,
      "ril": 883,
      "aleksandr": 884,
      "iu": 885,
      "barus": 886,
      "vanessa": 887,
      "teri": 888,
      "mat": 889,
      "sergei": 890,
      "yana": 891,
      "lenicka": 892,
      "moj": 893,
      "tu": 894,
      "artu": 895,
      "karolinka": 896,
      "laudie": 897,
      "lenca": 898,
      "mojmir": 899,
      "artur": 900,
      "zo": 901,
      "pavol": 902,
      "milda": 903,
      "mak": 904,
      "via": 905,
      "silvia": 906,
      "ala": 907,
      "es": 908,
      "ly": 909,
      "wen": 910,
      "vlastik": 911,
      "maxim": 912,
      "anastasi": 913,
      "wendy": 914,
      "pluk": 915,
      "sek": 916,
      "zita": 917,
      "jira": 918,
      "topluk": 919,
      "viki": 920,
      "svatopluk": 921,
      "do": 922,
      "mek": 923,
      "mia": 924,
      "inna": 925,
      "bohunka": 926,
      "premek": 927,
      "kevi": 928,
      "bronislava": 929,
      "kevin": 930,
      "baruska": 931,
      "iryna": 932,
      "karina": 933,
      "vanesa": 934,
      "tomik": 935,
      "vol": 936,
      "viktoria": 937,
      "petule": 938,
      "julius": 939,
      "volo": 940,
      "eda": 941,
      "alla": 942,
      "andrey": 943,
      "dima": 944,
      "viera": 945,
      "tet": 946,
      "pavlinka": 947,
      "ino": 948,
      "leo": 949,
      "slavomir": 950,
      "pepino": 951,
      "ko": 952,
      "ivetka": 953,
      "oleksandr": 954,
      "jit": 955,
      "cto": 956,
      "kubik": 957,
      "victo": 958,
      "johanka": 959,
      "slava": 960,
      "luke": 961,
      "sergey": 962,
      "victoria": 963,
      "betka": 964,
      "em": 965,
      "no": 966,
      "pepik": 967,
      "valentyna": 968,
      "emma": 969,
      "katy": 970,
      "zanet": 971,
      "go": 972,
      "sasha": 973,
      "liu": 974,
      "hugo": 975,
      "andrew": 976,
      "nicolas": 977,
      "lili": 978,
      "simonka": 979,
      "natka": 980,
      "mes": 981,
      "james": 982,
      "ladik": 983,
      "borek": 984,
      "brona": 985,
      "antonie": 986,
      "bla": 987,
      "lydie": 988,
      "blazena": 989,
      "gel": 990,
      "angel": 991,
      "eksandra": 992,
      "miro": 993,
      "olca": 994,
      "mariia": 995,
      "sabca": 996,
      "anett": 997,
      "miki": 998,
      "johnny": 999,
      "bohuslava": 1000,
      "maky": 1001,
      "angelika": 1002,
      "klaudie": 1003,
      "nor": 1004,
      "oto": 1005,
      "zlatka": 1006,
      "lidka": 1007,
      "norbert": 1008,
      "hanna": 1009,
      "halina": 1010,
      "elen": 1011,
      "tommy": 1012,
      "denny": 1013,
      "dmitri": 1014,
      "jirinka": 1015,
      "roz": 1016,
      "marija": 1017,
      "nataliya": 1018,
      "dim": 1019,
      "lubor": 1020,
      "vadim": 1021,
      "hanz": 1022,
      "moni": 1023,
      "cen": 1024,
      "arte": 1025,
      "petka": 1026,
      "lucas": 1027,
      "sarinka": 1028,
      "mariya": 1029,
      "miky": 1030,
      "artem": 1031,
      "ima": 1032,
      "sima": 1033,
      "we": 1034,
      "dawe": 1035,
      "alexe": 1036,
      "sergej": 1037,
      "mona": 1038,
      "rota": 1039,
      "vlastislav": 1040,
      "darja": 1041,
      "nella": 1042,
      "dorota": 1043,
      "oskar": 1044,
      "ulka": 1045,
      "margita": 1046,
      "elis": 1047,
      "isa": 1048,
      "vladan": 1049,
      "larisa": 1050,
      "bohumir": 1051,
      "amalie": 1052,
      "gdan": 1053,
      "bogdan": 1054,
      "deni": 1055,
      "danka": 1056,
      "hans": 1057,
      "helenka": 1058,
      "ce": 1059,
      "ion": 1060,
      "lju": 1061,
      "katri": 1062,
      "michalka": 1063,
      "stmir": 1064,
      "andrii": 1065,
      "cestmir": 1066,
      "katrin": 1067,
      "deny": 1068,
      "bohous": 1069,
      "zora": 1070,
      "ber": 1071,
      "evik": 1072,
      "petruska": 1073,
      "maca": 1074,
      "viky": 1075,
      "natalija": 1076,
      "ba": 1077,
      "stav": 1078,
      "libuska": 1079,
      "myr": 1080,
      "dymyr": 1081,
      "svata": 1082,
      "nataliia": 1083,
      "gustav": 1084,
      "volodymyr": 1085,
      "lma": 1086,
      "polina": 1087,
      "pro": 1088,
      "any": 1089,
      "pata": 1090,
      "vilma": 1091,
      "kop": 1092,
      "prokop": 1093,
      "tjana": 1094,
      "vena": 1095,
      "anca": 1096,
      "tatjana": 1097,
      "oldriska": 1098,
      "hail": 1099,
      "mikhail": 1100,
      "kola": 1101,
      "mykola": 1102,
      "vitalii": 1103,
      "fer": 1104,
      "frantiska": 1105,
      "renda": 1106,
      "irca": 1107,
      "hela": 1108,
      "daja": 1109,
      "janek": 1110,
      "sabinka": 1111,
      "hani": 1112,
      "majkl": 1113,
      "ruzenka": 1114,
      "ox": 1115,
      "tar": 1116,
      "mirda": 1117,
      "olena": 1118,
      "oxana": 1119,
      "taras": 1120,
      "ter": 1121,
      "adolf": 1122,
      "anastasiia": 1123,
      "bri": 1124,
      "ngu": 1125,
      "yen": 1126,
      "risa": 1127,
      "petan": 1128,
      "janinka": 1129,
      "vania": 1130,
      "marcelka": 1131,
      "jenik": 1132,
      "brigita": 1133,
      "nguyen": 1134,
      "zdenca": 1135,
      "judita": 1136,
      "andela": 1137,
      "monicka": 1138,
      "matus": 1139,
      "try": 1140,
      "aleksandra": 1141,
      "liam": 1142,
      "bov": 1143,
      "zuzi": 1144,
      "viliam": 1145,
      "drahoslava": 1146,
      "dmitry": 1147,
      "iril": 1148,
      "kon": 1149,
      "kiril": 1150,
      "tin": 1151,
      "stantin": 1152,
      "konstantin": 1153,
      "kirill": 1154,
      "masa": 1155,
      "yvet": 1156,
      "elina": 1157,
      "danek": 1158,
      "stepa": 1159,
      "evelina": 1160,
      "yvetta": 1161,
      "cy": 1162,
      "cek": 1163,
      "rii": 1164,
      "onka": 1165,
      "enia": 1166,
      "ksenia": 1167,
      "iura": 1168,
      "iurii": 1169,
      "rozalie": 1170,
      "cyril": 1171,
      "ysek": 1172,
      "jina": 1173,
      "jaromira": 1174,
      "jinka": 1175,
      "zbysek": 1176,
      "bet": 1177,
      "riia": 1178,
      "tomasek": 1179,
      "viktoriia": 1180,
      "evka": 1181,
      "bety": 1182,
      "dmila": 1183,
      "ss": 1184,
      "tess": 1185,
      "kristy": 1186,
      "liudmila": 1187,
      "masha": 1188,
      "ova": 1189,
      "vova": 1190,
      "marky": 1191,
      "stislav": 1192,
      "rastislav": 1193,
      "vilda": 1194,
      "vrata": 1195,
      "matty": 1196,
      "ljuba": 1197,
      "jarous": 1198,
      "ilca": 1199,
      "lukyn": 1200,
      "irenka": 1201,
      "das": 1202,
      "iana": 1203,
      "uri": 1204,
      "yuri": 1205,
      "maryna": 1206,
      "alka": 1207,
      "jarin": 1208,
      "zdenicka": 1209,
      "vasja": 1210,
      "fany": 1211,
      "kvetoslav": 1212,
      "amalka": 1213,
      "liduska": 1214,
      "tetiana": 1215,
      "yuriy": 1216,
      "bela": 1217,
      "iza": 1218,
      "tuse": 1219,
      "rij": 1220,
      "barborka": 1221,
      "kubaj": 1222,
      "jurij": 1223,
      "julca": 1224,
      "zlatuse": 1225,
      "izabela": 1226,
      "tan": 1227,
      "vitaliy": 1228,
      "tetyana": 1229,
      "alexey": 1230,
      "tanja": 1231,
      "dasha": 1232,
      "ica": 1233,
      "jelena": 1234,
      "loj": 1235,
      "sta": 1236,
      "zie": 1237,
      "maru": 1238,
      "anasta": 1239,
      "luda": 1240,
      "tery": 1241,
      "veruska": 1242,
      "renatka": 1243,
      "venuse": 1244,
      "lubica": 1245,
      "ruza": 1246,
      "lojza": 1247,
      "anastazie": 1248,
      "ctibor": 1249,
      "zav": 1250,
      "vlado": 1251,
      "fila": 1252,
      "luba": 1253,
      "beda": 1254,
      "mikola": 1255,
      "elizav": 1256,
      "elizaveta": 1257,
      "kol": 1258,
      "olin": 1259,
      "marus": 1260,
      "radomira": 1261,
      "danuska": 1262,
      "olha": 1263,
      "marci": 1264,
      "filda": 1265,
      "svetla": 1266,
      "drahomir": 1267,
      "misule": 1268,
      "ruslana": 1269,
      "anastasiya": 1270,
      "cenek": 1271,
      "kolja": 1272,
      "gi": 1273,
      "ivka": 1274,
      "vladena": 1275,
      "hanina": 1276,
      "sergi": 1277,
      "kikina": 1278,
      "nelca": 1279,
      "dmitrii": 1280,
      "sergii": 1281,
      "jena": 1282,
      "wer": 1283,
      "maros": 1284,
      "pavli": 1285,
      "martinek": 1286,
      "mirca": 1287,
      "ivos": 1288,
      "davidek": 1289,
      "tomino": 1290,
      "andriy": 1291,
      "weru": 1292,
      "pavlik": 1293,
      "koli": 1294,
      "radus": 1295,
      "romanka": 1296,
      "vasa": 1297,
      "pepca": 1298,
      "vitalij": 1299,
      "beruska": 1300,
      "kolia": 1301,
      "hal": 1302,
      "jv": 1303,
      "zenka": 1304,
      "jaro": 1305,
      "jarmil": 1306,
      "lucik": 1307,
      "bozenka": 1308,
      "misak": 1309,
      "dejv": 1310,
      "oleh": 1311,
      "jitule": 1312,
      "ferda": 1313,
      "halyna": 1314,
      "tera": 1315,
      "verus": 1316,
      "vasik": 1317,
      "ng": 1318,
      "milana": 1319,
      "kamilka": 1320,
      "borivoj": 1321,
      "hung": 1322,
      "dmitrij": 1323,
      "lota": 1324,
      "xen": 1325,
      "sarlota": 1326,
      "miras": 1327,
      "kvetuse": 1328,
      "terinka": 1329,
      "liubov": 1330,
      "xenie": 1331,
      "dmy": 1332,
      "hor": 1333,
      "ihor": 1334,
      "tro": 1335,
      "ilja": 1336,
      "radomil": 1337,
      "darek": 1338,
      "nelinka": 1339,
      "dmytro": 1340,
      "ryna": 1341,
      "kateryna": 1342,
      "dagmara": 1343,
      "zorka": 1344,
      "bran": 1345,
      "yar": 1346,
      "jarus": 1347,
      "radan": 1348,
      "jajina": 1349,
      "lukasek": 1350,
      "lubomira": 1351,
      "drahuska": 1352,
      "cenda": 1353,
      "branislav": 1354,
      "yaroslav": 1355,
      "ys": 1356,
      "ilonka": 1357,
      "hanys": 1358,
      "breta": 1359,
      "zofie": 1360,
      "alik": 1361,
      "ivuska": 1362,
      "denda": 1363,
      "zuzu": 1364,
      "tonik": 1365,
      "dianka": 1366,
      "vitalik": 1367,
      "maxmili": 1368,
      "maxmilian": 1369,
      "cti": 1370,
      "jaryn": 1371,
      "danda": 1372,
      "danielka": 1373,
      "libena": 1374,
      "prema": 1375,
      "majky": 1376,
      "ctirad": 1377,
      "dina": 1378,
      "enika": 1379,
      "pajinka": 1380,
      "gabinka": 1381,
      "rodina": 1382,
      "dimir": 1383,
      "jozka": 1384,
      "volodimir": 1385,
      "jitus": 1386,
      "alexej": 1387,
      "berenika": 1388,
      "palo": 1389,
      "zan": 1390,
      "anato": 1391,
      "lii": 1392,
      "macek": 1393,
      "vladana": 1394,
      "imrich": 1395,
      "viktorka": 1396,
      "kacule": 1397,
      "julinka": 1398,
      "vlastimila": 1399,
      "matysek": 1400,
      "hanule": 1401,
      "terca": 1402,
      "zanda": 1403,
      "anatolii": 1404,
      "aj": 1405,
      "draha": 1406,
      "adamek": 1407,
      "adell": 1408,
      "pepek": 1409,
      "misulka": 1410,
      "valca": 1411,
      "bobina": 1412,
      "ajka": 1413,
      "bro": 1414,
      "andu": 1415,
      "vak": 1416,
      "radko": 1417,
      "ladis": 1418,
      "vladik": 1419,
      "ludka": 1420,
      "ondras": 1421,
      "slavik": 1422,
      "evina": 1423,
      "drahoslav": 1424,
      "dobro": 1425,
      "novak": 1426,
      "andulka": 1427,
      "dobromila": 1428,
      "claudie": 1429,
      "male": 1430,
      "mire": 1431,
      "janulka": 1432,
      "lidus": 1433,
      "zuzik": 1434,
      "stanik": 1435,
      "icek": 1436,
      "adrianka": 1437,
      "pepicek": 1438,
      "misicka": 1439,
      "evzenie": 1440,
      "dasenka": 1441,
      "kubajz": 1442,
      "malej": 1443,
      "mirecek": 1444,
      "kra": 1445,
      "fery": 1446,
      "kral": 1447,
      "arka": 1448,
      "janule": 1449,
      "jajinka": 1450,
      "danik": 1451,
      "oleksandra": 1452,
      "gabka": 1453,
      "kvetka": 1454,
      "vaneska": 1455,
      "lenule": 1456,
      "lidmila": 1457,
      "jituska": 1458,
      "rozarka": 1459,
      "jarousek": 1460,
      "it": 1461,
      "pit": 1462,
      "rs": 1463,
      "chos": 1464,
      "vladenka": 1465,
      "domino": 1466,
      "matylda": 1467,
      "drahos": 1468,
      "svatka": 1469,
      "makyna": 1470,
      "pitrs": 1471,
      "chose": 1472,
      "ovit": 1473,
      "zanetka": 1474,
      "marenka": 1475,
      "ontyna": 1476,
      "pavca": 1477,
      "raduska": 1478,
      "milanek": 1479,
      "patas": 1480,
      "ludovit": 1481,
      "leonka": 1482,
      "leontyna": 1483,
      "drahus": 1484,
      "vanesska": 1485,
      "daska": 1486,
      "jda": 1487,
      "sja": 1488,
      "enly": 1489,
      "rejda": 1490,
      "boda": 1491,
      "stenly": 1492,
      "strejda": 1493,
      "ladus": 1494,
      "adus": 1495,
      "lesja": 1496,
      "michaelka": 1497,
      "hanus": 1498,
      "myska": 1499,
      "drahuse": 1500,
      "ljubov": 1501,
      "kubajs": 1502,
      "ah": 1503,
      "del": 1504,
      "der": 1505,
      "tvi": 1506,
      "kajina": 1507,
      "kader": 1508,
      "sak": 1509,
      "veverka": 1510,
      "ondrasek": 1511,
      "vendel": 1512,
      "peca": 1513,
      "milus": 1514,
      "nictvi": 1515,
      "mysak": 1516,
      "petul": 1517,
      "pepina": 1518,
      "darca": 1519,
      "ahoj": 1520,
      "kadernictvi": 1521,
      "vendelin": 1522,
      "co": 1523,
      "dla": 1524,
      "ej": 1525,
      "tol": 1526,
      "laco": 1527,
      "elinka": 1528,
      "omej": 1529,
      "mirus": 1530,
      "madla": 1531,
      "bartol": 1532,
      "klari": 1533,
      "klarinka": 1534,
      "kacena": 1535,
      "hanes": 1536,
      "hanulka": 1537,
      "lukin": 1538,
      "samot": 1539,
      "pepan": 1540,
      "kacii": 1541,
      "andrij": 1542,
      "werunka": 1543,
      "bartolomej": 1544,
      "tik": 1545,
      "romanek": 1546,
      "vojtik": 1547,
      "stepka": 1548,
      "dalimil": 1549,
      "bedriska": 1550,
      "kikinka": 1551,
      "mikolas": 1552,
      "cer": 1553,
      "emca": 1554,
      "rinka": 1555,
      "tada": 1556,
      "bole": 1557,
      "bobe": 1558,
      "katerinka": 1559,
      "str": 1560,
      "islava": 1561,
      "zdislava": 1562,
      "vestr": 1563,
      "lubka": 1564,
      "silvestr": 1565,
      "kacaba": 1566,
      "cerny": 1567,
      "boleslav": 1568,
      "bobes": 1569
    },
    "merges": [
      "a n",
      "k a",
      "a r",
      "l a",
      "n a",
      "m i",
      "m ar",
      "e t",
      "an a",
      "r i",
      "r a",
      "p et",
      "t i",
      "e l",
      "o n",
      "l u",
      "a v",
      "a l",
      "e n",
      "la v",
      "mar ti",
      "c h",
      "j i",
      "o m",
      "e k",
      "o s",
      "t e",
      "r e",
      "i e",
      "a s",
      "mi ch",
      "pet r",
      "p av",
      "marti n",
      "j ana",
      "t om",
      "e la",
      "d a",
      "j an",
      "i ka",
      "tom as",
      "v a",
      "l i",
      "mi r",
      "os lav",
      "ji ri",
      "on ika",
      "en ka",
      "t a",
      "e r",
      "j ar",
      "lu c",
      "pav el",
      "et a",
      "e na",
      "i s",
      "mi l",
      "mich al",
      "i v",
      "pet ra",
      "z a",
      "ra d",
      "l enka",
      "j a",
      "luc ie",
      "i k",
      "v er",
      "b o",
      "k u",
      "ka s",
      "lu kas",
      "d re",
      "ku b",
      "d en",
      "d av",
      "ri na",
      "i d",
      "dav id",
      "ka te",
      "kate rina",
      "marti na",
      "mich a",
      "s t",
      "la d",
      "e va",
      "ka r",
      "ver onika",
      "d an",
      "r om",
      "ja kub",
      "jar oslav",
      "micha ela",
      "t ka",
      "n ik",
      "m a",
      "te re",
      "h ana",
      "o na",
      "o l",
      "b ar",
      "c a",
      "m onika",
      "u z",
      "e f",
      "tere za",
      "mar k",
      "al ena",
      "is lav",
      "re na",
      "li na",
      "mi la",
      "z den",
      "z uz",
      "j os",
      "jos ef",
      "mir oslav",
      "rom an",
      "v lad",
      "mil an",
      "mark eta",
      "i m",
      "mar ek",
      "zden ek",
      "h on",
      "rad ek",
      "hon za",
      "g a",
      "an dre",
      "ji tka",
      "k ri",
      "an ka",
      "kar el",
      "mar ie",
      "al e",
      "u s",
      "zuz ana",
      "p a",
      "s ar",
      "iv ana",
      "y na",
      "d ra",
      "mar c",
      "r ka",
      "on dre",
      "ondre j",
      "i el",
      "dan iel",
      "andre a",
      "c lav",
      "va clav",
      "an na",
      "kri st",
      "f i",
      "o mi",
      "krist yna",
      "ti s",
      "li p",
      "fi lip",
      "vlad i",
      "l ar",
      "rena ta",
      "a d",
      "k lar",
      "sar ka",
      "s im",
      "a da",
      "marc ela",
      "bar bo",
      "d ana",
      "ji rka",
      "barbo ra",
      "d omi",
      "pav la",
      "z d",
      "r an",
      "ada m",
      "s a",
      "v e",
      "f ran",
      "o j",
      "ga b",
      "el ena",
      "ve ra",
      "klar a",
      "vladi mir",
      "i na",
      "is ka",
      "v oj",
      "v i",
      "o la",
      "st an",
      "iv eta",
      "pav lina",
      "el iska",
      "fran tis",
      "ri ch",
      "rad ka",
      "t ri",
      "bo r",
      "frantis ek",
      "den is",
      "s te",
      "o lina",
      "i n",
      "h elena",
      "an eta",
      "pa tri",
      "nik ola",
      "gab ri",
      "i c",
      "na t",
      "zd enka",
      "v la",
      "r o",
      "lad islav",
      "gabri ela",
      "kar olina",
      "ale s",
      "i l",
      "sim ona",
      "patri k",
      "ma te",
      "ad ela",
      "nat al",
      "lu d",
      "i va",
      "denis a",
      "ro b",
      "stan islav",
      "t o",
      "vla s",
      "ste p",
      "domi nik",
      "on dra",
      "mate j",
      "g mar",
      "da gmar",
      "v en",
      "er t",
      "t on",
      "i rena",
      "ie la",
      "dan iela",
      "rom ana",
      "i a",
      "li bor",
      "jaroslav a",
      "v ik",
      "rob ert",
      "ka tka",
      "ale x",
      "ji n",
      "h anka",
      "b l",
      "bl anka",
      "iv an",
      "l e",
      "mi sa",
      "lu b",
      "ka mila",
      "mi ra",
      "d i",
      "rad im",
      "ol ga",
      "lub os",
      "ar d",
      "v as",
      "d u",
      "te ch",
      "voj tech",
      "p e",
      "vi t",
      "d rich",
      "jiri na",
      "y n",
      "voj ta",
      "natal ie",
      "bar a",
      "kub a",
      "bo h",
      "nik ol",
      "o mir",
      "mar ta",
      "an ton",
      "vik to",
      "jar mila",
      "ka c",
      "mir ka",
      "s ona",
      "j u",
      "il ona",
      "jar da",
      "ma g",
      "luc ka",
      "mir ek",
      "rich ard",
      "z b",
      "step an",
      "ic ka",
      "mar i",
      "an d",
      "ven du",
      "n ika",
      "mil os",
      "an dra",
      "la da",
      "lud mila",
      "ka mil",
      "t y",
      "j o",
      "vlas ta",
      "anton in",
      "vendu la",
      "as a",
      "domi nika",
      "us e",
      "z ka",
      "mil oslav",
      "us ka",
      "micha el",
      "li n",
      "yn ek",
      "miroslav a",
      "di ta",
      "jar omir",
      "li b",
      "vlas ti",
      "v ie",
      "d us",
      "vas ek",
      "mil ena",
      "iv o",
      "pe pa",
      "dus an",
      "ti na",
      "tis lav",
      "r en",
      "v et",
      "sa b",
      "r u",
      "v an",
      "f an",
      "vikto r",
      "s lav",
      "e ri",
      "lu bo",
      "r os",
      "ma ty",
      "al i",
      "sar a",
      "lud ek",
      "kri s",
      "jin drich",
      "vlasti mil",
      "jar ka",
      "s ka",
      "sim on",
      "step anka",
      "o r",
      "an icka",
      "zuz ka",
      "marc el",
      "lubo mir",
      "vlad ka",
      "zb ynek",
      "s il",
      "na da",
      "te rka",
      "boh u",
      "d alena",
      "mag dalena",
      "an et",
      "in ka",
      "sab ina",
      "s e",
      "lib use",
      "n ka",
      "z aneta",
      "d asa",
      "lin da",
      "pet er",
      "pet a",
      "kac ka",
      "y l",
      "mi lu",
      "ol f",
      "n ic",
      "l ana",
      "g e",
      "o f",
      "v eta",
      "kris tina",
      "stan da",
      "al ic",
      "alic e",
      "ver ca",
      "ar ina",
      "ad ri",
      "sil vie",
      "zd ena",
      "d olf",
      "ru dolf",
      "ren e",
      "s andra",
      "ad el",
      "bar ca",
      "pa ja",
      "d e",
      "n ela",
      "r y",
      "maty as",
      "ros tislav",
      "alex andra",
      "ver u",
      "i ta",
      "mari an",
      "t ana",
      "k veta",
      "s vet",
      "ri e",
      "tere zka",
      "vlad islav",
      "d ali",
      "alex and",
      "mag da",
      "ka ta",
      "vladi mira",
      "h a",
      "h an",
      "mar ia",
      "ol drich",
      "jin dra",
      "dali bor",
      "ju l",
      "milu se",
      "svet lana",
      "m y",
      "z ena",
      "mila da",
      "b r",
      "mar a",
      "g or",
      "i gor",
      "e zka",
      "an ezka",
      "n y",
      "adri ana",
      "e v",
      "dra h",
      "eri ka",
      "k ry",
      "st of",
      "kry stof",
      "lu k",
      "s yl",
      "ka ja",
      "ma j",
      "jul ie",
      "le ona",
      "stanislav a",
      "jo h",
      "nic ol",
      "r uz",
      "b e",
      "pet u",
      "andre j",
      "d y",
      "rad o",
      "rob in",
      "al zb",
      "alzb eta",
      "tere z",
      "di ana",
      "bo zena",
      "mi k",
      "m on",
      "e dita",
      "fan da",
      "vla da",
      "t yna",
      "li da",
      "d ri",
      "dri ska",
      "mar uska",
      "o ta",
      "e mil",
      "klar ka",
      "ruz ena",
      "ti an",
      "jan ca",
      "ste fan",
      "bohu mil",
      "ton da",
      "fran ta",
      "rado van",
      "micha la",
      "sa m",
      "l ka",
      "eri k",
      "l ena",
      "jar a",
      "le os",
      "ri a",
      "et ka",
      "j ol",
      "yn ka",
      "jol ana",
      "omi ra",
      "kac enka",
      "p re",
      "la u",
      "ta de",
      "patri c",
      "tade as",
      "k s",
      "ma x",
      "d arina",
      "ka ri",
      "kari n",
      "j en",
      "s va",
      "al ina",
      "vit ek",
      "z ef",
      "jo zef",
      "alexand r",
      "miloslav a",
      "veru nka",
      "natal i",
      "jin driska",
      "s er",
      "pe p",
      "o li",
      "z slav",
      "te zslav",
      "vi tezslav",
      "z la",
      "luc inka",
      "boh us",
      "vikto rie",
      "ju ra",
      "z ik",
      "mi s",
      "hon zik",
      "t arina",
      "ka tarina",
      "natal ia",
      "st ana",
      "iv ona",
      "kar la",
      "vi ta",
      "adel ka",
      "ma ja",
      "lin ka",
      "joh n",
      "o ks",
      "bohus lav",
      "oks ana",
      "syl va",
      "and y",
      "mon ca",
      "e du",
      "jen da",
      "edu ard",
      "n ina",
      "ven ca",
      "k vet",
      "ser ge",
      "bar u",
      "ana st",
      "ju li",
      "anast as",
      "ven dy",
      "ros ta",
      "ladislav a",
      "mate s",
      "zden da",
      "drah omira",
      "i rina",
      "ti ana",
      "ta tiana",
      "d ar",
      "van e",
      "on islav",
      "ma to",
      "br onislav",
      "mato us",
      "v al",
      "u el",
      "sam uel",
      "luc ia",
      "lau ra",
      "h ynek",
      "mar ika",
      "v ale",
      "vale rie",
      "e ma",
      "l en",
      "rad omir",
      "terez ie",
      "v ra",
      "a ta",
      "mar ina",
      "be ata",
      "patric ie",
      "luc a",
      "ver ka",
      "nicol e",
      "h el",
      "a ja",
      "oslav a",
      "ta tana",
      "sim ca",
      "e vi",
      "val en",
      "ol e",
      "s l",
      "nik ca",
      "my sl",
      "pre mysl",
      "z da",
      "ka ca",
      "na de",
      "luc i",
      "nade zda",
      "nat y",
      "luk y",
      "b as",
      "se bas",
      "sebas tian",
      "gab ina",
      "iv ca",
      "bo ri",
      "i r",
      "bar bara",
      "vas yl",
      "alexand er",
      "ol da",
      "k ik",
      "al enka",
      "d v",
      "e dv",
      "h edv",
      "hedv ika",
      "mis ha",
      "iv anka",
      "martin ka",
      "h om",
      "s and",
      "t hom",
      "ek sand",
      "nikol ka",
      "thom as",
      "eksand r",
      "ja ja",
      "ren ca",
      "y a",
      "jan icka",
      "vi le",
      "natal ka",
      "nic ola",
      "vile m",
      "jo hana",
      "jar ek",
      "kac i",
      "b ert",
      "s asa",
      "mi ska",
      "ti bor",
      "ton y",
      "or ge",
      "ge orge",
      "dan use",
      "le a",
      "anet ka",
      "al o",
      "krist ynka",
      "ru da",
      "petu la",
      "e ste",
      "nik i",
      "este r",
      "z en",
      "jan ina",
      "ev zen",
      "lud vik",
      "d ie",
      "j ona",
      "jona s",
      "u le",
      "mari ana",
      "bohu mila",
      "ota kar",
      "syl vie",
      "vra tislav",
      "g ita",
      "as ha",
      "d om",
      "den iska",
      "zla ta",
      "dom ca",
      "of ie",
      "ole g",
      "ta mara",
      "dav e",
      "vas il",
      "a m",
      "maj ka",
      "bori s",
      "kris tian",
      "juli a",
      "g ina",
      "re gina",
      "mark etka",
      "joh ny",
      "andrej ka",
      "den ca",
      "van da",
      "o linka",
      "lad ka",
      "rom ca",
      "slav ek",
      "oli ver",
      "mi ria",
      "al ca",
      "miria m",
      "kvet oslava",
      "anastas ia",
      "lu mir",
      "maj da",
      "nik y",
      "mark et",
      "mari o",
      "alo is",
      "t ynka",
      "g ri",
      "in gri",
      "ingri d",
      "rad mila",
      "ev ca",
      "jura j",
      "r us",
      "vaclav a",
      "el i",
      "bo b",
      "hel ca",
      "m ca",
      "ji ta",
      "nikola s",
      "n el",
      "an ita",
      "jan ka",
      "li d",
      "han ca",
      "o t",
      "iv et",
      "milu ska",
      "s ofie",
      "vit ali",
      "mik e",
      "jar ca",
      "dan ca",
      "gab ca",
      "lib a",
      "kik i",
      "emil ie",
      "t av",
      "sva tav",
      "svatav a",
      "be drich",
      "t omi",
      "petu lka",
      "t as",
      "d mi",
      "mar ty",
      "da da",
      "dan ny",
      "andre i",
      "slav ka",
      "baru nka",
      "ka mca",
      "u za",
      "z uza",
      "et islav",
      "br etislav",
      "adri an",
      "ot to",
      "and ri",
      "vane s",
      "valen tina",
      "v ona",
      "y m",
      "y vona",
      "ch ym",
      "jiri k",
      "luc y",
      "ja chym",
      "boh dana",
      "vendu lka",
      "maj k",
      "mi li",
      "nik ita",
      "h anicka",
      "u l",
      "al ie",
      "kar ol",
      "zuz anka",
      "pa ul",
      "nat asa",
      "ven da",
      "g u",
      "b i",
      "n os",
      "ar nos",
      "to bi",
      "arnos t",
      "tobi as",
      "h u",
      "la s",
      "mi ku",
      "jar uska",
      "gab i",
      "gabri el",
      "boh dan",
      "dar ia",
      "miku las",
      "c ka",
      "evi cka",
      "a ga",
      "rad oslav",
      "aga ta",
      "vas ia",
      "rad ana",
      "o us",
      "sara h",
      "s vit",
      "pe pe",
      "svit lana",
      "g alina",
      "al an",
      "jan e",
      "l da",
      "ra da",
      "vladislav a",
      "l an",
      "mar tas",
      "rus lan",
      "l os",
      "al bert",
      "kar los",
      "patric k",
      "e katerina",
      "y veta",
      "ri l",
      "al eksandr",
      "i u",
      "bar us",
      "vanes sa",
      "te ri",
      "ma t",
      "serge i",
      "y ana",
      "len icka",
      "m oj",
      "t u",
      "ar tu",
      "kar olinka",
      "lau die",
      "len ca",
      "moj mir",
      "artu r",
      "z o",
      "pav ol",
      "mil da",
      "ma k",
      "vi a",
      "sil via",
      "a la",
      "e s",
      "l y",
      "w en",
      "vlasti k",
      "max im",
      "anastas i",
      "wen dy",
      "p luk",
      "s ek",
      "z ita",
      "ji ra",
      "to pluk",
      "vik i",
      "sva topluk",
      "d o",
      "m ek",
      "mi a",
      "in na",
      "bohu nka",
      "pre mek",
      "k evi",
      "bronislav a",
      "kevi n",
      "bar uska",
      "ir yna",
      "ka rina",
      "vane sa",
      "tomi k",
      "v ol",
      "vikto ria",
      "petu le",
      "juli us",
      "vol o",
      "e da",
      "al la",
      "andre y",
      "di ma",
      "vie ra",
      "t et",
      "pav linka",
      "in o",
      "le o",
      "slav omir",
      "pep ino",
      "k o",
      "iv etka",
      "ol eksandr",
      "ji t",
      "c to",
      "kub ik",
      "vi cto",
      "jo hanka",
      "slav a",
      "luk e",
      "serge y",
      "victo ria",
      "b etka",
      "e m",
      "n o",
      "pep ik",
      "valen tyna",
      "em ma",
      "ka ty",
      "z anet",
      "g o",
      "s asha",
      "li u",
      "hu go",
      "andre w",
      "nicola s",
      "li li",
      "simon ka",
      "na tka",
      "m es",
      "ja mes",
      "lad ik",
      "bor ek",
      "br ona",
      "anton ie",
      "b la",
      "ly die",
      "bla zena",
      "g el",
      "an gel",
      "ek sandra",
      "mir o",
      "ol ca",
      "mari ia",
      "sab ca",
      "anet t",
      "mik i",
      "john ny",
      "bohuslav a",
      "mak y",
      "angel ika",
      "k laudie",
      "n or",
      "o to",
      "zla tka",
      "lid ka",
      "nor bert",
      "h anna",
      "h alina",
      "el en",
      "tom my",
      "den ny",
      "dmi tri",
      "jiri nka",
      "ro z",
      "mari ja",
      "natali ya",
      "d im",
      "lu bor",
      "va dim",
      "han z",
      "mon i",
      "c en",
      "ar te",
      "pet ka",
      "luc as",
      "sar inka",
      "mari ya",
      "mik y",
      "arte m",
      "i ma",
      "s ima",
      "w e",
      "da we",
      "alex e",
      "serge j",
      "m ona",
      "ro ta",
      "vlas tislav",
      "dar ja",
      "nel la",
      "do rota",
      "os kar",
      "u lka",
      "mar gita",
      "el is",
      "is a",
      "vlad an",
      "lar isa",
      "bohu mir",
      "am alie",
      "g dan",
      "bo gdan",
      "den i",
      "dan ka",
      "han s",
      "hel enka",
      "c e",
      "i on",
      "l ju",
      "ka tri",
      "michal ka",
      "st mir",
      "andri i",
      "ce stmir",
      "katri n",
      "den y",
      "boh ous",
      "zo ra",
      "b er",
      "e vik",
      "petr uska",
      "ma ca",
      "vik y",
      "natali ja",
      "b a",
      "st av",
      "lib uska",
      "my r",
      "dy myr",
      "sva ta",
      "natali ia",
      "gu stav",
      "volo dymyr",
      "l ma",
      "p olina",
      "p ro",
      "an y",
      "pa ta",
      "vi lma",
      "ko p",
      "pro kop",
      "t jana",
      "v ena",
      "an ca",
      "ta tjana",
      "ol driska",
      "ha il",
      "mik hail",
      "k ola",
      "my kola",
      "vitali i",
      "f er",
      "frantis ka",
      "ren da",
      "ir ca",
      "h ela",
      "da ja",
      "jan ek",
      "sab inka",
      "han i",
      "majk l",
      "ruz enka",
      "o x",
      "t ar",
      "mir da",
      "ol ena",
      "ox ana",
      "tar as",
      "te r",
      "ad olf",
      "anastasi ia",
      "b ri",
      "n gu",
      "y en",
      "ri sa",
      "pet an",
      "jan inka",
      "van ia",
      "marcel ka",
      "jen ik",
      "bri gita",
      "ngu yen",
      "zden ca",
      "ju dita",
      "and ela",
      "mon icka",
      "mat us",
      "t ry",
      "al eksandra",
      "li am",
      "bo v",
      "zuz i",
      "vi liam",
      "drah oslava",
      "dmi try",
      "i ril",
      "k on",
      "k iril",
      "ti n",
      "stan tin",
      "kon stantin",
      "kiril l",
      "m asa",
      "y vet",
      "el ina",
      "dan ek",
      "ste pa",
      "ev elina",
      "yvet ta",
      "c y",
      "c ek",
      "ri i",
      "on ka",
      "en ia",
      "ks enia",
      "iu ra",
      "iu rii",
      "roz alie",
      "cy ril",
      "y sek",
      "ji na",
      "jar omira",
      "jin ka",
      "zb ysek",
      "b et",
      "ri ia",
      "tomas ek",
      "vikto riia",
      "ev ka",
      "bet y",
      "d mila",
      "s s",
      "te ss",
      "krist y",
      "liu dmila",
      "m asha",
      "o va",
      "v ova",
      "mark y",
      "s tislav",
      "ra stislav",
      "vi lda",
      "vra ta",
      "mat ty",
      "lju ba",
      "jar ous",
      "il ca",
      "luk yn",
      "ir enka",
      "d as",
      "i ana",
      "u ri",
      "y uri",
      "mar yna",
      "al ka",
      "jar in",
      "zden icka",
      "vas ja",
      "fan y",
      "kvet oslav",
      "am alka",
      "lid uska",
      "tet iana",
      "yuri y",
      "b ela",
      "i za",
      "t use",
      "ri j",
      "barbo rka",
      "kuba j",
      "ju rij",
      "jul ca",
      "zla tuse",
      "iza bela",
      "t an",
      "vitali y",
      "tet yana",
      "alexe y",
      "tan ja",
      "d asha",
      "i ca",
      "j elena",
      "l oj",
      "s ta",
      "z ie",
      "mar u",
      "ana sta",
      "lu da",
      "te ry",
      "ver uska",
      "rena tka",
      "ven use",
      "lub ica",
      "ru za",
      "loj za",
      "anasta zie",
      "c tibor",
      "z av",
      "vlad o",
      "fi la",
      "lub a",
      "be da",
      "mik ola",
      "eli zav",
      "elizav eta",
      "k ol",
      "o lin",
      "mar us",
      "rad omira",
      "dan uska",
      "ol ha",
      "marc i",
      "fi lda",
      "svet la",
      "drah omir",
      "mis ule",
      "rus lana",
      "anastasi ya",
      "cen ek",
      "kol ja",
      "g i",
      "iv ka",
      "vlad ena",
      "han ina",
      "ser gi",
      "kik ina",
      "nel ca",
      "dmitri i",
      "sergi i",
      "j ena",
      "w er",
      "mar os",
      "pav li",
      "martin ek",
      "mir ca",
      "iv os",
      "david ek",
      "tomi no",
      "andri y",
      "wer u",
      "pavli k",
      "k oli",
      "rad us",
      "roman ka",
      "vas a",
      "pep ca",
      "vitali j",
      "ber uska",
      "koli a",
      "h al",
      "j v",
      "z enka",
      "jar o",
      "jar mil",
      "luc ik",
      "bo zenka",
      "misa k",
      "de jv",
      "ole h",
      "jit ule",
      "fer da",
      "hal yna",
      "te ra",
      "ver us",
      "vas ik",
      "n g",
      "mil ana",
      "kamil ka",
      "bori voj",
      "hu ng",
      "dmitri j",
      "l ota",
      "x en",
      "sar lota",
      "mira s",
      "kvet use",
      "teri nka",
      "liu bov",
      "xen ie",
      "d my",
      "h or",
      "i hor",
      "t ro",
      "il ja",
      "rado mil",
      "dar ek",
      "nel inka",
      "dmy tro",
      "r yna",
      "kate ryna",
      "dagmar a",
      "zo rka",
      "b ran",
      "y ar",
      "jar us",
      "rad an",
      "ja jina",
      "lukas ek",
      "lubo mira",
      "drah uska",
      "cen da",
      "bran islav",
      "yar oslav",
      "y s",
      "il onka",
      "han ys",
      "br eta",
      "z ofie",
      "al ik",
      "iv uska",
      "den da",
      "zuz u",
      "ton ik",
      "di anka",
      "vit alik",
      "max mili",
      "maxmili an",
      "c ti",
      "jar yn",
      "dan da",
      "daniel ka",
      "lib ena",
      "pre ma",
      "majk y",
      "cti rad",
      "d ina",
      "en ika",
      "pa jinka",
      "gab inka",
      "ro dina",
      "di mir",
      "jo zka",
      "volo dimir",
      "jit us",
      "alexe j",
      "ber enika",
      "p alo",
      "z an",
      "ana to",
      "li i",
      "ma cek",
      "vlad ana",
      "im rich",
      "vikto rka",
      "kac ule",
      "ju linka",
      "vlasti mila",
      "maty sek",
      "han ule",
      "ter ca",
      "zan da",
      "anato lii",
      "a j",
      "dra ha",
      "adam ek",
      "adel l",
      "pep ek",
      "mis ulka",
      "val ca",
      "bob ina",
      "aj ka",
      "b ro",
      "an du",
      "va k",
      "rad ko",
      "lad is",
      "vlad ik",
      "lud ka",
      "ondra s",
      "slav ik",
      "ev ina",
      "drah oslav",
      "do bro",
      "no vak",
      "andu lka",
      "dobro mila",
      "c laudie",
      "m ale",
      "mi re",
      "jan ulka",
      "li dus",
      "zuz ik",
      "stan ik",
      "ic ek",
      "adri anka",
      "pep icek",
      "mis icka",
      "evzen ie",
      "das enka",
      "kubaj z",
      "male j",
      "mire cek",
      "k ra",
      "fer y",
      "kra l",
      "ar ka",
      "jan ule",
      "ja jinka",
      "dan ik",
      "ol eksandra",
      "gab ka",
      "kvet ka",
      "vane ska",
      "len ule",
      "lid mila",
      "jit uska",
      "roz arka",
      "jarous ek",
      "i t",
      "p it",
      "r s",
      "ch os",
      "vlad enka",
      "domi no",
      "maty lda",
      "drah os",
      "sva tka",
      "mak yna",
      "pit rs",
      "chos e",
      "o vit",
      "z anetka",
      "mar enka",
      "on tyna",
      "pav ca",
      "rad uska",
      "milan ek",
      "pa tas",
      "lud ovit",
      "le onka",
      "le ontyna",
      "drah us",
      "vanes ska",
      "das ka",
      "j da",
      "s ja",
      "en ly",
      "re jda",
      "bo da",
      "st enly",
      "st rejda",
      "lad us",
      "ad us",
      "le sja",
      "michael ka",
      "han us",
      "my ska",
      "drah use",
      "lju bov",
      "kubaj s",
      "a h",
      "d el",
      "d er",
      "t vi",
      "ka jina",
      "ka der",
      "sa k",
      "ve verka",
      "ondra sek",
      "ven del",
      "pe ca",
      "milu s",
      "nic tvi",
      "my sak",
      "petu l",
      "pep ina",
      "dar ca",
      "ah oj",
      "kader nictvi",
      "vendel in",
      "c o",
      "d la",
      "e j",
      "t ol",
      "la co",
      "el inka",
      "om ej",
      "mir us",
      "ma dla",
      "bar tol",
      "klar i",
      "klar inka",
      "kac ena",
      "han es",
      "han ulka",
      "luk in",
      "sam ot",
      "pep an",
      "kaci i",
      "andri j",
      "weru nka",
      "bartol omej",
      "ti k",
      "roman ek",
      "voj tik",
      "step ka",
      "dali mil",
      "be driska",
      "kik inka",
      "mikola s",
      "c er",
      "e mca",
      "ri nka",
      "ta da",
      "bo le",
      "bo be",
      "kate rinka",
      "st r",
      "islav a",
      "zd islava",
      "ve str",
      "lub ka",
      "sil vestr",
      "kaca ba",
      "cer ny",
      "bole slav",
      "bobe s"
    ]
  }
}