{
  "version": "1.0",
  "truncation": null,
  "padding": null,
  "added_tokens": [
    {
      "id": 0,
      "content": "[UNK]",
      "single_word": false,
      "lstrip": false,
      "rstrip": false,
      "normalized": false,
      "special": true
    },
    {
      "id": 1,
      "content": "[CLS]",
      "single_word": false,
      "lstrip": false,
      "rstrip": false,
      "normalized": false,
      "special": true
    },
    {
      "id": 2,
      "content": "[SEP]",
      "single_word": false,
      "lstrip": false,
      "rstrip": false,
      "normalized": false,
      "special": true
    },
    {
      "id": 3,
      "content": "[PAD]",
      "single_word": false,
      "lstrip": false,
      "rstrip": false,
      "normalized": false,
      "special": true
    },
    {
      "id": 4,
      "content": "[MASK]",
      "single_word": false,
      "lstrip": false,
      "rstrip": false,
      "normalized": false,
      "special": true
    }
  ],
  "normalizer": null,
  "pre_tokenizer": {
    "type": "Whitespace"
  },
  "post_processor": null,
  "decoder": null,
  "model": {
    "type": "BPE",
    "dropout": null,
    "unk_token": "[UNK]",
    "continuing_subword_prefix": null,
    "end_of_word_suffix": null,
    "fuse_unk": false,
    "vocab": {
      "[UNK]": 0,
      "[CLS]": 1,
      "[SEP]": 2,
      "[PAD]": 3,
      "[MASK]": 4,
      "-": 5,
      "a": 6,
      "b": 7,
      "c": 8,
      "d": 9,
      "e": 10,
      "f": 11,
      "g": 12,
      "h": 13,
      "i": 14,
      "j": 15,
      "k": 16,
      "l": 17,
      "m": 18,
      "n": 19,
      "o": 20,
      "p": 21,
      "q": 22,
      "r": 23,
      "s": 24,
      "t": 25,
      "u": 26,
      "v": 27,
      "w": 28,
      "x": 29,
      "y": 30,
      "z": 31,
      "ha": 32,
      "ma": 33,
      "ra": 34,
      "sa": 35,
      "sh": 36,
      "me": 37,
      "mo": 38,
      "md": 39,
      "med": 40,
      "moha": 41,
      "an": 42,
      "ab": 43,
      "ul": 44,
      "ee": 45,
      "al": 46,
      "mad": 47,
      "ar": 48,
      "sha": 49,
      "moham": 50,
      "am": 51,
      "in": 52,
      "su": 53,
      "raj": 54,
      "abd": 55,
      "mu": 56,
      "ah": 57,
      "man": 58,
      "na": 59,
      "il": 60,
      "esh": 61,
      "ja": 62,
      "abdul": 63,
      "ir": 64,
      "san": 65,
      "mohamed": 66,
      "mar": 67,
      "im": 68,
      "mohammed": 69,
      "id": 70,
      "ash": 71,
      "ham": 72,
      "ri": 73,
      "fa": 74,
      "ahmed": 75,
      "el": 76,
      "nd": 77,
      "as": 78,
      "muham": 79,
      "mohammad": 80,
      "it": 81,
      "sal": 82,
      "ali": 83,
      "mal": 84,
      "ram": 85,
      "ak": 86,
      "jay": 87,
      "ran": 88,
      "rah": 89,
      "kha": 90,
      "bi": 91,
      "ndra": 92,
      "muhammad": 93,
      "pra": 94,
      "er": 95,
      "ed": 96,
      "umar": 97,
      "ka": 98,
      "ro": 99,
      "jo": 100,
      "ur": 101,
      "th": 102,
      "kumar": 103,
      "mah": 104,
      "ad": 105,
      "endra": 106,
      "la": 107,
      "jit": 108,
      "no": 109,
      "dee": 110,
      "han": 111,
      "khal": 112,
      "un": 113,
      "abu": 114,
      "vi": 115,
      "eer": 116,
      "mesh": 117,
      "ik": 118,
      "if": 119,
      "bin": 120,
      "sur": 121,
      "ud": 122,
      "ib": 123,
      "deep": 124,
      "or": 125,
      "se": 126,
      "moh": 127,
      "ip": 128,
      "ta": 129,
      "sam": 130,
      "pr": 131,
      "ya": 132,
      "raf": 133,
      "so": 134,
      "sun": 135,
      "cha": 136,
      "nas": 137,
      "ni": 138,
      "raju": 139,
      "od": 140,
      "shan": 141,
      "rahim": 142,
      "eem": 143,
      "ahmad": 144,
      "osh": 145,
      "em": 146,
      "oj": 147,
      "ramesh": 148,
      "dip": 149,
      "shah": 150,
      "sant": 151,
      "kash": 152,
      "az": 153,
      "rajesh": 154,
      "eed": 155,
      "shad": 156,
      "is": 157,
      "us": 158,
      "ish": 159,
      "manoj": 160,
      "suresh": 161,
      "yam": 162,
      "rish": 163,
      "ju": 164,
      "sunil": 165,
      "vin": 166,
      "kamal": 167,
      "sham": 168,
      "nu": 169,
      "yed": 170,
      "gan": 171,
      "mohd": 172,
      "far": 173,
      "kar": 174,
      "anil": 175,
      "kesh": 176,
      "iz": 177,
      "din": 178,
      "ibrahim": 179,
      "rash": 180,
      "iv": 181,
      "sad": 182,
      "santosh": 183,
      "sar": 184,
      "mahmo": 185,
      "muhammed": 186,
      "krish": 187,
      "krishna": 188,
      "ba": 189,
      "da": 190,
      "sara": 191,
      "khalid": 192,
      "ga": 193,
      "lah": 194,
      "meer": 195,
      "go": 196,
      "jith": 197,
      "yo": 198,
      "mun": 199,
      "jan": 200,
      "abdulla": 201,
      "pa": 202,
      "mahmoud": 203,
      "alam": 204,
      "lam": 205,
      "iq": 206,
      "babu": 207,
      "hamad": 208,
      "war": 209,
      "omar": 210,
      "wan": 211,
      "ru": 212,
      "dinesh": 213,
      "ssan": 214,
      "hassan": 215,
      "jee": 216,
      "yas": 217,
      "noor": 218,
      "on": 219,
      "abdullah": 220,
      "mon": 221,
      "es": 222,
      "bash": 223,
      "hari": 224,
      "raja": 225,
      "ek": 226,
      "inc": 227,
      "princ": 228,
      "imran": 229,
      "mus": 230,
      "ok": 231,
      "sanjay": 232,
      "gar": 233,
      "lo": 234,
      "lov": 235,
      "bh": 236,
      "isal": 237,
      "faisal": 238,
      "vijay": 239,
      "prakash": 240,
      "bir": 241,
      "ashraf": 242,
      "tafa": 243,
      "fat": 244,
      "har": 245,
      "mohamad": 246,
      "ima": 247,
      "mer": 248,
      "tar": 249,
      "syed": 250,
      "ashok": 251,
      "saj": 252,
      "nou": 253,
      "lal": 254,
      "hn": 255,
      "john": 256,
      "prem": 257,
      "dil": 258,
      "hel": 259,
      "saif": 260,
      "yan": 261,
      "ravi": 262,
      "ala": 263,
      "khan": 264,
      "ser": 265,
      "wa": 266,
      "mail": 267,
      "ismail": 268,
      "tan": 269,
      "amir": 270,
      "een": 271,
      "gir": 272,
      "mi": 273,
      "arun": 274,
      "iva": 275,
      "nur": 276,
      "ajay": 277,
      "sul": 278,
      "anwar": 279,
      "rakesh": 280,
      "bel": 281,
      "tha": 282,
      "you": 283,
      "shnu": 284,
      "ganesh": 285,
      "jun": 286,
      "arjun": 287,
      "abul": 288,
      "prince": 289,
      "eesh": 290,
      "had": 291,
      "za": 292,
      "om": 293,
      "rashid": 294,
      "lax": 295,
      "abo": 296,
      "mohan": 297,
      "af": 298,
      "jose": 299,
      "shyam": 300,
      "par": 301,
      "hil": 302,
      "sain": 303,
      "dan": 304,
      "khaled": 305,
      "aziz": 306,
      "salim": 307,
      "deepak": 308,
      "nab": 309,
      "mahesh": 310,
      "binod": 311,
      "mari": 312,
      "ndar": 313,
      "rahman": 314,
      "sud": 315,
      "arif": 316,
      "jamal": 317,
      "hi": 318,
      "sameer": 319,
      "suman": 320,
      "gop": 321,
      "sr": 322,
      "fahad": 323,
      "mod": 324,
      "ay": 325,
      "roshan": 326,
      "rana": 327,
      "shahid": 328,
      "bib": 329,
      "naz": 330,
      "ge": 331,
      "sel": 332,
      "shaik": 333,
      "ai": 334,
      "umesh": 335,
      "nan": 336,
      "amr": 337,
      "hus": 338,
      "sef": 339,
      "rahul": 340,
      "bu": 341,
      "jahan": 342,
      "salman": 343,
      "os": 344,
      "sim": 345,
      "maha": 346,
      "nasir": 347,
      "hasan": 348,
      "sumon": 349,
      "chandra": 350,
      "sagar": 351,
      "nasser": 352,
      "nar": 353,
      "nav": 354,
      "si": 355,
      "bha": 356,
      "vinod": 357,
      "uk": 358,
      "she": 359,
      "ely": 360,
      "lovely": 361,
      "rajan": 362,
      "mukesh": 363,
      "suraj": 364,
      "jame": 365,
      "bil": 366,
      "ki": 367,
      "asif": 368,
      "he": 369,
      "zal": 370,
      "bijay": 371,
      "saeed": 372,
      "santh": 373,
      "joy": 374,
      "rubel": 375,
      "gopal": 376,
      "pradeep": 377,
      "sonu": 378,
      "adam": 379,
      "dipak": 380,
      "fan": 381,
      "irfan": 382,
      "fatima": 383,
      "hab": 384,
      "fir": 385,
      "bishnu": 386,
      "chand": 387,
      "shaf": 388,
      "sultan": 389,
      "malik": 390,
      "dam": 391,
      "rak": 392,
      "jad": 393,
      "stafa": 394,
      "mostafa": 395,
      "wal": 396,
      "bal": 397,
      "ph": 398,
      "joseph": 399,
      "habib": 400,
      "aslam": 401,
      "samir": 402,
      "mil": 403,
      "kir": 404,
      "lu": 405,
      "dra": 406,
      "kan": 407,
      "faruk": 408,
      "basheer": 409,
      "re": 410,
      "bhu": 411,
      "laxman": 412,
      "aisha": 413,
      "sohel": 414,
      "mamun": 415,
      "sk": 416,
      "ji": 417,
      "tam": 418,
      "endar": 419,
      "pramod": 420,
      "mani": 421,
      "rajkumar": 422,
      "ahid": 423,
      "osa": 424,
      "saleem": 425,
      "suf": 426,
      "monir": 427,
      "amin": 428,
      "sandeep": 429,
      "hussain": 430,
      "alaa": 431,
      "james": 432,
      "dilip": 433,
      "de": 434,
      "dev": 435,
      "sayed": 436,
      "hamza": 437,
      "mustafa": 438,
      "abdur": 439,
      "naresh": 440,
      "chael": 441,
      "michael": 442,
      "maryam": 443,
      "sin": 444,
      "akash": 445,
      "saiful": 446,
      "rif": 447,
      "ex": 448,
      "alex": 449,
      "saddam": 450,
      "was": 451,
      "siva": 452,
      "bar": 453,
      "rayan": 454,
      "narayan": 455,
      "gul": 456,
      "bas": 457,
      "eel": 458,
      "jeev": 459,
      "noushad": 460,
      "jahangir": 461,
      "pu": 462,
      "ranjit": 463,
      "sho": 464,
      "asma": 465,
      "dur": 466,
      "usman": 467,
      "gh": 468,
      "rasel": 469,
      "bilal": 470,
      "amal": 471,
      "love": 472,
      "iqbal": 473,
      "fatma": 474,
      "jeeb": 475,
      "saro": 476,
      "saroj": 477,
      "amar": 478,
      "amit": 479,
      "said": 480,
      "sajid": 481,
      "saad": 482,
      "subash": 483,
      "sarah": 484,
      "pin": 485,
      "shankar": 486,
      "ck": 487,
      "anas": 488,
      "riyas": 489,
      "jab": 490,
      "biju": 491,
      "sheik": 492,
      "kam": 493,
      "surya": 494,
      "yousef": 495,
      "ssim": 496,
      "jassim": 497,
      "islam": 498,
      "osama": 499,
      "sum": 500,
      "rabin": 501,
      "ahir": 502,
      "arshad": 503,
      "santhosh": 504,
      "alal": 505,
      "bikash": 506,
      "reem": 507,
      "jitendra": 508,
      "shi": 509,
      "anu": 510,
      "shiva": 511,
      "ano": 512,
      "rasheed": 513,
      "faiz": 514,
      "hamed": 515,
      "mariam": 516,
      "muba": 517,
      "surendra": 518,
      "mubarak": 519,
      "abdulrahman": 520,
      "adnan": 521,
      "aman": 522,
      "eek": 523,
      "milan": 524,
      "maya": 525,
      "rajendra": 526,
      "sami": 527,
      "siraj": 528,
      "vid": 529,
      "jakir": 530,
      "david": 531,
      "et": 532,
      "mona": 533,
      "karim": 534,
      "eman": 535,
      "munna": 536,
      "maj": 537,
      "mark": 538,
      "shamim": 539,
      "nabin": 540,
      "masud": 541,
      "yaz": 542,
      "govin": 543,
      "bhim": 544,
      "anan": 545,
      "abdulaziz": 546,
      "akbar": 547,
      "niz": 548,
      "sudh": 549,
      "zak": 550,
      "kab": 551,
      "nurul": 552,
      "jam": 553,
      "ayman": 554,
      "hit": 555,
      "rohit": 556,
      "kiran": 557,
      "hail": 558,
      "abbas": 559,
      "salam": 560,
      "eef": 561,
      "eh": 562,
      "saleh": 563,
      "hos": 564,
      "bair": 565,
      "shim": 566,
      "sree": 567,
      "shab": 568,
      "maria": 569,
      "srin": 570,
      "haya": 571,
      "ajith": 572,
      "orge": 573,
      "tarek": 574,
      "george": 575,
      "theesh": 576,
      "hada": 577,
      "gendra": 578,
      "mustha": 579,
      "musthafa": 580,
      "adel": 581,
      "durga": 582,
      "karan": 583,
      "mura": 584,
      "shaji": 585,
      "muneer": 586,
      "chandan": 587,
      "dhar": 588,
      "rose": 589,
      "dharme": 590,
      "amjad": 591,
      "pan": 592,
      "sat": 593,
      "shak": 594,
      "rani": 595,
      "sujan": 596,
      "zwan": 597,
      "abid": 598,
      "rizwan": 599,
      "akram": 600,
      "zahid": 601,
      "hin": 602,
      "shal": 603,
      "bishal": 604,
      "birendra": 605,
      "irshad": 606,
      "manso": 607,
      "mansoor": 608,
      "um": 609,
      "abdal": 610,
      "salem": 611,
      "manik": 612,
      "nouf": 613,
      "prasad": 614,
      "pur": 615,
      "paul": 616,
      "rat": 617,
      "bharat": 618,
      "sabir": 619,
      "hu": 620,
      "shameer": 621,
      "shar": 622,
      "salma": 623,
      "tariq": 624,
      "magar": 625,
      "shek": 626,
      "shekh": 627,
      "haris": 628,
      "mahendra": 629,
      "sheikh": 630,
      "pradip": 631,
      "shiv": 632,
      "pawan": 633,
      "yousuf": 634,
      "kannan": 635,
      "manish": 636,
      "ganga": 637,
      "aya": 638,
      "bind": 639,
      "kram": 640,
      "veen": 641,
      "bikram": 642,
      "praveen": 643,
      "navas": 644,
      "madan": 645,
      "fath": 646,
      "fathima": 647,
      "hame": 648,
      "ansar": 649,
      "hameed": 650,
      "ved": 651,
      "javed": 652,
      "oz": 653,
      "firoz": 654,
      "sana": 655,
      "mee": 656,
      "jib": 657,
      "waleed": 658,
      "arman": 659,
      "vishnu": 660,
      "nisar": 661,
      "gel": 662,
      "gur": 663,
      "miz": 664,
      "angel": 665,
      "faro": 666,
      "mizan": 667,
      "oma": 668,
      "thoma": 669,
      "thomas": 670,
      "pet": 671,
      "akhil": 672,
      "peter": 673,
      "ramu": 674,
      "ameer": 675,
      "shafi": 676,
      "mmad": 677,
      "rd": 678,
      "richa": 679,
      "noo": 680,
      "richard": 681,
      "mujeeb": 682,
      "sharif": 683,
      "ifa": 684,
      "khalifa": 685,
      "zakir": 686,
      "sher": 687,
      "fazal": 688,
      "ita": 689,
      "dana": 690,
      "jafar": 691,
      "manu": 692,
      "shihab": 693,
      "asad": 694,
      "bab": 695,
      "khalil": 696,
      "bablu": 697,
      "pri": 698,
      "laxmi": 699,
      "padam": 700,
      "shahin": 701,
      "anish": 702,
      "nadee": 703,
      "nadeem": 704,
      "li": 705,
      "aneesh": 706,
      "eeq": 707,
      "nasar": 708,
      "abood": 709,
      "noufal": 710,
      "harun": 711,
      "kamr": 712,
      "lesh": 713,
      "salah": 714,
      "ussef": 715,
      "youssef": 716,
      "kamlesh": 717,
      "kamrul": 718,
      "adil": 719,
      "iel": 720,
      "daniel": 721,
      "selv": 722,
      "ny": 723,
      "sunny": 724,
      "emad": 725,
      "ess": 726,
      "princess": 727,
      "dipendra": 728,
      "alamin": 729,
      "alamgir": 730,
      "up": 731,
      "ranjan": 732,
      "sarath": 733,
      "bala": 734,
      "yu": 735,
      "luck": 736,
      "lucky": 737,
      "pard": 738,
      "dharmendra": 739,
      "uddin": 740,
      "di": 741,
      "waseem": 742,
      "amri": 743,
      "indra": 744,
      "hamid": 745,
      "nour": 746,
      "binu": 747,
      "amrit": 748,
      "rafiq": 749,
      "sasi": 750,
      "walid": 751,
      "kareem": 752,
      "rashed": 753,
      "essa": 754,
      "naseer": 755,
      "tahir": 756,
      "purna": 757,
      "jalal": 758,
      "yasser": 759,
      "jasim": 760,
      "mary": 761,
      "shambhu": 762,
      "abdu": 763,
      "shaikh": 764,
      "singh": 765,
      "saf": 766,
      "sari": 767,
      "ansari": 768,
      "ranjith": 769,
      "ke": 770,
      "muth": 771,
      "muthu": 772,
      "pon": 773,
      "ppu": 774,
      "ripon": 775,
      "pappu": 776,
      "dar": 777,
      "marwa": 778,
      "hag": 779,
      "shib": 780,
      "shibu": 781,
      "robin": 782,
      "cis": 783,
      "fran": 784,
      "heba": 785,
      "anand": 786,
      "francis": 787,
      "rul": 788,
      "sajan": 789,
      "nazrul": 790,
      "ahamed": 791,
      "nir": 792,
      "nirmal": 793,
      "ton": 794,
      "anton": 795,
      "rafeek": 796,
      "antony": 797,
      "av": 798,
      "ber": 799,
      "yad": 800,
      "rober": 801,
      "yadav": 802,
      "robert": 803,
      "tu": 804,
      "tab": 805,
      "aftab": 806,
      "chin": 807,
      "mang": 808,
      "osman": 809,
      "lit": 810,
      "liton": 811,
      "joel": 812,
      "wael": 813,
      "farhan": 814,
      "op": 815,
      "anoop": 816,
      "kalam": 817,
      "aj": 818,
      "ajmal": 819,
      "jaya": 820,
      "hanan": 821,
      "udd": 822,
      "janak": 823,
      "sanu": 824,
      "ey": 825,
      "babul": 826,
      "sahil": 827,
      "shajahan": 828,
      "mohsin": 829,
      "bimal": 830,
      "shil": 831,
      "sushil": 832,
      "ith": 833,
      "bub": 834,
      "sanju": 835,
      "azad": 836,
      "rama": 837,
      "jojo": 838,
      "hadat": 839,
      "noora": 840,
      "nada": 841,
      "nishan": 842,
      "hem": 843,
      "ti": 844,
      "rar": 845,
      "kabir": 846,
      "samar": 847,
      "madhu": 848,
      "hala": 849,
      "zi": 850,
      "kazi": 851,
      "jamil": 852,
      "shabeer": 853,
      "hany": 854,
      "belal": 855,
      "riyaz": 856,
      "saji": 857,
      "samer": 858,
      "shareef": 859,
      "wasim": 860,
      "sajjad": 861,
      "afzal": 862,
      "subha": 863,
      "subhash": 864,
      "min": 865,
      "tim": 866,
      "timro": 867,
      "ubair": 868,
      "zubair": 869,
      "rai": 870,
      "muna": 871,
      "yasir": 872,
      "kish": 873,
      "kishor": 874,
      "ep": 875,
      "nep": 876,
      "ashik": 877,
      "ammar": 878,
      "abdo": 879,
      "rami": 880,
      "satish": 881,
      "htar": 882,
      "eev": 883,
      "rajeev": 884,
      "akhtar": 885,
      "nizam": 886,
      "oor": 887,
      "sein": 888,
      "hussein": 889,
      "shr": 890,
      "amna": 891,
      "sankar": 892,
      "masum": 893,
      "ulam": 894,
      "firoj": 895,
      "ghulam": 896,
      "nabil": 897,
      "ratheesh": 898,
      "upendra": 899,
      "dhan": 900,
      "sujith": 901,
      "ivas": 902,
      "srinivas": 903,
      "yusuf": 904,
      "hashim": 905,
      "rajib": 906,
      "majeed": 907,
      "nth": 908,
      "senth": 909,
      "senthil": 910,
      "omer": 911,
      "sherif": 912,
      "sandip": 913,
      "murali": 914,
      "amer": 915,
      "naeem": 916,
      "govind": 917,
      "sabin": 918,
      "hanif": 919,
      "govinda": 920,
      "til": 921,
      "tara": 922,
      "hossam": 923,
      "abdallah": 924,
      "tilak": 925,
      "brahim": 926,
      "del": 927,
      "ebrahim": 928,
      "var": 929,
      "majid": 930,
      "moid": 931,
      "naid": 932,
      "junaid": 933,
      "kaj": 934,
      "naveed": 935,
      "pankaj": 936,
      "suhail": 937,
      "sri": 938,
      "gulam": 939,
      "rafi": 940,
      "jeevan": 941,
      "samim": 942,
      "tamer": 943,
      "ushad": 944,
      "naushad": 945,
      "eslam": 946,
      "hani": 947,
      "mood": 948,
      "ahsan": 949,
      "sulai": 950,
      "sulaiman": 951,
      "harish": 952,
      "lama": 953,
      "sohail": 954,
      "rj": 955,
      "sreejith": 956,
      "azhar": 957,
      "rehan": 958,
      "nizar": 959,
      "nishad": 960,
      "lalit": 961,
      "hisham": 962,
      "hossain": 963,
      "niyas": 964,
      "saman": 965,
      "sanjeev": 966,
      "rohan": 967,
      "som": 968,
      "nda": 969,
      "bunda": 970,
      "shakil": 971,
      "rasha": 972,
      "sak": 973,
      "anowar": 974,
      "nagendra": 975,
      "bibek": 976,
      "shakeel": 977,
      "jashim": 978,
      "zafar": 979,
      "hira": 980,
      "narendra": 981,
      "rania": 982,
      "abeer": 983,
      "ub": 984,
      "sundar": 985,
      "ayub": 986,
      "naser": 987,
      "noura": 988,
      "ashish": 989,
      "maher": 990,
      "shahul": 991,
      "arvin": 992,
      "nisha": 993,
      "srinu": 994,
      "arvind": 995,
      "ehab": 996,
      "rock": 997,
      "afsal": 998,
      "wsar": 999,
      "kawsar": 1000,
      "naveen": 1001,
      "jahid": 1002,
      "ilash": 1003,
      "kailash": 1004,
      "mohmmad": 1005,
      "jabir": 1006,
      "zad": 1007,
      "kumari": 1008,
      "shahzad": 1009,
      "alta": 1010,
      "priya": 1011,
      "altaf": 1012,
      "pesh": 1013,
      "rupesh": 1014,
      "ttam": 1015,
      "uttam": 1016,
      "alauddin": 1017,
      "ghan": 1018,
      "oq": 1019,
      "prasanth": 1020,
      "sadam": 1021,
      "farooq": 1022,
      "sil": 1023,
      "malak": 1024,
      "sunita": 1025,
      "ajit": 1026,
      "amee": 1027,
      "dipesh": 1028,
      "mahmood": 1029,
      "kabeer": 1030,
      "ameen": 1031,
      "jahir": 1032,
      "qas": 1033,
      "subair": 1034,
      "waqas": 1035,
      "bashir": 1036,
      "hon": 1037,
      "talal": 1038,
      "honey": 1039,
      "nazeer": 1040,
      "satheesh": 1041,
      "muru": 1042,
      "hamada": 1043,
      "helal": 1044,
      "gopi": 1045,
      "murugan": 1046,
      "jal": 1047,
      "eep": 1048,
      "marwan": 1049,
      "sampa": 1050,
      "dileep": 1051,
      "jaleel": 1052,
      "sampath": 1053,
      "theef": 1054,
      "latheef": 1055,
      "nasim": 1056,
      "naseem": 1057,
      "rabindra": 1058,
      "same": 1059,
      "manal": 1060,
      "santha": 1061,
      "kamran": 1062,
      "murad": 1063,
      "sameh": 1064,
      "najeeb": 1065,
      "mul": 1066,
      "nazim": 1067,
      "nazmul": 1068,
      "billal": 1069,
      "shohel": 1070,
      "kul": 1071,
      "sujo": 1072,
      "kuldeep": 1073,
      "sujon": 1074,
      "vipin": 1075,
      "do": 1076,
      "jitendar": 1077,
      "shafeek": 1078,
      "asmaa": 1079,
      "jaber": 1080,
      "doha": 1081,
      "hayat": 1082,
      "thik": 1083,
      "karthik": 1084,
      "sachin": 1085,
      "riaz": 1086,
      "rakib": 1087,
      "meraj": 1088,
      "kishan": 1089,
      "ef": 1090,
      "jef": 1091,
      "ung": 1092,
      "gurung": 1093,
      "fadi": 1094,
      "ranjee": 1095,
      "rafeeq": 1096,
      "ranjeet": 1097,
      "gudd": 1098,
      "eez": 1099,
      "azeez": 1100,
      "keshab": 1101,
      "guddu": 1102,
      "shakir": 1103,
      "sanjit": 1104,
      "aakash": 1105,
      "aryan": 1106,
      "esi": 1107,
      "jiban": 1108,
      "pardesi": 1109,
      "dul": 1110,
      "selva": 1111,
      "dulal": 1112,
      "manju": 1113,
      "resham": 1114,
      "ramkumar": 1115,
      "sath": 1116,
      "sathish": 1117,
      "sohag": 1118,
      "samad": 1119,
      "kashif": 1120,
      "milon": 1121,
      "anee": 1122,
      "sardar": 1123,
      "muskan": 1124,
      "faizal": 1125,
      "anees": 1126,
      "ola": 1127,
      "rambabu": 1128,
      "bhola": 1129,
      "hesham": 1130,
      "abdalla": 1131,
      "nik": 1132,
      "shahadat": 1133,
      "nikhil": 1134,
      "cham": 1135,
      "vek": 1136,
      "inda": 1137,
      "vivek": 1138,
      "niraj": 1139,
      "himal": 1140,
      "chaminda": 1141,
      "bipin": 1142,
      "mohmed": 1143,
      "satya": 1144,
      "dish": 1145,
      "gdish": 1146,
      "jagdish": 1147,
      "haro": 1148,
      "sadiq": 1149,
      "haroon": 1150,
      "hud": 1151,
      "sanam": 1152,
      "huda": 1153,
      "sajith": 1154,
      "eet": 1155,
      "sujit": 1156,
      "preet": 1157,
      "ruwan": 1158,
      "anup": 1159,
      "gurpreet": 1160,
      "asha": 1161,
      "ku": 1162,
      "red": 1163,
      "mara": 1164,
      "asharaf": 1165,
      "kumara": 1166,
      "reda": 1167,
      "iju": 1168,
      "santa": 1169,
      "baiju": 1170,
      "basanta": 1171,
      "oud": 1172,
      "saoud": 1173,
      "sudip": 1174,
      "vanan": 1175,
      "saravanan": 1176,
      "pintu": 1177,
      "veer": 1178,
      "tamang": 1179,
      "tanveer": 1180,
      "thapa": 1181,
      "aamir": 1182,
      "prabin": 1183,
      "rk": 1184,
      "ratan": 1185,
      "mizanur": 1186,
      "raheem": 1187,
      "omprakash": 1188,
      "samee": 1189,
      "shiju": 1190,
      "sameera": 1191,
      "kas": 1192,
      "abrar": 1193,
      "arul": 1194,
      "bindas": 1195,
      "kasim": 1196,
      "ghada": 1197,
      "qt": 1198,
      "nepali": 1199,
      "qtr": 1200,
      "tek": 1201,
      "ez": 1202,
      "vez": 1203,
      "parvez": 1204,
      "nabeel": 1205,
      "aminul": 1206,
      "mta": 1207,
      "saju": 1208,
      "mumta": 1209,
      "shamsu": 1210,
      "mumtaz": 1211,
      "eefa": 1212,
      "abdus": 1213,
      "haneefa": 1214,
      "imam": 1215,
      "zee": 1216,
      "zeeshan": 1217,
      "desh": 1218,
      "sandesh": 1219,
      "samsul": 1220,
      "tamim": 1221,
      "yousaf": 1222,
      "farook": 1223,
      "rud": 1224,
      "prabhu": 1225,
      "rudra": 1226,
      "hid": 1227,
      "sahid": 1228,
      "utam": 1229,
      "gautam": 1230,
      "pil": 1231,
      "zem": 1232,
      "hazem": 1233,
      "kapil": 1234,
      "en": 1235,
      "zen": 1236,
      "mazen": 1237,
      "abhil": 1238,
      "unni": 1239,
      "emran": 1240,
      "abhilash": 1241,
      "aib": 1242,
      "shaheen": 1243,
      "shoaib": 1244,
      "bad": 1245,
      "devendra": 1246,
      "badal": 1247,
      "mith": 1248,
      "mat": 1249,
      "rahmat": 1250,
      "danish": 1251,
      "mithun": 1252,
      "raaz": 1253,
      "basant": 1254,
      "bbir": 1255,
      "hmmad": 1256,
      "nal": 1257,
      "sabbir": 1258,
      "eeb": 1259,
      "muhmmad": 1260,
      "joynal": 1261,
      "habeeb": 1262,
      "safeer": 1263,
      "janaka": 1264,
      "tika": 1265,
      "moideen": 1266,
      "ikha": 1267,
      "lak": 1268,
      "shmi": 1269,
      "shaikha": 1270,
      "abdel": 1271,
      "shafeeq": 1272,
      "lakshmi": 1273,
      "abdelrahman": 1274,
      "gal": 1275,
      "njith": 1276,
      "ravin": 1277,
      "pagal": 1278,
      "parkash": 1279,
      "renjith": 1280,
      "ravindra": 1281,
      "shanavas": 1282,
      "gayan": 1283,
      "selvam": 1284,
      "mohmad": 1285,
      "essam": 1286,
      "mahabub": 1287,
      "biul": 1288,
      "robiul": 1289,
      "sita": 1290,
      "mohammod": 1291,
      "sitaram": 1292,
      "zah": 1293,
      "sumesh": 1294,
      "zaheer": 1295,
      "noman": 1296,
      "mmed": 1297,
      "mohmmed": 1298,
      "cin": 1299,
      "tak": 1300,
      "mustak": 1301,
      "cinta": 1302,
      "anjan": 1303,
      "anilkumar": 1304,
      "shree": 1305,
      "hul": 1306,
      "nuwan": 1307,
      "ruhul": 1308,
      "mamah": 1309,
      "eshi": 1310,
      "pardeshi": 1311,
      "asraf": 1312,
      "surendar": 1313,
      "yaseen": 1314,
      "habibur": 1315,
      "akhilesh": 1316,
      "sumit": 1317,
      "umer": 1318,
      "foor": 1319,
      "gagan": 1320,
      "gafoor": 1321,
      "andan": 1322,
      "yantha": 1323,
      "manikandan": 1324,
      "priyantha": 1325,
      "bun": 1326,
      "vimal": 1327,
      "pardeep": 1328,
      "bunga": 1329,
      "binda": 1330,
      "gobinda": 1331,
      "indi": 1332,
      "mohin": 1333,
      "jameel": 1334,
      "indika": 1335,
      "syam": 1336,
      "golam": 1337,
      "chandana": 1338,
      "baburam": 1339,
      "sudheer": 1340,
      "khem": 1341,
      "sharma": 1342,
      "gad": 1343,
      "ramjan": 1344,
      "mahbub": 1345,
      "gangad": 1346,
      "rafiqul": 1347,
      "gangadhar": 1348,
      "niranjan": 1349,
      "afsar": 1350,
      "jabed": 1351,
      "husain": 1352,
      "deepu": 1353,
      "puran": 1354,
      "uday": 1355,
      "bijaya": 1356,
      "balram": 1357,
      "oth": 1358,
      "suhel": 1359,
      "sanna": 1360,
      "prasanna": 1361,
      "vinoth": 1362,
      "saud": 1363,
      "momin": 1364,
      "unus": 1365,
      "younus": 1366,
      "chandran": 1367,
      "sumith": 1368,
      "sudhir": 1369,
      "sik": 1370,
      "hamood": 1371,
      "andar": 1372,
      "vijaya": 1373,
      "sikandar": 1374,
      "meem": 1375,
      "shameem": 1376,
      "sajeer": 1377,
      "bri": 1378,
      "jesh": 1379,
      "brijesh": 1380,
      "sabu": 1381,
      "aktar": 1382,
      "ariful": 1383,
      "mangal": 1384,
      "mintu": 1385,
      "ahamad": 1386,
      "ej": 1387,
      "tej": 1388,
      "gulab": 1389,
      "shohag": 1390,
      "ashiq": 1391,
      "asgar": 1392,
      "yogendra": 1393,
      "faizan": 1394,
      "ghe": 1395,
      "puja": 1396,
      "varghe": 1397,
      "varghese": 1398,
      "asan": 1399,
      "net": 1400,
      "asanka": 1401,
      "netra": 1402,
      "waz": 1403,
      "nawaz": 1404,
      "nimal": 1405,
      "sudheesh": 1406,
      "shav": 1407,
      "sobu": 1408,
      "keshav": 1409,
      "sobuj": 1410,
      "nit": 1411,
      "nithin": 1412,
      "ramchandra": 1413,
      "auddin": 1414,
      "gesh": 1415,
      "razak": 1416,
      "imti": 1417,
      "salauddin": 1418,
      "kasun": 1419,
      "durgesh": 1420,
      "imtiyaz": 1421,
      "owar": 1422,
      "anam": 1423,
      "udhar": 1424,
      "chaudhar": 1425,
      "lalu": 1426,
      "delowar": 1427,
      "anamul": 1428,
      "chaudhary": 1429,
      "gyan": 1430,
      "ter": 1431,
      "sajeev": 1432,
      "mohammd": 1433,
      "akter": 1434,
      "lalbabu": 1435,
      "saidul": 1436,
      "ummer": 1437,
      "hav": 1438,
      "madhav": 1439,
      "rajeesh": 1440,
      "shanu": 1441,
      "vijayan": 1442,
      "tamil": 1443,
      "sohan": 1444,
      "bindash": 1445,
      "sakil": 1446,
      "vinu": 1447,
      "parmod": 1448,
      "dhe": 1449,
      "kur": 1450,
      "radhe": 1451,
      "shaju": 1452,
      "thakur": 1453,
      "hur": 1454,
      "khur": 1455,
      "shid": 1456,
      "khurshid": 1457,
      "uz": 1458,
      "subas": 1459,
      "uzzal": 1460,
      "nawa": 1461,
      "shahidul": 1462,
      "delwar": 1463,
      "nawaf": 1464,
      "sapan": 1465,
      "shahad": 1466,
      "jithin": 1467,
      "birendar": 1468,
      "sapana": 1469,
      "ko": 1470,
      "oy": 1471,
      "binoy": 1472,
      "udaya": 1473,
      "shamshad": 1474,
      "kobir": 1475,
      "dhi": 1476,
      "kta": 1477,
      "sit": 1478,
      "wasantha": 1479,
      "bhakta": 1480,
      "ghanshyam": 1481,
      "dhiraj": 1482,
      "siti": 1483,
      "zoor": 1484,
      "manzoor": 1485,
      "kal": 1486,
      "kalim": 1487,
      "duk": 1488,
      "ked": 1489,
      "sanjib": 1490,
      "seraj": 1491,
      "dukhi": 1492,
      "kedar": 1493,
      "anvar": 1494,
      "gor": 1495,
      "seer": 1496,
      "sagor": 1497,
      "shamseer": 1498,
      "hun": 1499,
      "jhun": 1500,
      "lim": 1501,
      "limbu": 1502,
      "ii": 1503,
      "xa": 1504,
      "abdii": 1505,
      "kanxa": 1506,
      "chinna": 1507,
      "gam": 1508,
      "sangam": 1509,
      "israr": 1510,
      "alom": 1511,
      "alomgir": 1512,
      "dambar": 1513,
      "reji": 1514,
      "dharmendar": 1515,
      "wel": 1516,
      "juwel": 1517,
      "wor": 1518,
      "prata": 1519,
      "ishwor": 1520,
      "estha": 1521,
      "shrestha": 1522,
      "pratap": 1523,
      "dipu": 1524,
      "budd": 1525,
      "rame": 1526,
      "nijam": 1527,
      "buddhi": 1528,
      "ramees": 1529,
      "moza": 1530,
      "moosa": 1531,
      "fasil": 1532,
      "bhuwan": 1533,
      "raz": 1534,
      "faraz": 1535,
      "sarfaraz": 1536,
      "jiv": 1537,
      "rosan": 1538,
      "lalan": 1539,
      "jivan": 1540,
      "sagir": 1541,
      "jaga": 1542,
      "khagendra": 1543,
      "jagat": 1544,
      "sahadat": 1545,
      "rajendar": 1546,
      "jayan": 1547,
      "biru": 1548,
      "nishantha": 1549,
      "ramji": 1550,
      "hessa": 1551,
      "mahamood": 1552,
      "jul": 1553,
      "tajul": 1554,
      "dal": 1555,
      "susil": 1556,
      "mandal": 1557,
      "mahal": 1558,
      "jur": 1559,
      "manjur": 1560,
      "shamsher": 1561,
      "lijo": 1562,
      "hman": 1563,
      "rhman": 1564,
      "abdulrhman": 1565,
      "sanjee": 1566,
      "sanjeewa": 1567,
      "sheer": 1568,
      "jamsheer": 1569,
      "sakeer": 1570,
      "bijoy": 1571,
      "roz": 1572,
      "samsad": 1573,
      "zayed": 1574,
      "afroz": 1575,
      "sarwan": 1576,
      "ajee": 1577,
      "niyaz": 1578,
      "ajeesh": 1579,
      "arbind": 1580,
      "beli": 1581,
      "purbeli": 1582,
      "binay": 1583,
      "be": 1584,
      "chan": 1585,
      "pardip": 1586,
      "nepal": 1587,
      "bechan": 1588,
      "hom": 1589,
      "jip": 1590,
      "sanjip": 1591,
      "mahendar": 1592,
      "ghanim": 1593,
      "aey": 1594,
      "eeth": 1595,
      "suran": 1596,
      "vineeth": 1597,
      "tanka": 1598,
      "sreekumar": 1599,
      "suranga": 1600,
      "dka": 1601,
      "khadka": 1602,
      "firos": 1603,
      "wad": 1604,
      "wadha": 1605,
      "jha": 1606,
      "pali": 1607,
      "uka": 1608,
      "shouka": 1609,
      "jhapali": 1610,
      "shoukath": 1611,
      "gamin": 1612,
      "gamini": 1613,
      "braj": 1614,
      "yubraj": 1615,
      "pal": 1616,
      "shamsudh": 1617,
      "bhupal": 1618,
      "upul": 1619,
      "moidu": 1620,
      "shamsudheen": 1621,
      "susantha": 1622,
      "karki": 1623,
      "rupan": 1624,
      "eera": 1625,
      "muneera": 1626,
      "noof": 1627,
      "araj": 1628,
      "nabaraj": 1629,
      "ac": 1630,
      "hh": 1631,
      "jibac": 1632,
      "jibachh": 1633
    },
    "merges": [
      "h a",
      "m a",
      "r a",
      "s a",
      "s h",
      "m e",
      "m o",
      "m d",
      "me d",
      "mo ha",
      "a n",
      "a b",
      "u l",
      "e e",
      "a l",
      "ma d",
      "a r",
      "s ha",
      "moha m",
      "a m",
      "i n",
      "s u",
      "ra j",
      "ab d",
      "m u",
      "a h",
      "ma n",
      "n a",
      "i l",
      "e sh",
      "j a",
      "abd ul",
      "i r",
      "sa n",
      "moha med",
      "ma r",
      "i m",
      "moham med",
      "i d",
      "a sh",
      "ha m",
      "r i",
      "f a",
      "ah med",
      "e l",
      "n d",
      "a s",
      "mu ham",
      "moham mad",
      "i t",
      "sa l",
      "al i",
      "ma l",
      "ra m",
      "a k",
      "ja y",
      "ra n",
      "ra h",
      "k ha",
      "b i",
      "nd ra",
      "muham mad",
      "p ra",
      "e r",
      "e d",
      "u mar",
      "k a",
      "r o",
      "j o",
      "u r",
      "t h",
      "k umar",
      "ma h",
      "a d",
      "e ndra",
      "l a",
      "j it",
      "n o",
      "d ee",
      "ha n",
      "kha l",
      "u n",
      "ab u",
      "v i",
      "ee r",
      "me sh",
      "i k",
      "i f",
      "b in",
      "su r",
      "u d",
      "i b",
      "dee p",
      "o r",
      "s e",
      "mo h",
      "i p",
      "t a",
      "sa m",
      "p r",
      "y a",
      "ra f",
      "s o",
      "su n",
      "c ha",
      "na s",
      "n i",
      "raj u",
      "o d",
      "sha n",
      "rah im",
      "ee m",
      "ah mad",
      "o sh",
      "e m",
      "o j",
      "ra mesh",
      "d ip",
      "sha h",
      "san t",
      "k ash",
      "a z",
      "raj esh",
      "ee d",
      "sha d",
      "i s",
      "u s",
      "i sh",
      "man oj",
      "sur esh",
      "y am",
      "ri sh",
      "j u",
      "sun il",
      "v in",
      "ka mal",
      "sha m",
      "n u",
      "y ed",
      "g an",
      "moh d",
      "f ar",
      "k ar",
      "an il",
      "k esh",
      "i z",
      "d in",
      "ib rahim",
      "ra sh",
      "i v",
      "sa d",
      "sant osh",
      "sa r",
      "mah mo",
      "muham med",
      "k rish",
      "krish na",
      "b a",
      "d a",
      "sa ra",
      "khal id",
      "g a",
      "l ah",
      "me er",
      "g o",
      "jit h",
      "y o",
      "mu n",
      "j an",
      "abdul la",
      "p a",
      "mahmo ud",
      "al am",
      "l am",
      "i q",
      "b abu",
      "ha mad",
      "w ar",
      "o mar",
      "w an",
      "r u",
      "din esh",
      "s san",
      "ha ssan",
      "j ee",
      "y as",
      "no or",
      "o n",
      "abdul lah",
      "mo n",
      "e s",
      "b ash",
      "ha ri",
      "raj a",
      "e k",
      "in c",
      "pr inc",
      "im ran",
      "mu s",
      "o k",
      "san jay",
      "g ar",
      "l o",
      "lo v",
      "b h",
      "i sal",
      "fa isal",
      "vi jay",
      "pra kash",
      "b ir",
      "ash raf",
      "ta fa",
      "fa t",
      "ha r",
      "moha mad",
      "i ma",
      "me r",
      "t ar",
      "s yed",
      "ash ok",
      "sa j",
      "no u",
      "l al",
      "h n",
      "jo hn",
      "pr em",
      "d il",
      "h el",
      "sa if",
      "y an",
      "ra vi",
      "al a",
      "kha n",
      "s er",
      "w a",
      "ma il",
      "is mail",
      "t an",
      "am ir",
      "ee n",
      "g ir",
      "m i",
      "ar un",
      "iv a",
      "n ur",
      "a jay",
      "s ul",
      "an war",
      "ra kesh",
      "b el",
      "t ha",
      "yo u",
      "sh nu",
      "gan esh",
      "j un",
      "ar jun",
      "ab ul",
      "princ e",
      "ee sh",
      "ha d",
      "z a",
      "o m",
      "rash id",
      "la x",
      "ab o",
      "moha n",
      "a f",
      "jo se",
      "sh yam",
      "p ar",
      "h il",
      "sa in",
      "d an",
      "khal ed",
      "az iz",
      "sal im",
      "deep ak",
      "n ab",
      "mah esh",
      "bin od",
      "mar i",
      "nd ar",
      "rah man",
      "su d",
      "ar if",
      "ja mal",
      "h i",
      "sa meer",
      "su man",
      "go p",
      "s r",
      "fa had",
      "mo d",
      "a y",
      "ro shan",
      "ra na",
      "shah id",
      "bi b",
      "na z",
      "g e",
      "s el",
      "sha ik",
      "a i",
      "u mesh",
      "n an",
      "am r",
      "h us",
      "se f",
      "rah ul",
      "b u",
      "ja han",
      "sal man",
      "o s",
      "s im",
      "ma ha",
      "nas ir",
      "ha san",
      "su mon",
      "cha ndra",
      "sa gar",
      "nas ser",
      "n ar",
      "na v",
      "s i",
      "b ha",
      "vin od",
      "u k",
      "sh e",
      "el y",
      "lov ely",
      "raj an",
      "mu kesh",
      "su raj",
      "ja me",
      "b il",
      "k i",
      "as if",
      "h e",
      "z al",
      "bi jay",
      "sa eed",
      "san th",
      "jo y",
      "ru bel",
      "gop al",
      "pra deep",
      "so nu",
      "ad am",
      "dip ak",
      "f an",
      "ir fan",
      "fat ima",
      "ha b",
      "f ir",
      "bi shnu",
      "cha nd",
      "sha f",
      "sul tan",
      "mal ik",
      "d am",
      "ra k",
      "ja d",
      "s tafa",
      "mo stafa",
      "w al",
      "b al",
      "p h",
      "jose ph",
      "ha bib",
      "as lam",
      "sam ir",
      "m il",
      "k ir",
      "l u",
      "d ra",
      "k an",
      "far uk",
      "bash eer",
      "r e",
      "bh u",
      "lax man",
      "ai sha",
      "so hel",
      "ma mun",
      "s k",
      "j i",
      "t am",
      "e ndar",
      "pra mod",
      "man i",
      "raj kumar",
      "ah id",
      "o sa",
      "sal eem",
      "su f",
      "mon ir",
      "am in",
      "san deep",
      "hus sain",
      "ala a",
      "jame s",
      "dil ip",
      "d e",
      "de v",
      "sa yed",
      "ham za",
      "mus tafa",
      "abd ur",
      "nar esh",
      "cha el",
      "mi chael",
      "mar yam",
      "s in",
      "ak ash",
      "saif ul",
      "ri f",
      "e x",
      "al ex",
      "sad dam",
      "w as",
      "s iva",
      "b ar",
      "ra yan",
      "na rayan",
      "g ul",
      "b as",
      "ee l",
      "jee v",
      "nou shad",
      "jahan gir",
      "p u",
      "ran jit",
      "sh o",
      "as ma",
      "d ur",
      "us man",
      "g h",
      "ra sel",
      "bil al",
      "a mal",
      "lov e",
      "iq bal",
      "fat ma",
      "jee b",
      "sa ro",
      "saro j",
      "a mar",
      "am it",
      "sa id",
      "saj id",
      "sa ad",
      "su bash",
      "sa rah",
      "p in",
      "shan kar",
      "c k",
      "an as",
      "ri yas",
      "j ab",
      "bi ju",
      "she ik",
      "k am",
      "sur ya",
      "you sef",
      "s sim",
      "ja ssim",
      "is lam",
      "osa ma",
      "su m",
      "ra bin",
      "ah ir",
      "ar shad",
      "santh osh",
      "al al",
      "bi kash",
      "r eem",
      "jit endra",
      "sh i",
      "an u",
      "sh iva",
      "an o",
      "rash eed",
      "fa iz",
      "ha med",
      "mari am",
      "mu ba",
      "sur endra",
      "muba rak",
      "abdul rahman",
      "ad nan",
      "a man",
      "ee k",
      "mil an",
      "ma ya",
      "raj endra",
      "sam i",
      "si raj",
      "v id",
      "ja kir",
      "da vid",
      "e t",
      "mo na",
      "kar im",
      "e man",
      "mun na",
      "ma j",
      "mar k",
      "sham im",
      "nab in",
      "ma sud",
      "ya z",
      "go vin",
      "bh im",
      "an an",
      "abdul aziz",
      "ak bar",
      "ni z",
      "sud h",
      "z ak",
      "k ab",
      "nur ul",
      "j am",
      "ay man",
      "h it",
      "ro hit",
      "ki ran",
      "ha il",
      "ab bas",
      "sal am",
      "ee f",
      "e h",
      "sal eh",
      "h os",
      "ba ir",
      "sh im",
      "sr ee",
      "sha b",
      "mari a",
      "sr in",
      "ha ya",
      "a jith",
      "or ge",
      "tar ek",
      "ge orge",
      "th eesh",
      "ha da",
      "g endra",
      "mus tha",
      "mustha fa",
      "ad el",
      "dur ga",
      "ka ran",
      "mu ra",
      "sha ji",
      "mun eer",
      "chand an",
      "d har",
      "ro se",
      "dhar me",
      "am jad",
      "p an",
      "sa t",
      "sha k",
      "ran i",
      "su jan",
      "z wan",
      "ab id",
      "ri zwan",
      "ak ram",
      "z ahid",
      "h in",
      "sha l",
      "bi shal",
      "bir endra",
      "ir shad",
      "man so",
      "manso or",
      "u m",
      "abd al",
      "sal em",
      "man ik",
      "nou f",
      "pra sad",
      "p ur",
      "pa ul",
      "ra t",
      "bha rat",
      "sa bir",
      "h u",
      "sha meer",
      "sha r",
      "sal ma",
      "tar iq",
      "ma gar",
      "sh ek",
      "shek h",
      "hari s",
      "mah endra",
      "sheik h",
      "pra dip",
      "sh iv",
      "pa wan",
      "you suf",
      "kan nan",
      "man ish",
      "gan ga",
      "a ya",
      "bin d",
      "k ram",
      "v een",
      "bi kram",
      "pra veen",
      "nav as",
      "mad an",
      "fa th",
      "fath ima",
      "ha me",
      "an sar",
      "hame ed",
      "v ed",
      "ja ved",
      "o z",
      "fir oz",
      "sa na",
      "me e",
      "j ib",
      "wal eed",
      "ar man",
      "vi shnu",
      "ni sar",
      "g el",
      "g ur",
      "m iz",
      "an gel",
      "far o",
      "miz an",
      "o ma",
      "th oma",
      "thoma s",
      "p et",
      "ak hil",
      "pet er",
      "ra mu",
      "a meer",
      "shaf i",
      "m mad",
      "r d",
      "ri cha",
      "no o",
      "richa rd",
      "mu jeeb",
      "sha rif",
      "i fa",
      "khal ifa",
      "zak ir",
      "sh er",
      "fa zal",
      "it a",
      "dan a",
      "ja far",
      "man u",
      "shi hab",
      "a sad",
      "b ab",
      "khal il",
      "bab lu",
      "p ri",
      "lax mi",
      "p adam",
      "shah in",
      "an ish",
      "na dee",
      "nadee m",
      "l i",
      "an eesh",
      "ee q",
      "na sar",
      "abo od",
      "nouf al",
      "har un",
      "k amr",
      "l esh",
      "sal ah",
      "us sef",
      "yo ussef",
      "kam lesh",
      "kamr ul",
      "ad il",
      "i el",
      "dan iel",
      "sel v",
      "n y",
      "sun ny",
      "e mad",
      "es s",
      "princ ess",
      "dip endra",
      "alam in",
      "alam gir",
      "u p",
      "ran jan",
      "sara th",
      "b ala",
      "y u",
      "lu ck",
      "luck y",
      "par d",
      "dharme ndra",
      "ud din",
      "d i",
      "was eem",
      "am ri",
      "in dra",
      "ham id",
      "no ur",
      "bin u",
      "amri t",
      "raf iq",
      "sa si",
      "wal id",
      "kar eem",
      "rash ed",
      "es sa",
      "nas eer",
      "t ahir",
      "pur na",
      "j alal",
      "yas ser",
      "ja sim",
      "mar y",
      "sham bhu",
      "abd u",
      "shaik h",
      "sin gh",
      "sa f",
      "sa ri",
      "an sari",
      "ran jith",
      "k e",
      "mu th",
      "muth u",
      "p on",
      "p pu",
      "ri pon",
      "pa ppu",
      "d ar",
      "mar wa",
      "ha g",
      "sh ib",
      "shib u",
      "ro bin",
      "c is",
      "f ran",
      "he ba",
      "anan d",
      "fran cis",
      "r ul",
      "sa jan",
      "naz rul",
      "a hamed",
      "n ir",
      "nir mal",
      "t on",
      "an ton",
      "raf eek",
      "anton y",
      "a v",
      "b er",
      "y ad",
      "ro ber",
      "yad av",
      "rober t",
      "t u",
      "t ab",
      "af tab",
      "c hin",
      "man g",
      "os man",
      "l it",
      "lit on",
      "jo el",
      "wa el",
      "far han",
      "o p",
      "ano op",
      "k alam",
      "a j",
      "aj mal",
      "jay a",
      "han an",
      "ud d",
      "jan ak",
      "san u",
      "e y",
      "b abul",
      "sa hil",
      "sha jahan",
      "moh sin",
      "bi mal",
      "sh il",
      "su shil",
      "it h",
      "bu b",
      "san ju",
      "az ad",
      "ra ma",
      "jo jo",
      "hada t",
      "noo ra",
      "na da",
      "ni shan",
      "h em",
      "t i",
      "ra r",
      "kab ir",
      "sa mar",
      "mad hu",
      "ha la",
      "z i",
      "ka zi",
      "jam il",
      "shab eer",
      "han y",
      "bel al",
      "ri yaz",
      "saj i",
      "sa mer",
      "shar eef",
      "was im",
      "saj jad",
      "af zal",
      "su bha",
      "subha sh",
      "m in",
      "t im",
      "tim ro",
      "u bair",
      "z ubair",
      "ra i",
      "mu na",
      "yas ir",
      "k ish",
      "kish or",
      "e p",
      "n ep",
      "ash ik",
      "am mar",
      "abd o",
      "ram i",
      "sat ish",
      "h tar",
      "ee v",
      "raj eev",
      "ak htar",
      "niz am",
      "o or",
      "se in",
      "hus sein",
      "sh r",
      "am na",
      "san kar",
      "ma sum",
      "ul am",
      "fir oj",
      "gh ulam",
      "nab il",
      "ra theesh",
      "up endra",
      "d han",
      "su jith",
      "iv as",
      "srin ivas",
      "yu suf",
      "ha shim",
      "raj ib",
      "maj eed",
      "n th",
      "se nth",
      "senth il",
      "o mer",
      "she rif",
      "san dip",
      "mura li",
      "a mer",
      "na eem",
      "govin d",
      "sa bin",
      "han if",
      "govin da",
      "t il",
      "ta ra",
      "hos sam",
      "abdal lah",
      "til ak",
      "b rahim",
      "d el",
      "e brahim",
      "v ar",
      "maj id",
      "mo id",
      "na id",
      "ju naid",
      "ka j",
      "nav eed",
      "pan kaj",
      "su hail",
      "s ri",
      "gul am",
      "raf i",
      "jeev an",
      "sam im",
      "ta mer",
      "u shad",
      "na ushad",
      "es lam",
      "han i",
      "mo od",
      "ah san",
      "sul ai",
      "sulai man",
      "ha rish",
      "la ma",
      "so hail",
      "r j",
      "sree jith",
      "az har",
      "re han",
      "niz ar",
      "ni shad",
      "lal it",
      "hi sham",
      "hos sain",
      "ni yas",
      "sa man",
      "san jeev",
      "ro han",
      "so m",
      "nd a",
      "bu nda",
      "shak il",
      "ra sha",
      "sa k",
      "ano war",
      "na gendra",
      "bib ek",
      "shak eel",
      "ja shim",
      "za far",
      "hi ra",
      "nar endra",
      "rani a",
      "ab eer",
      "u b",
      "su ndar",
      "ay ub",
      "nas er",
      "nou ra",
      "ash ish",
      "mah er",
      "shah ul",
      "ar vin",
      "ni sha",
      "srin u",
      "arvin d",
      "e hab",
      "ro ck",
      "af sal",
      "w sar",
      "ka wsar",
      "nav een",
      "j ahid",
      "il ash",
      "ka ilash",
      "moh mmad",
      "jab ir",
      "z ad",
      "kumar i",
      "shah zad",
      "al ta",
      "pri ya",
      "alta f",
      "p esh",
      "ru pesh",
      "t tam",
      "u ttam",
      "ala uddin",
      "g han",
      "o q",
      "pra santh",
      "sad am",
      "faro oq",
      "s il",
      "mal ak",
      "sun ita",
      "a jit",
      "a mee",
      "dip esh",
      "mahmo od",
      "kab eer",
      "amee n",
      "j ahir",
      "q as",
      "su bair",
      "wa qas",
      "bash ir",
      "h on",
      "t alal",
      "hon ey",
      "naz eer",
      "sa theesh",
      "mu ru",
      "hamad a",
      "hel al",
      "gop i",
      "muru gan",
      "j al",
      "ee p",
      "mar wan",
      "sam pa",
      "dil eep",
      "jal eel",
      "sampa th",
      "th eef",
      "la theef",
      "nas im",
      "nas eem",
      "rabin dra",
      "sa me",
      "man al",
      "sant ha",
      "kam ran",
      "mura d",
      "same h",
      "na jeeb",
      "m ul",
      "naz im",
      "naz mul",
      "bil lal",
      "sho hel",
      "k ul",
      "su jo",
      "kul deep",
      "sujo n",
      "vi pin",
      "d o",
      "jit endar",
      "shaf eek",
      "asma a",
      "jab er",
      "do ha",
      "haya t",
      "th ik",
      "kar thik",
      "sa chin",
      "ri az",
      "rak ib",
      "me raj",
      "ki shan",
      "e f",
      "j ef",
      "un g",
      "gur ung",
      "fa di",
      "ran jee",
      "raf eeq",
      "ranjee t",
      "g udd",
      "ee z",
      "az eez",
      "ke shab",
      "gudd u",
      "sha kir",
      "san jit",
      "a akash",
      "ar yan",
      "es i",
      "jib an",
      "pard esi",
      "d ul",
      "selv a",
      "dul al",
      "man ju",
      "re sham",
      "ram kumar",
      "sa th",
      "sath ish",
      "so hag",
      "sa mad",
      "kash if",
      "mil on",
      "an ee",
      "sar dar",
      "mus kan",
      "faiz al",
      "anee s",
      "o la",
      "ram babu",
      "bh ola",
      "he sham",
      "abdal la",
      "n ik",
      "sha hadat",
      "nik hil",
      "c ham",
      "v ek",
      "in da",
      "vi vek",
      "ni raj",
      "hi mal",
      "cham inda",
      "bi pin",
      "moh med",
      "sat ya",
      "d ish",
      "g dish",
      "ja gdish",
      "ha ro",
      "sad iq",
      "haro on",
      "h ud",
      "san am",
      "hud a",
      "sa jith",
      "ee t",
      "su jit",
      "pr eet",
      "ru wan",
      "anu p",
      "gur preet",
      "a sha",
      "k u",
      "r ed",
      "ma ra",
      "asha raf",
      "ku mara",
      "red a",
      "i ju",
      "san ta",
      "ba iju",
      "ba santa",
      "o ud",
      "sa oud",
      "su dip",
      "v anan",
      "sara vanan",
      "pin tu",
      "v eer",
      "ta mang",
      "tan veer",
      "tha pa",
      "a amir",
      "pra bin",
      "r k",
      "ra tan",
      "mizan ur",
      "rah eem",
      "om prakash",
      "sa mee",
      "shi ju",
      "samee ra",
      "k as",
      "ab rar",
      "ar ul",
      "bind as",
      "kas im",
      "g hada",
      "q t",
      "nep ali",
      "qt r",
      "t ek",
      "e z",
      "v ez",
      "par vez",
      "nab eel",
      "amin ul",
      "m ta",
      "sa ju",
      "mu mta",
      "sham su",
      "mumta z",
      "ee fa",
      "abd us",
      "han eefa",
      "ima m",
      "z ee",
      "zee shan",
      "d esh",
      "san desh",
      "sam sul",
      "tam im",
      "you saf",
      "faro ok",
      "r ud",
      "pra bhu",
      "rud ra",
      "h id",
      "sa hid",
      "u tam",
      "ga utam",
      "p il",
      "z em",
      "ha zem",
      "ka pil",
      "e n",
      "z en",
      "ma zen",
      "ab hil",
      "un ni",
      "em ran",
      "abhil ash",
      "a ib",
      "shah een",
      "sho aib",
      "b ad",
      "dev endra",
      "bad al",
      "m ith",
      "ma t",
      "rah mat",
      "dan ish",
      "mith un",
      "ra az",
      "ba sant",
      "b bir",
      "h mmad",
      "n al",
      "sa bbir",
      "ee b",
      "mu hmmad",
      "joy nal",
      "hab eeb",
      "saf eer",
      "janak a",
      "ti ka",
      "moid een",
      "i kha",
      "l ak",
      "sh mi",
      "sha ikha",
      "abd el",
      "shaf eeq",
      "lak shmi",
      "abdel rahman",
      "g al",
      "n jith",
      "ra vin",
      "pa gal",
      "par kash",
      "re njith",
      "ravin dra",
      "sha navas",
      "ga yan",
      "selv am",
      "moh mad",
      "es sam",
      "maha bub",
      "bi ul",
      "ro biul",
      "s ita",
      "moham mod",
      "sita ram",
      "z ah",
      "su mesh",
      "zah eer",
      "no man",
      "m med",
      "moh mmed",
      "c in",
      "t ak",
      "mus tak",
      "cin ta",
      "an jan",
      "anil kumar",
      "shr ee",
      "h ul",
      "nu wan",
      "ru hul",
      "ma mah",
      "esh i",
      "pard eshi",
      "as raf",
      "sur endar",
      "yas een",
      "habib ur",
      "akhil esh",
      "sum it",
      "u mer",
      "f oor",
      "ga gan",
      "ga foor",
      "an dan",
      "yan tha",
      "manik andan",
      "pri yantha",
      "b un",
      "vi mal",
      "par deep",
      "bun ga",
      "bin da",
      "go binda",
      "in di",
      "moh in",
      "jame el",
      "indi ka",
      "s yam",
      "go lam",
      "chandan a",
      "babu ram",
      "sudh eer",
      "k hem",
      "shar ma",
      "g ad",
      "ram jan",
      "mah bub",
      "gan gad",
      "rafiq ul",
      "gangad har",
      "ni ranjan",
      "af sar",
      "jab ed",
      "hu sain",
      "deep u",
      "pu ran",
      "ud ay",
      "bijay a",
      "bal ram",
      "o th",
      "su hel",
      "san na",
      "pra sanna",
      "vin oth",
      "sa ud",
      "mo min",
      "un us",
      "yo unus",
      "chand ran",
      "sum ith",
      "sudh ir",
      "s ik",
      "ha mood",
      "an dar",
      "vijay a",
      "sik andar",
      "me em",
      "sha meem",
      "saj eer",
      "b ri",
      "j esh",
      "bri jesh",
      "sa bu",
      "ak tar",
      "arif ul",
      "mang al",
      "min tu",
      "a hamad",
      "e j",
      "t ej",
      "gul ab",
      "sho hag",
      "ash iq",
      "as gar",
      "yo gendra",
      "faiz an",
      "g he",
      "pu ja",
      "var ghe",
      "varghe se",
      "a san",
      "n et",
      "asan ka",
      "net ra",
      "w az",
      "na waz",
      "ni mal",
      "sudh eesh",
      "sha v",
      "so bu",
      "ke shav",
      "sobu j",
      "n it",
      "nit hin",
      "ram chandra",
      "a uddin",
      "g esh",
      "ra zak",
      "im ti",
      "sal auddin",
      "ka sun",
      "dur gesh",
      "imti yaz",
      "o war",
      "an am",
      "ud har",
      "cha udhar",
      "lal u",
      "del owar",
      "anam ul",
      "chaudhar y",
      "g yan",
      "t er",
      "sa jeev",
      "moham md",
      "ak ter",
      "lal babu",
      "said ul",
      "um mer",
      "ha v",
      "mad hav",
      "raj eesh",
      "shan u",
      "vijay an",
      "tam il",
      "so han",
      "bind ash",
      "sak il",
      "vin u",
      "par mod",
      "d he",
      "k ur",
      "ra dhe",
      "sha ju",
      "tha kur",
      "h ur",
      "k hur",
      "sh id",
      "khur shid",
      "u z",
      "su bas",
      "uz zal",
      "na wa",
      "shahid ul",
      "del war",
      "nawa f",
      "sa pan",
      "sha had",
      "jith in",
      "bir endar",
      "sapan a",
      "k o",
      "o y",
      "bin oy",
      "ud aya",
      "sham shad",
      "ko bir",
      "d hi",
      "k ta",
      "s it",
      "wa santha",
      "bha kta",
      "ghan shyam",
      "dhi raj",
      "sit i",
      "z oor",
      "man zoor",
      "k al",
      "kal im",
      "d uk",
      "k ed",
      "san jib",
      "se raj",
      "duk hi",
      "ked ar",
      "an var",
      "g or",
      "s eer",
      "sa gor",
      "sham seer",
      "h un",
      "j hun",
      "l im",
      "lim bu",
      "i i",
      "x a",
      "abd ii",
      "kan xa",
      "chin na",
      "g am",
      "san gam",
      "is rar",
      "al om",
      "alom gir",
      "dam bar",
      "re ji",
      "dharme ndar",
      "w el",
      "ju wel",
      "w or",
      "pra ta",
      "ish wor",
      "es tha",
      "shr estha",
      "prata p",
      "dip u",
      "b udd",
      "ra me",
      "ni jam",
      "budd hi",
      "rame es",
      "mo za",
      "mo osa",
      "fa sil",
      "bhu wan",
      "ra z",
      "fa raz",
      "sar faraz",
      "j iv",
      "ro san",
      "lal an",
      "jiv an",
      "sa gir",
      "ja ga",
      "kha gendra",
      "jaga t",
      "sa hadat",
      "raj endar",
      "jay an",
      "bir u",
      "nishan tha",
      "ram ji",
      "h essa",
      "maha mood",
      "j ul",
      "ta jul",
      "d al",
      "su sil",
      "man dal",
      "maha l",
      "j ur",
      "man jur",
      "sham sher",
      "li jo",
      "h man",
      "r hman",
      "abdul rhman",
      "san jee",
      "sanjee wa",
      "sh eer",
      "jam sheer",
      "sak eer",
      "bi joy",
      "ro z",
      "sam sad",
      "za yed",
      "af roz",
      "sar wan",
      "a jee",
      "ni yaz",
      "ajee sh",
      "ar bind",
      "bel i",
      "pur beli",
      "bin ay",
      "b e",
      "c han",
      "par dip",
      "nep al",
      "be chan",
      "h om",
      "j ip",
      "san jip",
      "mah endar",
      "ghan im",
      "a ey",
      "ee th",
      "su ran",
      "vin eeth",
      "tan ka",
      "sree kumar",
      "suran ga",
      "d ka",
      "kha dka",
      "fir os",
      "w ad",
      "wad ha",
      "j ha",
      "p ali",
      "u ka",
      "sho uka",
      "jha pali",
      "shouka th",
      "g amin",
      "gamin i",
      "b raj",
      "yu braj",
      "p al",
      "sham sudh",
      "bhu pal",
      "up ul",
      "moid u",
      "shamsudh een",
      "su santha",
      "kar ki",
      "ru pan",
      "ee ra",
      "mun eera",
      "noo f",
      "a raj",
      "nab araj",
      "a c",
      "h h",
      "jib ac",
      "jibac hh"
    ]
  }
}