{
  "version": "1.0",
  "truncation": null,
  "padding": null,
  "added_tokens": [
    {
      "id": 0,
      "content": "[UNK]",
      "single_word": false,
      "lstrip": false,
      "rstrip": false,
      "normalized": false,
      "special": true
    },
    {
      "id": 1,
      "content": "[CLS]",
      "single_word": false,
      "lstrip": false,
      "rstrip": false,
      "normalized": false,
      "special": true
    },
    {
      "id": 2,
      "content": "[SEP]",
      "single_word": false,
      "lstrip": false,
      "rstrip": false,
      "normalized": false,
      "special": true
    },
    {
      "id": 3,
      "content": "[PAD]",
      "single_word": false,
      "lstrip": false,
      "rstrip": false,
      "normalized": false,
      "special": true
    },
    {
      "id": 4,
      "content": "[MASK]",
      "single_word": false,
      "lstrip": false,
      "rstrip": false,
      "normalized": false,
      "special": true
    }
  ],
  "normalizer": null,
  "pre_tokenizer": {
    "type": "Whitespace"
  },
  "post_processor": null,
  "decoder": null,
  "model": {
    "type": "BPE",
    "dropout": null,
    "unk_token": "[UNK]",
    "continuing_subword_prefix": null,
    "end_of_word_suffix": null,
    "fuse_unk": false,
    "vocab": {
      "[UNK]": 0,
      "[CLS]": 1,
      "[SEP]": 2,
      "[PAD]": 3,
      "[MASK]": 4,
      "a": 5,
      "b": 6,
      "c": 7,
      "d": 8,
      "e": 9,
      "f": 10,
      "g": 11,
      "h": 12,
      "i": 13,
      "j": 14,
      "k": 15,
      "l": 16,
      "m": 17,
      "n": 18,
      "o": 19,
      "p": 20,
      "q": 21,
      "r": 22,
      "s": 23,
      "t": 24,
      "u": 25,
      "v": 26,
      "x": 27,
      "y": 28,
      "z": 29,
      "an": 30,
      "ar": 31,
      "ri": 32,
      "na": 33,
      "ja": 34,
      "en": 35,
      "on": 36,
      "al": 37,
      "mi": 38,
      "at": 39,
      "er": 40,
      "sa": 41,
      "ta": 42,
      "jan": 43,
      "im": 44,
      "re": 45,
      "li": 46,
      "ka": 47,
      "di": 48,
      "or": 49,
      "le": 50,
      "et": 51,
      "la": 52,
      "mar": 53,
      "ina": 54,
      "rim": 55,
      "ra": 56,
      "es": 57,
      "ko": 58,
      "da": 59,
      "mir": 60,
      "sh": 61,
      "mat": 62,
      "ma": 63,
      "ana": 64,
      "ona": 65,
      "ej": 66,
      "ni": 67,
      "st": 68,
      "and": 69,
      "ro": 70,
      "end": 71,
      "el": 72,
      "is": 73,
      "alb": 74,
      "lu": 75,
      "ha": 76,
      "ani": 77,
      "arb": 78,
      "in": 79,
      "bo": 80,
      "bes": 81,
      "val": 82,
      "tina": 83,
      "ca": 84,
      "rit": 85,
      "ga": 86,
      "gor": 87,
      "anja": 88,
      "de": 89,
      "pet": 90,
      "ur": 91,
      "fat": 92,
      "je": 93,
      "lin": 94,
      "ara": 95,
      "vi": 96,
      "andre": 97,
      "jo": 98,
      "to": 99,
      "jana": 100,
      "men": 101,
      "me": 102,
      "be": 103,
      "don": 104,
      "art": 105,
      "ija": 106,
      "ardi": 107,
      "tim": 108,
      "gz": 109,
      "dar": 110,
      "marko": 111,
      "mo": 112,
      "ne": 113,
      "dri": 114,
      "ag": 115,
      "nik": 116,
      "ba": 117,
      "sim": 118,
      "gre": 119,
      "ran": 120,
      "zi": 121,
      "fi": 122,
      "ber": 123,
      "egz": 124,
      "ot": 125,
      "andrej": 126,
      "tja": 127,
      "oni": 128,
      "stjan": 129,
      "kat": 130,
      "enis": 131,
      "ze": 132,
      "miha": 133,
      "matej": 134,
      "ju": 135,
      "fl": 136,
      "maja": 137,
      "met": 138,
      "za": 139,
      "bu": 140,
      "jaz": 141,
      "va": 142,
      "lena": 143,
      "san": 144,
      "gen": 145,
      "ble": 146,
      "dan": 147,
      "jeta": 148,
      "nej": 149,
      "nor": 150,
      "ku": 151,
      "ks": 152,
      "luka": 153,
      "rina": 154,
      "nina": 155,
      "sp": 156,
      "eja": 157,
      "rok": 158,
      "ale": 159,
      "dani": 160,
      "liri": 161,
      "ti": 162,
      "tin": 163,
      "he": 164,
      "ales": 165,
      "vid": 166,
      "ela": 167,
      "nata": 168,
      "egzon": 169,
      "ed": 170,
      "maz": 171,
      "tomaz": 172,
      "alen": 173,
      "bl": 174,
      "dejan": 175,
      "jet": 176,
      "linda": 177,
      "kim": 178,
      "mend": 179,
      "edi": 180,
      "andra": 181,
      "denis": 182,
      "ari": 183,
      "qend": 184,
      "bostjan": 185,
      "dra": 186,
      "ad": 187,
      "leon": 188,
      "matjaz": 189,
      "peter": 190,
      "mu": 191,
      "katja": 192,
      "laz": 193,
      "aleks": 194,
      "jure": 195,
      "lind": 196,
      "trim": 197,
      "petra": 198,
      "mil": 199,
      "ez": 200,
      "gregor": 201,
      "david": 202,
      "anit": 203,
      "mateja": 204,
      "jca": 205,
      "mojca": 206,
      "sara": 207,
      "du": 208,
      "man": 209,
      "rober": 210,
      "robert": 211,
      "ora": 212,
      "drag": 213,
      "natasa": 214,
      "ali": 215,
      "endrit": 216,
      "barb": 217,
      "barbara": 218,
      "valon": 219,
      "arben": 220,
      "ard": 221,
      "eri": 222,
      "zana": 223,
      "iv": 224,
      "so": 225,
      "qi": 226,
      "tanja": 227,
      "uro": 228,
      "uros": 229,
      "jas": 230,
      "lav": 231,
      "su": 232,
      "arta": 233,
      "lir": 234,
      "blaz": 235,
      "mitja": 236,
      "ver": 237,
      "yl": 238,
      "ves": 239,
      "do": 240,
      "andreja": 241,
      "riton": 242,
      "kri": 243,
      "prim": 244,
      "ade": 245,
      "igor": 246,
      "bojan": 247,
      "min": 248,
      "ilir": 249,
      "ol": 250,
      "alban": 251,
      "vis": 252,
      "nejc": 253,
      "bran": 254,
      "liridon": 255,
      "ziga": 256,
      "joze": 257,
      "entina": 258,
      "spela": 259,
      "ron": 260,
      "ori": 261,
      "ska": 262,
      "te": 263,
      "simon": 264,
      "oz": 265,
      "primoz": 266,
      "mari": 267,
      "tjasa": 268,
      "lina": 269,
      "son": 270,
      "shk": 271,
      "kle": 272,
      "klemen": 273,
      "maj": 274,
      "har": 275,
      "jer": 276,
      "se": 277,
      "lirim": 278,
      "dej": 279,
      "ren": 280,
      "dona": 281,
      "ic": 282,
      "matic": 283,
      "os": 284,
      "af": 285,
      "janez": 286,
      "bler": 287,
      "urska": 288,
      "eva": 289,
      "arber": 290,
      "ire": 291,
      "bi": 292,
      "marija": 293,
      "besnik": 294,
      "shp": 295,
      "dardan": 296,
      "ardit": 297,
      "vesna": 298,
      "sha": 299,
      "qendrim": 300,
      "gr": 301,
      "granit": 302,
      "onika": 303,
      "xhe": 304,
      "armend": 305,
      "anita": 306,
      "dija": 307,
      "tadej": 308,
      "bor": 309,
      "shtrim": 310,
      "kushtrim": 311,
      "albi": 312,
      "ant": 313,
      "burim": 314,
      "irena": 315,
      "flor": 316,
      "blerim": 317,
      "jel": 318,
      "dam": 319,
      "jtim": 320,
      "bekim": 321,
      "ris": 322,
      "boris": 323,
      "lam": 324,
      "nika": 325,
      "resa": 326,
      "ert": 327,
      "albert": 328,
      "alenka": 329,
      "martin": 330,
      "milan": 331,
      "ivan": 332,
      "fitim": 333,
      "zan": 334,
      "fran": 335,
      "jernej": 336,
      "jar": 337,
      "bujar": 338,
      "gona": 339,
      "suzana": 340,
      "krist": 341,
      "arlind": 342,
      "ardian": 343,
      "ut": 344,
      "besart": 345,
      "lara": 346,
      "gent": 347,
      "zd": 348,
      "marjan": 349,
      "sasa": 350,
      "agron": 351,
      "driton": 352,
      "arina": 353,
      "katarina": 354,
      "muha": 355,
      "mer": 356,
      "simona": 357,
      "aleksand": 358,
      "sab": 359,
      "jon": 360,
      "arbnor": 361,
      "lum": 362,
      "lau": 363,
      "kar": 364,
      "faton": 365,
      "gasp": 366,
      "gasper": 367,
      "bin": 368,
      "jeton": 369,
      "franc": 370,
      "xh": 371,
      "av": 372,
      "vet": 373,
      "mina": 374,
      "jol": 375,
      "miran": 376,
      "len": 377,
      "ban": 378,
      "ben": 379,
      "jaka": 380,
      "vl": 381,
      "anze": 382,
      "damjan": 383,
      "shkel": 384,
      "dusan": 385,
      "shqi": 386,
      "lul": 387,
      "borut": 388,
      "fatmir": 389,
      "sabina": 390,
      "flam": 391,
      "flamur": 392,
      "rinor": 393,
      "nesa": 394,
      "fa": 395,
      "adelina": 396,
      "kre": 397,
      "tor": 398,
      "mentor": 399,
      "det": 400,
      "gim": 401,
      "goran": 402,
      "ast": 403,
      "astrit": 404,
      "martina": 405,
      "cija": 406,
      "ita": 407,
      "edona": 408,
      "jko": 409,
      "blerta": 410,
      "egzona": 411,
      "artan": 412,
      "si": 413,
      "leot": 414,
      "leotrim": 415,
      "usa": 416,
      "pol": 417,
      "saso": 418,
      "bard": 419,
      "visar": 420,
      "edon": 421,
      "valentina": 422,
      "jra": 423,
      "bajra": 424,
      "bajram": 425,
      "afrim": 426,
      "besim": 427,
      "seba": 428,
      "mergim": 429,
      "rah": 430,
      "nan": 431,
      "toni": 432,
      "adnan": 433,
      "gj": 434,
      "sandra": 435,
      "darko": 436,
      "agon": 437,
      "jasmina": 438,
      "ul": 439,
      "vla": 440,
      "labin": 441,
      "labinot": 442,
      "behar": 443,
      "mira": 444,
      "lon": 445,
      "janja": 446,
      "drilon": 447,
      "riot": 448,
      "kast": 449,
      "grega": 450,
      "kastriot": 451,
      "flori": 452,
      "monika": 453,
      "ent": 454,
      "dren": 455,
      "agim": 456,
      "sonja": 457,
      "lza": 458,
      "aljaz": 459,
      "domen": 460,
      "tat": 461,
      "dita": 462,
      "tatjana": 463,
      "era": 464,
      "kristina": 465,
      "shqip": 466,
      "niko": 467,
      "nad": 468,
      "iz": 469,
      "zen": 470,
      "lea": 471,
      "branko": 472,
      "tamar": 473,
      "tamara": 474,
      "jani": 475,
      "altin": 476,
      "valmir": 477,
      "darja": 478,
      "agnesa": 479,
      "kujtim": 480,
      "berat": 481,
      "kaja": 482,
      "naim": 483,
      "josa": 484,
      "sandi": 485,
      "genti": 486,
      "polona": 487,
      "qendresa": 488,
      "rahim": 489,
      "stan": 490,
      "karmen": 491,
      "bri": 492,
      "albion": 493,
      "laura": 494,
      "zor": 495,
      "zoran": 496,
      "pat": 497,
      "patri": 498,
      "tilen": 499,
      "arian": 500,
      "albin": 501,
      "aleksander": 502,
      "lo": 503,
      "zim": 504,
      "masa": 505,
      "ef": 506,
      "samir": 507,
      "medi": 508,
      "kal": 509,
      "trina": 510,
      "anton": 511,
      "kaltrina": 512,
      "besa": 513,
      "nat": 514,
      "aj": 515,
      "sami": 516,
      "florent": 517,
      "hmet": 518,
      "doni": 519,
      "tore": 520,
      "fitore": 521,
      "jozi": 522,
      "drin": 523,
      "shkim": 524,
      "albina": 525,
      "bashkim": 526,
      "aleksandra": 527,
      "enka": 528,
      "matija": 529,
      "jetmir": 530,
      "fis": 531,
      "gzim": 532,
      "fisnik": 533,
      "ser": 534,
      "zmend": 535,
      "gazmend": 536,
      "brahim": 537,
      "adri": 538,
      "vin": 539,
      "besi": 540,
      "dor": 541,
      "arsim": 542,
      "samo": 543,
      "marigona": 544,
      "meli": 545,
      "vlora": 546,
      "argj": 547,
      "elvis": 548,
      "arton": 549,
      "sanja": 550,
      "milena": 551,
      "veton": 552,
      "blerina": 553,
      "fina": 554,
      "dafina": 555,
      "ursa": 556,
      "avni": 557,
      "mimo": 558,
      "helena": 559,
      "lulzim": 560,
      "mimoza": 561,
      "fidan": 562,
      "amir": 563,
      "tok": 564,
      "muhamet": 565,
      "iztok": 566,
      "arlinda": 567,
      "hana": 568,
      "per": 569,
      "petrit": 570,
      "donjeta": 571,
      "gentrit": 572,
      "ardita": 573,
      "hi": 574,
      "alija": 575,
      "roman": 576,
      "danijel": 577,
      "arianit": 578,
      "vera": 579,
      "natalija": 580,
      "edison": 581,
      "urim": 582,
      "fjol": 583,
      "fjolla": 584,
      "ys": 585,
      "enver": 586,
      "sar": 587,
      "lidija": 588,
      "urban": 589,
      "stef": 590,
      "ijan": 591,
      "jozica": 592,
      "rem": 593,
      "gez": 594,
      "vica": 595,
      "gezim": 596,
      "jela": 597,
      "nora": 598,
      "drago": 599,
      "qim": 600,
      "ve": 601,
      "gresa": 602,
      "shkelqim": 603,
      "ev": 604,
      "diel": 605,
      "matev": 606,
      "deja": 607,
      "diellza": 608,
      "matevz": 609,
      "ismet": 610,
      "besmir": 611,
      "fatlum": 612,
      "meriton": 613,
      "majda": 614,
      "jamin": 615,
      "benjamin": 616,
      "andraz": 617,
      "yll": 618,
      "hali": 619,
      "ki": 620,
      "dragan": 621,
      "klav": 622,
      "tri": 623,
      "klavdija": 624,
      "andi": 625,
      "hasan": 626,
      "besarta": 627,
      "azd": 628,
      "sta": 629,
      "gorazd": 630,
      "metka": 631,
      "genta": 632,
      "liridona": 633,
      "ulena": 634,
      "taul": 635,
      "albulena": 636,
      "leonora": 637,
      "durim": 638,
      "taulant": 639,
      "dil": 640,
      "fadil": 641,
      "fes": 642,
      "gita": 643,
      "mal": 644,
      "ermal": 645,
      "brigita": 646,
      "dav": 647,
      "lucija": 648,
      "adem": 649,
      "sil": 650,
      "aljosa": 651,
      "leonard": 652,
      "argjend": 653,
      "rita": 654,
      "koso": 655,
      "shnik": 656,
      "merita": 657,
      "kreshnik": 658,
      "medina": 659,
      "arjeta": 660,
      "leoni": 661,
      "erik": 662,
      "kristjan": 663,
      "klara": 664,
      "sel": 665,
      "teja": 666,
      "leo": 667,
      "shpet": 668,
      "shpetim": 669,
      "utrim": 670,
      "leutrim": 671,
      "naser": 672,
      "robi": 673,
      "elvi": 674,
      "orim": 675,
      "nada": 676,
      "albana": 677,
      "florim": 678,
      "sebastjan": 679,
      "hys": 680,
      "sla": 681,
      "vo": 682,
      "tadeja": 683,
      "renata": 684,
      "luan": 685,
      "valdet": 686,
      "tomi": 687,
      "ton": 688,
      "erdita": 689,
      "aferdita": 690,
      "rama": 691,
      "valdrin": 692,
      "ramadan": 693,
      "diana": 694,
      "isa": 695,
      "damir": 696,
      "qir": 697,
      "stefan": 698,
      "par": 699,
      "erb": 700,
      "lej": 701,
      "nita": 702,
      "perpar": 703,
      "perparim": 704,
      "valb": 705,
      "alma": 706,
      "mark": 707,
      "marina": 708,
      "jasna": 709,
      "neza": 710,
      "shqipe": 711,
      "vanja": 712,
      "bardh": 713,
      "uta": 714,
      "teuta": 715,
      "fet": 716,
      "veronika": 717,
      "ylli": 718,
      "xhev": 719,
      "ksen": 720,
      "dim": 721,
      "ica": 722,
      "kren": 723,
      "janko": 724,
      "dragica": 725,
      "lavdim": 726,
      "krenar": 727,
      "as": 728,
      "kend": 729,
      "skend": 730,
      "leta": 731,
      "shpend": 732,
      "skender": 733,
      "ibrahim": 734,
      "nusa": 735,
      "med": 736,
      "nexh": 737,
      "muhamed": 738,
      "bojana": 739,
      "fe": 740,
      "lat": 741,
      "zlat": 742,
      "inka": 743,
      "danijela": 744,
      "lori": 745,
      "rije": 746,
      "marusa": 747,
      "florian": 748,
      "lorik": 749,
      "lili": 750,
      "mirjeta": 751,
      "ete": 752,
      "ajtim": 753,
      "pajtim": 754,
      "slav": 755,
      "rexhe": 756,
      "dion": 757,
      "rexhep": 758,
      "manca": 759,
      "tea": 760,
      "lca": 761,
      "vjol": 762,
      "shpresa": 763,
      "zdenka": 764,
      "shkelzen": 765,
      "vjollca": 766,
      "endi": 767,
      "erza": 768,
      "ines": 769,
      "fatos": 770,
      "franci": 771,
      "nikola": 772,
      "sad": 773,
      "mirsad": 774,
      "shaban": 775,
      "florentina": 776,
      "shkur": 777,
      "trin": 778,
      "gan": 779,
      "mana": 780,
      "lip": 781,
      "romana": 782,
      "filip": 783,
      "olga": 784,
      "mario": 785,
      "marjana": 786,
      "neja": 787,
      "mirjana": 788,
      "rre": 789,
      "rrez": 790,
      "ik": 791,
      "edin": 792,
      "hat": 793,
      "mili": 794,
      "patricija": 795,
      "urat": 796,
      "ema": 797,
      "mon": 798,
      "edmon": 799,
      "arbenita": 800,
      "slavica": 801,
      "edmond": 802,
      "din": 803,
      "cko": 804,
      "sre": 805,
      "leart": 806,
      "alex": 807,
      "srecko": 808,
      "mire": 809,
      "valbona": 810,
      "dran": 811,
      "von": 812,
      "zvon": 813,
      "anda": 814,
      "melita": 815,
      "saranda": 816,
      "ksenija": 817,
      "pi": 818,
      "zal": 819,
      "zala": 820,
      "shi": 821,
      "gashi": 822,
      "jasmin": 823,
      "festim": 824,
      "donika": 825,
      "hona": 826,
      "jehona": 827,
      "daniel": 828,
      "emir": 829,
      "jako": 830,
      "luljeta": 831,
      "jakob": 832,
      "ahmet": 833,
      "drita": 834,
      "xha": 835,
      "alja": 836,
      "danica": 837,
      "edita": 838,
      "ylber": 839,
      "branka": 840,
      "halil": 841,
      "for": 842,
      "anti": 843,
      "miz": 844,
      "ramiz": 845,
      "ziva": 846,
      "antigona": 847,
      "flu": 848,
      "edat": 849,
      "mza": 850,
      "njo": 851,
      "meti": 852,
      "edu": 853,
      "blend": 854,
      "admir": 855,
      "njomza": 856,
      "bet": 857,
      "han": 858,
      "betim": 859,
      "gani": 860,
      "qlirim": 861,
      "minik": 862,
      "dominik": 863,
      "patrik": 864,
      "jona": 865,
      "flora": 866,
      "rij": 867,
      "enes": 868,
      "mirko": 869,
      "jurij": 870,
      "tine": 871,
      "hdi": 872,
      "no": 873,
      "oleta": 874,
      "almir": 875,
      "violeta": 876,
      "ivana": 877,
      "nexhat": 878,
      "safet": 879,
      "mehmet": 880,
      "gentiana": 881,
      "zlatko": 882,
      "zel": 883,
      "jelena": 884,
      "majl": 885,
      "zeljko": 886,
      "ime": 887,
      "dimir": 888,
      "fatime": 889,
      "genc": 890,
      "vladimir": 891,
      "davor": 892,
      "elvira": 893,
      "var": 894,
      "miro": 895,
      "kosovar": 896,
      "lana": 897,
      "anka": 898,
      "haxh": 899,
      "bardha": 900,
      "haxhi": 901,
      "uf": 902,
      "nast": 903,
      "elsa": 904,
      "isuf": 905,
      "blendi": 906,
      "beni": 907,
      "adrian": 908,
      "lejla": 909,
      "nastja": 910,
      "dana": 911,
      "gordana": 912,
      "erion": 913,
      "aleksandar": 914,
      "ajda": 915,
      "ai": 916,
      "ejtim": 917,
      "bleona": 918,
      "majlinda": 919,
      "shpejtim": 920,
      "kristijan": 921,
      "aida": 922,
      "lindi": 923,
      "vlado": 924,
      "marjeta": 925,
      "slavko": 926,
      "esa": 927,
      "ervin": 928,
      "uran": 929,
      "milos": 930,
      "haris": 931,
      "silva": 932,
      "mile": 933,
      "ermira": 934,
      "kol": 935,
      "sokol": 936,
      "clirim": 937,
      "kora": 938,
      "ardiana": 939,
      "darinka": 940,
      "korab": 941,
      "rajko": 942,
      "ken": 943,
      "ermin": 944,
      "dea": 945,
      "selim": 946,
      "kenan": 947,
      "ru": 948,
      "vali": 949,
      "fatlind": 950,
      "meta": 951,
      "osman": 952,
      "karin": 953,
      "stanko": 954,
      "erblin": 955,
      "dhe": 956,
      "atdhe": 957,
      "marta": 958,
      "senad": 959,
      "reta": 960,
      "kadri": 961,
      "anica": 962,
      "valeri": 963,
      "mihael": 964,
      "hysen": 965,
      "valerija": 966,
      "ekre": 967,
      "erika": 968,
      "miranda": 969,
      "ekrem": 970,
      "gdan": 971,
      "ip": 972,
      "bogdan": 973,
      "stane": 974,
      "vojko": 975,
      "aze": 976,
      "elena": 977,
      "esat": 978,
      "fatjon": 979,
      "xhevdet": 980,
      "azem": 981,
      "un": 982,
      "bedri": 983,
      "danilo": 984,
      "ariana": 985,
      "eli": 986,
      "elma": 987,
      "nenad": 988,
      "milot": 989,
      "amar": 990,
      "lju": 991,
      "sali": 992,
      "arjani": 993,
      "sadi": 994,
      "rebe": 995,
      "stijan": 996,
      "musa": 997,
      "sebastijan": 998,
      "arjanit": 999,
      "sadik": 1000,
      "rebeka": 1001,
      "melisa": 1002,
      "flut": 1003,
      "she": 1004,
      "den": 1005,
      "lari": 1006,
      "mla": 1007,
      "zmi": 1008,
      "rilind": 1009,
      "nazmi": 1010,
      "nino": 1011,
      "vida": 1012,
      "larisa": 1013,
      "mladen": 1014,
      "idri": 1015,
      "mijan": 1016,
      "imer": 1017,
      "damijan": 1018,
      "mirlinda": 1019,
      "tesa": 1020,
      "leonit": 1021,
      "idriz": 1022,
      "far": 1023,
      "uk": 1024,
      "yllka": 1025,
      "faruk": 1026,
      "djel": 1027,
      "vjosa": 1028,
      "miros": 1029,
      "jozef": 1030,
      "jelka": 1031,
      "pia": 1032,
      "djellza": 1033,
      "miroslav": 1034,
      "sur": 1035,
      "lija": 1036,
      "fatmire": 1037,
      "mensur": 1038,
      "julija": 1039,
      "leonita": 1040,
      "kosovare": 1041,
      "zir": 1042,
      "sadri": 1043,
      "fatjona": 1044,
      "muhar": 1045,
      "albiona": 1046,
      "arbnora": 1047,
      "muharrem": 1048,
      "bis": 1049,
      "nar": 1050,
      "venka": 1051,
      "nevenka": 1052,
      "bernar": 1053,
      "dragana": 1054,
      "bleron": 1055,
      "rrezarta": 1056,
      "bernarda": 1057,
      "nde": 1058,
      "pran": 1059,
      "rija": 1060,
      "bah": 1061,
      "nderim": 1062,
      "pranvera": 1063,
      "qe": 1064,
      "elona": 1065,
      "eduard": 1066,
      "get": 1067,
      "qa": 1068,
      "zo": 1069,
      "lule": 1070,
      "nadja": 1071,
      "cvet": 1072,
      "hmi": 1073,
      "vko": 1074,
      "zdra": 1075,
      "taja": 1076,
      "islam": 1077,
      "fehmi": 1078,
      "cvetka": 1079,
      "zdravko": 1080,
      "diar": 1081,
      "rasim": 1082,
      "nives": 1083,
      "elmedina": 1084,
      "sead": 1085,
      "avdi": 1086,
      "edonis": 1087,
      "tringa": 1088,
      "jz": 1089,
      "kra": 1090,
      "ojz": 1091,
      "sni": 1092,
      "alojz": 1093,
      "kodran": 1094,
      "shkodran": 1095,
      "haki": 1096,
      "besfor": 1097,
      "vik": 1098,
      "mihaela": 1099,
      "faik": 1100,
      "krasni": 1101,
      "besfort": 1102,
      "krasniqi": 1103,
      "emi": 1104,
      "fla": 1105,
      "mdi": 1106,
      "manja": 1107,
      "risha": 1108,
      "tahi": 1109,
      "hamdi": 1110,
      "berisha": 1111,
      "ivo": 1112,
      "vlera": 1113,
      "remzi": 1114,
      "emine": 1115,
      "tahir": 1116,
      "damjana": 1117,
      "loni": 1118,
      "vedat": 1119,
      "riad": 1120,
      "labi": 1121,
      "marjet": 1122,
      "marjetka": 1123,
      "erjon": 1124,
      "silvo": 1125,
      "murat": 1126,
      "arjan": 1127,
      "timot": 1128,
      "nehat": 1129,
      "brane": 1130,
      "zenel": 1131,
      "shkurta": 1132,
      "timotej": 1133,
      "iva": 1134,
      "rifat": 1135,
      "imete": 1136,
      "beqir": 1137,
      "arti": 1138,
      "musta": 1139,
      "medin": 1140,
      "vesa": 1141,
      "hysni": 1142,
      "ganimete": 1143,
      "mustaf": 1144,
      "baki": 1145,
      "bledar": 1146,
      "ensar": 1147,
      "mila": 1148,
      "milaim": 1149,
      "adi": 1150,
      "bur": 1151,
      "vinko": 1152,
      "adis": 1153,
      "burhan": 1154,
      "ymer": 1155,
      "vlasta": 1156,
      "gentian": 1157,
      "ll": 1158,
      "jam": 1159,
      "resha": 1160,
      "dijana": 1161,
      "mirjam": 1162,
      "sheri": 1163,
      "lumi": 1164,
      "arbresha": 1165,
      "vigan": 1166,
      "suad": 1167,
      "dorentina": 1168,
      "dorun": 1169,
      "asll": 1170,
      "shkurte": 1171,
      "sherif": 1172,
      "doruntina": 1173,
      "asllan": 1174,
      "bre": 1175,
      "ena": 1176,
      "kuran": 1177,
      "vro": 1178,
      "lume": 1179,
      "hekuran": 1180,
      "orin": 1181,
      "marijan": 1182,
      "ivanka": 1183,
      "lovro": 1184,
      "halit": 1185,
      "davorin": 1186,
      "breda": 1187,
      "gal": 1188,
      "her": 1189,
      "hurim": 1190,
      "mbin": 1191,
      "olind": 1192,
      "armin": 1193,
      "shku": 1194,
      "arif": 1195,
      "adhurim": 1196,
      "kosova": 1197,
      "herolind": 1198,
      "shkumbin": 1199,
      "dali": 1200,
      "ivica": 1201,
      "luli": 1202,
      "vit": 1203,
      "ilirjana": 1204,
      "tone": 1205,
      "erblina": 1206,
      "xhavit": 1207,
      "dalibor": 1208,
      "usha": 1209,
      "shqiprim": 1210,
      "drenusha": 1211,
      "stanka": 1212,
      "krenare": 1213,
      "emin": 1214,
      "dasa": 1215,
      "marijana": 1216,
      "izet": 1217,
      "zvonko": 1218,
      "nermin": 1219,
      "zli": 1220,
      "limi": 1221,
      "esma": 1222,
      "niti": 1223,
      "gaja": 1224,
      "butrin": 1225,
      "fazli": 1226,
      "valdete": 1227,
      "xhevat": 1228,
      "butrint": 1229,
      "sabi": 1230,
      "edis": 1231,
      "donat": 1232,
      "lendita": 1233,
      "sabit": 1234,
      "emina": 1235,
      "haj": 1236,
      "fatlinda": 1237,
      "blanka": 1238,
      "besiana": 1239,
      "veli": 1240,
      "elvir": 1241,
      "fer": 1242,
      "sne": 1243,
      "zhdi": 1244,
      "atik": 1245,
      "valton": 1246,
      "adriatik": 1247,
      "xhafer": 1248,
      "ruzhdi": 1249,
      "snezana": 1250,
      "ama": 1251,
      "dyl": 1252,
      "ven": 1253,
      "anej": 1254,
      "altina": 1255,
      "rado": 1256,
      "nisa": 1257,
      "mehdi": 1258,
      "bica": 1259,
      "avdyl": 1260,
      "sinisa": 1261,
      "adrijana": 1262,
      "isak": 1263,
      "ljubica": 1264,
      "venera": 1265,
      "aul": 1266,
      "sanela": 1267,
      "bahri": 1268,
      "aulona": 1269,
      "erina": 1270,
      "gej": 1271,
      "rron": 1272,
      "sja": 1273,
      "eron": 1274,
      "resh": 1275,
      "vasja": 1276,
      "sergej": 1277,
      "reshat": 1278,
      "dv": 1279,
      "iba": 1280,
      "oar": 1281,
      "ojan": 1282,
      "sy": 1283,
      "sej": 1284,
      "ter": 1285,
      "rinesa": 1286,
      "ridv": 1287,
      "maks": 1288,
      "stojan": 1289,
      "elba": 1290,
      "valmira": 1291,
      "valter": 1292,
      "beta": 1293,
      "morina": 1294,
      "zabeta": 1295,
      "dete": 1296,
      "lejman": 1297,
      "milica": 1298,
      "elizabeta": 1299,
      "getoar": 1300,
      "ibadete": 1301,
      "sylejman": 1302,
      "sejdi": 1303,
      "ridvan": 1304,
      "elbasan": 1305,
      "sin": 1306,
      "redon": 1307,
      "dini": 1308,
      "besjan": 1309,
      "timi": 1310,
      "shaip": 1311,
      "laureta": 1312,
      "samire": 1313,
      "sinan": 1314,
      "ajet": 1315,
      "ljana": 1316,
      "anamarija": 1317,
      "zeqir": 1318,
      "lirije": 1319,
      "suela": 1320,
      "jerneja": 1321,
      "biljana": 1322,
      "festina": 1323,
      "gra": 1324,
      "nu": 1325,
      "jadran": 1326,
      "petar": 1327,
      "mos": 1328,
      "gramos": 1329,
      "nuhi": 1330,
      "jadranka": 1331,
      "vete": 1332,
      "abe": 1333,
      "orhan": 1334,
      "besar": 1335,
      "lirie": 1336,
      "edvin": 1337,
      "mendim": 1338,
      "eris": 1339,
      "adea": 1340,
      "abedin": 1341,
      "ame": 1342,
      "lim": 1343,
      "qet": 1344,
      "shef": 1345,
      "torija": 1346,
      "shqipron": 1347,
      "bislim": 1348,
      "viktorija": 1349,
      "amela": 1350,
      "shefqet": 1351,
      "ura": 1352,
      "jaku": 1353,
      "marinka": 1354,
      "lindita": 1355,
      "kimete": 1356,
      "flutura": 1357,
      "jakup": 1358,
      "aman": 1359,
      "eta": 1360,
      "ide": 1361,
      "ln": 1362,
      "vul": 1363,
      "eneta": 1364,
      "ermir": 1365,
      "dibran": 1366,
      "diaman": 1367,
      "fatbardha": 1368,
      "buqe": 1369,
      "xheneta": 1370,
      "ajshe": 1371,
      "selman": 1372,
      "ideal": 1373,
      "lnet": 1374,
      "vullnet": 1375,
      "diamant": 1376,
      "klau": 1377,
      "fikre": 1378,
      "trimi": 1379,
      "asmir": 1380,
      "klaudija": 1381,
      "fikret": 1382,
      "ft": 1383,
      "sedat": 1384,
      "mift": 1385,
      "flaka": 1386,
      "miftar": 1387,
      "jtesa": 1388,
      "sri": 1389,
      "daut": 1390,
      "valmire": 1391,
      "basri": 1392,
      "oteja": 1393,
      "kujtesa": 1394,
      "blerton": 1395,
      "shpat": 1396,
      "doroteja": 1397,
      "stasa": 1398,
      "llo": 1399,
      "mit": 1400,
      "sahi": 1401,
      "hamit": 1402,
      "gabri": 1403,
      "fillo": 1404,
      "florjan": 1405,
      "ajla": 1406,
      "fortesa": 1407,
      "sahit": 1408,
      "gabrijela": 1409,
      "filloreta": 1410,
      "izi": 1411,
      "lendrit": 1412,
      "msi": 1413,
      "vard": 1414,
      "aldin": 1415,
      "kagj": 1416,
      "ledion": 1417,
      "rafet": 1418,
      "hazir": 1419,
      "nezir": 1420,
      "edvard": 1421,
      "dukagj": 1422,
      "olti": 1423,
      "franjo": 1424,
      "floriana": 1425,
      "pero": 1426,
      "shemsi": 1427,
      "izidor": 1428,
      "dukagjin": 1429,
      "em": 1430,
      "goni": 1431,
      "gip": 1432,
      "nim": 1433,
      "rru": 1434,
      "armir": 1435,
      "milaz": 1436,
      "erona": 1437,
      "erol": 1438,
      "ragip": 1439,
      "stem": 1440,
      "arbesa": 1441,
      "bozo": 1442,
      "besjana": 1443,
      "tomo": 1444,
      "jusu": 1445,
      "laznim": 1446,
      "vllaznim": 1447,
      "argjent": 1448,
      "tomislav": 1449,
      "pika": 1450,
      "flutra": 1451,
      "qamil": 1452,
      "rrustem": 1453,
      "milazim": 1454,
      "eroll": 1455,
      "jusuf": 1456,
      "brina": 1457,
      "gjel": 1458,
      "enko": 1459,
      "engjel": 1460,
      "vili": 1461,
      "buku": 1462,
      "zdenko": 1463,
      "beno": 1464,
      "shqipdon": 1465,
      "engjell": 1466,
      "bukurije": 1467,
      "frim": 1468,
      "gjon": 1469,
      "it": 1470,
      "sani": 1471,
      "anesa": 1472,
      "onca": 1473,
      "ismajl": 1474,
      "defrim": 1475,
      "bleon": 1476,
      "arbenit": 1477,
      "shaqir": 1478,
      "polonca": 1479,
      "asdren": 1480,
      "sanije": 1481,
      "blin": 1482,
      "cr": 1483,
      "fki": 1484,
      "il": 1485,
      "sko": 1486,
      "refki": 1487,
      "elal": 1488,
      "dusko": 1489,
      "vesel": 1490,
      "xhelal": 1491,
      "ajdin": 1492,
      "eduart": 1493,
      "qazim": 1494,
      "zoja": 1495,
      "blinera": 1496,
      "crt": 1497,
      "ilmi": 1498,
      "am": 1499,
      "bro": 1500,
      "dh": 1501,
      "kara": 1502,
      "xen": 1503,
      "arjana": 1504,
      "albrim": 1505,
      "sanel": 1506,
      "bledi": 1507,
      "alea": 1508,
      "tinkara": 1509,
      "xhemajl": 1510,
      "nexhmedin": 1511,
      "feim": 1512,
      "lilijana": 1513,
      "urata": 1514,
      "zvone": 1515,
      "elion": 1516,
      "ambro": 1517,
      "dhurata": 1518,
      "xeni": 1519,
      "ambroz": 1520,
      "hbi": 1521,
      "sli": 1522,
      "leja": 1523,
      "nije": 1524,
      "visa": 1525,
      "neva": 1526,
      "musli": 1527,
      "lumnije": 1528,
      "vehbi": 1529,
      "slavisa": 1530,
      "bardhyl": 1531,
      "zlatka": 1532,
      "hre": 1533,
      "iliri": 1534,
      "prem": 1535,
      "yra": 1536,
      "yhre": 1537,
      "enej": 1538,
      "saska": 1539,
      "shyhre": 1540,
      "dare": 1541,
      "natyra": 1542,
      "iliriana": 1543,
      "premtim": 1544,
      "shyhrete": 1545,
      "jda": 1546,
      "smajl": 1547,
      "tajda": 1548,
      "bleart": 1549,
      "dusanka": 1550,
      "behare": 1551,
      "dreni": 1552,
      "stefka": 1553,
      "amadej": 1554,
      "ci": 1555,
      "kena": 1556,
      "rrahim": 1557,
      "up": 1558,
      "zymer": 1559,
      "ril": 1560,
      "jasa": 1561,
      "erka": 1562,
      "erdi": 1563,
      "mirlind": 1564,
      "ejup": 1565,
      "elmedin": 1566,
      "brikena": 1567,
      "antonija": 1568,
      "ljubo": 1569,
      "biserka": 1570,
      "qerim": 1571,
      "ciril": 1572,
      "cani": 1573,
      "gon": 1574,
      "ges": 1575,
      "rigon": 1576,
      "erjona": 1577,
      "tah": 1578,
      "orges": 1579,
      "xhemile": 1580,
      "fetah": 1581,
      "rijad": 1582,
      "hajdar": 1583,
      "aba": 1584,
      "fren": 1585,
      "od": 1586,
      "uena": 1587,
      "xoni": 1588,
      "erdu": 1589,
      "diti": 1590,
      "etnik": 1591,
      "anduena": 1592,
      "elje": 1593,
      "alberina": 1594,
      "mendi": 1595,
      "ardijan": 1596,
      "metod": 1597,
      "bardhi": 1598,
      "abaz": 1599,
      "frenk": 1600,
      "erduan": 1601,
      "eljesa": 1602,
      "ixhe": 1603,
      "kron": 1604,
      "nys": 1605,
      "jash": 1606,
      "one": 1607,
      "ret": 1608,
      "leonis": 1609,
      "florije": 1610,
      "besian": 1611,
      "valbone": 1612,
      "hatixhe": 1613,
      "flakron": 1614,
      "nysret": 1615,
      "jashar": 1616,
      "mel": 1617,
      "nja": 1618,
      "rrah": 1619,
      "fatbardh": 1620,
      "muli": 1621,
      "sebahat": 1622,
      "flurim": 1623,
      "melos": 1624,
      "njazi": 1625,
      "rrahman": 1626,
      "sebahate": 1627,
      "cka": 1628,
      "hire": 1629,
      "lucka": 1630,
      "donart": 1631,
      "vahire": 1632,
      "jetlir": 1633,
      "jerca": 1634,
      "xhevahire": 1635,
      "marjanca": 1636,
      "lumbardh": 1637,
      "lenart": 1638,
      "rrezart": 1639,
      "zvonka": 1640,
      "dvik": 1641,
      "ilaz": 1642,
      "tu": 1643,
      "mini": 1644,
      "daim": 1645,
      "ludvik": 1646,
      "darjan": 1647,
      "fidaim": 1648,
      "andrejka": 1649,
      "sabrije": 1650,
      "lumtu": 1651,
      "minire": 1652,
      "lumturije": 1653,
      "imi": 1654,
      "ximi": 1655,
      "erzen": 1656,
      "fatlume": 1657,
      "meja": 1658,
      "sumeja": 1659,
      "hete": 1660,
      "kr": 1661,
      "dash": 1662,
      "arbno": 1663,
      "bessi": 1664,
      "demo": 1665,
      "blazka": 1666,
      "zenun": 1667,
      "bahrije": 1668,
      "geti": 1669,
      "hajrije": 1670,
      "hetem": 1671,
      "krat": 1672,
      "dashnor": 1673,
      "arbnore": 1674,
      "demokrat": 1675,
      "my": 1676,
      "rvete": 1677,
      "zgj": 1678,
      "artina": 1679,
      "urh": 1680,
      "selvete": 1681,
      "ksenja": 1682,
      "myrvete": 1683,
      "zgjim": 1684,
      "qka": 1685,
      "smil": 1686,
      "loqka": 1687,
      "vegim": 1688,
      "rrezon": 1689,
      "smiljan": 1690,
      "bjon": 1691,
      "fre": 1692,
      "skim": 1693,
      "dina": 1694,
      "valerina": 1695,
      "blerona": 1696,
      "bjondina": 1697,
      "freskim": 1698,
      "bal": 1699,
      "gbal": 1700,
      "igbal": 1701,
      "jze": 1702,
      "ple": 1703,
      "albesa": 1704,
      "shqipdona": 1705,
      "lojze": 1706,
      "amadeja": 1707,
      "igballe": 1708,
      "pleurat": 1709
    },
    "merges": [
      "a n",
      "a r",
      "r i",
      "n a",
      "j a",
      "e n",
      "o n",
      "a l",
      "m i",
      "a t",
      "e r",
      "s a",
      "t a",
      "j an",
      "i m",
      "r e",
      "l i",
      "k a",
      "d i",
      "o r",
      "l e",
      "e t",
      "l a",
      "m ar",
      "i na",
      "ri m",
      "r a",
      "e s",
      "k o",
      "d a",
      "mi r",
      "s h",
      "m at",
      "m a",
      "an a",
      "o na",
      "e j",
      "n i",
      "s t",
      "an d",
      "r o",
      "en d",
      "e l",
      "i s",
      "al b",
      "l u",
      "h a",
      "an i",
      "ar b",
      "i n",
      "b o",
      "b es",
      "v al",
      "t ina",
      "c a",
      "ri t",
      "g a",
      "g or",
      "an ja",
      "d e",
      "p et",
      "u r",
      "f at",
      "j e",
      "li n",
      "ar a",
      "v i",
      "and re",
      "j o",
      "t o",
      "jan a",
      "m en",
      "m e",
      "b e",
      "d on",
      "ar t",
      "i ja",
      "ar di",
      "t im",
      "g z",
      "d ar",
      "mar ko",
      "m o",
      "n e",
      "d ri",
      "a g",
      "ni k",
      "b a",
      "s im",
      "g re",
      "r an",
      "z i",
      "f i",
      "b er",
      "e gz",
      "o t",
      "andre j",
      "t ja",
      "on i",
      "st jan",
      "k at",
      "en is",
      "z e",
      "mi ha",
      "mat ej",
      "j u",
      "f l",
      "ma ja",
      "m et",
      "z a",
      "b u",
      "ja z",
      "v a",
      "le na",
      "s an",
      "g en",
      "b le",
      "d an",
      "je ta",
      "n ej",
      "n or",
      "k u",
      "k s",
      "lu ka",
      "ri na",
      "n ina",
      "s p",
      "e ja",
      "ro k",
      "al e",
      "d ani",
      "li ri",
      "t i",
      "t in",
      "h e",
      "al es",
      "vi d",
      "e la",
      "na ta",
      "egz on",
      "e d",
      "ma z",
      "to maz",
      "al en",
      "b l",
      "de jan",
      "j et",
      "lin da",
      "k im",
      "m end",
      "e di",
      "and ra",
      "d enis",
      "ar i",
      "q end",
      "bo stjan",
      "d ra",
      "a d",
      "le on",
      "mat jaz",
      "pet er",
      "m u",
      "kat ja",
      "la z",
      "ale ks",
      "ju re",
      "lin d",
      "t rim",
      "pet ra",
      "mi l",
      "e z",
      "gre gor",
      "da vid",
      "ani t",
      "mat eja",
      "j ca",
      "mo jca",
      "s ara",
      "d u",
      "m an",
      "ro ber",
      "rober t",
      "or a",
      "dra g",
      "nata sa",
      "al i",
      "end rit",
      "b arb",
      "barb ara",
      "val on",
      "arb en",
      "ar d",
      "e ri",
      "z ana",
      "i v",
      "s o",
      "q i",
      "t anja",
      "u ro",
      "uro s",
      "ja s",
      "la v",
      "s u",
      "ar ta",
      "li r",
      "b laz",
      "mi tja",
      "v er",
      "y l",
      "v es",
      "d o",
      "andre ja",
      "rit on",
      "k ri",
      "p rim",
      "a de",
      "i gor",
      "bo jan",
      "mi n",
      "i lir",
      "o l",
      "alb an",
      "v is",
      "nej c",
      "b ran",
      "liri don",
      "zi ga",
      "jo ze",
      "en tina",
      "sp ela",
      "r on",
      "o ri",
      "s ka",
      "t e",
      "sim on",
      "o z",
      "prim oz",
      "mar i",
      "tja sa",
      "li na",
      "s on",
      "sh k",
      "k le",
      "kle men",
      "ma j",
      "h ar",
      "j er",
      "s e",
      "li rim",
      "d ej",
      "r en",
      "d ona",
      "i c",
      "mat ic",
      "o s",
      "a f",
      "jan ez",
      "bl er",
      "ur ska",
      "e va",
      "arb er",
      "i re",
      "b i",
      "mar ija",
      "bes nik",
      "sh p",
      "dar dan",
      "ardi t",
      "ves na",
      "sh a",
      "qend rim",
      "g r",
      "gr anit",
      "oni ka",
      "x he",
      "ar mend",
      "ani ta",
      "di ja",
      "ta dej",
      "b or",
      "sh trim",
      "ku shtrim",
      "alb i",
      "an t",
      "bu rim",
      "ire na",
      "fl or",
      "ble rim",
      "j el",
      "da m",
      "j tim",
      "be kim",
      "ri s",
      "bo ris",
      "la m",
      "ni ka",
      "re sa",
      "er t",
      "alb ert",
      "alen ka",
      "mar tin",
      "mil an",
      "iv an",
      "fi tim",
      "z an",
      "f ran",
      "jer nej",
      "j ar",
      "bu jar",
      "g ona",
      "su zana",
      "kri st",
      "ar lind",
      "ardi an",
      "u t",
      "bes art",
      "l ara",
      "gen t",
      "z d",
      "mar jan",
      "sa sa",
      "ag ron",
      "d riton",
      "ar ina",
      "kat arina",
      "mu ha",
      "m er",
      "sim ona",
      "aleks and",
      "sa b",
      "j on",
      "arb nor",
      "lu m",
      "la u",
      "k ar",
      "fat on",
      "ga sp",
      "gasp er",
      "b in",
      "jet on",
      "fran c",
      "x h",
      "a v",
      "v et",
      "mi na",
      "jo l",
      "mir an",
      "l en",
      "b an",
      "b en",
      "ja ka",
      "v l",
      "an ze",
      "dam jan",
      "shk el",
      "du san",
      "sh qi",
      "lu l",
      "bor ut",
      "fat mir",
      "sab ina",
      "f lam",
      "flam ur",
      "ri nor",
      "ne sa",
      "f a",
      "ade lina",
      "k re",
      "t or",
      "men tor",
      "d et",
      "g im",
      "gor an",
      "a st",
      "ast rit",
      "mar tina",
      "c ija",
      "i ta",
      "ed ona",
      "j ko",
      "bler ta",
      "egz ona",
      "art an",
      "s i",
      "le ot",
      "leot rim",
      "u sa",
      "p ol",
      "sa so",
      "b ard",
      "vis ar",
      "e don",
      "val entina",
      "j ra",
      "ba jra",
      "bajra m",
      "af rim",
      "bes im",
      "se ba",
      "mer gim",
      "ra h",
      "n an",
      "t oni",
      "ad nan",
      "g j",
      "s andra",
      "dar ko",
      "ag on",
      "jas mina",
      "u l",
      "v la",
      "la bin",
      "labin ot",
      "be har",
      "mi ra",
      "l on",
      "jan ja",
      "dri lon",
      "ri ot",
      "ka st",
      "gre ga",
      "kast riot",
      "fl ori",
      "m onika",
      "en t",
      "d ren",
      "ag im",
      "son ja",
      "l za",
      "al jaz",
      "do men",
      "t at",
      "di ta",
      "tat jana",
      "er a",
      "krist ina",
      "shqi p",
      "ni ko",
      "na d",
      "i z",
      "z en",
      "le a",
      "bran ko",
      "ta mar",
      "tamar a",
      "jan i",
      "al tin",
      "val mir",
      "dar ja",
      "ag nesa",
      "ku jtim",
      "ber at",
      "ka ja",
      "na im",
      "jo sa",
      "san di",
      "gen ti",
      "pol ona",
      "qend resa",
      "rah im",
      "st an",
      "kar men",
      "b ri",
      "albi on",
      "lau ra",
      "z or",
      "zor an",
      "p at",
      "pat ri",
      "ti len",
      "ari an",
      "alb in",
      "aleksand er",
      "l o",
      "z im",
      "ma sa",
      "e f",
      "sa mir",
      "me di",
      "k al",
      "t rina",
      "ant on",
      "kal trina",
      "be sa",
      "na t",
      "a j",
      "sa mi",
      "flor ent",
      "h met",
      "don i",
      "to re",
      "fi tore",
      "jo zi",
      "dri n",
      "sh kim",
      "alb ina",
      "ba shkim",
      "aleks andra",
      "en ka",
      "mat ija",
      "jet mir",
      "f is",
      "gz im",
      "fis nik",
      "s er",
      "z mend",
      "ga zmend",
      "b rahim",
      "a dri",
      "v in",
      "bes i",
      "d or",
      "ar sim",
      "sa mo",
      "mari gona",
      "me li",
      "vl ora",
      "ar gj",
      "el vis",
      "art on",
      "s anja",
      "mi lena",
      "vet on",
      "ble rina",
      "f ina",
      "da fina",
      "ur sa",
      "av ni",
      "mi mo",
      "he lena",
      "lul zim",
      "mimo za",
      "fi dan",
      "a mir",
      "to k",
      "muha met",
      "iz tok",
      "ar linda",
      "h ana",
      "p er",
      "pet rit",
      "don jeta",
      "gent rit",
      "ardi ta",
      "h i",
      "al ija",
      "ro man",
      "dani jel",
      "ari anit",
      "ver a",
      "nat alija",
      "edi son",
      "u rim",
      "f jol",
      "fjol la",
      "y s",
      "en ver",
      "s ar",
      "li dija",
      "ur ban",
      "st ef",
      "i jan",
      "jozi ca",
      "re m",
      "g ez",
      "vi ca",
      "gez im",
      "je la",
      "nor a",
      "drag o",
      "q im",
      "v e",
      "gre sa",
      "shkel qim",
      "e v",
      "di el",
      "mat ev",
      "de ja",
      "diel lza",
      "matev z",
      "is met",
      "bes mir",
      "fat lum",
      "me riton",
      "maj da",
      "ja min",
      "ben jamin",
      "andra z",
      "yl l",
      "h ali",
      "k i",
      "drag an",
      "k lav",
      "t ri",
      "klav dija",
      "an di",
      "ha san",
      "bes arta",
      "a zd",
      "s ta",
      "gor azd",
      "met ka",
      "gen ta",
      "liri dona",
      "u lena",
      "ta ul",
      "alb ulena",
      "leon ora",
      "du rim",
      "taul ant",
      "di l",
      "fa dil",
      "f es",
      "g ita",
      "m al",
      "er mal",
      "bri gita",
      "da v",
      "lu cija",
      "ade m",
      "si l",
      "al josa",
      "leon ard",
      "argj end",
      "ri ta",
      "ko so",
      "sh nik",
      "me rita",
      "kre shnik",
      "medi na",
      "ar jeta",
      "le oni",
      "eri k",
      "kri stjan",
      "k lara",
      "s el",
      "t eja",
      "le o",
      "sh pet",
      "shpet im",
      "u trim",
      "le utrim",
      "na ser",
      "ro bi",
      "el vi",
      "o rim",
      "na da",
      "alb ana",
      "fl orim",
      "seba stjan",
      "h ys",
      "s la",
      "v o",
      "ta deja",
      "re nata",
      "lu an",
      "val det",
      "to mi",
      "t on",
      "er dita",
      "af erdita",
      "ra ma",
      "val drin",
      "rama dan",
      "di ana",
      "i sa",
      "da mir",
      "qi r",
      "stef an",
      "p ar",
      "er b",
      "le j",
      "ni ta",
      "per par",
      "perpar im",
      "v alb",
      "al ma",
      "mar k",
      "mar ina",
      "jas na",
      "ne za",
      "shqip e",
      "v anja",
      "bard h",
      "u ta",
      "te uta",
      "f et",
      "ver onika",
      "yl li",
      "xhe v",
      "ks en",
      "d im",
      "i ca",
      "k ren",
      "jan ko",
      "drag ica",
      "lav dim",
      "kren ar",
      "a s",
      "k end",
      "s kend",
      "le ta",
      "shp end",
      "skend er",
      "i brahim",
      "n usa",
      "me d",
      "ne xh",
      "muha med",
      "bo jana",
      "f e",
      "l at",
      "z lat",
      "in ka",
      "dani jela",
      "l ori",
      "ri je",
      "mar usa",
      "flori an",
      "lori k",
      "li li",
      "mir jeta",
      "et e",
      "a jtim",
      "p ajtim",
      "s lav",
      "re xhe",
      "di on",
      "rexhe p",
      "man ca",
      "te a",
      "l ca",
      "v jol",
      "shp resa",
      "zd enka",
      "shkel zen",
      "vjol lca",
      "en di",
      "er za",
      "in es",
      "fat os",
      "franc i",
      "niko la",
      "sa d",
      "mir sad",
      "sha ban",
      "flor entina",
      "shk ur",
      "tri n",
      "g an",
      "m ana",
      "li p",
      "ro mana",
      "fi lip",
      "ol ga",
      "mari o",
      "mar jana",
      "ne ja",
      "mir jana",
      "r re",
      "rre z",
      "i k",
      "edi n",
      "h at",
      "mi li",
      "patri cija",
      "ur at",
      "e ma",
      "m on",
      "ed mon",
      "arben ita",
      "sla vica",
      "edmon d",
      "di n",
      "c ko",
      "s re",
      "le art",
      "ale x",
      "sre cko",
      "mi re",
      "valb ona",
      "d ran",
      "v on",
      "z von",
      "an da",
      "meli ta",
      "sar anda",
      "ksen ija",
      "p i",
      "z al",
      "zal a",
      "sh i",
      "ga shi",
      "jas min",
      "fes tim",
      "doni ka",
      "h ona",
      "je hona",
      "dani el",
      "e mir",
      "ja ko",
      "lul jeta",
      "jako b",
      "a hmet",
      "dri ta",
      "x ha",
      "al ja",
      "dani ca",
      "edi ta",
      "yl ber",
      "bran ka",
      "hali l",
      "f or",
      "an ti",
      "mi z",
      "ra miz",
      "zi va",
      "anti gona",
      "f lu",
      "ed at",
      "m za",
      "n jo",
      "met i",
      "ed u",
      "bl end",
      "ad mir",
      "njo mza",
      "b et",
      "h an",
      "bet im",
      "g ani",
      "q lirim",
      "mi nik",
      "do minik",
      "patri k",
      "j ona",
      "fl ora",
      "ri j",
      "en es",
      "mir ko",
      "ju rij",
      "tin e",
      "h di",
      "n o",
      "o leta",
      "al mir",
      "vi oleta",
      "iv ana",
      "nexh at",
      "sa fet",
      "me hmet",
      "genti ana",
      "zlat ko",
      "z el",
      "je lena",
      "maj l",
      "zel jko",
      "im e",
      "di mir",
      "fat ime",
      "gen c",
      "vla dimir",
      "dav or",
      "elvi ra",
      "v ar",
      "mir o",
      "koso var",
      "l ana",
      "an ka",
      "ha xh",
      "bard ha",
      "haxh i",
      "u f",
      "na st",
      "el sa",
      "is uf",
      "bl endi",
      "ben i",
      "adri an",
      "lej la",
      "nast ja",
      "d ana",
      "gor dana",
      "eri on",
      "aleksand ar",
      "aj da",
      "a i",
      "ej tim",
      "ble ona",
      "maj linda",
      "shp ejtim",
      "krist ijan",
      "ai da",
      "lin di",
      "vla do",
      "mar jeta",
      "slav ko",
      "e sa",
      "er vin",
      "ur an",
      "mil os",
      "har is",
      "sil va",
      "mi le",
      "er mira",
      "ko l",
      "so kol",
      "c lirim",
      "k ora",
      "ardi ana",
      "dar inka",
      "kora b",
      "ra jko",
      "k en",
      "er min",
      "de a",
      "sel im",
      "ken an",
      "r u",
      "val i",
      "fat lind",
      "me ta",
      "os man",
      "kar in",
      "stan ko",
      "erb lin",
      "d he",
      "at dhe",
      "mar ta",
      "se nad",
      "re ta",
      "ka dri",
      "ani ca",
      "val eri",
      "miha el",
      "hys en",
      "valeri ja",
      "e kre",
      "eri ka",
      "miran da",
      "ekre m",
      "g dan",
      "i p",
      "bo gdan",
      "stan e",
      "vo jko",
      "a ze",
      "e lena",
      "es at",
      "fat jon",
      "xhev det",
      "aze m",
      "u n",
      "be dri",
      "dani lo",
      "ari ana",
      "e li",
      "el ma",
      "ne nad",
      "mil ot",
      "a mar",
      "l ju",
      "s ali",
      "ar jani",
      "sa di",
      "re be",
      "st ijan",
      "mu sa",
      "seba stijan",
      "arjani t",
      "sadi k",
      "rebe ka",
      "meli sa",
      "flu t",
      "sh e",
      "d en",
      "l ari",
      "m la",
      "z mi",
      "ri lind",
      "na zmi",
      "ni no",
      "vi da",
      "lari sa",
      "mla den",
      "i dri",
      "mi jan",
      "im er",
      "da mijan",
      "mir linda",
      "te sa",
      "leoni t",
      "idri z",
      "f ar",
      "u k",
      "yll ka",
      "far uk",
      "d jel",
      "v josa",
      "mir os",
      "joze f",
      "jel ka",
      "pi a",
      "djel lza",
      "miros lav",
      "s ur",
      "li ja",
      "fat mire",
      "men sur",
      "ju lija",
      "leoni ta",
      "kosovar e",
      "zi r",
      "sa dri",
      "fat jona",
      "mu har",
      "albi ona",
      "arbnor a",
      "muhar rem",
      "b is",
      "n ar",
      "v enka",
      "ne venka",
      "ber nar",
      "drag ana",
      "bler on",
      "rrez arta",
      "bernar da",
      "n de",
      "p ran",
      "ri ja",
      "ba h",
      "nde rim",
      "pran vera",
      "q e",
      "el ona",
      "edu ard",
      "g et",
      "q a",
      "z o",
      "lu le",
      "nad ja",
      "c vet",
      "h mi",
      "v ko",
      "z dra",
      "ta ja",
      "is lam",
      "fe hmi",
      "cvet ka",
      "zdra vko",
      "di ar",
      "ra sim",
      "ni ves",
      "el medina",
      "se ad",
      "av di",
      "edon is",
      "trin ga",
      "j z",
      "k ra",
      "o jz",
      "s ni",
      "al ojz",
      "ko dran",
      "sh kodran",
      "ha ki",
      "bes for",
      "vi k",
      "miha ela",
      "fa ik",
      "kra sni",
      "besfor t",
      "krasni qi",
      "e mi",
      "f la",
      "m di",
      "m anja",
      "ri sha",
      "ta hi",
      "ha mdi",
      "be risha",
      "iv o",
      "vl era",
      "rem zi",
      "emi ne",
      "tahi r",
      "dam jana",
      "l oni",
      "v edat",
      "ri ad",
      "la bi",
      "mar jet",
      "marjet ka",
      "er jon",
      "sil vo",
      "m urat",
      "ar jan",
      "tim ot",
      "ne hat",
      "bran e",
      "zen el",
      "shkur ta",
      "timot ej",
      "i va",
      "ri fat",
      "im ete",
      "be qir",
      "art i",
      "mu sta",
      "medi n",
      "ve sa",
      "hys ni",
      "gan imete",
      "musta f",
      "ba ki",
      "ble dar",
      "en sar",
      "mi la",
      "mila im",
      "a di",
      "b ur",
      "vin ko",
      "adi s",
      "bur han",
      "y mer",
      "vla sta",
      "genti an",
      "l l",
      "ja m",
      "re sha",
      "di jana",
      "mir jam",
      "sh eri",
      "lu mi",
      "arb resha",
      "vi gan",
      "su ad",
      "dor entina",
      "dor un",
      "as ll",
      "shkur te",
      "sheri f",
      "dorun tina",
      "asll an",
      "b re",
      "e na",
      "k uran",
      "v ro",
      "lu me",
      "he kuran",
      "ori n",
      "mari jan",
      "ivan ka",
      "lo vro",
      "hali t",
      "dav orin",
      "bre da",
      "g al",
      "h er",
      "h urim",
      "m bin",
      "o lind",
      "ar min",
      "sh ku",
      "ari f",
      "ad hurim",
      "koso va",
      "her olind",
      "shku mbin",
      "d ali",
      "i vica",
      "lu li",
      "vi t",
      "ilir jana",
      "ton e",
      "erb lina",
      "xha vit",
      "dali bor",
      "u sha",
      "shqi prim",
      "dren usha",
      "stan ka",
      "krenar e",
      "e min",
      "da sa",
      "mari jana",
      "iz et",
      "zvon ko",
      "n ermin",
      "z li",
      "li mi",
      "es ma",
      "ni ti",
      "ga ja",
      "bu trin",
      "fa zli",
      "valdet e",
      "xhev at",
      "butrin t",
      "sa bi",
      "edi s",
      "dona t",
      "len dita",
      "sabi t",
      "e mina",
      "ha j",
      "fat linda",
      "bl anka",
      "besi ana",
      "ve li",
      "elvi r",
      "f er",
      "s ne",
      "z hdi",
      "at ik",
      "val ton",
      "adri atik",
      "xha fer",
      "ru zhdi",
      "sne zana",
      "a ma",
      "d yl",
      "v en",
      "an ej",
      "al tina",
      "ra do",
      "ni sa",
      "me hdi",
      "bi ca",
      "av dyl",
      "si nisa",
      "adri jana",
      "isa k",
      "lju bica",
      "ven era",
      "a ul",
      "san ela",
      "bah ri",
      "aul ona",
      "e rina",
      "g ej",
      "r ron",
      "s ja",
      "er on",
      "re sh",
      "va sja",
      "ser gej",
      "resh at",
      "d v",
      "i ba",
      "o ar",
      "o jan",
      "s y",
      "s ej",
      "t er",
      "ri nesa",
      "ri dv",
      "ma ks",
      "st ojan",
      "el ba",
      "val mira",
      "val ter",
      "be ta",
      "mo rina",
      "za beta",
      "det e",
      "lej man",
      "mili ca",
      "eli zabeta",
      "get oar",
      "iba dete",
      "sy lejman",
      "sej di",
      "ridv an",
      "elba san",
      "s in",
      "re don",
      "di ni",
      "bes jan",
      "ti mi",
      "sha ip",
      "lau reta",
      "sami re",
      "sin an",
      "a jet",
      "l jana",
      "ana marija",
      "ze qir",
      "liri je",
      "su ela",
      "jer neja",
      "bi ljana",
      "fes tina",
      "g ra",
      "n u",
      "ja dran",
      "pet ar",
      "mo s",
      "gra mos",
      "nu hi",
      "jadran ka",
      "vet e",
      "a be",
      "or han",
      "bes ar",
      "liri e",
      "ed vin",
      "mend im",
      "eri s",
      "ade a",
      "abe din",
      "a me",
      "l im",
      "q et",
      "sh ef",
      "to rija",
      "shqip ron",
      "bis lim",
      "vik torija",
      "ame la",
      "shef qet",
      "u ra",
      "ja ku",
      "mar inka",
      "lin dita",
      "kim ete",
      "flut ura",
      "jaku p",
      "a man",
      "e ta",
      "i de",
      "l n",
      "v ul",
      "en eta",
      "er mir",
      "di bran",
      "di aman",
      "fat bardha",
      "bu qe",
      "xh eneta",
      "aj she",
      "sel man",
      "ide al",
      "ln et",
      "vul lnet",
      "diaman t",
      "k lau",
      "fi kre",
      "tri mi",
      "as mir",
      "klau dija",
      "fikre t",
      "f t",
      "s edat",
      "mi ft",
      "fla ka",
      "mift ar",
      "j tesa",
      "s ri",
      "da ut",
      "val mire",
      "ba sri",
      "ot eja",
      "ku jtesa",
      "bler ton",
      "shp at",
      "dor oteja",
      "sta sa",
      "l lo",
      "mi t",
      "sa hi",
      "ha mit",
      "ga bri",
      "fi llo",
      "flor jan",
      "aj la",
      "for tesa",
      "sahi t",
      "gabri jela",
      "fillo reta",
      "i zi",
      "l endrit",
      "m si",
      "v ard",
      "al din",
      "ka gj",
      "le dion",
      "ra fet",
      "ha zir",
      "ne zir",
      "ed vard",
      "du kagj",
      "ol ti",
      "fran jo",
      "flori ana",
      "per o",
      "she msi",
      "izi dor",
      "dukagj in",
      "e m",
      "g oni",
      "g ip",
      "n im",
      "r ru",
      "ar mir",
      "mi laz",
      "er ona",
      "er ol",
      "ra gip",
      "st em",
      "arb esa",
      "bo zo",
      "bes jana",
      "to mo",
      "ju su",
      "laz nim",
      "vl laznim",
      "argj ent",
      "tomi slav",
      "pi ka",
      "flut ra",
      "qa mil",
      "rru stem",
      "milaz im",
      "erol l",
      "jusu f",
      "b rina",
      "g jel",
      "en ko",
      "en gjel",
      "vi li",
      "bu ku",
      "zd enko",
      "ben o",
      "shqip don",
      "engjel l",
      "buku rije",
      "f rim",
      "g jon",
      "i t",
      "s ani",
      "an esa",
      "on ca",
      "is majl",
      "de frim",
      "ble on",
      "arben it",
      "sha qir",
      "pol onca",
      "as dren",
      "sani je",
      "b lin",
      "c r",
      "f ki",
      "i l",
      "s ko",
      "re fki",
      "el al",
      "du sko",
      "ves el",
      "xh elal",
      "aj din",
      "edu art",
      "qa zim",
      "zo ja",
      "blin era",
      "cr t",
      "il mi",
      "a m",
      "b ro",
      "d h",
      "k ara",
      "x en",
      "ar jana",
      "alb rim",
      "san el",
      "ble di",
      "ale a",
      "tin kara",
      "xhe majl",
      "nexh medin",
      "fe im",
      "lili jana",
      "urat a",
      "zvon e",
      "eli on",
      "am bro",
      "dh urata",
      "xen i",
      "ambro z",
      "h bi",
      "s li",
      "le ja",
      "ni je",
      "vi sa",
      "ne va",
      "mu sli",
      "lum nije",
      "ve hbi",
      "sla visa",
      "bardh yl",
      "zlat ka",
      "h re",
      "i liri",
      "p rem",
      "y ra",
      "y hre",
      "en ej",
      "sa ska",
      "sh yhre",
      "dar e",
      "nat yra",
      "iliri ana",
      "prem tim",
      "shyhre te",
      "j da",
      "s majl",
      "ta jda",
      "ble art",
      "dusan ka",
      "behar e",
      "dren i",
      "stef ka",
      "ama dej",
      "c i",
      "k ena",
      "r rahim",
      "u p",
      "z ymer",
      "ri l",
      "ja sa",
      "er ka",
      "er di",
      "mir lind",
      "ej up",
      "el medin",
      "bri kena",
      "anton ija",
      "lju bo",
      "bis erka",
      "qe rim",
      "ci ril",
      "c ani",
      "g on",
      "g es",
      "ri gon",
      "er jona",
      "ta h",
      "or ges",
      "xhe mile",
      "fe tah",
      "rija d",
      "haj dar",
      "a ba",
      "f ren",
      "o d",
      "u ena",
      "x oni",
      "er du",
      "di ti",
      "et nik",
      "and uena",
      "el je",
      "alb erina",
      "men di",
      "ardi jan",
      "met od",
      "bard hi",
      "aba z",
      "fren k",
      "erdu an",
      "elje sa",
      "i xhe",
      "k ron",
      "n ys",
      "ja sh",
      "on e",
      "re t",
      "leon is",
      "flori je",
      "besi an",
      "valb one",
      "hat ixhe",
      "fla kron",
      "nys ret",
      "jash ar",
      "m el",
      "n ja",
      "r rah",
      "fat bardh",
      "mu li",
      "seba hat",
      "flu rim",
      "mel os",
      "nja zi",
      "rrah man",
      "sebahat e",
      "c ka",
      "h ire",
      "lu cka",
      "don art",
      "va hire",
      "jet lir",
      "jer ca",
      "xhe vahire",
      "marjan ca",
      "lum bardh",
      "len art",
      "rrez art",
      "zvon ka",
      "d vik",
      "i laz",
      "t u",
      "mi ni",
      "da im",
      "lu dvik",
      "dar jan",
      "fi daim",
      "andrej ka",
      "sab rije",
      "lum tu",
      "mini re",
      "lumtu rije",
      "i mi",
      "x imi",
      "er zen",
      "fat lume",
      "me ja",
      "su meja",
      "h ete",
      "k r",
      "da sh",
      "arb no",
      "bes si",
      "de mo",
      "blaz ka",
      "zen un",
      "bah rije",
      "get i",
      "haj rije",
      "hete m",
      "kr at",
      "dash nor",
      "arbno re",
      "demo krat",
      "m y",
      "r vete",
      "z gj",
      "ar tina",
      "ur h",
      "sel vete",
      "ksen ja",
      "my rvete",
      "zgj im",
      "q ka",
      "s mil",
      "lo qka",
      "ve gim",
      "rrez on",
      "smil jan",
      "b jon",
      "f re",
      "s kim",
      "di na",
      "val erina",
      "bler ona",
      "bjon dina",
      "fre skim",
      "b al",
      "g bal",
      "i gbal",
      "j ze",
      "p le",
      "alb esa",
      "shqip dona",
      "lo jze",
      "ama deja",
      "igbal le",
      "ple urat"
    ]
  }
}