{
    "version": "1.0",
    "truncation": null,
    "padding": null,
    "added_tokens": [
        {
            "id": 0,
            "content": "[UNK]",
            "single_word": false,
            "lstrip": false,
            "rstrip": false,
            "normalized": false,
            "special": true
        },
        {
            "id": 1,
            "content": "[CLS]",
            "single_word": false,
            "lstrip": false,
            "rstrip": false,
            "normalized": false,
            "special": true
        },
        {
            "id": 2,
            "content": "[SEP]",
            "single_word": false,
            "lstrip": false,
            "rstrip": false,
            "normalized": false,
            "special": true
        },
        {
            "id": 3,
            "content": "[PAD]",
            "single_word": false,
            "lstrip": false,
            "rstrip": false,
            "normalized": false,
            "special": true
        },
        {
            "id": 4,
            "content": "[MASK]",
            "single_word": false,
            "lstrip": false,
            "rstrip": false,
            "normalized": false,
            "special": true
        }
    ],
    "normalizer": null,
    "pre_tokenizer": {
        "type": "Whitespace"
    },
    "post_processor": null,
    "decoder": null,
    "model": {
        "type": "BPE",
        "dropout": null,
        "unk_token": "[UNK]",
        "continuing_subword_prefix": null,
        "end_of_word_suffix": null,
        "fuse_unk": false,
        "vocab": {
            "[UNK]": 0,
            "[CLS]": 1,
            "[SEP]": 2,
            "[PAD]": 3,
            "[MASK]": 4,
            "-": 5,
            "a": 6,
            "b": 7,
            "c": 8,
            "d": 9,
            "e": 10,
            "f": 11,
            "g": 12,
            "h": 13,
            "i": 14,
            "j": 15,
            "k": 16,
            "l": 17,
            "m": 18,
            "n": 19,
            "o": 20,
            "p": 21,
            "q": 22,
            "r": 23,
            "s": 24,
            "t": 25,
            "u": 26,
            "v": 27,
            "w": 28,
            "x": 29,
            "y": 30,
            "z": 31,
            "an": 32,
            "ar": 33,
            "el": 34,
            "ia": 35,
            "io": 36,
            "na": 37,
            "mar": 38,
            "co": 39,
            "al": 40,
            "ri": 41,
            "to": 42,
            "ro": 43,
            "es": 44,
            "gi": 45,
            "la": 46,
            "ca": 47,
            "en": 48,
            "er": 49,
            "and": 50,
            "ni": 51,
            "lu": 52,
            "ma": 53,
            "lo": 54,
            "ele": 55,
            "fr": 56,
            "si": 57,
            "mi": 58,
            "ra": 59,
            "ti": 60,
            "re": 61,
            "mo": 62,
            "giu": 63,
            "gio": 64,
            "ta": 65,
            "sa": 66,
            "ces": 67,
            "vi": 68,
            "ano": 69,
            "pa": 70,
            "do": 71,
            "ela": 72,
            "te": 73,
            "pp": 74,
            "ch": 75,
            "car": 76,
            "ana": 77,
            "se": 78,
            "li": 79,
            "de": 80,
            "ber": 81,
            "ab": 82,
            "no": 83,
            "enz": 84,
            "ara": 85,
            "giuse": 86,
            "ppe": 87,
            "et": 88,
            "ani": 89,
            "pao": 90,
            "lau": 91,
            "ang": 92,
            "giov": 93,
            "zia": 94,
            "ste": 95,
            "da": 96,
            "pi": 97,
            "fab": 98,
            "mas": 99,
            "lui": 100,
            "ris": 101,
            "val": 102,
            "man": 103,
            "zio": 104,
            "ros": 105,
            "mat": 106,
            "ede": 107,
            "luc": 108,
            "sal": 109,
            "mau": 110,
            "eli": 111,
            "lv": 112,
            "salv": 113,
            "le": 114,
            "nc": 115,
            "lia": 116,
            "ne": 117,
            "rizio": 118,
            "silv": 119,
            "elo": 120,
            "gia": 121,
            "ale": 122,
            "etta": 123,
            "vinc": 124,
            "teo": 125,
            "lor": 126,
            "men": 127,
            "gab": 128,
            "chi": 129,
            "gior": 130,
            "sab": 131,
            "on": 132,
            "fa": 133,
            "tri": 134,
            "ter": 135,
            "ci": 136,
            "ero": 137,
            "ser": 138,
            "zi": 139,
            "tia": 140,
            "di": 141,
            "gra": 142,
            "meni": 143,
            "aria": 144,
            "raf": 145,
            "domeni": 146,
            "ga": 147,
            "raffa": 148,
            "ardo": 149,
            "mir": 150,
            "ce": 151,
            "ka": 152,
            "ali": 153,
            "il": 154,
            "ccar": 155,
            "riccar": 156,
            "fi": 157,
            "liano": 158,
            "etro": 159,
            "valer": 160,
            "go": 161,
            "carm": 162,
            "bar": 163,
            "ru": 164,
            "ello": 165,
            "qu": 166,
            "squ": 167,
            "pasqu": 168,
            "esa": 169,
            "emi": 170,
            "nzia": 171,
            "ad": 172,
            "ha": 173,
            "iv": 174,
            "me": 175,
            "ppo": 176,
            "rena": 177,
            "lio": 178,
            "fili": 179,
            "ari": 180,
            "tor": 181,
            "gen": 182,
            "us": 183,
            "bru": 184,
            "so": 185,
            "dia": 186,
            "nat": 187,
            "vit": 188,
            "tta": 189,
            "giaco": 190,
            "as": 191,
            "vittor": 192,
            "nu": 193,
            "ando": 194,
            "edo": 195,
            "gius": 196,
            "vio": 197,
            "gaet": 198,
            "ono": 199,
            "miliano": 200,
            "eri": 201,
            "ko": 202,
            "mma": 203,
            "ora": 204,
            "eleono": 205,
            "be": 206,
            "son": 207,
            "liana": 208,
            "aro": 209,
            "cate": 210,
            "ego": 211,
            "au": 212,
            "ren": 213,
            "ina": 214,
            "or": 215,
            "ena": 216,
            "cco": 217,
            "tom": 218,
            "mu": 219,
            "elisab": 220,
            "nia": 221,
            "gh": 222,
            "mine": 223,
            "st": 224,
            "genn": 225,
            "med": 226,
            "fla": 227,
            "maso": 228,
            "ghe": 229,
            "tiano": 230,
            "den": 231,
            "fer": 232,
            "alf": 233,
            "cia": 234,
            "fia": 235,
            "am": 236,
            "gu": 237,
            "marghe": 238,
            "ben": 239,
            "ba": 240,
            "conc": 241,
            "trice": 242,
            "nes": 243,
            "atrice": 244,
            "ppina": 245,
            "seb": 246,
            "pe": 247,
            "rora": 248,
            "ny": 249,
            "ger": 250,
            "su": 251,
            "po": 252,
            "ja": 253,
            "ver": 254,
            "alfr": 255,
            "alfon": 256,
            "mmo": 257,
            "nato": 258,
            "van": 259,
            "wal": 260,
            "are": 261,
            "via": 262,
            "enia": 263,
            "isab": 264,
            "san": 265,
            "eu": 266,
            "benede": 267,
            "ido": 268,
            "sus": 269,
            "fio": 270,
            "flo": 271,
            "th": 272,
            "va": 273,
            "copo": 274,
            "rra": 275,
            "tizia": 276,
            "angeli": 277,
            "jo": 278,
            "pia": 279,
            "usto": 280,
            "giam": 281,
            "iam": 282,
            "nta": 283,
            "assu": 284,
            "mando": 285,
            "ael": 286,
            "fior": 287,
            "ke": 288,
            "nda": 289,
            "glor": 290,
            "tu": 291,
            "gre": 292,
            "miano": 293,
            "ty": 294,
            "corra": 295,
            "saver": 296,
            "tti": 297,
            "ah": 298,
            "mad": 299,
            "cc": 300,
            "ccio": 301,
            "bia": 302,
            "ago": 303,
            "lga": 304,
            "max": 305,
            "tas": 306,
            "rgi": 307,
            "virgi": 308,
            "ssa": 309,
            "viana": 310,
            "omas": 311,
            "leo": 312,
            "dan": 313,
            "cilia": 314,
            "ada": 315,
            "fu": 316,
            "fulv": 317,
            "alo": 318,
            "arita": 319,
            "pat": 320,
            "mano": 321,
            "tin": 322,
            "cca": 323,
            "os": 324,
            "vin": 325,
            "ann": 326,
            "jen": 327,
            "gero": 328,
            "gor": 329,
            "nzio": 330,
            "eva": 331,
            "bi": 332,
            "ernes": 333,
            "cy": 334,
            "gna": 335,
            "igna": 336,
            "ida": 337,
            "ag": 338,
            "nese": 339,
            "rezia": 340,
            "ion": 341,
            "du": 342,
            "elvi": 343,
            "ugo": 344,
            "moren": 345,
            "ry": 346,
            "mer": 347,
            "rin": 348,
            "aga": 349,
            "nio": 350,
            "rach": 351,
            "lde": 352,
            "setta": 353,
            "aur": 354,
            "ck": 355,
            "tha": 356,
            "con": 357,
            "za": 358,
            "iu": 359,
            "ge": 360,
            "mel": 361,
            "ctor": 362,
            "natas": 363,
            "nicco": 364,
            "ramo": 365,
            "vasi": 366,
            "fo": 367,
            "lfo": 368,
            "dolfo": 369,
            "calo": 370,
            "atti": 371,
            "gil": 372,
            "by": 373,
            "mik": 374,
            "amb": 375,
            "edeo": 376,
            "uri": 377,
            "ea": 378,
            "wil": 379,
            "ola": 380,
            "este": 381,
            "nich": 382,
            "olas": 383,
            "ccia": 384,
            "for": 385,
            "fortu": 386,
            "cl": 387,
            "meo": 388,
            "cat": 389,
            "it": 390,
            "sp": 391,
            "artu": 392,
            "des": 393,
            "gusto": 394,
            "dio": 395,
            "yo": 396,
            "gli": 397,
            "gugli": 398,
            "dano": 399,
            "id": 400,
            "ionu": 401,
            "saria": 402,
            "zz": 403,
            "nifer": 404,
            "tima": 405,
            "har": 406,
            "shar": 407,
            "rug": 408,
            "tto": 409,
            "ino": 410,
            "pet": 411,
            "nan": 412,
            "anth": 413,
            "ony": 414,
            "gasp": 415,
            "sv": 416,
            "ppa": 417,
            "han": 418,
            "md": 419,
            "kh": 420,
            "ori": 421,
            "edu": 422,
            "rizia": 423,
            "ly": 424,
            "otta": 425,
            "rachi": 426,
            "egi": 427,
            "sta": 428,
            "llo": 429,
            "vra": 430,
            "gine": 431,
            "ire": 432,
            "ssan": 433,
            "ermi": 434,
            "ldo": 435,
            "mmed": 436,
            "hn": 437,
            "vino": 438,
            "usta": 439,
            "kek": 440,
            "ndo": 441,
            "caela": 442,
            "mondo": 443,
            "cet": 444,
            "col": 445,
            "dali": 446,
            "ks": 447,
            "oks": 448,
            "ac": 449,
            "gioac": 450,
            "chino": 451,
            "nis": 452,
            "oli": 453,
            "ivo": 454,
            "sef": 455,
            "ussef": 456,
            "ul": 457,
            "afi": 458,
            "arc": 459,
            "erman": 460,
            "serafi": 461,
            "nic": 462,
            "cle": 463,
            "clemen": 464,
            "azi": 465,
            "orge": 466,
            "valdo": 467,
            "dou": 468,
            "pio": 469,
            "azz": 470,
            "cel": 471,
            "isa": 472,
            "pal": 473,
            "urra": 474,
            "tolo": 475,
            "ju": 476,
            "imondo": 477,
            "rodi": 478,
            "suelo": 479,
            "pri": 480,
            "ub": 481,
            "saba": 482,
            "lavi": 483,
            "ira": 484,
            "my": 485,
            "ile": 486,
            "liu": 487,
            "tius": 488,
            "katius": 489,
            "achi": 490,
            "lle": 491,
            "arissa": 492,
            "lma": 493,
            "bo": 494,
            "gdan": 495,
            "cola": 496,
            "ito": 497,
            "ph": 498,
            "alid": 499,
            "hi": 500,
            "ir": 501,
            "cham": 502,
            "mpia": 503,
            "cost": 504,
            "fra": 505,
            "gerar": 506,
            "ngh": 507,
            "uro": 508,
            "gda": 509,
            "che": 510,
            "orghe": 511,
            "icol": 512,
            "rola": 513,
            "girola": 514,
            "mza": 515,
            "mid": 516,
            "mana": 517,
            "sel": 518,
            "ene": 519,
            "hamma": 520,
            "muhamma": 521,
            "lian": 522,
            "anti": 523,
            "batti": 524,
            "erino": 525,
            "ruccio": 526,
            "frio": 527,
            "silia": 528,
            "ppino": 529,
            "rel": 530,
            "bri": 531,
            "bre": 532,
            "glio": 533,
            "mbre": 534,
            "ombre": 535,
            "gida": 536,
            "giglio": 537,
            "llio": 538,
            "musta": 539,
            "pha": 540,
            "svit": 541,
            "ed": 542,
            "ide": 543,
            "met": 544,
            "rio": 545,
            "elaide": 546,
            "demet": 547,
            "zo": 548,
            "giudi": 549,
            "nto": 550,
            "aren": 551,
            "mosta": 552,
            "giaci": 553,
            "areno": 554,
            "kha": 555,
            "smi": 556,
            "cosmi": 557,
            "dija": 558,
            "ria": 559,
            "giero": 560,
            "dmi": 561,
            "arna": 562,
            "giosu": 563,
            "cipri": 564,
            "liudmi": 565,
            "nna": 566,
            "ayo": 567,
            "yas": 568,
            "lucil": 569,
            "vis": 570,
            "tru": 571,
            "mitru": 572,
            "vina": 573,
            "romo": 574,
            "mama": 575,
            "ikh": 576,
            "ili": 577,
            "cri": 578,
            "len": 579,
            "uta": 580,
            "uccia": 581,
            "efi": 582,
            "sio": 583,
            "tro": 584,
            "estro": 585,
            "nel": 586,
            "riano": 587,
            "rogio": 588,
            "fed": 589,
            "glia": 590,
            "siglia": 591,
            "mes": 592,
            "sso": 593,
            "ves": 594,
            "bero": 595,
            "lal": 596,
            "nzo": 597,
            "oro": 598,
            "em": 599,
            "fy": 600,
            "cr": 601,
            "giando": 602,
            "lica": 603,
            "menico": 604,
            "mm": 605,
            "arca": 606,
            "etto": 607,
            "fiamm": 608,
            "nco": 609,
            "milv": 610,
            "viero": 611,
            "minia": 612,
            "arosa": 613,
            "nni": 614,
            "tt": 615,
            "espo": 616,
            "elett": 617,
            "cesari": 618,
            "gel": 619,
            "anza": 620,
            "eranza": 621,
            "mis": 622,
            "ame": 623,
            "ky": 624,
            "mpe": 625,
            "pompe": 626,
            "bale": 627,
            "ot": 628,
            "ary": 629,
            "pel": 630,
            "edi": 631,
            "mba": 632,
            "sse": 633,
            "uli": 634,
            "enzina": 635,
            "lan": 636
        },
        "merges": [
            "a n",
            "a r",
            "e l",
            "i a",
            "i o",
            "n a",
            "m ar",
            "c o",
            "a l",
            "r i",
            "t o",
            "r o",
            "e s",
            "g i",
            "l a",
            "c a",
            "e n",
            "e r",
            "an d",
            "n i",
            "l u",
            "m a",
            "l o",
            "el e",
            "f r",
            "s i",
            "m i",
            "r a",
            "t i",
            "r e",
            "m o",
            "gi u",
            "g io",
            "t a",
            "s a",
            "c es",
            "v i",
            "an o",
            "p a",
            "d o",
            "el a",
            "t e",
            "p p",
            "c h",
            "c ar",
            "an a",
            "s e",
            "l i",
            "d e",
            "b er",
            "a b",
            "n o",
            "en z",
            "ar a",
            "giu se",
            "pp e",
            "e t",
            "an i",
            "pa o",
            "la u",
            "an g",
            "gio v",
            "z ia",
            "s te",
            "d a",
            "p i",
            "f ab",
            "ma s",
            "lu i",
            "ri s",
            "v al",
            "m an",
            "z io",
            "ro s",
            "ma t",
            "e de",
            "lu c",
            "s al",
            "ma u",
            "el i",
            "l v",
            "sal v",
            "l e",
            "n c",
            "l ia",
            "n e",
            "ri zio",
            "si lv",
            "el o",
            "g ia",
            "al e",
            "et ta",
            "vi nc",
            "te o",
            "lo r",
            "m en",
            "g ab",
            "ch i",
            "gio r",
            "sa b",
            "o n",
            "f a",
            "t ri",
            "t er",
            "c i",
            "e ro",
            "s er",
            "z i",
            "t ia",
            "d i",
            "g ra",
            "men i",
            "ar ia",
            "ra f",
            "do meni",
            "g a",
            "raf fa",
            "ar do",
            "mi r",
            "c e",
            "k a",
            "al i",
            "i l",
            "c car",
            "ri ccar",
            "f i",
            "li ano",
            "et ro",
            "val er",
            "g o",
            "car m",
            "b ar",
            "r u",
            "el lo",
            "q u",
            "s qu",
            "pa squ",
            "es a",
            "e mi",
            "n zia",
            "a d",
            "h a",
            "i v",
            "m e",
            "pp o",
            "re na",
            "l io",
            "fi li",
            "ar i",
            "to r",
            "g en",
            "u s",
            "b ru",
            "s o",
            "d ia",
            "na t",
            "vi t",
            "t ta",
            "gia co",
            "a s",
            "vit tor",
            "n u",
            "and o",
            "e do",
            "giu s",
            "v io",
            "ga et",
            "o no",
            "mi liano",
            "e ri",
            "k o",
            "m ma",
            "o ra",
            "ele ono",
            "b e",
            "s on",
            "li ana",
            "ar o",
            "ca te",
            "e go",
            "a u",
            "r en",
            "i na",
            "o r",
            "e na",
            "c co",
            "to m",
            "m u",
            "eli sab",
            "n ia",
            "g h",
            "mi ne",
            "s t",
            "gen n",
            "me d",
            "f la",
            "mas o",
            "gh e",
            "ti ano",
            "d en",
            "f er",
            "al f",
            "c ia",
            "f ia",
            "a m",
            "g u",
            "mar ghe",
            "b en",
            "b a",
            "co nc",
            "tri ce",
            "n es",
            "a trice",
            "pp ina",
            "se b",
            "p e",
            "ro ra",
            "n y",
            "g er",
            "s u",
            "p o",
            "j a",
            "v er",
            "al fr",
            "alf on",
            "m mo",
            "na to",
            "v an",
            "w al",
            "ar e",
            "v ia",
            "en ia",
            "i sab",
            "s an",
            "e u",
            "ben ede",
            "i do",
            "s us",
            "f io",
            "f lo",
            "t h",
            "v a",
            "co po",
            "r ra",
            "ti zia",
            "ang eli",
            "j o",
            "p ia",
            "us to",
            "gia m",
            "ia m",
            "n ta",
            "as su",
            "m ando",
            "a el",
            "fio r",
            "k e",
            "n da",
            "g lor",
            "t u",
            "g re",
            "mi ano",
            "t y",
            "co rra",
            "sa ver",
            "t ti",
            "a h",
            "ma d",
            "c c",
            "cc io",
            "b ia",
            "a go",
            "l ga",
            "ma x",
            "ta s",
            "r gi",
            "vi rgi",
            "s sa",
            "vi ana",
            "o mas",
            "le o",
            "d an",
            "ci lia",
            "a da",
            "f u",
            "fu lv",
            "al o",
            "ari ta",
            "pa t",
            "m ano",
            "ti n",
            "c ca",
            "o s",
            "vi n",
            "an n",
            "j en",
            "g ero",
            "go r",
            "n zio",
            "e va",
            "b i",
            "er nes",
            "c y",
            "g na",
            "i gna",
            "i da",
            "a g",
            "nes e",
            "re zia",
            "io n",
            "d u",
            "el vi",
            "u go",
            "mo ren",
            "r y",
            "m er",
            "ri n",
            "a ga",
            "n io",
            "ra ch",
            "l de",
            "se tta",
            "au r",
            "c k",
            "t ha",
            "co n",
            "z a",
            "i u",
            "g e",
            "m el",
            "c tor",
            "na tas",
            "ni cco",
            "ra mo",
            "va si",
            "f o",
            "l fo",
            "do lfo",
            "c alo",
            "a tti",
            "gi l",
            "b y",
            "mi k",
            "am b",
            "ede o",
            "u ri",
            "e a",
            "w il",
            "o la",
            "es te",
            "ni ch",
            "ola s",
            "c cia",
            "f or",
            "for tu",
            "c l",
            "me o",
            "ca t",
            "i t",
            "s p",
            "ar tu",
            "d es",
            "g usto",
            "d io",
            "y o",
            "g li",
            "gu gli",
            "d ano",
            "i d",
            "io nu",
            "s aria",
            "z z",
            "ni fer",
            "ti ma",
            "h ar",
            "s har",
            "ru g",
            "t to",
            "i no",
            "p et",
            "n an",
            "an th",
            "on y",
            "ga sp",
            "s v",
            "p pa",
            "h an",
            "m d",
            "k h",
            "o ri",
            "e du",
            "ri zia",
            "l y",
            "o tta",
            "ra chi",
            "e gi",
            "s ta",
            "l lo",
            "v ra",
            "gi ne",
            "i re",
            "s san",
            "er mi",
            "l do",
            "m med",
            "h n",
            "vi no",
            "us ta",
            "ke k",
            "n do",
            "ca ela",
            "mo ndo",
            "c et",
            "co l",
            "d ali",
            "k s",
            "o ks",
            "a c",
            "gio ac",
            "chi no",
            "ni s",
            "o li",
            "iv o",
            "se f",
            "us sef",
            "u l",
            "a fi",
            "ar c",
            "er man",
            "ser afi",
            "ni c",
            "c le",
            "cle men",
            "a zi",
            "or ge",
            "val do",
            "do u",
            "p io",
            "a zz",
            "c el",
            "i sa",
            "p al",
            "u rra",
            "to lo",
            "j u",
            "i mondo",
            "ro di",
            "su elo",
            "p ri",
            "u b",
            "sab a",
            "la vi",
            "i ra",
            "m y",
            "i le",
            "li u",
            "ti us",
            "ka tius",
            "a chi",
            "l le",
            "ari ssa",
            "l ma",
            "b o",
            "g dan",
            "co la",
            "i to",
            "p h",
            "ali d",
            "h i",
            "i r",
            "ch am",
            "m pia",
            "co st",
            "fr a",
            "ger ar",
            "n gh",
            "u ro",
            "g da",
            "ch e",
            "or ghe",
            "i col",
            "ro la",
            "gi rola",
            "m za",
            "mi d",
            "m ana",
            "s el",
            "en e",
            "ha mma",
            "mu hamma",
            "li an",
            "an ti",
            "ba tti",
            "eri no",
            "ru ccio",
            "fr io",
            "si lia",
            "pp ino",
            "r el",
            "b ri",
            "b re",
            "g lio",
            "m bre",
            "o mbre",
            "gi da",
            "gi glio",
            "l lio",
            "m usta",
            "p ha",
            "s vit",
            "e d",
            "i de",
            "m et",
            "r io",
            "ela ide",
            "de met",
            "z o",
            "giu di",
            "n to",
            "ar en",
            "mo sta",
            "gia ci",
            "aren o",
            "k ha",
            "s mi",
            "co smi",
            "di ja",
            "r ia",
            "gi ero",
            "d mi",
            "ar na",
            "gio su",
            "ci pri",
            "liu dmi",
            "n na",
            "a yo",
            "y as",
            "luc il",
            "vi s",
            "t ru",
            "mi tru",
            "vi na",
            "ro mo",
            "ma ma",
            "i kh",
            "i li",
            "c ri",
            "l en",
            "u ta",
            "u ccia",
            "e fi",
            "s io",
            "t ro",
            "es tro",
            "n el",
            "ri ano",
            "ro gio",
            "f ed",
            "g lia",
            "si glia",
            "m es",
            "s so",
            "v es",
            "b ero",
            "l al",
            "n zo",
            "o ro",
            "e m",
            "f y",
            "c r",
            "gi ando",
            "li ca",
            "meni co",
            "m m",
            "ar ca",
            "et to",
            "fia mm",
            "n co",
            "mi lv",
            "vi ero",
            "mi nia",
            "aro sa",
            "n ni",
            "t t",
            "es po",
            "ele tt",
            "ces ari",
            "g el",
            "an za",
            "er anza",
            "mi s",
            "a me",
            "k y",
            "m pe",
            "po mpe",
            "b ale",
            "o t",
            "ar y",
            "p el",
            "e di",
            "m ba",
            "s se",
            "u li",
            "enz ina",
            "l an"
        ]
    }
}