{
    "version": "1.0",
    "truncation": null,
    "padding": null,
    "added_tokens": [
        {
            "id": 0,
            "content": "[UNK]",
            "single_word": false,
            "lstrip": false,
            "rstrip": false,
            "normalized": false,
            "special": true
        },
        {
            "id": 1,
            "content": "[CLS]",
            "single_word": false,
            "lstrip": false,
            "rstrip": false,
            "normalized": false,
            "special": true
        },
        {
            "id": 2,
            "content": "[SEP]",
            "single_word": false,
            "lstrip": false,
            "rstrip": false,
            "normalized": false,
            "special": true
        },
        {
            "id": 3,
            "content": "[PAD]",
            "single_word": false,
            "lstrip": false,
            "rstrip": false,
            "normalized": false,
            "special": true
        },
        {
            "id": 4,
            "content": "[MASK]",
            "single_word": false,
            "lstrip": false,
            "rstrip": false,
            "normalized": false,
            "special": true
        }
    ],
    "normalizer": null,
    "pre_tokenizer": {
        "type": "Whitespace"
    },
    "post_processor": null,
    "decoder": null,
    "model": {
        "type": "BPE",
        "dropout": null,
        "unk_token": "[UNK]",
        "continuing_subword_prefix": null,
        "end_of_word_suffix": null,
        "fuse_unk": false,
        "vocab": {
            "[UNK]": 0,
            "[CLS]": 1,
            "[SEP]": 2,
            "[PAD]": 3,
            "[MASK]": 4,
            "a": 5,
            "b": 6,
            "c": 7,
            "d": 8,
            "e": 9,
            "f": 10,
            "g": 11,
            "h": 12,
            "i": 13,
            "j": 14,
            "k": 15,
            "l": 16,
            "m": 17,
            "n": 18,
            "o": 19,
            "p": 20,
            "r": 21,
            "s": 22,
            "t": 23,
            "u": 24,
            "v": 25,
            "w": 26,
            "x": 27,
            "y": 28,
            "z": 29,
            "an": 30,
            "ri": 31,
            "ma": 32,
            "na": 33,
            "li": 34,
            "er": 35,
            "el": 36,
            "jo": 37,
            "ar": 38,
            "st": 39,
            "en": 40,
            "as": 41,
            "ka": 42,
            "in": 43,
            "and": 44,
            "ni": 45,
            "han": 46,
            "mi": 47,
            "ne": 48,
            "rik": 49,
            "le": 50,
            "tt": 51,
            "us": 52,
            "ca": 53,
            "re": 54,
            "lin": 55,
            "da": 56,
            "ch": 57,
            "to": 58,
            "la": 59,
            "mar": 60,
            "rist": 61,
            "sa": 62,
            "th": 63,
            "se": 64,
            "mo": 65,
            "vi": 66,
            "et": 67,
            "ro": 68,
            "eli": 69,
            "am": 70,
            "lo": 71,
            "ina": 72,
            "lla": 73,
            "ra": 74,
            "ani": 75,
            "pet": 76,
            "per": 77,
            "of": 78,
            "ia": 79,
            "ny": 80,
            "ta": 81,
            "im": 82,
            "va": 83,
            "ara": 84,
            "gu": 85,
            "fre": 86,
            "ing": 87,
            "rin": 88,
            "car": 89,
            "ak": 90,
            "em": 91,
            "ias": 92,
            "si": 93,
            "jen": 94,
            "be": 95,
            "pa": 96,
            "las": 97,
            "mas": 98,
            "mag": 99,
            "eva": 100,
            "es": 101,
            "fan": 102,
            "or": 103,
            "jor": 104,
            "lia": 105,
            "hel": 106,
            "tta": 107,
            "sof": 108,
            "ian": 109,
            "tte": 110,
            "il": 111,
            "nus": 112,
            "ale": 113,
            "ul": 114,
            "ja": 115,
            "mad": 116,
            "lar": 117,
            "ali": 118,
            "oli": 119,
            "rob": 120,
            "ed": 121,
            "mat": 122,
            "ste": 123,
            "ck": 124,
            "ann": 125,
            "hen": 126,
            "pat": 127,
            "bri": 128,
            "andra": 129,
            "jes": 130,
            "ham": 131,
            "ir": 132,
            "bjor": 133,
            "tor": 134,
            "ert": 135,
            "sus": 136,
            "jan": 137,
            "vid": 138,
            "ena": 139,
            "sta": 140,
            "my": 141,
            "omas": 142,
            "ce": 143,
            "char": 144,
            "ine": 145,
            "on": 146,
            "os": 147,
            "gi": 148,
            "ah": 149,
            "bir": 150,
            "moham": 151,
            "asa": 152,
            "emi": 153,
            "caroli": 154,
            "kar": 155,
            "birgi": 156,
            "ci": 157,
            "ker": 158,
            "lle": 159,
            "ie": 160,
            "ette": 161,
            "ene": 162,
            "fer": 163,
            "ere": 164,
            "joak": 165,
            "nar": 166,
            "ph": 167,
            "gun": 168,
            "ili": 169,
            "ilip": 170,
            "ba": 171,
            "tom": 172,
            "ui": 173,
            "isa": 174,
            "ael": 175,
            "erese": 176,
            "ben": 177,
            "kerst": 178,
            "hak": 179,
            "tob": 180,
            "mon": 181,
            "ger": 182,
            "len": 183,
            "uise": 184,
            "al": 185,
            "gor": 186,
            "ju": 187,
            "ken": 188,
            "med": 189,
            "fri": 190,
            "ida": 191,
            "gne": 192,
            "rid": 193,
            "ulf": 194,
            "ver": 195,
            "ha": 196,
            "hn": 197,
            "ud": 198,
            "vic": 199,
            "gar": 200,
            "di": 201,
            "bo": 202,
            "offer": 203,
            "margar": 204,
            "ric": 205,
            "ob": 206,
            "vik": 207,
            "ard": 208,
            "mu": 209,
            "nea": 210,
            "ve": 211,
            "ga": 212,
            "jim": 213,
            "lei": 214,
            "ada": 215,
            "ola": 216,
            "ela": 217,
            "pia": 218,
            "charlo": 219,
            "nic": 220,
            "wil": 221,
            "isab": 222,
            "eta": 223,
            "nart": 224,
            "rol": 225,
            "za": 226,
            "gusta": 227,
            "ab": 228,
            "ell": 229,
            "sv": 230,
            "mia": 231,
            "has": 232,
            "lis": 233,
            "ke": 234,
            "ria": 235,
            "toria": 236,
            "tha": 237,
            "asm": 238,
            "olo": 239,
            "so": 240,
            "je": 241,
            "jon": 242,
            "cla": 243,
            "cke": 244,
            "ad": 245,
            "ge": 246,
            "ur": 247,
            "den": 248,
            "bar": 249,
            "kj": 250,
            "pon": 251,
            "tus": 252,
            "nis": 253,
            "nes": 254,
            "von": 255,
            "ang": 256,
            "ki": 257,
            "cia": 258,
            "wa": 259,
            "mir": 260,
            "kim": 261,
            "vin": 262,
            "ig": 263,
            "no": 264,
            "ewa": 265,
            "kaj": 266,
            "ron": 267,
            "elo": 268,
            "dan": 269,
            "jak": 270,
            "lie": 271,
            "rasm": 272,
            "max": 273,
            "pe": 274,
            "mor": 275,
            "ax": 276,
            "man": 277,
            "nil": 278,
            "cob": 279,
            "lu": 280,
            "at": 281,
            "sam": 282,
            "angeli": 283,
            "ake": 284,
            "alb": 285,
            "yl": 286,
            "go": 287,
            "par": 288,
            "via": 289,
            "pau": 290,
            "ana": 291,
            "eb": 292,
            "rit": 293,
            "mah": 294,
            "lud": 295,
            "san": 296,
            "moa": 297,
            "ib": 298,
            "hm": 299,
            "cas": 300,
            "rah": 301,
            "soph": 302,
            "maj": 303,
            "tter": 304,
            "vig": 305,
            "van": 306,
            "trin": 307,
            "jam": 308,
            "nel": 309,
            "ll": 310,
            "pus": 311,
            "hu": 312,
            "ev": 313,
            "kh": 314,
            "pi": 315,
            "gan": 316,
            "ry": 317,
            "joa": 318,
            "mal": 319,
            "te": 320,
            "ban": 321,
            "con": 322,
            "bet": 323,
            "har": 324,
            "nad": 325,
            "ibrah": 326,
            "ila": 327,
            "erre": 328,
            "hmd": 329,
            "kas": 330,
            "geor": 331,
            "tim": 332,
            "sein": 333,
            "liselo": 334,
            "ru": 335,
            "fat": 336,
            "de": 337,
            "bas": 338,
            "sab": 339,
            "oph": 340,
            "ellin": 341,
            "id": 342,
            "cki": 343,
            "ofer": 344,
            "hus": 345,
            "ei": 346,
            "ya": 347,
            "jer": 348,
            "leo": 349,
            "the": 350,
            "moud": 351,
            "ove": 352,
            "ingali": 353,
            "mid": 354,
            "etha": 355,
            "siv": 356,
            "benjam": 357,
            "urt": 358,
            "sol": 359,
            "chim": 360,
            "ima": 361,
            "su": 362,
            "sor": 363,
            "vor": 364,
            "yo": 365,
            "bos": 366,
            "rice": 367,
            "ast": 368,
            "dil": 369,
            "var": 370,
            "jasm": 371,
            "me": 372,
            "son": 373,
            "mmi": 374,
            "fa": 375,
            "ped": 376,
            "ole": 377,
            "ol": 378,
            "alid": 379,
            "ala": 380,
            "bor": 381,
            "crist": 382,
            "veig": 383,
            "ber": 384,
            "bern": 385,
            "is": 386,
            "los": 387,
            "fab": 388,
            "sel": 389,
            "ris": 390,
            "lian": 391,
            "yous": 392,
            "tja": 393,
            "lille": 394,
            "rine": 395,
            "ted": 396,
            "dru": 397,
            "gudru": 398,
            "serik": 399,
            "mie": 400,
            "nan": 401,
            "zah": 402,
            "fr": 403,
            "ank": 404,
            "uf": 405,
            "cor": 406,
            "ti": 407,
            "tu": 408,
            "nie": 409,
            "cim": 410,
            "ura": 411,
            "hei": 412,
            "bi": 413,
            "uel": 414,
            "anuel": 415,
            "udia": 416,
            "ot": 417,
            "om": 418,
            "abo": 419,
            "phan": 420,
            "alf": 421,
            "sala": 422,
            "vil": 423,
            "tar": 424,
            "we": 425,
            "gre": 426,
            "hed": 427,
            "helm": 428,
            "vive": 429,
            "wig": 430,
            "hil": 431,
            "min": 432,
            "riam": 433,
            "sig": 434,
            "die": 435,
            "bw": 436,
            "elvi": 437,
            "hi": 438,
            "nio": 439,
            "sef": 440,
            "ttan": 441,
            "inab": 442,
            "lan": 443,
            "kka": 444,
            "do": 445,
            "glas": 446,
            "hdi": 447,
            "uglas": 448,
            "mail": 449,
            "syl": 450,
            "az": 451,
            "iz": 452,
            "rag": 453,
            "dra": 454,
            "ase": 455,
            "ssa": 456,
            "cen": 457,
            "ef": 458,
            "vincen": 459,
            "ise": 460,
            "fia": 461,
            "hmet": 462,
            "fad": 463,
            "nin": 464,
            "nia": 465,
            "ze": 466,
            "ree": 467,
            "siree": 468,
            "jsa": 469,
            "hara": 470,
            "ld": 471,
            "lui": 472,
            "bil": 473,
            "pir": 474,
            "au": 475,
            "ure": 476,
            "dag": 477,
            "gust": 478,
            "jil": 479,
            "ott": 480,
            "hammad": 481,
            "bila": 482,
            "yus": 483,
            "moll": 484,
            "til": 485,
            "hos": 486,
            "liot": 487,
            "tti": 488,
            "ata": 489,
            "stell": 490,
            "sake": 491,
            "ija": 492,
            "eres": 493,
            "ay": 494,
            "hs": 495,
            "mohs": 496,
            "far": 497,
            "siw": 498,
            "had": 499,
            "sela": 500,
            "alil": 501,
            "nu": 502,
            "osa": 503,
            "umu": 504,
            "liv": 505,
            "ek": 506,
            "owe": 507,
            "aras": 508,
            "aya": 509,
            "ly": 510,
            "lott": 511,
            "hr": 512,
            "ven": 513,
            "morte": 514,
            "ser": 515,
            "kia": 516,
            "hild": 517,
            "jar": 518,
            "dor": 519,
            "met": 520,
            "mel": 521,
            "zia": 522,
            "gve": 523,
            "ngve": 524,
            "rith": 525,
            "ssi": 526,
            "eon": 527,
            "fe": 528,
            "eleon": 529,
            "ttis": 530,
            "bib": 531,
            "gny": 532,
            "ras": 533,
            "ula": 534,
            "yas": 535,
            "aza": 536,
            "rat": 537,
            "fir": 538,
            "umo": 539,
            "ag": 540,
            "zka": 541,
            "nies": 542,
            "margi": 543,
            "agnies": 544,
            "oud": 545,
            "shi": 546,
            "haid": 547,
            "bj": 548,
            "zen": 549,
            "gmor": 550,
            "ivi": 551,
            "rud": 552,
            "wel": 553,
            "tin": 554,
            "piot": 555,
            "mer": 556,
            "llo": 557,
            "peo": 558,
            "hra": 559,
            "rpa": 560,
            "gull": 561,
            "rze": 562,
            "zan": 563,
            "andrze": 564,
            "lerik": 565,
            "itta": 566,
            "gha": 567,
            "uno": 568,
            "petron": 569,
            "knu": 570,
            "zhr": 571,
            "fol": 572,
            "hja": 573,
            "lmar": 574,
            "vad": 575,
            "enake": 576,
            "hanad": 577,
            "nhild": 578,
            "bel": 579,
            "dt": 580,
            "sver": 581,
            "vard": 582,
            "erlin": 583,
            "bbe": 584,
            "ku": 585,
            "arit": 586,
            "ho": 587,
            "co": 588,
            "ljen": 589,
            "mco": 590,
            "miljen": 591,
            "solwe": 592,
            "cka": 593,
            "teres": 594,
            "kil": 595,
            "kir": 596,
            "ten": 597,
            "xten": 598,
            "ikka": 599,
            "sin": 600,
            "bro": 601,
            "po": 602,
            "ppo": 603,
            "kk": 604,
            "pas": 605,
            "hannel": 606,
            "modi": 607,
            "pirkk": 608,
            "ctor": 609,
            "ictor": 610,
            "jus": 611,
            "take": 612,
            "cci": 613,
            "hjor": 614,
            "pu": 615,
            "dis": 616,
            "ijo": 617,
            "kel": 618,
            "kki": 619,
            "kri": 620,
            "tui": 621,
            "margre": 622,
            "annmargre": 623,
            "drik": 624,
            "gla": 625
        },
        "merges": [
            "a n",
            "r i",
            "m a",
            "n a",
            "l i",
            "e r",
            "e l",
            "j o",
            "a r",
            "s t",
            "e n",
            "a s",
            "k a",
            "i n",
            "an d",
            "n i",
            "h an",
            "m i",
            "n e",
            "ri k",
            "l e",
            "t t",
            "u s",
            "c a",
            "r e",
            "li n",
            "d a",
            "c h",
            "t o",
            "l a",
            "ma r",
            "ri st",
            "s a",
            "t h",
            "s e",
            "m o",
            "v i",
            "e t",
            "r o",
            "e li",
            "a m",
            "l o",
            "i na",
            "l la",
            "r a",
            "an i",
            "p et",
            "p er",
            "o f",
            "i a",
            "n y",
            "t a",
            "i m",
            "v a",
            "ar a",
            "g u",
            "f re",
            "in g",
            "ri n",
            "c ar",
            "a k",
            "e m",
            "i as",
            "s i",
            "j en",
            "b e",
            "p a",
            "l as",
            "ma s",
            "ma g",
            "e va",
            "e s",
            "f an",
            "o r",
            "jo r",
            "li a",
            "h el",
            "tt a",
            "s of",
            "i an",
            "tt e",
            "i l",
            "n us",
            "a le",
            "u l",
            "j a",
            "ma d",
            "l ar",
            "a li",
            "o li",
            "ro b",
            "e d",
            "ma t",
            "st e",
            "c k",
            "an n",
            "h en",
            "pa t",
            "b ri",
            "and ra",
            "j es",
            "h am",
            "i r",
            "b jor",
            "to r",
            "er t",
            "s us",
            "j an",
            "vi d",
            "e na",
            "st a",
            "m y",
            "o mas",
            "c e",
            "ch ar",
            "in e",
            "o n",
            "o s",
            "g i",
            "a h",
            "b ir",
            "mo ham",
            "as a",
            "e mi",
            "car oli",
            "k ar",
            "bir gi",
            "c i",
            "k er",
            "l le",
            "i e",
            "e tte",
            "en e",
            "f er",
            "er e",
            "jo ak",
            "na r",
            "p h",
            "gu n",
            "i li",
            "ili p",
            "b a",
            "to m",
            "u i",
            "i sa",
            "a el",
            "ere se",
            "b en",
            "ker st",
            "h ak",
            "to b",
            "mo n",
            "g er",
            "l en",
            "ui se",
            "a l",
            "g or",
            "j u",
            "k en",
            "m ed",
            "f ri",
            "i da",
            "g ne",
            "ri d",
            "ul f",
            "v er",
            "h a",
            "h n",
            "u d",
            "vi c",
            "g ar",
            "d i",
            "b o",
            "of fer",
            "mar gar",
            "ri c",
            "o b",
            "vi k",
            "ar d",
            "m u",
            "ne a",
            "v e",
            "g a",
            "j im",
            "le i",
            "a da",
            "o la",
            "el a",
            "p ia",
            "char lo",
            "ni c",
            "w il",
            "isa b",
            "et a",
            "nar t",
            "ro l",
            "z a",
            "gu sta",
            "a b",
            "el l",
            "s v",
            "mi a",
            "h as",
            "li s",
            "k e",
            "ri a",
            "to ria",
            "th a",
            "as m",
            "o lo",
            "s o",
            "j e",
            "jo n",
            "c la",
            "ck e",
            "a d",
            "g e",
            "u r",
            "d en",
            "b ar",
            "k j",
            "p on",
            "t us",
            "ni s",
            "ne s",
            "v on",
            "an g",
            "k i",
            "c ia",
            "w a",
            "mi r",
            "k im",
            "v in",
            "i g",
            "n o",
            "e wa",
            "ka j",
            "ro n",
            "el o",
            "d an",
            "j ak",
            "li e",
            "r asm",
            "ma x",
            "p e",
            "mo r",
            "a x",
            "m an",
            "ni l",
            "c ob",
            "l u",
            "a t",
            "sa m",
            "ang eli",
            "ak e",
            "al b",
            "y l",
            "g o",
            "p ar",
            "vi a",
            "pa u",
            "an a",
            "e b",
            "ri t",
            "ma h",
            "l ud",
            "s an",
            "mo a",
            "i b",
            "h m",
            "c as",
            "ra h",
            "so ph",
            "ma j",
            "tt er",
            "vi g",
            "v an",
            "t rin",
            "j am",
            "n el",
            "l l",
            "p us",
            "h u",
            "e v",
            "k h",
            "p i",
            "g an",
            "r y",
            "jo a",
            "ma l",
            "t e",
            "b an",
            "c on",
            "b et",
            "h ar",
            "na d",
            "ib rah",
            "i la",
            "er re",
            "hm d",
            "k as",
            "ge or",
            "t im",
            "se in",
            "lis elo",
            "r u",
            "f at",
            "d e",
            "b as",
            "sa b",
            "o ph",
            "el lin",
            "i d",
            "ck i",
            "of er",
            "h us",
            "e i",
            "y a",
            "j er",
            "le o",
            "th e",
            "mo ud",
            "o ve",
            "ing ali",
            "mi d",
            "e tha",
            "si v",
            "ben jam",
            "ur t",
            "so l",
            "ch im",
            "i ma",
            "s u",
            "s or",
            "v or",
            "y o",
            "b os",
            "ri ce",
            "a st",
            "d il",
            "v ar",
            "j asm",
            "m e",
            "s on",
            "m mi",
            "f a",
            "p ed",
            "o le",
            "o l",
            "ali d",
            "a la",
            "b or",
            "c rist",
            "ve ig",
            "b er",
            "ber n",
            "i s",
            "lo s",
            "f ab",
            "s el",
            "ri s",
            "li an",
            "yo us",
            "t ja",
            "li lle",
            "ri ne",
            "t ed",
            "d ru",
            "gu dru",
            "se rik",
            "mi e",
            "n an",
            "z ah",
            "f r",
            "an k",
            "u f",
            "c or",
            "t i",
            "t u",
            "ni e",
            "c im",
            "u ra",
            "h ei",
            "b i",
            "u el",
            "an uel",
            "ud ia",
            "o t",
            "o m",
            "a bo",
            "p han",
            "al f",
            "sa la",
            "vi l",
            "t ar",
            "w e",
            "g re",
            "h ed",
            "hel m",
            "vi ve",
            "w ig",
            "h il",
            "m in",
            "ri am",
            "si g",
            "d ie",
            "b w",
            "el vi",
            "h i",
            "ni o",
            "se f",
            "tt an",
            "ina b",
            "l an",
            "k ka",
            "d o",
            "g las",
            "h di",
            "u glas",
            "ma il",
            "s yl",
            "a z",
            "i z",
            "ra g",
            "d ra",
            "as e",
            "s sa",
            "c en",
            "e f",
            "vin cen",
            "i se",
            "f ia",
            "hm et",
            "f ad",
            "n in",
            "ni a",
            "z e",
            "re e",
            "si ree",
            "j sa",
            "h ara",
            "l d",
            "l ui",
            "b il",
            "p ir",
            "a u",
            "u re",
            "da g",
            "gu st",
            "j il",
            "o tt",
            "ham mad",
            "b ila",
            "y us",
            "mo ll",
            "t il",
            "h os",
            "li ot",
            "tt i",
            "a ta",
            "st ell",
            "sa ke",
            "i ja",
            "er es",
            "a y",
            "h s",
            "mo hs",
            "f ar",
            "si w",
            "ha d",
            "s ela",
            "ali l",
            "n u",
            "o sa",
            "u mu",
            "li v",
            "e k",
            "o we",
            "ar as",
            "a ya",
            "l y",
            "lo tt",
            "h r",
            "v en",
            "mor te",
            "s er",
            "k ia",
            "hil d",
            "j ar",
            "d or",
            "m et",
            "m el",
            "z ia",
            "g ve",
            "n gve",
            "ri th",
            "s si",
            "e on",
            "f e",
            "el eon",
            "tt is",
            "b ib",
            "g ny",
            "r as",
            "u la",
            "y as",
            "a za",
            "ra t",
            "f ir",
            "u mo",
            "a g",
            "z ka",
            "ni es",
            "mar gi",
            "ag nies",
            "o ud",
            "s hi",
            "ha id",
            "b j",
            "z en",
            "g mor",
            "i vi",
            "r ud",
            "w el",
            "t in",
            "pi ot",
            "m er",
            "l lo",
            "pe o",
            "h ra",
            "r pa",
            "gu ll",
            "r ze",
            "z an",
            "and rze",
            "le rik",
            "i tta",
            "g ha",
            "u no",
            "pet ron",
            "k nu",
            "z hr",
            "f ol",
            "h ja",
            "l mar",
            "va d",
            "ena ke",
            "han ad",
            "n hild",
            "b el",
            "d t",
            "s ver",
            "v ard",
            "er lin",
            "b be",
            "k u",
            "a rit",
            "h o",
            "c o",
            "l jen",
            "m co",
            "mi ljen",
            "sol we",
            "c ka",
            "t eres",
            "k il",
            "k ir",
            "t en",
            "x ten",
            "i kka",
            "s in",
            "b ro",
            "p o",
            "p po",
            "k k",
            "p as",
            "han nel",
            "mo di",
            "pir kk",
            "c tor",
            "i ctor",
            "j us",
            "ta ke",
            "c ci",
            "h jor",
            "p u",
            "di s",
            "i jo",
            "k el",
            "k ki",
            "k ri",
            "t ui",
            "mar gre",
            "ann margre",
            "d rik",
            "g la"
        ]
    }
}