{
    "version": "1.0",
    "truncation": null,
    "padding": null,
    "added_tokens": [
        {
            "id": 0,
            "content": "[UNK]",
            "single_word": false,
            "lstrip": false,
            "rstrip": false,
            "normalized": false,
            "special": true
        },
        {
            "id": 1,
            "content": "[CLS]",
            "single_word": false,
            "lstrip": false,
            "rstrip": false,
            "normalized": false,
            "special": true
        },
        {
            "id": 2,
            "content": "[SEP]",
            "single_word": false,
            "lstrip": false,
            "rstrip": false,
            "normalized": false,
            "special": true
        },
        {
            "id": 3,
            "content": "[PAD]",
            "single_word": false,
            "lstrip": false,
            "rstrip": false,
            "normalized": false,
            "special": true
        },
        {
            "id": 4,
            "content": "[MASK]",
            "single_word": false,
            "lstrip": false,
            "rstrip": false,
            "normalized": false,
            "special": true
        }
    ],
    "normalizer": null,
    "pre_tokenizer": {
        "type": "Whitespace"
    },
    "post_processor": null,
    "decoder": null,
    "model": {
        "type": "BPE",
        "dropout": null,
        "unk_token": "[UNK]",
        "continuing_subword_prefix": null,
        "end_of_word_suffix": null,
        "fuse_unk": false,
        "vocab": {
            "[UNK]": 0,
            "[CLS]": 1,
            "[SEP]": 2,
            "[PAD]": 3,
            "[MASK]": 4,
            "a": 5,
            "b": 6,
            "c": 7,
            "d": 8,
            "e": 9,
            "f": 10,
            "g": 11,
            "h": 12,
            "i": 13,
            "j": 14,
            "k": 15,
            "l": 16,
            "m": 17,
            "n": 18,
            "o": 19,
            "p": 20,
            "q": 21,
            "r": 22,
            "s": 23,
            "t": 24,
            "u": 25,
            "v": 26,
            "w": 27,
            "x": 28,
            "y": 29,
            "z": 30,
            "an": 31,
            "ar": 32,
            "ie": 33,
            "le": 34,
            "ch": 35,
            "am": 36,
            "on": 37,
            "li": 38,
            "en": 39,
            "ri": 40,
            "el": 41,
            "at": 42,
            "jo": 43,
            "ne": 44,
            "st": 45,
            "ra": 46,
            "er": 47,
            "mar": 48,
            "au": 49,
            "da": 50,
            "mi": 51,
            "vi": 52,
            "re": 53,
            "th": 54,
            "sh": 55,
            "ja": 56,
            "and": 57,
            "na": 58,
            "ck": 59,
            "ma": 60,
            "ph": 61,
            "ly": 62,
            "il": 63,
            "dan": 64,
            "es": 65,
            "ste": 66,
            "ke": 67,
            "ro": 68,
            "ni": 69,
            "al": 70,
            "lo": 71,
            "ry": 72,
            "pau": 73,
            "jam": 74,
            "ge": 75,
            "se": 76,
            "co": 77,
            "char": 78,
            "im": 79,
            "ara": 80,
            "et": 81,
            "or": 82,
            "hn": 83,
            "lie": 84,
            "be": 85,
            "la": 86,
            "ath": 87,
            "ve": 88,
            "ian": 89,
            "lu": 90,
            "de": 91,
            "to": 92,
            "car": 93,
            "sam": 94,
            "ce": 95,
            "ju": 96,
            "mma": 97,
            "ley": 98,
            "lau": 99,
            "ia": 100,
            "ren": 101,
            "ael": 102,
            "rob": 103,
            "sa": 104,
            "mat": 105,
            "ca": 106,
            "su": 107,
            "gar": 108,
            "tt": 109,
            "ine": 110,
            "in": 111,
            "ale": 112,
            "lin": 113,
            "kat": 114,
            "ad": 115,
            "iel": 116,
            "jan": 117,
            "ay": 118,
            "ali": 119,
            "ny": 120,
            "pet": 121,
            "ony": 122,
            "ol": 123,
            "son": 124,
            "tom": 125,
            "ben": 126,
            "ig": 127,
            "he": 128,
            "is": 129,
            "kar": 130,
            "me": 131,
            "ran": 132,
            "geor": 133,
            "oph": 134,
            "cy": 135,
            "ham": 136,
            "len": 137,
            "vin": 138,
            "lou": 139,
            "oli": 140,
            "ise": 141,
            "jen": 142,
            "ert": 143,
            "cky": 144,
            "sim": 145,
            "ew": 146,
            "ela": 147,
            "ir": 148,
            "lyn": 149,
            "lee": 150,
            "ash": 151,
            "anth": 152,
            "bb": 153,
            "cla": 154,
            "ill": 155,
            "jon": 156,
            "ire": 157,
            "arry": 158,
            "joe": 159,
            "ann": 160,
            "tte": 161,
            "dy": 162,
            "athan": 163,
            "pat": 164,
            "ina": 165,
            "gra": 166,
            "tra": 167,
            "thew": 168,
            "nat": 169,
            "amy": 170,
            "soph": 171,
            "jes": 172,
            "liz": 173,
            "art": 174,
            "dar": 175,
            "san": 176,
            "stev": 177,
            "don": 178,
            "ang": 179,
            "bec": 180,
            "les": 181,
            "sue": 182,
            "cey": 183,
            "cra": 184,
            "eri": 185,
            "kel": 186,
            "bbie": 187,
            "ru": 188,
            "sco": 189,
            "emi": 190,
            "chlo": 191,
            "ed": 192,
            "bo": 193,
            "stu": 194,
            "mas": 195,
            "andra": 196,
            "jay": 197,
            "gan": 198,
            "ica": 199,
            "my": 200,
            "ion": 201,
            "wen": 202,
            "mo": 203,
            "jor": 204,
            "ith": 205,
            "con": 206,
            "ga": 207,
            "den": 208,
            "ss": 209,
            "do": 210,
            "je": 211,
            "lor": 212,
            "kir": 213,
            "nor": 214,
            "die": 215,
            "omas": 216,
            "cal": 217,
            "kirst": 218,
            "sta": 219,
            "wis": 220,
            "ai": 221,
            "jim": 222,
            "erine": 223,
            "kie": 224,
            "tim": 225,
            "margar": 226,
            "anie": 227,
            "lip": 228,
            "caroli": 229,
            "kim": 230,
            "samanth": 231,
            "leig": 232,
            "us": 233,
            "eth": 234,
            "ah": 235,
            "ff": 236,
            "cl": 237,
            "yle": 238,
            "ber": 239,
            "moham": 240,
            "oe": 241,
            "yl": 242,
            "ver": 243,
            "wil": 244,
            "hay": 245,
            "lum": 246,
            "rie": 247,
            "ab": 248,
            "kay": 249,
            "bra": 250,
            "ron": 251,
            "vic": 252,
            "shau": 253,
            "opher": 254,
            "cia": 255,
            "ur": 256,
            "daw": 257,
            "as": 258,
            "ria": 259,
            "ilip": 260,
            "sie": 261,
            "med": 262,
            "bil": 263,
            "lian": 264,
            "sey": 265,
            "it": 266,
            "mad": 267,
            "are": 268,
            "zoe": 269,
            "via": 270,
            "ken": 271,
            "lan": 272,
            "fer": 273,
            "lia": 274,
            "ard": 275,
            "way": 276,
            "bar": 277,
            "eliz": 278,
            "toria": 279,
            "ere": 280,
            "mel": 281,
            "max": 282,
            "ki": 283,
            "nie": 284,
            "any": 285,
            "ray": 286,
            "ather": 287,
            "oni": 288,
            "rh": 289,
            "du": 290,
            "pam": 291,
            "gel": 292,
            "bob": 293,
            "ter": 294,
            "har": 295,
            "ys": 296,
            "kki": 297,
            "ane": 298,
            "lis": 299,
            "cq": 300,
            "jacq": 301,
            "jacqu": 302,
            "esa": 303,
            "ele": 304,
            "mau": 305,
            "bby": 306,
            "gor": 307,
            "shann": 308,
            "dia": 309,
            "illian": 310,
            "yn": 311,
            "ua": 312,
            "she": 313,
            "io": 314,
            "rah": 315,
            "by": 316,
            "von": 317,
            "urt": 318,
            "ger": 319,
            "col": 320,
            "dere": 321,
            "chael": 322,
            "sha": 323,
            "rey": 324,
            "van": 325,
            "suz": 326,
            "br": 327,
            "lind": 328,
            "cam": 329,
            "ka": 330,
            "ug": 331,
            "melis": 332,
            "ett": 333,
            "dam": 334,
            "mag": 335,
            "tre": 336,
            "ila": 337,
            "joy": 338,
            "roy": 339,
            "mal": 340,
            "las": 341,
            "ell": 342,
            "mon": 343,
            "reg": 344,
            "off": 345,
            "cher": 346,
            "isa": 347,
            "mu": 348,
            "cho": 349,
            "nicho": 350,
            "ryn": 351,
            "za": 352,
            "ha": 353,
            "nic": 354,
            "ney": 355,
            "court": 356,
            "tri": 357,
            "ee": 358,
            "ece": 359,
            "cki": 360,
            "pa": 361,
            "ev": 362,
            "uel": 363,
            "hen": 364,
            "sea": 365,
            "cli": 366,
            "shel": 367,
            "ag": 368,
            "lio": 369,
            "ellio": 370,
            "zy": 371,
            "omi": 372,
            "anit": 373,
            "rz": 374,
            "pen": 375,
            "ei": 376,
            "id": 377,
            "syl": 378,
            "fre": 379,
            "ice": 380,
            "fay": 381,
            "ta": 382,
            "aim": 383,
            "bel": 384,
            "tyle": 385,
            "hammad": 386,
            "zel": 387,
            "pai": 388,
            "ata": 389,
            "ette": 390,
            "ona": 391,
            "ci": 392,
            "kas": 393,
            "stair": 394,
            "minic": 395,
            "eli": 396,
            "tany": 397,
            "gran": 398,
            "eme": 399,
            "say": 400,
            "sy": 401,
            "wart": 402,
            "kri": 403,
            "nis": 404,
            "mor": 405,
            "fie": 406,
            "thy": 407,
            "cie": 408,
            "can": 409,
            "ncan": 410,
            "usz": 411,
            "gie": 412,
            "bie": 413,
            "dine": 414,
            "smi": 415,
            "jasmi": 416,
            "ant": 417,
            "dith": 418,
            "jamin": 419,
            "fa": 420,
            "bever": 421,
            "kev": 422,
            "seb": 423,
            "anor": 424,
            "ail": 425,
            "kimber": 426,
            "llie": 427,
            "ald": 428,
            "abi": 429,
            "man": 430,
            "mia": 431,
            "rence": 432,
            "tay": 433,
            "val": 434,
            "zie": 435,
            "dais": 436,
            "mit": 437,
            "bh": 438,
            "sio": 439,
            "bhan": 440,
            "ien": 441,
            "dee": 442,
            "ana": 443,
            "decl": 444,
            "fra": 445,
            "fan": 446,
            "igail": 447,
            "tam": 448,
            "eresa": 449,
            "ade": 450,
            "rze": 451,
            "yd": 452,
            "vey": 453,
            "wel": 454,
            "pio": 455,
            "sz": 456,
            "tr": 457,
            "chant": 458,
            "niesz": 459,
            "agniesz": 460,
            "flo": 461,
            "ker": 462,
            "ky": 463,
            "um": 464,
            "gorz": 465,
            "dre": 466,
            "bev": 467,
            "gu": 468,
            "guy": 469,
            "ril": 470,
            "os": 471,
            "lynd": 472,
            "leo": 473,
            "ast": 474,
            "bri": 475,
            "hil": 476,
            "ary": 477,
            "heid": 478,
            "sebast": 479,
            "pad": 480,
            "yas": 481,
            "min": 482,
            "rin": 483,
            "kam": 484,
            "nial": 485,
            "bre": 486,
            "phoe": 487,
            "tor": 488,
            "dom": 489,
            "cat": 490,
            "drey": 491,
            "gay": 492,
            "eve": 493,
            "ira": 494,
            "est": 495,
            "her": 496,
            "no": 497,
            "llo": 498,
            "eva": 499,
            "cer": 500,
            "war": 501,
            "bett": 502,
            "has": 503,
            "amh": 504,
            "te": 505,
            "ser": 506,
            "hug": 507,
            "los": 508,
            "arth": 509,
            "mih": 510,
            "onica": 511,
            "bru": 512,
            "asi": 513,
            "lette": 514,
            "bro": 515,
            "deb": 516,
            "ala": 517,
            "wrence": 518,
            "kai": 519,
            "gabr": 520,
            "fin": 521,
            "zak": 522,
            "iz": 523,
            "raj": 524,
            "krz": 525,
            "zto": 526,
            "yszto": 527,
            "krzyszto": 528,
            "ac": 529,
            "lison": 530,
            "non": 531,
            "cen": 532,
            "karoli": 533,
            "vincen": 534,
            "ldine": 535,
            "op": 536,
            "py": 537,
            "pop": 538,
            "meg": 539,
            "ho": 540,
            "ip": 541,
            "nan": 542,
            "pip": 543,
            "ek": 544,
            "viv": 545,
            "tia": 546,
            "uan": 547,
            "gaz": 548,
            "eo": 549,
            "arch": 550,
            "rison": 551,
            "ut": 552,
            "ty": 553,
            "cri": 554,
            "arzy": 555,
            "katarzy": 556,
            "fal": 557,
            "bla": 558,
            "othy": 559,
            "him": 560,
            "ibra": 561,
            "ckie": 562,
            "ap": 563,
            "elyn": 564,
            "dge": 565,
            "bridge": 566,
            "fat": 567,
            "ima": 568,
            "dette": 569,
            "oke": 570,
            "nadette": 571,
            "glo": 572,
            "iela": 573,
            "ewa": 574,
            "gen": 575,
            "men": 576,
            "ogen": 577,
            "spen": 578,
            "hali": 579,
            "khali": 580,
            "obel": 581,
            "kye": 582,
            "bai": 583,
            "frey": 584,
            "stafa": 585,
            "iff": 586,
            "tiff": 587,
            "ted": 588,
            "nny": 589,
            "eusz": 590,
            "ena": 591,
            "yna": 592,
            "andrze": 593,
            "cass": 594,
            "ton": 595,
            "daz": 596,
            "nes": 597,
            "darry": 598,
            "mais": 599,
            "ence": 600,
            "kah": 601,
            "zac": 602,
            "wia": 603,
            "gdan": 604,
            "liv": 605,
            "eley": 606,
            "rod": 607,
            "malgorz": 608,
            "bey": 609,
            "bry": 610,
            "ul": 611,
            "lah": 612,
            "wes": 613,
            "isal": 614,
            "rice": 615,
            "mm": 616,
            "summ": 617,
            "lott": 618,
            "til": 619,
            "ea": 620,
            "iq": 621,
            "tar": 622,
            "eweli": 623,
            "eal": 624,
            "wan": 625,
            "eam": 626,
            "iw": 627,
            "jace": 628,
            "av": 629,
            "rois": 630,
            "ku": 631,
            "jaku": 632,
            "ienne": 633,
            "cit": 634,
            "zi": 635,
            "city": 636,
            "vasi": 637,
            "eep": 638,
            "bex": 639,
            "rone": 640,
            "oise": 641,
            "corin": 642,
            "hm": 643,
            "tru": 644,
            "macie": 645,
            "mehm": 646,
            "hu": 647,
            "huw": 648,
            "caz": 649,
            "iusz": 650,
            "cja": 651,
            "des": 652,
            "ish": 653,
            "mie": 654,
            "rity": 655,
            "nette": 656,
            "rag": 657,
            "aela": 658,
            "di": 659,
            "pert": 660,
            "bony": 661,
            "gi": 662,
            "mur": 663,
            "uben": 664,
            "lay": 665,
            "athon": 666,
            "gav": 667,
            "dot": 668,
            "rell": 669,
            "jez": 670,
            "dh": 671,
            "dn": 672,
            "amus": 673,
            "lidh": 674,
            "aly": 675,
            "lle": 676,
            "nevi": 677,
            "deir": 678,
            "az": 679,
            "baz": 680,
            "gos": 681,
            "dair": 682,
            "alas": 683,
            "un": 684,
            "dd": 685,
            "sin": 686,
            "zer": 687,
            "arine": 688,
            "maz": 689,
            "gem": 690,
            "abb": 691,
            "vie": 692,
            "ner": 693,
            "ged": 694,
            "dill": 695,
            "gly": 696,
            "jed": 697,
            "kaz": 698,
            "ao": 699,
            "ais": 700,
            "fe": 701,
            "ife": 702,
            "ely": 703,
            "rab": 704,
            "gus": 705,
            "int": 706,
            "hai": 707,
            "mhai": 708,
            "hat": 709,
            "tie": 710,
            "saff": 711,
            "hara": 712,
            "anghara": 713,
            "gle": 714,
            "nys": 715,
            "ain": 716,
            "ow": 717,
            "nu": 718,
            "gre": 719,
            "fyd": 720,
            "dafyd": 721,
            "cau": 722,
            "pie": 723,
            "rs": 724,
            "macau": 725,
            "iri": 726,
            "wri": 727,
            "arna": 728
        },
        "merges": [
            "a n",
            "a r",
            "i e",
            "l e",
            "c h",
            "a m",
            "o n",
            "l i",
            "e n",
            "r i",
            "e l",
            "a t",
            "j o",
            "n e",
            "s t",
            "r a",
            "e r",
            "m ar",
            "a u",
            "d a",
            "m i",
            "v i",
            "r e",
            "t h",
            "s h",
            "j a",
            "an d",
            "n a",
            "c k",
            "m a",
            "p h",
            "l y",
            "i l",
            "d an",
            "e s",
            "st e",
            "k e",
            "r o",
            "n i",
            "a l",
            "l o",
            "r y",
            "p au",
            "j am",
            "g e",
            "s e",
            "c o",
            "ch ar",
            "i m",
            "ar a",
            "e t",
            "o r",
            "h n",
            "l ie",
            "b e",
            "l a",
            "at h",
            "v e",
            "i an",
            "l u",
            "d e",
            "t o",
            "c ar",
            "s am",
            "c e",
            "j u",
            "m ma",
            "le y",
            "l au",
            "i a",
            "r en",
            "a el",
            "ro b",
            "s a",
            "m at",
            "c a",
            "s u",
            "g ar",
            "t t",
            "i ne",
            "i n",
            "a le",
            "li n",
            "k at",
            "a d",
            "ie l",
            "j an",
            "a y",
            "a li",
            "n y",
            "p et",
            "on y",
            "o l",
            "s on",
            "to m",
            "b en",
            "i g",
            "h e",
            "i s",
            "k ar",
            "m e",
            "r an",
            "ge or",
            "o ph",
            "c y",
            "h am",
            "le n",
            "vi n",
            "lo u",
            "o li",
            "i se",
            "j en",
            "er t",
            "ck y",
            "s im",
            "e w",
            "el a",
            "i r",
            "ly n",
            "le e",
            "a sh",
            "an th",
            "b b",
            "c la",
            "il l",
            "j on",
            "i re",
            "ar ry",
            "jo e",
            "an n",
            "tt e",
            "d y",
            "ath an",
            "p at",
            "i na",
            "g ra",
            "t ra",
            "th ew",
            "n at",
            "am y",
            "s oph",
            "j es",
            "li z",
            "ar t",
            "d ar",
            "s an",
            "ste v",
            "d on",
            "an g",
            "be c",
            "le s",
            "su e",
            "ce y",
            "c ra",
            "e ri",
            "k el",
            "bb ie",
            "r u",
            "s co",
            "e mi",
            "ch lo",
            "e d",
            "b o",
            "st u",
            "ma s",
            "and ra",
            "ja y",
            "g an",
            "i ca",
            "m y",
            "i on",
            "w en",
            "m o",
            "jo r",
            "i th",
            "c on",
            "g a",
            "d en",
            "s s",
            "d o",
            "j e",
            "lo r",
            "k ir",
            "n or",
            "d ie",
            "o mas",
            "c al",
            "kir st",
            "st a",
            "w is",
            "a i",
            "j im",
            "eri ne",
            "k ie",
            "t im",
            "mar gar",
            "an ie",
            "li p",
            "car oli",
            "k im",
            "sam anth",
            "le ig",
            "u s",
            "e th",
            "a h",
            "f f",
            "c l",
            "y le",
            "b er",
            "mo ham",
            "o e",
            "y l",
            "v er",
            "w il",
            "h ay",
            "lu m",
            "r ie",
            "a b",
            "k ay",
            "b ra",
            "r on",
            "vi c",
            "sh au",
            "oph er",
            "c ia",
            "u r",
            "da w",
            "a s",
            "ri a",
            "i lip",
            "s ie",
            "me d",
            "b il",
            "li an",
            "se y",
            "i t",
            "ma d",
            "ar e",
            "z oe",
            "vi a",
            "k en",
            "l an",
            "f er",
            "li a",
            "ar d",
            "w ay",
            "b ar",
            "e liz",
            "to ria",
            "er e",
            "m el",
            "ma x",
            "k i",
            "n ie",
            "an y",
            "ra y",
            "ath er",
            "on i",
            "r h",
            "d u",
            "p am",
            "g el",
            "bo b",
            "t er",
            "h ar",
            "y s",
            "k ki",
            "an e",
            "li s",
            "c q",
            "ja cq",
            "jacq u",
            "es a",
            "e le",
            "m au",
            "bb y",
            "g or",
            "sh ann",
            "d ia",
            "il lian",
            "y n",
            "u a",
            "sh e",
            "i o",
            "ra h",
            "b y",
            "v on",
            "ur t",
            "g er",
            "co l",
            "d ere",
            "ch ael",
            "sh a",
            "re y",
            "v an",
            "su z",
            "b r",
            "lin d",
            "c am",
            "k a",
            "u g",
            "me lis",
            "et t",
            "d am",
            "ma g",
            "t re",
            "il a",
            "jo y",
            "ro y",
            "ma l",
            "la s",
            "el l",
            "m on",
            "re g",
            "o ff",
            "ch er",
            "i sa",
            "m u",
            "ch o",
            "ni cho",
            "ry n",
            "z a",
            "h a",
            "ni c",
            "ne y",
            "co urt",
            "t ri",
            "e e",
            "e ce",
            "ck i",
            "p a",
            "e v",
            "u el",
            "h en",
            "se a",
            "c li",
            "sh el",
            "a g",
            "li o",
            "el lio",
            "z y",
            "o mi",
            "an it",
            "r z",
            "p en",
            "e i",
            "i d",
            "s yl",
            "f re",
            "i ce",
            "f ay",
            "t a",
            "a im",
            "b el",
            "t yle",
            "ham mad",
            "z el",
            "p ai",
            "at a",
            "ett e",
            "on a",
            "c i",
            "k as",
            "sta ir",
            "mi nic",
            "e li",
            "t any",
            "g ran",
            "e me",
            "sa y",
            "s y",
            "w art",
            "k ri",
            "ni s",
            "m or",
            "f ie",
            "th y",
            "c ie",
            "c an",
            "n can",
            "us z",
            "g ie",
            "b ie",
            "d ine",
            "s mi",
            "ja smi",
            "an t",
            "d ith",
            "jam in",
            "f a",
            "be ver",
            "ke v",
            "se b",
            "an or",
            "a il",
            "kim ber",
            "l lie",
            "al d",
            "ab i",
            "m an",
            "mi a",
            "ren ce",
            "t ay",
            "v al",
            "z ie",
            "da is",
            "mi t",
            "b h",
            "s io",
            "bh an",
            "ie n",
            "de e",
            "an a",
            "de cl",
            "f ra",
            "f an",
            "ig ail",
            "t am",
            "er esa",
            "a de",
            "rz e",
            "y d",
            "ve y",
            "w el",
            "p io",
            "s z",
            "t r",
            "ch ant",
            "nie sz",
            "ag niesz",
            "f lo",
            "k er",
            "k y",
            "u m",
            "gor z",
            "d re",
            "be v",
            "g u",
            "gu y",
            "ri l",
            "o s",
            "lyn d",
            "le o",
            "a st",
            "b ri",
            "h il",
            "ar y",
            "he id",
            "seb ast",
            "p ad",
            "y as",
            "mi n",
            "ri n",
            "k am",
            "ni al",
            "b re",
            "ph oe",
            "t or",
            "do m",
            "c at",
            "d rey",
            "g ay",
            "e ve",
            "i ra",
            "e st",
            "h er",
            "n o",
            "l lo",
            "ev a",
            "c er",
            "w ar",
            "b ett",
            "h as",
            "am h",
            "t e",
            "s er",
            "h ug",
            "lo s",
            "ar th",
            "mi h",
            "on ica",
            "b ru",
            "as i",
            "le tte",
            "b ro",
            "de b",
            "al a",
            "w rence",
            "k ai",
            "ga br",
            "f in",
            "za k",
            "i z",
            "ra j",
            "k rz",
            "z to",
            "ys zto",
            "krz yszto",
            "a c",
            "li son",
            "n on",
            "c en",
            "kar oli",
            "vin cen",
            "l dine",
            "o p",
            "p y",
            "p op",
            "me g",
            "h o",
            "i p",
            "n an",
            "p ip",
            "e k",
            "vi v",
            "t ia",
            "u an",
            "ga z",
            "e o",
            "ar ch",
            "ri son",
            "u t",
            "t y",
            "c ri",
            "ar zy",
            "kat arzy",
            "f al",
            "b la",
            "o thy",
            "h im",
            "i bra",
            "ck ie",
            "a p",
            "el yn",
            "d ge",
            "bri dge",
            "f at",
            "i ma",
            "d ette",
            "o ke",
            "na dette",
            "g lo",
            "ie la",
            "ew a",
            "g en",
            "m en",
            "o gen",
            "s pen",
            "h ali",
            "k hali",
            "o bel",
            "ky e",
            "b ai",
            "f rey",
            "sta fa",
            "i ff",
            "t iff",
            "t ed",
            "n ny",
            "e usz",
            "en a",
            "y na",
            "and rze",
            "ca ss",
            "t on",
            "da z",
            "ne s",
            "d arry",
            "ma is",
            "en ce",
            "k ah",
            "za c",
            "w ia",
            "g dan",
            "li v",
            "e ley",
            "ro d",
            "mal gorz",
            "be y",
            "b ry",
            "u l",
            "la h",
            "w es",
            "is al",
            "ri ce",
            "m m",
            "su mm",
            "lo tt",
            "t il",
            "e a",
            "i q",
            "t ar",
            "ew eli",
            "e al",
            "w an",
            "e am",
            "i w",
            "ja ce",
            "a v",
            "ro is",
            "k u",
            "ja ku",
            "ien ne",
            "c it",
            "z i",
            "cit y",
            "v asi",
            "ee p",
            "be x",
            "ron e",
            "o ise",
            "co rin",
            "h m",
            "t ru",
            "ma cie",
            "me hm",
            "h u",
            "hu w",
            "ca z",
            "i usz",
            "c ja",
            "d es",
            "i sh",
            "m ie",
            "ri ty",
            "ne tte",
            "ra g",
            "ael a",
            "d i",
            "p ert",
            "b ony",
            "g i",
            "m ur",
            "u ben",
            "la y",
            "ath on",
            "ga v",
            "do t",
            "r ell",
            "je z",
            "d h",
            "d n",
            "am us",
            "li dh",
            "a ly",
            "l le",
            "ne vi",
            "de ir",
            "a z",
            "b az",
            "g os",
            "da ir",
            "al as",
            "u n",
            "d d",
            "s in",
            "z er",
            "ar ine",
            "ma z",
            "ge m",
            "a bb",
            "v ie",
            "ne r",
            "ge d",
            "d ill",
            "g ly",
            "j ed",
            "ka z",
            "a o",
            "a is",
            "f e",
            "i fe",
            "el y",
            "ra b",
            "g us",
            "in t",
            "h ai",
            "m hai",
            "h at",
            "t ie",
            "sa ff",
            "h ara",
            "ang hara",
            "g le",
            "ny s",
            "a in",
            "o w",
            "n u",
            "g re",
            "f yd",
            "da fyd",
            "c au",
            "p ie",
            "r s",
            "ma cau",
            "i ri",
            "w ri",
            "ar na"
        ]
    }
}