{
  "version": "1.0",
  "truncation": null,
  "padding": null,
  "added_tokens": [
    {
      "id": 0,
      "content": "[UNK]",
      "single_word": false,
      "lstrip": false,
      "rstrip": false,
      "normalized": false,
      "special": true
    },
    {
      "id": 1,
      "content": "[CLS]",
      "single_word": false,
      "lstrip": false,
      "rstrip": false,
      "normalized": false,
      "special": true
    },
    {
      "id": 2,
      "content": "[SEP]",
      "single_word": false,
      "lstrip": false,
      "rstrip": false,
      "normalized": false,
      "special": true
    },
    {
      "id": 3,
      "content": "[PAD]",
      "single_word": false,
      "lstrip": false,
      "rstrip": false,
      "normalized": false,
      "special": true
    },
    {
      "id": 4,
      "content": "[MASK]",
      "single_word": false,
      "lstrip": false,
      "rstrip": false,
      "normalized": false,
      "special": true
    }
  ],
  "normalizer": null,
  "pre_tokenizer": {
    "type": "Whitespace"
  },
  "post_processor": null,
  "decoder": null,
  "model": {
    "type": "BPE",
    "dropout": null,
    "unk_token": "[UNK]",
    "continuing_subword_prefix": null,
    "end_of_word_suffix": null,
    "fuse_unk": false,
    "vocab": {
      "[UNK]": 0,
      "[CLS]": 1,
      "[SEP]": 2,
      "[PAD]": 3,
      "[MASK]": 4,
      "a": 5,
      "b": 6,
      "c": 7,
      "d": 8,
      "e": 9,
      "f": 10,
      "g": 11,
      "h": 12,
      "i": 13,
      "j": 14,
      "k": 15,
      "l": 16,
      "m": 17,
      "n": 18,
      "o": 19,
      "p": 20,
      "q": 21,
      "r": 22,
      "s": 23,
      "t": 24,
      "u": 25,
      "v": 26,
      "w": 27,
      "x": 28,
      "y": 29,
      "z": 30,
      "an": 31,
      "ar": 32,
      "ie": 33,
      "le": 34,
      "ch": 35,
      "am": 36,
      "on": 37,
      "li": 38,
      "en": 39,
      "ri": 40,
      "el": 41,
      "at": 42,
      "jo": 43,
      "ne": 44,
      "st": 45,
      "ra": 46,
      "er": 47,
      "mar": 48,
      "au": 49,
      "da": 50,
      "mi": 51,
      "vi": 52,
      "re": 53,
      "th": 54,
      "sh": 55,
      "ja": 56,
      "and": 57,
      "na": 58,
      "ck": 59,
      "ma": 60,
      "ph": 61,
      "ly": 62,
      "il": 63,
      "dan": 64,
      "es": 65,
      "ste": 66,
      "ke": 67,
      "ro": 68,
      "ni": 69,
      "al": 70,
      "lo": 71,
      "ry": 72,
      "chri": 73,
      "pau": 74,
      "jam": 75,
      "ge": 76,
      "se": 77,
      "paul": 78,
      "co": 79,
      "char": 80,
      "im": 81,
      "ara": 82,
      "et": 83,
      "or": 84,
      "mich": 85,
      "hn": 86,
      "john": 87,
      "davi": 88,
      "david": 89,
      "lie": 90,
      "be": 91,
      "la": 92,
      "ath": 93,
      "ve": 94,
      "ian": 95,
      "james": 96,
      "lu": 97,
      "de": 98,
      "to": 99,
      "car": 100,
      "mark": 101,
      "chris": 102,
      "sara": 103,
      "sam": 104,
      "ce": 105,
      "ju": 106,
      "mma": 107,
      "ley": 108,
      "lau": 109,
      "ia": 110,
      "ren": 111,
      "ael": 112,
      "rob": 113,
      "sa": 114,
      "andre": 115,
      "mat": 116,
      "ca": 117,
      "sarah": 118,
      "su": 119,
      "gar": 120,
      "tt": 121,
      "ine": 122,
      "in": 123,
      "michael": 124,
      "ale": 125,
      "lin": 126,
      "anne": 127,
      "kat": 128,
      "ad": 129,
      "iel": 130,
      "jack": 131,
      "jan": 132,
      "anna": 133,
      "daniel": 134,
      "ay": 135,
      "ali": 136,
      "emma": 137,
      "ny": 138,
      "pet": 139,
      "steph": 140,
      "ony": 141,
      "ol": 142,
      "alex": 143,
      "andy": 144,
      "son": 145,
      "tom": 146,
      "andrew": 147,
      "ben": 148,
      "ig": 149,
      "he": 150,
      "is": 151,
      "kar": 152,
      "richar": 153,
      "richard": 154,
      "me": 155,
      "ran": 156,
      "peter": 157,
      "geor": 158,
      "oph": 159,
      "cy": 160,
      "christ": 161,
      "ham": 162,
      "adam": 163,
      "len": 164,
      "steve": 165,
      "laura": 166,
      "vin": 167,
      "lou": 168,
      "oli": 169,
      "ise": 170,
      "aron": 171,
      "liam": 172,
      "jen": 173,
      "mart": 174,
      "chel": 175,
      "ert": 176,
      "cky": 177,
      "sim": 178,
      "simon": 179,
      "ew": 180,
      "ela": 181,
      "ir": 182,
      "lyn": 183,
      "stephen": 184,
      "ryan": 185,
      "julie": 186,
      "lee": 187,
      "ash": 188,
      "anth": 189,
      "bb": 190,
      "lisa": 191,
      "cla": 192,
      "robert": 193,
      "karen": 194,
      "ill": 195,
      "jon": 196,
      "ire": 197,
      "rian": 198,
      "claire": 199,
      "matt": 200,
      "josh": 201,
      "arry": 202,
      "dave": 203,
      "elle": 204,
      "joe": 205,
      "ann": 206,
      "jamie": 207,
      "tte": 208,
      "dy": 209,
      "athan": 210,
      "pat": 211,
      "tony": 212,
      "nico": 213,
      "ina": 214,
      "martin": 215,
      "gra": 216,
      "tra": 217,
      "alan": 218,
      "beth": 219,
      "helen": 220,
      "gary": 221,
      "thew": 222,
      "matthew": 223,
      "nat": 224,
      "amy": 225,
      "soph": 226,
      "jes": 227,
      "jess": 228,
      "liz": 229,
      "rachel": 230,
      "art": 231,
      "mike": 232,
      "dar": 233,
      "katie": 234,
      "louise": 235,
      "luke": 236,
      "san": 237,
      "stev": 238,
      "kevin": 239,
      "michelle": 240,
      "don": 241,
      "erry": 242,
      "lauren": 243,
      "hanna": 244,
      "hannah": 245,
      "ang": 246,
      "bec": 247,
      "les": 248,
      "sue": 249,
      "sophie": 250,
      "cey": 251,
      "cra": 252,
      "craig": 253,
      "george": 254,
      "eri": 255,
      "nick": 256,
      "kel": 257,
      "becca": 258,
      "steven": 259,
      "bbie": 260,
      "linda": 261,
      "ru": 262,
      "lucy": 263,
      "jane": 264,
      "lotte": 265,
      "charlotte": 266,
      "sco": 267,
      "scott": 268,
      "emi": 269,
      "emily": 270,
      "chlo": 271,
      "chloe": 272,
      "ed": 273,
      "bo": 274,
      "stu": 275,
      "susan": 276,
      "darren": 277,
      "sharon": 278,
      "mas": 279,
      "jason": 280,
      "neil": 281,
      "andra": 282,
      "jay": 283,
      "gan": 284,
      "ica": 285,
      "my": 286,
      "ion": 287,
      "stuart": 288,
      "wen": 289,
      "mo": 290,
      "kath": 291,
      "nicola": 292,
      "brian": 293,
      "rebecca": 294,
      "olly": 295,
      "fran": 296,
      "charlie": 297,
      "jor": 298,
      "phil": 299,
      "ith": 300,
      "con": 301,
      "ga": 302,
      "jordan": 303,
      "den": 304,
      "ss": 305,
      "kelly": 306,
      "do": 307,
      "je": 308,
      "lor": 309,
      "mary": 310,
      "kir": 311,
      "harry": 312,
      "christine": 313,
      "colin": 314,
      "nor": 315,
      "patri": 316,
      "die": 317,
      "sean": 318,
      "omas": 319,
      "thomas": 320,
      "joanne": 321,
      "cath": 322,
      "aman": 323,
      "anthony": 324,
      "danny": 325,
      "cal": 326,
      "carol": 327,
      "debbie": 328,
      "kirst": 329,
      "sta": 330,
      "gemma": 331,
      "wis": 332,
      "lewis": 333,
      "kate": 334,
      "angela": 335,
      "sandra": 336,
      "graham": 337,
      "dian": 338,
      "ai": 339,
      "amanda": 340,
      "alie": 341,
      "natalie": 342,
      "jim": 343,
      "alison": 344,
      "erine": 345,
      "kie": 346,
      "tim": 347,
      "georg": 348,
      "margar": 349,
      "margaret": 350,
      "anie": 351,
      "jake": 352,
      "jessica": 353,
      "lip": 354,
      "caroli": 355,
      "caroline": 356,
      "kim": 357,
      "nathan": 358,
      "samanth": 359,
      "samantha": 360,
      "leig": 361,
      "leigh": 362,
      "us": 363,
      "eth": 364,
      "marc": 365,
      "line": 366,
      "maria": 367,
      "ah": 368,
      "ff": 369,
      "cl": 370,
      "yle": 371,
      "ber": 372,
      "moham": 373,
      "dean": 374,
      "oe": 375,
      "donna": 376,
      "janet": 377,
      "tracey": 378,
      "megan": 379,
      "yl": 380,
      "ver": 381,
      "aaron": 382,
      "keith": 383,
      "wil": 384,
      "william": 385,
      "hay": 386,
      "jenny": 387,
      "lum": 388,
      "callum": 389,
      "rie": 390,
      "marie": 391,
      "jackie": 392,
      "ab": 393,
      "ellie": 394,
      "kay": 395,
      "kirsty": 396,
      "bra": 397,
      "ron": 398,
      "jonathan": 399,
      "vic": 400,
      "shau": 401,
      "wendy": 402,
      "opher": 403,
      "christopher": 404,
      "ally": 405,
      "tracy": 406,
      "cia": 407,
      "becky": 408,
      "jade": 409,
      "ur": 410,
      "jean": 411,
      "daw": 412,
      "as": 413,
      "ashley": 414,
      "ria": 415,
      "ilip": 416,
      "philip": 417,
      "iona": 418,
      "sie": 419,
      "med": 420,
      "catherine": 421,
      "bil": 422,
      "lian": 423,
      "sey": 424,
      "jenni": 425,
      "it": 426,
      "danielle": 427,
      "jose": 428,
      "mad": 429,
      "connor": 430,
      "will": 431,
      "elaine": 432,
      "are": 433,
      "clare": 434,
      "zoe": 435,
      "via": 436,
      "hayley": 437,
      "shaun": 438,
      "ken": 439,
      "kerry": 440,
      "fiona": 441,
      "lan": 442,
      "fer": 443,
      "carl": 444,
      "dawn": 445,
      "sally": 446,
      "adrian": 447,
      "lia": 448,
      "terry": 449,
      "ard": 450,
      "barry": 451,
      "way": 452,
      "wayne": 453,
      "bar": 454,
      "asha": 455,
      "abeth": 456,
      "eliz": 457,
      "ross": 458,
      "elizabeth": 459,
      "toria": 460,
      "victoria": 461,
      "jennifer": 462,
      "leen": 463,
      "ere": 464,
      "mel": 465,
      "diane": 466,
      "reen": 467,
      "max": 468,
      "ki": 469,
      "nie": 470,
      "paula": 471,
      "any": 472,
      "ray": 473,
      "gareth": 474,
      "ather": 475,
      "heather": 476,
      "lesley": 477,
      "oni": 478,
      "mandy": 479,
      "kieran": 480,
      "tina": 481,
      "vicky": 482,
      "kyle": 483,
      "rh": 484,
      "ollie": 485,
      "holly": 486,
      "billy": 487,
      "du": 488,
      "raine": 489,
      "lorraine": 490,
      "pauline": 491,
      "pam": 492,
      "leanne": 493,
      "joseph": 494,
      "bara": 495,
      "barbara": 496,
      "andrea": 497,
      "stephanie": 498,
      "gel": 499,
      "nigel": 500,
      "alice": 501,
      "bob": 502,
      "ter": 503,
      "har": 504,
      "brad": 505,
      "ys": 506,
      "kki": 507,
      "ane": 508,
      "lis": 509,
      "denise": 510,
      "cq": 511,
      "jacq": 512,
      "jacqu": 513,
      "stacey": 514,
      "esa": 515,
      "franc": 516,
      "ele": 517,
      "patrick": 518,
      "mau": 519,
      "caro": 520,
      "bby": 521,
      "gor": 522,
      "shann": 523,
      "shannon": 524,
      "patricia": 525,
      "dia": 526,
      "illian": 527,
      "georgia": 528,
      "lynn": 529,
      "yn": 530,
      "nicole": 531,
      "ruth": 532,
      "ua": 533,
      "joshua": 534,
      "pete": 535,
      "olivia": 536,
      "she": 537,
      "just": 538,
      "natasha": 539,
      "mohammed": 540,
      "io": 541,
      "rah": 542,
      "by": 543,
      "von": 544,
      "urt": 545,
      "oliver": 546,
      "julia": 547,
      "bren": 548,
      "ger": 549,
      "col": 550,
      "gillian": 551,
      "ward": 552,
      "dere": 553,
      "derek": 554,
      "mick": 555,
      "maureen": 556,
      "chael": 557,
      "rachael": 558,
      "sha": 559,
      "gavin": 560,
      "rey": 561,
      "van": 562,
      "jodie": 563,
      "shane": 564,
      "rose": 565,
      "joanna": 566,
      "suz": 567,
      "br": 568,
      "lind": 569,
      "cam": 570,
      "eron": 571,
      "cameron": 572,
      "yvon": 573,
      "yvonne": 574,
      "grace": 575,
      "ka": 576,
      "nikki": 577,
      "ug": 578,
      "jayne": 579,
      "karl": 580,
      "ella": 581,
      "melis": 582,
      "melissa": 583,
      "ett": 584,
      "leah": 585,
      "dam": 586,
      "dale": 587,
      "mag": 588,
      "tre": 589,
      "trev": 590,
      "ila": 591,
      "sheila": 592,
      "joy": 593,
      "debo": 594,
      "deborah": 595,
      "frances": 596,
      "roy": 597,
      "toni": 598,
      "rosie": 599,
      "dylan": 600,
      "lynne": 601,
      "kayleigh": 602,
      "jill": 603,
      "mal": 604,
      "las": 605,
      "ell": 606,
      "mon": 607,
      "reg": 608,
      "off": 609,
      "geoff": 610,
      "trevor": 611,
      "glen": 612,
      "nicky": 613,
      "cher": 614,
      "cheryl": 615,
      "isa": 616,
      "roger": 617,
      "melanie": 618,
      "mu": 619,
      "suzanne": 620,
      "russ": 621,
      "shir": 622,
      "shirley": 623,
      "bill": 624,
      "teresa": 625,
      "molly": 626,
      "abdu": 627,
      "abdul": 628,
      "cho": 629,
      "nicho": 630,
      "gordon": 631,
      "ryn": 632,
      "za": 633,
      "ha": 634,
      "nic": 635,
      "jonny": 636,
      "ney": 637,
      "court": 638,
      "courtney": 639,
      "mari": 640,
      "gill": 641,
      "tri": 642,
      "ee": 643,
      "ece": 644,
      "reece": 645,
      "edward": 646,
      "greg": 647,
      "jaco": 648,
      "jacob": 649,
      "owen": 650,
      "tommy": 651,
      "colm": 652,
      "joan": 653,
      "carole": 654,
      "cki": 655,
      "pa": 656,
      "ev": 657,
      "uel": 658,
      "samuel": 659,
      "frank": 660,
      "hen": 661,
      "henry": 662,
      "sea": 663,
      "chelsea": 664,
      "rhys": 665,
      "leon": 666,
      "bradley": 667,
      "cli": 668,
      "abbie": 669,
      "shel": 670,
      "june": 671,
      "pamela": 672,
      "ag": 673,
      "kathryn": 674,
      "louis": 675,
      "malcolm": 676,
      "lio": 677,
      "ellio": 678,
      "eline": 679,
      "jacqueline": 680,
      "zy": 681,
      "andon": 682,
      "brenda": 683,
      "brandon": 684,
      "jimmy": 685,
      "omi": 686,
      "anit": 687,
      "amber": 688,
      "naomi": 689,
      "anita": 690,
      "charles": 691,
      "alexand": 692,
      "rz": 693,
      "sian": 694,
      "pen": 695,
      "ei": 696,
      "marcus": 697,
      "justin": 698,
      "rich": 699,
      "ricky": 700,
      "allan": 701,
      "iain": 702,
      "jeff": 703,
      "id": 704,
      "katy": 705,
      "syl": 706,
      "fre": 707,
      "fred": 708,
      "bethany": 709,
      "georgina": 710,
      "essa": 711,
      "vanessa": 712,
      "russell": 713,
      "ice": 714,
      "robin": 715,
      "janice": 716,
      "fay": 717,
      "ta": 718,
      "lorna": 719,
      "aim": 720,
      "doug": 721,
      "aimee": 722,
      "bel": 723,
      "rina": 724,
      "tyle": 725,
      "tyler": 726,
      "cait": 727,
      "caitlin": 728,
      "hammad": 729,
      "muhammad": 730,
      "zel": 731,
      "hazel": 732,
      "pai": 733,
      "paige": 734,
      "ata": 735,
      "ette": 736,
      "ethan": 737,
      "annie": 738,
      "iren": 739,
      "irene": 740,
      "ona": 741,
      "ci": 742,
      "conor": 743,
      "gail": 744,
      "vicki": 745,
      "kas": 746,
      "christina": 747,
      "eddie": 748,
      "stair": 749,
      "minic": 750,
      "dominic": 751,
      "eli": 752,
      "tany": 753,
      "tanya": 754,
      "alexandra": 755,
      "gran": 756,
      "grant": 757,
      "eme": 758,
      "vale": 759,
      "graeme": 760,
      "valerie": 761,
      "eileen": 762,
      "diana": 763,
      "ahmed": 764,
      "nicholas": 765,
      "toby": 766,
      "say": 767,
      "sy": 768,
      "wart": 769,
      "stewart": 770,
      "kri": 771,
      "nis": 772,
      "mor": 773,
      "angie": 774,
      "clive": 775,
      "morgan": 776,
      "sonia": 777,
      "garry": 778,
      "lily": 779,
      "eric": 780,
      "fie": 781,
      "thy": 782,
      "alfie": 783,
      "cie": 784,
      "kathleen": 785,
      "rhian": 786,
      "can": 787,
      "ncan": 788,
      "usz": 789,
      "duncan": 790,
      "alexander": 791,
      "tomas": 792,
      "gie": 793,
      "maggie": 794,
      "bie": 795,
      "robbie": 796,
      "dine": 797,
      "smi": 798,
      "jasmi": 799,
      "jasmine": 800,
      "carly": 801,
      "ant": 802,
      "martyn": 803,
      "ashleigh": 804,
      "dith": 805,
      "judith": 806,
      "lynda": 807,
      "joel": 808,
      "jamin": 809,
      "benjamin": 810,
      "katherine": 811,
      "tara": 812,
      "ellen": 813,
      "fa": 814,
      "matty": 815,
      "bever": 816,
      "beverley": 817,
      "raymon": 818,
      "damian": 819,
      "raymond": 820,
      "kev": 821,
      "seb": 822,
      "christian": 823,
      "lydia": 824,
      "carla": 825,
      "kenny": 826,
      "annette": 827,
      "bobby": 828,
      "moni": 829,
      "monika": 830,
      "rita": 831,
      "joyce": 832,
      "julian": 833,
      "sylvia": 834,
      "marion": 835,
      "anor": 836,
      "eleanor": 837,
      "mohamed": 838,
      "cathy": 839,
      "ail": 840,
      "dennis": 841,
      "kimber": 842,
      "kimberley": 843,
      "llie": 844,
      "millie": 845,
      "ald": 846,
      "hollie": 847,
      "erin": 848,
      "doro": 849,
      "penny": 850,
      "abi": 851,
      "man": 852,
      "nina": 853,
      "luca": 854,
      "stina": 855,
      "faye": 856,
      "mia": 857,
      "rence": 858,
      "antony": 859,
      "lindsay": 860,
      "tay": 861,
      "jenna": 862,
      "taylor": 863,
      "jemma": 864,
      "johnny": 865,
      "aidan": 866,
      "jacqui": 867,
      "marcin": 868,
      "val": 869,
      "riet": 870,
      "harriet": 871,
      "elia": 872,
      "zie": 873,
      "amelia": 874,
      "dais": 875,
      "mit": 876,
      "lizzie": 877,
      "daisy": 878,
      "rory": 879,
      "glenn": 880,
      "kathy": 881,
      "francesca": 882,
      "lindsey": 883,
      "bh": 884,
      "sio": 885,
      "bhan": 886,
      "siobhan": 887,
      "bryan": 888,
      "ien": 889,
      "carolyn": 890,
      "gina": 891,
      "sammy": 892,
      "elliot": 893,
      "dee": 894,
      "mohammad": 895,
      "ana": 896,
      "phillip": 897,
      "shelley": 898,
      "decl": 899,
      "katrina": 900,
      "declan": 901,
      "fra": 902,
      "fan": 903,
      "stefan": 904,
      "igail": 905,
      "abigail": 906,
      "jere": 907,
      "jeremy": 908,
      "tam": 909,
      "eresa": 910,
      "theresa": 911,
      "maxine": 912,
      "jeanette": 913,
      "ruby": 914,
      "ade": 915,
      "adele": 916,
      "robyn": 917,
      "ania": 918,
      "rze": 919,
      "elena": 920,
      "yd": 921,
      "marian": 922,
      "vey": 923,
      "harvey": 924,
      "sandy": 925,
      "wel": 926,
      "pawel": 927,
      "stan": 928,
      "pio": 929,
      "sz": 930,
      "tr": 931,
      "tasha": 932,
      "chant": 933,
      "niesz": 934,
      "agniesz": 935,
      "piotr": 936,
      "chantelle": 937,
      "agnieszka": 938,
      "flo": 939,
      "ker": 940,
      "michal": 941,
      "marta": 942,
      "ky": 943,
      "um": 944,
      "calum": 945,
      "neth": 946,
      "kenneth": 947,
      "gorz": 948,
      "dre": 949,
      "bev": 950,
      "rosemary": 951,
      "gu": 952,
      "guy": 953,
      "ril": 954,
      "michaela": 955,
      "brendan": 956,
      "os": 957,
      "lynd": 958,
      "abby": 959,
      "leo": 960,
      "alistair": 961,
      "sophia": 962,
      "ivan": 963,
      "gera": 964,
      "ast": 965,
      "bri": 966,
      "hil": 967,
      "ary": 968,
      "heid": 969,
      "sebast": 970,
      "hilary": 971,
      "heidi": 972,
      "sebastian": 973,
      "pad": 974,
      "yas": 975,
      "min": 976,
      "georgie": 977,
      "paddy": 978,
      "yasmin": 979,
      "rin": 980,
      "debra": 981,
      "kam": 982,
      "kris": 983,
      "lukas": 984,
      "alicia": 985,
      "lukasz": 986,
      "nial": 987,
      "ronnie": 988,
      "niall": 989,
      "bre": 990,
      "phoe": 991,
      "frankie": 992,
      "brett": 993,
      "phoebe": 994,
      "tor": 995,
      "rick": 996,
      "victor": 997,
      "dom": 998,
      "monica": 999,
      "cat": 1000,
      "alia": 1001,
      "natalia": 1002,
      "drey": 1003,
      "audrey": 1004,
      "josie": 1005,
      "imran": 1006,
      "gay": 1007,
      "clau": 1008,
      "lene": 1009,
      "charlene": 1010,
      "claudia": 1011,
      "eve": 1012,
      "ira": 1013,
      "est": 1014,
      "her": 1015,
      "no": 1016,
      "esther": 1017,
      "llo": 1018,
      "eva": 1019,
      "lloyd": 1020,
      "nadia": 1021,
      "michele": 1022,
      "janine": 1023,
      "libby": 1024,
      "cer": 1025,
      "war": 1026,
      "warren": 1027,
      "bett": 1028,
      "arron": 1029,
      "tomasz": 1030,
      "betty": 1031,
      "demi": 1032,
      "lynsey": 1033,
      "has": 1034,
      "omar": 1035,
      "amh": 1036,
      "niamh": 1037,
      "judy": 1038,
      "dorothy": 1039,
      "hassan": 1040,
      "te": 1041,
      "math": 1042,
      "mathew": 1043,
      "ser": 1044,
      "fraser": 1045,
      "hug": 1046,
      "doreen": 1047,
      "hugh": 1048,
      "los": 1049,
      "carlos": 1050,
      "arth": 1051,
      "mih": 1052,
      "tammy": 1053,
      "arthur": 1054,
      "onica": 1055,
      "veronica": 1056,
      "bru": 1057,
      "asi": 1058,
      "bruce": 1059,
      "gerry": 1060,
      "lette": 1061,
      "mikey": 1062,
      "stevie": 1063,
      "bro": 1064,
      "norman": 1065,
      "douglas": 1066,
      "deb": 1067,
      "jennie": 1068,
      "ala": 1069,
      "wrence": 1070,
      "lawrence": 1071,
      "cara": 1072,
      "kai": 1073,
      "zara": 1074,
      "antoni": 1075,
      "lena": 1076,
      "carrie": 1077,
      "helena": 1078,
      "gabr": 1079,
      "antonio": 1080,
      "gabriel": 1081,
      "sasha": 1082,
      "louisa": 1083,
      "francis": 1084,
      "simone": 1085,
      "fin": 1086,
      "lara": 1087,
      "ellis": 1088,
      "damien": 1089,
      "zak": 1090,
      "iz": 1091,
      "raj": 1092,
      "izzy": 1093,
      "krz": 1094,
      "zto": 1095,
      "aran": 1096,
      "bethan": 1097,
      "yszto": 1098,
      "ciaran": 1099,
      "krzyszto": 1100,
      "krzysztof": 1101,
      "ac": 1102,
      "lison": 1103,
      "allison": 1104,
      "isaac": 1105,
      "curt": 1106,
      "non": 1107,
      "dalena": 1108,
      "magdalena": 1109,
      "rhiannon": 1110,
      "curtis": 1111,
      "cen": 1112,
      "karoli": 1113,
      "vincen": 1114,
      "marius": 1115,
      "karolina": 1116,
      "vincent": 1117,
      "ldine": 1118,
      "op": 1119,
      "py": 1120,
      "pop": 1121,
      "geraldine": 1122,
      "poppy": 1123,
      "vikki": 1124,
      "meg": 1125,
      "chell": 1126,
      "marilyn": 1127,
      "mitchell": 1128,
      "terri": 1129,
      "ho": 1130,
      "ip": 1131,
      "nan": 1132,
      "pip": 1133,
      "lucas": 1134,
      "howard": 1135,
      "nancy": 1136,
      "elliott": 1137,
      "drew": 1138,
      "ek": 1139,
      "marina": 1140,
      "marek": 1141,
      "casey": 1142,
      "marco": 1143,
      "viv": 1144,
      "corey": 1145,
      "sine": 1146,
      "sinead": 1147,
      "tia": 1148,
      "uan": 1149,
      "stella": 1150,
      "gaz": 1151,
      "eo": 1152,
      "mario": 1153,
      "oscar": 1154,
      "dani": 1155,
      "nadine": 1156,
      "andrei": 1157,
      "isabel": 1158,
      "arch": 1159,
      "rison": 1160,
      "patry": 1161,
      "harrison": 1162,
      "archie": 1163,
      "alisha": 1164,
      "donald": 1165,
      "kelsey": 1166,
      "kasia": 1167,
      "susie": 1168,
      "ewan": 1169,
      "ut": 1170,
      "ionut": 1171,
      "leslie": 1172,
      "ty": 1173,
      "tania": 1174,
      "lyndsey": 1175,
      "cri": 1176,
      "arzy": 1177,
      "katarzy": 1178,
      "trish": 1179,
      "cristina": 1180,
      "katarzyna": 1181,
      "jessie": 1182,
      "freddie": 1183,
      "laurence": 1184,
      "nicki": 1185,
      "kieron": 1186,
      "kane": 1187,
      "denis": 1188,
      "angel": 1189,
      "alastair": 1190,
      "fal": 1191,
      "rafal": 1192,
      "shona": 1193,
      "annemarie": 1194,
      "amir": 1195,
      "annmarie": 1196,
      "bla": 1197,
      "mollie": 1198,
      "othy": 1199,
      "charley": 1200,
      "daryl": 1201,
      "kirsten": 1202,
      "timothy": 1203,
      "kamil": 1204,
      "him": 1205,
      "ibra": 1206,
      "ckie": 1207,
      "ibrahim": 1208,
      "joey": 1209,
      "maddie": 1210,
      "brina": 1211,
      "sabrina": 1212,
      "nichola": 1213,
      "mariusz": 1214,
      "ciara": 1215,
      "aiden": 1216,
      "josephine": 1217,
      "justine": 1218,
      "gerard": 1219,
      "raja": 1220,
      "lucie": 1221,
      "norma": 1222,
      "noel": 1223,
      "ap": 1224,
      "amie": 1225,
      "april": 1226,
      "elyn": 1227,
      "evelyn": 1228,
      "florin": 1229,
      "dge": 1230,
      "mason": 1231,
      "luis": 1232,
      "bridge": 1233,
      "gaynor": 1234,
      "bridget": 1235,
      "sadie": 1236,
      "kirstie": 1237,
      "bert": 1238,
      "fat": 1239,
      "ima": 1240,
      "albert": 1241,
      "bernie": 1242,
      "ronald": 1243,
      "fatima": 1244,
      "dette": 1245,
      "oke": 1246,
      "nadette": 1247,
      "bernadette": 1248,
      "brooke": 1249,
      "glo": 1250,
      "janette": 1251,
      "gloria": 1252,
      "lois": 1253,
      "nard": 1254,
      "iela": 1255,
      "daniela": 1256,
      "ewa": 1257,
      "moira": 1258,
      "bernard": 1259,
      "lina": 1260,
      "paulina": 1261,
      "belinda": 1262,
      "tricia": 1263,
      "kristina": 1264,
      "gen": 1265,
      "men": 1266,
      "ogen": 1267,
      "spen": 1268,
      "imogen": 1269,
      "carmen": 1270,
      "jude": 1271,
      "spencer": 1272,
      "hali": 1273,
      "khali": 1274,
      "artur": 1275,
      "angus": 1276,
      "khalid": 1277,
      "kelvin": 1278,
      "shauna": 1279,
      "geoffrey": 1280,
      "obel": 1281,
      "isobel": 1282,
      "kye": 1283,
      "polly": 1284,
      "alina": 1285,
      "bai": 1286,
      "frey": 1287,
      "glyn": 1288,
      "stafa": 1289,
      "mustafa": 1290,
      "kerrie": 1291,
      "bailey": 1292,
      "freya": 1293,
      "iff": 1294,
      "tiff": 1295,
      "ceri": 1296,
      "olga": 1297,
      "evie": 1298,
      "syed": 1299,
      "tiffany": 1300,
      "euan": 1301,
      "grze": 1302,
      "dianne": 1303,
      "grzegorz": 1304,
      "kiran": 1305,
      "tristan": 1306,
      "ted": 1307,
      "nny": 1308,
      "sunny": 1309,
      "kellie": 1310,
      "philippa": 1311,
      "eusz": 1312,
      "ena": 1313,
      "mateusz": 1314,
      "sheena": 1315,
      "mihai": 1316,
      "yna": 1317,
      "andrze": 1318,
      "cass": 1319,
      "justyna": 1320,
      "andrzej": 1321,
      "cassie": 1322,
      "ton": 1323,
      "daz": 1324,
      "ahmad": 1325,
      "shelly": 1326,
      "nes": 1327,
      "theo": 1328,
      "colette": 1329,
      "beata": 1330,
      "connie": 1331,
      "agnes": 1332,
      "hamza": 1333,
      "darry": 1334,
      "mais": 1335,
      "darryl": 1336,
      "maisie": 1337,
      "richie": 1338,
      "ence": 1339,
      "terence": 1340,
      "kah": 1341,
      "rebe": 1342,
      "rebekah": 1343,
      "levi": 1344,
      "annabel": 1345,
      "zac": 1346,
      "juliet": 1347,
      "wia": 1348,
      "danni": 1349,
      "hayden": 1350,
      "sylwia": 1351,
      "gdan": 1352,
      "chrissy": 1353,
      "alec": 1354,
      "clair": 1355,
      "bogdan": 1356,
      "colleen": 1357,
      "kerri": 1358,
      "liv": 1359,
      "alana": 1360,
      "harley": 1361,
      "pippa": 1362,
      "eley": 1363,
      "amit": 1364,
      "keeley": 1365,
      "bilal": 1366,
      "hasan": 1367,
      "elise": 1368,
      "jody": 1369,
      "rod": 1370,
      "beryl": 1371,
      "malgorz": 1372,
      "asif": 1373,
      "malgorzata": 1374,
      "bey": 1375,
      "stacy": 1376,
      "abbey": 1377,
      "bry": 1378,
      "ul": 1379,
      "rahul": 1380,
      "kylie": 1381,
      "bryony": 1382,
      "miles": 1383,
      "barrie": 1384,
      "lah": 1385,
      "laurie": 1386,
      "abdullah": 1387,
      "dawid": 1388,
      "gwen": 1389,
      "wes": 1390,
      "suzie": 1391,
      "wesley": 1392,
      "jules": 1393,
      "isal": 1394,
      "faisal": 1395,
      "mitch": 1396,
      "ksandra": 1397,
      "aleksandra": 1398,
      "rice": 1399,
      "maurice": 1400,
      "mm": 1401,
      "summ": 1402,
      "summer": 1403,
      "florence": 1404,
      "lizzy": 1405,
      "usman": 1406,
      "kara": 1407,
      "ravi": 1408,
      "lott": 1409,
      "cliff": 1410,
      "lottie": 1411,
      "til": 1412,
      "maine": 1413,
      "charmaine": 1414,
      "tilly": 1415,
      "ea": 1416,
      "iq": 1417,
      "kian": 1418,
      "tar": 1419,
      "becki": 1420,
      "andreea": 1421,
      "aileen": 1422,
      "tariq": 1423,
      "dorota": 1424,
      "faith": 1425,
      "eweli": 1426,
      "ewelina": 1427,
      "eal": 1428,
      "wan": 1429,
      "rowan": 1430,
      "micheal": 1431,
      "eam": 1432,
      "eamon": 1433,
      "iw": 1434,
      "phill": 1435,
      "iwona": 1436,
      "neal": 1437,
      "shah": 1438,
      "jace": 1439,
      "maddy": 1440,
      "shahid": 1441,
      "jacek": 1442,
      "av": 1443,
      "anet": 1444,
      "rois": 1445,
      "avril": 1446,
      "aneta": 1447,
      "roisin": 1448,
      "ku": 1449,
      "jaku": 1450,
      "jakub": 1451,
      "ienne": 1452,
      "vivienne": 1453,
      "cit": 1454,
      "feli": 1455,
      "troy": 1456,
      "zi": 1457,
      "linzi": 1458,
      "alexandru": 1459,
      "patryk": 1460,
      "blake": 1461,
      "city": 1462,
      "felicity": 1463,
      "zach": 1464,
      "skye": 1465,
      "lianne": 1466,
      "sand": 1467,
      "vasi": 1468,
      "riona": 1469,
      "eep": 1470,
      "catriona": 1471,
      "sandeep": 1472,
      "vasile": 1473,
      "bex": 1474,
      "rone": 1475,
      "tyrone": 1476,
      "esha": 1477,
      "sharron": 1478,
      "ayesha": 1479,
      "louie": 1480,
      "oise": 1481,
      "eloise": 1482,
      "corin": 1483,
      "kirk": 1484,
      "agata": 1485,
      "corinne": 1486,
      "damon": 1487,
      "hm": 1488,
      "tru": 1489,
      "macie": 1490,
      "mehm": 1491,
      "trudy": 1492,
      "maciej": 1493,
      "mehmet": 1494,
      "cata": 1495,
      "hu": 1496,
      "xanne": 1497,
      "roxanne": 1498,
      "catalin": 1499,
      "huw": 1500,
      "myles": 1501,
      "dion": 1502,
      "caz": 1503,
      "trisha": 1504,
      "dionne": 1505,
      "iusz": 1506,
      "dariusz": 1507,
      "kiera": 1508,
      "elisha": 1509,
      "jayden": 1510,
      "cja": 1511,
      "des": 1512,
      "ish": 1513,
      "mie": 1514,
      "beckie": 1515,
      "sammie": 1516,
      "hamish": 1517,
      "kamran": 1518,
      "patrycja": 1519,
      "keira": 1520,
      "billie": 1521,
      "leonie": 1522,
      "rity": 1523,
      "nette": 1524,
      "rag": 1525,
      "lynette": 1526,
      "verity": 1527,
      "tori": 1528,
      "aela": 1529,
      "morag": 1530,
      "collette": 1531,
      "dougie": 1532,
      "gayle": 1533,
      "mihaela": 1534,
      "di": 1535,
      "pert": 1536,
      "jodi": 1537,
      "rupert": 1538,
      "ronan": 1539,
      "bony": 1540,
      "ebony": 1541,
      "gi": 1542,
      "mur": 1543,
      "uben": 1544,
      "vickie": 1545,
      "reuben": 1546,
      "cody": 1547,
      "cerys": 1548,
      "finn": 1549,
      "giles": 1550,
      "murray": 1551,
      "sarahjane": 1552,
      "lay": 1553,
      "athon": 1554,
      "chrissie": 1555,
      "jonathon": 1556,
      "patsy": 1557,
      "lyndsay": 1558,
      "finlay": 1559,
      "arran": 1560,
      "carys": 1561,
      "gav": 1562,
      "riley": 1563,
      "dot": 1564,
      "rell": 1565,
      "darrell": 1566,
      "shelby": 1567,
      "shell": 1568,
      "chelsey": 1569,
      "tracie": 1570,
      "jez": 1571,
      "noreen": 1572,
      "tash": 1573,
      "dh": 1574,
      "dn": 1575,
      "jillian": 1576,
      "amus": 1577,
      "lidh": 1578,
      "seamus": 1579,
      "haydn": 1580,
      "eilidh": 1581,
      "aly": 1582,
      "carmel": 1583,
      "leighton": 1584,
      "shaz": 1585,
      "tegan": 1586,
      "alyson": 1587,
      "lle": 1588,
      "nevi": 1589,
      "deir": 1590,
      "neville": 1591,
      "deirdre": 1592,
      "az": 1593,
      "baz": 1594,
      "gos": 1595,
      "dair": 1596,
      "alas": 1597,
      "gosia": 1598,
      "alasdair": 1599,
      "bryn": 1600,
      "un": 1601,
      "alun": 1602,
      "devon": 1603,
      "blair": 1604,
      "dd": 1605,
      "sin": 1606,
      "zer": 1607,
      "arine": 1608,
      "rosa": 1609,
      "todd": 1610,
      "katharine": 1611,
      "rhona": 1612,
      "mags": 1613,
      "frazer": 1614,
      "tamsin": 1615,
      "rosalind": 1616,
      "iran": 1617,
      "maz": 1618,
      "keiran": 1619,
      "gem": 1620,
      "lacey": 1621,
      "becci": 1622,
      "abb": 1623,
      "vie": 1624,
      "ner": 1625,
      "davie": 1626,
      "ashton": 1627,
      "conner": 1628,
      "abbi": 1629,
      "jordon": 1630,
      "stacie": 1631,
      "kaye": 1632,
      "ged": 1633,
      "dill": 1634,
      "gly": 1635,
      "jed": 1636,
      "orla": 1637,
      "kaz": 1638,
      "rhianna": 1639,
      "brogan": 1640,
      "dillon": 1641,
      "glynis": 1642,
      "debs": 1643,
      "regan": 1644,
      "isla": 1645,
      "bobbie": 1646,
      "kayley": 1647,
      "ao": 1648,
      "ais": 1649,
      "fe": 1650,
      "ife": 1651,
      "ely": 1652,
      "rab": 1653,
      "keely": 1654,
      "ling": 1655,
      "jacquie": 1656,
      "aoife": 1657,
      "aisling": 1658,
      "ffion": 1659,
      "leeanne": 1660,
      "gus": 1661,
      "issy": 1662,
      "fergus": 1663,
      "int": 1664,
      "geraint": 1665,
      "hai": 1666,
      "mhai": 1667,
      "eoin": 1668,
      "eamonn": 1669,
      "mhairi": 1670,
      "hat": 1671,
      "tie": 1672,
      "chelsie": 1673,
      "darran": 1674,
      "kieren": 1675,
      "hattie": 1676,
      "saff": 1677,
      "saffron": 1678,
      "ailsa": 1679,
      "briony": 1680,
      "beccy": 1681,
      "hara": 1682,
      "anghara": 1683,
      "finley": 1684,
      "angharad": 1685,
      "gle": 1686,
      "ieuan": 1687,
      "carley": 1688,
      "aled": 1689,
      "nys": 1690,
      "bridie": 1691,
      "glenys": 1692,
      "ain": 1693,
      "glynn": 1694,
      "ow": 1695,
      "owain": 1696,
      "deano": 1697,
      "nu": 1698,
      "nuala": 1699,
      "gre": 1700,
      "maire": 1701,
      "greig": 1702,
      "mairead": 1703,
      "fyd": 1704,
      "dafyd": 1705,
      "dafydd": 1706,
      "cau": 1707,
      "pie": 1708,
      "rs": 1709,
      "macau": 1710,
      "piers": 1711,
      "macauley": 1712,
      "iri": 1713,
      "mairi": 1714,
      "grahame": 1715,
      "wri": 1716,
      "arna": 1717,
      "sharna": 1718,
      "lowri": 1719
    },
    "merges": [
      "a n",
      "a r",
      "i e",
      "l e",
      "c h",
      "a m",
      "o n",
      "l i",
      "e n",
      "r i",
      "e l",
      "a t",
      "j o",
      "n e",
      "s t",
      "r a",
      "e r",
      "m ar",
      "a u",
      "d a",
      "m i",
      "v i",
      "r e",
      "t h",
      "s h",
      "j a",
      "an d",
      "n a",
      "c k",
      "m a",
      "p h",
      "l y",
      "i l",
      "d an",
      "e s",
      "st e",
      "k e",
      "r o",
      "n i",
      "a l",
      "l o",
      "r y",
      "ch ri",
      "p au",
      "j am",
      "g e",
      "s e",
      "pau l",
      "c o",
      "ch ar",
      "i m",
      "ar a",
      "e t",
      "o r",
      "mi ch",
      "h n",
      "jo hn",
      "da vi",
      "davi d",
      "l ie",
      "b e",
      "l a",
      "at h",
      "v e",
      "i an",
      "jam es",
      "l u",
      "d e",
      "t o",
      "c ar",
      "mar k",
      "chri s",
      "s ara",
      "s am",
      "c e",
      "j u",
      "m ma",
      "le y",
      "l au",
      "i a",
      "r en",
      "a el",
      "ro b",
      "s a",
      "and re",
      "m at",
      "c a",
      "sara h",
      "s u",
      "g ar",
      "t t",
      "i ne",
      "i n",
      "mich ael",
      "a le",
      "li n",
      "an ne",
      "k at",
      "a d",
      "ie l",
      "ja ck",
      "j an",
      "an na",
      "dan iel",
      "a y",
      "a li",
      "e mma",
      "n y",
      "p et",
      "ste ph",
      "on y",
      "o l",
      "ale x",
      "and y",
      "s on",
      "to m",
      "andre w",
      "b en",
      "i g",
      "h e",
      "i s",
      "k ar",
      "ri char",
      "richar d",
      "m e",
      "r an",
      "pet er",
      "ge or",
      "o ph",
      "c y",
      "chri st",
      "h am",
      "ad am",
      "le n",
      "ste ve",
      "lau ra",
      "vi n",
      "lo u",
      "o li",
      "i se",
      "ar on",
      "li am",
      "j en",
      "mar t",
      "ch el",
      "er t",
      "ck y",
      "s im",
      "sim on",
      "e w",
      "el a",
      "i r",
      "ly n",
      "steph en",
      "ry an",
      "ju lie",
      "le e",
      "a sh",
      "an th",
      "b b",
      "li sa",
      "c la",
      "rob ert",
      "kar en",
      "il l",
      "j on",
      "i re",
      "ri an",
      "cla ire",
      "mat t",
      "jo sh",
      "ar ry",
      "da ve",
      "el le",
      "jo e",
      "an n",
      "jam ie",
      "tt e",
      "d y",
      "ath an",
      "p at",
      "t ony",
      "ni co",
      "i na",
      "mart in",
      "g ra",
      "t ra",
      "al an",
      "be th",
      "he len",
      "gar y",
      "th ew",
      "mat thew",
      "n at",
      "am y",
      "s oph",
      "j es",
      "jes s",
      "li z",
      "ra chel",
      "ar t",
      "mi ke",
      "d ar",
      "kat ie",
      "lou ise",
      "lu ke",
      "s an",
      "ste v",
      "ke vin",
      "mich elle",
      "d on",
      "er ry",
      "lau ren",
      "h anna",
      "hanna h",
      "an g",
      "be c",
      "le s",
      "su e",
      "soph ie",
      "ce y",
      "c ra",
      "cra ig",
      "geor ge",
      "e ri",
      "ni ck",
      "k el",
      "bec ca",
      "stev en",
      "bb ie",
      "lin da",
      "r u",
      "lu cy",
      "jan e",
      "lo tte",
      "char lotte",
      "s co",
      "sco tt",
      "e mi",
      "emi ly",
      "ch lo",
      "chlo e",
      "e d",
      "b o",
      "st u",
      "su san",
      "dar ren",
      "sh aron",
      "ma s",
      "ja son",
      "ne il",
      "and ra",
      "ja y",
      "g an",
      "i ca",
      "m y",
      "i on",
      "stu art",
      "w en",
      "m o",
      "k ath",
      "nico la",
      "b rian",
      "re becca",
      "ol ly",
      "f ran",
      "char lie",
      "jo r",
      "ph il",
      "i th",
      "c on",
      "g a",
      "jor dan",
      "d en",
      "s s",
      "kel ly",
      "d o",
      "j e",
      "lo r",
      "mar y",
      "k ir",
      "h arry",
      "christ ine",
      "co lin",
      "n or",
      "pat ri",
      "d ie",
      "se an",
      "o mas",
      "th omas",
      "jo anne",
      "c ath",
      "am an",
      "anth ony",
      "dan ny",
      "c al",
      "car ol",
      "de bbie",
      "kir st",
      "st a",
      "ge mma",
      "w is",
      "le wis",
      "kat e",
      "ang ela",
      "s andra",
      "gra ham",
      "d ian",
      "a i",
      "aman da",
      "al ie",
      "nat alie",
      "j im",
      "ali son",
      "eri ne",
      "k ie",
      "t im",
      "geor g",
      "mar gar",
      "margar et",
      "an ie",
      "ja ke",
      "jess ica",
      "li p",
      "car oli",
      "caroli ne",
      "k im",
      "n athan",
      "sam anth",
      "samanth a",
      "le ig",
      "leig h",
      "u s",
      "e th",
      "mar c",
      "li ne",
      "mar ia",
      "a h",
      "f f",
      "c l",
      "y le",
      "b er",
      "mo ham",
      "de an",
      "o e",
      "don na",
      "jan et",
      "tra cey",
      "me gan",
      "y l",
      "v er",
      "a aron",
      "ke ith",
      "w il",
      "wil liam",
      "h ay",
      "jen ny",
      "lu m",
      "cal lum",
      "r ie",
      "mar ie",
      "jack ie",
      "a b",
      "el lie",
      "k ay",
      "kirst y",
      "b ra",
      "r on",
      "jon athan",
      "vi c",
      "sh au",
      "wen dy",
      "oph er",
      "christ opher",
      "al ly",
      "tra cy",
      "c ia",
      "be cky",
      "ja de",
      "u r",
      "je an",
      "da w",
      "a s",
      "ash ley",
      "ri a",
      "i lip",
      "ph ilip",
      "ion a",
      "s ie",
      "me d",
      "cath erine",
      "b il",
      "li an",
      "se y",
      "jen ni",
      "i t",
      "daniel le",
      "jo se",
      "ma d",
      "con nor",
      "w ill",
      "ela ine",
      "ar e",
      "cl are",
      "z oe",
      "vi a",
      "hay ley",
      "shau n",
      "k en",
      "k erry",
      "f iona",
      "l an",
      "f er",
      "car l",
      "daw n",
      "s ally",
      "ad rian",
      "li a",
      "t erry",
      "ar d",
      "b arry",
      "w ay",
      "way ne",
      "b ar",
      "ash a",
      "a beth",
      "e liz",
      "ro ss",
      "eliz abeth",
      "to ria",
      "vic toria",
      "jenni fer",
      "le en",
      "er e",
      "m el",
      "dian e",
      "re en",
      "ma x",
      "k i",
      "n ie",
      "paul a",
      "an y",
      "ra y",
      "gar eth",
      "ath er",
      "he ather",
      "les ley",
      "on i",
      "m andy",
      "kie ran",
      "t ina",
      "vi cky",
      "k yle",
      "r h",
      "ol lie",
      "h olly",
      "bil ly",
      "d u",
      "ra ine",
      "lor raine",
      "pau line",
      "p am",
      "le anne",
      "jose ph",
      "b ara",
      "bar bara",
      "andre a",
      "steph anie",
      "g el",
      "ni gel",
      "ali ce",
      "bo b",
      "t er",
      "h ar",
      "bra d",
      "y s",
      "k ki",
      "an e",
      "li s",
      "den ise",
      "c q",
      "ja cq",
      "jacq u",
      "sta cey",
      "es a",
      "fran c",
      "e le",
      "patri ck",
      "m au",
      "car o",
      "bb y",
      "g or",
      "sh ann",
      "shann on",
      "patri cia",
      "d ia",
      "il lian",
      "georg ia",
      "lyn n",
      "y n",
      "nico le",
      "ru th",
      "u a",
      "josh ua",
      "pet e",
      "oli via",
      "sh e",
      "ju st",
      "nat asha",
      "moham med",
      "i o",
      "ra h",
      "b y",
      "v on",
      "ur t",
      "oli ver",
      "ju lia",
      "b ren",
      "g er",
      "co l",
      "g illian",
      "w ard",
      "d ere",
      "dere k",
      "mi ck",
      "mau reen",
      "ch ael",
      "ra chael",
      "sh a",
      "ga vin",
      "re y",
      "v an",
      "jo die",
      "sh ane",
      "ro se",
      "jo anna",
      "su z",
      "b r",
      "lin d",
      "c am",
      "er on",
      "cam eron",
      "y von",
      "yvon ne",
      "gra ce",
      "k a",
      "ni kki",
      "u g",
      "jay ne",
      "kar l",
      "el la",
      "me lis",
      "melis sa",
      "et t",
      "le ah",
      "d am",
      "da le",
      "ma g",
      "t re",
      "tre v",
      "il a",
      "she ila",
      "jo y",
      "de bo",
      "debo rah",
      "franc es",
      "ro y",
      "t oni",
      "ro sie",
      "dy lan",
      "lyn ne",
      "kay leigh",
      "j ill",
      "ma l",
      "la s",
      "el l",
      "m on",
      "re g",
      "o ff",
      "ge off",
      "trev or",
      "g len",
      "ni cky",
      "ch er",
      "cher yl",
      "i sa",
      "ro ger",
      "mel anie",
      "m u",
      "suz anne",
      "ru ss",
      "sh ir",
      "shir ley",
      "b ill",
      "ter esa",
      "m olly",
      "ab du",
      "abdu l",
      "ch o",
      "ni cho",
      "gor don",
      "ry n",
      "z a",
      "h a",
      "ni c",
      "jon ny",
      "ne y",
      "co urt",
      "court ney",
      "mar i",
      "g ill",
      "t ri",
      "e e",
      "e ce",
      "re ece",
      "ed ward",
      "g reg",
      "ja co",
      "jaco b",
      "o wen",
      "tom my",
      "col m",
      "jo an",
      "caro le",
      "ck i",
      "p a",
      "e v",
      "u el",
      "sam uel",
      "fran k",
      "h en",
      "hen ry",
      "se a",
      "chel sea",
      "rh ys",
      "le on",
      "brad ley",
      "c li",
      "a bbie",
      "sh el",
      "ju ne",
      "pam ela",
      "a g",
      "kath ryn",
      "lou is",
      "mal colm",
      "li o",
      "el lio",
      "e line",
      "jacqu eline",
      "z y",
      "and on",
      "bren da",
      "br andon",
      "jim my",
      "o mi",
      "an it",
      "am ber",
      "na omi",
      "anit a",
      "char les",
      "alex and",
      "r z",
      "s ian",
      "p en",
      "e i",
      "marc us",
      "just in",
      "ri ch",
      "ri cky",
      "al lan",
      "ia in",
      "je ff",
      "i d",
      "kat y",
      "s yl",
      "f re",
      "fre d",
      "beth any",
      "georg ina",
      "es sa",
      "van essa",
      "russ ell",
      "i ce",
      "rob in",
      "jan ice",
      "f ay",
      "t a",
      "lor na",
      "a im",
      "do ug",
      "aim ee",
      "b el",
      "ri na",
      "t yle",
      "tyle r",
      "ca it",
      "cait lin",
      "ham mad",
      "mu hammad",
      "z el",
      "ha zel",
      "p ai",
      "pai ge",
      "at a",
      "ett e",
      "eth an",
      "ann ie",
      "i ren",
      "iren e",
      "on a",
      "c i",
      "con or",
      "ga il",
      "vi cki",
      "k as",
      "christ ina",
      "ed die",
      "sta ir",
      "mi nic",
      "do minic",
      "e li",
      "t any",
      "tany a",
      "alex andra",
      "g ran",
      "gran t",
      "e me",
      "v ale",
      "gra eme",
      "vale rie",
      "ei leen",
      "dian a",
      "ah med",
      "nicho las",
      "to by",
      "sa y",
      "s y",
      "w art",
      "ste wart",
      "k ri",
      "ni s",
      "m or",
      "ang ie",
      "cli ve",
      "mor gan",
      "son ia",
      "gar ry",
      "li ly",
      "eri c",
      "f ie",
      "th y",
      "al fie",
      "c ie",
      "kath leen",
      "rh ian",
      "c an",
      "n can",
      "us z",
      "du ncan",
      "alexand er",
      "to mas",
      "g ie",
      "mag gie",
      "b ie",
      "rob bie",
      "d ine",
      "s mi",
      "ja smi",
      "jasmi ne",
      "car ly",
      "an t",
      "mart yn",
      "ash leigh",
      "d ith",
      "ju dith",
      "lyn da",
      "jo el",
      "jam in",
      "ben jamin",
      "kath erine",
      "t ara",
      "el len",
      "f a",
      "matt y",
      "be ver",
      "bever ley",
      "ray mon",
      "dam ian",
      "raymon d",
      "ke v",
      "se b",
      "christ ian",
      "ly dia",
      "car la",
      "ken ny",
      "anne tte",
      "bo bby",
      "m oni",
      "moni ka",
      "ri ta",
      "joy ce",
      "ju lian",
      "syl via",
      "mar ion",
      "an or",
      "ele anor",
      "moham ed",
      "cath y",
      "a il",
      "den nis",
      "kim ber",
      "kimber ley",
      "l lie",
      "mi llie",
      "al d",
      "h ollie",
      "eri n",
      "do ro",
      "pen ny",
      "ab i",
      "m an",
      "ni na",
      "lu ca",
      "st ina",
      "fay e",
      "mi a",
      "ren ce",
      "an tony",
      "lind say",
      "t ay",
      "jen na",
      "tay lor",
      "j emma",
      "john ny",
      "ai dan",
      "jacqu i",
      "marc in",
      "v al",
      "rie t",
      "har riet",
      "e lia",
      "z ie",
      "am elia",
      "da is",
      "mi t",
      "liz zie",
      "dais y",
      "ro ry",
      "glen n",
      "kath y",
      "frances ca",
      "lind sey",
      "b h",
      "s io",
      "bh an",
      "sio bhan",
      "b ryan",
      "ie n",
      "caro lyn",
      "g ina",
      "sam my",
      "ellio t",
      "de e",
      "moham mad",
      "an a",
      "phil lip",
      "shel ley",
      "de cl",
      "kat rina",
      "decl an",
      "f ra",
      "f an",
      "ste fan",
      "ig ail",
      "ab igail",
      "j ere",
      "jere my",
      "t am",
      "er esa",
      "th eresa",
      "max ine",
      "jean ette",
      "ru by",
      "a de",
      "ade le",
      "rob yn",
      "an ia",
      "rz e",
      "ele na",
      "y d",
      "mar ian",
      "ve y",
      "har vey",
      "s andy",
      "w el",
      "pa wel",
      "st an",
      "p io",
      "s z",
      "t r",
      "t asha",
      "ch ant",
      "nie sz",
      "ag niesz",
      "pio tr",
      "chant elle",
      "agniesz ka",
      "f lo",
      "k er",
      "mich al",
      "mart a",
      "k y",
      "u m",
      "cal um",
      "ne th",
      "ken neth",
      "gor z",
      "d re",
      "be v",
      "rose mary",
      "g u",
      "gu y",
      "ri l",
      "michael a",
      "bren dan",
      "o s",
      "lyn d",
      "a bby",
      "le o",
      "ali stair",
      "soph ia",
      "i van",
      "ge ra",
      "a st",
      "b ri",
      "h il",
      "ar y",
      "he id",
      "seb ast",
      "hil ary",
      "heid i",
      "sebast ian",
      "p ad",
      "y as",
      "mi n",
      "georg ie",
      "pad dy",
      "yas min",
      "ri n",
      "de bra",
      "k am",
      "kri s",
      "lu kas",
      "ali cia",
      "lukas z",
      "ni al",
      "ron nie",
      "nial l",
      "b re",
      "ph oe",
      "fran kie",
      "bre tt",
      "phoe be",
      "t or",
      "ri ck",
      "vic tor",
      "do m",
      "mon ica",
      "c at",
      "ali a",
      "nat alia",
      "d rey",
      "au drey",
      "jo sie",
      "im ran",
      "g ay",
      "c lau",
      "le ne",
      "char lene",
      "clau dia",
      "e ve",
      "i ra",
      "e st",
      "h er",
      "n o",
      "est her",
      "l lo",
      "ev a",
      "llo yd",
      "na dia",
      "mich ele",
      "jan ine",
      "li bby",
      "c er",
      "w ar",
      "war ren",
      "b ett",
      "ar ron",
      "tomas z",
      "bett y",
      "de mi",
      "lyn sey",
      "h as",
      "o mar",
      "am h",
      "ni amh",
      "ju dy",
      "doro thy",
      "has san",
      "t e",
      "m ath",
      "math ew",
      "s er",
      "fra ser",
      "h ug",
      "do reen",
      "hug h",
      "lo s",
      "car los",
      "ar th",
      "mi h",
      "tam my",
      "arth ur",
      "on ica",
      "ver onica",
      "b ru",
      "as i",
      "bru ce",
      "g erry",
      "le tte",
      "mike y",
      "stev ie",
      "b ro",
      "nor man",
      "doug las",
      "de b",
      "jen nie",
      "al a",
      "w rence",
      "la wrence",
      "c ara",
      "k ai",
      "z ara",
      "an toni",
      "le na",
      "car rie",
      "he lena",
      "ga br",
      "antoni o",
      "gabr iel",
      "sa sha",
      "lou isa",
      "franc is",
      "simon e",
      "f in",
      "l ara",
      "el lis",
      "dam ien",
      "za k",
      "i z",
      "ra j",
      "iz zy",
      "k rz",
      "z to",
      "ar an",
      "beth an",
      "ys zto",
      "ci aran",
      "krz yszto",
      "krzyszto f",
      "a c",
      "li son",
      "al lison",
      "isa ac",
      "c urt",
      "n on",
      "dale na",
      "mag dalena",
      "rhian non",
      "curt is",
      "c en",
      "kar oli",
      "vin cen",
      "mari us",
      "karoli na",
      "vincen t",
      "l dine",
      "o p",
      "p y",
      "p op",
      "gera ldine",
      "pop py",
      "vi kki",
      "me g",
      "chel l",
      "mari lyn",
      "mit chell",
      "ter ri",
      "h o",
      "i p",
      "n an",
      "p ip",
      "luca s",
      "ho ward",
      "nan cy",
      "ellio tt",
      "dre w",
      "e k",
      "mar ina",
      "mar ek",
      "ca sey",
      "mar co",
      "vi v",
      "co rey",
      "s ine",
      "sine ad",
      "t ia",
      "u an",
      "st ella",
      "ga z",
      "e o",
      "mar io",
      "os car",
      "dan i",
      "na dine",
      "andre i",
      "isa bel",
      "ar ch",
      "ri son",
      "pat ry",
      "har rison",
      "arch ie",
      "ali sha",
      "don ald",
      "kel sey",
      "kas ia",
      "su sie",
      "ew an",
      "u t",
      "ion ut",
      "les lie",
      "t y",
      "t ania",
      "lynd sey",
      "c ri",
      "ar zy",
      "kat arzy",
      "tri sh",
      "cri stina",
      "katarzy na",
      "jess ie",
      "fred die",
      "lauren ce",
      "nick i",
      "kie ron",
      "k ane",
      "den is",
      "ang el",
      "ala stair",
      "f al",
      "ra fal",
      "sh ona",
      "anne marie",
      "am ir",
      "ann marie",
      "b la",
      "m ollie",
      "o thy",
      "char ley",
      "dar yl",
      "kirst en",
      "tim othy",
      "kam il",
      "h im",
      "i bra",
      "ck ie",
      "ibra him",
      "joe y",
      "mad die",
      "b rina",
      "sa brina",
      "nicho la",
      "mari usz",
      "ci ara",
      "ai den",
      "joseph ine",
      "just ine",
      "ger ard",
      "ra ja",
      "lu cie",
      "nor ma",
      "no el",
      "a p",
      "am ie",
      "ap ril",
      "el yn",
      "ev elyn",
      "flo rin",
      "d ge",
      "ma son",
      "lu is",
      "bri dge",
      "gay nor",
      "bridge t",
      "sa die",
      "kirst ie",
      "b ert",
      "f at",
      "i ma",
      "al bert",
      "ber nie",
      "ron ald",
      "fat ima",
      "d ette",
      "o ke",
      "na dette",
      "ber nadette",
      "bro oke",
      "g lo",
      "janet te",
      "glo ria",
      "lo is",
      "n ard",
      "ie la",
      "dan iela",
      "ew a",
      "mo ira",
      "ber nard",
      "li na",
      "pau lina",
      "be linda",
      "tri cia",
      "kri stina",
      "g en",
      "m en",
      "o gen",
      "s pen",
      "im ogen",
      "car men",
      "ju de",
      "spen cer",
      "h ali",
      "k hali",
      "art ur",
      "ang us",
      "khali d",
      "kel vin",
      "shau na",
      "geoff rey",
      "o bel",
      "is obel",
      "ky e",
      "p olly",
      "ali na",
      "b ai",
      "f rey",
      "g lyn",
      "sta fa",
      "mu stafa",
      "ker rie",
      "bai ley",
      "frey a",
      "i ff",
      "t iff",
      "ce ri",
      "ol ga",
      "ev ie",
      "sy ed",
      "tiff any",
      "e uan",
      "g rze",
      "dian ne",
      "grze gorz",
      "ki ran",
      "tri stan",
      "t ed",
      "n ny",
      "su nny",
      "kel lie",
      "philip pa",
      "e usz",
      "en a",
      "mat eusz",
      "she ena",
      "mih ai",
      "y na",
      "and rze",
      "ca ss",
      "just yna",
      "andrze j",
      "cass ie",
      "t on",
      "da z",
      "ah mad",
      "shel ly",
      "ne s",
      "th eo",
      "co lette",
      "be ata",
      "con nie",
      "ag nes",
      "ham za",
      "d arry",
      "ma is",
      "darry l",
      "mais ie",
      "rich ie",
      "en ce",
      "ter ence",
      "k ah",
      "re be",
      "rebe kah",
      "le vi",
      "anna bel",
      "za c",
      "julie t",
      "w ia",
      "dan ni",
      "hay den",
      "syl wia",
      "g dan",
      "chris sy",
      "ale c",
      "cla ir",
      "bo gdan",
      "col leen",
      "ker ri",
      "li v",
      "alan a",
      "har ley",
      "pip pa",
      "e ley",
      "am it",
      "ke eley",
      "bil al",
      "ha san",
      "eli se",
      "jo dy",
      "ro d",
      "ber yl",
      "mal gorz",
      "asi f",
      "malgorz ata",
      "be y",
      "sta cy",
      "ab bey",
      "b ry",
      "u l",
      "rah ul",
      "ky lie",
      "bry ony",
      "mi les",
      "bar rie",
      "la h",
      "lau rie",
      "abdul lah",
      "daw id",
      "g wen",
      "w es",
      "suz ie",
      "wes ley",
      "ju les",
      "is al",
      "fa isal",
      "mit ch",
      "k sandra",
      "ale ksandra",
      "ri ce",
      "mau rice",
      "m m",
      "su mm",
      "summ er",
      "flo rence",
      "liz zy",
      "us man",
      "k ara",
      "ra vi",
      "lo tt",
      "cli ff",
      "lott ie",
      "t il",
      "ma ine",
      "char maine",
      "til ly",
      "e a",
      "i q",
      "k ian",
      "t ar",
      "be cki",
      "andre ea",
      "ai leen",
      "tar iq",
      "doro ta",
      "fa ith",
      "ew eli",
      "eweli na",
      "e al",
      "w an",
      "ro wan",
      "mich eal",
      "e am",
      "eam on",
      "i w",
      "ph ill",
      "iw ona",
      "ne al",
      "sh ah",
      "ja ce",
      "mad dy",
      "shah id",
      "jace k",
      "a v",
      "an et",
      "ro is",
      "av ril",
      "anet a",
      "rois in",
      "k u",
      "ja ku",
      "jaku b",
      "ien ne",
      "viv ienne",
      "c it",
      "f eli",
      "t roy",
      "z i",
      "lin zi",
      "alexand ru",
      "patry k",
      "bla ke",
      "cit y",
      "feli city",
      "za ch",
      "s kye",
      "li anne",
      "s and",
      "v asi",
      "ri ona",
      "ee p",
      "cat riona",
      "sand eep",
      "vasi le",
      "be x",
      "ron e",
      "ty rone",
      "e sha",
      "sh arron",
      "ay esha",
      "lou ie",
      "o ise",
      "el oise",
      "co rin",
      "kir k",
      "ag ata",
      "corin ne",
      "dam on",
      "h m",
      "t ru",
      "ma cie",
      "me hm",
      "tru dy",
      "macie j",
      "mehm et",
      "c ata",
      "h u",
      "x anne",
      "ro xanne",
      "cata lin",
      "hu w",
      "my les",
      "d ion",
      "ca z",
      "tri sha",
      "dion ne",
      "i usz",
      "dar iusz",
      "kie ra",
      "eli sha",
      "jay den",
      "c ja",
      "d es",
      "i sh",
      "m ie",
      "be ckie",
      "sam mie",
      "ham ish",
      "kam ran",
      "patry cja",
      "ke ira",
      "bil lie",
      "leon ie",
      "ri ty",
      "ne tte",
      "ra g",
      "ly nette",
      "ve rity",
      "to ri",
      "ael a",
      "mo rag",
      "col lette",
      "doug ie",
      "gay le",
      "mih aela",
      "d i",
      "p ert",
      "jo di",
      "ru pert",
      "ron an",
      "b ony",
      "e bony",
      "g i",
      "m ur",
      "u ben",
      "vi ckie",
      "re uben",
      "co dy",
      "cer ys",
      "fin n",
      "gi les",
      "mur ray",
      "sarah jane",
      "la y",
      "ath on",
      "chris sie",
      "jon athon",
      "pat sy",
      "lynd say",
      "fin lay",
      "ar ran",
      "car ys",
      "ga v",
      "ri ley",
      "do t",
      "r ell",
      "dar rell",
      "shel by",
      "sh ell",
      "chel sey",
      "tra cie",
      "je z",
      "no reen",
      "t ash",
      "d h",
      "d n",
      "j illian",
      "am us",
      "li dh",
      "se amus",
      "hay dn",
      "ei lidh",
      "a ly",
      "car mel",
      "leigh ton",
      "sha z",
      "te gan",
      "aly son",
      "l le",
      "ne vi",
      "de ir",
      "nevi lle",
      "deir dre",
      "a z",
      "b az",
      "g os",
      "da ir",
      "al as",
      "gos ia",
      "alas dair",
      "b ryn",
      "u n",
      "al un",
      "de von",
      "bla ir",
      "d d",
      "s in",
      "z er",
      "ar ine",
      "ro sa",
      "to dd",
      "kath arine",
      "rh ona",
      "mag s",
      "fra zer",
      "tam sin",
      "rosa lind",
      "i ran",
      "ma z",
      "ke iran",
      "ge m",
      "la cey",
      "bec ci",
      "a bb",
      "v ie",
      "ne r",
      "da vie",
      "ash ton",
      "con ner",
      "abb i",
      "jor don",
      "sta cie",
      "kay e",
      "ge d",
      "d ill",
      "g ly",
      "j ed",
      "or la",
      "ka z",
      "rhian na",
      "bro gan",
      "dill on",
      "gly nis",
      "deb s",
      "re gan",
      "is la",
      "bo bbie",
      "kay ley",
      "a o",
      "a is",
      "f e",
      "i fe",
      "el y",
      "ra b",
      "ke ely",
      "lin g",
      "jacqu ie",
      "ao ife",
      "ais ling",
      "ff ion",
      "lee anne",
      "g us",
      "is sy",
      "fer gus",
      "in t",
      "gera int",
      "h ai",
      "m hai",
      "eo in",
      "eamon n",
      "mhai ri",
      "h at",
      "t ie",
      "chel sie",
      "dar ran",
      "kie ren",
      "hat tie",
      "sa ff",
      "saff ron",
      "ail sa",
      "bri ony",
      "bec cy",
      "h ara",
      "ang hara",
      "fin ley",
      "anghara d",
      "g le",
      "ie uan",
      "car ley",
      "ale d",
      "ny s",
      "bri die",
      "gle nys",
      "a in",
      "g lynn",
      "o w",
      "ow ain",
      "dean o",
      "n u",
      "nu ala",
      "g re",
      "ma ire",
      "gre ig",
      "maire ad",
      "f yd",
      "da fyd",
      "dafyd d",
      "c au",
      "p ie",
      "r s",
      "ma cau",
      "pie rs",
      "macau ley",
      "i ri",
      "ma iri",
      "graham e",
      "w ri",
      "ar na",
      "sh arna",
      "lo wri"
    ]
  }
}