{
    "version": "1.0",
    "truncation": null,
    "padding": null,
    "added_tokens": [
        {
            "id": 0,
            "content": "[UNK]",
            "single_word": false,
            "lstrip": false,
            "rstrip": false,
            "normalized": false,
            "special": true
        },
        {
            "id": 1,
            "content": "[CLS]",
            "single_word": false,
            "lstrip": false,
            "rstrip": false,
            "normalized": false,
            "special": true
        },
        {
            "id": 2,
            "content": "[SEP]",
            "single_word": false,
            "lstrip": false,
            "rstrip": false,
            "normalized": false,
            "special": true
        },
        {
            "id": 3,
            "content": "[PAD]",
            "single_word": false,
            "lstrip": false,
            "rstrip": false,
            "normalized": false,
            "special": true
        },
        {
            "id": 4,
            "content": "[MASK]",
            "single_word": false,
            "lstrip": false,
            "rstrip": false,
            "normalized": false,
            "special": true
        }
    ],
    "normalizer": null,
    "pre_tokenizer": {
        "type": "Whitespace"
    },
    "post_processor": null,
    "decoder": null,
    "model": {
        "type": "BPE",
        "dropout": null,
        "unk_token": "[UNK]",
        "continuing_subword_prefix": null,
        "end_of_word_suffix": null,
        "fuse_unk": false,
        "vocab": {
            "[UNK]": 0,
            "[CLS]": 1,
            "[SEP]": 2,
            "[PAD]": 3,
            "[MASK]": 4,
            "-": 5,
            "a": 6,
            "b": 7,
            "c": 8,
            "d": 9,
            "e": 10,
            "f": 11,
            "g": 12,
            "h": 13,
            "i": 14,
            "j": 15,
            "k": 16,
            "l": 17,
            "m": 18,
            "n": 19,
            "o": 20,
            "p": 21,
            "q": 22,
            "r": 23,
            "s": 24,
            "t": 25,
            "u": 26,
            "v": 27,
            "w": 28,
            "x": 29,
            "y": 30,
            "z": 31,
            "ha": 32,
            "ma": 33,
            "ou": 34,
            "sa": 35,
            "mo": 36,
            "ra": 37,
            "ham": 38,
            "ed": 39,
            "id": 40,
            "na": 41,
            "la": 42,
            "ab": 43,
            "ne": 44,
            "ss": 45,
            "abd": 46,
            "fa": 47,
            "moham": 48,
            "ya": 49,
            "ti": 50,
            "hi": 51,
            "mi": 52,
            "di": 53,
            "you": 54,
            "ja": 55,
            "ri": 56,
            "ka": 57,
            "ssa": 58,
            "ta": 59,
            "za": 60,
            "med": 61,
            "si": 62,
            "wa": 63,
            "ch": 64,
            "kha": 65,
            "ima": 66,
            "zi": 67,
            "ad": 68,
            "mar": 69,
            "ssi": 70,
            "ah": 71,
            "ami": 72,
            "il": 73,
            "rach": 74,
            "mal": 75,
            "sse": 76,
            "him": 77,
            "lah": 78,
            "mad": 79,
            "ssan": 80,
            "mou": 81,
            "sta": 82,
            "ssef": 83,
            "sou": 84,
            "yassi": 85,
            "lid": 86,
            "me": 87,
            "li": 88,
            "ziz": 89,
            "cham": 90,
            "bi": 91,
            "sma": 92,
            "cha": 93,
            "da": 94,
            "ni": 95,
            "dija": 96,
            "nou": 97,
            "sal": 98,
            "moh": 99,
            "fi": 100,
            "pha": 101,
            "stapha": 102,
            "ba": 103,
            "ali": 104,
            "man": 105,
            "hdi": 106,
            "ana": 107,
            "rad": 108,
            "no": 109,
            "stafa": 110,
            "adi": 111,
            "chra": 112,
            "mu": 113,
            "youne": 114,
            "am": 115,
            "so": 116,
            "hou": 117,
            "dri": 118,
            "oua": 119,
            "ssam": 120,
            "lam": 121,
            "lal": 122,
            "ssama": 123,
            "ila": 124,
            "bou": 125,
            "haf": 126,
            "ot": 127,
            "fia": 128,
            "hak": 129,
            "yam": 130,
            "wan": 131,
            "red": 132,
            "rid": 133,
            "hra": 134,
            "tar": 135,
            "ji": 136,
            "lati": 137,
            "nab": 138,
            "jawa": 139,
            "ay": 140,
            "dine": 141,
            "en": 142,
            "dia": 143,
            "soufia": 144,
            "achra": 145,
            "em": 146,
            "mer": 147,
            "ai": 148,
            "ina": 149,
            "bad": 150,
            "neb": 151,
            "ram": 152,
            "rik": 153,
            "wi": 154,
            "aya": 155,
            "rah": 156,
            "fou": 157,
            "wtar": 158,
            "im": 159,
            "yan": 160,
            "sin": 161,
            "lou": 162,
            "ilya": 163,
            "san": 164,
            "ho": 165,
            "ib": 166,
            "war": 167,
            "nir": 168,
            "din": 169,
            "oum": 170,
            "ssin": 171,
            "yma": 172,
            "md": 173,
            "fik": 174,
            "fae": 175,
            "ghi": 176,
            "nia": 177,
            "cen": 178,
            "nd": 179,
            "maj": 180,
            "zak": 181,
            "mana": 182,
            "an": 183,
            "hir": 184,
            "ar": 185,
            "zou": 186,
            "er": 187,
            "az": 188,
            "hal": 189,
            "hya": 190,
            "ika": 191,
            "bna": 192,
            "el": 193,
            "eddine": 194,
            "mia": 195,
            "sna": 196,
            "ouane": 197,
            "ir": 198,
            "nor": 199,
            "lay": 200,
            "oth": 201,
            "bib": 202,
            "ine": 203,
            "fad": 204,
            "zla": 205,
            "ilah": 206,
            "abdl": 207,
            "lil": 208,
            "youss": 209,
            "wal": 210,
            "ghizla": 211,
            "mah": 212,
            "rim": 213,
            "tissam": 214,
            "mc": 215,
            "yous": 216,
            "oma": 217,
            "bar": 218,
            "lh": 219,
            "hass": 220,
            "mh": 221,
            "ko": 222,
            "cine": 223,
            "mouh": 224,
            "zo": 225,
            "yas": 226,
            "mbar": 227,
            "ssine": 228,
            "ala": 229,
            "lim": 230,
            "rabi": 231,
            "do": 232,
            "bo": 233,
            "naj": 234,
            "tou": 235,
            "wla": 236,
            "jiha": 237,
            "azi": 238,
            "dai": 239,
            "loud": 240,
            "ssal": 241,
            "hd": 242,
            "fyan": 243,
            "yo": 244,
            "zha": 245,
            "slam": 246,
            "faa": 247,
            "tah": 248,
            "mine": 249,
            "adna": 250,
            "ia": 251,
            "zar": 252,
            "hair": 253,
            "gha": 254,
            "hm": 255,
            "al": 256,
            "le": 257,
            "hati": 258,
            "chaib": 259,
            "mr": 260,
            "sab": 261,
            "ouan": 262,
            "fat": 263,
            "ria": 264,
            "youn": 265,
            "ghani": 266,
            "tif": 267,
            "ran": 268,
            "rbi": 269,
            "ef": 270,
            "fay": 271,
            "kh": 272,
            "om": 273,
            "dou": 274,
            "ssim": 275,
            "yna": 276,
            "nat": 277,
            "ssma": 278,
            "wid": 279,
            "is": 280,
            "min": 281,
            "anou": 282,
            "ssane": 283,
            "krim": 284,
            "sam": 285,
            "in": 286,
            "st": 287,
            "der": 288,
            "omo": 289,
            "way": 290,
            "bir": 291,
            "outar": 292,
            "tam": 293,
            "rin": 294,
            "nis": 295,
            "bol": 296,
            "zia": 297,
            "lo": 298,
            "ek": 299,
            "yane": 300,
            "abdal": 301,
            "don": 302,
            "rd": 303,
            "mon": 304,
            "sl": 305,
            "maa": 306,
            "idri": 307,
            "sm": 308,
            "je": 309,
            "bd": 310,
            "taou": 311,
            "hay": 312,
            "aid": 313,
            "ken": 314,
            "doua": 315,
            "sad": 316,
            "saf": 317,
            "mid": 318,
            "ob": 319,
            "rine": 320,
            "jid": 321,
            "ouad": 322,
            "nabi": 323,
            "ssaf": 324,
            "raf": 325,
            "ro": 326,
            "mimou": 327,
            "chak": 328,
            "fal": 329,
            "abo": 330,
            "haj": 331,
            "cho": 332,
            "sen": 333,
            "zin": 334,
            "yasse": 335,
            "ssima": 336,
            "hid": 337,
            "ih": 338,
            "chir": 339,
            "hab": 340,
            "azz": 341,
            "saadi": 342,
            "hmz": 343,
            "dya": 344,
            "niss": 345,
            "jda": 346,
            "wijda": 347,
            "bab": 348,
            "had": 349,
            "abdr": 350,
            "ben": 351,
            "mokh": 352,
            "hija": 353,
            "moud": 354,
            "jila": 355,
            "edine": 356,
            "afa": 357,
            "rda": 358,
            "eg": 359,
            "yla": 360,
            "mest": 361,
            "mham": 362,
            "ati": 363,
            "led": 364,
            "rif": 365,
            "choua": 366,
            "marya": 367,
            "yem": 368,
            "rae": 369,
            "layman": 370,
            "wfal": 371,
            "chta": 372,
            "wane": 373,
            "su": 374,
            "suis": 375,
            "milo": 376,
            "ft": 377,
            "tisam": 378,
            "har": 379,
            "wsan": 380,
            "edc": 381,
            "tan": 382,
            "rji": 383,
            "narji": 384,
            "ssn": 385,
            "wfik": 386,
            "sif": 387,
            "miya": 388,
            "nadi": 389,
            "jad": 390,
            "hmd": 391,
            "sn": 392,
            "men": 393,
            "ld": 394,
            "wld": 395,
            "lot": 396,
            "wha": 397,
            "jawha": 398,
            "mn": 399,
            "aad": 400,
            "youna": 401,
            "ome": 402,
            "ced": 403,
            "sslam": 404,
            "nnat": 405,
            "hamo": 406,
            "mahbo": 407,
            "rk": 408,
            "lae": 409,
            "llah": 410,
            "ray": 411,
            "nim": 412,
            "yad": 413,
            "tri": 414,
            "titri": 415,
            "jou": 416,
            "ws": 417,
            "ssen": 418,
            "firda": 419,
            "mahjou": 420,
            "awa": 421,
            "mss": 422,
            "fo": 423,
            "itam": 424,
            "dj": 425,
            "wac": 426,
            "ez": 427,
            "ouah": 428,
            "mat": 429,
            "cem": 430,
            "oucine": 431,
            "ysa": 432,
            "kri": 433,
            "die": 434,
            "ofik": 435,
            "oui": 436,
            "fe": 437,
            "issal": 438,
            "yd": 439,
            "rya": 440,
            "malek": 441,
            "boua": 442,
            "mst": 443,
            "zza": 444,
            "hed": 445,
            "ari": 446,
            "zho": 447,
            "jaafa": 448,
            "bk": 449,
            "boubk": 450,
            "slm": 451,
            "foud": 452,
            "chdi": 453,
            "fyane": 454,
            "jawi": 455,
            "asi": 456,
            "lho": 457,
            "th": 458,
            "ym": 459,
            "yn": 460,
            "sayn": 461,
            "zid": 462,
            "zzak": 463,
            "razzak": 464,
            "abdssa": 465,
            "aib": 466,
            "cin": 467,
            "eb": 468,
            "yeb": 469,
            "uob": 470,
            "ej": 471,
            "fti": 472,
            "mmed": 473,
            "oufal": 474,
            "abdli": 475,
            "mhm": 476,
            "ejf": 477,
            "bid": 478,
            "cef": 479,
            "bouje": 480,
            "zoubid": 481,
            "ama": 482,
            "gh": 483,
            "my": 484,
            "rane": 485,
            "zigh": 486,
            "nbi": 487,
            "ag": 488,
            "adir": 489,
            "ano": 490,
            "hamd": 491,
            "kaya": 492,
            "egj": 493,
            "ssf": 494,
            "oc": 495,
            "alah": 496,
            "lt": 497,
            "kalt": 498,
            "fj": 499,
            "ger": 500,
            "hj": 501,
            "issma": 502,
            "ssm": 503,
            "fjd": 504,
            "hjr": 505,
            "nza": 506,
            "kbir": 507,
            "be": 508,
            "rizla": 509,
            "wahd": 510,
            "khale": 511,
            "iid": 512,
            "sr": 513,
            "kr": 514,
            "krm": 515,
            "ik": 516,
            "rame": 517,
            "nazi": 518,
            "ira": 519,
            "kab": 520,
            "illah": 521,
            "sf": 522,
            "mra": 523,
            "ita": 524,
            "kita": 525,
            "emed": 526,
            "slim": 527,
            "ame": 528,
            "hman": 529,
            "wel": 530,
            "zm": 531,
            "lta": 532,
            "solta": 533,
            "haq": 534,
            "imo": 535,
            "jmaa": 536,
            "mm": 537,
            "chark": 538,
            "iss": 539,
            "tid": 540,
            "ghaf": 541,
            "lhak": 542,
            "our": 543,
            "fata": 544,
            "bdr": 545,
            "fle": 546,
            "ur": 547,
            "dd": 548,
            "of": 549,
            "ddg": 550,
            "ttah": 551,
            "tissa": 552,
            "intissa": 553,
            "ltif": 554,
            "xid": 555,
            "zk": 556,
            "hasa": 557,
            "tafa": 558,
            "smo": 559,
            "fix": 560,
            "sinyo": 561,
            "mha": 562,
            "boul": 563,
            "yst": 564,
            "mayst": 565,
            "bdo": 566,
            "kw": 567,
            "ossef": 568,
            "tr": 569,
            "uossef": 570,
            "lkrim": 571,
            "ll": 572,
            "nv": 573,
            "hano": 574,
            "fiq": 575,
            "cray": 576,
            "ns": 577,
            "ymar": 578,
            "ail": 579,
            "ichra": 580,
            "fes": 581
        },
        "merges": [
            "h a",
            "m a",
            "o u",
            "s a",
            "m o",
            "r a",
            "ha m",
            "e d",
            "i d",
            "n a",
            "l a",
            "a b",
            "n e",
            "s s",
            "ab d",
            "f a",
            "mo ham",
            "y a",
            "t i",
            "h i",
            "m i",
            "d i",
            "y ou",
            "j a",
            "r i",
            "k a",
            "s sa",
            "t a",
            "z a",
            "m ed",
            "s i",
            "w a",
            "c h",
            "k ha",
            "i ma",
            "z i",
            "a d",
            "ma r",
            "ss i",
            "a h",
            "a mi",
            "i l",
            "ra ch",
            "ma l",
            "ss e",
            "hi m",
            "la h",
            "ma d",
            "ssa n",
            "m ou",
            "s ta",
            "sse f",
            "s ou",
            "ya ssi",
            "l id",
            "m e",
            "l i",
            "zi z",
            "c ham",
            "b i",
            "s ma",
            "c ha",
            "d a",
            "n i",
            "di ja",
            "n ou",
            "sa l",
            "mo h",
            "f i",
            "p ha",
            "sta pha",
            "b a",
            "a li",
            "ma n",
            "h di",
            "a na",
            "ra d",
            "n o",
            "sta fa",
            "a di",
            "ch ra",
            "m u",
            "you ne",
            "a m",
            "s o",
            "h ou",
            "d ri",
            "ou a",
            "ssa m",
            "la m",
            "la l",
            "ssa ma",
            "i la",
            "b ou",
            "ha f",
            "o t",
            "fi a",
            "ha k",
            "ya m",
            "wa n",
            "r ed",
            "r id",
            "h ra",
            "ta r",
            "j i",
            "la ti",
            "na b",
            "ja wa",
            "a y",
            "di ne",
            "e n",
            "di a",
            "sou fia",
            "a chra",
            "e m",
            "me r",
            "a i",
            "i na",
            "b ad",
            "ne b",
            "ra m",
            "ri k",
            "w i",
            "a ya",
            "ra h",
            "f ou",
            "w tar",
            "i m",
            "ya n",
            "si n",
            "l ou",
            "il ya",
            "sa n",
            "h o",
            "i b",
            "wa r",
            "ni r",
            "di n",
            "ou m",
            "ssi n",
            "y ma",
            "m d",
            "fi k",
            "fa e",
            "g hi",
            "ni a",
            "c en",
            "n d",
            "ma j",
            "za k",
            "ma na",
            "a n",
            "hi r",
            "a r",
            "z ou",
            "e r",
            "a z",
            "ha l",
            "h ya",
            "i ka",
            "b na",
            "e l",
            "ed dine",
            "mi a",
            "s na",
            "oua ne",
            "i r",
            "no r",
            "la y",
            "ot h",
            "bi b",
            "i ne",
            "fa d",
            "z la",
            "i lah",
            "abd l",
            "l il",
            "you ss",
            "wa l",
            "ghi zla",
            "ma h",
            "ri m",
            "ti ssam",
            "m c",
            "you s",
            "o ma",
            "ba r",
            "l h",
            "ha ss",
            "m h",
            "k o",
            "c ine",
            "mou h",
            "z o",
            "ya s",
            "m bar",
            "ssi ne",
            "a la",
            "li m",
            "ra bi",
            "d o",
            "b o",
            "na j",
            "t ou",
            "w la",
            "ji ha",
            "a zi",
            "da i",
            "lou d",
            "ssa l",
            "h d",
            "f yan",
            "y o",
            "z ha",
            "s lam",
            "fa a",
            "ta h",
            "mi ne",
            "ad na",
            "i a",
            "za r",
            "ha ir",
            "g ha",
            "h m",
            "a l",
            "l e",
            "ha ti",
            "cha ib",
            "m r",
            "sa b",
            "oua n",
            "fa t",
            "ri a",
            "you n",
            "gha ni",
            "ti f",
            "ra n",
            "r bi",
            "e f",
            "fa y",
            "k h",
            "o m",
            "d ou",
            "ssi m",
            "y na",
            "na t",
            "ss ma",
            "w id",
            "i s",
            "mi n",
            "a nou",
            "ssa ne",
            "k rim",
            "sa m",
            "i n",
            "s t",
            "d er",
            "o mo",
            "wa y",
            "bi r",
            "ou tar",
            "ta m",
            "ri n",
            "ni s",
            "bo l",
            "zi a",
            "l o",
            "e k",
            "ya ne",
            "abd al",
            "do n",
            "r d",
            "mo n",
            "s l",
            "ma a",
            "id ri",
            "s m",
            "j e",
            "b d",
            "ta ou",
            "ha y",
            "a id",
            "k en",
            "d oua",
            "sa d",
            "sa f",
            "m id",
            "o b",
            "ri ne",
            "j id",
            "ou ad",
            "na bi",
            "ssa f",
            "ra f",
            "r o",
            "mi mou",
            "cha k",
            "fa l",
            "ab o",
            "ha j",
            "ch o",
            "s en",
            "zi n",
            "ya sse",
            "ss ima",
            "h id",
            "i h",
            "c hir",
            "ha b",
            "az z",
            "sa adi",
            "hm z",
            "d ya",
            "ni ss",
            "j da",
            "wi jda",
            "b ab",
            "ha d",
            "abd r",
            "b en",
            "mo kh",
            "hi ja",
            "mou d",
            "j ila",
            "ed ine",
            "a fa",
            "r da",
            "e g",
            "y la",
            "me st",
            "m ham",
            "a ti",
            "l ed",
            "ri f",
            "ch oua",
            "mar ya",
            "y em",
            "ra e",
            "lay man",
            "w fal",
            "ch ta",
            "wa ne",
            "s u",
            "su is",
            "mi lo",
            "f t",
            "ti sam",
            "ha r",
            "w san",
            "ed c",
            "ta n",
            "r ji",
            "na rji",
            "ss n",
            "w fik",
            "si f",
            "mi ya",
            "na di",
            "ja d",
            "h md",
            "s n",
            "me n",
            "l d",
            "w ld",
            "l ot",
            "w ha",
            "ja wha",
            "m n",
            "a ad",
            "you na",
            "o me",
            "c ed",
            "ss lam",
            "n nat",
            "ha mo",
            "mah bo",
            "r k",
            "la e",
            "l lah",
            "ra y",
            "ni m",
            "ya d",
            "t ri",
            "ti tri",
            "j ou",
            "w s",
            "sse n",
            "fi rda",
            "mah jou",
            "a wa",
            "m ss",
            "f o",
            "i tam",
            "d j",
            "wa c",
            "e z",
            "ou ah",
            "ma t",
            "c em",
            "ou cine",
            "y sa",
            "k ri",
            "di e",
            "o fik",
            "ou i",
            "f e",
            "i ssal",
            "y d",
            "r ya",
            "mal ek",
            "b oua",
            "m st",
            "z za",
            "h ed",
            "a ri",
            "z ho",
            "ja afa",
            "b k",
            "bou bk",
            "sl m",
            "fou d",
            "ch di",
            "f yane",
            "ja wi",
            "a si",
            "l ho",
            "t h",
            "y m",
            "y n",
            "sa yn",
            "z id",
            "z zak",
            "ra zzak",
            "abd ssa",
            "ai b",
            "c in",
            "e b",
            "y eb",
            "u ob",
            "e j",
            "f ti",
            "m med",
            "ou fal",
            "abd li",
            "mh m",
            "ej f",
            "b id",
            "c ef",
            "bou je",
            "zou bid",
            "a ma",
            "g h",
            "m y",
            "ra ne",
            "zi gh",
            "n bi",
            "a g",
            "adi r",
            "a no",
            "ham d",
            "ka ya",
            "eg j",
            "ss f",
            "o c",
            "a lah",
            "l t",
            "ka lt",
            "f j",
            "g er",
            "h j",
            "i ssma",
            "ss m",
            "fj d",
            "hj r",
            "n za",
            "k bir",
            "b e",
            "ri zla",
            "wa hd",
            "kha le",
            "i id",
            "s r",
            "k r",
            "kr m",
            "i k",
            "ra me",
            "na zi",
            "i ra",
            "k ab",
            "il lah",
            "s f",
            "m ra",
            "i ta",
            "k ita",
            "e med",
            "s lim",
            "a me",
            "h man",
            "w el",
            "z m",
            "l ta",
            "so lta",
            "ha q",
            "i mo",
            "j maa",
            "m m",
            "cha rk",
            "i ss",
            "t id",
            "g haf",
            "l hak",
            "ou r",
            "fa ta",
            "bd r",
            "f le",
            "u r",
            "d d",
            "o f",
            "dd g",
            "t tah",
            "ti ssa",
            "in tissa",
            "l tif",
            "x id",
            "z k",
            "ha sa",
            "ta fa",
            "s mo",
            "fi x",
            "sin yo",
            "m ha",
            "bou l",
            "y st",
            "ma yst",
            "b do",
            "k w",
            "o ssef",
            "t r",
            "u ossef",
            "l krim",
            "l l",
            "n v",
            "ha no",
            "fi q",
            "c ray",
            "n s",
            "y mar",
            "a il",
            "i chra",
            "fe s"
        ]
    }
}