{
    "version": "1.0",
    "truncation": null,
    "padding": null,
    "added_tokens": [
        {
            "id": 0,
            "content": "[UNK]",
            "single_word": false,
            "lstrip": false,
            "rstrip": false,
            "normalized": false,
            "special": true
        },
        {
            "id": 1,
            "content": "[CLS]",
            "single_word": false,
            "lstrip": false,
            "rstrip": false,
            "normalized": false,
            "special": true
        },
        {
            "id": 2,
            "content": "[SEP]",
            "single_word": false,
            "lstrip": false,
            "rstrip": false,
            "normalized": false,
            "special": true
        },
        {
            "id": 3,
            "content": "[PAD]",
            "single_word": false,
            "lstrip": false,
            "rstrip": false,
            "normalized": false,
            "special": true
        },
        {
            "id": 4,
            "content": "[MASK]",
            "single_word": false,
            "lstrip": false,
            "rstrip": false,
            "normalized": false,
            "special": true
        }
    ],
    "normalizer": null,
    "pre_tokenizer": {
        "type": "Whitespace"
    },
    "post_processor": null,
    "decoder": null,
    "model": {
        "type": "BPE",
        "dropout": null,
        "unk_token": "[UNK]",
        "continuing_subword_prefix": null,
        "end_of_word_suffix": null,
        "fuse_unk": false,
        "vocab": {
            "[UNK]": 0,
            "[CLS]": 1,
            "[SEP]": 2,
            "[PAD]": 3,
            "[MASK]": 4,
            "-": 5,
            "a": 6,
            "b": 7,
            "c": 8,
            "d": 9,
            "e": 10,
            "f": 11,
            "g": 12,
            "h": 13,
            "i": 14,
            "j": 15,
            "k": 16,
            "l": 17,
            "m": 18,
            "n": 19,
            "o": 20,
            "p": 21,
            "r": 22,
            "s": 23,
            "t": 24,
            "u": 25,
            "v": 26,
            "w": 27,
            "x": 28,
            "y": 29,
            "z": 30,
            "sh": 31,
            "an": 32,
            "ra": 33,
            "ar": 34,
            "esh": 35,
            "it": 36,
            "vi": 37,
            "ee": 38,
            "raj": 39,
            "am": 40,
            "su": 41,
            "ja": 42,
            "al": 43,
            "ish": 44,
            "il": 45,
            "ka": 46,
            "san": 47,
            "man": 48,
            "in": 49,
            "jay": 50,
            "sa": 51,
            "bh": 52,
            "nd": 53,
            "ku": 54,
            "na": 55,
            "pa": 56,
            "pra": 57,
            "oh": 58,
            "ul": 59,
            "dee": 60,
            "ma": 61,
            "ash": 62,
            "end": 63,
            "ch": 64,
            "ya": 65,
            "endra": 66,
            "mar": 67,
            "dh": 68,
            "ran": 69,
            "ram": 70,
            "on": 71,
            "kash": 72,
            "hul": 73,
            "pr": 74,
            "ik": 75,
            "jit": 76,
            "sha": 77,
            "un": 78,
            "sun": 79,
            "md": 80,
            "moh": 81,
            "th": 82,
            "ita": 83,
            "ir": 84,
            "ta": 85,
            "son": 86,
            "and": 87,
            "iv": 88,
            "kar": 89,
            "pak": 90,
            "ab": 91,
            "mu": 92,
            "osh": 93,
            "ip": 94,
            "eet": 95,
            "bha": 96,
            "oj": 97,
            "sur": 98,
            "mah": 99,
            "ush": 100,
            "ek": 101,
            "roh": 102,
            "go": 103,
            "yan": 104,
            "od": 105,
            "har": 106,
            "ti": 107,
            "ak": 108,
            "vin": 109,
            "ga": 110,
            "sant": 111,
            "iya": 112,
            "abh": 113,
            "ura": 114,
            "pan": 115,
            "ha": 116,
            "rish": 117,
            "ok": 118,
            "hil": 119,
            "tu": 120,
            "vee": 121,
            "shu": 122,
            "bab": 123,
            "ru": 124,
            "gan": 125,
            "dip": 126,
            "mit": 127,
            "din": 128,
            "par": 129,
            "as": 130,
            "yo": 131,
            "pu": 132,
            "im": 133,
            "po": 134,
            "ank": 135,
            "om": 136,
            "wan": 137,
            "ck": 138,
            "pin": 139,
            "kaj": 140,
            "el": 141,
            "nit": 142,
            "anu": 143,
            "ju": 144,
            "sam": 145,
            "ad": 146,
            "jan": 147,
            "sat": 148,
            "pal": 149,
            "vind": 150,
            "lu": 151,
            "veen": 152,
            "nar": 153,
            "cky": 154,
            "gesh": 155,
            "sw": 156,
            "sk": 157,
            "urav": 158,
            "ut": 159,
            "kam": 160,
            "han": 161,
            "gar": 162,
            "nu": 163,
            "bham": 164,
            "ki": 165,
            "oja": 166,
            "ishek": 167,
            "va": 168,
            "dhar": 169,
            "ri": 170,
            "de": 171,
            "ne": 172,
            "rat": 173,
            "ni": 174,
            "la": 175,
            "vina": 176,
            "ika": 177,
            "kish": 178,
            "hi": 179,
            "swa": 180,
            "jal": 181,
            "et": 182,
            "dil": 183,
            "ed": 184,
            "ali": 185,
            "bi": 186,
            "ji": 187,
            "rin": 188,
            "sar": 189,
            "if": 190,
            "rit": 191,
            "du": 192,
            "yam": 193,
            "so": 194,
            "eev": 195,
            "mon": 196,
            "dha": 197,
            "moham": 198,
            "um": 199,
            "or": 200,
            "ilesh": 201,
            "jun": 202,
            "sal": 203,
            "ce": 204,
            "ince": 205,
            "dev": 206,
            "en": 207,
            "er": 208,
            "van": 209,
            "mi": 210,
            "bal": 211,
            "vika": 212,
            "mad": 213,
            "ay": 214,
            "mod": 215,
            "em": 216,
            "dul": 217,
            "eena": 218,
            "pi": 219,
            "dharm": 220,
            "nik": 221,
            "kul": 222,
            "vek": 223,
            "lal": 224,
            "re": 225,
            "ud": 226,
            "lax": 227,
            "pat": 228,
            "shad": 229,
            "bhav": 230,
            "nee": 231,
            "he": 232,
            "kan": 233,
            "yu": 234,
            "lo": 235,
            "pesh": 236,
            "vik": 237,
            "jyo": 238,
            "ender": 239,
            "eer": 240,
            "ba": 241,
            "tik": 242,
            "ny": 243,
            "av": 244,
            "di": 245,
            "kal": 246,
            "utam": 247,
            "shil": 248,
            "kh": 249,
            "ppu": 250,
            "sanj": 251,
            "sad": 252,
            "dish": 253,
            "mith": 254,
            "madh": 255,
            "sang": 256,
            "subh": 257,
            "rosh": 258,
            "urabh": 259,
            "bin": 260,
            "rag": 261,
            "prit": 262,
            "mal": 263,
            "etan": 264,
            "shi": 265,
            "ol": 266,
            "mun": 267,
            "shash": 268,
            "sub": 269,
            "eeta": 270,
            "kun": 271,
            "at": 272,
            "chi": 273,
            "ini": 274,
            "ro": 275,
            "avina": 276,
            "karth": 277,
            "war": 278,
            "ant": 279,
            "rek": 280,
            "dhi": 281,
            "kail": 282,
            "mam": 283,
            "heman": 284,
            "onam": 285,
            "gud": 286,
            "anjal": 287,
            "lam": 288,
            "lak": 289,
            "see": 290,
            "mayu": 291,
            "tam": 292,
            "div": 293,
            "bhu": 294,
            "manshu": 295,
            "khush": 296,
            "shmi": 297,
            "gdish": 298,
            "dhir": 299,
            "pendra": 300,
            "sy": 301,
            "bip": 302,
            "siv": 303,
            "me": 304,
            "kom": 305,
            "andan": 306,
            "hit": 307,
            "sai": 308,
            "fan": 309,
            "hid": 310,
            "dur": 311,
            "tin": 312,
            "ndan": 313,
            "radh": 314,
            "med": 315,
            "sin": 316,
            "pil": 317,
            "endar": 318,
            "bit": 319,
            "si": 320,
            "ang": 321,
            "pran": 322,
            "ven": 323,
            "kat": 324,
            "dam": 325,
            "oy": 326,
            "swajit": 327,
            "pna": 328,
            "was": 329,
            "pay": 330,
            "tha": 331,
            "rath": 332,
            "soh": 333,
            "srin": 334,
            "sath": 335,
            "anura": 336,
            "vel": 337,
            "lovel": 338,
            "nil": 339,
            "shal": 340,
            "prasan": 341,
            "nir": 342,
            "ibhav": 343,
            "mita": 344,
            "eta": 345,
            "ushan": 346,
            "gn": 347,
            "gnesh": 348,
            "gul": 349,
            "tush": 350,
            "yush": 351,
            "bir": 352,
            "otu": 353,
            "aru": 354,
            "dik": 355,
            "push": 356,
            "fir": 357,
            "sak": 358,
            "cha": 359,
            "abha": 360,
            "ashw": 361,
            "eem": 362,
            "mo": 363,
            "mayan": 364,
            "pul": 365,
            "kaush": 366,
            "min": 367,
            "vir": 368,
            "ved": 369,
            "bhas": 370,
            "sid": 371,
            "ani": 372,
            "ravan": 373,
            "dhav": 374,
            "rush": 375,
            "rik": 376,
            "dar": 377,
            "bind": 378,
            "nand": 379,
            "neet": 380,
            "fa": 381,
            "sava": 382,
            "gendra": 383,
            "var": 384,
            "ankar": 385,
            "hu": 386,
            "jai": 387,
            "kir": 388,
            "ky": 389,
            "kur": 390,
            "pun": 391,
            "pnil": 392,
            "bik": 393,
            "gh": 394,
            "arp": 395,
            "bri": 396,
            "jesh": 397,
            "eeraj": 398,
            "sandh": 399,
            "rajpu": 400,
            "andana": 401,
            "rad": 402,
            "sen": 403,
            "ashut": 404,
            "joh": 405,
            "li": 406,
            "zwan": 407,
            "khushb": 408,
            "oo": 409,
            "bish": 410,
            "mee": 411,
            "thu": 412,
            "mura": 413,
            "santh": 414,
            "az": 415,
            "weta": 416,
            "anjay": 417,
            "musk": 418,
            "pana": 419,
            "eep": 420,
            "chau": 421,
            "uma": 422,
            "ib": 423,
            "sri": 424,
            "gu": 425,
            "anm": 426,
            "rk": 427,
            "gir": 428,
            "ishali": 429,
            "prati": 430,
            "joy": 431,
            "som": 432,
            "hir": 433,
            "shar": 434,
            "manoh": 435,
            "shek": 436,
            "mir": 437,
            "iz": 438,
            "ivas": 439,
            "odh": 440,
            "pas": 441,
            "dharth": 442,
            "nadee": 443,
            "prata": 444,
            "rashi": 445,
            "ghan": 446,
            "rupal": 447,
            "khi": 448,
            "sir": 449,
            "mil": 450,
            "ola": 451,
            "palla": 452,
            "hotu": 453,
            "thak": 454,
            "saravan": 455,
            "shma": 456,
            "sanji": 457,
            "suja": 458,
            "oz": 459,
            "anta": 460,
            "rata": 461,
            "ban": 462,
            "shit": 463,
            "ala": 464,
            "ilendra": 465,
            "gha": 466,
            "shru": 467,
            "bita": 468,
            "no": 469,
            "ket": 470,
            "af": 471,
            "tab": 472,
            "eety": 473,
            "vraj": 474,
            "gajan": 475,
            "bad": 476,
            "dav": 477,
            "nav": 478,
            "eik": 479,
            "anam": 480,
            "ind": 481,
            "wal": 482,
            "dhru": 483,
            "bar": 484,
            "shre": 485,
            "gal": 486,
            "ev": 487,
            "las": 488,
            "srik": 489,
            "anth": 490,
            "yak": 491,
            "eja": 492,
            "inav": 493,
            "vya": 494,
            "dra": 495,
            "shrik": 496,
            "jendra": 497,
            "ras": 498,
            "thi": 499,
            "obha": 500,
            "pk": 501,
            "lank": 502,
            "sheet": 503,
            "rav": 504,
            "solank": 505,
            "thil": 506,
            "shik": 507,
            "nak": 508,
            "dya": 509,
            "oth": 510,
            "aj": 511,
            "dn": 512,
            "eshwar": 513,
            "yaneshwar": 514,
            "aad": 515,
            "usu": 516,
            "mousu": 517,
            "dat": 518,
            "nan": 519,
            "vesh": 520,
            "kant": 521,
            "tri": 522,
            "yatri": 523,
            "bun": 524,
            "ty": 525,
            "sum": 526,
            "het": 527,
            "jeev": 528,
            "hav": 529,
            "avi": 530,
            "sund": 531,
            "manyu": 532,
            "hilesh": 533,
            "bim": 534,
            "kshi": 535,
            "yendra": 536,
            "rukh": 537,
            "basava": 538,
            "anoo": 539,
            "bas": 540,
            "prasen": 541,
            "debas": 542,
            "sik": 543,
            "andar": 544,
            "ou": 545,
            "chou": 546,
            "dhary": 547,
            "ushad": 548,
            "apar": 549,
            "rmil": 550,
            "urmil": 551,
            "yaz": 552,
            "tiyaz": 553,
            "rabind": 554,
            "desh": 555,
            "gun": 556,
            "krush": 557,
            "lab": 558,
            "nam": 559,
            "ikant": 560,
            "pam": 561,
            "rni": 562,
            "jagan": 563,
            "chal": 564,
            "purni": 565,
            "ppa": 566,
            "ina": 567,
            "ful": 568,
            "hal": 569,
            "hem": 570,
            "kti": 571,
            "sne": 572,
            "arba": 573,
            "sahe": 574,
            "sharu": 575,
            "dash": 576,
            "akshi": 577,
            "ree": 578,
            "hanu": 579,
            "gwan": 580,
            "rant": 581,
            "gobind": 582,
            "kr": 583,
            "shrad": 584,
            "unal": 585,
            "jj": 586,
            "kin": 587,
            "ujj": 588,
            "ata": 589,
            "sta": 590,
            "pabit": 591,
            "musta": 592,
            "umita": 593,
            "raz": 594,
            "sarfa": 595,
            "tan": 596,
            "may": 597,
            "soum": 598,
            "ko": 599,
            "anan": 600,
            "eel": 601,
            "ushik": 602,
            "nikun": 603,
            "hl": 604,
            "shman": 605,
            "prahl": 606,
            "eshyam": 607,
            "rajit": 608,
            "ela": 609,
            "vagh": 610,
            "arga": 611,
            "bharga": 612,
            "uti": 613,
            "bant": 614,
            "inash": 615,
            "path": 616,
            "tee": 617,
            "sukan": 618,
            "pratee": 619,
            "aa": 620,
            "vit": 621,
            "thal": 622,
            "bhang": 623,
            "shubhang": 624,
            "tanm": 625,
            "karsh": 626,
            "das": 627,
            "ojit": 628,
            "dim": 629,
            "praj": 630,
            "bhi": 631,
            "dhesh": 632,
            "goh": 633,
            "mrin": 634,
            "pand": 635,
            "aar": 636,
            "ohi": 637
        },
        "merges": [
            "s h",
            "a n",
            "r a",
            "a r",
            "e sh",
            "i t",
            "v i",
            "e e",
            "ra j",
            "a m",
            "s u",
            "j a",
            "a l",
            "i sh",
            "i l",
            "k a",
            "s an",
            "m an",
            "i n",
            "ja y",
            "s a",
            "b h",
            "n d",
            "k u",
            "n a",
            "p a",
            "p ra",
            "o h",
            "u l",
            "d ee",
            "m a",
            "a sh",
            "e nd",
            "c h",
            "y a",
            "end ra",
            "m ar",
            "d h",
            "r an",
            "ra m",
            "o n",
            "ka sh",
            "h ul",
            "p r",
            "i k",
            "j it",
            "sh a",
            "u n",
            "su n",
            "m d",
            "m oh",
            "t h",
            "it a",
            "i r",
            "t a",
            "s on",
            "an d",
            "i v",
            "k ar",
            "pa k",
            "a b",
            "m u",
            "o sh",
            "i p",
            "ee t",
            "bh a",
            "o j",
            "su r",
            "ma h",
            "u sh",
            "e k",
            "r oh",
            "g o",
            "y an",
            "o d",
            "h ar",
            "t i",
            "a k",
            "vi n",
            "g a",
            "san t",
            "i ya",
            "a bh",
            "u ra",
            "p an",
            "h a",
            "r ish",
            "o k",
            "h il",
            "t u",
            "v ee",
            "sh u",
            "b ab",
            "r u",
            "g an",
            "d ip",
            "m it",
            "d in",
            "p ar",
            "a s",
            "y o",
            "p u",
            "i m",
            "p o",
            "an k",
            "o m",
            "w an",
            "c k",
            "p in",
            "ka j",
            "e l",
            "n it",
            "an u",
            "j u",
            "s am",
            "a d",
            "j an",
            "sa t",
            "p al",
            "vi nd",
            "l u",
            "vee n",
            "n ar",
            "ck y",
            "g esh",
            "s w",
            "s k",
            "ura v",
            "u t",
            "k am",
            "h an",
            "g ar",
            "n u",
            "bh am",
            "k i",
            "o ja",
            "ish ek",
            "v a",
            "dh ar",
            "r i",
            "d e",
            "n e",
            "ra t",
            "n i",
            "l a",
            "vi na",
            "i ka",
            "k ish",
            "h i",
            "sw a",
            "ja l",
            "e t",
            "d il",
            "e d",
            "al i",
            "b i",
            "j i",
            "r in",
            "s ar",
            "i f",
            "r it",
            "d u",
            "y am",
            "s o",
            "ee v",
            "m on",
            "dh a",
            "moh am",
            "u m",
            "o r",
            "il esh",
            "j un",
            "s al",
            "c e",
            "in ce",
            "de v",
            "e n",
            "e r",
            "v an",
            "m i",
            "b al",
            "vi ka",
            "ma d",
            "a y",
            "m od",
            "e m",
            "d ul",
            "ee na",
            "p i",
            "dhar m",
            "n ik",
            "ku l",
            "v ek",
            "l al",
            "r e",
            "u d",
            "la x",
            "pa t",
            "sha d",
            "bha v",
            "n ee",
            "h e",
            "k an",
            "y u",
            "l o",
            "p esh",
            "vi k",
            "j yo",
            "end er",
            "ee r",
            "b a",
            "t ik",
            "n y",
            "a v",
            "d i",
            "k al",
            "ut am",
            "sh il",
            "k h",
            "p pu",
            "san j",
            "sa d",
            "d ish",
            "mit h",
            "ma dh",
            "san g",
            "su bh",
            "r osh",
            "ura bh",
            "b in",
            "ra g",
            "pr it",
            "m al",
            "et an",
            "sh i",
            "o l",
            "m un",
            "sh ash",
            "su b",
            "ee ta",
            "ku n",
            "a t",
            "ch i",
            "in i",
            "r o",
            "a vina",
            "kar th",
            "w ar",
            "an t",
            "r ek",
            "dh i",
            "ka il",
            "m am",
            "he man",
            "on am",
            "g ud",
            "an jal",
            "l am",
            "l ak",
            "s ee",
            "ma yu",
            "t am",
            "d iv",
            "bh u",
            "man shu",
            "kh ush",
            "sh mi",
            "g dish",
            "dh ir",
            "p endra",
            "s y",
            "b ip",
            "s iv",
            "m e",
            "k om",
            "and an",
            "h it",
            "sa i",
            "f an",
            "hi d",
            "du r",
            "t in",
            "nd an",
            "ra dh",
            "m ed",
            "s in",
            "p il",
            "end ar",
            "b it",
            "s i",
            "an g",
            "p ran",
            "v en",
            "ka t",
            "d am",
            "o y",
            "swa jit",
            "p na",
            "w as",
            "pa y",
            "th a",
            "ra th",
            "s oh",
            "s rin",
            "sa th",
            "an ura",
            "v el",
            "lo vel",
            "n il",
            "sh al",
            "pra san",
            "n ir",
            "i bhav",
            "m ita",
            "e ta",
            "ush an",
            "g n",
            "gn esh",
            "g ul",
            "t ush",
            "y ush",
            "b ir",
            "o tu",
            "ar u",
            "d ik",
            "p ush",
            "f ir",
            "sa k",
            "ch a",
            "a bha",
            "ash w",
            "ee m",
            "m o",
            "ma yan",
            "p ul",
            "ka ush",
            "m in",
            "vi r",
            "v ed",
            "bha s",
            "si d",
            "an i",
            "ra van",
            "dha v",
            "r ush",
            "r ik",
            "d ar",
            "bin d",
            "n and",
            "n eet",
            "f a",
            "sa va",
            "g endra",
            "v ar",
            "an kar",
            "h u",
            "ja i",
            "k ir",
            "k y",
            "ku r",
            "p un",
            "p nil",
            "b ik",
            "g h",
            "ar p",
            "b ri",
            "j esh",
            "ee raj",
            "san dh",
            "raj pu",
            "andan a",
            "ra d",
            "s en",
            "ash ut",
            "j oh",
            "l i",
            "z wan",
            "khush b",
            "o o",
            "b ish",
            "m ee",
            "th u",
            "mu ra",
            "san th",
            "a z",
            "w eta",
            "an jay",
            "mu sk",
            "pan a",
            "ee p",
            "cha u",
            "u ma",
            "i b",
            "s ri",
            "g u",
            "an m",
            "r k",
            "g ir",
            "ish ali",
            "pra ti",
            "j oy",
            "s om",
            "h ir",
            "sh ar",
            "man oh",
            "sh ek",
            "m ir",
            "i z",
            "iv as",
            "o dh",
            "pa s",
            "dhar th",
            "na dee",
            "pra ta",
            "ra shi",
            "g han",
            "ru pal",
            "k hi",
            "s ir",
            "m il",
            "o la",
            "pal la",
            "h otu",
            "th ak",
            "sa ravan",
            "sh ma",
            "san ji",
            "su ja",
            "o z",
            "an ta",
            "ra ta",
            "b an",
            "sh it",
            "al a",
            "il endra",
            "g ha",
            "sh ru",
            "b ita",
            "n o",
            "k et",
            "a f",
            "ta b",
            "eet y",
            "v raj",
            "ga jan",
            "b ad",
            "d av",
            "na v",
            "e ik",
            "an am",
            "in d",
            "w al",
            "dh ru",
            "b ar",
            "sh re",
            "g al",
            "e v",
            "l as",
            "s rik",
            "an th",
            "ya k",
            "e ja",
            "in av",
            "v ya",
            "d ra",
            "sh rik",
            "j endra",
            "ra s",
            "th i",
            "o bha",
            "p k",
            "l ank",
            "sh eet",
            "ra v",
            "so lank",
            "th il",
            "sh ik",
            "na k",
            "d ya",
            "o th",
            "a j",
            "d n",
            "esh war",
            "yan eshwar",
            "a ad",
            "u su",
            "mo usu",
            "d at",
            "n an",
            "v esh",
            "kan t",
            "t ri",
            "ya tri",
            "b un",
            "t y",
            "su m",
            "h et",
            "j eev",
            "ha v",
            "a vi",
            "su nd",
            "man yu",
            "hil esh",
            "b im",
            "k shi",
            "y endra",
            "ru kh",
            "ba sava",
            "an oo",
            "b as",
            "pra sen",
            "de bas",
            "s ik",
            "and ar",
            "o u",
            "ch ou",
            "dhar y",
            "u shad",
            "a par",
            "r mil",
            "u rmil",
            "ya z",
            "ti yaz",
            "ra bind",
            "d esh",
            "g un",
            "k rush",
            "l ab",
            "n am",
            "ik ant",
            "p am",
            "r ni",
            "ja gan",
            "ch al",
            "pu rni",
            "p pa",
            "in a",
            "f ul",
            "h al",
            "h em",
            "k ti",
            "s ne",
            "ar ba",
            "sa he",
            "sh aru",
            "d ash",
            "ak shi",
            "r ee",
            "h anu",
            "g wan",
            "ran t",
            "go bind",
            "k r",
            "sh rad",
            "un al",
            "j j",
            "k in",
            "u jj",
            "a ta",
            "s ta",
            "pa bit",
            "mu sta",
            "um ita",
            "ra z",
            "sar fa",
            "t an",
            "ma y",
            "so um",
            "k o",
            "an an",
            "ee l",
            "ush ik",
            "ni kun",
            "h l",
            "sh man",
            "pra hl",
            "esh yam",
            "raj it",
            "el a",
            "va gh",
            "ar ga",
            "bh arga",
            "u ti",
            "b ant",
            "in ash",
            "pa th",
            "t ee",
            "su kan",
            "pra tee",
            "a a",
            "v it",
            "th al",
            "bh ang",
            "shu bhang",
            "t anm",
            "kar sh",
            "d as",
            "o jit",
            "d im",
            "p raj",
            "bh i",
            "dh esh",
            "g oh",
            "m rin",
            "p and",
            "a ar",
            "oh i"
        ]
    }
}