{
  "version": "1.0",
  "truncation": null,
  "padding": null,
  "added_tokens": [
    {
      "id": 0,
      "content": "[UNK]",
      "single_word": false,
      "lstrip": false,
      "rstrip": false,
      "normalized": false,
      "special": true
    },
    {
      "id": 1,
      "content": "[CLS]",
      "single_word": false,
      "lstrip": false,
      "rstrip": false,
      "normalized": false,
      "special": true
    },
    {
      "id": 2,
      "content": "[SEP]",
      "single_word": false,
      "lstrip": false,
      "rstrip": false,
      "normalized": false,
      "special": true
    },
    {
      "id": 3,
      "content": "[PAD]",
      "single_word": false,
      "lstrip": false,
      "rstrip": false,
      "normalized": false,
      "special": true
    },
    {
      "id": 4,
      "content": "[MASK]",
      "single_word": false,
      "lstrip": false,
      "rstrip": false,
      "normalized": false,
      "special": true
    }
  ],
  "normalizer": null,
  "pre_tokenizer": {
    "type": "Whitespace"
  },
  "post_processor": null,
  "decoder": null,
  "model": {
    "type": "BPE",
    "dropout": null,
    "unk_token": "[UNK]",
    "continuing_subword_prefix": null,
    "end_of_word_suffix": null,
    "fuse_unk": false,
    "vocab": {
      "[UNK]": 0,
      "[CLS]": 1,
      "[SEP]": 2,
      "[PAD]": 3,
      "[MASK]": 4,
      "-": 5,
      "a": 6,
      "b": 7,
      "c": 8,
      "d": 9,
      "e": 10,
      "f": 11,
      "g": 12,
      "h": 13,
      "i": 14,
      "j": 15,
      "k": 16,
      "l": 17,
      "m": 18,
      "n": 19,
      "o": 20,
      "p": 21,
      "q": 22,
      "r": 23,
      "s": 24,
      "t": 25,
      "u": 26,
      "v": 27,
      "w": 28,
      "x": 29,
      "y": 30,
      "z": 31,
      "na": 32,
      "ar": 33,
      "an": 34,
      "sz": 35,
      "ka": 36,
      "ta": 37,
      "ia": 38,
      "al": 39,
      "mar": 40,
      "rz": 41,
      "la": 42,
      "ek": 43,
      "mi": 44,
      "ma": 45,
      "ie": 46,
      "to": 47,
      "anna": 48,
      "yna": 49,
      "el": 50,
      "ina": 51,
      "usz": 52,
      "pa": 53,
      "ena": 54,
      "ra": 55,
      "da": 56,
      "tr": 57,
      "ol": 58,
      "ja": 59,
      "law": 60,
      "slaw": 61,
      "go": 62,
      "ata": 63,
      "st": 64,
      "ni": 65,
      "ro": 66,
      "rze": 67,
      "bar": 68,
      "ag": 69,
      "be": 70,
      "and": 71,
      "gorz": 72,
      "io": 73,
      "nie": 74,
      "ch": 75,
      "wel": 76,
      "nika": 77,
      "in": 78,
      "rzy": 79,
      "sia": 80,
      "zyna": 81,
      "pio": 82,
      "piotr": 83,
      "mo": 84,
      "szka": 85,
      "agnie": 86,
      "agnieszka": 87,
      "wi": 88,
      "do": 89,
      "iusz": 90,
      "marc": 91,
      "te": 92,
      "kar": 93,
      "krzy": 94,
      "lu": 95,
      "mag": 96,
      "ry": 97,
      "mich": 98,
      "jo": 99,
      "marcin": 100,
      "michal": 101,
      "pawel": 102,
      "wo": 103,
      "mal": 104,
      "ian": 105,
      "tof": 106,
      "sztof": 107,
      "krzysztof": 108,
      "tar": 109,
      "karol": 110,
      "katar": 111,
      "katarzyna": 112,
      "ew": 113,
      "lia": 114,
      "ju": 115,
      "monika": 116,
      "ewa": 117,
      "luka": 118,
      "malgorz": 119,
      "malgorzata": 120,
      "styna": 121,
      "lukasz": 122,
      "masz": 123,
      "tomasz": 124,
      "dan": 125,
      "jan": 126,
      "kami": 127,
      "alena": 128,
      "joanna": 129,
      "sand": 130,
      "dalena": 131,
      "magdalena": 132,
      "zb": 133,
      "teusz": 134,
      "rzej": 135,
      "ber": 136,
      "ba": 137,
      "mateusz": 138,
      "andrzej": 139,
      "ga": 140,
      "cie": 141,
      "grze": 142,
      "patr": 143,
      "patry": 144,
      "cja": 145,
      "bo": 146,
      "ada": 147,
      "bert": 148,
      "marta": 149,
      "dar": 150,
      "alek": 151,
      "marek": 152,
      "karolina": 153,
      "sandra": 154,
      "grzegorz": 155,
      "adam": 156,
      "beata": 157,
      "ur": 158,
      "ku": 159,
      "zena": 160,
      "kry": 161,
      "raf": 162,
      "pau": 163,
      "rafal": 164,
      "bara": 165,
      "barbara": 166,
      "mariusz": 167,
      "wia": 168,
      "sy": 169,
      "nata": 170,
      "aleksandra": 171,
      "stian": 172,
      "re": 173,
      "kasia": 174,
      "eta": 175,
      "ania": 176,
      "doro": 177,
      "kamil": 178,
      "woj": 179,
      "rena": 180,
      "dorota": 181,
      "syl": 182,
      "lina": 183,
      "sa": 184,
      "justyna": 185,
      "natalia": 186,
      "paulina": 187,
      "iwo": 188,
      "tek": 189,
      "robert": 190,
      "za": 191,
      "iwona": 192,
      "dia": 193,
      "domi": 194,
      "ola": 195,
      "ieta": 196,
      "elzb": 197,
      "elzbieta": 198,
      "maria": 199,
      "mek": 200,
      "er": 201,
      "jac": 202,
      "dawi": 203,
      "dawid": 204,
      "jacek": 205,
      "iza": 206,
      "sylwia": 207,
      "li": 208,
      "macie": 209,
      "maciej": 210,
      "aneta": 211,
      "agata": 212,
      "mian": 213,
      "damian": 214,
      "ad": 215,
      "se": 216,
      "art": 217,
      "gra": 218,
      "krystyna": 219,
      "artur": 220,
      "prze": 221,
      "jar": 222,
      "iel": 223,
      "seba": 224,
      "dariusz": 225,
      "patrycja": 226,
      "adr": 227,
      "kub": 228,
      "jakub": 229,
      "iek": 230,
      "ewel": 231,
      "danu": 232,
      "ewelina": 233,
      "lo": 234,
      "sebastian": 235,
      "lau": 236,
      "grazyna": 237,
      "alina": 238,
      "bog": 239,
      "ani": 240,
      "anta": 241,
      "danuta": 242,
      "jol": 243,
      "ed": 244,
      "ze": 245,
      "jolanta": 246,
      "daniel": 247,
      "de": 248,
      "patryk": 249,
      "renata": 250,
      "tere": 251,
      "slawa": 252,
      "teresa": 253,
      "ciech": 254,
      "wojciech": 255,
      "mie": 256,
      "we": 257,
      "magda": 258,
      "bozena": 259,
      "klau": 260,
      "ali": 261,
      "tor": 262,
      "mir": 263,
      "alicja": 264,
      "mon": 265,
      "ktor": 266,
      "on": 267,
      "klaudia": 268,
      "nik": 269,
      "marzena": 270,
      "szy": 271,
      "adrian": 272,
      "szymon": 273,
      "ula": 274,
      "wie": 275,
      "yta": 276,
      "wiktor": 277,
      "yslaw": 278,
      "rad": 279,
      "ig": 280,
      "dominika": 281,
      "kamila": 282,
      "tomek": 283,
      "ard": 284,
      "bela": 285,
      "izabela": 286,
      "niew": 287,
      "zbig": 288,
      "zbigniew": 289,
      "szek": 290,
      "mart": 291,
      "janusz": 292,
      "zi": 293,
      "miro": 294,
      "bartek": 295,
      "edyta": 296,
      "je": 297,
      "le": 298,
      "kuba": 299,
      "halina": 300,
      "julia": 301,
      "inga": 302,
      "tosz": 303,
      "bartosz": 304,
      "stani": 305,
      "lena": 306,
      "martyna": 307,
      "emi": 308,
      "jaro": 309,
      "kinga": 310,
      "iola": 311,
      "ronika": 312,
      "weronika": 313,
      "zo": 314,
      "jerzy": 315,
      "jaroslaw": 316,
      "per": 317,
      "bogu": 318,
      "cper": 319,
      "kacper": 320,
      "ole": 321,
      "szula": 322,
      "urszula": 323,
      "wojtek": 324,
      "irena": 325,
      "ela": 326,
      "gosia": 327,
      "dominik": 328,
      "tta": 329,
      "siek": 330,
      "rysz": 331,
      "ryszard": 332,
      "ika": 333,
      "man": 334,
      "przem": 335,
      "krystian": 336,
      "przemyslaw": 337,
      "en": 338,
      "slawo": 339,
      "diusz": 340,
      "stanislaw": 341,
      "jad": 342,
      "slawomir": 343,
      "gab": 344,
      "wiktoria": 345,
      "arka": 346,
      "arkadiusz": 347,
      "kon": 348,
      "mariola": 349,
      "wiga": 350,
      "jadwiga": 351,
      "roman": 352,
      "oli": 353,
      "zu": 354,
      "elika": 355,
      "miroslaw": 356,
      "przemek": 357,
      "ang": 358,
      "konrad": 359,
      "asia": 360,
      "oletta": 361,
      "leszek": 362,
      "fia": 363,
      "zofia": 364,
      "iela": 365,
      "wal": 366,
      "daria": 367,
      "deusz": 368,
      "ciek": 369,
      "maciek": 370,
      "fi": 371,
      "darek": 372,
      "lip": 373,
      "filip": 374,
      "angelika": 375,
      "tadeusz": 376,
      "emilia": 377,
      "ryk": 378,
      "hen": 379,
      "basia": 380,
      "zuz": 381,
      "jarek": 382,
      "gabr": 383,
      "zimie": 384,
      "luc": 385,
      "mik": 386,
      "or": 387,
      "wioletta": 388,
      "hanna": 389,
      "bogdan": 390,
      "wieslaw": 391,
      "bart": 392,
      "krzysiek": 393,
      "ilo": 394,
      "gabriela": 395,
      "joze": 396,
      "jozef": 397,
      "demar": 398,
      "waldemar": 399,
      "arek": 400,
      "ilona": 401,
      "zimierz": 402,
      "rado": 403,
      "radoslaw": 404,
      "lucyna": 405,
      "slawek": 406,
      "janina": 407,
      "lidia": 408,
      "oliwia": 409,
      "maja": 410,
      "piotrek": 411,
      "lomie": 412,
      "bartlomie": 413,
      "bartlomiej": 414,
      "mikola": 415,
      "henryk": 416,
      "vi": 417,
      "mikolaj": 418,
      "hu": 419,
      "hubert": 420,
      "anita": 421,
      "marlena": 422,
      "olga": 423,
      "aleksand": 424,
      "jola": 425,
      "marian": 426,
      "aga": 427,
      "elia": 428,
      "radek": 429,
      "dzi": 430,
      "zdzi": 431,
      "wieslawa": 432,
      "ste": 433,
      "zuzanna": 434,
      "bina": 435,
      "sabina": 436,
      "ne": 437,
      "aleksander": 438,
      "ianna": 439,
      "gor": 440,
      "elena": 441,
      "milena": 442,
      "mara": 443,
      "marcel": 444,
      "cze": 445,
      "wan": 446,
      "igor": 447,
      "kazimierz": 448,
      "wanda": 449,
      "mila": 450,
      "mu": 451,
      "dag": 452,
      "mary": 453,
      "zen": 454,
      "ksa": 455,
      "mirek": 456,
      "dagmara": 457,
      "helena": 458,
      "stef": 459,
      "os": 460,
      "lad": 461,
      "zdzislaw": 462,
      "miroslawa": 463,
      "cz": 464,
      "karina": 465,
      "ce": 466,
      "ksana": 467,
      "berna": 468,
      "zaneta": 469,
      "oskar": 470,
      "ire": 471,
      "sta": 472,
      "jago": 473,
      "ster": 474,
      "sylwe": 475,
      "jagoda": 476,
      "sylwester": 477,
      "kor": 478,
      "anto": 479,
      "neusz": 480,
      "ireneusz": 481,
      "paula": 482,
      "wiol": 483,
      "nikola": 484,
      "boguslaw": 485,
      "nor": 486,
      "emil": 487,
      "zby": 488,
      "iana": 489,
      "norbert": 490,
      "rek": 491,
      "ge": 492,
      "wioleta": 493,
      "korn": 494,
      "mak": 495,
      "zosia": 496,
      "zbyszek": 497,
      "bogumila": 498,
      "zar": 499,
      "tol": 500,
      "wina": 501,
      "malwina": 502,
      "si": 503,
      "ward": 504,
      "edward": 505,
      "ara": 506,
      "cezar": 507,
      "cezary": 508,
      "mun": 509,
      "zia": 510,
      "zej": 511,
      "witol": 512,
      "witold": 513,
      "miecz": 514,
      "wlad": 515,
      "jul": 516,
      "bla": 517,
      "marysia": 518,
      "blazej": 519,
      "roksana": 520,
      "milo": 521,
      "milosz": 522,
      "am": 523,
      "stefan": 524,
      "fr": 525,
      "fran": 526,
      "lod": 527,
      "nina": 528,
      "ska": 529,
      "eu": 530,
      "ana": 531,
      "zuzia": 532,
      "adrianna": 533,
      "wlod": 534,
      "malgosia": 535,
      "reg": 536,
      "zy": 537,
      "juli": 538,
      "mieczyslaw": 539,
      "boguslawa": 540,
      "nia": 541,
      "olek": 542,
      "hania": 543,
      "sara": 544,
      "michalina": 545,
      "ii": 546,
      "ala": 547,
      "antoni": 548,
      "czeslaw": 549,
      "geni": 550,
      "stanislawa": 551,
      "anka": 552,
      "grzesiek": 553,
      "kornelia": 554,
      "ex": 555,
      "ty": 556,
      "alex": 557,
      "julita": 558,
      "zyg": 559,
      "fa": 560,
      "aldo": 561,
      "aldona": 562,
      "regina": 563,
      "amelia": 564,
      "violetta": 565,
      "eliza": 566,
      "wiola": 567,
      "ser": 568,
      "eugeni": 569,
      "eugeniusz": 570,
      "munt": 571,
      "wlodzimierz": 572,
      "zygmunt": 573,
      "janek": 574,
      "laura": 575,
      "marianna": 576,
      "dek": 577,
      "bernad": 578,
      "cy": 579,
      "marcelina": 580,
      "zenon": 581,
      "bernadeta": 582,
      "wladyslaw": 583,
      "mil": 584,
      "giusz": 585,
      "iga": 586,
      "son": 587,
      "sonia": 588,
      "elina": 589,
      "diana": 590,
      "ora": 591,
      "onora": 592,
      "bogusia": 593,
      "tiana": 594,
      "adriana": 595,
      "ri": 596,
      "zuza": 597,
      "ir": 598,
      "gi": 599,
      "ella": 600,
      "eryk": 601,
      "ti": 602,
      "remi": 603,
      "maksy": 604,
      "alan": 605,
      "ci": 606,
      "pan": 607,
      "waldek": 608,
      "gen": 609,
      "dzia": 610,
      "jurek": 611,
      "ryka": 612,
      "franci": 613,
      "irek": 614,
      "madzia": 615,
      "elwi": 616,
      "lech": 617,
      "elwira": 618,
      "lucja": 619,
      "honora": 620,
      "leta": 621,
      "arleta": 622,
      "julka": 623,
      "honorata": 624,
      "bro": 625,
      "remigiusz": 626,
      "gabry": 627,
      "rd": 628,
      "krysia": 629,
      "henryka": 630,
      "franciszek": 631,
      "kaja": 632,
      "wa": 633,
      "tatiana": 634,
      "ewe": 635,
      "maks": 636,
      "celina": 637,
      "tom": 638,
      "mirka": 639,
      "bian": 640,
      "ru": 641,
      "tan": 642,
      "viktor": 643,
      "ane": 644,
      "roza": 645,
      "franek": 646,
      "anasta": 647,
      "bella": 648,
      "nadia": 649,
      "izabella": 650,
      "gabrysia": 651,
      "bry": 652,
      "zelika": 653,
      "andzelika": 654,
      "wier": 655,
      "oliwier": 656,
      "va": 657,
      "albert": 658,
      "sewe": 659,
      "ryn": 660,
      "seweryn": 661,
      "gida": 662,
      "brygida": 663,
      "ode": 664,
      "aniela": 665,
      "nikode": 666,
      "nikodem": 667,
      "milian": 668,
      "maksymilian": 669,
      "marika": 670,
      "ha": 671,
      "stefania": 672,
      "dyta": 673,
      "judyta": 674,
      "ris": 675,
      "andr": 676,
      "roma": 677,
      "lud": 678,
      "gabriel": 679,
      "siu": 680,
      "fabian": 681,
      "lilia": 682,
      "zdzislawa": 683,
      "wac": 684,
      "bia": 685,
      "broni": 686,
      "di": 687,
      "wiesia": 688,
      "kazimie": 689,
      "kazimiera": 690,
      "jed": 691,
      "kaska": 692,
      "andre": 693,
      "martin": 694,
      "antek": 695,
      "nis": 696,
      "ter": 697,
      "denis": 698,
      "nic": 699,
      "vlad": 700,
      "luiza": 701,
      "serge": 702,
      "my": 703,
      "aleksandr": 704,
      "cjan": 705,
      "gracjan": 706,
      "rian": 707,
      "lka": 708,
      "czeslawa": 709,
      "yslawa": 710,
      "waclaw": 711,
      "wita": 712,
      "danka": 713,
      "lii": 714,
      "oksana": 715,
      "emilka": 716,
      "tobia": 717,
      "tobiasz": 718,
      "szcze": 719,
      "maj": 720,
      "zenna": 721,
      "szczepan": 722,
      "ael": 723,
      "witek": 724,
      "bernard": 725,
      "iv": 726,
      "owe": 727,
      "romu": 728,
      "daniela": 729,
      "genowe": 730,
      "ivan": 731,
      "romual": 732,
      "genowefa": 733,
      "max": 734,
      "oleg": 735,
      "maryla": 736,
      "mund": 737,
      "lana": 738,
      "jowita": 739,
      "tka": 740,
      "gabi": 741,
      "lucjan": 742,
      "aur": 743,
      "vita": 744,
      "este": 745,
      "im": 746,
      "leo": 747,
      "estera": 748,
      "davi": 749,
      "cecy": 750,
      "david": 751,
      "cecylia": 752,
      "erne": 753,
      "kornel": 754,
      "ernest": 755,
      "monia": 756,
      "mira": 757,
      "oliv": 758,
      "kris": 759,
      "liliana": 760,
      "renia": 761,
      "majka": 762,
      "zanna": 763,
      "marzanna": 764,
      "czarek": 765,
      "zja": 766,
      "wek": 767,
      "lav": 768,
      "sylwek": 769,
      "jozefa": 770,
      "aurelia": 771,
      "rys": 772,
      "tlana": 773,
      "elka": 774,
      "anetta": 775,
      "sergei": 776,
      "jedrzej": 777,
      "nka": 778,
      "romek": 779,
      "liia": 780,
      "alexand": 781,
      "sha": 782,
      "olo": 783,
      "wik": 784,
      "leon": 785,
      "romuald": 786,
      "gie": 787,
      "anastazja": 788,
      "angela": 789,
      "andrii": 790,
      "ger": 791,
      "pe": 792,
      "danusia": 793,
      "julian": 794,
      "pola": 795,
      "michael": 796,
      "olaf": 797,
      "jadzia": 798,
      "iia": 799,
      "sandr": 800,
      "oleksandr": 801,
      "irina": 802,
      "cia": 803,
      "chu": 804,
      "dka": 805,
      "borys": 806,
      "zek": 807,
      "sza": 808,
      "natan": 809,
      "goska": 810,
      "bole": 811,
      "boleslaw": 812,
      "donata": 813,
      "aleks": 814,
      "emila": 815,
      "genia": 816,
      "mati": 817,
      "bogumil": 818,
      "wlodek": 819,
      "antonina": 820,
      "andrei": 821,
      "kadia": 822,
      "detta": 823,
      "bernadetta": 824,
      "bronislaw": 825,
      "leokadia": 826,
      "krzys": 827,
      "mario": 828,
      "karola": 829,
      "lukas": 830,
      "natalka": 831,
      "lidka": 832,
      "klaudiusz": 833,
      "hn": 834,
      "mat": 835,
      "stan": 836,
      "inka": 837,
      "john": 838,
      "rus": 839,
      "ev": 840,
      "ariel": 841,
      "vitalii": 842,
      "volo": 843,
      "jozek": 844,
      "urii": 845,
      "aska": 846,
      "fre": 847,
      "kalina": 848,
      "kazi": 849,
      "alfre": 850,
      "benia": 851,
      "wladyslawa": 852,
      "lila": 853,
      "slav": 854,
      "oliw": 855,
      "amelka": 856,
      "bl": 857,
      "marina": 858,
      "mire": 859,
      "eugenia": 860,
      "blanka": 861,
      "mirela": 862,
      "lda": 863,
      "kaje": 864,
      "maty": 865,
      "tro": 866,
      "lianna": 867,
      "lilianna": 868,
      "kajetan": 869,
      "matylda": 870,
      "ca": 871,
      "ssi": 872,
      "wiesiek": 873,
      "jessi": 874,
      "ludmila": 875,
      "jessica": 876,
      "aman": 877,
      "dima": 878,
      "vladi": 879,
      "amanda": 880,
      "natasza": 881,
      "nicola": 882,
      "olivia": 883,
      "ach": 884,
      "wika": 885,
      "joach": 886,
      "joachim": 887,
      "tamara": 888,
      "jula": 889,
      "kl": 890,
      "dana": 891,
      "luk": 892,
      "klara": 893,
      "eni": 894,
      "heni": 895,
      "lan": 896,
      "marzenna": 897,
      "staszek": 898,
      "ruslan": 899,
      "kazik": 900,
      "mina": 901,
      "irmina": 902,
      "ann": 903,
      "jasiek": 904,
      "leslaw": 905,
      "gerard": 906,
      "pati": 907,
      "edmund": 908,
      "mietek": 909,
      "nicole": 910,
      "pav": 911,
      "moteusz": 912,
      "tymoteusz": 913,
      "peter": 914,
      "ssa": 915,
      "zal": 916,
      "rozal": 917,
      "rozalia": 918,
      "ko": 919,
      "kate": 920,
      "kta": 921,
      "okta": 922,
      "rysiek": 923,
      "sasha": 924,
      "romana": 925,
      "ama": 926,
      "mela": 927,
      "pamela": 928,
      "paul": 929,
      "zenek": 930,
      "amadeusz": 931,
      "gre": 932,
      "kse": 933,
      "bronislawa": 934,
      "alexandra": 935,
      "ksenia": 936,
      "rol": 937,
      "us": 938,
      "viola": 939,
      "roland": 940,
      "lla": 941,
      "stasia": 942,
      "ctor": 943,
      "victor": 944,
      "victoria": 945,
      "fry": 946,
      "dorian": 947,
      "bi": 948,
      "alfred": 949,
      "win": 950,
      "marcela": 951,
      "kamilla": 952,
      "bogna": 953,
      "henia": 954,
      "juliusz": 955,
      "tadek": 956,
      "vladimir": 957,
      "nek": 958,
      "nacy": 959,
      "bozenna": 960,
      "jack": 961,
      "ignacy": 962,
      "konstan": 963,
      "dy": 964,
      "jmund": 965,
      "kas": 966,
      "rajmund": 967,
      "inia": 968,
      "liu": 969,
      "adela": 970,
      "przemo": 971,
      "maksym": 972,
      "greg": 973,
      "karo": 974,
      "blo": 975,
      "iurii": 976,
      "arn": 977,
      "pablo": 978,
      "olka": 979,
      "tymek": 980,
      "clau": 981,
      "pi": 982,
      "nataliia": 983,
      "claudia": 984,
      "prian": 985,
      "zela": 986,
      "mieczyslawa": 987,
      "cyprian": 988,
      "vasi": 989,
      "vad": 990,
      "alo": 991,
      "min": 992,
      "mas": 993,
      "anton": 994,
      "wiki": 995,
      "beniamin": 996,
      "angelina": 997,
      "stas": 998,
      "hii": 999,
      "tosia": 1000,
      "krzysiu": 1001,
      "szymek": 1002,
      "serhii": 1003,
      "viktoria": 1004,
      "eva": 1005,
      "fel": 1006,
      "sergiusz": 1007,
      "feli": 1008,
      "as": 1009,
      "vane": 1010,
      "ier": 1011,
      "lilla": 1012,
      "ludwik": 1013,
      "vanessa": 1014,
      "gu": 1015,
      "tyna": 1016,
      "grzes": 1017,
      "bru": 1018,
      "zeno": 1019,
      "brun": 1020,
      "iu": 1021,
      "ele": 1022,
      "adas": 1023,
      "oliwka": 1024,
      "mala": 1025,
      "siia": 1026,
      "wladek": 1027,
      "iryna": 1028,
      "anastasiia": 1029,
      "dyna": 1030,
      "galina": 1031,
      "gii": 1032,
      "hdan": 1033,
      "bohdan": 1034,
      "mirella": 1035,
      "mike": 1036,
      "sergii": 1037,
      "myr": 1038,
      "volody": 1039,
      "volodymyr": 1040,
      "dmy": 1041,
      "etlana": 1042,
      "ho": 1043,
      "hanka": 1044,
      "mp": 1045,
      "sv": 1046,
      "tho": 1047,
      "mariia": 1048,
      "mitr": 1049,
      "agne": 1050,
      "olimp": 1051,
      "pavel": 1052,
      "svetlana": 1053,
      "thomas": 1054,
      "agnes": 1055,
      "olimpia": 1056,
      "inna": 1057,
      "kev": 1058,
      "svi": 1059,
      "arte": 1060,
      "szko": 1061,
      "kater": 1062,
      "edy": 1063,
      "kevin": 1064,
      "svitlana": 1065,
      "artem": 1066,
      "manta": 1067,
      "mark": 1068,
      "old": 1069,
      "samanta": 1070,
      "gizela": 1071,
      "arnold": 1072,
      "kama": 1073,
      "moni": 1074,
      "teo": 1075,
      "erwin": 1076,
      "alexander": 1077,
      "oktawia": 1078,
      "dian": 1079,
      "em": 1080,
      "nela": 1081,
      "chris": 1082,
      "tetiana": 1083,
      "joasia": 1084,
      "taras": 1085,
      "kordian": 1086,
      "adi": 1087,
      "maniek": 1088,
      "entyna": 1089,
      "olivier": 1090,
      "kinia": 1091,
      "jolka": 1092,
      "wery": 1093,
      "ksawery": 1094,
      "rita": 1095,
      "andrew": 1096,
      "jas": 1097,
      "rob": 1098,
      "marceli": 1099,
      "heniek": 1100,
      "slawomira": 1101,
      "viktoriia": 1102,
      "vasil": 1103,
      "misha": 1104,
      "olena": 1105,
      "krzychu": 1106,
      "tymon": 1107,
      "jedrek": 1108,
      "hal": 1109,
      "kle": 1110,
      "olia": 1111,
      "edek": 1112,
      "zenka": 1113,
      "maksi": 1114,
      "maksim": 1115,
      "kt": 1116,
      "kew": 1117,
      "nedy": 1118,
      "ova": 1119,
      "vova": 1120,
      "jasiu": 1121,
      "benedy": 1122,
      "julianna": 1123,
      "vitali": 1124,
      "gregor": 1125,
      "eleonora": 1126,
      "kewin": 1127,
      "benedykt": 1128,
      "samu": 1129,
      "vadim": 1130,
      "samuel": 1131,
      "dmitr": 1132,
      "don": 1133,
      "janka": 1134,
      "dimir": 1135,
      "myk": 1136,
      "gienia": 1137,
      "volodimir": 1138,
      "dmytro": 1139,
      "dmitrii": 1140,
      "olgie": 1141,
      "beti": 1142,
      "klaudyna": 1143,
      "matt": 1144,
      "bruno": 1145,
      "olgierd": 1146,
      "mieszko": 1147,
      "zka": 1148,
      "tolii": 1149,
      "anatolii": 1150,
      "piter": 1151,
      "ez": 1152,
      "pat": 1153,
      "inez": 1154,
      "deryk": 1155,
      "mikha": 1156,
      "fryderyk": 1157,
      "teodo": 1158,
      "flo": 1159,
      "val": 1160,
      "ynka": 1161,
      "nard": 1162,
      "arle": 1163,
      "aros": 1164,
      "leonard": 1165,
      "petro": 1166,
      "valer": 1167,
      "arletta": 1168,
      "aroslav": 1169,
      "ida": 1170,
      "mel": 1171,
      "ng": 1172,
      "daga": 1173,
      "andzia": 1174,
      "long": 1175,
      "miki": 1176,
      "andrea": 1177,
      "sergey": 1178,
      "melania": 1179,
      "ustyna": 1180,
      "daro": 1181,
      "staw": 1182,
      "stasiu": 1183,
      "julek": 1184,
      "faustyna": 1185,
      "gustaw": 1186,
      "bolek": 1187,
      "dmila": 1188,
      "jzy": 1189,
      "mania": 1190,
      "alla": 1191,
      "sten": 1192,
      "ewka": 1193,
      "baska": 1194,
      "rafael": 1195,
      "vasyl": 1196,
      "oliwer": 1197,
      "liudmila": 1198,
      "alojzy": 1199,
      "halinka": 1200,
      "stenia": 1201,
      "bra": 1202,
      "zyta": 1203,
      "martina": 1204,
      "walentyna": 1205,
      "genii": 1206,
      "evgenii": 1207,
      "brajan": 1208,
      "kto": 1209,
      "uda": 1210,
      "nasz": 1211,
      "kat": 1212,
      "kazia": 1213,
      "misia": 1214,
      "truda": 1215,
      "wit": 1216,
      "jonasz": 1217,
      "alekse": 1218,
      "ludwika": 1219,
      "gertruda": 1220,
      "ktos": 1221,
      "aleksei": 1222,
      "yana": 1223,
      "zie": 1224,
      "marie": 1225,
      "remik": 1226,
      "zibi": 1227,
      "wiolka": 1228,
      "marietta": 1229,
      "yurii": 1230,
      "cha": 1231,
      "wera": 1232,
      "anastasia": 1233,
      "ks": 1234,
      "nati": 1235,
      "anja": 1236,
      "nikolai": 1237,
      "feliks": 1238,
      "kateryna": 1239,
      "rda": 1240,
      "skle": 1241,
      "xana": 1242,
      "zio": 1243,
      "jasia": 1244,
      "roxana": 1245,
      "just": 1246,
      "bernarda": 1247,
      "zygfry": 1248,
      "bianka": 1249,
      "sklep": 1250,
      "zygfryd": 1251,
      "ira": 1252,
      "lar": 1253,
      "pani": 1254,
      "ury": 1255,
      "ysa": 1256,
      "nazar": 1257,
      "maury": 1258,
      "malina": 1259,
      "enty": 1260,
      "larysa": 1261,
      "maurycy": 1262,
      "uela": 1263,
      "dorotka": 1264,
      "liwia": 1265,
      "manuela": 1266,
      "stasiek": 1267,
      "andrey": 1268,
      "greta": 1269,
      "kasper": 1270,
      "zenona": 1271,
      "mykola": 1272,
      "florian": 1273,
      "dol": 1274,
      "hie": 1275,
      "usia": 1276,
      "nim": 1277,
      "ronim": 1278,
      "andri": 1279,
      "iwonka": 1280,
      "waler": 1281,
      "wane": 1282,
      "emilian": 1283,
      "rudol": 1284,
      "luki": 1285,
      "iura": 1286,
      "hieronim": 1287,
      "rudolf": 1288,
      "cj": 1289,
      "ulka": 1290,
      "arda": 1291,
      "malgo": 1292,
      "patrycj": 1293,
      "aleksy": 1294,
      "tereska": 1295,
      "ryszarda": 1296,
      "agatka": 1297,
      "romualda": 1298,
      "felicja": 1299,
      "zenobia": 1300,
      "iuliia": 1301,
      "longina": 1302,
      "patrycjusz": 1303,
      "il": 1304,
      "kam": 1305,
      "justa": 1306,
      "oleh": 1307,
      "alfreda": 1308,
      "mikhail": 1309,
      "eryka": 1310,
      "yslav": 1311,
      "daja": 1312,
      "mona": 1313,
      "jonatan": 1314,
      "martynka": 1315,
      "jeremi": 1316,
      "simona": 1317,
      "vladyslav": 1318,
      "gienek": 1319,
      "konstancja": 1320,
      "alona": 1321,
      "teodor": 1322,
      "dajana": 1323,
      "ny": 1324,
      "wian": 1325,
      "deny": 1326,
      "miron": 1327,
      "stanislav": 1328,
      "waldi": 1329,
      "pavlo": 1330,
      "oktawian": 1331,
      "valerii": 1332,
      "denys": 1333,
      "iw": 1334,
      "oty": 1335,
      "vasia": 1336,
      "anika": 1337,
      "lenka": 1338,
      "zenia": 1339,
      "gabrys": 1340,
      "otylia": 1341,
      "hor": 1342,
      "ihor": 1343,
      "kolia": 1344,
      "swie": 1345,
      "kapi": 1346,
      "tas": 1347,
      "maryna": 1348,
      "gocha": 1349,
      "maly": 1350,
      "grzesiu": 1351,
      "bozenka": 1352,
      "wojtas": 1353,
      "grazka": 1354,
      "lesia": 1355,
      "bogus": 1356,
      "stachu": 1357,
      "sii": 1358,
      "oleksii": 1359,
      "vitaliy": 1360,
      "swietlana": 1361,
      "misiek": 1362,
      "kubus": 1363,
      "stepan": 1364,
      "mia": 1365,
      "yaroslav": 1366,
      "malgoska": 1367,
      "remek": 1368,
      "remia": 1369,
      "gracja": 1370,
      "jeremia": 1371,
      "kornela": 1372,
      "anatol": 1373,
      "franciszka": 1374,
      "wacek": 1375,
      "jeremiasz": 1376,
      "hela": 1377,
      "jtek": 1378,
      "tin": 1379,
      "uliia": 1380,
      "yuliia": 1381,
      "kajtek": 1382,
      "marzenka": 1383,
      "paw": 1384,
      "jaga": 1385,
      "mowit": 1386,
      "lusia": 1387,
      "eliasz": 1388,
      "czesia": 1389,
      "bronek": 1390,
      "vladislav": 1391,
      "konstantin": 1392,
      "ziemowit": 1393,
      "bal": 1394,
      "eslav": 1395,
      "ekater": 1396,
      "iwa": 1397,
      "via": 1398,
      "natka": 1399,
      "patka": 1400,
      "slawka": 1401,
      "agusia": 1402,
      "becia": 1403,
      "cheslav": 1404,
      "dobro": 1405,
      "michasia": 1406,
      "natala": 1407,
      "jaromir": 1408,
      "zuzka": 1409,
      "anetka": 1410,
      "vitalik": 1411,
      "waleria": 1412,
      "balbina": 1413,
      "ekaterina": 1414,
      "viacheslav": 1415,
      "pin": 1416,
      "spin": 1417,
      "benek": 1418,
      "krzysztofa": 1419,
      "ewcia": 1420,
      "kryspin": 1421,
      "korneliusz": 1422,
      "konstanty": 1423,
      "au": 1424,
      "atka": 1425,
      "gia": 1426,
      "pela": 1427,
      "ym": 1428,
      "nadi": 1429,
      "olcia": 1430,
      "beatka": 1431,
      "bov": 1432,
      "alexandr": 1433,
      "paulinka": 1434,
      "liubov": 1435,
      "vadym": 1436,
      "andriy": 1437,
      "wanessa": 1438,
      "pelagia": 1439,
      "nadiia": 1440,
      "bcia": 1441,
      "centy": 1442,
      "dze": 1443,
      "ginia": 1444,
      "rma": 1445,
      "rginia": 1446,
      "sika": 1447,
      "tus": 1448,
      "wirginia": 1449,
      "krzysia": 1450,
      "karolcia": 1451,
      "babcia": 1452,
      "edzia": 1453,
      "firma": 1454,
      "julcia": 1455,
      "eunika": 1456,
      "tytus": 1457,
      "wincenty": 1458,
      "dzesika": 1459,
      "wer": 1460,
      "olha": 1461,
      "piotrus": 1462,
      "rysiu": 1463,
      "ewela": 1464,
      "malgorzta": 1465,
      "ruda": 1466,
      "werka": 1467,
      "dzio": 1468,
      "gna": 1469,
      "izka": 1470,
      "iaroslav": 1471,
      "kel": 1472,
      "klina": 1473,
      "zhenia": 1474,
      "szk": 1475,
      "jagna": 1476,
      "bodzio": 1477,
      "zaklina": 1478,
      "bogusz": 1479,
      "terenia": 1480,
      "majkel": 1481,
      "nataniel": 1482,
      "ruslana": 1483,
      "vasilii": 1484,
      "lolek": 1485,
      "artek": 1486,
      "olesia": 1487,
      "wladzia": 1488,
      "henio": 1489,
      "brunon": 1490,
      "panna": 1491,
      "sal": 1492,
      "anula": 1493,
      "radomi": 1494,
      "lugi": 1495,
      "lilka": 1496,
      "radzio": 1497,
      "jaroslawa": 1498,
      "jozefina": 1499,
      "marylka": 1500,
      "bronia": 1501,
      "kot": 1502,
      "uslugi": 1503,
      "salon": 1504,
      "radomir": 1505,
      "bek": 1506,
      "dzo": 1507,
      "mentyna": 1508,
      "twoj": 1509,
      "zanetta": 1510,
      "gonia": 1511,
      "andzej": 1512,
      "michu": 1513,
      "liliia": 1514,
      "sebek": 1515,
      "grazy": 1516,
      "bogda": 1517,
      "zdzichu": 1518,
      "irenka": 1519,
      "myszka": 1520,
      "klementyna": 1521,
      "dzoana": 1522,
      "grazynka": 1523,
      "ble": 1524,
      "enika": 1525,
      "eble": 1526,
      "fer": 1527,
      "mka": 1528,
      "meble": 1529,
      "nd": 1530,
      "wrzy": 1531,
      "kazek": 1532,
      "tola": 1533,
      "eliusz": 1534,
      "rav": 1535,
      "romka": 1536,
      "niec": 1537,
      "karolinka": 1538,
      "berenika": 1539,
      "gaba": 1540,
      "sybi": 1541,
      "sasza": 1542,
      "ewelinka": 1543,
      "konto": 1544,
      "dagna": 1545,
      "czarn": 1546,
      "oleksandra": 1547,
      "irka": 1548,
      "wawrzy": 1549,
      "hailo": 1550,
      "waclawa": 1551,
      "aureliusz": 1552,
      "dynand": 1553,
      "mykhailo": 1554,
      "teodozja": 1555,
      "valeriia": 1556,
      "ferdynand": 1557,
      "sybilla": 1558,
      "czarny": 1559,
      "wawrzyniec": 1560,
      "cele": 1561,
      "dzie": 1562,
      "jda": 1563,
      "qba": 1564,
      "uta": 1565,
      "uro": 1566,
      "wad": 1567,
      "yev": 1568,
      "nadzie": 1569,
      "arna": 1570,
      "elig": 1571,
      "daw": 1572,
      "ziuta": 1573,
      "zoska": 1574,
      "walenty": 1575,
      "czarna": 1576,
      "bernadka": 1577,
      "kaziu": 1578,
      "henii": 1579,
      "biuro": 1580,
      "adelajda": 1581,
      "mikhailo": 1582,
      "justynka": 1583,
      "gracjana": 1584,
      "celestyna": 1585,
      "wadim": 1586,
      "yevhenii": 1587,
      "nadzieja": 1588,
      "eligiusz": 1589,
      "czi": 1590,
      "iolka": 1591,
      "mlod": 1592,
      "nda": 1593,
      "arczi": 1594,
      "mariolka": 1595,
      "andzela": 1596,
      "ryl": 1597,
      "kune": 1598,
      "syla": 1599,
      "fil": 1600,
      "zdzisia": 1601,
      "czesiek": 1602,
      "antos": 1603,
      "antosia": 1604,
      "zbychu": 1605,
      "zbyszko": 1606,
      "cyryl": 1607,
      "dymitr": 1608,
      "liudmy": 1609,
      "gunda": 1610,
      "teofil": 1611,
      "kapitan": 1612,
      "mlody": 1613,
      "kunegunda": 1614,
      "liudmyla": 1615,
      "oslaw": 1616,
      "rand": 1617,
      "chna": 1618,
      "jurand": 1619,
      "stach": 1620,
      "norbi": 1621,
      "tolek": 1622,
      "lechoslaw": 1623,
      "kasjan": 1624,
      "malgos": 1625,
      "iweta": 1626,
      "dobrochna": 1627,
      "dmi": 1628,
      "dri": 1629,
      "kwia": 1630,
      "ly": 1631,
      "sier": 1632,
      "yn": 1633,
      "arnia": 1634,
      "styn": 1635,
      "cham": 1636,
      "lij": 1637,
      "endri": 1638,
      "dzidka": 1639,
      "osp": 1640,
      "ciarnia": 1641,
      "wasyl": 1642,
      "witalij": 1643,
      "rysio": 1644,
      "giej": 1645,
      "kocham": 1646,
      "gustyn": 1647,
      "longin": 1648,
      "andrij": 1649,
      "wanesa": 1650,
      "dobroslawa": 1651,
      "augustyn": 1652,
      "dmitro": 1653,
      "kwiaciarnia": 1654,
      "lysy": 1655,
      "siergiej": 1656,
      "endriu": 1657,
      "by": 1658,
      "cio": 1659,
      "gru": 1660,
      "hel": 1661,
      "ksy": 1662,
      "mena": 1663,
      "ntyna": 1664,
      "wy": 1665,
      "ysia": 1666,
      "kacha": 1667,
      "misza": 1668,
      "dobry": 1669,
      "marcysia": 1670,
      "krzych": 1671,
      "rychu": 1672,
      "michas": 1673,
      "michau": 1674,
      "jozia": 1675,
      "grzechu": 1676,
      "bozy": 1677,
      "rentyna": 1678,
      "enka": 1679,
      "lucek": 1680,
      "siwy": 1681,
      "tomcio": 1682,
      "heniu": 1683,
      "halszka": 1684,
      "florentyna": 1685,
      "gruby": 1686,
      "helenka": 1687,
      "ksymena": 1688,
      "bozydar": 1689,
      "bie": 1690,
      "co": 1691,
      "dszk": 1692,
      "iwe": 1693,
      "nna": 1694,
      "pra": 1695,
      "rcy": 1696,
      "uka": 1697,
      "wnia": 1698,
      "narcy": 1699,
      "ienka": 1700,
      "wis": 1701,
      "lubie": 1702,
      "pawelek": 1703,
      "zbyslaw": 1704,
      "iwonna": 1705,
      "lidzia": 1706,
      "przemas": 1707,
      "przedszk": 1708,
      "martusia": 1709,
      "zdzisiek": 1710,
      "serwis": 1711,
      "krzystof": 1712,
      "kasienka": 1713,
      "edytka": 1714,
      "walerian": 1715,
      "szkola": 1716,
      "cownia": 1717,
      "iwetta": 1718,
      "pracownia": 1719,
      "ukasz": 1720,
      "narcyz": 1721,
      "przedszkole": 1722
    },
    "merges": [
      "n a",
      "a r",
      "a n",
      "s z",
      "k a",
      "t a",
      "i a",
      "a l",
      "m ar",
      "r z",
      "l a",
      "e k",
      "m i",
      "m a",
      "i e",
      "t o",
      "an na",
      "y na",
      "e l",
      "i na",
      "u sz",
      "p a",
      "e na",
      "r a",
      "d a",
      "t r",
      "o l",
      "j a",
      "la w",
      "s law",
      "g o",
      "a ta",
      "s t",
      "n i",
      "r o",
      "rz e",
      "b ar",
      "a g",
      "b e",
      "an d",
      "go rz",
      "i o",
      "n ie",
      "c h",
      "w el",
      "ni ka",
      "i n",
      "rz y",
      "s ia",
      "z yna",
      "p io",
      "pio tr",
      "m o",
      "sz ka",
      "ag nie",
      "agnie szka",
      "w i",
      "d o",
      "i usz",
      "mar c",
      "t e",
      "k ar",
      "k rzy",
      "l u",
      "ma g",
      "r y",
      "mi ch",
      "j o",
      "marc in",
      "mich al",
      "pa wel",
      "w o",
      "m al",
      "i an",
      "to f",
      "sz tof",
      "krzy sztof",
      "t ar",
      "kar ol",
      "ka tar",
      "katar zyna",
      "e w",
      "l ia",
      "j u",
      "mo nika",
      "ew a",
      "lu ka",
      "mal gorz",
      "malgorz ata",
      "st yna",
      "luka sz",
      "ma sz",
      "to masz",
      "d an",
      "j an",
      "ka mi",
      "al ena",
      "jo anna",
      "s and",
      "d alena",
      "mag dalena",
      "z b",
      "te usz",
      "rze j",
      "be r",
      "b a",
      "ma teusz",
      "and rzej",
      "g a",
      "c ie",
      "g rze",
      "pa tr",
      "patr y",
      "c ja",
      "b o",
      "a da",
      "ber t",
      "mar ta",
      "d ar",
      "al ek",
      "mar ek",
      "karol ina",
      "sand ra",
      "grze gorz",
      "ada m",
      "be ata",
      "u r",
      "k u",
      "z ena",
      "k ry",
      "ra f",
      "pa u",
      "raf al",
      "bar a",
      "bar bara",
      "mar iusz",
      "w ia",
      "s y",
      "na ta",
      "alek sandra",
      "st ian",
      "r e",
      "ka sia",
      "e ta",
      "an ia",
      "do ro",
      "kami l",
      "wo j",
      "r ena",
      "doro ta",
      "sy l",
      "l ina",
      "s a",
      "ju styna",
      "nata lia",
      "pau lina",
      "i wo",
      "t ek",
      "ro bert",
      "z a",
      "iwo na",
      "d ia",
      "do mi",
      "o la",
      "ie ta",
      "el zb",
      "elzb ieta",
      "mar ia",
      "m ek",
      "e r",
      "ja c",
      "da wi",
      "dawi d",
      "jac ek",
      "i za",
      "syl wia",
      "l i",
      "ma cie",
      "macie j",
      "an eta",
      "ag ata",
      "mi an",
      "da mian",
      "a d",
      "s e",
      "ar t",
      "g ra",
      "kry styna",
      "art ur",
      "p rze",
      "j ar",
      "ie l",
      "se ba",
      "dar iusz",
      "patry cja",
      "ad r",
      "ku b",
      "ja kub",
      "i ek",
      "e wel",
      "dan u",
      "ewel ina",
      "l o",
      "seba stian",
      "la u",
      "gra zyna",
      "al ina",
      "bo g",
      "an i",
      "an ta",
      "danu ta",
      "j ol",
      "e d",
      "z e",
      "jol anta",
      "dan iel",
      "d e",
      "patry k",
      "rena ta",
      "te re",
      "slaw a",
      "tere sa",
      "cie ch",
      "woj ciech",
      "mi e",
      "w e",
      "mag da",
      "bo zena",
      "k lau",
      "al i",
      "to r",
      "mi r",
      "ali cja",
      "mo n",
      "k tor",
      "o n",
      "klau dia",
      "ni k",
      "mar zena",
      "sz y",
      "adr ian",
      "szy mon",
      "u la",
      "w ie",
      "y ta",
      "wi ktor",
      "y slaw",
      "ra d",
      "i g",
      "domi nika",
      "kami la",
      "to mek",
      "ar d",
      "be la",
      "iza bela",
      "nie w",
      "zb ig",
      "zbig niew",
      "sz ek",
      "mar t",
      "jan usz",
      "z i",
      "mi ro",
      "bar tek",
      "ed yta",
      "j e",
      "l e",
      "ku ba",
      "h alina",
      "ju lia",
      "in ga",
      "to sz",
      "bar tosz",
      "st ani",
      "l ena",
      "mart yna",
      "e mi",
      "jar o",
      "k inga",
      "io la",
      "ro nika",
      "we ronika",
      "z o",
      "je rzy",
      "jaro slaw",
      "p er",
      "bog u",
      "c per",
      "ka cper",
      "ol e",
      "sz ula",
      "ur szula",
      "woj tek",
      "i rena",
      "e la",
      "go sia",
      "domi nik",
      "t ta",
      "s iek",
      "ry sz",
      "rysz ard",
      "i ka",
      "m an",
      "prze m",
      "kry stian",
      "przem yslaw",
      "e n",
      "slaw o",
      "d iusz",
      "stani slaw",
      "ja d",
      "slawo mir",
      "ga b",
      "wiktor ia",
      "ar ka",
      "arka diusz",
      "k on",
      "mar iola",
      "wi ga",
      "jad wiga",
      "ro man",
      "ol i",
      "z u",
      "el ika",
      "miro slaw",
      "prze mek",
      "an g",
      "kon rad",
      "a sia",
      "ole tta",
      "le szek",
      "f ia",
      "zo fia",
      "ie la",
      "w al",
      "dar ia",
      "de usz",
      "c iek",
      "ma ciek",
      "f i",
      "dar ek",
      "li p",
      "fi lip",
      "ang elika",
      "ta deusz",
      "emi lia",
      "ry k",
      "h en",
      "ba sia",
      "zu z",
      "jar ek",
      "gab r",
      "zi mie",
      "lu c",
      "mi k",
      "o r",
      "wi oletta",
      "h anna",
      "bog dan",
      "wie slaw",
      "bar t",
      "krzy siek",
      "i lo",
      "gabr iela",
      "jo ze",
      "joze f",
      "de mar",
      "wal demar",
      "ar ek",
      "ilo na",
      "zimie rz",
      "ra do",
      "rado slaw",
      "luc yna",
      "slaw ek",
      "jan ina",
      "li dia",
      "oli wia",
      "ma ja",
      "piotr ek",
      "lo mie",
      "bart lomie",
      "bartlomie j",
      "mik ola",
      "hen ryk",
      "v i",
      "mikola j",
      "h u",
      "hu bert",
      "ani ta",
      "mar lena",
      "ol ga",
      "alek sand",
      "jo la",
      "mar ian",
      "ag a",
      "el ia",
      "rad ek",
      "d zi",
      "z dzi",
      "wie slawa",
      "st e",
      "zuz anna",
      "b ina",
      "sa bina",
      "n e",
      "aleksand er",
      "i anna",
      "go r",
      "el ena",
      "mi lena",
      "mar a",
      "marc el",
      "c ze",
      "w an",
      "i gor",
      "ka zimierz",
      "wan da",
      "mi la",
      "m u",
      "da g",
      "mar y",
      "ze n",
      "k sa",
      "mir ek",
      "dag mara",
      "h elena",
      "ste f",
      "o s",
      "la d",
      "zdzi slaw",
      "miro slawa",
      "c z",
      "kar ina",
      "c e",
      "ksa na",
      "ber na",
      "z aneta",
      "os kar",
      "i re",
      "s ta",
      "ja go",
      "st er",
      "syl we",
      "jago da",
      "sylwe ster",
      "k or",
      "an to",
      "ne usz",
      "ire neusz",
      "pau la",
      "wi ol",
      "nik ola",
      "bogu slaw",
      "n or",
      "emi l",
      "zb y",
      "ia na",
      "nor bert",
      "r ek",
      "g e",
      "wiol eta",
      "kor n",
      "ma k",
      "zo sia",
      "zby szek",
      "bogu mila",
      "z ar",
      "to l",
      "w ina",
      "mal wina",
      "s i",
      "w ard",
      "ed ward",
      "ar a",
      "ce zar",
      "cezar y",
      "mu n",
      "z ia",
      "ze j",
      "wi tol",
      "witol d",
      "mie cz",
      "w lad",
      "ju l",
      "b la",
      "mary sia",
      "bla zej",
      "ro ksana",
      "mi lo",
      "milo sz",
      "a m",
      "stef an",
      "f r",
      "fr an",
      "lo d",
      "n ina",
      "s ka",
      "e u",
      "a na",
      "zuz ia",
      "adr ianna",
      "w lod",
      "mal gosia",
      "re g",
      "z y",
      "ju li",
      "miecz yslaw",
      "bogu slawa",
      "n ia",
      "ol ek",
      "h ania",
      "s ara",
      "michal ina",
      "i i",
      "al a",
      "anto ni",
      "cze slaw",
      "ge ni",
      "stani slawa",
      "an ka",
      "grze siek",
      "korn elia",
      "e x",
      "t y",
      "al ex",
      "juli ta",
      "zy g",
      "f a",
      "al do",
      "aldo na",
      "reg ina",
      "am elia",
      "vi oletta",
      "el iza",
      "w iola",
      "s er",
      "eu geni",
      "eugeni usz",
      "mun t",
      "wlod zimierz",
      "zyg munt",
      "jan ek",
      "lau ra",
      "mar ianna",
      "d ek",
      "berna d",
      "c y",
      "marcel ina",
      "zen on",
      "bernad eta",
      "wlad yslaw",
      "mi l",
      "g iusz",
      "i ga",
      "s on",
      "son ia",
      "el ina",
      "dia na",
      "o ra",
      "on ora",
      "bogu sia",
      "t iana",
      "adr iana",
      "r i",
      "zu za",
      "i r",
      "g i",
      "el la",
      "e ryk",
      "t i",
      "re mi",
      "mak sy",
      "al an",
      "c i",
      "p an",
      "wal dek",
      "g en",
      "d zia",
      "ju rek",
      "ry ka",
      "fran ci",
      "i rek",
      "ma dzia",
      "el wi",
      "le ch",
      "elwi ra",
      "lu cja",
      "h onora",
      "l eta",
      "ar leta",
      "jul ka",
      "honora ta",
      "b ro",
      "remi giusz",
      "gab ry",
      "r d",
      "kry sia",
      "hen ryka",
      "franci szek",
      "ka ja",
      "w a",
      "ta tiana",
      "ew e",
      "mak s",
      "c elina",
      "to m",
      "mir ka",
      "b ian",
      "r u",
      "t an",
      "vi ktor",
      "an e",
      "ro za",
      "fran ek",
      "ana sta",
      "b ella",
      "na dia",
      "iza bella",
      "gabry sia",
      "b ry",
      "z elika",
      "and zelika",
      "wie r",
      "oli wier",
      "v a",
      "al bert",
      "s ewe",
      "ry n",
      "sewe ryn",
      "gi da",
      "bry gida",
      "o de",
      "an iela",
      "nik ode",
      "nikode m",
      "mil ian",
      "maksy milian",
      "mar ika",
      "h a",
      "stef ania",
      "d yta",
      "ju dyta",
      "ri s",
      "and r",
      "ro ma",
      "lu d",
      "gabr iel",
      "si u",
      "fa bian",
      "li lia",
      "zdzi slawa",
      "wa c",
      "b ia",
      "bro ni",
      "d i",
      "wie sia",
      "ka zimie",
      "kazimie ra",
      "j ed",
      "ka ska",
      "and re",
      "mart in",
      "an tek",
      "ni s",
      "te r",
      "de nis",
      "ni c",
      "v lad",
      "lu iza",
      "ser ge",
      "m y",
      "aleksand r",
      "c jan",
      "gra cjan",
      "r ian",
      "l ka",
      "cze slawa",
      "y slawa",
      "wac law",
      "wi ta",
      "dan ka",
      "li i",
      "o ksana",
      "emil ka",
      "to bia",
      "tobia sz",
      "sz cze",
      "ma j",
      "zen na",
      "szcze pan",
      "a el",
      "wi tek",
      "berna rd",
      "i v",
      "o we",
      "ro mu",
      "dan iela",
      "gen owe",
      "iv an",
      "romu al",
      "genowe fa",
      "ma x",
      "ole g",
      "mary la",
      "mun d",
      "la na",
      "jo wita",
      "t ka",
      "gab i",
      "luc jan",
      "a ur",
      "vi ta",
      "e ste",
      "i m",
      "le o",
      "este ra",
      "da vi",
      "ce cy",
      "davi d",
      "cecy lia",
      "er ne",
      "korn el",
      "erne st",
      "mon ia",
      "mi ra",
      "oli v",
      "k ris",
      "lilia na",
      "re nia",
      "maj ka",
      "z anna",
      "mar zanna",
      "cz arek",
      "z ja",
      "w ek",
      "la v",
      "syl wek",
      "jozef a",
      "aur elia",
      "ry s",
      "t lana",
      "el ka",
      "ane tta",
      "serge i",
      "jed rzej",
      "n ka",
      "ro mek",
      "li ia",
      "alex and",
      "s ha",
      "ol o",
      "wi k",
      "le on",
      "romual d",
      "g ie",
      "anasta zja",
      "ang ela",
      "andr ii",
      "g er",
      "p e",
      "danu sia",
      "jul ian",
      "p ola",
      "mich ael",
      "ola f",
      "jad zia",
      "i ia",
      "sand r",
      "olek sandr",
      "ir ina",
      "c ia",
      "ch u",
      "d ka",
      "bo rys",
      "z ek",
      "sz a",
      "na tan",
      "go ska",
      "b ole",
      "bole slaw",
      "do nata",
      "alek s",
      "emi la",
      "gen ia",
      "ma ti",
      "bogu mil",
      "wlod ek",
      "anto nina",
      "andre i",
      "ka dia",
      "de tta",
      "berna detta",
      "broni slaw",
      "leo kadia",
      "krzy s",
      "mar io",
      "kar ola",
      "luka s",
      "nata lka",
      "li dka",
      "klau diusz",
      "h n",
      "ma t",
      "st an",
      "in ka",
      "jo hn",
      "ru s",
      "e v",
      "ar iel",
      "vita lii",
      "v olo",
      "jo zek",
      "ur ii",
      "a ska",
      "f re",
      "ka lina",
      "ka zi",
      "al fre",
      "be nia",
      "wlad yslawa",
      "li la",
      "s lav",
      "oli w",
      "am elka",
      "b l",
      "mar ina",
      "mi re",
      "eu genia",
      "bl anka",
      "mire la",
      "l da",
      "ka je",
      "ma ty",
      "tr o",
      "li anna",
      "li lianna",
      "kaje tan",
      "maty lda",
      "c a",
      "s si",
      "wie siek",
      "je ssi",
      "lud mila",
      "jessi ca",
      "a man",
      "di ma",
      "vlad i",
      "aman da",
      "nata sza",
      "nic ola",
      "oliv ia",
      "a ch",
      "wi ka",
      "jo ach",
      "joach im",
      "ta mara",
      "ju la",
      "k l",
      "da na",
      "lu k",
      "kl ara",
      "e ni",
      "h eni",
      "l an",
      "mar zenna",
      "sta szek",
      "rus lan",
      "kazi k",
      "mi na",
      "ir mina",
      "an n",
      "ja siek",
      "le slaw",
      "ger ard",
      "pa ti",
      "ed mund",
      "mie tek",
      "nic ole",
      "pa v",
      "mo teusz",
      "ty moteusz",
      "pe ter",
      "s sa",
      "z al",
      "ro zal",
      "rozal ia",
      "k o",
      "ka te",
      "k ta",
      "o kta",
      "ry siek",
      "sa sha",
      "roma na",
      "a ma",
      "m ela",
      "pa mela",
      "pau l",
      "zen ek",
      "ama deusz",
      "g re",
      "k se",
      "broni slawa",
      "alexand ra",
      "kse nia",
      "r ol",
      "u s",
      "v iola",
      "rol and",
      "l la",
      "sta sia",
      "c tor",
      "vi ctor",
      "victor ia",
      "f ry",
      "do rian",
      "b i",
      "alfre d",
      "w in",
      "marc ela",
      "kamil la",
      "bog na",
      "hen ia",
      "jul iusz",
      "ta dek",
      "vladi mir",
      "n ek",
      "na cy",
      "bo zenna",
      "jac k",
      "ig nacy",
      "kon stan",
      "d y",
      "j mund",
      "ka s",
      "ra jmund",
      "in ia",
      "li u",
      "ad ela",
      "prze mo",
      "maksy m",
      "g reg",
      "kar o",
      "b lo",
      "i urii",
      "ar n",
      "pa blo",
      "ol ka",
      "ty mek",
      "c lau",
      "p i",
      "nata liia",
      "clau dia",
      "p rian",
      "ze la",
      "miecz yslawa",
      "cy prian",
      "va si",
      "v ad",
      "al o",
      "mi n",
      "ma s",
      "anto n",
      "wik i",
      "benia min",
      "ang elina",
      "sta s",
      "h ii",
      "to sia",
      "krzy siu",
      "szy mek",
      "ser hii",
      "viktor ia",
      "e va",
      "f el",
      "ser giusz",
      "fel i",
      "a s",
      "v ane",
      "ie r",
      "li lla",
      "lud wik",
      "vane ssa",
      "g u",
      "t yna",
      "grze s",
      "b ru",
      "zen o",
      "bru n",
      "i u",
      "el e",
      "ada s",
      "oliw ka",
      "mal a",
      "si ia",
      "wlad ek",
      "ir yna",
      "anasta siia",
      "d yna",
      "g alina",
      "g ii",
      "h dan",
      "bo hdan",
      "mir ella",
      "mik e",
      "ser gii",
      "my r",
      "volo dy",
      "volody myr",
      "d my",
      "e tlana",
      "h o",
      "h anka",
      "m p",
      "s v",
      "t ho",
      "mar iia",
      "mi tr",
      "ag ne",
      "oli mp",
      "pav el",
      "sv etlana",
      "tho mas",
      "agne s",
      "olimp ia",
      "in na",
      "k ev",
      "s vi",
      "ar te",
      "sz ko",
      "ka ter",
      "ed y",
      "kev in",
      "svi tlana",
      "arte m",
      "m anta",
      "mar k",
      "ol d",
      "sa manta",
      "gi zela",
      "arn old",
      "ka ma",
      "mo ni",
      "te o",
      "er win",
      "alexand er",
      "okta wia",
      "d ian",
      "e m",
      "n ela",
      "ch ris",
      "te tiana",
      "jo asia",
      "tar as",
      "kor dian",
      "ad i",
      "man iek",
      "en tyna",
      "oliv ier",
      "k inia",
      "jol ka",
      "we ry",
      "ksa wery",
      "ri ta",
      "andr ew",
      "ja s",
      "ro b",
      "marcel i",
      "heni ek",
      "slawo mira",
      "viktor iia",
      "vasi l",
      "mi sha",
      "ol ena",
      "krzy chu",
      "ty mon",
      "jed rek",
      "h al",
      "k le",
      "ol ia",
      "ed ek",
      "zen ka",
      "mak si",
      "maksi m",
      "k t",
      "k ew",
      "n edy",
      "o va",
      "v ova",
      "ja siu",
      "be nedy",
      "juli anna",
      "vita li",
      "gre gor",
      "ele onora",
      "kew in",
      "benedy kt",
      "sa mu",
      "vad im",
      "samu el",
      "d mitr",
      "do n",
      "jan ka",
      "di mir",
      "my k",
      "gie nia",
      "volo dimir",
      "dmy tro",
      "dmitr ii",
      "ol gie",
      "be ti",
      "klau dyna",
      "mat t",
      "brun o",
      "olgie rd",
      "mie szko",
      "z ka",
      "to lii",
      "ana tolii",
      "pi ter",
      "e z",
      "pa t",
      "in ez",
      "de ryk",
      "mik ha",
      "fry deryk",
      "teo do",
      "f lo",
      "v al",
      "y nka",
      "na rd",
      "ar le",
      "ar os",
      "leo nard",
      "pe tro",
      "val er",
      "arle tta",
      "aros lav",
      "i da",
      "m el",
      "n g",
      "da ga",
      "and zia",
      "lo ng",
      "mik i",
      "andre a",
      "serge y",
      "mel ania",
      "u styna",
      "dar o",
      "sta w",
      "sta siu",
      "jul ek",
      "fa ustyna",
      "gu staw",
      "b olek",
      "d mila",
      "j zy",
      "m ania",
      "al la",
      "st en",
      "ew ka",
      "ba ska",
      "raf ael",
      "va syl",
      "oliw er",
      "liu dmila",
      "alo jzy",
      "hal inka",
      "sten ia",
      "b ra",
      "z yta",
      "mart ina",
      "wal entyna",
      "geni i",
      "ev genii",
      "bra jan",
      "k to",
      "u da",
      "na sz",
      "ka t",
      "ka zia",
      "mi sia",
      "tr uda",
      "wi t",
      "jo nasz",
      "alek se",
      "lud wika",
      "ger truda",
      "kto s",
      "alekse i",
      "y ana",
      "z ie",
      "mar ie",
      "re mik",
      "zi bi",
      "wiol ka",
      "marie tta",
      "y urii",
      "ch a",
      "we ra",
      "anasta sia",
      "k s",
      "na ti",
      "an ja",
      "nikola i",
      "feli ks",
      "kater yna",
      "r da",
      "s kle",
      "x ana",
      "z io",
      "ja sia",
      "ro xana",
      "ju st",
      "berna rda",
      "zyg fry",
      "bian ka",
      "skle p",
      "zygfry d",
      "i ra",
      "l ar",
      "p ani",
      "u ry",
      "y sa",
      "na zar",
      "ma ury",
      "mal ina",
      "en ty",
      "lar ysa",
      "maury cy",
      "u ela",
      "doro tka",
      "li wia",
      "man uela",
      "sta siek",
      "andre y",
      "gre ta",
      "kas per",
      "zeno na",
      "myk ola",
      "flo rian",
      "d ol",
      "h ie",
      "u sia",
      "ni m",
      "ro nim",
      "and ri",
      "iwo nka",
      "wal er",
      "wan e",
      "emil ian",
      "ru dol",
      "luk i",
      "iu ra",
      "hie ronim",
      "rudol f",
      "c j",
      "u lka",
      "ar da",
      "mal go",
      "patry cj",
      "alek sy",
      "tere ska",
      "rysz arda",
      "aga tka",
      "romual da",
      "feli cja",
      "zeno bia",
      "iu liia",
      "long ina",
      "patrycj usz",
      "i l",
      "ka m",
      "ju sta",
      "ole h",
      "alfre da",
      "mikha il",
      "e ryka",
      "y slav",
      "da ja",
      "mo na",
      "jo natan",
      "mart ynka",
      "je remi",
      "si mona",
      "vlad yslav",
      "gie nek",
      "konstan cja",
      "alo na",
      "teodo r",
      "daja na",
      "n y",
      "wi an",
      "de ny",
      "miro n",
      "stani slav",
      "wal di",
      "pav lo",
      "okta wian",
      "valer ii",
      "deny s",
      "i w",
      "o ty",
      "v asia",
      "ani ka",
      "le nka",
      "zen ia",
      "gabry s",
      "oty lia",
      "h or",
      "i hor",
      "k olia",
      "s wie",
      "ka pi",
      "ta s",
      "mar yna",
      "go cha",
      "mal y",
      "grze siu",
      "bo zenka",
      "woj tas",
      "gra zka",
      "le sia",
      "bogu s",
      "sta chu",
      "si i",
      "olek sii",
      "vitali y",
      "swie tlana",
      "mi siek",
      "kub us",
      "ste pan",
      "m ia",
      "y aroslav",
      "mal goska",
      "re mek",
      "re mia",
      "gra cja",
      "je remia",
      "korn ela",
      "ana tol",
      "franci szka",
      "wac ek",
      "jeremia sz",
      "h ela",
      "j tek",
      "t in",
      "u liia",
      "y uliia",
      "ka jtek",
      "mar zenka",
      "pa w",
      "ja ga",
      "mo wit",
      "lu sia",
      "elia sz",
      "cze sia",
      "bro nek",
      "vladi slav",
      "konstan tin",
      "zie mowit",
      "b al",
      "e slav",
      "e kater",
      "i wa",
      "v ia",
      "na tka",
      "pa tka",
      "slaw ka",
      "ag usia",
      "be cia",
      "ch eslav",
      "do bro",
      "mich asia",
      "nata la",
      "jaro mir",
      "zuz ka",
      "ane tka",
      "vitali k",
      "waler ia",
      "bal bina",
      "ekater ina",
      "via cheslav",
      "p in",
      "s pin",
      "be nek",
      "krzysztof a",
      "ew cia",
      "kry spin",
      "kornel iusz",
      "konstan ty",
      "a u",
      "a tka",
      "g ia",
      "p ela",
      "y m",
      "na di",
      "ol cia",
      "be atka",
      "bo v",
      "alex andr",
      "paul inka",
      "liu bov",
      "vad ym",
      "andri y",
      "wane ssa",
      "pela gia",
      "nadi ia",
      "b cia",
      "c enty",
      "d ze",
      "g inia",
      "r ma",
      "r ginia",
      "s ika",
      "t us",
      "wi rginia",
      "krzy sia",
      "karol cia",
      "ba bcia",
      "ed zia",
      "fi rma",
      "jul cia",
      "eu nika",
      "ty tus",
      "win centy",
      "dze sika",
      "w er",
      "ol ha",
      "piotr us",
      "ry siu",
      "ew ela",
      "malgorz ta",
      "ru da",
      "wer ka",
      "d zio",
      "g na",
      "i zka",
      "i aroslav",
      "k el",
      "k lina",
      "z henia",
      "sz k",
      "ja gna",
      "bo dzio",
      "za klina",
      "bog usz",
      "tere nia",
      "maj kel",
      "natan iel",
      "rus lana",
      "vasi lii",
      "l olek",
      "ar tek",
      "ole sia",
      "wlad zia",
      "heni o",
      "brun on",
      "p anna",
      "s al",
      "an ula",
      "ra domi",
      "lu gi",
      "li lka",
      "rad zio",
      "jaro slawa",
      "jozef ina",
      "mary lka",
      "bro nia",
      "ko t",
      "us lugi",
      "sal on",
      "radomi r",
      "b ek",
      "d zo",
      "m entyna",
      "t woj",
      "z anetta",
      "go nia",
      "and zej",
      "mich u",
      "li liia",
      "se bek",
      "gra zy",
      "bog da",
      "zdzi chu",
      "ire nka",
      "my szka",
      "kle mentyna",
      "dzo ana",
      "grazy nka",
      "b le",
      "e nika",
      "e ble",
      "f er",
      "m ka",
      "m eble",
      "n d",
      "w rzy",
      "ka zek",
      "to la",
      "el iusz",
      "ra v",
      "ro mka",
      "nie c",
      "karol inka",
      "ber enika",
      "ga ba",
      "sy bi",
      "sa sza",
      "ewel inka",
      "kon to",
      "dag na",
      "cz arn",
      "olek sandra",
      "ir ka",
      "wa wrzy",
      "ha ilo",
      "waclaw a",
      "aur eliusz",
      "dyna nd",
      "myk hailo",
      "teodo zja",
      "valer iia",
      "fer dynand",
      "sybi lla",
      "czarn y",
      "wawrzy niec",
      "c ele",
      "d zie",
      "j da",
      "q ba",
      "u ta",
      "u ro",
      "w ad",
      "y ev",
      "na dzie",
      "ar na",
      "el ig",
      "da w",
      "zi uta",
      "zo ska",
      "wal enty",
      "cz arna",
      "bernad ka",
      "kazi u",
      "heni i",
      "bi uro",
      "adela jda",
      "mikha ilo",
      "just ynka",
      "gracja na",
      "cele styna",
      "wad im",
      "yev henii",
      "nadzie ja",
      "elig iusz",
      "c zi",
      "i olka",
      "m lod",
      "n da",
      "ar czi",
      "mar iolka",
      "and zela",
      "ry l",
      "ku ne",
      "sy la",
      "fi l",
      "zdzi sia",
      "cze siek",
      "anto s",
      "anto sia",
      "zby chu",
      "zby szko",
      "cy ryl",
      "dy mitr",
      "liu dmy",
      "gu nda",
      "teo fil",
      "kapi tan",
      "mlod y",
      "kune gunda",
      "liudmy la",
      "o slaw",
      "r and",
      "ch na",
      "ju rand",
      "sta ch",
      "nor bi",
      "tol ek",
      "lech oslaw",
      "kas jan",
      "malgo s",
      "iw eta",
      "dobro chna",
      "d mi",
      "d ri",
      "k wia",
      "l y",
      "s ier",
      "y n",
      "ar nia",
      "st yn",
      "ch am",
      "li j",
      "en dri",
      "dzi dka",
      "os p",
      "ci arnia",
      "wa syl",
      "wita lij",
      "rys io",
      "gie j",
      "ko cham",
      "gu styn",
      "long in",
      "andri j",
      "wane sa",
      "dobro slawa",
      "au gustyn",
      "dmi tro",
      "kwia ciarnia",
      "ly sy",
      "sier giej",
      "endri u",
      "b y",
      "c io",
      "g ru",
      "h el",
      "k sy",
      "m ena",
      "n tyna",
      "w y",
      "y sia",
      "ka cha",
      "mi sza",
      "do bry",
      "marc ysia",
      "krzy ch",
      "ry chu",
      "mich as",
      "mich au",
      "jo zia",
      "grze chu",
      "bo zy",
      "re ntyna",
      "en ka",
      "luc ek",
      "si wy",
      "tom cio",
      "heni u",
      "hal szka",
      "flo rentyna",
      "gru by",
      "hel enka",
      "ksy mena",
      "bozy dar",
      "b ie",
      "c o",
      "d szk",
      "i we",
      "n na",
      "p ra",
      "r cy",
      "u ka",
      "w nia",
      "na rcy",
      "ie nka",
      "wi s",
      "lu bie",
      "pawel ek",
      "zb yslaw",
      "iwo nna",
      "li dzia",
      "prze mas",
      "prze dszk",
      "mart usia",
      "zdzi siek",
      "ser wis",
      "krzys tof",
      "kas ienka",
      "edy tka",
      "waler ian",
      "szk ola",
      "co wnia",
      "iwe tta",
      "pra cownia",
      "uka sz",
      "narcy z",
      "przedszk ole"
    ]
  }
}