{
  "version": "1.0",
  "truncation": null,
  "padding": null,
  "added_tokens": [
    {
      "id": 0,
      "content": "[UNK]",
      "single_word": false,
      "lstrip": false,
      "rstrip": false,
      "normalized": false,
      "special": true
    },
    {
      "id": 1,
      "content": "[CLS]",
      "single_word": false,
      "lstrip": false,
      "rstrip": false,
      "normalized": false,
      "special": true
    },
    {
      "id": 2,
      "content": "[SEP]",
      "single_word": false,
      "lstrip": false,
      "rstrip": false,
      "normalized": false,
      "special": true
    },
    {
      "id": 3,
      "content": "[PAD]",
      "single_word": false,
      "lstrip": false,
      "rstrip": false,
      "normalized": false,
      "special": true
    },
    {
      "id": 4,
      "content": "[MASK]",
      "single_word": false,
      "lstrip": false,
      "rstrip": false,
      "normalized": false,
      "special": true
    }
  ],
  "normalizer": null,
  "pre_tokenizer": {
    "type": "Whitespace"
  },
  "post_processor": null,
  "decoder": null,
  "model": {
    "type": "BPE",
    "dropout": null,
    "unk_token": "[UNK]",
    "continuing_subword_prefix": null,
    "end_of_word_suffix": null,
    "fuse_unk": false,
    "vocab": {
      "[UNK]": 0,
      "[CLS]": 1,
      "[SEP]": 2,
      "[PAD]": 3,
      "[MASK]": 4,
      "-": 5,
      "a": 6,
      "b": 7,
      "c": 8,
      "d": 9,
      "e": 10,
      "f": 11,
      "g": 12,
      "h": 13,
      "i": 14,
      "j": 15,
      "k": 16,
      "l": 17,
      "m": 18,
      "n": 19,
      "o": 20,
      "p": 21,
      "q": 22,
      "r": 23,
      "s": 24,
      "t": 25,
      "u": 26,
      "v": 27,
      "w": 28,
      "x": 29,
      "y": 30,
      "z": 31,
      "an": 32,
      "ar": 33,
      "in": 34,
      "am": 35,
      "el": 36,
      "en": 37,
      "al": 38,
      "ra": 39,
      "on": 40,
      "ri": 41,
      "ma": 42,
      "sh": 43,
      "er": 44,
      "mar": 45,
      "ka": 46,
      "il": 47,
      "ab": 48,
      "la": 49,
      "mo": 50,
      "ed": 51,
      "mi": 52,
      "jo": 53,
      "ch": 54,
      "ja": 55,
      "ia": 56,
      "et": 57,
      "at": 58,
      "es": 59,
      "ul": 60,
      "is": 61,
      "na": 62,
      "ina": 63,
      "us": 64,
      "and": 65,
      "ana": 66,
      "ham": 67,
      "ad": 68,
      "or": 69,
      "im": 70,
      "it": 71,
      "ah": 72,
      "da": 73,
      "th": 74,
      "le": 75,
      "vi": 76,
      "ro": 77,
      "ko": 78,
      "as": 79,
      "re": 80,
      "se": 81,
      "un": 82,
      "ani": 83,
      "ir": 84,
      "to": 85,
      "ol": 86,
      "di": 87,
      "ta": 88,
      "md": 89,
      "te": 90,
      "ha": 91,
      "moham": 92,
      "ni": 93,
      "go": 94,
      "man": 95,
      "ti": 96,
      "pa": 97,
      "mad": 98,
      "si": 99,
      "sa": 100,
      "bo": 101,
      "ang": 102,
      "ur": 103,
      "ris": 104,
      "ph": 105,
      "em": 106,
      "ce": 107,
      "lo": 108,
      "lu": 109,
      "abd": 110,
      "jan": 111,
      "ali": 112,
      "mu": 113,
      "pet": 114,
      "ek": 115,
      "oni": 116,
      "ya": 117,
      "esh": 118,
      "ari": 119,
      "mari": 120,
      "han": 121,
      "su": 122,
      "sam": 123,
      "iv": 124,
      "ena": 125,
      "ela": 126,
      "id": 127,
      "med": 128,
      "ku": 129,
      "iz": 130,
      "kar": 131,
      "so": 132,
      "san": 133,
      "ca": 134,
      "ran": 135,
      "no": 136,
      "ine": 137,
      "de": 138,
      "ara": 139,
      "uel": 140,
      "ard": 141,
      "ju": 142,
      "ber": 143,
      "mich": 144,
      "za": 145,
      "dani": 146,
      "rah": 147,
      "ik": 148,
      "ne": 149,
      "wa": 150,
      "ag": 151,
      "sz": 152,
      "li": 153,
      "yo": 154,
      "tan": 155,
      "vin": 156,
      "tina": 157,
      "ck": 158,
      "ba": 159,
      "end": 160,
      "fa": 161,
      "abdul": 162,
      "muham": 163,
      "ong": 164,
      "anna": 165,
      "fat": 166,
      "az": 167,
      "ke": 168,
      "ry": 169,
      "ale": 170,
      "do": 171,
      "moh": 172,
      "andre": 173,
      "sha": 174,
      "jose": 175,
      "mohamed": 176,
      "ram": 177,
      "elo": 178,
      "son": 179,
      "kat": 180,
      "ile": 181,
      "maria": 182,
      "mir": 183,
      "ga": 184,
      "va": 185,
      "tin": 186,
      "ie": 187,
      "raj": 188,
      "nur": 189,
      "vid": 190,
      "eri": 191,
      "kh": 192,
      "david": 193,
      "pat": 194,
      "ant": 195,
      "ita": 196,
      "ona": 197,
      "joh": 198,
      "sand": 199,
      "ny": 200,
      "isa": 201,
      "lin": 202,
      "muhammad": 203,
      "jam": 204,
      "ben": 205,
      "john": 206,
      "ru": 207,
      "rin": 208,
      "bert": 209,
      "jay": 210,
      "ib": 211,
      "fran": 212,
      "ila": 213,
      "os": 214,
      "wan": 215,
      "daniel": 216,
      "fi": 217,
      "io": 218,
      "mohd": 219,
      "we": 220,
      "paul": 221,
      "ge": 222,
      "je": 223,
      "mas": 224,
      "jana": 225,
      "sal": 226,
      "mon": 227,
      "ly": 228,
      "tu": 229,
      "hi": 230,
      "ata": 231,
      "eta": 232,
      "ter": 233,
      "ili": 234,
      "chris": 235,
      "kris": 236,
      "bi": 237,
      "den": 238,
      "she": 239,
      "co": 240,
      "onika": 241,
      "kam": 242,
      "lav": 243,
      "micha": 244,
      "has": 245,
      "ren": 246,
      "har": 247,
      "mohammed": 248,
      "sy": 249,
      "be": 250,
      "ji": 251,
      "manuel": 252,
      "hel": 253,
      "mah": 254,
      "ud": 255,
      "peter": 256,
      "ve": 257,
      "gor": 258,
      "ahmed": 259,
      "eth": 260,
      "ty": 261,
      "alex": 262,
      "gab": 263,
      "sim": 264,
      "eng": 265,
      "ola": 266,
      "mate": 267,
      "car": 268,
      "ahmad": 269,
      "mark": 270,
      "dy": 271,
      "les": 272,
      "jul": 273,
      "nes": 274,
      "if": 275,
      "rahim": 276,
      "ula": 277,
      "luka": 278,
      "bar": 279,
      "joseph": 280,
      "fati": 281,
      "prin": 282,
      "um": 283,
      "martin": 284,
      "mary": 285,
      "zi": 286,
      "ak": 287,
      "patri": 288,
      "adam": 289,
      "michael": 290,
      "ent": 291,
      "ivan": 292,
      "fer": 293,
      "min": 294,
      "abu": 295,
      "vel": 296,
      "zy": 297,
      "mohammad": 298,
      "ija": 299,
      "one": 300,
      "sara": 301,
      "bu": 302,
      "jen": 303,
      "ze": 304,
      "po": 305,
      "pe": 306,
      "sar": 307,
      "jar": 308,
      "mal": 309,
      "ros": 310,
      "luc": 311,
      "ste": 312,
      "ene": 313,
      "van": 314,
      "ye": 315,
      "me": 316,
      "kel": 317,
      "yn": 318,
      "pra": 319,
      "robert": 320,
      "sin": 321,
      "ki": 322,
      "hen": 323,
      "mil": 324,
      "mat": 325,
      "iso": 326,
      "he": 327,
      "edi": 328,
      "ho": 329,
      "petr": 330,
      "ria": 331,
      "rich": 332,
      "anda": 333,
      "johan": 334,
      "sun": 335,
      "jon": 336,
      "thab": 337,
      "iti": 338,
      "ura": 339,
      "nat": 340,
      "eva": 341,
      "din": 342,
      "cky": 343,
      "ade": 344,
      "olo": 345,
      "mag": 346,
      "niko": 347,
      "ash": 348,
      "ton": 349,
      "nana": 350,
      "usz": 351,
      "nor": 352,
      "gra": 353,
      "endra": 354,
      "yan": 355,
      "emmanuel": 356,
      "wi": 357,
      "monika": 358,
      "lan": 359,
      "bal": 360,
      "esa": 361,
      "pu": 362,
      "law": 363,
      "mus": 364,
      "yu": 365,
      "linda": 366,
      "dan": 367,
      "pho": 368,
      "wil": 369,
      "ai": 370,
      "tho": 371,
      "kw": 372,
      "len": 373,
      "sandra": 374,
      "kumar": 375,
      "samuel": 376,
      "amir": 377,
      "joa": 378,
      "tian": 379,
      "red": 380,
      "james": 381,
      "char": 382,
      "siti": 383,
      "marc": 384,
      "win": 385,
      "rim": 386,
      "tha": 387,
      "dra": 388,
      "ver": 389,
      "petra": 390,
      "marko": 391,
      "st": 392,
      "michal": 393,
      "gy": 394,
      "jit": 395,
      "tshe": 396,
      "tam": 397,
      "hassan": 398,
      "adi": 399,
      "richard": 400,
      "mer": 401,
      "eni": 402,
      "jus": 403,
      "franc": 404,
      "oj": 405,
      "ger": 406,
      "joy": 407,
      "vic": 408,
      "antoni": 409,
      "eli": 410,
      "andi": 411,
      "lam": 412,
      "jer": 413,
      "od": 414,
      "ibrahim": 415,
      "lah": 416,
      "rose": 417,
      "sel": 418,
      "prince": 419,
      "rach": 420,
      "dee": 421,
      "ven": 422,
      "tor": 423,
      "andra": 424,
      "joao": 425,
      "ann": 426,
      "ess": 427,
      "wel": 428,
      "ou": 429,
      "shah": 430,
      "cia": 431,
      "grace": 432,
      "sab": 433,
      "rad": 434,
      "iman": 435,
      "sef": 436,
      "ther": 437,
      "yas": 438,
      "val": 439,
      "izab": 440,
      "lor": 441,
      "esz": 442,
      "kash": 443,
      "ilip": 444,
      "nurul": 445,
      "lee": 446,
      "francis": 447,
      "gabri": 448,
      "ken": 449,
      "her": 450,
      "bara": 451,
      "dar": 452,
      "uno": 453,
      "yous": 454,
      "tomas": 455,
      "fatima": 456,
      "sus": 457,
      "dor": 458,
      "ati": 459,
      "ivana": 460,
      "hu": 461,
      "elle": 462,
      "rian": 463,
      "ame": 464,
      "alek": 465,
      "raf": 466,
      "ley": 467,
      "kesh": 468,
      "pi": 469,
      "vla": 470,
      "ron": 471,
      "aziz": 472,
      "ot": 473,
      "mos": 474,
      "mario": 475,
      "nel": 476,
      "mond": 477,
      "rita": 478,
      "lina": 479,
      "jun": 480,
      "cy": 481,
      "far": 482,
      "alena": 483,
      "bog": 484,
      "diana": 485,
      "anita": 486,
      "andrea": 487,
      "antonio": 488,
      "lim": 489,
      "arif": 490,
      "ee": 491,
      "karol": 492,
      "bas": 493,
      "vis": 494,
      "pre": 495,
      "rit": 496,
      "ser": 497,
      "my": 498,
      "simon": 499,
      "katar": 500,
      "ug": 501,
      "kha": 502,
      "kim": 503,
      "art": 504,
      "nie": 505,
      "ando": 506,
      "abo": 507,
      "bong": 508,
      "du": 509,
      "mohamad": 510,
      "the": 511,
      "sarah": 512,
      "war": 513,
      "ok": 514,
      "cent": 515,
      "ald": 516,
      "gorz": 517,
      "angel": 518,
      "mel": 519,
      "martina": 520,
      "elizab": 521,
      "tyna": 522,
      "chin": 523,
      "marta": 524,
      "dia": 525,
      "fred": 526,
      "shan": 527,
      "emil": 528,
      "anne": 529,
      "andy": 530,
      "bor": 531,
      "kr": 532,
      "helena": 533,
      "alid": 534,
      "eric": 535,
      "bes": 536,
      "lasz": 537,
      "qu": 538,
      "hana": 539,
      "jes": 540,
      "ped": 541,
      "pedro": 542,
      "fan": 543,
      "resh": 544,
      "tr": 545,
      "elizabeth": 546,
      "mani": 547,
      "zol": 548,
      "tom": 549,
      "pri": 550,
      "leon": 551,
      "simo": 552,
      "ele": 553,
      "ella": 554,
      "bab": 555,
      "hd": 556,
      "raja": 557,
      "mis": 558,
      "agus": 559,
      "ardo": 560,
      "juli": 561,
      "zana": 562,
      "barbara": 563,
      "pio": 564,
      "rze": 565,
      "br": 566,
      "raju": 567,
      "josi": 568,
      "ung": 569,
      "nik": 570,
      "los": 571,
      "laszlo": 572,
      "shi": 573,
      "chi": 574,
      "ato": 575,
      "domin": 576,
      "agnes": 577,
      "don": 578,
      "ez": 579,
      "amin": 580,
      "pan": 581,
      "jas": 582,
      "per": 583,
      "haf": 584,
      "tia": 585,
      "yi": 586,
      "geor": 587,
      "gabor": 588,
      "zoltan": 589,
      "ence": 590,
      "esther": 591,
      "bin": 592,
      "uf": 593,
      "kamal": 594,
      "om": 595,
      "ub": 596,
      "omar": 597,
      "isma": 598,
      "zyna": 599,
      "chu": 600,
      "fiq": 601,
      "tof": 602,
      "rajesh": 603,
      "ac": 604,
      "muhd": 605,
      "hle": 606,
      "magd": 607,
      "onica": 608,
      "fia": 609,
      "toria": 610,
      "cat": 611,
      "tar": 612,
      "pak": 613,
      "bogo": 614,
      "ayo": 615,
      "cess": 616,
      "vik": 617,
      "joe": 618,
      "julia": 619,
      "tine": 620,
      "gan": 621,
      "rahul": 622,
      "dam": 623,
      "kir": 624,
      "thomas": 625,
      "patrick": 626,
      "patricia": 627,
      "sil": 628,
      "lukas": 629,
      "ist": 630,
      "toma": 631,
      "princess": 632,
      "nan": 633,
      "jenni": 634,
      "niesz": 635,
      "agniesz": 636,
      "agnieszka": 637,
      "sol": 638,
      "jiri": 639,
      "willi": 640,
      "said": 641,
      "ramesh": 642,
      "iwe": 643,
      "steph": 644,
      "pavel": 645,
      "jel": 646,
      "khalid": 647,
      "ryan": 648,
      "mira": 649,
      "isaac": 650,
      "yus": 651,
      "tila": 652,
      "zu": 653,
      "day": 654,
      "uni": 655,
      "marek": 656,
      "nina": 657,
      "hil": 658,
      "george": 659,
      "lil": 660,
      "ing": 661,
      "istvan": 662,
      "ef": 663,
      "sen": 664,
      "tamas": 665,
      "riz": 666,
      "nora": 667,
      "marija": 668,
      "enc": 669,
      "itum": 670,
      "ida": 671,
      "piotr": 672,
      "tim": 673,
      "suresh": 674,
      "noor": 675,
      "gar": 676,
      "syl": 677,
      "ravi": 678,
      "mpho": 679,
      "albert": 680,
      "renata": 681,
      "alia": 682,
      "abi": 683,
      "kla": 684,
      "veronika": 685,
      "bri": 686,
      "victor": 687,
      "sami": 688,
      "vil": 689,
      "ane": 690,
      "abdel": 691,
      "luis": 692,
      "olu": 693,
      "ay": 694,
      "fil": 695,
      "sunil": 696,
      "erina": 697,
      "krzy": 698,
      "pal": 699,
      "william": 700,
      "krisz": 701,
      "kevin": 702,
      "elia": 703,
      "ind": 704,
      "bus": 705,
      "etse": 706,
      "lara": 707,
      "jaku": 708,
      "shaik": 709,
      "jessi": 710,
      "ismail": 711,
      "ivi": 712,
      "carlos": 713,
      "put": 714,
      "ith": 715,
      "stan": 716,
      "filip": 717,
      "ini": 718,
      "jakub": 719,
      "via": 720,
      "bel": 721,
      "zel": 722,
      "aron": 723,
      "magdalena": 724,
      "bon": 725,
      "ama": 726,
      "gh": 727,
      "alb": 728,
      "nu": 729,
      "andrew": 730,
      "rina": 731,
      "attila": 732,
      "abdullah": 733,
      "cil": 734,
      "xh": 735,
      "zo": 736,
      "maja": 737,
      "jani": 738,
      "sia": 739,
      "kab": 740,
      "rish": 741,
      "sir": 742,
      "mig": 743,
      "asi": 744,
      "ony": 745,
      "marcin": 746,
      "bl": 747,
      "gina": 748,
      "sat": 749,
      "una": 750,
      "henry": 751,
      "pawel": 752,
      "jenny": 753,
      "charles": 754,
      "musta": 755,
      "shu": 756,
      "ajay": 757,
      "ric": 758,
      "des": 759,
      "jason": 760,
      "michelle": 761,
      "marie": 762,
      "fo": 763,
      "uli": 764,
      "vera": 765,
      "zden": 766,
      "sah": 767,
      "kari": 768,
      "pin": 769,
      "laura": 770,
      "them": 771,
      "lenka": 772,
      "zan": 773,
      "kko": 774,
      "milan": 775,
      "anil": 776,
      "udia": 777,
      "pha": 778,
      "vincent": 779,
      "sk": 780,
      "josip": 781,
      "amo": 782,
      "youssef": 783,
      "zul": 784,
      "cris": 785,
      "rul": 786,
      "sya": 787,
      "anth": 788,
      "wong": 789,
      "hamza": 790,
      "vijay": 791,
      "ide": 792,
      "toni": 793,
      "manoj": 794,
      "karolina": 795,
      "paula": 796,
      "sanna": 797,
      "jane": 798,
      "yl": 799,
      "sanjay": 800,
      "miros": 801,
      "mike": 802,
      "gi": 803,
      "irene": 804,
      "anton": 805,
      "iva": 806,
      "hal": 807,
      "kka": 808,
      "rachid": 809,
      "lucie": 810,
      "zim": 811,
      "af": 812,
      "jack": 813,
      "irul": 814,
      "krzysz": 815,
      "denis": 816,
      "krzysztof": 817,
      "sul": 818,
      "katarzyna": 819,
      "johannes": 820,
      "evel": 821,
      "rato": 822,
      "cio": 823,
      "hari": 824,
      "men": 825,
      "pelo": 826,
      "tsh": 827,
      "ng": 828,
      "rey": 829,
      "martha": 830,
      "sofia": 831,
      "flor": 832,
      "hanna": 833,
      "paulo": 834,
      "vo": 835,
      "jef": 836,
      "ewa": 837,
      "abdo": 838,
      "ray": 839,
      "eka": 840,
      "johanna": 841,
      "leo": 842,
      "cious": 843,
      "iza": 844,
      "lyn": 845,
      "wo": 846,
      "nom": 847,
      "tebogo": 848,
      "alvin": 849,
      "nar": 850,
      "joanna": 851,
      "tosh": 852,
      "fah": 853,
      "sri": 854,
      "joyce": 855,
      "nico": 856,
      "naz": 857,
      "moses": 858,
      "timo": 859,
      "par": 860,
      "dana": 861,
      "mislav": 862,
      "ricardo": 863,
      "for": 864,
      "ante": 865,
      "non": 866,
      "jud": 867,
      "susan": 868,
      "jaros": 869,
      "era": 870,
      "joz": 871,
      "jessica": 872,
      "etso": 873,
      "kal": 874,
      "miguel": 875,
      "malgorz": 876,
      "dian": 877,
      "hasan": 878,
      "malgorzata": 879,
      "eer": 880,
      "joel": 881,
      "zsol": 882,
      "precious": 883,
      "edu": 884,
      "suz": 885,
      "kgo": 886,
      "by": 887,
      "dri": 888,
      "nikola": 889,
      "bruno": 890,
      "itse": 891,
      "matej": 892,
      "ada": 893,
      "lukasz": 894,
      "katerina": 895,
      "tomasz": 896,
      "bles": 897,
      "steven": 898,
      "may": 899,
      "saif": 900,
      "jamin": 901,
      "benjamin": 902,
      "amal": 903,
      "roman": 904,
      "sham": 905,
      "che": 906,
      "beata": 907,
      "pr": 908,
      "krish": 909,
      "anthony": 910,
      "cin": 911,
      "ky": 912,
      "nab": 913,
      "adrian": 914,
      "sad": 915,
      "jor": 916,
      "jennifer": 917,
      "ika": 918,
      "bakar": 919,
      "cham": 920,
      "zsolt": 921,
      "vivi": 922,
      "natalia": 923,
      "paulina": 924,
      "thabo": 925,
      "jonat": 926,
      "iah": 927,
      "jonathan": 928,
      "jamal": 929,
      "edy": 930,
      "anu": 931,
      "dinesh": 932,
      "jozsef": 933,
      "zsuz": 934,
      "thato": 935,
      "sing": 936,
      "gen": 937,
      "sur": 938,
      "alen": 939,
      "hani": 940,
      "janos": 941,
      "emi": 942,
      "hamid": 943,
      "flo": 944,
      "bet": 945,
      "emma": 946,
      "stephen": 947,
      "adri": 948,
      "irena": 949,
      "ego": 950,
      "zah": 951,
      "mot": 952,
      "khan": 953,
      "gabriel": 954,
      "asa": 955,
      "santosh": 956,
      "pati": 957,
      "feli": 958,
      "kenn": 959,
      "shad": 960,
      "rat": 961,
      "tony": 962,
      "frans": 963,
      "ian": 964,
      "god": 965,
      "blessing": 966,
      "rahman": 967,
      "yam": 968,
      "let": 969,
      "bang": 970,
      "faiz": 971,
      "tomislav": 972,
      "oba": 973,
      "cel": 974,
      "khad": 975,
      "rakesh": 976,
      "vit": 977,
      "alice": 978,
      "gif": 979,
      "amar": 980,
      "ves": 981,
      "hj": 982,
      "deep": 983,
      "elis": 984,
      "ala": 985,
      "abdulla": 986,
      "deepak": 987,
      "zena": 988,
      "kristina": 989,
      "kwu": 990,
      "chukwu": 991,
      "sari": 992,
      "rui": 993,
      "usi": 994,
      "ilir": 995,
      "carol": 996,
      "sou": 997,
      "dominik": 998,
      "tun": 999,
      "ias": 1000,
      "joana": 1001,
      "marina": 1002,
      "krishna": 1003,
      "abul": 1004,
      "lucky": 1005,
      "hon": 1006,
      "erika": 1007,
      "een": 1008,
      "dari": 1009,
      "christo": 1010,
      "endy": 1011,
      "zen": 1012,
      "neo": 1013,
      "nd": 1014,
      "josef": 1015,
      "ward": 1016,
      "igor": 1017,
      "khal": 1018,
      "eddy": 1019,
      "adel": 1020,
      "rzej": 1021,
      "cie": 1022,
      "vish": 1023,
      "eg": 1024,
      "ayoub": 1025,
      "rol": 1026,
      "kle": 1027,
      "anwar": 1028,
      "mateusz": 1029,
      "khadija": 1030,
      "ines": 1031,
      "pp": 1032,
      "ashok": 1033,
      "prakash": 1034,
      "imran": 1035,
      "shua": 1036,
      "jim": 1037,
      "anas": 1038,
      "teresa": 1039,
      "andrzej": 1040,
      "dio": 1041,
      "mika": 1042,
      "fern": 1043,
      "mercy": 1044,
      "miha": 1045,
      "aw": 1046,
      "monica": 1047,
      "zelj": 1048,
      "sana": 1049,
      "edward": 1050,
      "abubakar": 1051,
      "fili": 1052,
      "lydia": 1053,
      "ut": 1054,
      "umar": 1055,
      "lebog": 1056,
      "jeta": 1057,
      "abel": 1058,
      "inda": 1059,
      "bil": 1060,
      "hay": 1061,
      "christian": 1062,
      "tshepo": 1063,
      "syed": 1064,
      "khairul": 1065,
      "hus": 1066,
      "sonu": 1067,
      "alfred": 1068,
      "zbi": 1069,
      "esi": 1070,
      "hafiz": 1071,
      "cla": 1072,
      "zain": 1073,
      "mati": 1074,
      "victoria": 1075,
      "artur": 1076,
      "lind": 1077,
      "yass": 1078,
      "shir": 1079,
      "jaco": 1080,
      "hicham": 1081,
      "nuno": 1082,
      "raymond": 1083,
      "arun": 1084,
      "azs": 1085,
      "balazs": 1086,
      "hab": 1087,
      "bad": 1088,
      "cs": 1089,
      "amit": 1090,
      "aleksandra": 1091,
      "saiful": 1092,
      "lili": 1093,
      "doro": 1094,
      "ino": 1095,
      "brahim": 1096,
      "budi": 1097,
      "muhamad": 1098,
      "tiago": 1099,
      "love": 1100,
      "mam": 1101,
      "sego": 1102,
      "ci": 1103,
      "abio": 1104,
      "sandor": 1105,
      "patry": 1106,
      "mur": 1107,
      "ow": 1108,
      "nis": 1109,
      "jet": 1110,
      "slaw": 1111,
      "hend": 1112,
      "ferenc": 1113,
      "joshua": 1114,
      "bam": 1115,
      "mun": 1116,
      "csab": 1117,
      "mahmo": 1118,
      "henri": 1119,
      "arben": 1120,
      "angela": 1121,
      "michaela": 1122,
      "kamil": 1123,
      "dora": 1124,
      "mukesh": 1125,
      "isal": 1126,
      "musa": 1127,
      "ales": 1128,
      "maj": 1129,
      "jeff": 1130,
      "lie": 1131,
      "andras": 1132,
      "isi": 1133,
      "lul": 1134,
      "mikko": 1135,
      "alo": 1136,
      "katle": 1137,
      "kristi": 1138,
      "aya": 1139,
      "cja": 1140,
      "klara": 1141,
      "christoph": 1142,
      "arm": 1143,
      "yah": 1144,
      "alin": 1145,
      "katalin": 1146,
      "faisal": 1147,
      "hit": 1148,
      "sebas": 1149,
      "andile": 1150,
      "gel": 1151,
      "wid": 1152,
      "adil": 1153,
      "yusuf": 1154,
      "sharon": 1155,
      "arina": 1156,
      "kenneth": 1157,
      "tafa": 1158,
      "vladi": 1159,
      "valen": 1160,
      "ira": 1161,
      "karim": 1162,
      "judit": 1163,
      "eza": 1164,
      "mustapha": 1165,
      "nadia": 1166,
      "grze": 1167,
      "miroslav": 1168,
      "csaba": 1169,
      "eko": 1170,
      "grzegorz": 1171,
      "mila": 1172,
      "lar": 1173,
      "ish": 1174,
      "teri": 1175,
      "kry": 1176,
      "frank": 1177,
      "iswa": 1178,
      "tshep": 1179,
      "haji": 1180,
      "katarina": 1181,
      "evelyn": 1182,
      "itumelo": 1183,
      "samir": 1184,
      "oliv": 1185,
      "tlo": 1186,
      "phil": 1187,
      "selma": 1188,
      "kit": 1189,
      "essa": 1190,
      "ernes": 1191,
      "joni": 1192,
      "rebe": 1193,
      "babu": 1194,
      "juha": 1195,
      "amina": 1196,
      "iw": 1197,
      "kele": 1198,
      "emilia": 1199,
      "dine": 1200,
      "tanja": 1201,
      "glo": 1202,
      "patience": 1203,
      "fari": 1204,
      "jimmy": 1205,
      "jad": 1206,
      "josephine": 1207,
      "paulus": 1208,
      "ayu": 1209,
      "katlego": 1210,
      "meri": 1211,
      "filwe": 1212,
      "christopher": 1213,
      "alal": 1214,
      "indra": 1215,
      "thew": 1216,
      "bran": 1217,
      "krys": 1218,
      "arl": 1219,
      "putra": 1220,
      "mia": 1221,
      "nelson": 1222,
      "gloria": 1223,
      "cyn": 1224,
      "thia": 1225,
      "cynthia": 1226,
      "petrus": 1227,
      "nada": 1228,
      "janet": 1229,
      "dewi": 1230,
      "ako": 1231,
      "itta": 1232,
      "manu": 1233,
      "ester": 1234,
      "tibor": 1235,
      "katja": 1236,
      "beat": 1237,
      "gon": 1238,
      "siva": 1239,
      "mahesh": 1240,
      "irfan": 1241,
      "andreas": 1242,
      "ville": 1243,
      "ekka": 1244,
      "lesego": 1245,
      "maryam": 1246,
      "fe": 1247,
      "mai": 1248,
      "met": 1249,
      "kag": 1250,
      "mit": 1251,
      "thu": 1252,
      "bun": 1253,
      "kelly": 1254,
      "eem": 1255,
      "sud": 1256,
      "szil": 1257,
      "mahmoud": 1258,
      "gail": 1259,
      "goran": 1260,
      "vas": 1261,
      "ilah": 1262,
      "fit": 1263,
      "ildi": 1264,
      "ach": 1265,
      "tereza": 1266,
      "daniela": 1267,
      "wal": 1268,
      "vladimir": 1269,
      "ganesh": 1270,
      "alan": 1271,
      "alban": 1272,
      "radek": 1273,
      "udu": 1274,
      "thabang": 1275,
      "mina": 1276,
      "von": 1277,
      "der": 1278,
      "akash": 1279,
      "melo": 1280,
      "sama": 1281,
      "rachel": 1282,
      "av": 1283,
      "islav": 1284,
      "edwin": 1285,
      "chan": 1286,
      "lebo": 1287,
      "col": 1288,
      "ett": 1289,
      "rafal": 1290,
      "khaled": 1291,
      "muhammed": 1292,
      "kabelo": 1293,
      "rohit": 1294,
      "nasir": 1295,
      "shid": 1296,
      "jorge": 1297,
      "vicky": 1298,
      "kofi": 1299,
      "sai": 1300,
      "boitumelo": 1301,
      "kaj": 1302,
      "wah": 1303,
      "antti": 1304,
      "andrej": 1305,
      "klaudia": 1306,
      "anie": 1307,
      "patrik": 1308,
      "abena": 1309,
      "hla": 1310,
      "ruth": 1311,
      "cilia": 1312,
      "etta": 1313,
      "lily": 1314,
      "cristina": 1315,
      "mariusz": 1316,
      "aj": 1317,
      "bambang": 1318,
      "amy": 1319,
      "og": 1320,
      "teo": 1321,
      "abigail": 1322,
      "saad": 1323,
      "lovel": 1324,
      "vinod": 1325,
      "bala": 1326,
      "enny": 1327,
      "christine": 1328,
      "con": 1329,
      "diogo": 1330,
      "krisztina": 1331,
      "wendy": 1332,
      "gu": 1333,
      "tang": 1334,
      "andri": 1335,
      "marin": 1336,
      "vor": 1337,
      "cindy": 1338,
      "bard": 1339,
      "ivica": 1340,
      "chandra": 1341,
      "xol": 1342,
      "max": 1343,
      "usman": 1344,
      "ildiko": 1345,
      "regina": 1346,
      "karabo": 1347,
      "erz": 1348,
      "aneta": 1349,
      "idi": 1350,
      "hadi": 1351,
      "veronica": 1352,
      "king": 1353,
      "alma": 1354,
      "lovely": 1355,
      "valentina": 1356,
      "pekka": 1357,
      "karen": 1358,
      "bern": 1359,
      "kagiso": 1360,
      "fir": 1361,
      "kang": 1362,
      "dorota": 1363,
      "florence": 1364,
      "omo": 1365,
      "suraj": 1366,
      "karia": 1367,
      "kasia": 1368,
      "chand": 1369,
      "marg": 1370,
      "yassine": 1371,
      "vu": 1372,
      "alexandra": 1373,
      "mali": 1374,
      "kelvin": 1375,
      "nicole": 1376,
      "mie": 1377,
      "woj": 1378,
      "fri": 1379,
      "tat": 1380,
      "zam": 1381,
      "euni": 1382,
      "yaw": 1383,
      "lerato": 1384,
      "oo": 1385,
      "eunice": 1386,
      "fes": 1387,
      "olga": 1388,
      "ilona": 1389,
      "ilda": 1390,
      "uta": 1391,
      "fahad": 1392,
      "mariam": 1393,
      "thabiso": 1394,
      "jari": 1395,
      "roland": 1396,
      "janne": 1397,
      "ity": 1398,
      "nancy": 1399,
      "faith": 1400,
      "tri": 1401,
      "salim": 1402,
      "haj": 1403,
      "viktor": 1404,
      "lebogang": 1405,
      "bh": 1406,
      "francisco": 1407,
      "jah": 1408,
      "asma": 1409,
      "sipho": 1410,
      "lon": 1411,
      "ora": 1412,
      "minna": 1413,
      "thapelo": 1414,
      "justyna": 1415,
      "cha": 1416,
      "sylw": 1417,
      "marketa": 1418,
      "roy": 1419,
      "fernando": 1420,
      "ond": 1421,
      "ved": 1422,
      "isabel": 1423,
      "jean": 1424,
      "zdenek": 1425,
      "jaroslav": 1426,
      "sain": 1427,
      "dina": 1428,
      "meh": 1429,
      "aiman": 1430,
      "matija": 1431,
      "tiina": 1432,
      "mohan": 1433,
      "amirul": 1434,
      "bra": 1435,
      "eszter": 1436,
      "wale": 1437,
      "rok": 1438,
      "carla": 1439,
      "yin": 1440,
      "syah": 1441,
      "sandee": 1442,
      "sandeep": 1443,
      "hamad": 1444,
      "solo": 1445,
      "solomon": 1446,
      "nour": 1447,
      "ete": 1448,
      "phiwe": 1449,
      "cca": 1450,
      "rebecca": 1451,
      "vivian": 1452,
      "dennis": 1453,
      "maya": 1454,
      "anja": 1455,
      "thando": 1456,
      "pris": 1457,
      "aisha": 1458,
      "damir": 1459,
      "sunday": 1460,
      "zsuzsanna": 1461,
      "aldo": 1462,
      "helen": 1463,
      "lal": 1464,
      "eug": 1465,
      "rid": 1466,
      "mb": 1467,
      "kay": 1468,
      "youn": 1469,
      "catarina": 1470,
      "nda": 1471,
      "zeljko": 1472,
      "altin": 1473,
      "mostafa": 1474,
      "vesna": 1475,
      "vanessa": 1476,
      "iwona": 1477,
      "goitse": 1478,
      "gre": 1479,
      "amanda": 1480,
      "iq": 1481,
      "jacob": 1482,
      "lucia": 1483,
      "hendra": 1484,
      "lea": 1485,
      "nad": 1486,
      "veen": 1487,
      "salma": 1488,
      "tomi": 1489,
      "jtim": 1490,
      "eda": 1491,
      "jukka": 1492,
      "sebastian": 1493,
      "kul": 1494,
      "ziq": 1495,
      "ernest": 1496,
      "amine": 1497,
      "farah": 1498,
      "zar": 1499,
      "shirley": 1500,
      "jela": 1501,
      "kati": 1502,
      "motso": 1503,
      "lem": 1504,
      "dawid": 1505,
      "liza": 1506,
      "fun": 1507,
      "tek": 1508,
      "jir": 1509,
      "was": 1510,
      "iwan": 1511,
      "honza": 1512,
      "lawren": 1513,
      "shiv": 1514,
      "zor": 1515,
      "sanja": 1516,
      "gabriela": 1517,
      "uk": 1518,
      "lisa": 1519,
      "kwame": 1520,
      "ea": 1521,
      "bby": 1522,
      "chong": 1523,
      "xhe": 1524,
      "jitka": 1525,
      "gyor": 1526,
      "leonard": 1527,
      "lava": 1528,
      "ardit": 1529,
      "brian": 1530,
      "nal": 1531,
      "aleksand": 1532,
      "prem": 1533,
      "dris": 1534,
      "abhi": 1535,
      "elina": 1536,
      "matti": 1537,
      "nabil": 1538,
      "ike": 1539,
      "jos": 1540,
      "gyorgy": 1541,
      "klo": 1542,
      "farid": 1543,
      "ania": 1544,
      "rana": 1545,
      "norbert": 1546,
      "jdi": 1547,
      "jeet": 1548,
      "jith": 1549,
      "elzbi": 1550,
      "elzbieta": 1551,
      "olas": 1552,
      "anni": 1553,
      "alam": 1554,
      "mariana": 1555,
      "yana": 1556,
      "kin": 1557,
      "leena": 1558,
      "eleng": 1559,
      "alexand": 1560,
      "ets": 1561,
      "priscil": 1562,
      "thand": 1563,
      "manish": 1564,
      "priya": 1565,
      "lady": 1566,
      "pand": 1567,
      "suzana": 1568,
      "karel": 1569,
      "alif": 1570,
      "lana": 1571,
      "vind": 1572,
      "tumelo": 1573,
      "lou": 1574,
      "yemi": 1575,
      "fort": 1576,
      "hlan": 1577,
      "hlanhla": 1578,
      "cecilia": 1579,
      "lucija": 1580,
      "nas": 1581,
      "vir": 1582,
      "cek": 1583,
      "gezim": 1584,
      "aku": 1585,
      "akh": 1586,
      "rom": 1587,
      "old": 1588,
      "philip": 1589,
      "herman": 1590,
      "egz": 1591,
      "kata": 1592,
      "arjun": 1593,
      "ath": 1594,
      "lawrence": 1595,
      "malak": 1596,
      "gift": 1597,
      "aman": 1598,
      "bash": 1599,
      "ife": 1600,
      "kate": 1601,
      "thi": 1602,
      "pir": 1603,
      "claudia": 1604,
      "danny": 1605,
      "ikka": 1606,
      "isiwe": 1607,
      "dejan": 1608,
      "priscilla": 1609,
      "darko": 1610,
      "paivi": 1611,
      "jacek": 1612,
      "hjh": 1613,
      "cholas": 1614,
      "nicholas": 1615,
      "zuzana": 1616,
      "por": 1617,
      "pon": 1618,
      "issa": 1619,
      "uso": 1620,
      "ivo": 1621,
      "sylwia": 1622,
      "var": 1623,
      "las": 1624,
      "besnik": 1625,
      "davor": 1626,
      "jure": 1627,
      "krisztian": 1628,
      "jaya": 1629,
      "dwi": 1630,
      "felix": 1631,
      "tea": 1632,
      "kwa": 1633,
      "mh": 1634,
      "desmond": 1635,
      "emu": 1636,
      "rudy": 1637,
      "jelena": 1638,
      "tade": 1639,
      "aug": 1640,
      "augus": 1641,
      "ricky": 1642,
      "fad": 1643,
      "eben": 1644,
      "aida": 1645,
      "ronald": 1646,
      "bernard": 1647,
      "bora": 1648,
      "bha": 1649,
      "abdullahi": 1650,
      "fatmir": 1651,
      "ble": 1652,
      "yousef": 1653,
      "nata": 1654,
      "dominika": 1655,
      "portia": 1656,
      "filipe": 1657,
      "bile": 1658,
      "kamila": 1659,
      "sameer": 1660,
      "gaone": 1661,
      "bla": 1662,
      "raham": 1663,
      "ladys": 1664,
      "roz": 1665,
      "pankaj": 1666,
      "lau": 1667,
      "tunde": 1668,
      "erwin": 1669,
      "iru": 1670,
      "theo": 1671,
      "jaz": 1672,
      "habib": 1673,
      "natali": 1674,
      "daus": 1675,
      "zem": 1676,
      "syafiq": 1677,
      "tus": 1678,
      "queen": 1679,
      "quel": 1680,
      "alda": 1681,
      "ashraf": 1682,
      "vishal": 1683,
      "putri": 1684,
      "jona": 1685,
      "com": 1686,
      "adela": 1687,
      "umi": 1688,
      "macie": 1689,
      "maciej": 1690,
      "nen": 1691,
      "sylvia": 1692,
      "au": 1693,
      "dev": 1694,
      "kan": 1695,
      "ano": 1696,
      "tis": 1697,
      "vitor": 1698,
      "dim": 1699,
      "elvis": 1700,
      "rej": 1701,
      "lax": 1702,
      "zakaria": 1703,
      "agim": 1704,
      "natasa": 1705,
      "ondrej": 1706,
      "sonia": 1707,
      "gladys": 1708,
      "alexander": 1709,
      "adnan": 1710,
      "of": 1711,
      "die": 1712,
      "agata": 1713,
      "jol": 1714,
      "jee": 1715,
      "mirjana": 1716,
      "lung": 1717,
      "sagar": 1718,
      "eed": 1719,
      "rashid": 1720,
      "haziq": 1721,
      "ilesh": 1722,
      "kenny": 1723,
      "bence": 1724,
      "albi": 1725,
      "petar": 1726,
      "charity": 1727,
      "jerry": 1728,
      "hr": 1729,
      "boy": 1730,
      "simona": 1731,
      "imi": 1732,
      "shek": 1733,
      "gil": 1734,
      "teemu": 1735,
      "magda": 1736,
      "nam": 1737,
      "danijel": 1738,
      "kas": 1739,
      "ise": 1740,
      "doris": 1741,
      "comfort": 1742,
      "jaana": 1743,
      "hanan": 1744,
      "bozena": 1745,
      "zdenka": 1746,
      "agron": 1747,
      "sale": 1748,
      "ervin": 1749,
      "ivy": 1750,
      "zoran": 1751,
      "onga": 1752,
      "yong": 1753,
      "ig": 1754,
      "boris": 1755,
      "sunny": 1756,
      "ema": 1757,
      "ip": 1758,
      "dija": 1759,
      "fabio": 1760,
      "lesh": 1761,
      "lat": 1762,
      "mateja": 1763,
      "kes": 1764,
      "tshego": 1765,
      "herine": 1766,
      "catherine": 1767,
      "damian": 1768,
      "szilvia": 1769,
      "oth": 1770,
      "gabriella": 1771,
      "pearl": 1772,
      "heidi": 1773,
      "masego": 1774,
      "renato": 1775,
      "salah": 1776,
      "annie": 1777,
      "kinga": 1778,
      "ntom": 1779,
      "brigh": 1780,
      "mae": 1781,
      "abraham": 1782,
      "saj": 1783,
      "kazi": 1784,
      "wer": 1785,
      "ain": 1786,
      "ede": 1787,
      "pul": 1788,
      "salman": 1789,
      "wahyu": 1790,
      "jabul": 1791,
      "bian": 1792,
      "obak": 1793,
      "ole": 1794,
      "viktoria": 1795,
      "aina": 1796,
      "busiso": 1797,
      "stefan": 1798,
      "reen": 1799,
      "lov": 1800,
      "clav": 1801,
      "vaclav": 1802,
      "laila": 1803,
      "ais": 1804,
      "rie": 1805,
      "oma": 1806,
      "ome": 1807,
      "tshepiso": 1808,
      "inno": 1809,
      "innocent": 1810,
      "afiq": 1811,
      "petri": 1812,
      "yvon": 1813,
      "yvonne": 1814,
      "ayman": 1815,
      "elda": 1816,
      "artan": 1817,
      "mavis": 1818,
      "etty": 1819,
      "natasha": 1820,
      "sn": 1821,
      "tl": 1822,
      "tit": 1823,
      "nikolina": 1824,
      "ior": 1825,
      "junior": 1826,
      "sho": 1827,
      "szab": 1828,
      "markus": 1829,
      "kuba": 1830,
      "sie": 1831,
      "bryan": 1832,
      "tsholo": 1833,
      "christina": 1834,
      "suman": 1835,
      "tari": 1836,
      "alber": 1837,
      "krystyna": 1838,
      "gora": 1839,
      "goh": 1840,
      "nej": 1841,
      "kol": 1842,
      "ashley": 1843,
      "timea": 1844,
      "tiana": 1845,
      "pradeep": 1846,
      "kabo": 1847,
      "ardian": 1848,
      "sley": 1849,
      "jola": 1850,
      "lindi": 1851,
      "gopal": 1852,
      "male": 1853,
      "trit": 1854,
      "astrit": 1855,
      "emily": 1856,
      "lena": 1857,
      "gerald": 1858,
      "joze": 1859,
      "sonja": 1860,
      "iqbal": 1861,
      "shkel": 1862,
      "chai": 1863,
      "susana": 1864,
      "mang": 1865,
      "ner": 1866,
      "usu": 1867,
      "abdula": 1868,
      "kristyna": 1869,
      "hos": 1870,
      "kand": 1871,
      "rafa": 1872,
      "muthu": 1873,
      "kgomotso": 1874,
      "mehdi": 1875,
      "sti": 1876,
      "moza": 1877,
      "sabina": 1878,
      "joko": 1879,
      "kok": 1880,
      "manuela": 1881,
      "dariusz": 1882,
      "glen": 1883,
      "firdaus": 1884,
      "voj": 1885,
      "patrycja": 1886,
      "lucy": 1887,
      "mau": 1888,
      "joey": 1889,
      "edit": 1890,
      "ethu": 1891,
      "sebet": 1892,
      "erzsebet": 1893,
      "bongani": 1894,
      "bilal": 1895,
      "przem": 1896,
      "gie": 1897,
      "esia": 1898,
      "hugo": 1899,
      "izz": 1900,
      "app": 1901,
      "maame": 1902,
      "olivia": 1903,
      "khai": 1904,
      "felo": 1905,
      "fau": 1906,
      "gifty": 1907,
      "int": 1908,
      "naresh": 1909,
      "jolan": 1910,
      "ewel": 1911,
      "chen": 1912,
      "ruben": 1913,
      "didi": 1914,
      "julius": 1915,
      "umesh": 1916,
      "ewelina": 1917,
      "ket": 1918,
      "khu": 1919,
      "nthab": 1920,
      "satu": 1921,
      "siy": 1922,
      "mateo": 1923,
      "mine": 1924,
      "surya": 1925,
      "cher": 1926,
      "bujar": 1927,
      "nikolet": 1928,
      "ibu": 1929,
      "dip": 1930,
      "marcela": 1931,
      "karlo": 1932,
      "kor": 1933,
      "ette": 1934,
      "nah": 1935,
      "sak": 1936,
      "shar": 1937,
      "andla": 1938,
      "monir": 1939,
      "grazyna": 1940,
      "jussi": 1941,
      "iina": 1942,
      "hendri": 1943,
      "saman": 1944,
      "ezer": 1945,
      "ebenezer": 1946,
      "dur": 1947,
      "marijana": 1948,
      "rek": 1949,
      "eno": 1950,
      "ct": 1951,
      "zanele": 1952,
      "shyam": 1953,
      "moj": 1954,
      "sani": 1955,
      "tshi": 1956,
      "danuta": 1957,
      "roshan": 1958,
      "lavi": 1959,
      "sarka": 1960,
      "kiran": 1961,
      "hali": 1962,
      "kujtim": 1963,
      "kirsi": 1964,
      "aniko": 1965,
      "eugene": 1966,
      "elsa": 1967,
      "fatin": 1968,
      "abile": 1969,
      "pol": 1970,
      "pav": 1971,
      "wati": 1972,
      "jonas": 1973,
      "elena": 1974,
      "slav": 1975,
      "ender": 1976,
      "sachin": 1977,
      "shahid": 1978,
      "rag": 1979,
      "sasa": 1980,
      "hussain": 1981,
      "bhar": 1982,
      "arber": 1983,
      "ziz": 1984,
      "ilo": 1985,
      "dineo": 1986,
      "marjo": 1987,
      "juliet": 1988,
      "jolanta": 1989,
      "danijela": 1990,
      "ikki": 1991,
      "kac": 1992,
      "salam": 1993,
      "lene": 1994,
      "mustafa": 1995,
      "sally": 1996,
      "piet": 1997,
      "tah": 1998,
      "felicia": 1999,
      "stella": 2000,
      "bright": 2001,
      "justin": 2002,
      "themba": 2003,
      "adwo": 2004,
      "phum": 2005,
      "bernad": 2006,
      "srin": 2007,
      "dhar": 2008,
      "agung": 2009,
      "athi": 2010,
      "thul": 2011,
      "patryk": 2012,
      "denisa": 2013,
      "ilham": 2014,
      "rus": 2015,
      "malik": 2016,
      "wik": 2017,
      "marco": 2018,
      "calo": 2019,
      "alyn": 2020,
      "endrit": 2021,
      "celyn": 2022,
      "goncalo": 2023,
      "alina": 2024,
      "thy": 2025,
      "godwin": 2026,
      "jib": 2027,
      "zak": 2028,
      "omph": 2029,
      "anand": 2030,
      "zainab": 2031,
      "sula": 2032,
      "asif": 2033,
      "arida": 2034,
      "margarida": 2035,
      "bela": 2036,
      "rosa": 2037,
      "mou": 2038,
      "matthew": 2039,
      "imam": 2040,
      "jirka": 2041,
      "milena": 2042,
      "barbora": 2043,
      "maz": 2044,
      "bis": 2045,
      "pavla": 2046,
      "aleksander": 2047,
      "islam": 2048,
      "gesh": 2049,
      "nit": 2050,
      "angeli": 2051,
      "elton": 2052,
      "lad": 2053,
      "marika": 2054,
      "klajdi": 2055,
      "voje": 2056,
      "hrvoje": 2057,
      "andreja": 2058,
      "abonga": 2059,
      "lawa": 2060,
      "awang": 2061,
      "ase": 2062,
      "raquel": 2063,
      "egzon": 2064,
      "wis": 2065,
      "ellen": 2066,
      "owusu": 2067,
      "maine": 2068,
      "shal": 2069,
      "harri": 2070,
      "ciech": 2071,
      "wojciech": 2072,
      "kon": 2073,
      "oja": 2074,
      "sei": 2075,
      "pooja": 2076,
      "rizal": 2077,
      "tamara": 2078,
      "pawan": 2079,
      "nela": 2080,
      "tomaz": 2081,
      "stanley": 2082,
      "gide": 2083,
      "gideon": 2084,
      "rome": 2085,
      "adrien": 2086,
      "atish": 2087,
      "wad": 2088,
      "irwan": 2089,
      "itumeleng": 2090,
      "yassin": 2091,
      "chua": 2092,
      "dus": 2093,
      "ermal": 2094,
      "danish": 2095,
      "gaz": 2096,
      "ban": 2097,
      "bogile": 2098,
      "kelebogile": 2099,
      "alhassan": 2100,
      "lip": 2101,
      "erick": 2102,
      "dilip": 2103,
      "stje": 2104,
      "dario": 2105,
      "tarja": 2106,
      "liz": 2107,
      "omi": 2108,
      "gergo": 2109,
      "chandan": 2110,
      "edis": 2111,
      "petrit": 2112,
      "sokol": 2113,
      "kingsley": 2114,
      "kristijan": 2115,
      "kefilwe": 2116,
      "dol": 2117,
      "mirela": 2118,
      "filipa": 2119,
      "ikh": 2120,
      "marja": 2121,
      "get": 2122,
      "mona": 2123,
      "sp": 2124,
      "gr": 2125,
      "maril": 2126,
      "jitendra": 2127,
      "heng": 2128,
      "juliana": 2129,
      "faizal": 2130,
      "idah": 2131,
      "arjan": 2132,
      "sharif": 2133,
      "mul": 2134,
      "seg": 2135,
      "ayanda": 2136,
      "tice": 2137,
      "justice": 2138,
      "omir": 2139,
      "lucas": 2140,
      "yuli": 2141,
      "nika": 2142,
      "gofa": 2143,
      "winnie": 2144,
      "stjepan": 2145,
      "tommy": 2146,
      "nasser": 2147,
      "refilwe": 2148,
      "romeo": 2149,
      "que": 2150,
      "matea": 2151,
      "zica": 2152,
      "hamed": 2153,
      "festus": 2154,
      "imre": 2155,
      "jasmin": 2156,
      "imane": 2157,
      "joon": 2158,
      "rafael": 2159,
      "aliyu": 2160,
      "soph": 2161,
      "ago": 2162,
      "yap": 2163,
      "driss": 2164,
      "ashish": 2165,
      "aq": 2166,
      "xhi": 2167,
      "maa": 2168,
      "reka": 2169,
      "mla": 2170,
      "gio": 2171,
      "sergio": 2172,
      "vet": 2173,
      "akos": 2174,
      "bojan": 2175,
      "yen": 2176,
      "brig": 2177,
      "dun": 2178,
      "ogelo": 2179,
      "fatjon": 2180,
      "aleksi": 2181,
      "aminu": 2182,
      "kwaku": 2183,
      "achmad": 2184,
      "margar": 2185,
      "div": 2186,
      "malebogo": 2187,
      "alicja": 2188,
      "gent": 2189,
      "sumon": 2190,
      "josipa": 2191,
      "hannah": 2192,
      "sule": 2193,
      "sta": 2194,
      "kun": 2195,
      "pum": 2196,
      "suha": 2197,
      "gorata": 2198,
      "etu": 2199,
      "yanto": 2200,
      "rani": 2201,
      "markku": 2202,
      "bler": 2203,
      "yaz": 2204,
      "itya": 2205,
      "well": 2206,
      "are": 2207,
      "fatimah": 2208,
      "rado": 2209,
      "gregor": 2210,
      "jocelyn": 2211,
      "faruk": 2212,
      "romana": 2213,
      "bola": 2214,
      "zahra": 2215,
      "tta": 2216,
      "mladen": 2217,
      "bou": 2218,
      "tuo": 2219,
      "sulaiman": 2220,
      "sua": 2221,
      "neha": 2222,
      "anto": 2223,
      "nelly": 2224,
      "yaku": 2225,
      "benny": 2226,
      "koh": 2227,
      "thoko": 2228,
      "blerim": 2229,
      "bader": 2230,
      "immanuel": 2231,
      "amari": 2232,
      "shik": 2233,
      "ii": 2234,
      "tai": 2235,
      "flori": 2236,
      "susanna": 2237,
      "mathew": 2238,
      "anga": 2239,
      "joaqu": 2240,
      "ime": 2241,
      "kola": 2242,
      "eke": 2243,
      "beatriz": 2244,
      "nko": 2245,
      "bona": 2246,
      "qend": 2247,
      "hilma": 2248,
      "asia": 2249,
      "bost": 2250,
      "bostjan": 2251,
      "dorc": 2252,
      "ous": 2253,
      "zso": 2254,
      "emeka": 2255,
      "edmond": 2256,
      "viol": 2257,
      "marzena": 2258,
      "azim": 2259,
      "harry": 2260,
      "beatri": 2261,
      "arta": 2262,
      "johnson": 2263,
      "gergel": 2264,
      "gergely": 2265,
      "mik": 2266,
      "urav": 2267,
      "murug": 2268,
      "lorato": 2269,
      "lajos": 2270,
      "jeffrey": 2271,
      "szy": 2272,
      "yaone": 2273,
      "tuomas": 2274,
      "cah": 2275,
      "usa": 2276,
      "rajkumar": 2277,
      "pram": 2278,
      "pramod": 2279,
      "fatma": 2280,
      "blan": 2281,
      "blanka": 2282,
      "riitta": 2283,
      "sohel": 2284,
      "luan": 2285,
      "saara": 2286,
      "iveta": 2287,
      "vita": 2288,
      "abhishek": 2289,
      "joonas": 2290,
      "lesedi": 2291,
      "pavlina": 2292,
      "ace": 2293,
      "andreia": 2294,
      "snje": 2295,
      "ilwe": 2296,
      "uddin": 2297,
      "yed": 2298,
      "hang": 2299,
      "thandi": 2300,
      "liri": 2301,
      "sher": 2302,
      "hannu": 2303,
      "gordana": 2304,
      "vikash": 2305,
      "fik": 2306,
      "bianca": 2307,
      "mimoza": 2308,
      "branko": 2309,
      "milos": 2310,
      "kamo": 2311,
      "izabela": 2312,
      "snjezana": 2313,
      "tti": 2314,
      "eliska": 2315,
      "matjaz": 2316,
      "heikki": 2317,
      "rama": 2318,
      "endri": 2319,
      "hy": 2320,
      "tso": 2321,
      "pirjo": 2322,
      "szymon": 2323,
      "juho": 2324,
      "frantis": 2325,
      "julie": 2326,
      "syam": 2327,
      "iseng": 2328,
      "nthabiseng": 2329,
      "calvin": 2330,
      "shay": 2331,
      "ofo": 2332,
      "nang": 2333,
      "walid": 2334,
      "stanis": 2335,
      "rajan": 2336,
      "ks": 2337,
      "maxwell": 2338,
      "kago": 2339,
      "dag": 2340,
      "sahil": 2341,
      "radka": 2342,
      "noku": 2343,
      "donald": 2344,
      "obaa": 2345,
      "tuula": 2346,
      "pia": 2347,
      "bongile": 2348,
      "pasi": 2349,
      "anis": 2350,
      "etsi": 2351,
      "uda": 2352,
      "betty": 2353,
      "isu": 2354,
      "ope": 2355,
      "kur": 2356,
      "redi": 2357,
      "bek": 2358,
      "itz": 2359,
      "deen": 2360,
      "ito": 2361,
      "samantha": 2362,
      "ami": 2363,
      "naomi": 2364,
      "flam": 2365,
      "ledi": 2366,
      "satish": 2367,
      "mago": 2368,
      "tatjana": 2369,
      "flamur": 2370,
      "joaquim": 2371,
      "dita": 2372,
      "olcs": 2373,
      "szabolcs": 2374,
      "entse": 2375,
      "yol": 2376,
      "frantisek": 2377,
      "intan": 2378,
      "arman": 2379,
      "inka": 2380,
      "kamogelo": 2381,
      "hajar": 2382,
      "miklos": 2383,
      "aditya": 2384,
      "ling": 2385,
      "dagmar": 2386,
      "dipak": 2387,
      "lum": 2388,
      "nagy": 2389,
      "dritan": 2390,
      "shankar": 2391,
      "erik": 2392,
      "adamu": 2393,
      "eki": 2394,
      "kwabena": 2395,
      "mod": 2396,
      "oussama": 2397,
      "azmi": 2398,
      "ylli": 2399,
      "koketso": 2400,
      "kumari": 2401,
      "noel": 2402,
      "ntombi": 2403,
      "bashkim": 2404,
      "hakim": 2405,
      "elias": 2406,
      "osei": 2407,
      "jawad": 2408,
      "ndesh": 2409,
      "lai": 2410,
      "charmaine": 2411,
      "ioma": 2412,
      "tommi": 2413,
      "armando": 2414,
      "gir": 2415,
      "frieda": 2416,
      "melinda": 2417,
      "vina": 2418,
      "bunga": 2419,
      "aaron": 2420,
      "mma": 2421,
      "til": 2422,
      "vida": 2423,
      "csil": 2424,
      "csilla": 2425,
      "nick": 2426,
      "amos": 2427,
      "arlind": 2428,
      "caroline": 2429,
      "matilda": 2430,
      "erjon": 2431,
      "haris": 2432,
      "mojca": 2433,
      "olli": 2434,
      "zsuzsa": 2435,
      "shiva": 2436,
      "balint": 2437,
      "adrienn": 2438,
      "lindiwe": 2439,
      "amil": 2440,
      "akshay": 2441,
      "adriana": 2442,
      "margaret": 2443,
      "tomek": 2444,
      "dusan": 2445,
      "yakubu": 2446,
      "eal": 2447,
      "akmal": 2448,
      "lauri": 2449,
      "gert": 2450,
      "sophia": 2451,
      "guna": 2452,
      "gofaone": 2453,
      "ervis": 2454,
      "danial": 2455,
      "bir": 2456,
      "judith": 2457,
      "kamlesh": 2458,
      "eduardo": 2459,
      "ras": 2460,
      "pel": 2461,
      "domago": 2462,
      "domagoj": 2463,
      "gnie": 2464,
      "leong": 2465,
      "zbignie": 2466,
      "zbigniew": 2467,
      "kene": 2468,
      "lati": 2469,
      "saf": 2470,
      "kaw": 2471,
      "endang": 2472,
      "indah": 2473,
      "dharm": 2474,
      "naledi": 2475,
      "stus": 2476,
      "merja": 2477,
      "erastus": 2478,
      "bat": 2479,
      "yaa": 2480,
      "shil": 2481,
      "shpet": 2482,
      "shpetim": 2483,
      "hor": 2484,
      "tsholofelo": 2485,
      "karan": 2486,
      "pauline": 2487,
      "irma": 2488,
      "zlat": 2489,
      "luisa": 2490,
      "janusz": 2491,
      "thil": 2492,
      "annan": 2493,
      "senthil": 2494,
      "lia": 2495,
      "aba": 2496,
      "mubara": 2497,
      "mubarak": 2498,
      "zin": 2499,
      "kush": 2500,
      "jasmine": 2501,
      "nani": 2502,
      "collin": 2503,
      "soufi": 2504,
      "abdellah": 2505,
      "khumo": 2506,
      "aisyah": 2507,
      "bharat": 2508,
      "ardi": 2509,
      "blaz": 2510,
      "arian": 2511,
      "praveen": 2512,
      "une": 2513,
      "maureen": 2514,
      "uche": 2515,
      "lirim": 2516,
      "munna": 2517,
      "nizam": 2518,
      "valon": 2519,
      "fitri": 2520,
      "tle": 2521,
      "loide": 2522,
      "alaa": 2523,
      "mamun": 2524,
      "noora": 2525,
      "ongo": 2526,
      "karoly": 2527,
      "oluwa": 2528,
      "rosal": 2529,
      "janice": 2530,
      "ijo": 2531,
      "drazen": 2532,
      "abder": 2533,
      "agye": 2534,
      "jac": 2535,
      "abdulrahman": 2536,
      "anxh": 2537,
      "bul": 2538,
      "zv": 2539,
      "arvind": 2540,
      "onalen": 2541,
      "onalenna": 2542,
      "ikram": 2543,
      "lud": 2544,
      "bartek": 2545,
      "edyta": 2546,
      "miri": 2547,
      "elisa": 2548,
      "stephanie": 2549,
      "rick": 2550,
      "barto": 2551,
      "hayati": 2552,
      "halina": 2553,
      "xhul": 2554,
      "reda": 2555,
      "azman": 2556,
      "afrim": 2557,
      "cho": 2558,
      "kristof": 2559,
      "vale": 2560,
      "bhu": 2561,
      "riot": 2562,
      "kast": 2563,
      "joanne": 2564,
      "adu": 2565,
      "kastriot": 2566,
      "hir": 2567,
      "rubel": 2568,
      "jerome": 2569,
      "priyan": 2570,
      "silvia": 2571,
      "dai": 2572,
      "genti": 2573,
      "shub": 2574,
      "naim": 2575,
      "matias": 2576,
      "sirpa": 2577,
      "lidija": 2578,
      "tham": 2579,
      "zal": 2580,
      "lid": 2581,
      "aslam": 2582,
      "arto": 2583,
      "aur": 2584,
      "iton": 2585,
      "mei": 2586,
      "vuyo": 2587,
      "nou": 2588,
      "sile": 2589,
      "vivien": 2590,
      "achraf": 2591,
      "keneilwe": 2592,
      "dk": 2593,
      "akua": 2594,
      "imah": 2595,
      "kannan": 2596,
      "seth": 2597,
      "zeljka": 2598,
      "thata": 2599,
      "arief": 2600,
      "kova": 2601,
      "kovacs": 2602,
      "dali": 2603,
      "liew": 2604,
      "sub": 2605,
      "ire": 2606,
      "obakeng": 2607,
      "zsofia": 2608,
      "gyula": 2609,
      "wei": 2610,
      "heli": 2611,
      "joan": 2612,
      "eija": 2613,
      "pretty": 2614,
      "bunda": 2615,
      "yash": 2616,
      "favo": 2617,
      "favour": 2618,
      "vie": 2619,
      "phillip": 2620,
      "sayed": 2621,
      "eez": 2622,
      "uros": 2623,
      "ankit": 2624,
      "sime": 2625,
      "dimpho": 2626,
      "jasna": 2627,
      "maha": 2628,
      "carolina": 2629,
      "onye": 2630,
      "dorcas": 2631,
      "lubo": 2632,
      "pro": 2633,
      "sandile": 2634,
      "tero": 2635,
      "qim": 2636,
      "mihal": 2637,
      "shkelqim": 2638,
      "buhle": 2639,
      "marijan": 2640,
      "amaria": 2641,
      "low": 2642,
      "melissa": 2643,
      "arn": 2644,
      "masud": 2645,
      "jaak": 2646,
      "laxman": 2647,
      "jaakko": 2648,
      "jie": 2649,
      "boit": 2650,
      "zd": 2651,
      "connie": 2652,
      "fiso": 2653,
      "dave": 2654,
      "ppo": 2655,
      "shab": 2656,
      "idris": 2657,
      "dalibor": 2658,
      "johnny": 2659,
      "rene": 2660,
      "bablu": 2661,
      "bledi": 2662,
      "lorena": 2663,
      "juna": 2664,
      "carlo": 2665,
      "nikolett": 2666,
      "gj": 2667,
      "edina": 2668,
      "rini": 2669,
      "bartosz": 2670,
      "fu": 2671,
      "vek": 2672,
      "vivek": 2673,
      "tul": 2674,
      "akbar": 2675,
      "osman": 2676,
      "naser": 2677,
      "sunita": 2678,
      "farhan": 2679,
      "ppy": 2680,
      "fatso": 2681,
      "tshegofatso": 2682,
      "mogo": 2683,
      "clem": 2684,
      "polo": 2685,
      "siyabonga": 2686,
      "edison": 2687,
      "clement": 2688,
      "etswe": 2689,
      "antonija": 2690,
      "jacky": 2691,
      "sadi": 2692,
      "vko": 2693,
      "atu": 2694,
      "noemi": 2695,
      "hone": 2696,
      "set": 2697,
      "abdur": 2698,
      "mitja": 2699,
      "honey": 2700,
      "lizzy": 2701,
      "taiwo": 2702,
      "bashir": 2703,
      "palesa": 2704,
      "shubham": 2705,
      "anamari": 2706,
      "dragan": 2707,
      "angelo": 2708,
      "sumit": 2709,
      "ofentse": 2710,
      "lj": 2711,
      "niina": 2712,
      "heru": 2713,
      "bonolo": 2714,
      "oliver": 2715,
      "ratna": 2716,
      "fernanda": 2717,
      "rahmat": 2718,
      "ranjit": 2719,
      "elaine": 2720,
      "saravan": 2721,
      "albana": 2722,
      "saravanan": 2723,
      "nir": 2724,
      "oscar": 2725,
      "lemon": 2726,
      "pas": 2727,
      "martyna": 2728,
      "amaka": 2729,
      "vesa": 2730,
      "frey": 2731,
      "shant": 2732,
      "godfrey": 2733,
      "kg": 2734,
      "kandar": 2735,
      "marian": 2736,
      "angir": 2737,
      "jahangir": 2738,
      "nhlanhla": 2739,
      "azhar": 2740,
      "emetse": 2741,
      "ramu": 2742,
      "omphile": 2743,
      "laone": 2744,
      "elisab": 2745,
      "zuz": 2746,
      "ppu": 2747,
      "valbona": 2748,
      "louis": 2749,
      "kristian": 2750,
      "way": 2751,
      "anamarija": 2752,
      "anyi": 2753,
      "ladislav": 2754,
      "mimi": 2755,
      "lju": 2756,
      "kaisa": 2757,
      "bled": 2758,
      "flora": 2759,
      "ttu": 2760,
      "syaz": 2761,
      "blerina": 2762,
      "hafeni": 2763,
      "nomsa": 2764,
      "shpr": 2765,
      "abbas": 2766,
      "shpresa": 2767,
      "alexandre": 2768,
      "saddam": 2769,
      "adelina": 2770,
      "luk": 2771,
      "abdou": 2772,
      "dori": 2773,
      "cik": 2774,
      "apri": 2775,
      "wena": 2776,
      "rowena": 2777,
      "erion": 2778,
      "lca": 2779,
      "vjol": 2780,
      "zlatko": 2781,
      "vjollca": 2782,
      "kimmo": 2783,
      "gran": 2784,
      "willem": 2785,
      "miso": 2786,
      "dudu": 2787,
      "rod": 2788,
      "weronika": 2789,
      "karth": 2790,
      "osama": 2791,
      "rab": 2792,
      "rajendra": 2793,
      "thusi": 2794,
      "maricel": 2795,
      "bayo": 2796,
      "jeev": 2797,
      "jojo": 2798,
      "allan": 2799,
      "dh": 2800,
      "rati": 2801,
      "ment": 2802,
      "bekim": 2803,
      "mihaly": 2804,
      "dino": 2805,
      "haruna": 2806,
      "yanti": 2807,
      "mawar": 2808,
      "molo": 2809,
      "jerzy": 2810,
      "nazrul": 2811,
      "ell": 2812,
      "siham": 2813,
      "sibusiso": 2814,
      "arnold": 2815,
      "sali": 2816,
      "zile": 2817,
      "hau": 2818,
      "binod": 2819,
      "thandeka": 2820,
      "fanni": 2821,
      "erna": 2822,
      "nisha": 2823,
      "imad": 2824,
      "jaroslaw": 2825,
      "giv": 2826,
      "mesh": 2827,
      "eze": 2828,
      "marwa": 2829,
      "henna": 2830,
      "veera": 2831,
      "mahendra": 2832,
      "samira": 2833,
      "oluw": 2834,
      "liliana": 2835,
      "wies": 2836,
      "nara": 2837,
      "evan": 2838,
      "evans": 2839,
      "branka": 2840,
      "berto": 2841,
      "saleem": 2842,
      "xolani": 2843,
      "yeo": 2844,
      "inah": 2845,
      "elona": 2846,
      "sultan": 2847,
      "borah": 2848,
      "deborah": 2849,
      "miro": 2850,
      "christiana": 2851,
      "pam": 2852,
      "santho": 2853,
      "santhosh": 2854,
      "tebo": 2855,
      "blerta": 2856,
      "jali": 2857,
      "ska": 2858,
      "ifeanyi": 2859,
      "pieter": 2860,
      "bello": 2861,
      "zine": 2862,
      "urdes": 2863,
      "zineb": 2864,
      "madhu": 2865,
      "jasa": 2866,
      "ferry": 2867,
      "mizan": 2868,
      "jasmina": 2869,
      "tarik": 2870,
      "mise": 2871,
      "xhev": 2872,
      "promise": 2873,
      "ndu": 2874,
      "tjan": 2875,
      "angga": 2876,
      "belinda": 2877,
      "thula": 2878,
      "ivona": 2879,
      "mihael": 2880,
      "zandile": 2881,
      "alai": 2882,
      "noura": 2883,
      "mandla": 2884,
      "endi": 2885,
      "franco": 2886,
      "isra": 2887,
      "wasi": 2888,
      "jesse": 2889,
      "kaone": 2890,
      "nejc": 2891,
      "dima": 2892,
      "ileen": 2893,
      "keitum": 2894,
      "pewa": 2895,
      "keitumetse": 2896,
      "ms": 2897,
      "hayat": 2898,
      "horv": 2899,
      "faus": 2900,
      "rashe": 2901,
      "jenna": 2902,
      "rasheed": 2903,
      "jouni": 2904,
      "wani": 2905,
      "amelia": 2906,
      "bayu": 2907,
      "wilson": 2908,
      "imelda": 2909,
      "liridon": 2910,
      "szabo": 2911,
      "alenka": 2912,
      "marjan": 2913,
      "theus": 2914,
      "chioma": 2915,
      "kawtar": 2916,
      "ese": 2917,
      "ziga": 2918,
      "katrina": 2919,
      "rica": 2920,
      "tik": 2921,
      "jessie": 2922,
      "shamim": 2923,
      "sanju": 2924,
      "eduart": 2925,
      "mj": 2926,
      "akosua": 2927,
      "jakir": 2928,
      "herry": 2929,
      "ulia": 2930,
      "esan": 2931,
      "leh": 2932,
      "nikol": 2933,
      "murugan": 2934,
      "toko": 2935,
      "yudi": 2936,
      "fitim": 2937,
      "kacper": 2938,
      "liisa": 2939,
      "bru": 2940,
      "salem": 2941,
      "bruna": 2942,
      "nura": 2943,
      "thulani": 2944,
      "rasel": 2945,
      "lulzim": 2946,
      "tra": 2947,
      "stepan": 2948,
      "daria": 2949,
      "rai": 2950,
      "iki": 2951,
      "lindo": 2952,
      "dhi": 2953,
      "fillemon": 2954,
      "horvath": 2955,
      "use": 2956,
      "spela": 2957,
      "karthik": 2958,
      "jadran": 2959,
      "sankar": 2960,
      "ursz": 2961,
      "akram": 2962,
      "wojtek": 2963,
      "urszula": 2964,
      "lone": 2965,
      "othman": 2966,
      "rodri": 2967,
      "haz": 2968,
      "rodrigo": 2969,
      "eniko": 2970,
      "andon": 2971,
      "genc": 2972,
      "tee": 2973,
      "abdal": 2974,
      "sre": 2975,
      "marianna": 2976,
      "kica": 2977,
      "devi": 2978,
      "jere": 2979,
      "toth": 2980,
      "yogesh": 2981,
      "gosia": 2982,
      "babul": 2983,
      "geri": 2984,
      "kis": 2985,
      "collins": 2986,
      "given": 2987,
      "anila": 2988,
      "sii": 2989,
      "boga": 2990,
      "keale": 2991,
      "prasad": 2992,
      "kealeboga": 2993,
      "moz": 2994,
      "priyanka": 2995,
      "anab": 2996,
      "suvi": 2997,
      "dorina": 2998,
      "marit": 2999,
      "ondra": 3000,
      "klemen": 3001,
      "vana": 3002,
      "ere": 3003,
      "kamar": 3004,
      "gul": 3005,
      "timothy": 3006,
      "zainal": 3007,
      "hileni": 3008,
      "kojo": 3009,
      "themb": 3010,
      "reem": 3011,
      "abde": 3012,
      "moun": 3013,
      "nag": 3014,
      "harun": 3015,
      "imal": 3016,
      "trim": 3017,
      "isile": 3018,
      "lho": 3019,
      "doreen": 3020,
      "pintu": 3021,
      "raz": 3022,
      "arb": 3023,
      "shaun": 3024,
      "shahrul": 3025,
      "gjer": 3026,
      "yun": 3027,
      "asep": 3028,
      "nia": 3029,
      "qi": 3030,
      "goitseone": 3031,
      "ked": 3032,
      "mirka": 3033,
      "guh": 3034,
      "younes": 3035,
      "oteng": 3036,
      "primoz": 3037,
      "maar": 3038,
      "rudi": 3039,
      "sajid": 3040,
      "mirek": 3041,
      "ima": 3042,
      "hans": 3043,
      "kuhle": 3044,
      "surendra": 3045,
      "nice": 3046,
      "bernice": 3047,
      "bernadett": 3048,
      "tini": 3049,
      "waleed": 3050,
      "besim": 3051,
      "tjasa": 3052,
      "cinta": 3053,
      "bledar": 3054,
      "yati": 3055,
      "jaka": 3056,
      "catia": 3057,
      "ivanka": 3058,
      "mirko": 3059,
      "lame": 3060,
      "hanane": 3061,
      "bakang": 3062,
      "katso": 3063,
      "peace": 3064,
      "vuy": 3065,
      "fou": 3066,
      "led": 3067,
      "sathi": 3068,
      "rysz": 3069,
      "besi": 3070,
      "vedran": 3071,
      "otto": 3072,
      "shor": 3073,
      "katri": 3074,
      "kishor": 3075,
      "francisca": 3076,
      "zek": 3077,
      "kaja": 3078,
      "florian": 3079,
      "majlinda": 3080,
      "tope": 3081,
      "ej": 3082,
      "riikka": 3083,
      "arshad": 3084,
      "mor": 3085,
      "vishnu": 3086,
      "puteri": 3087,
      "tshiamo": 3088,
      "adebayo": 3089,
      "dget": 3090,
      "bridget": 3091,
      "avi": 3092,
      "eman": 3093,
      "hendrik": 3094,
      "chew": 3095,
      "tania": 3096,
      "skender": 3097,
      "maggie": 3098,
      "sis": 3099,
      "janina": 3100,
      "orat": 3101,
      "ryszard": 3102,
      "oratile": 3103,
      "mael": 3104,
      "shaikh": 3105,
      "ishmael": 3106,
      "merita": 3107,
      "pur": 3108,
      "matheus": 3109,
      "jarmo": 3110,
      "seppo": 3111,
      "theresa": 3112,
      "enyo": 3113,
      "reza": 3114,
      "renda": 3115,
      "ameer": 3116,
      "behar": 3117,
      "simphiwe": 3118,
      "annah": 3119,
      "unde": 3120,
      "naveen": 3121,
      "jram": 3122,
      "bajram": 3123,
      "mohsin": 3124,
      "javed": 3125,
      "fatos": 3126,
      "mhmd": 3127,
      "gug": 3128,
      "risto": 3129,
      "micheal": 3130,
      "neven": 3131,
      "ford": 3132,
      "nade": 3133,
      "nonhlanhla": 3134,
      "eev": 3135,
      "deni": 3136,
      "anabela": 3137,
      "jonna": 3138,
      "yadi": 3139,
      "youness": 3140,
      "dharmendra": 3141,
      "jarkko": 3142,
      "kornel": 3143,
      "marwan": 3144,
      "ljil": 3145,
      "kabir": 3146,
      "amr": 3147,
      "hanif": 3148,
      "albertina": 3149,
      "krystian": 3150,
      "matic": 3151,
      "srinu": 3152,
      "jako": 3153,
      "emanuel": 3154,
      "olebog": 3155,
      "thuso": 3156,
      "rosli": 3157,
      "urad": 3158,
      "zai": 3159,
      "sanjeev": 3160,
      "bogdan": 3161,
      "tok": 3162,
      "adwoa": 3163,
      "hin": 3164,
      "harish": 3165,
      "cen": 3166,
      "ced": 3167,
      "dom": 3168,
      "lukman": 3169,
      "april": 3170,
      "sang": 3171,
      "janez": 3172,
      "yslaw": 3173,
      "wiol": 3174,
      "przemyslaw": 3175,
      "maty": 3176,
      "heri": 3177,
      "urska": 3178,
      "helder": 3179,
      "robin": 3180,
      "bardha": 3181,
      "augustine": 3182,
      "francois": 3183,
      "razak": 3184,
      "cherry": 3185,
      "lawal": 3186,
      "noraini": 3187,
      "femi": 3188,
      "young": 3189,
      "aji": 3190,
      "israel": 3191,
      "ravin": 3192,
      "diusz": 3193,
      "stanislaw": 3194,
      "zdra": 3195,
      "narayan": 3196,
      "ngo": 3197,
      "teguh": 3198,
      "mentor": 3199,
      "faustina": 3200,
      "ngozi": 3201,
      "randy": 3202,
      "souka": 3203,
      "tefo": 3204,
      "kho": 3205,
      "brenda": 3206,
      "iskandar": 3207,
      "justina": 3208,
      "endar": 3209,
      "mbali": 3210,
      "ob": 3211,
      "pappu": 3212,
      "phenyo": 3213,
      "ammar": 3214,
      "chra": 3215,
      "tob": 3216,
      "udin": 3217,
      "gica": 3218,
      "govind": 3219,
      "jeremi": 3220,
      "amant": 3221,
      "apple": 3222,
      "pandu": 3223,
      "erica": 3224,
      "besmir": 3225,
      "dubra": 3226,
      "auwal": 3227,
      "tay": 3228,
      "mole": 3229,
      "jy": 3230,
      "elvi": 3231,
      "roslan": 3232,
      "tlhe": 3233,
      "temi": 3234,
      "lynn": 3235,
      "cahaya": 3236,
      "anxhela": 3237,
      "tokozo": 3238,
      "jackson": 3239,
      "sihle": 3240,
      "maija": 3241,
      "jag": 3242,
      "kalle": 3243,
      "saleh": 3244,
      "dard": 3245,
      "yuni": 3246,
      "karla": 3247,
      "halim": 3248,
      "dardan": 3249,
      "orsol": 3250,
      "jabulo": 3251,
      "orsolya": 3252,
      "uko": 3253,
      "ndapewa": 3254,
      "arp": 3255,
      "benedi": 3256,
      "gin": 3257,
      "sibongile": 3258,
      "jayson": 3259,
      "mund": 3260,
      "obaapa": 3261,
      "aurel": 3262,
      "penny": 3263,
      "tshepang": 3264,
      "libor": 3265,
      "sanele": 3266,
      "juuso": 3267,
      "drita": 3268,
      "titus": 3269,
      "afer": 3270,
      "alhaji": 3271,
      "mom": 3272,
      "aferdita": 3273,
      "kai": 3274,
      "nand": 3275,
      "dragica": 3276,
      "slawomir": 3277,
      "beatrice": 3278,
      "abdulaziz": 3279,
      "natalie": 3280,
      "angie": 3281,
      "mohmad": 3282,
      "dele": 3283,
      "leng": 3284,
      "indile": 3285,
      "abiodun": 3286,
      "stanislav": 3287,
      "eetu": 3288,
      "saeed": 3289,
      "tangeni": 3290,
      "soni": 3291,
      "ulant": 3292,
      "taulant": 3293,
      "yahya": 3294,
      "yahaya": 3295,
      "arka": 3296,
      "veer": 3297,
      "natalija": 3298,
      "qendrim": 3299,
      "mohmed": 3300,
      "abetswe": 3301,
      "emiljan": 3302,
      "elvira": 3303,
      "hong": 3304,
      "fundo": 3305,
      "nenad": 3306,
      "thembi": 3307,
      "tif": 3308,
      "otsile": 3309,
      "gentian": 3310,
      "jozef": 3311,
      "paa": 3312,
      "granit": 3313,
      "thokoz": 3314,
      "amira": 3315,
      "manju": 3316,
      "riaan": 3317,
      "agi": 3318,
      "badr": 3319,
      "yon": 3320,
      "alamin": 3321,
      "leven": 3322,
      "levente": 3323,
      "moni": 3324,
      "maarit": 3325,
      "ril": 3326,
      "angelika": 3327,
      "yll": 3328,
      "hiday": 3329,
      "gonolo": 3330,
      "zama": 3331,
      "wiktoria": 3332,
      "raine": 3333,
      "shane": 3334,
      "jalal": 3335,
      "emy": 3336,
      "jeremy": 3337,
      "waa": 3338,
      "aleks": 3339,
      "jadranka": 3340,
      "arja": 3341,
      "marvin": 3342,
      "marton": 3343,
      "sheila": 3344,
      "tlam": 3345,
      "armend": 3346,
      "sathish": 3347,
      "atul": 3348,
      "vinay": 3349,
      "inash": 3350,
      "tadej": 3351,
      "tse": 3352,
      "kennedy": 3353,
      "yinka": 3354,
      "kgosi": 3355,
      "brandon": 3356,
      "konrad": 3357,
      "dijana": 3358,
      "kushtrim": 3359,
      "wame": 3360,
      "mith": 3361,
      "justine": 3362,
      "brigitta": 3363,
      "yang": 3364,
      "evi": 3365,
      "kareem": 3366,
      "besart": 3367,
      "pula": 3368,
      "ting": 3369,
      "arkadiusz": 3370,
      "jur": 3371,
      "patel": 3372,
      "slavi": 3373,
      "riza": 3374,
      "baba": 3375,
      "slavica": 3376,
      "mothusi": 3377,
      "vikas": 3378,
      "ney": 3379,
      "laxmi": 3380,
      "thatayaone": 3381,
      "akin": 3382,
      "jaroslava": 3383,
      "faridah": 3384,
      "jetmir": 3385,
      "nokuthula": 3386,
      "yere": 3387,
      "boi": 3388,
      "lazar": 3389,
      "pesh": 3390,
      "luljeta": 3391,
      "marites": 3392,
      "arti": 3393,
      "onso": 3394,
      "eti": 3395,
      "elly": 3396,
      "chid": 3397,
      "emad": 3398,
      "bah": 3399,
      "pako": 3400,
      "sinisa": 3401,
      "pg": 3402,
      "saimir": 3403,
      "lidia": 3404,
      "riku": 3405,
      "morad": 3406,
      "mariola": 3407,
      "bikash": 3408,
      "wiga": 3409,
      "jadwiga": 3410,
      "burim": 3411,
      "eme": 3412,
      "tuija": 3413,
      "nt": 3414,
      "pinky": 3415,
      "hiba": 3416,
      "aki": 3417,
      "bontle": 3418,
      "lilla": 3419,
      "tir": 3420,
      "mihaela": 3421,
      "enis": 3422,
      "pamela": 3423,
      "lak": 3424,
      "fadil": 3425,
      "ljiljana": 3426,
      "ritva": 3427,
      "theresia": 3428,
      "jeton": 3429,
      "katka": 3430,
      "karima": 3431,
      "bib": 3432,
      "udio": 3433,
      "amoah": 3434,
      "karmen": 3435,
      "anisa": 3436,
      "perpar": 3437,
      "perparim": 3438,
      "amaril": 3439,
      "ufik": 3440,
      "boah": 3441,
      "utam": 3442,
      "shmi": 3443,
      "pong": 3444,
      "sona": 3445,
      "damjan": 3446,
      "eddie": 3447,
      "ice": 3448,
      "joice": 3449,
      "rejoice": 3450,
      "selv": 3451,
      "wisdom": 3452,
      "ilash": 3453,
      "nawa": 3454,
      "ques": 3455,
      "jacques": 3456,
      "slam": 3457,
      "loh": 3458,
      "lindita": 3459,
      "bardh": 3460,
      "aicha": 3461,
      "manal": 3462,
      "nadeem": 3463,
      "wawan": 3464,
      "vlasta": 3465,
      "miroslaw": 3466,
      "afi": 3467,
      "rida": 3468,
      "angeline": 3469,
      "happy": 3470,
      "subha": 3471,
      "veli": 3472,
      "wilhel": 3473,
      "maima": 3474,
      "subhash": 3475,
      "siph": 3476,
      "abdallah": 3477,
      "more": 3478,
      "kuldeep": 3479,
      "tobias": 3480,
      "ua": 3481,
      "gunawan": 3482,
      "issah": 3483,
      "gyong": 3484,
      "sharifah": 3485,
      "jamila": 3486,
      "hard": 3487,
      "vusi": 3488,
      "mourad": 3489,
      "odwa": 3490,
      "bro": 3491,
      "ulla": 3492,
      "miia": 3493,
      "beni": 3494,
      "kitti": 3495,
      "przemek": 3496,
      "amarildo": 3497,
      "aid": 3498,
      "heni": 3499,
      "violeta": 3500,
      "sheer": 3501,
      "drago": 3502,
      "fina": 3503,
      "oar": 3504,
      "anish": 3505,
      "mensah": 3506,
      "antonia": 3507,
      "naima": 3508,
      "hanka": 3509,
      "keletso": 3510,
      "sabir": 3511,
      "majda": 3512,
      "abed": 3513,
      "ruby": 3514,
      "otman": 3515,
      "oum": 3516,
      "candy": 3517,
      "june": 3518,
      "najib": 3519,
      "elao": 3520,
      "lorraine": 3521,
      "kitso": 3522,
      "soufiane": 3523,
      "amantle": 3524,
      "dedy": 3525,
      "tiny": 3526,
      "fid": 3527,
      "chang": 3528,
      "sbusiso": 3529,
      "tracy": 3530,
      "mend": 3531,
      "khalil": 3532,
      "ridwan": 3533,
      "sma": 3534,
      "sean": 3535,
      "halima": 3536,
      "kiss": 3537,
      "sas": 3538,
      "marlon": 3539,
      "appiah": 3540,
      "uleko": 3541,
      "kululeko": 3542,
      "sacky": 3543,
      "tumis": 3544,
      "tumisang": 3545,
      "nikh": 3546,
      "nikhil": 3547,
      "eraj": 3548,
      "elelo": 3549,
      "pumelelo": 3550,
      "ndin": 3551,
      "tiia": 3552,
      "klevis": 3553,
      "mz": 3554,
      "henny": 3555,
      "gas": 3556,
      "dipu": 3557,
      "willy": 3558,
      "denny": 3559,
      "larka": 3560,
      "charlene": 3561,
      "keabetswe": 3562,
      "poku": 3563,
      "bella": 3564,
      "elma": 3565,
      "nitin": 3566,
      "adan": 3567,
      "avni": 3568,
      "nkosin": 3569,
      "zinhle": 3570,
      "bud": 3571,
      "avinash": 3572,
      "cheryl": 3573,
      "azizah": 3574,
      "anett": 3575,
      "ten": 3576,
      "danica": 3577,
      "amogel": 3578,
      "amogelang": 3579,
      "poon": 3580,
      "rauna": 3581,
      "besa": 3582,
      "enea": 3583,
      "indrit": 3584,
      "wu": 3585,
      "wang": 3586,
      "aldi": 3587,
      "erald": 3588,
      "ranjeet": 3589,
      "fae": 3590,
      "kishan": 3591,
      "rizwan": 3592,
      "elsie": 3593,
      "selva": 3594,
      "sylves": 3595,
      "sylvester": 3596,
      "ksen": 3597,
      "seija": 3598,
      "busisiwe": 3599,
      "collen": 3600,
      "sheikh": 3601,
      "bol": 3602,
      "jarek": 3603,
      "gilbert": 3604,
      "xho": 3605,
      "leszek": 3606,
      "oke": 3607,
      "mery": 3608,
      "arttu": 3609,
      "ges": 3610,
      "rajeev": 3611,
      "jernej": 3612,
      "anka": 3613,
      "oluwas": 3614,
      "mohamd": 3615,
      "georgina": 3616,
      "enver": 3617,
      "mikael": 3618,
      "mak": 3619,
      "adib": 3620,
      "mirjam": 3621,
      "ummi": 3622,
      "bouchra": 3623,
      "teuta": 3624,
      "naj": 3625,
      "mmolo": 3626,
      "fauzi": 3627,
      "mmoloki": 3628,
      "kif": 3629,
      "misa": 3630,
      "wee": 3631,
      "kifli": 3632,
      "isah": 3633,
      "naa": 3634,
      "cor": 3635,
      "deon": 3636,
      "eero": 3637,
      "zdravko": 3638,
      "mc": 3639,
      "motsi": 3640,
      "mogomotsi": 3641,
      "nirmal": 3642,
      "latifa": 3643,
      "olabi": 3644,
      "liton": 3645,
      "raim": 3646,
      "robi": 3647,
      "judy": 3648,
      "klodi": 3649,
      "mato": 3650,
      "zofia": 3651,
      "nisa": 3652,
      "bica": 3653,
      "asha": 3654,
      "gona": 3655,
      "talal": 3656,
      "wafi": 3657,
      "firman": 3658,
      "eeva": 3659,
      "drilon": 3660,
      "pang": 3661,
      "rohan": 3662,
      "arlene": 3663,
      "hazel": 3664,
      "kresi": 3665,
      "kresimir": 3666,
      "phindile": 3667,
      "chee": 3668,
      "fortun": 3669,
      "simeon": 3670,
      "hossain": 3671,
      "puja": 3672,
      "bismark": 3673,
      "vikram": 3674,
      "jai": 3675,
      "jude": 3676,
      "maggy": 3677,
      "constan": 3678,
      "miranda": 3679,
      "annamaria": 3680,
      "sem": 3681,
      "hs": 3682,
      "sph": 3683,
      "tumi": 3684,
      "joona": 3685,
      "janja": 3686,
      "venkat": 3687,
      "dah": 3688,
      "vlado": 3689,
      "ndapand": 3690,
      "rosalia": 3691,
      "dimakatso": 3692,
      "ndapandula": 3693,
      "yee": 3694,
      "nino": 3695,
      "hat": 3696,
      "iy": 3697,
      "niti": 3698,
      "haik": 3699,
      "fatiha": 3700,
      "haikal": 3701,
      "afia": 3702,
      "rayan": 3703,
      "flu": 3704,
      "nil": 3705,
      "raija": 3706,
      "helmi": 3707,
      "rija": 3708,
      "basheer": 3709,
      "gee": 3710,
      "gani": 3711,
      "radim": 3712,
      "zie": 3713,
      "chinedu": 3714,
      "shivam": 3715,
      "ljubica": 3716,
      "terez": 3717,
      "majid": 3718,
      "ft": 3719,
      "kehin": 3720,
      "bea": 3721,
      "pule": 3722,
      "kehinde": 3723,
      "kie": 3724,
      "yat": 3725,
      "olya": 3726,
      "ibolya": 3727,
      "bagus": 3728,
      "nilesh": 3729,
      "stipe": 3730,
      "sima": 3731,
      "samsul": 3732,
      "sandip": 3733,
      "lubos": 3734,
      "beka": 3735,
      "adams": 3736,
      "asmaa": 3737,
      "mahdi": 3738,
      "annika": 3739,
      "rafi": 3740,
      "ariff": 3741,
      "rabia": 3742,
      "kemi": 3743,
      "kyle": 3744,
      "rudol": 3745,
      "rudolf": 3746,
      "tamil": 3747,
      "vilma": 3748,
      "dede": 3749,
      "roni": 3750,
      "tteri": 3751,
      "hafid": 3752,
      "liv": 3753,
      "maci": 3754,
      "darek": 3755,
      "saima": 3756,
      "maciek": 3757,
      "ntokozo": 3758,
      "dish": 3759,
      "jagdish": 3760,
      "opoku": 3761,
      "hajnal": 3762,
      "lhogonolo": 3763,
      "fouad": 3764,
      "zvoni": 3765,
      "wayne": 3766,
      "iao": 3767,
      "nita": 3768,
      "none": 3769,
      "kutlo": 3770,
      "teng": 3771,
      "hous": 3772,
      "ady": 3773,
      "haki": 3774,
      "lab": 3775,
      "kosi": 3776,
      "soukaina": 3777,
      "hajah": 3778,
      "licent": 3779,
      "millicent": 3780,
      "vlad": 3781,
      "asya": 3782,
      "diri": 3783,
      "vanja": 3784,
      "jurgen": 3785,
      "jyo": 3786,
      "phang": 3787,
      "fajar": 3788,
      "renu": 3789,
      "melvin": 3790,
      "vesh": 3791,
      "bobby": 3792,
      "albion": 3793,
      "riya": 3794,
      "akwasi": 3795,
      "elwa": 3796,
      "onne": 3797,
      "azeez": 3798,
      "driton": 3799,
      "edona": 3800,
      "asy": 3801,
      "tech": 3802,
      "subash": 3803,
      "vojtech": 3804,
      "chia": 3805,
      "tapha": 3806,
      "biju": 3807,
      "darren": 3808,
      "ruz": 3809,
      "doni": 3810,
      "raden": 3811,
      "masa": 3812,
      "rem": 3813,
      "kesego": 3814,
      "alamgir": 3815,
      "obi": 3816,
      "olsi": 3817,
      "mohit": 3818,
      "gaurav": 3819,
      "zvonimir": 3820,
      "ezeki": 3821,
      "ezekiel": 3822,
      "melita": 3823,
      "ev": 3824,
      "shnu": 3825,
      "kailash": 3826,
      "bishnu": 3827,
      "ifeoma": 3828,
      "elele": 3829,
      "ey": 3830,
      "fauz": 3831,
      "tati": 3832,
      "fransis": 3833,
      "boik": 3834,
      "ajit": 3835,
      "kamrul": 3836,
      "had": 3837,
      "hind": 3838,
      "lot": 3839,
      "beko": 3840,
      "kwasi": 3841,
      "ismet": 3842,
      "manik": 3843,
      "tadeusz": 3844,
      "abderrahim": 3845,
      "klea": 3846,
      "cz": 3847,
      "hendrina": 3848,
      "pran": 3849,
      "souad": 3850,
      "faton": 3851,
      "poonam": 3852,
      "aobak": 3853,
      "abood": 3854,
      "aobakwe": 3855,
      "ces": 3856,
      "alta": 3857,
      "roberto": 3858,
      "bob": 3859,
      "narendra": 3860,
      "jirina": 3861,
      "durga": 3862,
      "mol": 3863,
      "tsho": 3864,
      "gasper": 3865,
      "njabulo": 3866,
      "asare": 3867,
      "marilou": 3868,
      "zulkifli": 3869,
      "nordin": 3870,
      "oarabile": 3871,
      "sof": 3872,
      "durim": 3873,
      "lazarus": 3874,
      "emese": 3875,
      "arie": 3876,
      "gazmend": 3877,
      "gary": 3878,
      "kong": 3879,
      "manisha": 3880,
      "anass": 3881,
      "ica": 3882,
      "iris": 3883,
      "yanda": 3884,
      "reni": 3885,
      "saroj": 3886,
      "nhar": 3887,
      "wandile": 3888,
      "samad": 3889,
      "izah": 3890,
      "sandy": 3891,
      "tatiana": 3892,
      "beng": 3893,
      "slamet": 3894,
      "camil": 3895,
      "yeboah": 3896,
      "angelica": 3897,
      "mara": 3898,
      "irshad": 3899,
      "jyoti": 3900,
      "reth": 3901,
      "armand": 3902,
      "azri": 3903,
      "idu": 3904,
      "azlan": 3905,
      "basia": 3906,
      "olebogeng": 3907,
      "tura": 3908,
      "kwadwo": 3909,
      "gugu": 3910,
      "baby": 3911,
      "pirkko": 3912,
      "shin": 3913,
      "aishah": 3914,
      "adek": 3915,
      "gao": 3916,
      "ajith": 3917,
      "frim": 3918,
      "ugo": 3919,
      "sanae": 3920,
      "arnel": 3921,
      "temitope": 3922,
      "gam": 3923,
      "keem": 3924,
      "vka": 3925,
      "sabrina": 3926,
      "gomole": 3927,
      "sabelo": 3928,
      "gomolemo": 3929,
      "siz": 3930,
      "hany": 3931,
      "pradip": 3932,
      "houda": 3933,
      "angwe": 3934,
      "zita": 3935,
      "bijay": 3936,
      "silvana": 3937,
      "lori": 3938,
      "piwa": 3939,
      "serene": 3940,
      "eh": 3941,
      "osa": 3942,
      "outi": 3943,
      "jm": 3944,
      "bogus": 3945,
      "mariglen": 3946,
      "petrina": 3947,
      "melanie": 3948,
      "murali": 3949,
      "gang": 3950,
      "siek": 3951,
      "ilkka": 3952,
      "chibu": 3953,
      "monu": 3954,
      "matyas": 3955,
      "aung": 3956,
      "antonius": 3957,
      "lurdes": 3958,
      "pendra": 3959,
      "rosemary": 3960,
      "lovro": 3961,
      "frederick": 3962,
      "zack": 3963,
      "nase": 3964,
      "unle": 3965,
      "lahcen": 3966,
      "gyongyi": 3967,
      "tlotlo": 3968,
      "jorma": 3969,
      "vojta": 3970,
      "hamada": 3971,
      "zou": 3972,
      "santeri": 3973,
      "aino": 3974,
      "fahmi": 3975,
      "tshepho": 3976,
      "nkosinathi": 3977,
      "jabu": 3978,
      "milla": 3979,
      "eduard": 3980,
      "teddy": 3981,
      "franjo": 3982,
      "firoz": 3983,
      "anze": 3984,
      "etsana": 3985,
      "leila": 3986,
      "emmi": 3987,
      "silvi": 3988,
      "izzat": 3989,
      "dayang": 3990,
      "wit": 3991,
      "manso": 3992,
      "nosipho": 3993,
      "nolu": 3994,
      "zee": 3995,
      "nazmi": 3996,
      "det": 3997,
      "selvam": 3998,
      "marianne": 3999,
      "lucka": 4000,
      "freddy": 4001,
      "ungo": 4002,
      "sue": 4003,
      "tani": 4004,
      "marius": 4005,
      "yasser": 4006,
      "dea": 4007,
      "tab": 4008,
      "gud": 4009,
      "zaneta": 4010,
      "guddu": 4011,
      "bza": 4012,
      "oge": 4013,
      "ripon": 4014,
      "marcus": 4015,
      "ksenija": 4016,
      "roko": 4017,
      "malika": 4018,
      "sizwe": 4019,
      "shaq": 4020,
      "borut": 4021,
      "hafizah": 4022,
      "constance": 4023,
      "ret": 4024,
      "roger": 4025,
      "ming": 4026,
      "hamandla": 4027,
      "salisu": 4028,
      "asante": 4029,
      "jess": 4030,
      "jake": 4031,
      "afa": 4032,
      "miika": 4033,
      "klodian": 4034,
      "milo": 4035,
      "hui": 4036,
      "gape": 4037,
      "boitshe": 4038,
      "shim": 4039,
      "tino": 4040,
      "fis": 4041,
      "oh": 4042,
      "jarno": 4043,
      "gzim": 4044,
      "arpad": 4045,
      "elyn": 4046,
      "bere": 4047,
      "eddine": 4048,
      "made": 4049,
      "rohani": 4050,
      "swa": 4051,
      "nangula": 4052,
      "yeni": 4053,
      "lalit": 4054,
      "fauziah": 4055,
      "mand": 4056,
      "kabiru": 4057,
      "atik": 4058,
      "keba": 4059,
      "salom": 4060,
      "harsh": 4061,
      "cheng": 4062,
      "hajnalka": 4063,
      "foo": 4064,
      "mous": 4065,
      "shafiq": 4066,
      "jia": 4067,
      "mili": 4068,
      "karthi": 4069,
      "hav": 4070,
      "ariel": 4071,
      "suela": 4072,
      "mohm": 4073,
      "irah": 4074,
      "baone": 4075,
      "lilian": 4076,
      "toh": 4077,
      "samson": 4078,
      "dorian": 4079,
      "julian": 4080,
      "aa": 4081,
      "issam": 4082,
      "ruzica": 4083,
      "kc": 4084,
      "shed": 4085,
      "suleiman": 4086,
      "sadiq": 4087,
      "sonny": 4088,
      "valtteri": 4089,
      "abba": 4090,
      "gerhard": 4091,
      "rj": 4092,
      "hima": 4093,
      "marjana": 4094,
      "yenny": 4095,
      "enda": 4096,
      "nazri": 4097,
      "sini": 4098,
      "abdulai": 4099,
      "suhaimi": 4100,
      "jakov": 4101,
      "dash": 4102,
      "demar": 4103,
      "antal": 4104,
      "siew": 4105,
      "marilyn": 4106,
      "gus": 4107,
      "luca": 4108,
      "tshidi": 4109,
      "hap": 4110,
      "williams": 4111,
      "albina": 4112,
      "maipelo": 4113,
      "vasco": 4114,
      "lindokuhle": 4115,
      "kunal": 4116,
      "ggy": 4117,
      "ook": 4118,
      "rinor": 4119,
      "pravin": 4120,
      "unmi": 4121,
      "geraldine": 4122,
      "yolanda": 4123,
      "bokamo": 4124,
      "elisabete": 4125,
      "bokamoso": 4126,
      "luli": 4127,
      "abe": 4128,
      "stefanus": 4129,
      "yani": 4130,
      "alya": 4131,
      "jarmila": 4132,
      "eef": 4133,
      "rebeka": 4134,
      "bongiwe": 4135,
      "shkelzen": 4136,
      "donika": 4137,
      "pros": 4138,
      "prosper": 4139,
      "aries": 4140,
      "aub": 4141,
      "lani": 4142,
      "tapio": 4143,
      "rajib": 4144,
      "erico": 4145,
      "warren": 4146,
      "aubrey": 4147,
      "wethu": 4148,
      "edgar": 4149,
      "sug": 4150,
      "emiljano": 4151,
      "beth": 4152,
      "glor": 4153,
      "glory": 4154,
      "analyn": 4155,
      "tarek": 4156,
      "shahin": 4157,
      "kedib": 4158,
      "anuar": 4159,
      "edita": 4160,
      "danilo": 4161,
      "igli": 4162,
      "oluwase": 4163,
      "falda": 4164,
      "sfiso": 4165,
      "mafalda": 4166,
      "thuto": 4167,
      "mhiz": 4168,
      "dul": 4169,
      "rre": 4170,
      "esmer": 4171,
      "samuli": 4172,
      "hajia": 4173,
      "tette": 4174,
      "asanda": 4175,
      "sanni": 4176,
      "gerti": 4177,
      "chinyere": 4178,
      "gopi": 4179,
      "ivas": 4180,
      "prashant": 4181,
      "srinivas": 4182,
      "mola": 4183,
      "gosego": 4184,
      "sushil": 4185,
      "fara": 4186,
      "eliz": 4187,
      "hanes": 4188,
      "quin": 4189,
      "elize": 4190,
      "ije": 4191,
      "sheri": 4192,
      "reena": 4193,
      "terhi": 4194,
      "mervi": 4195,
      "guil": 4196,
      "ijeoma": 4197,
      "bertha": 4198,
      "smail": 4199,
      "gim": 4200,
      "shafi": 4201,
      "hope": 4202,
      "ladi": 4203,
      "landi": 4204,
      "ohe": 4205,
      "charlot": 4206,
      "charlotte": 4207,
      "rio": 4208,
      "nin": 4209,
      "glenn": 4210,
      "ogo": 4211,
      "vend": 4212,
      "tesh": 4213,
      "nestor": 4214,
      "oumaima": 4215,
      "onkab": 4216,
      "juhani": 4217,
      "raheem": 4218,
      "jarda": 4219,
      "onkabetse": 4220,
      "chant": 4221,
      "agyei": 4222,
      "atunde": 4223,
      "babatunde": 4224,
      "derrick": 4225,
      "line": 4226,
      "lada": 4227,
      "kristjan": 4228,
      "ramadan": 4229,
      "kresh": 4230,
      "kreshnik": 4231,
      "fredi": 4232,
      "bame": 4233,
      "ic": 4234,
      "zia": 4235,
      "madan": 4236,
      "saone": 4237,
      "yohanes": 4238,
      "harton": 4239,
      "mounir": 4240,
      "hartono": 4241,
      "ker": 4242,
      "good": 4243,
      "marica": 4244,
      "fie": 4245,
      "edna": 4246,
      "sandi": 4247,
      "ronnie": 4248,
      "kayo": 4249,
      "agwe": 4250,
      "kayode": 4251,
      "nonofo": 4252,
      "wen": 4253,
      "rafiq": 4254,
      "kwesi": 4255,
      "jin": 4256,
      "virpi": 4257,
      "percy": 4258,
      "egzona": 4259,
      "hannel": 4260,
      "ganga": 4261,
      "didik": 4262,
      "reyn": 4263,
      "lumb": 4264,
      "lungile": 4265,
      "pellumb": 4266,
      "xiao": 4267,
      "olti": 4268,
      "gal": 4269,
      "wanda": 4270,
      "boipelo": 4271,
      "shqi": 4272,
      "pertti": 4273,
      "margit": 4274,
      "rinku": 4275,
      "adeyemi": 4276,
      "lolo": 4277,
      "niki": 4278,
      "asyraf": 4279,
      "boglarka": 4280,
      "dil": 4281,
      "gur": 4282,
      "amirah": 4283,
      "nawal": 4284,
      "kristine": 4285,
      "faris": 4286,
      "gat": 4287,
      "oliw": 4288,
      "fian": 4289,
      "jing": 4290,
      "chlo": 4291,
      "chloe": 4292,
      "dafina": 4293,
      "stasia": 4294,
      "ravindra": 4295,
      "haya": 4296,
      "abdl": 4297,
      "wioletta": 4298,
      "usitse": 4299,
      "wazi": 4300,
      "adem": 4301,
      "leot": 4302,
      "ludmila": 4303,
      "leotrim": 4304,
      "ssi": 4305,
      "lotta": 4306,
      "sello": 4307,
      "imms": 4308,
      "kent": 4309,
      "siraj": 4310,
      "krista": 4311,
      "ankica": 4312,
      "dimo": 4313,
      "mariann": 4314,
      "asmae": 4315,
      "claire": 4316,
      "amjad": 4317,
      "chie": 4318,
      "tap": 4319,
      "pero": 4320,
      "polina": 4321,
      "marivic": 4322,
      "fenny": 4323,
      "rachida": 4324,
      "esihle": 4325,
      "zirah": 4326,
      "aus": 4327,
      "kemetse": 4328,
      "onkemetse": 4329,
      "tshepi": 4330,
      "henrique": 4331,
      "saso": 4332,
      "ahlam": 4333,
      "megi": 4334,
      "lebohang": 4335,
      "hossam": 4336,
      "setia": 4337,
      "albin": 4338,
      "zsofi": 4339,
      "hauwa": 4340,
      "arya": 4341,
      "rau": 4342,
      "ermira": 4343,
      "visar": 4344,
      "sky": 4345,
      "arbnor": 4346,
      "adeni": 4347,
      "matshid": 4348,
      "matshidiso": 4349,
      "res": 4350,
      "wilma": 4351,
      "wieslaw": 4352,
      "atta": 4353,
      "gerson": 4354,
      "aini": 4355,
      "kyaw": 4356,
      "naja": 4357,
      "taufik": 4358,
      "anele": 4359,
      "shahad": 4360,
      "cesar": 4361,
      "edon": 4362,
      "taina": 4363,
      "ceica": 4364,
      "conceica": 4365,
      "conceicao": 4366,
      "ail": 4367,
      "tariq": 4368,
      "mory": 4369,
      "edmund": 4370,
      "sugi": 4371,
      "memory": 4372,
      "urata": 4373,
      "misani": 4374,
      "dhurata": 4375,
      "sina": 4376,
      "janine": 4377,
      "waz": 4378,
      "vinko": 4379,
      "farida": 4380,
      "noushad": 4381,
      "mondi": 4382,
      "jessa": 4383,
      "waseem": 4384,
      "krzysiek": 4385,
      "ohemaa": 4386,
      "abdes": 4387,
      "andiswa": 4388,
      "piia": 4389,
      "syahmi": 4390,
      "flavi": 4391,
      "kren": 4392,
      "xolo": 4393,
      "rekha": 4394,
      "sura": 4395,
      "flavio": 4396,
      "tuomo": 4397,
      "dad": 4398,
      "emal": 4399,
      "zaini": 4400,
      "kajal": 4401,
      "essi": 4402,
      "slavko": 4403,
      "fana": 4404,
      "enhle": 4405,
      "jamil": 4406,
      "ibnu": 4407,
      "brune": 4408,
      "brunei": 4409,
      "piness": 4410,
      "lakshmi": 4411,
      "happiness": 4412,
      "singh": 4413,
      "ornela": 4414,
      "irina": 4415,
      "saida": 4416,
      "musah": 4417,
      "soh": 4418,
      "darwin": 4419,
      "tresia": 4420,
      "friday": 4421,
      "jabulani": 4422,
      "bisi": 4423,
      "kki": 4424,
      "wn": 4425,
      "erkki": 4426,
      "boat": 4427,
      "zb": 4428,
      "rehan": 4429,
      "kak": 4430,
      "tau": 4431,
      "sap": 4432,
      "ronaldo": 4433,
      "melody": 4434,
      "varga": 4435,
      "kath": 4436,
      "pend": 4437,
      "timi": 4438,
      "genta": 4439,
      "ajayi": 4440,
      "natangwe": 4441,
      "mergim": 4442,
      "greta": 4443,
      "arte": 4444,
      "zipho": 4445,
      "wael": 4446,
      "lola": 4447,
      "venkate": 4448,
      "chinna": 4449,
      "venkatesh": 4450,
      "vali": 4451,
      "marcel": 4452,
      "anica": 4453,
      "drag": 4454,
      "arifin": 4455,
      "jassim": 4456,
      "tya": 4457,
      "fathima": 4458,
      "teboho": 4459,
      "rashed": 4460,
      "mohs": 4461,
      "meryem": 4462,
      "diah": 4463,
      "waldemar": 4464,
      "festim": 4465,
      "olna": 4466,
      "pavan": 4467,
      "uran": 4468,
      "magdolna": 4469,
      "genci": 4470,
      "sudha": 4471,
      "urabh": 4472,
      "nikoletta": 4473,
      "eletso": 4474,
      "hamidah": 4475,
      "clara": 4476,
      "amer": 4477,
      "riyas": 4478,
      "ranjith": 4479,
      "agon": 4480,
      "muhamet": 4481,
      "babal": 4482,
      "pil": 4483,
      "aqilah": 4484,
      "jang": 4485,
      "inot": 4486,
      "leonora": 4487,
      "labinot": 4488,
      "dedi": 4489,
      "rexhe": 4490,
      "boago": 4491,
      "fifi": 4492,
      "ofori": 4493,
      "rodel": 4494,
      "rexhep": 4495,
      "mierz": 4496,
      "darja": 4497,
      "jaime": 4498,
      "madalena": 4499,
      "hun": 4500,
      "sig": 4501,
      "ardita": 4502,
      "samo": 4503,
      "preet": 4504,
      "olam": 4505,
      "katica": 4506,
      "jurica": 4507,
      "julianna": 4508,
      "jossy": 4509,
      "radoslaw": 4510,
      "aryan": 4511,
      "ranjan": 4512,
      "keamo": 4513,
      "keamog": 4514,
      "idow": 4515,
      "lucyna": 4516,
      "idowu": 4517,
      "riyaz": 4518,
      "sugeng": 4519,
      "opeyemi": 4520,
      "nem": 4521,
      "asri": 4522,
      "shaji": 4523,
      "jami": 4524,
      "ronny": 4525,
      "fisnik": 4526,
      "kiki": 4527,
      "petteri": 4528,
      "nitish": 4529,
      "emo": 4530,
      "samp": 4531,
      "slawek": 4532,
      "virag": 4533,
      "leonor": 4534,
      "grega": 4535,
      "esmeralda": 4536,
      "rabi": 4537,
      "ilia": 4538,
      "ndeshi": 4539,
      "tiho": 4540,
      "dean": 4541,
      "borna": 4542,
      "phumzile": 4543,
      "tsaone": 4544,
      "muh": 4545,
      "mariah": 4546,
      "sind": 4547,
      "tshephang": 4548,
      "zura": 4549,
      "ore": 4550,
      "gji": 4551,
      "silas": 4552,
      "bernardo": 4553,
      "gjergji": 4554,
      "ayomi": 4555,
      "eugen": 4556,
      "adekunle": 4557,
      "urim": 4558,
      "edith": 4559,
      "mikola": 4560,
      "uttam": 4561,
      "josa": 4562,
      "dikel": 4563,
      "kristiina": 4564,
      "nagara": 4565,
      "dikeledi": 4566,
      "oliwia": 4567,
      "dubravka": 4568,
      "gautam": 4569,
      "nompumelelo": 4570,
      "wasim": 4571,
      "admir": 4572,
      "jind": 4573,
      "sasi": 4574,
      "enoch": 4575,
      "loub": 4576,
      "celes": 4577,
      "etsang": 4578,
      "loubna": 4579,
      "tiro": 4580,
      "arlinda": 4581,
      "afonso": 4582,
      "jonida": 4583,
      "alk": 4584,
      "aljaz": 4585,
      "domen": 4586,
      "myr": 4587,
      "aune": 4588,
      "ratan": 4589,
      "hery": 4590,
      "rki": 4591,
      "vikto": 4592,
      "jyrki": 4593,
      "mook": 4594,
      "soon": 4595,
      "mooketsi": 4596,
      "himan": 4597,
      "sonila": 4598,
      "jeeb": 4599,
      "hidayah": 4600,
      "fendi": 4601,
      "satya": 4602,
      "nabilah": 4603,
      "adriatik": 4604,
      "trek": 4605,
      "piotrek": 4606,
      "leevi": 4607,
      "teija": 4608,
      "hasna": 4609,
      "bed": 4610,
      "fanny": 4611,
      "carina": 4612,
      "bartlo": 4613,
      "ronel": 4614,
      "siah": 4615,
      "miej": 4616,
      "shaban": 4617,
      "bartlomiej": 4618,
      "nq": 4619,
      "ojo": 4620,
      "thea": 4621,
      "neng": 4622,
      "pus": 4623,
      "marjeta": 4624,
      "mocham": 4625,
      "monique": 4626,
      "pius": 4627,
      "jale": 4628,
      "lorenc": 4629,
      "hya": 4630,
      "jc": 4631,
      "iddris": 4632,
      "segun": 4633,
      "sbon": 4634,
      "tahir": 4635,
      "loy": 4636,
      "tuhafeni": 4637,
      "nazmul": 4638,
      "rohana": 4639,
      "neeraj": 4640,
      "henryk": 4641,
      "shak": 4642,
      "oskari": 4643,
      "youss": 4644,
      "buso": 4645,
      "rhe": 4646,
      "esko": 4647,
      "rania": 4648,
      "azam": 4649,
      "adewale": 4650,
      "sakaria": 4651,
      "ikechukwu": 4652,
      "kavita": 4653,
      "djoko": 4654,
      "hleng": 4655,
      "aris": 4656,
      "ermir": 4657,
      "phem": 4658,
      "heman": 4659,
      "fikile": 4660,
      "hlengiwe": 4661,
      "phemelo": 4662,
      "miran": 4663,
      "elago": 4664,
      "aidil": 4665,
      "gun": 4666,
      "rora": 4667,
      "aurora": 4668,
      "herme": 4669,
      "guilherme": 4670,
      "tapiwa": 4671,
      "adeola": 4672,
      "liljana": 4673,
      "tlamelo": 4674,
      "onneile": 4675,
      "richmond": 4676,
      "nanang": 4677,
      "zahid": 4678,
      "olus": 4679,
      "ramli": 4680,
      "salwa": 4681,
      "anjan": 4682,
      "rack": 4683,
      "hardi": 4684,
      "godfred": 4685,
      "marsel": 4686,
      "zodwa": 4687,
      "akhilesh": 4688,
      "ansari": 4689,
      "augustina": 4690,
      "mxol": 4691,
      "norhayati": 4692,
      "valmir": 4693,
      "ogun": 4694,
      "louie": 4695,
      "aqil": 4696,
      "mxolisi": 4697,
      "clar": 4698,
      "hak": 4699,
      "niklas": 4700,
      "zvon": 4701,
      "emelia": 4702,
      "nevenka": 4703,
      "obin": 4704,
      "lay": 4705,
      "hazim": 4706,
      "nouf": 4707,
      "thandaz": 4708,
      "obinna": 4709,
      "kather": 4710,
      "jade": 4711,
      "vipin": 4712,
      "tayo": 4713,
      "mompati": 4714,
      "katherine": 4715,
      "tris": 4716,
      "anjali": 4717,
      "aden": 4718,
      "ludo": 4719,
      "nawaf": 4720,
      "ukka": 4721,
      "sheik": 4722,
      "keshav": 4723,
      "tetteh": 4724,
      "cija": 4725,
      "nobuhle": 4726,
      "mouad": 4727,
      "dumisani": 4728,
      "agnesa": 4729,
      "rizky": 4730,
      "thobile": 4731,
      "shikongo": 4732,
      "tihomir": 4733,
      "boitshepo": 4734,
      "mikolaj": 4735,
      "supri": 4736,
      "berat": 4737,
      "ouane": 4738,
      "afif": 4739,
      "ario": 4740,
      "salla": 4741,
      "lora": 4742,
      "seidu": 4743,
      "sphiwe": 4744,
      "fong": 4745,
      "olorato": 4746,
      "ritesh": 4747,
      "azie": 4748,
      "laszlone": 4749,
      "pranvera": 4750,
      "valter": 4751,
      "hannele": 4752,
      "svet": 4753,
      "virgin": 4754,
      "hysen": 4755,
      "antonin": 4756,
      "haxhi": 4757,
      "samar": 4758,
      "izlan": 4759,
      "liyana": 4760,
      "radha": 4761,
      "ghizlan": 4762,
      "meti": 4763,
      "ibe": 4764,
      "dessy": 4765,
      "thandiwe": 4766,
      "lus": 4767,
      "abid": 4768,
      "paolo": 4769,
      "aftab": 4770,
      "fransina": 4771,
      "polona": 4772,
      "vendula": 4773,
      "hala": 4774,
      "tera": 4775,
      "hubert": 4776,
      "dragana": 4777,
      "muiz": 4778,
      "taru": 4779,
      "najat": 4780,
      "eris": 4781,
      "oag": 4782,
      "anju": 4783,
      "moha": 4784,
      "botsh": 4785,
      "botshelo": 4786,
      "mikel": 4787,
      "liez": 4788,
      "nii": 4789,
      "mandy": 4790,
      "marlena": 4791,
      "peggy": 4792,
      "andries": 4793,
      "cka": 4794,
      "eileen": 4795,
      "inye": 4796,
      "laur": 4797,
      "onyinye": 4798,
      "miroslava": 4799,
      "ayush": 4800,
      "tissam": 4801,
      "mabel": 4802,
      "ijah": 4803,
      "dalal": 4804,
      "geni": 4805,
      "unga": 4806,
      "tinus": 4807,
      "sajmir": 4808,
      "sakthi": 4809,
      "math": 4810,
      "benga": 4811,
      "hisham": 4812,
      "barnab": 4813,
      "barnabas": 4814,
      "samu": 4815,
      "bianka": 4816,
      "mansoor": 4817,
      "resa": 4818,
      "marisa": 4819,
      "kutl": 4820,
      "wano": 4821,
      "mustha": 4822,
      "qendresa": 4823,
      "kutlwano": 4824,
      "musthafa": 4825,
      "enya": 4826,
      "kah": 4827,
      "evelin": 4828,
      "utenya": 4829,
      "aar": 4830,
      "tka": 4831,
      "rico": 4832,
      "jab": 4833,
      "yada": 4834,
      "geza": 4835,
      "anneli": 4836,
      "yadav": 4837,
      "cko": 4838,
      "celia": 4839,
      "dion": 4840,
      "samy": 4841,
      "salome": 4842,
      "duarte": 4843,
      "fadz": 4844,
      "izzah": 4845,
      "dorot": 4846,
      "jouko": 4847,
      "khair": 4848,
      "hendry": 4849,
      "altaf": 4850,
      "uska": 4851,
      "itha": 4852,
      "zakir": 4853,
      "meriam": 4854,
      "linus": 4855,
      "rosemarie": 4856,
      "ismael": 4857,
      "valerie": 4858,
      "azu": 4859,
      "sif": 4860,
      "antun": 4861,
      "jamilah": 4862,
      "rommel": 4863,
      "orges": 4864,
      "rupesh": 4865,
      "mazlan": 4866,
      "sifiso": 4867,
      "ndeshy": 4868,
      "mdudu": 4869,
      "silva": 4870,
      "ylber": 4871,
      "molnar": 4872,
      "mduduzi": 4873,
      "seng": 4874,
      "siphiwe": 4875,
      "antwi": 4876,
      "timote": 4877,
      "jal": 4878,
      "heba": 4879,
      "isy": 4880,
      "daisy": 4881,
      "lasse": 4882,
      "brigita": 4883,
      "bie": 4884,
      "oe": 4885,
      "helvi": 4886,
      "andrija": 4887,
      "zsan": 4888,
      "chaimae": 4889,
      "boateng": 4890,
      "zsanett": 4891,
      "aileen": 4892,
      "rami": 4893,
      "ingrid": 4894,
      "sheryl": 4895,
      "lida": 4896,
      "ndinelao": 4897,
      "rabiu": 4898,
      "vanda": 4899,
      "roosa": 4900,
      "tumie": 4901,
      "bukola": 4902,
      "sadie": 4903,
      "bhim": 4904,
      "nizar": 4905,
      "noxolo": 4906,
      "sphamandla": 4907,
      "aleksandar": 4908,
      "marlene": 4909,
      "khany": 4910,
      "syafiqah": 4911,
      "benedic": 4912,
      "sherif": 4913,
      "fon": 4914,
      "hah": 4915,
      "arth": 4916,
      "armin": 4917,
      "pauliina": 4918,
      "awg": 4919,
      "vasil": 4920,
      "arthur": 4921,
      "oko": 4922,
      "odiri": 4923,
      "roope": 4924,
      "matil": 4925,
      "omena": 4926,
      "odirile": 4927,
      "sanu": 4928,
      "vince": 4929,
      "magano": 4930,
      "bonga": 4931,
      "nomfundo": 4932,
      "tilen": 4933,
      "sid": 4934,
      "nea": 4935,
      "stela": 4936,
      "vilho": 4937,
      "beatrix": 4938,
      "hilmi": 4939,
      "syazwan": 4940,
      "icia": 4941,
      "kri": 4942,
      "aded": 4943,
      "kwek": 4944,
      "leticia": 4945,
      "chika": 4946,
      "muneer": 4947,
      "fj": 4948,
      "hum": 4949,
      "ilyas": 4950,
      "teja": 4951,
      "keith": 4952,
      "yousuf": 4953,
      "najwa": 4954,
      "esti": 4955,
      "hameed": 4956,
      "yusri": 4957,
      "shamsu": 4958,
      "alba": 4959,
      "tobeko": 4960,
      "azad": 4961,
      "muni": 4962,
      "arek": 4963,
      "andela": 4964,
      "basha": 4965,
      "fatime": 4966,
      "dauda": 4967,
      "ely": 4968,
      "omphemetse": 4969,
      "dorottya": 4970,
      "iddrisu": 4971,
      "oye": 4972,
      "hafi": 4973,
      "kani": 4974,
      "ergy": 4975,
      "jafar": 4976,
      "ergys": 4977,
      "xha": 4978,
      "oslav": 4979,
      "monday": 4980,
      "sigit": 4981,
      "soha": 4982,
      "kamarul": 4983,
      "faa": 4984,
      "nitesh": 4985,
      "ap": 4986,
      "enolo": 4987,
      "thak": 4988,
      "tshenolo": 4989,
      "pun": 4990,
      "ariina": 4991,
      "katariina": 4992,
      "lalu": 4993,
      "kapil": 4994,
      "xhuli": 4995,
      "tre": 4996,
      "iola": 4997,
      "trevor": 4998,
      "willie": 4999,
      "erni": 5000,
      "abelle": 5001,
      "salleh": 5002,
      "ilija": 5003,
      "ynek": 5004,
      "flutura": 5005,
      "naft": 5006,
      "mamat": 5007,
      "fortune": 5008,
      "izan": 5009,
      "nono": 5010,
      "thuli": 5011,
      "teh": 5012,
      "klod": 5013,
      "ep": 5014,
      "xin": 5015,
      "ansar": 5016,
      "ummu": 5017,
      "fruz": 5018,
      "dica": 5019,
      "diti": 5020,
      "pajtim": 5021,
      "jaromir": 5022,
      "shqipe": 5023,
      "trina": 5024,
      "kaltrina": 5025,
      "rishi": 5026,
      "damil": 5027,
      "jell": 5028,
      "divine": 5029,
      "monda": 5030,
      "poh": 5031,
      "ooi": 5032,
      "svetlana": 5033,
      "dira": 5034,
      "divya": 5035,
      "enye": 5036,
      "patricija": 5037,
      "chinenye": 5038,
      "rei": 5039,
      "iida": 5040,
      "botho": 5041,
      "hek": 5042,
      "ler": 5043,
      "zakari": 5044,
      "choo": 5045,
      "naga": 5046,
      "mallam": 5047,
      "yusof": 5048,
      "alberto": 5049,
      "salmah": 5050,
      "istvanne": 5051,
      "bheki": 5052,
      "vy": 5053,
      "anan": 5054,
      "ahafa": 5055,
      "tie": 5056,
      "krun": 5057,
      "ndahafa": 5058,
      "afiqah": 5059,
      "swe": 5060,
      "helal": 5061,
      "zuba": 5062,
      "szilard": 5063,
      "cj": 5064,
      "secilia": 5065,
      "nozipho": 5066,
      "ness": 5067,
      "sit": 5068,
      "salif": 5069,
      "henrietta": 5070,
      "salifu": 5071,
      "lorna": 5072,
      "modise": 5073,
      "yud": 5074,
      "atla": 5075,
      "dimas": 5076,
      "dicky": 5077,
      "donny": 5078,
      "amalina": 5079,
      "goaba": 5080,
      "aga": 5081,
      "philus": 5082,
      "theophilus": 5083,
      "quinton": 5084,
      "abisa": 5085,
      "sirkka": 5086,
      "marinela": 5087,
      "syahirah": 5088,
      "manikand": 5089,
      "afolabi": 5090,
      "manikandan": 5091,
      "olayinka": 5092,
      "ashu": 5093,
      "marcia": 5094,
      "bit": 5095,
      "rapha": 5096,
      "keamogetse": 5097,
      "raphael": 5098,
      "andro": 5099,
      "nez": 5100,
      "fab": 5101,
      "florent": 5102,
      "maman": 5103,
      "ack": 5104,
      "lokesh": 5105,
      "tiaan": 5106,
      "meshack": 5107,
      "sofyan": 5108,
      "lis": 5109,
      "anssi": 5110,
      "iren": 5111,
      "buku": 5112,
      "syarif": 5113,
      "rhea": 5114,
      "pent": 5115,
      "balu": 5116,
      "reshma": 5117,
      "taha": 5118,
      "pentti": 5119,
      "atso": 5120,
      "adar": 5121,
      "gabi": 5122,
      "srecko": 5123,
      "olwethu": 5124,
      "hoda": 5125,
      "louise": 5126,
      "ohene": 5127,
      "his": 5128,
      "vula": 5129,
      "anti": 5130,
      "pontsho": 5131,
      "enock": 5132,
      "kga": 5133,
      "arah": 5134,
      "lavin": 5135,
      "nasiru": 5136,
      "lovisa": 5137,
      "raimo": 5138,
      "lavinia": 5139,
      "fola": 5140,
      "rine": 5141,
      "seun": 5142,
      "ashwin": 5143,
      "nkululeko": 5144,
      "qman": 5145,
      "uchen": 5146,
      "seema": 5147,
      "luqman": 5148,
      "alie": 5149,
      "fitore": 5150,
      "junaidi": 5151,
      "uchenna": 5152,
      "madu": 5153,
      "rudina": 5154,
      "oluchi": 5155,
      "nkosi": 5156,
      "wai": 5157,
      "obile": 5158,
      "xheni": 5159,
      "ergi": 5160,
      "novi": 5161,
      "vinoth": 5162,
      "oskar": 5163,
      "teres": 5164,
      "jackie": 5165,
      "kurnia": 5166,
      "adeniyi": 5167,
      "nqobile": 5168,
      "nja": 5169,
      "ahmet": 5170,
      "cine": 5171,
      "drin": 5172,
      "vimal": 5173,
      "olame": 5174,
      "marcell": 5175,
      "segolame": 5176,
      "kornelia": 5177,
      "thokozani": 5178,
      "nexh": 5179,
      "bonye": 5180,
      "mitch": 5181,
      "rajiv": 5182,
      "ate": 5183,
      "kleo": 5184,
      "dasa": 5185,
      "leah": 5186,
      "prasan": 5187,
      "ching": 5188,
      "eras": 5189,
      "oluwato": 5190,
      "sujit": 5191,
      "mithun": 5192,
      "kadri": 5193,
      "mimie": 5194,
      "raman": 5195,
      "eveliina": 5196,
      "cheong": 5197,
      "mmaagwe": 5198,
      "lut": 5199,
      "luyanda": 5200,
      "karina": 5201,
      "sabri": 5202,
      "shadrack": 5203,
      "alketa": 5204,
      "adje": 5205,
      "wayan": 5206,
      "iful": 5207,
      "palani": 5208,
      "krenar": 5209,
      "adjei": 5210,
      "arvin": 5211,
      "taimi": 5212,
      "sadik": 5213,
      "asser": 5214,
      "ndina": 5215,
      "alalelo": 5216,
      "kgalalelo": 5217,
      "nemeth": 5218,
      "rabin": 5219,
      "vania": 5220,
      "abiba": 5221,
      "sudhir": 5222,
      "ande": 5223,
      "beau": 5224,
      "aminah": 5225,
      "beauty": 5226,
      "jide": 5227,
      "reijo": 5228,
      "paavo": 5229,
      "varsha": 5230,
      "boine": 5231,
      "khtar": 5232,
      "deepa": 5233,
      "boineelo": 5234,
      "gn": 5235,
      "nives": 5236,
      "mirja": 5237,
      "zvonko": 5238,
      "gnesh": 5239,
      "elise": 5240,
      "akhona": 5241,
      "rabiatul": 5242,
      "eline": 5243,
      "hou": 5244,
      "zdz": 5245,
      "wieslawa": 5246,
      "eel": 5247,
      "lita": 5248,
      "mbar": 5249,
      "opp": 5250,
      "xu": 5251,
      "wira": 5252,
      "jasper": 5253,
      "letlhogonolo": 5254,
      "oppong": 5255,
      "rika": 5256,
      "teopolina": 5257,
      "ledio": 5258,
      "oluwaseun": 5259,
      "pandi": 5260,
      "toyin": 5261,
      "piros": 5262,
      "teresita": 5263,
      "onyeka": 5264,
      "lh": 5265,
      "arjeta": 5266,
      "hilya": 5267,
      "bettina": 5268,
      "szabina": 5269,
      "dile": 5270,
      "etan": 5271,
      "dod": 5272,
      "meena": 5273,
      "leonardo": 5274,
      "antonela": 5275,
      "fikri": 5276,
      "sree": 5277,
      "yono": 5278,
      "zdzis": 5279,
      "dileep": 5280,
      "aan": 5281,
      "satria": 5282,
      "ilyass": 5283,
      "mok": 5284,
      "hendro": 5285,
      "sine": 5286,
      "bojana": 5287,
      "binu": 5288,
      "rethabile": 5289,
      "fabi": 5290,
      "niraj": 5291,
      "vlast": 5292,
      "petro": 5293,
      "sindi": 5294,
      "hemant": 5295,
      "franci": 5296,
      "yazid": 5297,
      "azrul": 5298,
      "halil": 5299,
      "erdi": 5300,
      "jozsefne": 5301,
      "wiktor": 5302,
      "ying": 5303,
      "jago": 5304,
      "siya": 5305,
      "saw": 5306,
      "mateus": 5307,
      "akhil": 5308,
      "jagoda": 5309,
      "toivo": 5310,
      "moch": 5311,
      "nati": 5312,
      "balaji": 5313,
      "riina": 5314,
      "dini": 5315,
      "bintang": 5316,
      "pinge": 5317,
      "abdella": 5318,
      "werner": 5319,
      "himanshu": 5320,
      "abdellatif": 5321,
      "dona": 5322,
      "boon": 5323,
      "khoo": 5324,
      "abiola": 5325,
      "sein": 5326,
      "saurabh": 5327,
      "mostapha": 5328,
      "hussein": 5329,
      "alfredo": 5330,
      "silvija": 5331,
      "weta": 5332,
      "fatbardha": 5333,
      "kamati": 5334,
      "othusitse": 5335,
      "sthemb": 5336,
      "enxhi": 5337,
      "nathan": 5338,
      "milayo": 5339,
      "funmilayo": 5340,
      "nertila": 5341,
      "sthembiso": 5342,
      "oz": 5343,
      "arsim": 5344,
      "mash": 5345,
      "isuf": 5346,
      "turi": 5347,
      "hema": 5348,
      "shahul": 5349,
      "martti": 5350,
      "ramiz": 5351,
      "rud": 5352,
      "anniina": 5353,
      "mosa": 5354,
      "egun": 5355,
      "elmer": 5356,
      "marigona": 5357,
      "karin": 5358,
      "myrna": 5359,
      "moem": 5360,
      "emba": 5361,
      "ethemba": 5362,
      "zuzanna": 5363,
      "moemedi": 5364,
      "obeng": 5365,
      "carl": 5366,
      "sbongile": 5367,
      "vlora": 5368,
      "jasim": 5369,
      "shawn": 5370,
      "fakh": 5371,
      "fadwa": 5372,
      "gusta": 5373,
      "sna": 5374,
      "kauna": 5375,
      "hassna": 5376,
      "shiela": 5377,
      "atsimo": 5378,
      "phatsimo": 5379,
      "vasek": 5380,
      "fuse": 5381,
      "soma": 5382,
      "mala": 5383,
      "huang": 5384,
      "ayodele": 5385,
      "dipuo": 5386,
      "tendai": 5387,
      "camille": 5388,
      "jda": 5389,
      "arton": 5390,
      "argj": 5391,
      "zamri": 5392,
      "bokang": 5393,
      "aliisa": 5394,
      "akan": 5395,
      "dami": 5396,
      "tes": 5397,
      "anoo": 5398,
      "urban": 5399,
      "sinikka": 5400,
      "anoop": 5401,
      "nasar": 5402,
      "thami": 5403,
      "asad": 5404,
      "sajan": 5405,
      "rute": 5406,
      "shehu": 5407,
      "zelda": 5408,
      "deddy": 5409,
      "zhang": 5410,
      "robby": 5411,
      "tika": 5412,
      "retno": 5413,
      "hamo": 5414,
      "sofian": 5415,
      "hasnah": 5416,
      "kv": 5417,
      "mandi": 5418,
      "eden": 5419,
      "chay": 5420,
      "suraya": 5421,
      "dick": 5422,
      "serge": 5423,
      "aloo": 5424,
      "iyaloo": 5425,
      "benedicta": 5426,
      "raul": 5427,
      "toini": 5428,
      "sake": 5429,
      "hm": 5430,
      "chelle": 5431,
      "larona": 5432,
      "jem": 5433,
      "geeta": 5434,
      "veton": 5435,
      "mandisa": 5436,
      "jimoh": 5437,
      "normah": 5438,
      "ernestina": 5439,
      "laimi": 5440,
      "bever": 5441,
      "leslie": 5442,
      "pepa": 5443,
      "junias": 5444,
      "nisar": 5445,
      "beverly": 5446,
      "marijo": 5447,
      "brun": 5448,
      "enes": 5449,
      "santi": 5450,
      "gabrijela": 5451,
      "dhe": 5452,
      "elijah": 5453,
      "melisa": 5454,
      "ignati": 5455,
      "ignatius": 5456,
      "laina": 5457,
      "atte": 5458,
      "tak": 5459,
      "lesley": 5460,
      "klaudio": 5461,
      "birendra": 5462,
      "nagendra": 5463,
      "putera": 5464,
      "kelechi": 5465,
      "candi": 5466,
      "feri": 5467,
      "komal": 5468,
      "syamsul": 5469,
      "kem": 5470,
      "upendra": 5471,
      "bongi": 5472,
      "jeremiah": 5473,
      "thandazo": 5474,
      "loni": 5475,
      "vijaya": 5476,
      "hairul": 5477,
      "selim": 5478,
      "sebasti": 5479,
      "marsi": 5480,
      "ulo": 5481,
      "push": 5482,
      "wole": 5483,
      "lehlo": 5484,
      "dhiraj": 5485,
      "aakash": 5486,
      "anastasia": 5487,
      "odu": 5488,
      "bikram": 5489,
      "danie": 5490,
      "daryl": 5491,
      "bedri": 5492,
      "anou": 5493,
      "jozica": 5494,
      "janko": 5495,
      "fahd": 5496,
      "halimah": 5497,
      "eq": 5498,
      "shameer": 5499,
      "andel": 5500,
      "ursa": 5501,
      "akhmad": 5502,
      "olta": 5503,
      "neel": 5504,
      "entela": 5505,
      "gjergj": 5506,
      "wandi": 5507,
      "marissa": 5508,
      "graca": 5509,
      "ilika": 5510,
      "nathani": 5511,
      "zsuzsi": 5512,
      "piroska": 5513,
      "nathaniel": 5514,
      "hary": 5515,
      "wahab": 5516,
      "rar": 5517,
      "mehmet": 5518,
      "brunilda": 5519,
      "gemma": 5520,
      "usha": 5521,
      "foibe": 5522,
      "henrik": 5523,
      "kweku": 5524,
      "uben": 5525,
      "inrich": 5526,
      "andrei": 5527,
      "heinrich": 5528,
      "lilis": 5529,
      "virginia": 5530,
      "dir": 5531,
      "mile": 5532,
      "oro": 5533,
      "dajana": 5534,
      "jhun": 5535,
      "mmag": 5536,
      "opelo": 5537,
      "wla": 5538,
      "modimo": 5539,
      "khawla": 5540,
      "goitsemodimo": 5541,
      "gulam": 5542,
      "fidan": 5543,
      "mmagwe": 5544,
      "elif": 5545,
      "liina": 5546,
      "elifas": 5547,
      "ushad": 5548,
      "inma": 5549,
      "naushad": 5550,
      "tihana": 5551,
      "juri": 5552,
      "dylan": 5553,
      "hitesh": 5554,
      "chidinma": 5555,
      "tengku": 5556,
      "sampson": 5557,
      "nicol": 5558,
      "daph": 5559,
      "thabani": 5560,
      "merry": 5561,
      "yasin": 5562,
      "tunji": 5563,
      "ketut": 5564,
      "hul": 5565,
      "ileni": 5566,
      "edli": 5567,
      "iztok": 5568,
      "usiku": 5569,
      "edlira": 5570,
      "alph": 5571,
      "mica": 5572,
      "kobby": 5573,
      "rosario": 5574,
      "aziza": 5575,
      "karoliina": 5576,
      "tuel": 5577,
      "ademola": 5578,
      "senzo": 5579,
      "tuelo": 5580,
      "safae": 5581,
      "entina": 5582,
      "viola": 5583,
      "stephan": 5584,
      "rea": 5585,
      "nuhu": 5586,
      "xii": 5587,
      "mouna": 5588,
      "berti": 5589,
      "fery": 5590,
      "azizul": 5591,
      "nabila": 5592,
      "vlastim": 5593,
      "fal": 5594,
      "cristiana": 5595,
      "manar": 5596,
      "yos": 5597,
      "olani": 5598,
      "fawaz": 5599,
      "tate": 5600,
      "jahan": 5601,
      "than": 5602,
      "mujeeb": 5603,
      "mayur": 5604,
      "gods": 5605,
      "xhevdet": 5606,
      "yussif": 5607,
      "arul": 5608,
      "abeer": 5609,
      "szek": 5610,
      "jesa": 5611,
      "saud": 5612,
      "donjeta": 5613,
      "claudio": 5614,
      "gentrit": 5615,
      "reynaldo": 5616,
      "bozica": 5617,
      "brad": 5618,
      "gbenga": 5619,
      "kaija": 5620,
      "edin": 5621,
      "duje": 5622,
      "soufian": 5623,
      "bradley": 5624,
      "ebu": 5625,
      "nol": 5626,
      "anre": 5627,
      "kaarina": 5628,
      "chana": 5629,
      "olanre": 5630,
      "waju": 5631,
      "eeq": 5632,
      "bonnie": 5633,
      "zdenko": 5634,
      "olanrewaju": 5635,
      "angula": 5636,
      "razali": 5637,
      "naseer": 5638,
      "rauha": 5639,
      "shre": 5640,
      "kgotso": 5641,
      "gentjan": 5642,
      "ayi": 5643,
      "arda": 5644,
      "amol": 5645,
      "liu": 5646,
      "azizi": 5647,
      "arianit": 5648,
      "mlung": 5649,
      "baz": 5650,
      "mosetsana": 5651,
      "devendra": 5652,
      "mlungisi": 5653,
      "qir": 5654,
      "oona": 5655,
      "visi": 5656,
      "susanto": 5657,
      "hengky": 5658,
      "nw": 5659,
      "eliza": 5660,
      "ramana": 5661,
      "emilie": 5662,
      "ananias": 5663,
      "masu": 5664,
      "sao": 5665,
      "hannes": 5666,
      "ngu": 5667,
      "anuj": 5668,
      "mamta": 5669,
      "livia": 5670,
      "masum": 5671,
      "sundar": 5672,
      "botlhe": 5673,
      "bishal": 5674,
      "oloki": 5675,
      "baboloki": 5676,
      "nouha": 5677,
      "nke": 5678,
      "zrin": 5679,
      "zaiton": 5680,
      "olawale": 5681,
      "carmen": 5682,
      "aminul": 5683,
      "nkechi": 5684,
      "amah": 5685,
      "noma": 5686,
      "lloy": 5687,
      "slind": 5688,
      "asamoah": 5689,
      "vaino": 5690,
      "christa": 5691,
      "shef": 5692,
      "puleng": 5693,
      "lloyd": 5694,
      "slindile": 5695,
      "skh": 5696,
      "kirsti": 5697,
      "abdelhak": 5698,
      "penda": 5699,
      "wana": 5700,
      "erb": 5701,
      "iran": 5702,
      "zeem": 5703,
      "afzal": 5704,
      "kalai": 5705,
      "fjol": 5706,
      "rex": 5707,
      "pauli": 5708,
      "ludek": 5709,
      "fjolla": 5710,
      "jesh": 5711,
      "nkamo": 5712,
      "aleth": 5713,
      "onaleth": 5714,
      "refil": 5715,
      "tshid": 5716,
      "etsile": 5717,
      "jindrich": 5718,
      "fruzsina": 5719,
      "onalethata": 5720,
      "refiloe": 5721,
      "yulia": 5722,
      "rokiah": 5723,
      "vlastimil": 5724,
      "ekela": 5725,
      "zef": 5726,
      "safet": 5727,
      "shilongo": 5728,
      "isak": 5729,
      "balogun": 5730,
      "nazirul": 5731,
      "morne": 5732,
      "jhay": 5733,
      "roj": 5734,
      "manjola": 5735,
      "firoj": 5736,
      "khosi": 5737,
      "mathias": 5738,
      "krunoslav": 5739,
      "pilo": 5740,
      "sni": 5741,
      "ahir": 5742,
      "juan": 5743,
      "hysni": 5744,
      "arsen": 5745,
      "editse": 5746,
      "bonang": 5747,
      "olebile": 5748,
      "ookeditse": 5749,
      "jamilu": 5750,
      "ebere": 5751,
      "chung": 5752,
      "aliff": 5753,
      "shibu": 5754,
      "rizki": 5755,
      "sanaa": 5756,
      "noureddine": 5757,
      "dulal": 5758,
      "eino": 5759,
      "yal": 5760,
      "kobus": 5761,
      "jarka": 5762,
      "nathi": 5763,
      "nardi": 5764,
      "fendy": 5765,
      "ndam": 5766,
      "momo": 5767,
      "zuan": 5768,
      "zamo": 5769,
      "mirjeta": 5770,
      "aneesh": 5771,
      "nyo": 5772,
      "putu": 5773,
      "josie": 5774,
      "kundan": 5775,
      "nyoman": 5776,
      "jong": 5777,
      "amara": 5778,
      "ones": 5779,
      "leva": 5780,
      "soso": 5781,
      "malou": 5782,
      "wilbard": 5783,
      "zuko": 5784,
      "durdica": 5785,
      "amarachi": 5786,
      "onesmus": 5787,
      "chetan": 5788,
      "sameh": 5789,
      "jumo": 5790,
      "zaki": 5791,
      "rosnah": 5792,
      "klevi": 5793,
      "sv": 5794,
      "mita": 5795,
      "tamer": 5796,
      "josh": 5797,
      "chidi": 5798,
      "banyana": 5799,
      "maw": 5800,
      "muzi": 5801,
      "eph": 5802,
      "riana": 5803,
      "mirna": 5804,
      "nomvula": 5805,
      "anup": 5806,
      "sbu": 5807,
      "frimpong": 5808,
      "vili": 5809,
      "zuk": 5810,
      "benedict": 5811,
      "taufiq": 5812,
      "enkel": 5813,
      "naw": 5814,
      "olavi": 5815,
      "susi": 5816,
      "andrews": 5817,
      "mulyadi": 5818,
      "zuzka": 5819,
      "stepanka": 5820,
      "nametso": 5821,
      "sela": 5822,
      "marita": 5823,
      "marsela": 5824,
      "eslam": 5825,
      "oster": 5826,
      "abdelilah": 5827,
      "billal": 5828,
      "hazwan": 5829,
      "ys": 5830,
      "lilli": 5831,
      "fet": 5832,
      "leen": 5833,
      "vedrana": 5834,
      "pene": 5835,
      "miikka": 5836,
      "anowar": 5837,
      "kazimierz": 5838,
      "eila": 5839,
      "aljosa": 5840,
      "binda": 5841,
      "xter": 5842,
      "niku": 5843,
      "dexter": 5844,
      "johanes": 5845,
      "pika": 5846,
      "dney": 5847,
      "nicky": 5848,
      "jual": 5849,
      "sydney": 5850,
      "radwan": 5851,
      "eliaser": 5852,
      "blen": 5853,
      "leona": 5854,
      "larbi": 5855,
      "blendi": 5856,
      "loo": 5857,
      "mahal": 5858,
      "gresa": 5859,
      "vje": 5860,
      "wisnu": 5861,
      "alfe": 5862,
      "nova": 5863,
      "alfeus": 5864,
      "abh": 5865,
      "nori": 5866,
      "wawa": 5867,
      "migena": 5868,
      "gyorgyi": 5869,
      "gram": 5870,
      "vz": 5871,
      "lebza": 5872,
      "diell": 5873,
      "nurin": 5874,
      "matevz": 5875,
      "diellza": 5876,
      "vena": 5877,
      "sujan": 5878,
      "umbu": 5879,
      "dorothy": 5880,
      "adenike": 5881,
      "damilola": 5882,
      "hesh": 5883,
      "tala": 5884,
      "jomar": 5885,
      "unia": 5886,
      "nokw": 5887,
      "murtala": 5888,
      "phumlani": 5889,
      "nokwanda": 5890,
      "mahi": 5891,
      "kef": 5892,
      "dumiso": 5893,
      "nondumiso": 5894,
      "yambo": 5895,
      "nangolo": 5896,
      "abdu": 5897,
      "libus": 5898,
      "ramon": 5899,
      "rolando": 5900,
      "net": 5901,
      "fatlum": 5902,
      "meriton": 5903,
      "tess": 5904,
      "ametsi": 5905,
      "saji": 5906,
      "noha": 5907,
      "oua": 5908,
      "segametsi": 5909,
      "xhulio": 5910,
      "mahlat": 5911,
      "bing": 5912,
      "pinkie": 5913,
      "philani": 5914,
      "fessy": 5915,
      "mahlatse": 5916,
      "shajahan": 5917,
      "dominic": 5918,
      "hekuran": 5919,
      "reuben": 5920,
      "ahamed": 5921,
      "nun": 5922,
      "laci": 5923,
      "reb": 5924,
      "tanto": 5925,
      "shambhu": 5926,
      "widya": 5927,
      "irawan": 5928,
      "noluthando": 5929,
      "erno": 5930,
      "prabhu": 5931,
      "nikki": 5932,
      "hilkka": 5933,
      "florjan": 5934,
      "lanie": 5935,
      "anyo": 5936,
      "kuda": 5937,
      "saheed": 5938,
      "boikanyo": 5939,
      "animir": 5940,
      "abdrahim": 5941,
      "andraz": 5942,
      "branimir": 5943,
      "ugochukwu": 5944,
      "csi": 5945,
      "sc": 5946,
      "uday": 5947,
      "zenka": 5948,
      "lubomir": 5949,
      "fy": 5950,
      "kwan": 5951,
      "sne": 5952,
      "juraj": 5953,
      "khali": 5954,
      "lindy": 5955,
      "dagmara": 5956,
      "vladka": 5957,
      "zbynek": 5958,
      "ebrahim": 5959,
      "lej": 5960,
      "teu": 5961,
      "samer": 5962,
      "hambel": 5963,
      "ruusa": 5964,
      "eveline": 5965,
      "abim": 5966,
      "abisi": 5967,
      "keel": 5968,
      "shakeel": 5969,
      "sarath": 5970,
      "janosne": 5971,
      "ikhwan": 5972,
      "abimbola": 5973,
      "klav": 5974,
      "ashvin": 5975,
      "lovemore": 5976,
      "klavdija": 5977,
      "maje": 5978,
      "gos": 5979,
      "ndumiso": 5980,
      "majeed": 5981,
      "aria": 5982,
      "josua": 5983,
      "etleva": 5984,
      "sakh": 5985,
      "bee": 5986,
      "busi": 5987,
      "queline": 5988,
      "jacqueline": 5989,
      "wilhelmina": 5990,
      "zrinka": 5991,
      "sakhile": 5992,
      "rahimah": 5993,
      "ogechi": 5994,
      "shola": 5995,
      "godira": 5996,
      "donna": 5997,
      "godiraone": 5998,
      "oa": 5999,
      "kolaw": 6000,
      "thobeka": 6001,
      "besarta": 6002,
      "kolawole": 6003,
      "jp": 6004,
      "lata": 6005,
      "rock": 6006,
      "hussa": 6007,
      "naftal": 6008,
      "ehab": 6009,
      "muhar": 6010,
      "bafana": 6011,
      "jaber": 6012,
      "muharrem": 6013,
      "peng": 6014,
      "shma": 6015,
      "lihle": 6016,
      "tinashe": 6017,
      "franko": 6018,
      "gavin": 6019,
      "metka": 6020,
      "gorazd": 6021,
      "llan": 6022,
      "asllan": 6023,
      "hilde": 6024,
      "aniket": 6025,
      "chipo": 6026,
      "adelaide": 6027,
      "yllka": 6028,
      "nothando": 6029,
      "alexa": 6030,
      "lahja": 6031,
      "fuseini": 6032,
      "wunmi": 6033,
      "rak": 6034,
      "tey": 6035,
      "lenny": 6036,
      "jordan": 6037,
      "shinta": 6038,
      "zid": 6039,
      "klau": 6040,
      "safwan": 6041,
      "mbal": 6042,
      "wina": 6043,
      "arbi": 6044,
      "marju": 6045,
      "chinwe": 6046,
      "olamide": 6047,
      "seri": 6048,
      "zaw": 6049,
      "frane": 6050,
      "bbie": 6051,
      "gita": 6052,
      "kale": 6053,
      "rona": 6054,
      "sakari": 6055,
      "araf": 6056,
      "neil": 6057,
      "oagile": 6058,
      "rawan": 6059,
      "moagi": 6060,
      "lirid": 6061,
      "monde": 6062,
      "bipin": 6063,
      "pardeep": 6064,
      "oluwat": 6065,
      "liridona": 6066,
      "lei": 6067,
      "timoteus": 6068,
      "sakeus": 6069,
      "donat": 6070,
      "ganesan": 6071,
      "biswa": 6072,
      "mayma": 6073,
      "jahid": 6074,
      "biswajit": 6075,
      "dren": 6076,
      "mido": 6077,
      "ulena": 6078,
      "albulena": 6079,
      "ilirjan": 6080,
      "loveth": 6081,
      "futhi": 6082,
      "ank": 6083,
      "mugam": 6084,
      "terka": 6085,
      "nelia": 6086,
      "kunle": 6087,
      "atile": 6088,
      "phi": 6089,
      "suria": 6090,
      "endre": 6091,
      "sherwin": 6092,
      "romina": 6093,
      "biljana": 6094,
      "chow": 6095,
      "bozid": 6096,
      "dyah": 6097,
      "pratik": 6098,
      "racha": 6099,
      "bozidar": 6100,
      "leth": 6101,
      "riska": 6102,
      "hennie": 6103,
      "milon": 6104,
      "lethabo": 6105,
      "xavi": 6106,
      "sandro": 6107,
      "xavier": 6108,
      "mela": 6109,
      "rk": 6110,
      "alok": 6111,
      "valerija": 6112,
      "petse": 6113,
      "gaola": 6114,
      "kiru": 6115,
      "fillip": 6116,
      "lule": 6117,
      "linea": 6118,
      "fillipus": 6119,
      "njo": 6120,
      "varun": 6121,
      "marino": 6122,
      "simane": 6123,
      "piro": 6124,
      "edc": 6125,
      "hamzah": 6126,
      "ajet": 6127,
      "hale": 6128,
      "qa": 6129,
      "unathi": 6130,
      "cak": 6131,
      "layla": 6132,
      "veed": 6133,
      "belal": 6134,
      "zamira": 6135,
      "matilde": 6136,
      "eb": 6137,
      "nde": 6138,
      "uleni": 6139,
      "shailesh": 6140,
      "panduleni": 6141,
      "oluwatoyin": 6142,
      "qemal": 6143,
      "leandro": 6144,
      "faz": 6145,
      "ferdin": 6146,
      "heart": 6147,
      "siyanda": 6148,
      "ruel": 6149,
      "poloki": 6150,
      "mompoloki": 6151,
      "liezel": 6152,
      "adarsh": 6153,
      "emanuela": 6154,
      "arjana": 6155,
      "rude": 6156,
      "gatot": 6157,
      "dadang": 6158,
      "hafida": 6159,
      "saija": 6160,
      "lourdes": 6161,
      "myra": 6162,
      "wilhelm": 6163,
      "ameen": 6164,
      "vlatka": 6165,
      "belle": 6166,
      "wumi": 6167,
      "becky": 6168,
      "cathy": 6169,
      "oluf": 6170,
      "marjorie": 6171,
      "zsom": 6172,
      "argjend": 6173,
      "ewan": 6174,
      "onke": 6175,
      "maham": 6176,
      "viktorija": 6177,
      "goabaone": 6178,
      "eleni": 6179,
      "fazal": 6180,
      "ibtissam": 6181,
      "nikolin": 6182,
      "chima": 6183,
      "gazi": 6184,
      "aphiwe": 6185,
      "cli": 6186,
      "fford": 6187,
      "kelo": 6188,
      "panda": 6189,
      "qip": 6190,
      "shqip": 6191,
      "koso": 6192,
      "bozo": 6193,
      "samkelo": 6194,
      "sandhya": 6195,
      "ndapanda": 6196,
      "ndue": 6197,
      "miloud": 6198,
      "clifford": 6199,
      "roza": 6200,
      "medina": 6201,
      "bernar": 6202,
      "elihle": 6203,
      "filomena": 6204,
      "stanko": 6205,
      "teoh": 6206,
      "rasmus": 6207,
      "jhon": 6208,
      "anbu": 6209,
      "farkas": 6210,
      "kedibone": 6211,
      "abdela": 6212,
      "shamsul": 6213,
      "jeevan": 6214,
      "kavi": 6215,
      "berly": 6216,
      "kimberly": 6217,
      "nomthandazo": 6218,
      "jasminka": 6219,
      "jyri": 6220,
      "okechukwu": 6221,
      "babalwa": 6222,
      "long": 6223,
      "hashim": 6224,
      "bakari": 6225,
      "abubakari": 6226,
      "dupe": 6227,
      "miloslav": 6228,
      "hair": 6229,
      "kalam": 6230,
      "batso": 6231,
      "mohmmad": 6232,
      "cit": 6233,
      "ogh": 6234,
      "balogh": 6235,
      "gentiana": 6236,
      "libuse": 6237,
      "cle": 6238,
      "naeem": 6239,
      "austin": 6240,
      "zdzislaw": 6241,
      "amrit": 6242,
      "hamood": 6243,
      "jesaya": 6244,
      "habiba": 6245,
      "ralph": 6246,
      "muti": 6247,
      "maricar": 6248,
      "terence": 6249,
      "thembile": 6250,
      "dubravko": 6251,
      "ujang": 6252,
      "olalek": 6253,
      "ottil": 6254,
      "miroslawa": 6255,
      "cimi": 6256,
      "yatie": 6257,
      "olalekan": 6258,
      "kela": 6259,
      "nh": 6260,
      "navin": 6261,
      "syasya": 6262,
      "charlie": 6263,
      "deepu": 6264,
      "vjeko": 6265,
      "maim": 6266,
      "boak": 6267,
      "tangi": 6268,
      "hadiza": 6269,
      "maimuna": 6270,
      "boakye": 6271,
      "muna": 6272,
      "obed": 6273,
      "ariffin": 6274,
      "ses": 6275,
      "erka": 6276,
      "abrar": 6277,
      "deji": 6278,
      "bhat": 6279,
      "biserka": 6280,
      "ary": 6281,
      "kaye": 6282,
      "addo": 6283,
      "toso": 6284,
      "bowo": 6285,
      "angjel": 6286,
      "santoso": 6287,
      "novita": 6288,
      "tonny": 6289,
      "herlina": 6290,
      "zenel": 6291,
      "ayuba": 6292,
      "oka": 6293,
      "unya": 6294,
      "johari": 6295,
      "mercia": 6296,
      "marinko": 6297,
      "malakia": 6298,
      "sethunya": 6299,
      "oaitse": 6300,
      "bron": 6301,
      "leut": 6302,
      "ikko": 6303,
      "faik": 6304,
      "mirza": 6305,
      "veikko": 6306,
      "marcio": 6307,
      "leutrim": 6308,
      "akeem": 6309,
      "dianne": 6310,
      "som": 6311,
      "magar": 6312,
      "justy": 6313,
      "eera": 6314,
      "azan": 6315,
      "ramazan": 6316,
      "sanela": 6317,
      "omprakash": 6318,
      "zouhir": 6319,
      "ephraim": 6320,
      "abner": 6321,
      "tomo": 6322,
      "azem": 6323,
      "alberta": 6324,
      "gjon": 6325,
      "kalman": 6326,
      "siphokazi": 6327,
      "eek": 6328,
      "eeta": 6329,
      "letso": 6330,
      "tosin": 6331,
      "katlo": 6332,
      "julio": 6333,
      "hutso": 6334,
      "rafeek": 6335,
      "eeb": 6336,
      "warelo": 6337,
      "nombul": 6338,
      "habeeb": 6339,
      "sangeeta": 6340,
      "boikhutso": 6341,
      "nombulelo": 6342,
      "clirim": 6343,
      "dem": 6344,
      "mahmood": 6345,
      "evangeline": 6346,
      "tuukka": 6347,
      "nelisiwe": 6348,
      "wise": 6349,
      "idon": 6350,
      "erisa": 6351,
      "rosalie": 6352,
      "keli": 6353,
      "nath": 6354,
      "bogum": 6355,
      "florim": 6356,
      "sebastjan": 6357,
      "vaib": 6358,
      "zarta": 6359,
      "vaibhav": 6360,
      "shy": 6361,
      "shakes": 6362,
      "yanu": 6363,
      "xhevahir": 6364,
      "bani": 6365,
      "hbib": 6366,
      "erja": 6367,
      "neza": 6368,
      "nabin": 6369,
      "ndamona": 6370,
      "kazeem": 6371,
      "leungo": 6372,
      "luci": 6373,
      "aldrin": 6374,
      "tadeja": 6375,
      "setiawan": 6376,
      "ebuka": 6377,
      "fatjona": 6378,
      "shihab": 6379,
      "neelam": 6380,
      "alvar": 6381,
      "mariel": 6382,
      "olatunji": 6383,
      "ades": 6384,
      "adeline": 6385,
      "sford": 6386,
      "hamdan": 6387,
      "agbo": 6388,
      "aulia": 6389,
      "sneha": 6390,
      "bleona": 6391,
      "sphesihle": 6392,
      "zsombor": 6393,
      "enka": 6394,
      "muhamed": 6395,
      "visnja": 6396,
      "hanafi": 6397,
      "shareef": 6398,
      "anak": 6399,
      "warona": 6400,
      "bonno": 6401,
      "nonkululeko": 6402,
      "segomotso": 6403,
      "jho": 6404,
      "erlinda": 6405,
      "mylene": 6406,
      "sudhe": 6407,
      "jaliisa": 6408,
      "mthokoz": 6409,
      "niranjan": 6410,
      "swap": 6411,
      "mthokozisi": 6412,
      "kus": 6413,
      "anle": 6414,
      "see": 6415,
      "peta": 6416,
      "shashi": 6417,
      "bolanle": 6418,
      "tapani": 6419,
      "topi": 6420,
      "manja": 6421,
      "saku": 6422,
      "tuti": 6423,
      "tushar": 6424,
      "mega": 6425,
      "yush": 6426,
      "piyush": 6427,
      "syaza": 6428,
      "budiman": 6429,
      "mochamad": 6430,
      "qah": 6431,
      "rasha": 6432,
      "chiz": 6433,
      "atiqah": 6434,
      "desire": 6435,
      "nombuso": 6436,
      "jaleena": 6437,
      "enkeleda": 6438,
      "neli": 6439,
      "valdrin": 6440,
      "fredrick": 6441,
      "abdelali": 6442,
      "kacka": 6443,
      "rik": 6444,
      "doha": 6445,
      "maher": 6446,
      "faizah": 6447,
      "sajjad": 6448,
      "maribel": 6449,
      "fiina": 6450,
      "ardiana": 6451,
      "mirsad": 6452,
      "efraim": 6453,
      "syaiful": 6454,
      "rusli": 6455,
      "lela": 6456,
      "aish": 6457,
      "ledion": 6458,
      "gfj": 6459,
      "naji": 6460,
      "muskan": 6461,
      "sahid": 6462,
      "florenc": 6463,
      "milica": 6464,
      "galal": 6465,
      "esat": 6466,
      "hamdi": 6467,
      "thabile": 6468,
      "pala": 6469,
      "nontobeko": 6470,
      "galaletsang": 6471,
      "dit": 6472,
      "zby": 6473,
      "itswe": 6474,
      "ossi": 6475,
      "husain": 6476,
      "abderrahman": 6477,
      "racheal": 6478,
      "lassi": 6479,
      "othmane": 6480,
      "thakur": 6481,
      "andry": 6482,
      "haja": 6483,
      "lungelo": 6484,
      "nhla": 6485,
      "weng": 6486,
      "mawan": 6487,
      "lamia": 6488,
      "ayam": 6489,
      "bardhi": 6490,
      "margie": 6491,
      "ankita": 6492,
      "wafae": 6493,
      "huda": 6494,
      "ontlam": 6495,
      "chit": 6496,
      "atang": 6497,
      "suri": 6498,
      "renz": 6499,
      "annabelle": 6500,
      "ontlametse": 6501,
      "kartik": 6502,
      "mouhamed": 6503,
      "jsi": 6504,
      "keijo": 6505,
      "kejsi": 6506,
      "johny": 6507,
      "maiju": 6508,
      "jeremia": 6509,
      "rodol": 6510,
      "jihan": 6511,
      "brijesh": 6512,
      "lutfi": 6513,
      "rodolfo": 6514,
      "jonne": 6515,
      "izabella": 6516,
      "bernadette": 6517,
      "ghizlane": 6518,
      "bernarda": 6519,
      "zala": 6520,
      "arin": 6521,
      "mukhtar": 6522,
      "rambabu": 6523,
      "zoli": 6524,
      "hatim": 6525,
      "abby": 6526,
      "anicka": 6527,
      "darinka": 6528,
      "marea": 6529,
      "viivi": 6530,
      "reetta": 6531,
      "bofelo": 6532,
      "phet": 6533,
      "sanusi": 6534,
      "ramlah": 6535,
      "chaib": 6536,
      "andana": 6537,
      "sekar": 6538,
      "coraz": 6539,
      "oluwakemi": 6540,
      "ejf": 6541,
      "corazon": 6542,
      "terttu": 6543,
      "shima": 6544,
      "adeleke": 6545,
      "tsi": 6546,
      "jafet": 6547,
      "khairi": 6548,
      "nelius": 6549,
      "pali": 6550,
      "inkosi": 6551,
      "abang": 6552,
      "essam": 6553,
      "bonginkosi": 6554,
      "xhoni": 6555,
      "girish": 6556,
      "hidayat": 6557,
      "mpum": 6558,
      "elmo": 6559,
      "luz": 6560,
      "sonali": 6561,
      "mpume": 6562,
      "aila": 6563,
      "gjo": 6564,
      "eugenia": 6565,
      "pushpa": 6566,
      "nanda": 6567,
      "telle": 6568,
      "amalia": 6569,
      "ery": 6570,
      "marcelo": 6571,
      "gontse": 6572,
      "aru": 6573,
      "ampon": 6574,
      "shit": 6575,
      "reg": 6576,
      "hai": 6577,
      "bless": 6578,
      "sylwester": 6579,
      "syahrul": 6580,
      "josko": 6581,
      "jabulile": 6582,
      "marjut": 6583,
      "abdelaziz": 6584,
      "amponsah": 6585,
      "eu": 6586,
      "nwa": 6587,
      "alabi": 6588,
      "kopan": 6589,
      "klejdi": 6590,
      "khairun": 6591,
      "kopano": 6592,
      "sl": 6593,
      "alfon": 6594,
      "larry": 6595,
      "akhtar": 6596,
      "alfons": 6597,
      "ulam": 6598,
      "lester": 6599,
      "miljen": 6600,
      "ghulam": 6601,
      "noufal": 6602,
      "jumoke": 6603,
      "pru": 6604,
      "dence": 6605,
      "prudence": 6606,
      "nnam": 6607,
      "hammed": 6608,
      "cebo": 6609,
      "standa": 6610,
      "thebe": 6611,
      "lynette": 6612,
      "bhavesh": 6613,
      "ratie": 6614,
      "tirelo": 6615,
      "nnamdi": 6616,
      "ghan": 6617,
      "romel": 6618,
      "lodi": 6619,
      "puan": 6620,
      "babita": 6621,
      "tatu": 6622,
      "mza": 6623,
      "hawa": 6624,
      "hanny": 6625,
      "endah": 6626,
      "sarita": 6627,
      "bhas": 6628,
      "veena": 6629,
      "ireneusz": 6630,
      "bhaskar": 6631,
      "faye": 6632,
      "harriet": 6633,
      "dickson": 6634,
      "ston": 6635,
      "yet": 6636,
      "sonto": 6637,
      "benjie": 6638,
      "meryam": 6639,
      "serwaa": 6640,
      "fakhrul": 6641,
      "yetunde": 6642,
      "arlyn": 6643,
      "archana": 6644,
      "matko": 6645,
      "chandu": 6646,
      "kesa": 6647,
      "kledi": 6648,
      "aliza": 6649,
      "yapo": 6650,
      "azlina": 6651,
      "obaka": 6652,
      "poloko": 6653,
      "osi": 6654,
      "jashim": 6655,
      "rosh": 6656,
      "hanis": 6657,
      "fica": 6658,
      "stefica": 6659,
      "ayub": 6660,
      "swati": 6661,
      "diwe": 6662,
      "mahabu": 6663,
      "chukwudi": 6664,
      "londiwe": 6665,
      "mahabub": 6666,
      "qazim": 6667,
      "elani": 6668,
      "selina": 6669,
      "jolene": 6670,
      "mizanur": 6671,
      "golu": 6672,
      "nomusa": 6673,
      "waie": 6674,
      "wafaa": 6675,
      "bai": 6676,
      "verca": 6677,
      "atikah": 6678,
      "pinja": 6679,
      "meriem": 6680,
      "awangku": 6681,
      "reddy": 6682,
      "redouane": 6683,
      "jitu": 6684,
      "qis": 6685,
      "adriano": 6686,
      "letty": 6687,
      "erzsi": 6688,
      "ilim": 6689,
      "sammy": 6690,
      "annisa": 6691,
      "agustinus": 6692,
      "ndilim": 6693,
      "ratih": 6694,
      "mohssin": 6695,
      "okafor": 6696,
      "ndilimeke": 6697,
      "papa": 6698,
      "solly": 6699,
      "ayomide": 6700,
      "ss": 6701,
      "tong": 6702,
      "allen": 6703,
      "marjaleena": 6704,
      "harith": 6705,
      "alvaro": 6706,
      "myo": 6707,
      "udeen": 6708,
      "dayo": 6709,
      "nurudeen": 6710,
      "hisyam": 6711,
      "ned": 6712,
      "viki": 6713,
      "teef": 6714,
      "luthando": 6715,
      "soo": 6716,
      "bach": 6717,
      "lavdim": 6718,
      "syuk": 6719,
      "angelina": 6720,
      "silvie": 6721,
      "sudhakar": 6722,
      "hesham": 6723,
      "syukri": 6724,
      "nkan": 6725,
      "kartini": 6726,
      "aletta": 6727,
      "frederico": 6728,
      "fiqah": 6729,
      "bardhyl": 6730,
      "emir": 6731,
      "tal": 6732,
      "shpend": 6733,
      "rafiqul": 6734,
      "hold": 6735,
      "inhold": 6736,
      "reinhold": 6737,
      "tius": 6738,
      "azwan": 6739,
      "jayesh": 6740,
      "simson": 6741,
      "kwo": 6742,
      "dorjan": 6743,
      "mohmmed": 6744,
      "bimal": 6745,
      "kl": 6746,
      "pit": 6747,
      "jozo": 6748,
      "hika": 6749,
      "shaheen": 6750,
      "nicolene": 6751,
      "zale": 6752,
      "zaleha": 6753,
      "nusa": 6754,
      "pana": 6755,
      "benson": 6756,
      "dolly": 6757,
      "meng": 6758,
      "sius": 6759,
      "meraj": 6760,
      "boguslaw": 6761,
      "stephanus": 6762,
      "eny": 6763,
      "cra": 6764,
      "chuks": 6765,
      "shivu": 6766,
      "nguyen": 6767,
      "craig": 6768,
      "wyn": 6769,
      "gozie": 6770,
      "sourav": 6771,
      "shahril": 6772,
      "chigozie": 6773,
      "zdena": 6774,
      "ntando": 6775,
      "dashamir": 6776,
      "nne": 6777,
      "absalom": 6778,
      "bos": 6779,
      "josephina": 6780,
      "lusia": 6781,
      "hussaini": 6782,
      "nneka": 6783,
      "alket": 6784,
      "fiona": 6785,
      "beqir": 6786,
      "hafsat": 6787,
      "marjatta": 6788,
      "spar": 6789,
      "anao": 6790,
      "daw": 6791,
      "rebaone": 6792,
      "ruan": 6793,
      "kenanao": 6794,
      "cathr": 6795,
      "lillian": 6796,
      "cathrine": 6797,
      "mpu": 6798,
      "meme": 6799,
      "uh": 6800,
      "sanjit": 6801,
      "gerta": 6802,
      "vilson": 6803,
      "murni": 6804,
      "anxhelo": 6805,
      "chantelle": 6806,
      "kwanele": 6807,
      "dalma": 6808,
      "ratu": 6809,
      "poppy": 6810,
      "garba": 6811,
      "amon": 6812,
      "tarun": 6813,
      "rafaela": 6814,
      "jj": 6815,
      "lito": 6816,
      "lek": 6817,
      "rosni": 6818,
      "rost": 6819,
      "sarimah": 6820,
      "prasanth": 6821,
      "leta": 6822,
      "marusa": 6823,
      "toto": 6824,
      "murat": 6825,
      "lanny": 6826,
      "setyo": 6827,
      "yunita": 6828,
      "lorik": 6829,
      "bittu": 6830,
      "rebekka": 6831,
      "maatla": 6832,
      "alicia": 6833,
      "rajae": 6834,
      "kessy": 6835,
      "murugesan": 6836,
      "jko": 6837,
      "jhen": 6838,
      "zafar": 6839,
      "chinonso": 6840,
      "vito": 6841,
      "suleman": 6842,
      "goodness": 6843,
      "tur": 6844,
      "denes": 6845,
      "gabo": 6846,
      "rosnani": 6847,
      "chiamaka": 6848,
      "wasiu": 6849,
      "kena": 6850,
      "ankush": 6851,
      "ramil": 6852,
      "brikena": 6853,
      "desi": 6854,
      "larisa": 6855,
      "rathe": 6856,
      "tii": 6857,
      "kalu": 6858,
      "owolabi": 6859,
      "sangita": 6860,
      "ottilie": 6861,
      "ratheesh": 6862,
      "aud": 6863,
      "hamizah": 6864,
      "audrey": 6865,
      "uma": 6866,
      "yassir": 6867,
      "efya": 6868,
      "gazmir": 6869,
      "lwazi": 6870,
      "onks": 6871,
      "erry": 6872,
      "edek": 6873,
      "chanda": 6874,
      "eso": 6875,
      "boemo": 6876,
      "lance": 6877,
      "kreso": 6878,
      "darija": 6879,
      "tlhale": 6880,
      "candice": 6881,
      "cuni": 6882,
      "meke": 6883,
      "sidor": 6884,
      "lume": 6885,
      "luiza": 6886,
      "ibraheem": 6887,
      "nelli": 6888,
      "ghani": 6889,
      "thembeka": 6890,
      "halit": 6891,
      "bhola": 6892,
      "ndinelago": 6893,
      "sidorela": 6894,
      "miko": 6895,
      "chiso": 6896,
      "emmanuella": 6897,
      "faroo": 6898,
      "miska": 6899,
      "valeria": 6900,
      "wioleta": 6901,
      "chisom": 6902,
      "farooq": 6903,
      "bone": 6904,
      "jio": 6905,
      "kye": 6906,
      "zarina": 6907,
      "diane": 6908,
      "osin": 6909,
      "chijio": 6910,
      "klodjan": 6911,
      "oluwatosin": 6912,
      "chijioke": 6913,
      "qet": 6914,
      "khen": 6915,
      "khanyisile": 6916,
      "munirah": 6917,
      "shefqet": 6918,
      "candra": 6919,
      "inus": 6920,
      "abong": 6921,
      "martins": 6922,
      "xoliswa": 6923,
      "abongile": 6924,
      "idriz": 6925,
      "faez": 6926,
      "ilayo": 6927,
      "honolo": 6928,
      "titilayo": 6929,
      "durgesh": 6930,
      "sbonelo": 6931,
      "lehlohonolo": 6932,
      "zos": 6933,
      "rain": 6934,
      "abhay": 6935,
      "moro": 6936,
      "barca": 6937,
      "elizabeta": 6938,
      "sebastijan": 6939,
      "giz": 6940,
      "tem": 6941,
      "christy": 6942,
      "jeno": 6943,
      "marcsi": 6944,
      "damia": 6945,
      "valentino": 6946,
      "naveed": 6947,
      "paja": 6948,
      "annamari": 6949,
      "ezi": 6950,
      "mhamed": 6951,
      "raili": 6952,
      "rif": 6953,
      "lef": 6954,
      "manca": 6955,
      "emana": 6956,
      "kevi": 6957,
      "sulemana": 6958,
      "eemeli": 6959,
      "girlie": 6960,
      "czes": 6961,
      "elmarie": 6962,
      "ekan": 6963,
      "azimah": 6964,
      "mirul": 6965,
      "rukay": 6966,
      "elida": 6967,
      "aamir": 6968,
      "mek": 6969,
      "nandi": 6970,
      "maitumelo": 6971,
      "rogeri": 6972,
      "same": 6973,
      "xolile": 6974,
      "bouchaib": 6975,
      "mmapula": 6976,
      "rogerio": 6977,
      "tara": 6978,
      "aniq": 6979,
      "lets": 6980,
      "pelon": 6981,
      "simao": 6982,
      "eji": 6983,
      "hem": 6984,
      "rasim": 6985,
      "mokg": 6986,
      "zainul": 6987,
      "blazenka": 6988,
      "mokgadi": 6989,
      "aiz": 6990,
      "wald": 6991,
      "elio": 6992,
      "aizat": 6993,
      "amna": 6994,
      "tebza": 6995,
      "wanto": 6996,
      "trisno": 6997,
      "hando": 6998,
      "gabes": 6999,
      "olusegun": 7000,
      "erza": 7001,
      "keri": 7002,
      "yonela": 7003,
      "laureta": 7004,
      "file": 7005,
      "yar": 7006,
      "zad": 7007,
      "nagesh": 7008,
      "shahzad": 7009,
      "kedibonye": 7010,
      "kacs": 7011,
      "mud": 7012,
      "rajni": 7013,
      "ify": 7014,
      "kelisiwe": 7015,
      "clarence": 7016,
      "etal": 7017,
      "atie": 7018,
      "heini": 7019,
      "tonci": 7020,
      "encik": 7021,
      "faizul": 7022,
      "zbyszek": 7023,
      "zosia": 7024,
      "china": 7025,
      "nadi": 7026,
      "kozi": 7027,
      "ramani": 7028,
      "norma": 7029,
      "koos": 7030,
      "azrin": 7031,
      "pritam": 7032,
      "dal": 7033,
      "irish": 7034,
      "jonalyn": 7035,
      "urai": 7036,
      "ricim": 7037,
      "ndricim": 7038,
      "erah": 7039,
      "gendra": 7040,
      "smang": 7041,
      "boton": 7042,
      "idele": 7043,
      "sabar": 7044,
      "bamidele": 7045,
      "khushi": 7046,
      "sohail": 7047,
      "smangele": 7048,
      "botond": 7049,
      "kond": 7050,
      "mathapelo": 7051,
      "kaelo": 7052,
      "naze": 7053,
      "hayu": 7054,
      "boye": 7055,
      "keo": 7056,
      "prati": 7057,
      "matlhogonolo": 7058,
      "jitendar": 7059,
      "domingos": 7060,
      "cheah": 7061,
      "zouhair": 7062,
      "nazeer": 7063,
      "qamil": 7064,
      "anta": 7065,
      "aram": 7066,
      "mayan": 7067,
      "ossama": 7068,
      "syabonga": 7069,
      "khanya": 7070,
      "augusto": 7071,
      "mayank": 7072,
      "cry": 7073,
      "ismo": 7074,
      "roris": 7075,
      "hazem": 7076,
      "stal": 7077,
      "crystal": 7078,
      "rorisang": 7079,
      "iis": 7080,
      "elidon": 7081,
      "tebatso": 7082,
      "payal": 7083,
      "julija": 7084,
      "andika": 7085,
      "nikita": 7086,
      "yuliana": 7087,
      "bogumila": 7088,
      "kiso": 7089,
      "joke": 7090,
      "vipul": 7091,
      "sujith": 7092,
      "zaidi": 7093,
      "shaibu": 7094,
      "mbah": 7095,
      "izzati": 7096,
      "pelang": 7097,
      "ores": 7098,
      "chirag": 7099,
      "florentina": 7100,
      "erasmus": 7101,
      "ferdinand": 7102,
      "ass": 7103,
      "sandorne": 7104,
      "thandie": 7105,
      "nezha": 7106,
      "miljenko": 7107,
      "dhan": 7108,
      "onth": 7109,
      "ontir": 7110,
      "hamizan": 7111,
      "asmah": 7112,
      "vuyokazi": 7113,
      "youssra": 7114,
      "ontiretse": 7115,
      "csen": 7116,
      "fang": 7117,
      "kia": 7118,
      "zola": 7119,
      "adeye": 7120,
      "shuaibu": 7121,
      "oluwafemi": 7122,
      "csenge": 7123,
      "fizah": 7124,
      "rhoda": 7125,
      "trin": 7126,
      "shkur": 7127,
      "alexis": 7128,
      "vasu": 7129,
      "gilang": 7130,
      "ntombifuthi": 7131,
      "iko": 7132,
      "pab": 7133,
      "song": 7134,
      "kau": 7135,
      "imma": 7136,
      "tijani": 7137,
      "ardy": 7138,
      "agyemang": 7139,
      "chidimma": 7140,
      "erd": 7141,
      "adhar": 7142,
      "vignesh": 7143,
      "dounia": 7144,
      "gerry": 7145,
      "ernesto": 7146,
      "jakob": 7147,
      "gangadhar": 7148,
      "mfundo": 7149,
      "ohar": 7150,
      "manohar": 7151,
      "engjell": 7152,
      "mintu": 7153,
      "tla": 7154,
      "xhen": 7155,
      "rochelle": 7156,
      "zaim": 7157,
      "senad": 7158,
      "kgotla": 7159,
      "bulelwa": 7160,
      "jimi": 7161,
      "hanae": 7162,
      "kayna": 7163,
      "tena": 7164,
      "regin": 7165,
      "karl": 7166,
      "fadli": 7167,
      "sindiswa": 7168,
      "rostislav": 7169,
      "reginald": 7170,
      "hester": 7171,
      "rajko": 7172,
      "ruza": 7173,
      "awie": 7174,
      "vladimira": 7175,
      "shabeer": 7176,
      "ritu": 7177,
      "orsi": 7178,
      "steve": 7179,
      "dante": 7180,
      "batho": 7181,
      "mzwandile": 7182,
      "angah": 7183,
      "neja": 7184,
      "olajide": 7185,
      "kruno": 7186,
      "khadijah": 7187,
      "roselyn": 7188,
      "redon": 7189,
      "shekh": 7190,
      "ardjan": 7191,
      "jewel": 7192,
      "prasanna": 7193,
      "nadiah": 7194,
      "pono": 7195,
      "ampong": 7196,
      "naemi": 7197,
      "thatso": 7198,
      "sey": 7199,
      "olabisi": 7200,
      "manny": 7201,
      "shanu": 7202,
      "kgothatso": 7203,
      "walter": 7204,
      "ajmal": 7205,
      "chaymae": 7206,
      "almir": 7207,
      "bohum": 7208,
      "adebisi": 7209,
      "violetta": 7210,
      "erblin": 7211,
      "fanie": 7212,
      "tet": 7213,
      "phu": 7214,
      "brighton": 7215,
      "glenda": 7216,
      "athirah": 7217,
      "imon": 7218,
      "imti": 7219,
      "tuuli": 7220,
      "pei": 7221,
      "amoako": 7222,
      "zulhilmi": 7223,
      "imtiyaz": 7224,
      "anet": 7225,
      "archie": 7226,
      "alka": 7227,
      "raia": 7228,
      "mire": 7229,
      "kuku": 7230,
      "soraia": 7231,
      "natasya": 7232,
      "tonin": 7233,
      "hertha": 7234,
      "anusha": 7235,
      "fortunate": 7236,
      "naseem": 7237,
      "aarti": 7238,
      "suhail": 7239,
      "foster": 7240,
      "amadu": 7241,
      "laka": 7242,
      "etjie": 7243,
      "marietjie": 7244,
      "nurhayati": 7245,
      "benedek": 7246,
      "basu": 7247,
      "lusi": 7248,
      "marti": 7249,
      "yoga": 7250,
      "haryanto": 7251,
      "danang": 7252,
      "shakil": 7253,
      "malwina": 7254,
      "aira": 7255,
      "shaikha": 7256,
      "govin": 7257,
      "emili": 7258,
      "binkosi": 7259,
      "destiny": 7260,
      "thembinkosi": 7261,
      "govinda": 7262,
      "jn": 7263,
      "kisu": 7264,
      "abdelhadi": 7265,
      "faizan": 7266,
      "dorotea": 7267,
      "jnr": 7268,
      "sven": 7269,
      "christiaan": 7270,
      "funmi": 7271,
      "ainul": 7272,
      "lale": 7273,
      "telmo": 7274,
      "maungo": 7275,
      "debbie": 7276,
      "engr": 7277,
      "park": 7278,
      "motlale": 7279,
      "soumia": 7280,
      "omolara": 7281,
      "hangula": 7282,
      "sapna": 7283,
      "maduo": 7284,
      "motlalepula": 7285,
      "tajana": 7286,
      "hao": 7287,
      "hoo": 7288,
      "basetsana": 7289,
      "ferencne": 7290,
      "sphelele": 7291,
      "rangga": 7292,
      "zint": 7293,
      "araj": 7294,
      "rumah": 7295,
      "ashik": 7296,
      "preeti": 7297,
      "hafsa": 7298,
      "zintle": 7299,
      "ono": 7300,
      "veeti": 7301,
      "fransiska": 7302,
      "abdessamad": 7303,
      "mashudu": 7304,
      "shree": 7305,
      "wiseman": 7306,
      "enal": 7307,
      "zaenal": 7308,
      "hiwa": 7309,
      "azizan": 7310,
      "lnet": 7311,
      "vul": 7312,
      "jovel": 7313,
      "isaiah": 7314,
      "bashiru": 7315,
      "kamariah": 7316,
      "siphesihle": 7317,
      "mutiara": 7318,
      "vullnet": 7319,
      "jovelyn": 7320,
      "hli": 7321,
      "lunga": 7322,
      "abg": 7323,
      "vez": 7324,
      "fation": 7325,
      "parvez": 7326,
      "rolly": 7327,
      "shivani": 7328,
      "klodiana": 7329,
      "fadhli": 7330,
      "xhoi": 7331,
      "camilla": 7332,
      "lejla": 7333,
      "dzi": 7334,
      "iin": 7335,
      "kader": 7336,
      "dodi": 7337,
      "franky": 7338,
      "duan": 7339,
      "lilik": 7340,
      "feek": 7341,
      "shohel": 7342,
      "fransisca": 7343,
      "kveta": 7344,
      "pine": 7345,
      "vandana": 7346,
      "maks": 7347,
      "erjona": 7348,
      "kasim": 7349,
      "deny": 7350,
      "slaven": 7351,
      "nelao": 7352,
      "goni": 7353,
      "nazi": 7354,
      "defrim": 7355,
      "bur": 7356,
      "cezar": 7357,
      "deva": 7358,
      "rajawi": 7359,
      "cintia": 7360,
      "arbenita": 7361,
      "cezary": 7362,
      "fol": 7363,
      "zaid": 7364,
      "benard": 7365,
      "kristo": 7366,
      "jelka": 7367,
      "awu": 7368,
      "shaqe": 7369,
      "skhumbu": 7370,
      "skhumbuzo": 7371,
      "vad": 7372,
      "onia": 7373,
      "uny": 7374,
      "milka": 7375,
      "selman": 7376,
      "selly": 7377,
      "tricia": 7378,
      "kristofina": 7379,
      "salihu": 7380,
      "abderahim": 7381,
      "puseletso": 7382,
      "anouar": 7383,
      "aili": 7384,
      "krim": 7385,
      "qeri": 7386,
      "konsta": 7387,
      "thembelihle": 7388,
      "mbark": 7389,
      "bina": 7390,
      "ingo": 7391,
      "rije": 7392,
      "marlyn": 7393,
      "joann": 7394,
      "leart": 7395,
      "boingo": 7396,
      "tumo": 7397,
      "harold": 7398,
      "zej": 7399,
      "goitsemang": 7400,
      "nandor": 7401,
      "boingotlo": 7402,
      "zlata": 7403,
      "nazim": 7404,
      "rez": 7405,
      "ariana": 7406,
      "linton": 7407,
      "darshan": 7408,
      "terezka": 7409,
      "abos": 7410,
      "bolaji": 7411,
      "abosede": 7412,
      "jed": 7413,
      "marten": 7414,
      "marjaliisa": 7415,
      "sinethemba": 7416,
      "syazwani": 7417,
      "meshal": 7418,
      "afifah": 7419,
      "city": 7420,
      "any": 7421,
      "felicity": 7422,
      "houssam": 7423,
      "moussa": 7424,
      "tabo": 7425,
      "ader": 7426,
      "adhi": 7427,
      "zakh": 7428,
      "mee": 7429,
      "gersi": 7430,
      "rachmat": 7431,
      "thero": 7432,
      "aymane": 7433,
      "ditiro": 7434,
      "damien": 7435,
      "citra": 7436,
      "taboka": 7437,
      "zakhele": 7438,
      "sthembile": 7439,
      "tuyeni": 7440,
      "kriszta": 7441,
      "phumla": 7442,
      "lumturi": 7443,
      "xie": 7444,
      "raa": 7445,
      "marjus": 7446,
      "hamit": 7447,
      "jamie": 7448,
      "malli": 7449,
      "bino": 7450,
      "jacobus": 7451,
      "hajara": 7452,
      "yemisi": 7453,
      "mstafa": 7454,
      "witold": 7455,
      "czy": 7456,
      "nkiru": 7457,
      "uz": 7458,
      "mijo": 7459,
      "rox": 7460,
      "takacs": 7461,
      "kushal": 7462,
      "kee": 7463,
      "saranda": 7464,
      "mieczy": 7465,
      "anje": 7466,
      "rovena": 7467,
      "khin": 7468,
      "ouma": 7469,
      "okeke": 7470,
      "hafo": 7471,
      "anjeza": 7472,
      "marth": 7473,
      "noriz": 7474,
      "wilka": 7475,
      "yira": 7476,
      "esiek": 7477,
      "iiro": 7478,
      "nhyira": 7479,
      "norizan": 7480,
      "aye": 7481,
      "modupe": 7482,
      "nazirah": 7483,
      "irja": 7484,
      "ruhul": 7485,
      "tiano": 7486,
      "justus": 7487,
      "valin": 7488,
      "cristiano": 7489,
      "badal": 7490,
      "jahir": 7491,
      "salamatu": 7492,
      "akinola": 7493,
      "gjovalin": 7494,
      "aiza": 7495,
      "nona": 7496,
      "shine": 7497,
      "itshe": 7498,
      "medi": 7499,
      "ayodeji": 7500,
      "yusif": 7501,
      "koziba": 7502,
      "mais": 7503,
      "iseni": 7504,
      "dik": 7505,
      "mariani": 7506,
      "venla": 7507,
      "bongiseni": 7508,
      "alesia": 7509,
      "maisarah": 7510,
      "qase": 7511,
      "abdelkader": 7512,
      "philile": 7513,
      "iipinge": 7514,
      "qaseh": 7515,
      "yna": 7516,
      "isia": 7517,
      "haim": 7518,
      "zamir": 7519,
      "sonam": 7520,
      "marysia": 7521,
      "priti": 7522,
      "blazej": 7523,
      "neneng": 7524,
      "marsida": 7525,
      "rara": 7526,
      "ufi": 7527,
      "edvin": 7528,
      "gashi": 7529,
      "rafik": 7530,
      "hariz": 7531,
      "roksana": 7532,
      "maul": 7533,
      "miki": 7534,
      "adh": 7535,
      "fatmira": 7536,
      "sony": 7537,
      "rajmonda": 7538,
      "serxho": 7539,
      "ghita": 7540,
      "billy": 7541,
      "sherly": 7542,
      "yudhi": 7543,
      "doddy": 7544,
      "jurij": 7545,
      "maulana": 7546,
      "can": 7547,
      "qin": 7548,
      "uzo": 7549,
      "lefa": 7550,
      "entle": 7551,
      "oldrich": 7552,
      "mauri": 7553,
      "duncan": 7554,
      "kshi": 7555,
      "taw": 7556,
      "nokul": 7557,
      "ferson": 7558,
      "saidu": 7559,
      "jefferson": 7560,
      "chukwuemeka": 7561,
      "duduzile": 7562,
      "ghanshyam": 7563,
      "nokulunga": 7564,
      "sip": 7565,
      "mastafa": 7566,
      "pratap": 7567,
      "nicolas": 7568,
      "raghu": 7569,
      "hakima": 7570,
      "austine": 7571,
      "sboniso": 7572,
      "jindra": 7573,
      "ansah": 7574,
      "elvie": 7575,
      "ivett": 7576,
      "will": 7577,
      "mamah": 7578,
      "milosz": 7579,
      "gitta": 7580,
      "shade": 7581,
      "hilaria": 7582,
      "abdelghani": 7583,
      "funke": 7584,
      "rozita": 7585,
      "olusola": 7586,
      "folashade": 7587,
      "nwabisa": 7588,
      "arko": 7589,
      "angida": 7590,
      "nyarko": 7591,
      "yew": 7592,
      "babangida": 7593,
      "olek": 7594,
      "uren": 7595,
      "louren": 7596,
      "khi": 7597,
      "minenhle": 7598,
      "banele": 7599,
      "hona": 7600,
      "iita": 7601,
      "edem": 7602,
      "jehona": 7603,
      "helga": 7604,
      "miracle": 7605,
      "cristy": 7606,
      "albano": 7607,
      "trisha": 7608,
      "christinah": 7609,
      "sakinah": 7610,
      "shikin": 7611,
      "nandipha": 7612,
      "wilika": 7613,
      "ersi": 7614,
      "abayomi": 7615,
      "ety": 7616,
      "ceba": 7617,
      "samim": 7618,
      "tuwilika": 7619,
      "zeez": 7620,
      "magreth": 7621,
      "yuri": 7622,
      "mervin": 7623,
      "ouan": 7624,
      "oksana": 7625,
      "rajat": 7626,
      "abdulazeez": 7627,
      "nkele": 7628,
      "rashmi": 7629,
      "adjoa": 7630,
      "sack": 7631,
      "mirva": 7632,
      "stin": 7633,
      "amrita": 7634,
      "eska": 7635,
      "thiru": 7636,
      "papp": 7637,
      "soud": 7638,
      "souha": 7639,
      "khalifa": 7640,
      "hed": 7641,
      "tung": 7642,
      "wul": 7643,
      "orm": 7644,
      "untung": 7645,
      "dika": 7646,
      "lob": 7647,
      "medo": 7648,
      "puji": 7649,
      "rachelle": 7650,
      "indri": 7651,
      "cica": 7652,
      "nasrul": 7653,
      "mbalenhle": 7654,
      "wulan": 7655,
      "oyin": 7656,
      "ilmi": 7657,
      "egla": 7658,
      "jacobina": 7659,
      "paseka": 7660,
      "vio": 7661,
      "jutta": 7662,
      "salmi": 7663,
      "zimah": 7664,
      "buhari": 7665,
      "kumara": 7666,
      "charl": 7667,
      "thulisile": 7668,
      "gurpreet": 7669,
      "sla": 7670,
      "zani": 7671,
      "shwarelo": 7672,
      "tochukwu": 7673,
      "tebby": 7674,
      "gole": 7675,
      "ume": 7676,
      "adrijana": 7677,
      "egli": 7678,
      "katleho": 7679,
      "chandran": 7680,
      "tatenda": 7681,
      "rozsa": 7682,
      "boitshwarelo": 7683,
      "tiroyaone": 7684,
      "klaudija": 7685,
      "delia": 7686,
      "jka": 7687,
      "oph": 7688,
      "adriaan": 7689,
      "sampat": 7690,
      "sanjana": 7691,
      "raffy": 7692,
      "grz": 7693,
      "matome": 7694,
      "aaro": 7695,
      "ophelia": 7696,
      "sampath": 7697,
      "buisi": 7698,
      "oupa": 7699,
      "farook": 7700,
      "omotayo": 7701,
      "ndubuisi": 7702,
      "fazli": 7703,
      "mpumelelo": 7704,
      "muji": 7705,
      "subra": 7706,
      "sreejith": 7707,
      "ifa": 7708,
      "anamaria": 7709,
      "ekile": 7710,
      "syifa": 7711,
      "ramona": 7712,
      "miluse": 7713,
      "wissal": 7714,
      "kanth": 7715,
      "alja": 7716,
      "leatile": 7717,
      "koz": 7718,
      "tudu": 7719,
      "jetlana": 7720,
      "bunmi": 7721,
      "dorcus": 7722,
      "akanyang": 7723,
      "tuduetso": 7724,
      "satyam": 7725,
      "josefina": 7726,
      "xhuljan": 7727,
      "rodney": 7728,
      "olivi": 7729,
      "olinda": 7730,
      "hanu": 7731,
      "tinah": 7732,
      "milja": 7733,
      "annu": 7734,
      "avdi": 7735,
      "olivier": 7736,
      "cal": 7737,
      "kadir": 7738,
      "suja": 7739,
      "abdulkadir": 7740,
      "carita": 7741,
      "shida": 7742,
      "habibur": 7743,
      "fauzan": 7744,
      "agota": 7745,
      "pascal": 7746,
      "zuzia": 7747,
      "orgest": 7748,
      "rakib": 7749,
      "hmad": 7750,
      "ziva": 7751,
      "sanjib": 7752,
      "dody": 7753,
      "rafidah": 7754,
      "desy": 7755,
      "honda": 7756,
      "rozalia": 7757,
      "antigona": 7758,
      "edah": 7759,
      "sohan": 7760,
      "fiku": 7761,
      "ghada": 7762,
      "haufiku": 7763,
      "dha": 7764,
      "padam": 7765,
      "mac": 7766,
      "rogel": 7767,
      "toufik": 7768,
      "maricris": 7769,
      "mohsen": 7770,
      "xhesi": 7771,
      "alauddin": 7772,
      "rogelio": 7773,
      "etha": 7774,
      "lefi": 7775,
      "kobo": 7776,
      "monye": 7777,
      "ziyanda": 7778,
      "adrianna": 7779,
      "boikobo": 7780,
      "gustavo": 7781,
      "kemmonye": 7782,
      "gaolatlhe": 7783,
      "swapnil": 7784,
      "lefika": 7785,
      "edo": 7786,
      "islava": 7787,
      "manga": 7788,
      "fatihah": 7789,
      "milada": 7790,
      "okon": 7791,
      "yeoh": 7792,
      "rd": 7793,
      "jori": 7794,
      "adet": 7795,
      "blend": 7796,
      "lovre": 7797,
      "chaimaa": 7798,
      "nokubonga": 7799,
      "njomza": 7800,
      "gris": 7801,
      "lw": 7802,
      "wlo": 7803,
      "mapule": 7804,
      "nica": 7805,
      "derick": 7806,
      "zenaida": 7807,
      "renuka": 7808,
      "dionis": 7809,
      "anura": 7810,
      "tanveer": 7811,
      "rudra": 7812,
      "sahar": 7813,
      "shosho": 7814,
      "anurag": 7815,
      "amran": 7816,
      "heesh": 7817,
      "asiedu": 7818,
      "satheesh": 7819,
      "radovan": 7820,
      "raihan": 7821,
      "endo": 7822,
      "betim": 7823,
      "rapelo": 7824,
      "tawanda": 7825,
      "barna": 7826,
      "merapelo": 7827,
      "dania": 7828,
      "marci": 7829,
      "ganetso": 7830,
      "ridzuan": 7831,
      "aisah": 7832,
      "aqif": 7833,
      "tshoganetso": 7834,
      "fabian": 7835,
      "ajeet": 7836,
      "kaou": 7837,
      "hartini": 7838,
      "balram": 7839,
      "chukwuma": 7840,
      "kanipho": 7841,
      "nhlakanipho": 7842,
      "kaoutar": 7843,
      "hdi": 7844,
      "zhi": 7845,
      "tos": 7846,
      "jayr": 7847,
      "dinda": 7848,
      "ruzhdi": 7849,
      "celestine": 7850,
      "rachael": 7851,
      "aul": 7852,
      "qlirim": 7853,
      "lama": 7854,
      "wahyudi": 7855,
      "amahle": 7856,
      "telma": 7857,
      "lateef": 7858,
      "miina": 7859,
      "manfred": 7860,
      "tanu": 7861,
      "sirk": 7862,
      "gian": 7863,
      "awudu": 7864,
      "nelago": 7865,
      "desiree": 7866,
      "suriani": 7867,
      "ulethu": 7868,
      "peti": 7869,
      "sujon": 7870,
      "sudip": 7871,
      "khor": 7872,
      "kriszti": 7873,
      "malebo": 7874,
      "gugulethu": 7875,
      "khomotso": 7876,
      "zakariya": 7877,
      "mahama": 7878,
      "khairunnisa": 7879,
      "chak": 7880,
      "azura": 7881,
      "salina": 7882,
      "malgosia": 7883,
      "igwe": 7884,
      "sweta": 7885,
      "enna": 7886,
      "onkgo": 7887,
      "pau": 7888,
      "ikenna": 7889,
      "baki": 7890,
      "potse": 7891,
      "bilbil": 7892,
      "shoko": 7893,
      "shalini": 7894,
      "boitshoko": 7895,
      "oduetse": 7896,
      "onkgopotse": 7897,
      "jb": 7898,
      "won": 7899,
      "suama": 7900,
      "abhijit": 7901,
      "wonder": 7902,
      "anez": 7903,
      "bushi": 7904,
      "pok": 7905,
      "babalo": 7906,
      "nompilo": 7907,
      "abulela": 7908,
      "greg": 7909,
      "siyabulela": 7910,
      "hssan": 7911,
      "anezka": 7912,
      "althea": 7913,
      "asrul": 7914,
      "salima": 7915,
      "nawaz": 7916,
      "wafiy": 7917,
      "rabindra": 7918,
      "ew": 7919,
      "nya": 7920,
      "inne": 7921,
      "oladele": 7922,
      "roseline": 7923,
      "dorka": 7924,
      "zoltanne": 7925,
      "dipendra": 7926,
      "hardik": 7927,
      "olufemi": 7928,
      "navas": 7929,
      "sea": 7930,
      "unka": 7931,
      "emina": 7932,
      "carmo": 7933,
      "hosea": 7934,
      "suhaili": 7935,
      "oheneba": 7936,
      "drah": 7937,
      "assia": 7938,
      "loven": 7939,
      "agu": 7940,
      "dheeraj": 7941,
      "andelko": 7942,
      "loveness": 7943,
      "onkar": 7944,
      "kebonye": 7945,
      "norman": 7946,
      "nenna": 7947,
      "siiri": 7948,
      "onkarabile": 7949,
      "diyana": 7950,
      "izet": 7951,
      "krystof": 7952,
      "ache": 7953,
      "rendy": 7954,
      "wabo": 7955,
      "abass": 7956,
      "dewa": 7957,
      "mohmd": 7958,
      "norsiah": 7959,
      "xhemal": 7960,
      "skerdi": 7961,
      "mangal": 7962,
      "siska": 7963,
      "budhi": 7964,
      "ashwini": 7965,
      "teuku": 7966,
      "acheampong": 7967,
      "mtho": 7968,
      "pard": 7969,
      "anam": 7970,
      "cecil": 7971,
      "azdin": 7972,
      "jemi": 7973,
      "parmar": 7974,
      "badrul": 7975,
      "khairol": 7976,
      "mthobisi": 7977,
      "cecille": 7978,
      "del": 7979,
      "gag": 7980,
      "pred": 7981,
      "celine": 7982,
      "svjetlana": 7983,
      "vjekoslav": 7984,
      "gagan": 7985,
      "predrag": 7986,
      "valmira": 7987,
      "andrijana": 7988,
      "nadja": 7989,
      "ljubo": 7990,
      "chizoba": 7991,
      "hessa": 7992,
      "elson": 7993,
      "modiri": 7994,
      "seah": 7995,
      "ireletso": 7996,
      "tiong": 7997,
      "phas": 7998,
      "szandra": 7999,
      "keora": 8000,
      "marcos": 8001,
      "radhe": 8002,
      "dare": 8003,
      "tshireletso": 8004,
      "davorka": 8005,
      "keorapetse": 8006,
      "dang": 8007,
      "hamdani": 8008,
      "vanus": 8009,
      "hole": 8010,
      "virgil": 8011,
      "haziqah": 8012,
      "hossin": 8013,
      "kathleen": 8014,
      "nexhat": 8015,
      "virgilio": 8016,
      "kabe": 8017,
      "liang": 8018,
      "rosemond": 8019,
      "jamiu": 8020,
      "nagaraju": 8021,
      "kabeer": 8022,
      "amri": 8023,
      "enni": 8024,
      "sola": 8025,
      "moss": 8026,
      "sharul": 8027,
      "elisabeta": 8028,
      "noriah": 8029,
      "meli": 8030,
      "isie": 8031,
      "soile": 8032,
      "rahmah": 8033,
      "vee": 8034,
      "meisie": 8035,
      "albertus": 8036,
      "evelina": 8037,
      "lulu": 8038,
      "auwalu": 8039,
      "khensani": 8040,
      "jr": 8041,
      "maila": 8042,
      "eraldo": 8043,
      "chim": 8044,
      "hausiku": 8045,
      "juvy": 8046,
      "waya": 8047,
      "rajput": 8048,
      "omkar": 8049,
      "onyinyechi": 8050,
      "abisai": 8051,
      "daphney": 8052,
      "cze": 8053,
      "ulek": 8054,
      "khulek": 8055,
      "olayemi": 8056,
      "redwan": 8057,
      "xhevat": 8058,
      "preety": 8059,
      "nouhaila": 8060,
      "khulekani": 8061,
      "yiso": 8062,
      "alys": 8063,
      "keolebog": 8064,
      "lulama": 8065,
      "ajla": 8066,
      "reginah": 8067,
      "violet": 8068,
      "nirmala": 8069,
      "nkanyiso": 8070,
      "alyssa": 8071,
      "keolebogile": 8072,
      "motshid": 8073,
      "ethan": 8074,
      "melly": 8075,
      "elisabeth": 8076,
      "chibuike": 8077,
      "xhavit": 8078,
      "yudha": 8079,
      "roshni": 8080,
      "mpumi": 8081,
      "motshidisi": 8082,
      "dong": 8083,
      "xi": 8084,
      "isola": 8085,
      "roel": 8086,
      "nishad": 8087,
      "fai": 8088,
      "pep": 8089,
      "indileni": 8090,
      "zaheer": 8091,
      "armela": 8092,
      "saana": 8093,
      "nomonde": 8094,
      "rusdi": 8095,
      "dunja": 8096,
      "fouzia": 8097,
      "scelo": 8098,
      "fren": 8099,
      "arjay": 8100,
      "souf": 8101,
      "santtu": 8102,
      "tuul": 8103,
      "basma": 8104,
      "stanislava": 8105,
      "otmane": 8106,
      "aapo": 8107,
      "soufyan": 8108,
      "amade": 8109,
      "abou": 8110,
      "taju": 8111,
      "purna": 8112,
      "mieczyslaw": 8113,
      "tajudeen": 8114,
      "ping": 8115,
      "ankur": 8116,
      "eniola": 8117,
      "adede": 8118,
      "viwe": 8119,
      "asko": 8120,
      "mantu": 8121,
      "ekene": 8122,
      "ibeth": 8123,
      "cota": 8124,
      "lilibeth": 8125,
      "nourdin": 8126,
      "boguslawa": 8127,
      "adedeji": 8128,
      "olerato": 8129,
      "omayma": 8130,
      "peleng": 8131,
      "visa": 8132,
      "aloj": 8133,
      "onty": 8134,
      "mosimane": 8135,
      "ust": 8136,
      "lenci": 8137,
      "trust": 8138,
      "magdeline": 8139,
      "orapeleng": 8140,
      "rashidah": 8141,
      "nharnhar": 8142,
      "resego": 8143,
      "gramos": 8144,
      "mosimanegape": 8145,
      "mn": 8146,
      "vim": 8147,
      "izzul": 8148,
      "okyere": 8149,
      "janika": 8150,
      "hafizul": 8151,
      "mauro": 8152,
      "kik": 8153,
      "koli": 8154,
      "sameera": 8155,
      "ongezi": 8156,
      "sarfara": 8157,
      "balqis": 8158,
      "fany": 8159,
      "chidie": 8160,
      "kanchan": 8161,
      "babalola": 8162,
      "ashutosh": 8163,
      "sarfaraz": 8164,
      "chidiebere": 8165,
      "mazen": 8166,
      "niyas": 8167,
      "hania": 8168,
      "sheena": 8169,
      "ondjo": 8170,
      "dipesh": 8171,
      "tulonga": 8172,
      "mekondjo": 8173,
      "ebo": 8174,
      "samia": 8175,
      "lamya": 8176,
      "lusanda": 8177,
      "kosovar": 8178,
      "qe": 8179,
      "rocky": 8180,
      "emem": 8181,
      "buqe": 8182,
      "farhana": 8183,
      "eduarda": 8184,
      "issaka": 8185,
      "sauli": 8186,
      "sharma": 8187,
      "ogochukwu": 8188,
      "fetse": 8189,
      "nila": 8190,
      "tsit": 8191,
      "zikh": 8192,
      "inge": 8193,
      "shko": 8194,
      "edza": 8195,
      "chedza": 8196,
      "gopol": 8197,
      "kartika": 8198,
      "yose": 8199,
      "abdulsalam": 8200,
      "ramkumar": 8201,
      "wiwik": 8202,
      "welly": 8203,
      "fares": 8204,
      "freda": 8205,
      "pallavi": 8206,
      "rayyan": 8207,
      "muru": 8208,
      "hermanto": 8209,
      "kawsar": 8210,
      "kesegofetse": 8211,
      "nwachukwu": 8212,
      "tsitsi": 8213,
      "zikhona": 8214,
      "gopolang": 8215,
      "orun": 8216,
      "roslina": 8217,
      "silja": 8218,
      "dulce": 8219,
      "penehafo": 8220,
      "shivute": 8221,
      "onni": 8222,
      "asiah": 8223,
      "aliz": 8224,
      "mahani": 8225,
      "yaseen": 8226,
      "efren": 8227,
      "pinki": 8228,
      "lettie": 8229,
      "suhaila": 8230,
      "katriina": 8231,
      "cedric": 8232,
      "dahiru": 8233,
      "celeste": 8234,
      "salomey": 8235,
      "marouane": 8236,
      "moek": 8237,
      "savio": 8238,
      "lyka": 8239,
      "parth": 8240,
      "zahira": 8241,
      "didier": 8242,
      "moeketsi": 8243,
      "saviour": 8244,
      "pjet": 8245,
      "rauno": 8246,
      "mide": 8247,
      "kos": 8248,
      "ceu": 8249,
      "berta": 8250,
      "tankiso": 8251,
      "olah": 8252,
      "neliswa": 8253,
      "borbala": 8254,
      "olumide": 8255,
      "zorica": 8256,
      "alesio": 8257,
      "devina": 8258,
      "pjeter": 8259,
      "fre": 8260,
      "spiro": 8261,
      "tuli": 8262,
      "atif": 8263,
      "bongane": 8264,
      "aminat": 8265,
      "nenita": 8266,
      "khush": 8267,
      "kurt": 8268,
      "uju": 8269,
      "alisa": 8270,
      "chun": 8271,
      "nast": 8272,
      "ander": 8273,
      "tajul": 8274,
      "janka": 8275,
      "lilia": 8276,
      "mouhs": 8277,
      "vladislav": 8278,
      "gizella": 8279,
      "lefter": 8280,
      "nastja": 8281,
      "bath": 8282,
      "qw": 8283,
      "elli": 8284,
      "rapelang": 8285,
      "kolodi": 8286,
      "tapan": 8287,
      "tafadz": 8288,
      "wiam": 8289,
      "parveen": 8290,
      "derek": 8291,
      "moditse": 8292,
      "ogomoditse": 8293,
      "kesaobaka": 8294,
      "bathusi": 8295,
      "tafadzwa": 8296,
      "xhelal": 8297,
      "miera": 8298,
      "olamil": 8299,
      "fatai": 8300,
      "michalina": 8301,
      "rafeeq": 8302,
      "olamilekan": 8303,
      "amat": 8304,
      "lawan": 8305,
      "nauf": 8306,
      "adesh": 8307,
      "lindani": 8308,
      "basant": 8309,
      "khanyi": 8310,
      "subramani": 8311,
      "kleopas": 8312,
      "naufal": 8313,
      "umie": 8314,
      "erind": 8315,
      "sanqa": 8316,
      "abdulwahab": 8317,
      "ronja": 8318,
      "ajda": 8319,
      "davorin": 8320,
      "nertil": 8321,
      "batris": 8322,
      "thamsanqa": 8323,
      "shabbir": 8324,
      "jalil": 8325,
      "maimunah": 8326,
      "analiza": 8327,
      "mapula": 8328,
      "esika": 8329,
      "dak": 8330,
      "hakeem": 8331,
      "marife": 8332,
      "budak": 8333,
      "thobani": 8334,
      "karthick": 8335,
      "biah": 8336,
      "moe": 8337,
      "adie": 8338,
      "salbiah": 8339,
      "kwazi": 8340,
      "pulane": 8341,
      "ayisha": 8342,
      "handy": 8343,
      "nug": 8344,
      "inu": 8345,
      "roho": 8346,
      "yogi": 8347,
      "barati": 8348,
      "magdi": 8349,
      "wiwin": 8350,
      "rony": 8351,
      "florah": 8352,
      "rosalinda": 8353,
      "lineekela": 8354,
      "sugianto": 8355,
      "mochammad": 8356,
      "nolwazi": 8357,
      "spartak": 8358,
      "nugroho": 8359,
      "ishaq": 8360,
      "anelisa": 8361,
      "nathali": 8362,
      "khaya": 8363,
      "aboagye": 8364,
      "jaleel": 8365,
      "sladana": 8366,
      "nathalie": 8367,
      "arjola": 8368,
      "shpe": 8369,
      "tinku": 8370,
      "adeoye": 8371,
      "valdet": 8372,
      "perttu": 8373,
      "zukiswa": 8374,
      "shpejtim": 8375,
      "fha": 8376,
      "allo": 8377,
      "lirie": 8378,
      "dusko": 8379,
      "martim": 8380,
      "lath": 8381,
      "janek": 8382,
      "yogendra": 8383,
      "fatim": 8384,
      "antony": 8385,
      "okoro": 8386,
      "parmod": 8387,
      "olaniyi": 8388,
      "latheef": 8389,
      "rohaya": 8390,
      "sohag": 8391,
      "amfi": 8392,
      "khut": 8393,
      "miles": 8394,
      "danjel": 8395,
      "gyamfi": 8396,
      "effa": 8397,
      "lizelle": 8398,
      "khanyisa": 8399,
      "tessy": 8400,
      "khutso": 8401,
      "mbuso": 8402,
      "mof": 8403,
      "oreed": 8404,
      "tapolo": 8405,
      "pherd": 8406,
      "esha": 8407,
      "shepherd": 8408,
      "peo": 8409,
      "warda": 8410,
      "shiju": 8411,
      "rustem": 8412,
      "kgosietsile": 8413,
      "oreeditse": 8414,
      "tapologo": 8415,
      "iba": 8416,
      "raziq": 8417,
      "sm": 8418,
      "sarafina": 8419,
      "gardo": 8420,
      "anathi": 8421,
      "edgardo": 8422,
      "cristine": 8423,
      "ridvan": 8424,
      "ntswa": 8425,
      "chantel": 8426,
      "ntswaki": 8427,
      "mena": 8428,
      "arjuna": 8429,
      "chamin": 8430,
      "mdu": 8431,
      "simohamed": 8432,
      "boboy": 8433,
      "zuza": 8434,
      "parkash": 8435,
      "mmabatho": 8436,
      "aviwe": 8437,
      "chaminda": 8438,
      "durai": 8439,
      "hendy": 8440,
      "mr": 8441,
      "seli": 8442,
      "rice": 8443,
      "joyn": 8444,
      "josel": 8445,
      "irvan": 8446,
      "got": 8447,
      "zakes": 8448,
      "ramatu": 8449,
      "renny": 8450,
      "mahmud": 8451,
      "akseli": 8452,
      "susy": 8453,
      "bongeka": 8454,
      "prima": 8455,
      "kalpesh": 8456,
      "gusti": 8457,
      "ninik": 8458,
      "fabrice": 8459,
      "kurniawan": 8460,
      "joynal": 8461,
      "joselito": 8462,
      "boh": 8463,
      "helina": 8464,
      "pomb": 8465,
      "xhina": 8466,
      "anthonia": 8467,
      "amirat": 8468,
      "nuraini": 8469,
      "pombili": 8470,
      "nnenna": 8471,
      "alzb": 8472,
      "shweta": 8473,
      "loago": 8474,
      "sanyi": 8475,
      "you": 8476,
      "kea": 8477,
      "ruwan": 8478,
      "aimi": 8479,
      "thobo": 8480,
      "donkor": 8481,
      "vilmos": 8482,
      "brane": 8483,
      "aleksandr": 8484,
      "salami": 8485,
      "alzbeta": 8486,
      "lando": 8487,
      "mhd": 8488,
      "orlando": 8489,
      "suba": 8490,
      "sandesh": 8491,
      "sitaram": 8492,
      "subair": 8493,
      "boni": 8494,
      "gamal": 8495,
      "ymer": 8496,
      "anit": 8497,
      "lakhan": 8498,
      "miza": 8499,
      "thanda": 8500,
      "juhas": 8501,
      "nourdine": 8502,
      "mouh": 8503,
      "shilpa": 8504,
      "juhasz": 8505,
      "kaino": 8506,
      "mum": 8507,
      "sandri": 8508,
      "dinko": 8509,
      "elion": 8510,
      "ugwu": 8511,
      "emilly": 8512,
      "quek": 8513,
      "shadab": 8514,
      "choong": 8515,
      "gyan": 8516,
      "hra": 8517,
      "ango": 8518,
      "sheng": 8519,
      "mastura": 8520,
      "anees": 8521,
      "zohra": 8522,
      "fidelis": 8523,
      "dhanan": 8524,
      "jman": 8525,
      "onella": 8526,
      "mumuni": 8527,
      "ziko": 8528,
      "petronella": 8529,
      "norbi": 8530,
      "kimete": 8531,
      "xhesika": 8532,
      "sulejman": 8533,
      "ajibola": 8534,
      "dhananjay": 8535,
      "bd": 8536,
      "ei": 8537,
      "rahayu": 8538,
      "atan": 8539,
      "gracious": 8540,
      "gabrijel": 8541,
      "bassey": 8542,
      "thembis": 8543,
      "thembisile": 8544,
      "ock": 8545,
      "ansh": 8546,
      "emmy": 8547,
      "oladim": 8548,
      "henock": 8549,
      "karishma": 8550,
      "aurela": 8551,
      "ejike": 8552,
      "arumugam": 8553,
      "czeslaw": 8554,
      "oladimeji": 8555,
      "yie": 8556,
      "taou": 8557,
      "hait": 8558,
      "grant": 8559,
      "ally": 8560,
      "ragil": 8561,
      "riger": 8562,
      "korab": 8563,
      "vojko": 8564,
      "stanislawa": 8565,
      "yunusa": 8566,
      "xhafer": 8567,
      "syarifah": 8568,
      "rigers": 8569,
      "djoni": 8570,
      "lies": 8571,
      "jez": 8572,
      "kalpana": 8573,
      "titik": 8574,
      "sisanda": 8575,
      "velimatti": 8576,
      "fta": 8577,
      "ndessy": 8578,
      "andrian": 8579,
      "aste": 8580,
      "diina": 8581,
      "tefta": 8582,
      "ange": 8583,
      "supar": 8584,
      "paulin": 8585,
      "sabah": 8586,
      "melati": 8587,
      "fanuel": 8588,
      "nomzamo": 8589,
      "natacha": 8590,
      "hambeleleni": 8591,
      "asteria": 8592,
      "tko": 8593,
      "nishant": 8594,
      "soka": 8595,
      "dezso": 8596,
      "beh": 8597,
      "raymund": 8598,
      "russel": 8599,
      "latif": 8600,
      "grzesiek": 8601,
      "kedi": 8602,
      "ilari": 8603,
      "kemo": 8604,
      "antse": 8605,
      "monty": 8606,
      "valent": 8607,
      "golam": 8608,
      "oula": 8609,
      "omaima": 8610,
      "julita": 8611,
      "meen": 8612,
      "besjana": 8613,
      "anshu": 8614,
      "job": 8615,
      "soe": 8616,
      "fay": 8617,
      "terry": 8618,
      "simran": 8619,
      "nilu": 8620,
      "jihane": 8621,
      "unyela": 8622,
      "mbong": 8623,
      "elsab": 8624,
      "nain": 8625,
      "karnain": 8626,
      "wak": 8627,
      "zulkarnain": 8628,
      "alae": 8629,
      "manushaqe": 8630,
      "sindisiwe": 8631,
      "mbongeni": 8632,
      "elsabe": 8633,
      "hman": 8634,
      "rhman": 8635,
      "hamisu": 8636,
      "tolul": 8637,
      "teppo": 8638,
      "sajith": 8639,
      "kenan": 8640,
      "motlat": 8641,
      "jibrin": 8642,
      "chibuzor": 8643,
      "zubaidah": 8644,
      "baiju": 8645,
      "tolulope": 8646,
      "motlatsi": 8647,
      "peri": 8648,
      "goutam": 8649,
      "cora": 8650,
      "zyg": 8651,
      "vuyani": 8652,
      "corne": 8653,
      "flutra": 8654,
      "asz": 8655,
      "nidhi": 8656,
      "saju": 8657,
      "doug": 8658,
      "melusi": 8659,
      "ndara": 8660,
      "tiffany": 8661,
      "sabariah": 8662,
      "douglas": 8663,
      "hmd": 8664,
      "nka": 8665,
      "ule": 8666,
      "bot": 8667,
      "agostin": 8668,
      "shahadat": 8669,
      "takyi": 8670,
      "roxanne": 8671,
      "agostinho": 8672,
      "gbe": 8673,
      "tana": 8674,
      "watie": 8675,
      "amu": 8676,
      "mart": 8677,
      "esah": 8678,
      "saurav": 8679,
      "theresah": 8680,
      "aldona": 8681,
      "idemi": 8682,
      "nthabi": 8683,
      "fanda": 8684,
      "meta": 8685,
      "rigel": 8686,
      "samkelisiwe": 8687,
      "fatlind": 8688,
      "osethu": 8689,
      "tuan": 8690,
      "danso": 8691,
      "siphosethu": 8692,
      "adeyemo": 8693,
      "rigels": 8694,
      "gis": 8695,
      "ich": 8696,
      "ntu": 8697,
      "odo": 8698,
      "wija": 8699,
      "erwan": 8700,
      "totok": 8701,
      "ransford": 8702,
      "endran": 8703,
      "vlada": 8704,
      "abdelah": 8705,
      "satrio": 8706,
      "leow": 8707,
      "paresh": 8708,
      "widodo": 8709,
      "thuko": 8710,
      "szilvi": 8711,
      "yanuar": 8712,
      "handoko": 8713,
      "basuki": 8714,
      "ntuthuko": 8715,
      "wijaya": 8716,
      "jeric": 8717,
      "ansie": 8718,
      "muizz": 8719,
      "mateen": 8720,
      "iffah": 8721,
      "venus": 8722,
      "jinky": 8723,
      "sergei": 8724,
      "phe": 8725,
      "norliza": 8726,
      "azize": 8727,
      "ariful": 8728,
      "asiphe": 8729,
      "nagaraj": 8730,
      "neda": 8731,
      "moabi": 8732,
      "atdhe": 8733,
      "fatbardh": 8734,
      "kenale": 8735,
      "antea": 8736,
      "kamilla": 8737,
      "tessie": 8738,
      "phuti": 8739,
      "awan": 8740,
      "tasi": 8741,
      "arbri": 8742,
      "kavit": 8743,
      "nay": 8744,
      "nafi": 8745,
      "lech": 8746,
      "nyan": 8747,
      "juljan": 8748,
      "stef": 8749,
      "yasmine": 8750,
      "omolola": 8751,
      "dharma": 8752,
      "zsoka": 8753,
      "vuyiswa": 8754,
      "guru": 8755,
      "youssf": 8756,
      "bukurie": 8757,
      "saoud": 8758,
      "wynand": 8759,
      "kavitha": 8760,
      "nafiu": 8761,
      "iyambo": 8762,
      "ush": 8763,
      "uria": 8764,
      "mico": 8765,
      "miho": 8766,
      "touria": 8767,
      "saaid": 8768,
      "reno": 8769,
      "mathews": 8770,
      "iyke": 8771,
      "nezir": 8772,
      "houcine": 8773,
      "aishat": 8774,
      "drini": 8775,
      "ude": 8776,
      "marjaana": 8777,
      "kaisu": 8778,
      "asraf": 8779,
      "nishan": 8780,
      "renis": 8781,
      "albania": 8782,
      "gulab": 8783,
      "khairuddin": 8784,
      "najihah": 8785,
      "maruska": 8786,
      "nayan": 8787,
      "sofe": 8788,
      "jameel": 8789,
      "kenza": 8790,
      "besjan": 8791,
      "sathya": 8792,
      "ikaw": 8793,
      "widad": 8794,
      "ekow": 8795,
      "sofea": 8796,
      "ori": 8797,
      "ts": 8798,
      "goke": 8799,
      "salo": 8800,
      "adegoke": 8801,
      "panu": 8802,
      "ayoola": 8803,
      "mehul": 8804,
      "qerim": 8805,
      "feeq": 8806,
      "armir": 8807,
      "shem": 8808,
      "nakale": 8809,
      "unni": 8810,
      "sagir": 8811,
      "doua": 8812,
      "afsar": 8813,
      "virendra": 8814,
      "laksh": 8815,
      "fely": 8816,
      "slo": 8817,
      "wadi": 8818,
      "americo": 8819,
      "ero": 8820,
      "bodan": 8821,
      "sonal": 8822,
      "antero": 8823,
      "denada": 8824,
      "potso": 8825,
      "lantina": 8826,
      "annukka": 8827,
      "okko": 8828,
      "afri": 8829,
      "eglantina": 8830,
      "olefile": 8831,
      "anisah": 8832,
      "amirato": 8833,
      "reneilwe": 8834,
      "xhoana": 8835,
      "slobodan": 8836,
      "eve": 8837,
      "momin": 8838,
      "janita": 8839,
      "vidya": 8840,
      "gordan": 8841,
      "gerard": 8842,
      "younus": 8843,
      "abdeslam": 8844,
      "zik": 8845,
      "ermelinda": 8846,
      "moor": 8847,
      "ulka": 8848,
      "sikandar": 8849,
      "ekrem": 8850,
      "juma": 8851,
      "minttu": 8852,
      "danjuma": 8853,
      "dado": 8854,
      "cliv": 8855,
      "gito": 8856,
      "titi": 8857,
      "yanga": 8858,
      "raaz": 8859,
      "marry": 8860,
      "orgito": 8861,
      "bose": 8862,
      "abdus": 8863,
      "suwandi": 8864,
      "sumaila": 8865,
      "yuyun": 8866,
      "winda": 8867,
      "hermawan": 8868,
      "jeffry": 8869,
      "fitria": 8870,
      "xhuljo": 8871,
      "krishan": 8872,
      "clive": 8873,
      "avish": 8874,
      "wiola": 8875,
      "madhav": 8876,
      "vaish": 8877,
      "franz": 8878,
      "carmela": 8879,
      "ghese": 8880,
      "varghese": 8881,
      "emaa": 8882,
      "adedayo": 8883,
      "vaishali": 8884,
      "walo": 8885,
      "zeli": 8886,
      "itan": 8887,
      "ahmd": 8888,
      "sika": 8889,
      "olaitan": 8890,
      "yousra": 8891,
      "ayie": 8892,
      "asih": 8893,
      "shaqir": 8894,
      "sinazo": 8895,
      "andelka": 8896,
      "pj": 8897,
      "rotimi": 8898,
      "sarvesh": 8899,
      "deepika": 8900,
      "stane": 8901,
      "colin": 8902,
      "seipati": 8903,
      "oduro": 8904,
      "daphne": 8905,
      "zheng": 8906,
      "eldi": 8907,
      "marang": 8908,
      "motheo": 8909,
      "addai": 8910,
      "tola": 8911,
      "loini": 8912,
      "azka": 8913,
      "hilja": 8914,
      "owner": 8915,
      "saadiah": 8916,
      "maksim": 8917,
      "onneetse": 8918,
      "pinehas": 8919,
      "klarka": 8920,
      "vila": 8921,
      "phyll": 8922,
      "janat": 8923,
      "hanisah": 8924,
      "ruzena": 8925,
      "jayar": 8926,
      "adesina": 8927,
      "phyllis": 8928,
      "ayan": 8929,
      "clinton": 8930,
      "hati": 8931,
      "vangjel": 8932,
      "enkele": 8933,
      "chad": 8934,
      "debora": 8935,
      "thabisile": 8936,
      "adeyinka": 8937,
      "nonso": 8938,
      "bulelani": 8939,
      "somnath": 8940,
      "hatixhe": 8941,
      "enkelejda": 8942,
      "abukari": 8943,
      "stanka": 8944,
      "husna": 8945,
      "athena": 8946,
      "regine": 8947,
      "erjola": 8948,
      "asim": 8949,
      "sibon": 8950,
      "janca": 8951,
      "sufri": 8952,
      "sampo": 8953,
      "hassane": 8954,
      "narasim": 8955,
      "fei": 8956,
      "fuad": 8957,
      "raushan": 8958,
      "ferit": 8959,
      "pratima": 8960,
      "lol": 8961,
      "jaou": 8962,
      "hamutenya": 8963,
      "olatunde": 8964,
      "dragu": 8965,
      "torina": 8966,
      "vistorina": 8967,
      "ayobam": 8968,
      "prana": 8969,
      "sanije": 8970,
      "zvjez": 8971,
      "mjid": 8972,
      "arinze": 8973,
      "lolita": 8974,
      "jaouad": 8975,
      "dragutin": 8976,
      "ayobami": 8977,
      "nim": 8978,
      "sabu": 8979,
      "masi": 8980,
      "haiq": 8981,
      "gomot": 8982,
      "sanelis": 8983,
      "nonjabulo": 8984,
      "abedin": 8985,
      "phetogo": 8986,
      "haiqal": 8987,
      "sanelisiwe": 8988,
      "chal": 8989,
      "sead": 8990,
      "nida": 8991,
      "meera": 8992,
      "nonhle": 8993,
      "sudheer": 8994,
      "valentine": 8995,
      "evie": 8996,
      "handi": 8997,
      "oki": 8998,
      "wenny": 8999,
      "anang": 9000,
      "olub": 9001,
      "luvuyo": 9002,
      "sutrisno": 9003,
      "karam": 9004,
      "yousaf": 9005,
      "senka": 9006,
      "susanti": 9007,
      "suryadi": 9008,
      "tatang": 9009,
      "titin": 9010,
      "olubunmi": 9011,
      "frit": 9012,
      "iu": 9013,
      "jatin": 9014,
      "dipan": 9015,
      "shekhar": 9016,
      "iiyambo": 9017,
      "jemima": 9018,
      "fritz": 9019,
      "dipankar": 9020,
      "sako": 9021,
      "sujeet": 9022,
      "megat": 9023,
      "eniusz": 9024,
      "bonna": 9025,
      "zohir": 9026,
      "ogbonna": 9027,
      "eugeniusz": 9028,
      "iiris": 9029,
      "ntsako": 9030,
      "robiul": 9031,
      "apa": 9032,
      "elka": 9033,
      "chona": 9034,
      "bijoy": 9035,
      "gaba": 9036,
      "akter": 9037,
      "yannick": 9038,
      "annemari": 9039,
      "jefri": 9040,
      "nomcebo": 9041,
      "mawuli": 9042,
      "nena": 9043,
      "adol": 9044,
      "tauno": 9045,
      "tinyi": 9046,
      "udhary": 9047,
      "tynka": 9048,
      "milot": 9049,
      "asharaf": 9050,
      "radmila": 9051,
      "valentin": 9052,
      "kasper": 9053,
      "adolf": 9054,
      "tinyiko": 9055,
      "ishak": 9056,
      "mhel": 9057,
      "oab": 9058,
      "shta": 9059,
      "mogang": 9060,
      "lemogang": 9061,
      "safaa": 9062,
      "aliu": 9063,
      "sanjeet": 9064,
      "keoagile": 9065,
      "sanda": 9066,
      "fifie": 9067,
      "megam": 9068,
      "dinny": 9069,
      "luise": 9070,
      "amodimo": 9071,
      "tangy": 9072,
      "nangy": 9073,
      "tully": 9074,
      "cornelia": 9075,
      "erassy": 9076,
      "demus": 9077,
      "itshepi": 9078,
      "oabona": 9079,
      "megameno": 9080,
      "ethi": 9081,
      "nigel": 9082,
      "khethi": 9083,
      "henriett": 9084,
      "keti": 9085,
      "bohumil": 9086,
      "diksha": 9087,
      "uzoma": 9088,
      "khethiwe": 9089,
      "ffo": 9090,
      "mana": 9091,
      "kauko": 9092,
      "didie": 9093,
      "rizza": 9094,
      "yolandi": 9095,
      "bazilah": 9096,
      "alojz": 9097,
      "sila": 9098,
      "vna": 9099,
      "olaide": 9100,
      "rosman": 9101,
      "alias": 9102,
      "mustak": 9103,
      "munt": 9104,
      "bhavna": 9105,
      "xhimi": 9106,
      "witness": 9107,
      "okoye": 9108,
      "hbibt": 9109,
      "xhensila": 9110,
      "dzimierz": 9111,
      "wlodzimierz": 9112,
      "zygmunt": 9113,
      "aja": 9114,
      "isetso": 9115,
      "tiisetso": 9116,
      "heid": 9117,
      "yip": 9118,
      "timro": 9119,
      "adelheid": 9120,
      "arjanit": 9121,
      "ravinder": 9122,
      "uzzal": 9123,
      "auli": 9124,
      "audu": 9125,
      "hur": 9126,
      "ique": 9127,
      "smita": 9128,
      "anisha": 9129,
      "oli": 9130,
      "samke": 9131,
      "fajer": 9132,
      "fathur": 9133,
      "kejdi": 9134,
      "dominique": 9135,
      "khanyo": 9136,
      "thelma": 9137,
      "kholo": 9138,
      "hirah": 9139,
      "nadhirah": 9140,
      "maznah": 9141,
      "zubair": 9142,
      "kholofelo": 9143,
      "oga": 9144,
      "tman": 9145,
      "moshe": 9146,
      "kosta": 9147,
      "gobinda": 9148,
      "saq": 9149,
      "hanne": 9150,
      "neri": 9151,
      "jenelyn": 9152,
      "pravesh": 9153,
      "yasir": 9154,
      "yousif": 9155,
      "mphoentle": 9156,
      "anilkumar": 9157,
      "woo": 9158,
      "trixie": 9159,
      "syahir": 9160,
      "ogaufi": 9161,
      "bari": 9162,
      "aryo": 9163,
      "charaf": 9164,
      "estelle": 9165,
      "anika": 9166,
      "didit": 9167,
      "nikica": 9168,
      "suci": 9169,
      "ryno": 9170,
      "beny": 9171,
      "renjith": 9172,
      "prabha": 9173,
      "darma": 9174,
      "bogi": 9175,
      "dony": 9176,
      "yamkela": 9177,
      "uduak": 9178,
      "sakshi": 9179,
      "nining": 9180,
      "amutenya": 9181,
      "taz": 9182,
      "alefa": 9183,
      "mirjan": 9184,
      "stana": 9185,
      "mondli": 9186,
      "ezie": 9187,
      "mojalefa": 9188,
      "subba": 9189,
      "issahaku": 9190,
      "oluwaseyi": 9191,
      "lisias": 9192,
      "griselda": 9193,
      "chimezie": 9194,
      "emel": 9195,
      "hanee": 9196,
      "frano": 9197,
      "sunusi": 9198,
      "snethemba": 9199,
      "getrude": 9200,
      "subham": 9201,
      "subbu": 9202,
      "houssin": 9203,
      "lakatos": 9204,
      "haneefa": 9205,
      "jignesh": 9206,
      "akande": 9207,
      "norain": 9208,
      "birgitta": 9209,
      "ailyn": 9210,
      "rezart": 9211,
      "nhyiraba": 9212,
      "manas": 9213,
      "nader": 9214,
      "adli": 9215,
      "imy": 9216,
      "tapas": 9217,
      "savita": 9218,
      "bodh": 9219,
      "subodh": 9220,
      "kelelo": 9221,
      "tonda": 9222,
      "saber": 9223,
      "alain": 9224,
      "omowunmi": 9225,
      "youns": 9226,
      "dharth": 9227,
      "siddharth": 9228,
      "pengiran": 9229,
      "wola": 9230,
      "rilind": 9231,
      "koena": 9232,
      "franta": 9233,
      "sheetal": 9234,
      "olayi": 9235,
      "prabu": 9236,
      "adepa": 9237,
      "tonka": 9238,
      "niksa": 9239,
      "puran": 9240,
      "bahu": 9241,
      "olayiwola": 9242,
      "ahamad": 9243,
      "brah": 9244,
      "diso": 9245,
      "kb": 9246,
      "amatso": 9247,
      "moat": 9248,
      "atlar": 9249,
      "takal": 9250,
      "bosa": 9251,
      "sudu": 9252,
      "keatlar": 9253,
      "buy": 9254,
      "phodiso": 9255,
      "michala": 9256,
      "oluwole": 9257,
      "nuri": 9258,
      "nthabeleng": 9259,
      "kgamatso": 9260,
      "kgakgamatso": 9261,
      "pelonomi": 9262,
      "golebaone": 9263,
      "takalani": 9264,
      "keatlaretse": 9265,
      "py": 9266,
      "mimoun": 9267,
      "olade": 9268,
      "efua": 9269,
      "surendar": 9270,
      "samaila": 9271,
      "pyry": 9272,
      "sinah": 9273,
      "alene": 9274,
      "andisiwe": 9275,
      "magdalene": 9276,
      "nourd": 9277,
      "thierry": 9278,
      "aurelie": 9279,
      "gustav": 9280,
      "emiliano": 9281,
      "kozeta": 9282,
      "earl": 9283,
      "ota": 9284,
      "imer": 9285,
      "taa": 9286,
      "sivuy": 9287,
      "mirlinda": 9288,
      "mahbu": 9289,
      "naty": 9290,
      "leonit": 9291,
      "ismaila": 9292,
      "denise": 9293,
      "bakare": 9294,
      "fabiola": 9295,
      "bekile": 9296,
      "damijan": 9297,
      "dirk": 9298,
      "sivuyile": 9299,
      "mahbub": 9300,
      "ive": 9301,
      "ranya": 9302,
      "michel": 9303,
      "radou": 9304,
      "funo": 9305,
      "gfi": 9306,
      "jjani": 9307,
      "sita": 9308,
      "tijjani": 9309,
      "lufuno": 9310,
      "wilfred": 9311,
      "chinelo": 9312,
      "virgie": 9313,
      "gertrude": 9314,
      "wilfredo": 9315,
      "taija": 9316,
      "fatah": 9317,
      "onyana": 9318,
      "kgod": 9319,
      "aisya": 9320,
      "fadilah": 9321,
      "silvio": 9322,
      "thankgod": 9323,
      "tshidiso": 9324,
      "dadan": 9325,
      "deden": 9326,
      "evon": 9327,
      "nek": 9328,
      "sreen": 9329,
      "uyapo": 9330,
      "ysius": 9331,
      "anya": 9332,
      "alfian": 9333,
      "mardi": 9334,
      "kaiz": 9335,
      "gosa": 9336,
      "tidim": 9337,
      "lopang": 9338,
      "yomi": 9339,
      "shego": 9340,
      "sarolta": 9341,
      "zuki": 9342,
      "effendi": 9343,
      "foong": 9344,
      "godson": 9345,
      "aloysius": 9346,
      "vonny": 9347,
      "hajni": 9348,
      "akinyemi": 9349,
      "guntur": 9350,
      "sreenu": 9351,
      "kaizer": 9352,
      "tidimalo": 9353,
      "ajim": 9354,
      "omira": 9355,
      "qilah": 9356,
      "seyi": 9357,
      "supriya": 9358,
      "abdulmalik": 9359,
      "matty": 9360,
      "rafie": 9361,
      "khaoula": 9362,
      "aming": 9363,
      "dashnor": 9364,
      "lalan": 9365,
      "koya": 9366,
      "mohammd": 9367,
      "tytti": 9368,
      "marcelina": 9369,
      "junjun": 9370,
      "amaija": 9371,
      "zenon": 9372,
      "shahidul": 9373,
      "khoirul": 9374,
      "lang": 9375,
      "aranka": 9376,
      "manel": 9377,
      "emon": 9378,
      "lanre": 9379,
      "susanne": 9380,
      "otso": 9381,
      "ktar": 9382,
      "uyo": 9383,
      "muktar": 9384,
      "mariz": 9385,
      "quah": 9386,
      "namari": 9387,
      "zizo": 9388,
      "abegail": 9389,
      "taoufik": 9390,
      "djell": 9391,
      "isha": 9392,
      "jara": 9393,
      "verica": 9394,
      "vjosa": 9395,
      "xana": 9396,
      "zalina": 9397,
      "shame": 9398,
      "moin": 9399,
      "anael": 9400,
      "leos": 9401,
      "asta": 9402,
      "raji": 9403,
      "rupali": 9404,
      "natanael": 9405,
      "rajaa": 9406,
      "omina": 9407,
      "eliakim": 9408,
      "philomina": 9409,
      "khairil": 9410,
      "sulaimon": 9411,
      "ganiyu": 9412,
      "djellza": 9413,
      "shameem": 9414,
      "amor": 9415,
      "rakhi": 9416,
      "reji": 9417,
      "rezarta": 9418,
      "teye": 9419,
      "neetu": 9420,
      "buchi": 9421,
      "praise": 9422,
      "hosam": 9423,
      "vasilika": 9424,
      "onyebuchi": 9425,
      "bandile": 9426,
      "obus": 9427,
      "oabile": 9428,
      "abelo": 9429,
      "imee": 9430,
      "seabelo": 9431,
      "niilo": 9432,
      "boip": 9433,
      "dintle": 9434,
      "leonarda": 9435,
      "betti": 9436,
      "mangesh": 9437,
      "onyekachi": 9438,
      "kalevi": 9439,
      "obusitswe": 9440,
      "boipuso": 9441,
      "rimi": 9442,
      "erlind": 9443,
      "athe": 9444,
      "bernie": 9445,
      "baskar": 9446,
      "ntobeko": 9447,
      "omer": 9448,
      "naif": 9449,
      "romario": 9450,
      "fatmire": 9451,
      "benhard": 9452,
      "rupa": 9453,
      "leonita": 9454,
      "stephane": 9455,
      "hilia": 9456,
      "mensur": 9457,
      "ndahambel": 9458,
      "vetka": 9459,
      "emoke": 9460,
      "fjd": 9461,
      "sergej": 9462,
      "kosovare": 9463,
      "ndahambelela": 9464,
      "macky": 9465,
      "ilyn": 9466,
      "jolana": 9467,
      "leka": 9468,
      "manilyn": 9469,
      "bosi": 9470,
      "ramy": 9471,
[...]
