{
    "version": "1.0",
    "truncation": null,
    "padding": null,
    "added_tokens": [
        {
            "id": 0,
            "content": "[UNK]",
            "single_word": false,
            "lstrip": false,
            "rstrip": false,
            "normalized": false,
            "special": true
        },
        {
            "id": 1,
            "content": "[CLS]",
            "single_word": false,
            "lstrip": false,
            "rstrip": false,
            "normalized": false,
            "special": true
        },
        {
            "id": 2,
            "content": "[SEP]",
            "single_word": false,
            "lstrip": false,
            "rstrip": false,
            "normalized": false,
            "special": true
        },
        {
            "id": 3,
            "content": "[PAD]",
            "single_word": false,
            "lstrip": false,
            "rstrip": false,
            "normalized": false,
            "special": true
        },
        {
            "id": 4,
            "content": "[MASK]",
            "single_word": false,
            "lstrip": false,
            "rstrip": false,
            "normalized": false,
            "special": true
        }
    ],
    "normalizer": null,
    "pre_tokenizer": {
        "type": "Whitespace"
    },
    "post_processor": null,
    "decoder": null,
    "model": {
        "type": "BPE",
        "dropout": null,
        "unk_token": "[UNK]",
        "continuing_subword_prefix": null,
        "end_of_word_suffix": null,
        "fuse_unk": false,
        "vocab": {
            "[UNK]": 0,
            "[CLS]": 1,
            "[SEP]": 2,
            "[PAD]": 3,
            "[MASK]": 4,
            "a": 5,
            "b": 6,
            "c": 7,
            "d": 8,
            "e": 9,
            "f": 10,
            "g": 11,
            "h": 12,
            "i": 13,
            "j": 14,
            "k": 15,
            "l": 16,
            "m": 17,
            "n": 18,
            "o": 19,
            "p": 20,
            "r": 21,
            "s": 22,
            "t": 23,
            "u": 24,
            "v": 25,
            "w": 26,
            "x": 27,
            "y": 28,
            "z": 29,
            "an": 30,
            "ka": 31,
            "ar": 32,
            "la": 33,
            "na": 34,
            "mi": 35,
            "mar": 36,
            "et": 37,
            "ana": 38,
            "ri": 39,
            "ra": 40,
            "pet": 41,
            "ti": 42,
            "el": 43,
            "on": 44,
            "lu": 45,
            "av": 46,
            "al": 47,
            "en": 48,
            "lav": 49,
            "ch": 50,
            "ji": 51,
            "om": 52,
            "ek": 53,
            "os": 54,
            "te": 55,
            "re": 56,
            "ie": 57,
            "as": 58,
            "pav": 59,
            "tom": 60,
            "ela": 61,
            "da": 62,
            "jan": 63,
            "ika": 64,
            "va": 65,
            "li": 66,
            "mir": 67,
            "oslav": 68,
            "onika": 69,
            "enka": 70,
            "ta": 71,
            "er": 72,
            "jar": 73,
            "luc": 74,
            "eta": 75,
            "ena": 76,
            "is": 77,
            "mil": 78,
            "iv": 79,
            "za": 80,
            "rad": 81,
            "ja": 82,
            "ik": 83,
            "ver": 84,
            "bo": 85,
            "ku": 86,
            "kas": 87,
            "dre": 88,
            "kub": 89,
            "den": 90,
            "dav": 91,
            "id": 92,
            "st": 93,
            "lad": 94,
            "eva": 95,
            "kar": 96,
            "dan": 97,
            "rom": 98,
            "tka": 99,
            "nik": 100,
            "ma": 101,
            "ona": 102,
            "ol": 103,
            "bar": 104,
            "ca": 105,
            "uz": 106,
            "ef": 107,
            "islav": 108,
            "rena": 109,
            "zden": 110,
            "zuz": 111,
            "jos": 112,
            "im": 113,
            "hon": 114,
            "ga": 115,
            "kri": 116,
            "ale": 117,
            "us": 118,
            "pa": 119,
            "sar": 120,
            "yna": 121,
            "dra": 122,
            "rka": 123,
            "ondre": 124,
            "iel": 125,
            "clav": 126,
            "fi": 127,
            "omi": 128,
            "tis": 129,
            "lip": 130,
            "lar": 131,
            "ad": 132,
            "klar": 133,
            "sim": 134,
            "ada": 135,
            "barbo": 136,
            "zd": 137,
            "ran": 138,
            "sa": 139,
            "ve": 140,
            "oj": 141,
            "gab": 142,
            "ina": 143,
            "iska": 144,
            "voj": 145,
            "vi": 146,
            "ola": 147,
            "tri": 148,
            "bor": 149,
            "ste": 150,
            "in": 151,
            "ic": 152,
            "nat": 153,
            "vla": 154,
            "ro": 155,
            "il": 156,
            "natal": 157,
            "lud": 158,
            "iva": 159,
            "rob": 160,
            "to": 161,
            "vlas": 162,
            "step": 163,
            "gmar": 164,
            "ven": 165,
            "ert": 166,
            "ton": 167,
            "iela": 168,
            "ia": 169,
            "vik": 170,
            "jin": 171,
            "bl": 172,
            "le": 173,
            "lub": 174,
            "di": 175,
            "ard": 176,
            "vas": 177,
            "du": 178,
            "tech": 179,
            "pe": 180,
            "vit": 181,
            "yn": 182,
            "boh": 183,
            "omir": 184,
            "vikto": 185,
            "kac": 186,
            "ju": 187,
            "mag": 188,
            "zb": 189,
            "icka": 190,
            "and": 191,
            "vendu": 192,
            "andra": 193,
            "ty": 194,
            "jo": 195,
            "asa": 196,
            "use": 197,
            "zka": 198,
            "uska": 199,
            "lin": 200,
            "ynek": 201,
            "lib": 202,
            "vlasti": 203,
            "vie": 204,
            "dus": 205,
            "ivo": 206,
            "tislav": 207,
            "ren": 208,
            "vet": 209,
            "sab": 210,
            "ru": 211,
            "van": 212,
            "fan": 213,
            "slav": 214,
            "eri": 215,
            "ros": 216,
            "ali": 217,
            "ska": 218,
            "or": 219,
            "sil": 220,
            "bohu": 221,
            "se": 222,
            "nka": 223,
            "yl": 224,
            "olf": 225,
            "nic": 226,
            "ge": 227,
            "of": 228,
            "veta": 229,
            "alic": 230,
            "arina": 231,
            "de": 232,
            "ry": 233,
            "ita": 234,
            "svet": 235,
            "rie": 236,
            "dali": 237,
            "ha": 238,
            "han": 239,
            "jul": 240,
            "my": 241,
            "zena": 242,
            "br": 243,
            "gor": 244,
            "ezka": 245,
            "ny": 246,
            "ev": 247,
            "drah": 248,
            "kry": 249,
            "luk": 250,
            "syl": 251,
            "maj": 252,
            "joh": 253,
            "ruz": 254,
            "be": 255,
            "petu": 256,
            "dy": 257,
            "alzb": 258,
            "mik": 259,
            "mon": 260,
            "dri": 261,
            "driska": 262,
            "ota": 263,
            "sam": 264,
            "lka": 265,
            "ria": 266,
            "etka": 267,
            "jol": 268,
            "ynka": 269,
            "omira": 270,
            "pre": 271,
            "lau": 272,
            "tade": 273,
            "ks": 274,
            "max": 275,
            "jen": 276,
            "sva": 277,
            "zef": 278,
            "ser": 279,
            "pep": 280,
            "oli": 281,
            "zslav": 282,
            "tezslav": 283,
            "zla": 284,
            "zik": 285,
            "mis": 286,
            "tarina": 287,
            "linka": 288,
            "oks": 289,
            "edu": 290,
            "kvet": 291,
            "anast": 292,
            "dar": 293,
            "onislav": 294,
            "val": 295,
            "uel": 296,
            "ema": 297,
            "len": 298,
            "vra": 299,
            "ata": 300,
            "hel": 301,
            "aja": 302,
            "oslava": 303,
            "evi": 304,
            "ole": 305,
            "sl": 306,
            "mysl": 307,
            "zda": 308,
            "nade": 309,
            "bas": 310,
            "ir": 311,
            "kik": 312,
            "dv": 313,
            "edv": 314,
            "hedv": 315,
            "hom": 316,
            "ya": 317,
            "vile": 318,
            "orge": 319,
            "lea": 320,
            "alo": 321,
            "este": 322,
            "zen": 323,
            "die": 324,
            "ule": 325,
            "dom": 326,
            "ofie": 327,
            "am": 328,
            "gri": 329,
            "ingri": 330,
            "rus": 331,
            "eli": 332,
            "bob": 333,
            "mca": 334,
            "nel": 335,
            "lid": 336,
            "ot": 337,
            "tav": 338,
            "svatav": 339,
            "tas": 340,
            "dmi": 341,
            "uza": 342,
            "etislav": 343,
            "vona": 344,
            "ym": 345,
            "chym": 346,
            "ul": 347,
            "gu": 348,
            "bi": 349,
            "nos": 350,
            "arnos": 351,
            "hu": 352,
            "las": 353,
            "miku": 354,
            "cka": 355,
            "aga": 356,
            "ous": 357,
            "svit": 358,
            "lda": 359,
            "lan": 360,
            "los": 361,
            "ril": 362,
            "iu": 363,
            "mat": 364,
            "moj": 365,
            "tu": 366,
            "artu": 367,
            "laudie": 368,
            "zo": 369,
            "mak": 370,
            "via": 371,
            "ala": 372,
            "es": 373,
            "ly": 374,
            "wen": 375,
            "pluk": 376,
            "sek": 377,
            "topluk": 378,
            "do": 379,
            "mek": 380,
            "mia": 381,
            "vol": 382,
            "volo": 383,
            "eda": 384,
            "tet": 385,
            "ino": 386,
            "leo": 387,
            "ko": 388,
            "jit": 389,
            "cto": 390,
            "victo": 391,
            "em": 392,
            "no": 393,
            "go": 394,
            "liu": 395,
            "mes": 396,
            "bla": 397,
            "gel": 398,
            "nor": 399,
            "oto": 400,
            "dmitri": 401,
            "roz": 402,
            "dim": 403,
            "cen": 404,
            "arte": 405,
            "ima": 406,
            "we": 407,
            "rota": 408,
            "isa": 409,
            "gdan": 410,
            "ce": 411,
            "ion": 412,
            "lju": 413,
            "stmir": 414,
            "ber": 415,
            "ba": 416,
            "stav": 417,
            "myr": 418,
            "dymyr": 419,
            "lma": 420,
            "pro": 421,
            "any": 422,
            "kop": 423,
            "hail": 424,
            "fer": 425,
            "ox": 426,
            "tar": 427,
            "ter": 428,
            "bri": 429,
            "ngu": 430,
            "yen": 431,
            "try": 432,
            "bov": 433,
            "iril": 434,
            "kon": 435,
            "kiril": 436,
            "tin": 437,
            "yvet": 438,
            "cy": 439,
            "cek": 440,
            "rii": 441,
            "onka": 442,
            "enia": 443,
            "ysek": 444,
            "jina": 445,
            "jinka": 446,
            "bet": 447,
            "ss": 448,
            "ova": 449,
            "stislav": 450,
            "das": 451,
            "iana": 452,
            "uri": 453,
            "iza": 454,
            "tuse": 455,
            "rij": 456,
            "tan": 457,
            "ica": 458,
            "loj": 459,
            "sta": 460,
            "zie": 461,
            "anasta": 462,
            "zav": 463,
            "elizav": 464,
            "kol": 465,
            "gi": 466,
            "wer": 467,
            "pavli": 468,
            "hal": 469,
            "jv": 470,
            "zenka": 471,
            "ng": 472,
            "lota": 473,
            "xen": 474,
            "dmy": 475,
            "hor": 476,
            "tro": 477,
            "ryna": 478,
            "bran": 479,
            "yar": 480,
            "ys": 481,
            "alik": 482,
            "cti": 483,
            "enika": 484,
            "dimir": 485,
            "zan": 486,
            "anato": 487,
            "lii": 488,
            "aj": 489,
            "bro": 490,
            "andu": 491,
            "vak": 492,
            "dobro": 493,
            "male": 494,
            "mire": 495,
            "icek": 496,
            "kra": 497,
            "arka": 498,
            "it": 499,
            "pit": 500,
            "rs": 501,
            "chos": 502,
            "ovit": 503,
            "jda": 504,
            "sja": 505,
            "enly": 506,
            "rejda": 507,
            "ah": 508,
            "del": 509,
            "der": 510,
            "tvi": 511,
            "sak": 512,
            "nictvi": 513,
            "co": 514,
            "dla": 515,
            "ej": 516,
            "tol": 517,
            "omej": 518,
            "tik": 519,
            "cer": 520,
            "rinka": 521,
            "bole": 522,
            "str": 523,
            "islava": 524,
            "vestr": 525
        },
        "merges": [
            "a n",
            "k a",
            "a r",
            "l a",
            "n a",
            "m i",
            "m ar",
            "e t",
            "an a",
            "r i",
            "r a",
            "p et",
            "t i",
            "e l",
            "o n",
            "l u",
            "a v",
            "a l",
            "e n",
            "la v",
            "c h",
            "j i",
            "o m",
            "e k",
            "o s",
            "t e",
            "r e",
            "i e",
            "a s",
            "p av",
            "t om",
            "e la",
            "d a",
            "j an",
            "i ka",
            "v a",
            "l i",
            "mi r",
            "os lav",
            "on ika",
            "en ka",
            "t a",
            "e r",
            "j ar",
            "lu c",
            "et a",
            "e na",
            "i s",
            "mi l",
            "i v",
            "z a",
            "ra d",
            "j a",
            "i k",
            "v er",
            "b o",
            "k u",
            "ka s",
            "d re",
            "ku b",
            "d en",
            "d av",
            "i d",
            "s t",
            "la d",
            "e va",
            "ka r",
            "d an",
            "r om",
            "t ka",
            "n ik",
            "m a",
            "o na",
            "o l",
            "b ar",
            "c a",
            "u z",
            "e f",
            "is lav",
            "re na",
            "z den",
            "z uz",
            "j os",
            "i m",
            "h on",
            "g a",
            "k ri",
            "al e",
            "u s",
            "p a",
            "s ar",
            "y na",
            "d ra",
            "r ka",
            "on dre",
            "i el",
            "c lav",
            "f i",
            "o mi",
            "ti s",
            "li p",
            "l ar",
            "a d",
            "k lar",
            "s im",
            "a da",
            "bar bo",
            "z d",
            "r an",
            "s a",
            "v e",
            "o j",
            "ga b",
            "i na",
            "is ka",
            "v oj",
            "v i",
            "o la",
            "t ri",
            "bo r",
            "s te",
            "i n",
            "i c",
            "na t",
            "v la",
            "r o",
            "i l",
            "nat al",
            "lu d",
            "i va",
            "ro b",
            "t o",
            "vla s",
            "ste p",
            "g mar",
            "v en",
            "er t",
            "t on",
            "ie la",
            "i a",
            "v ik",
            "ji n",
            "b l",
            "l e",
            "lu b",
            "d i",
            "ar d",
            "v as",
            "d u",
            "te ch",
            "p e",
            "vi t",
            "y n",
            "bo h",
            "o mir",
            "vik to",
            "ka c",
            "j u",
            "ma g",
            "z b",
            "ic ka",
            "an d",
            "ven du",
            "an dra",
            "t y",
            "j o",
            "as a",
            "us e",
            "z ka",
            "us ka",
            "li n",
            "yn ek",
            "li b",
            "vlas ti",
            "v ie",
            "d us",
            "iv o",
            "tis lav",
            "r en",
            "v et",
            "sa b",
            "r u",
            "v an",
            "f an",
            "s lav",
            "e ri",
            "r os",
            "al i",
            "s ka",
            "o r",
            "s il",
            "boh u",
            "s e",
            "n ka",
            "y l",
            "ol f",
            "n ic",
            "g e",
            "o f",
            "v eta",
            "al ic",
            "ar ina",
            "d e",
            "r y",
            "i ta",
            "s vet",
            "ri e",
            "d ali",
            "h a",
            "h an",
            "ju l",
            "m y",
            "z ena",
            "b r",
            "g or",
            "e zka",
            "n y",
            "e v",
            "dra h",
            "k ry",
            "lu k",
            "s yl",
            "ma j",
            "jo h",
            "r uz",
            "b e",
            "pet u",
            "d y",
            "al zb",
            "mi k",
            "m on",
            "d ri",
            "dri ska",
            "o ta",
            "sa m",
            "l ka",
            "ri a",
            "et ka",
            "j ol",
            "yn ka",
            "omi ra",
            "p re",
            "la u",
            "ta de",
            "k s",
            "ma x",
            "j en",
            "s va",
            "z ef",
            "s er",
            "pe p",
            "o li",
            "z slav",
            "te zslav",
            "z la",
            "z ik",
            "mi s",
            "t arina",
            "lin ka",
            "o ks",
            "e du",
            "k vet",
            "ana st",
            "d ar",
            "on islav",
            "v al",
            "u el",
            "e ma",
            "l en",
            "v ra",
            "a ta",
            "h el",
            "a ja",
            "oslav a",
            "e vi",
            "ol e",
            "s l",
            "my sl",
            "z da",
            "na de",
            "b as",
            "i r",
            "k ik",
            "d v",
            "e dv",
            "h edv",
            "h om",
            "y a",
            "vi le",
            "or ge",
            "le a",
            "al o",
            "e ste",
            "z en",
            "d ie",
            "u le",
            "d om",
            "of ie",
            "a m",
            "g ri",
            "in gri",
            "r us",
            "el i",
            "bo b",
            "m ca",
            "n el",
            "li d",
            "o t",
            "t av",
            "sva tav",
            "t as",
            "d mi",
            "u za",
            "et islav",
            "v ona",
            "y m",
            "ch ym",
            "u l",
            "g u",
            "b i",
            "n os",
            "ar nos",
            "h u",
            "la s",
            "mi ku",
            "c ka",
            "a ga",
            "o us",
            "s vit",
            "l da",
            "l an",
            "l os",
            "ri l",
            "i u",
            "ma t",
            "m oj",
            "t u",
            "ar tu",
            "lau die",
            "z o",
            "ma k",
            "vi a",
            "a la",
            "e s",
            "l y",
            "w en",
            "p luk",
            "s ek",
            "to pluk",
            "d o",
            "m ek",
            "mi a",
            "v ol",
            "vol o",
            "e da",
            "t et",
            "in o",
            "le o",
            "k o",
            "ji t",
            "c to",
            "vi cto",
            "e m",
            "n o",
            "g o",
            "li u",
            "m es",
            "b la",
            "g el",
            "n or",
            "o to",
            "dmi tri",
            "ro z",
            "d im",
            "c en",
            "ar te",
            "i ma",
            "w e",
            "ro ta",
            "is a",
            "g dan",
            "c e",
            "i on",
            "l ju",
            "st mir",
            "b er",
            "b a",
            "st av",
            "my r",
            "dy myr",
            "l ma",
            "p ro",
            "an y",
            "ko p",
            "ha il",
            "f er",
            "o x",
            "t ar",
            "te r",
            "b ri",
            "n gu",
            "y en",
            "t ry",
            "bo v",
            "i ril",
            "k on",
            "k iril",
            "ti n",
            "y vet",
            "c y",
            "c ek",
            "ri i",
            "on ka",
            "en ia",
            "y sek",
            "ji na",
            "jin ka",
            "b et",
            "s s",
            "o va",
            "s tislav",
            "d as",
            "i ana",
            "u ri",
            "i za",
            "t use",
            "ri j",
            "t an",
            "i ca",
            "l oj",
            "s ta",
            "z ie",
            "ana sta",
            "z av",
            "eli zav",
            "k ol",
            "g i",
            "w er",
            "pav li",
            "h al",
            "j v",
            "z enka",
            "n g",
            "l ota",
            "x en",
            "d my",
            "h or",
            "t ro",
            "r yna",
            "b ran",
            "y ar",
            "y s",
            "al ik",
            "c ti",
            "en ika",
            "di mir",
            "z an",
            "ana to",
            "li i",
            "a j",
            "b ro",
            "an du",
            "va k",
            "do bro",
            "m ale",
            "mi re",
            "ic ek",
            "k ra",
            "ar ka",
            "i t",
            "p it",
            "r s",
            "ch os",
            "o vit",
            "j da",
            "s ja",
            "en ly",
            "re jda",
            "a h",
            "d el",
            "d er",
            "t vi",
            "sa k",
            "nic tvi",
            "c o",
            "d la",
            "e j",
            "t ol",
            "om ej",
            "ti k",
            "c er",
            "ri nka",
            "bo le",
            "st r",
            "islav a",
            "ve str"
        ]
    }
}