{
  "version": "1.0",
  "truncation": null,
  "padding": null,
  "added_tokens": [
    {
      "id": 0,
      "content": "[UNK]",
      "single_word": false,
      "lstrip": false,
      "rstrip": false,
      "normalized": false,
      "special": true
    },
    {
      "id": 1,
      "content": "[CLS]",
      "single_word": false,
      "lstrip": false,
      "rstrip": false,
      "normalized": false,
      "special": true
    },
    {
      "id": 2,
      "content": "[SEP]",
      "single_word": false,
      "lstrip": false,
      "rstrip": false,
      "normalized": false,
      "special": true
    },
    {
      "id": 3,
      "content": "[PAD]",
      "single_word": false,
      "lstrip": false,
      "rstrip": false,
      "normalized": false,
      "special": true
    },
    {
      "id": 4,
      "content": "[MASK]",
      "single_word": false,
      "lstrip": false,
      "rstrip": false,
      "normalized": false,
      "special": true
    }
  ],
  "normalizer": null,
  "pre_tokenizer": {
    "type": "Whitespace"
  },
  "post_processor": null,
  "decoder": null,
  "model": {
    "type": "BPE",
    "dropout": null,
    "unk_token": "[UNK]",
    "continuing_subword_prefix": null,
    "end_of_word_suffix": null,
    "fuse_unk": false,
    "vocab": {
      "[UNK]": 0,
      "[CLS]": 1,
      "[SEP]": 2,
      "[PAD]": 3,
      "[MASK]": 4,
      "-": 5,
      "a": 6,
      "b": 7,
      "c": 8,
      "d": 9,
      "e": 10,
      "f": 11,
      "g": 12,
      "h": 13,
      "i": 14,
      "j": 15,
      "k": 16,
      "l": 17,
      "m": 18,
      "n": 19,
      "o": 20,
      "p": 21,
      "q": 22,
      "r": 23,
      "s": 24,
      "t": 25,
      "u": 26,
      "v": 27,
      "w": 28,
      "x": 29,
      "y": 30,
      "z": 31,
      "an": 32,
      "ie": 33,
      "in": 34,
      "el": 35,
      "ma": 36,
      "ri": 37,
      "le": 38,
      "ine": 39,
      "re": 40,
      "la": 41,
      "th": 42,
      "ch": 43,
      "st": 44,
      "is": 45,
      "ph": 46,
      "mar": 47,
      "je": 48,
      "il": 49,
      "ar": 50,
      "am": 51,
      "en": 52,
      "on": 53,
      "al": 54,
      "er": 55,
      "ric": 56,
      "ic": 57,
      "lau": 58,
      "ien": 59,
      "lo": 60,
      "au": 61,
      "and": 62,
      "ier": 63,
      "ale": 64,
      "chri": 65,
      "ab": 66,
      "jean": 67,
      "ne": 68,
      "christ": 69,
      "ane": 70,
      "ra": 71,
      "qu": 72,
      "me": 73,
      "ia": 74,
      "na": 75,
      "ro": 76,
      "ju": 77,
      "elle": 78,
      "jo": 79,
      "de": 80,
      "mi": 81,
      "ce": 82,
      "co": 83,
      "pa": 84,
      "marie": 85,
      "se": 86,
      "ste": 87,
      "que": 88,
      "fr": 89,
      "ren": 90,
      "fran": 91,
      "lu": 92,
      "nic": 93,
      "oph": 94,
      "alex": 95,
      "te": 96,
      "id": 97,
      "jul": 98,
      "do": 99,
      "yl": 100,
      "anie": 101,
      "tte": 102,
      "mo": 103,
      "ique": 104,
      "tric": 105,
      "nico": 106,
      "mich": 107,
      "ent": 108,
      "ti": 109,
      "steph": 110,
      "ev": 111,
      "li": 112,
      "em": 113,
      "ba": 114,
      "patric": 115,
      "ili": 116,
      "pier": 117,
      "to": 118,
      "ca": 119,
      "av": 120,
      "syl": 121,
      "sylv": 122,
      "pierre": 123,
      "ka": 124,
      "rie": 125,
      "flo": 126,
      "michel": 127,
      "gu": 128,
      "ann": 129,
      "ss": 130,
      "man": 131,
      "pe": 132,
      "fre": 133,
      "las": 134,
      "lauren": 135,
      "nicolas": 136,
      "nath": 137,
      "my": 138,
      "cois": 139,
      "francois": 140,
      "andre": 141,
      "alie": 142,
      "ge": 143,
      "christoph": 144,
      "aul": 145,
      "car": 146,
      "sand": 147,
      "ry": 148,
      "eline": 149,
      "no": 150,
      "math": 151,
      "clau": 152,
      "ber": 153,
      "phili": 154,
      "philip": 155,
      "dav": 156,
      "ja": 157,
      "philippe": 158,
      "vale": 159,
      "david": 160,
      "stien": 161,
      "bastien": 162,
      "julien": 163,
      "ille": 164,
      "ard": 165,
      "isab": 166,
      "christophe": 167,
      "ben": 168,
      "paul": 169,
      "im": 170,
      "ina": 171,
      "aud": 172,
      "max": 173,
      "fab": 174,
      "tho": 175,
      "ony": 176,
      "sc": 177,
      "mari": 178,
      "nathalie": 179,
      "ad": 180,
      "rine": 181,
      "mas": 182,
      "thomas": 183,
      "elie": 184,
      "sam": 185,
      "pasc": 186,
      "ed": 187,
      "luc": 188,
      "ah": 189,
      "ve": 190,
      "lou": 191,
      "ou": 192,
      "sebastien": 193,
      "go": 194,
      "ham": 195,
      "rg": 196,
      "erine": 197,
      "aur": 198,
      "sylvie": 199,
      "anne": 200,
      "char": 201,
      "cath": 202,
      "isabelle": 203,
      "julie": 204,
      "liv": 205,
      "onique": 206,
      "jac": 207,
      "stephane": 208,
      "franc": 209,
      "iane": 210,
      "laurent": 211,
      "oliv": 212,
      "manu": 213,
      "claude": 214,
      "danie": 215,
      "caro": 216,
      "ala": 217,
      "mel": 218,
      "eric": 219,
      "soph": 220,
      "sophie": 221,
      "marc": 222,
      "frede": 223,
      "kev": 224,
      "kevin": 225,
      "vin": 226,
      "ieu": 227,
      "die": 228,
      "alexandre": 229,
      "christine": 230,
      "guil": 231,
      "mart": 232,
      "alain": 233,
      "patrick": 234,
      "laume": 235,
      "guillaume": 236,
      "cle": 237,
      "clem": 238,
      "olivier": 239,
      "fa": 240,
      "cla": 241,
      "the": 242,
      "sar": 243,
      "dom": 244,
      "main": 245,
      "thier": 246,
      "remy": 247,
      "anth": 248,
      "ger": 249,
      "ana": 250,
      "sandrine": 251,
      "moham": 252,
      "vic": 253,
      "daniel": 254,
      "celine": 255,
      "romain": 256,
      "pascal": 257,
      "line": 258,
      "vi": 259,
      "cent": 260,
      "vincent": 261,
      "inique": 262,
      "dominique": 263,
      "frederic": 264,
      "ime": 265,
      "maxime": 266,
      "ali": 267,
      "jam": 268,
      "thierry": 269,
      "stephanie": 270,
      "sa": 271,
      "dine": 272,
      "valerie": 273,
      "anthony": 274,
      "so": 275,
      "elo": 276,
      "di": 277,
      "ly": 278,
      "ant": 279,
      "del": 280,
      "jero": 281,
      "jerome": 282,
      "anto": 283,
      "antoine": 284,
      "louis": 285,
      "catherine": 286,
      "cor": 287,
      "ael": 288,
      "ian": 289,
      "ru": 290,
      "fabien": 291,
      "mohamed": 292,
      "martine": 293,
      "ire": 294,
      "ver": 295,
      "rian": 296,
      "sarah": 297,
      "laura": 298,
      "rice": 299,
      "bert": 300,
      "jose": 301,
      "dy": 302,
      "hu": 303,
      "cam": 304,
      "camille": 305,
      "tin": 306,
      "floren": 307,
      "franck": 308,
      "cy": 309,
      "ced": 310,
      "emil": 311,
      "christian": 312,
      "sab": 313,
      "elen": 314,
      "tia": 315,
      "ib": 316,
      "jeremy": 317,
      "francoise": 318,
      "clement": 319,
      "bru": 320,
      "bruno": 321,
      "cedric": 322,
      "aurelie": 323,
      "kael": 324,
      "virg": 325,
      "veronique": 326,
      "mathieu": 327,
      "patricia": 328,
      "riel": 329,
      "emilie": 330,
      "lea": 331,
      "mu": 332,
      "elodie": 333,
      "inie": 334,
      "quent": 335,
      "virginie": 336,
      "quentin": 337,
      "luca": 338,
      "mic": 339,
      "ile": 340,
      "florian": 341,
      "helen": 342,
      "yan": 343,
      "manon": 344,
      "ga": 345,
      "benjam": 346,
      "benjamin": 347,
      "did": 348,
      "rey": 349,
      "audrey": 350,
      "marine": 351,
      "eti": 352,
      "laeti": 353,
      "ely": 354,
      "ya": 355,
      "joh": 356,
      "manuel": 357,
      "didier": 358,
      "dam": 359,
      "mickael": 360,
      "alexis": 361,
      "dan": 362,
      "les": 363,
      "mat": 364,
      "zo": 365,
      "yo": 366,
      "lucas": 367,
      "ques": 368,
      "jacques": 369,
      "valen": 370,
      "ril": 371,
      "ona": 372,
      "caroline": 373,
      "claire": 374,
      "christelle": 375,
      "damien": 376,
      "ludo": 377,
      "laetitia": 378,
      "marion": 379,
      "helene": 380,
      "pauline": 381,
      "naud": 382,
      "arnaud": 383,
      "laurence": 384,
      "elyne": 385,
      "nick": 386,
      "it": 387,
      "gre": 388,
      "cec": 389,
      "cyril": 390,
      "yve": 391,
      "lene": 392,
      "inne": 393,
      "corinne": 394,
      "nard": 395,
      "bernard": 396,
      "ise": 397,
      "rien": 398,
      "chant": 399,
      "chantal": 400,
      "phine": 401,
      "isa": 402,
      "dia": 403,
      "med": 404,
      "ssa": 405,
      "melanie": 406,
      "loe": 407,
      "bri": 408,
      "gi": 409,
      "brigi": 410,
      "brigitte": 411,
      "sylva": 412,
      "be": 413,
      "son": 414,
      "kari": 415,
      "dou": 416,
      "hugo": 417,
      "kar": 418,
      "morg": 419,
      "adrien": 420,
      "sandra": 421,
      "sylvain": 422,
      "anais": 423,
      "andine": 424,
      "theo": 425,
      "jona": 426,
      "than": 427,
      "jonathan": 428,
      "victo": 429,
      "karine": 430,
      "ilde": 431,
      "andra": 432,
      "gerard": 433,
      "chloe": 434,
      "valentin": 435,
      "jess": 436,
      "den": 437,
      "delphine": 438,
      "aurel": 439,
      "pti": 440,
      "bapti": 441,
      "baptiste": 442,
      "fabrice": 443,
      "eva": 444,
      "oit": 445,
      "benoit": 446,
      "cecile": 447,
      "thib": 448,
      "florence": 449,
      "lucie": 450,
      "laure": 451,
      "loic": 452,
      "nicole": 453,
      "nn": 454,
      "alic": 455,
      "monique": 456,
      "yves": 457,
      "ludovic": 458,
      "mathilde": 459,
      "gel": 460,
      "angel": 461,
      "rina": 462,
      "lotte": 463,
      "charlotte": 464,
      "sabrina": 465,
      "yann": 466,
      "guy": 467,
      "annie": 468,
      "wil": 469,
      "gille": 470,
      "gilles": 471,
      "fred": 472,
      "dyl": 473,
      "dylan": 474,
      "mag": 475,
      "jor": 476,
      "cha": 477,
      "matth": 478,
      "rah": 479,
      "sami": 480,
      "grego": 481,
      "ur": 482,
      "stine": 483,
      "lili": 484,
      "xav": 485,
      "et": 486,
      "rach": 487,
      "amandine": 488,
      "issa": 489,
      "bea": 490,
      "ha": 491,
      "carole": 492,
      "raph": 493,
      "sonia": 494,
      "geo": 495,
      "sim": 496,
      "simon": 497,
      "alexandra": 498,
      "sev": 499,
      "karim": 500,
      "xavier": 501,
      "rid": 502,
      "meh": 503,
      "her": 504,
      "herve": 505,
      "mary": 506,
      "enzo": 507,
      "tony": 508,
      "mou": 509,
      "fati": 510,
      "justine": 511,
      "angelique": 512,
      "ax": 513,
      "michele": 514,
      "ence": 515,
      "fer": 516,
      "severine": 517,
      "ser": 518,
      "serge": 519,
      "aurelien": 520,
      "vane": 521,
      "emma": 522,
      "vanessa": 523,
      "fann": 524,
      "fanny": 525,
      "oce": 526,
      "oceane": 527,
      "denis": 528,
      "jordan": 529,
      "charles": 530,
      "nade": 531,
      "ta": 532,
      "patrice": 533,
      "morgane": 534,
      "matthieu": 535,
      "nes": 536,
      "nadine": 537,
      "muriel": 538,
      "mau": 539,
      "nadia": 540,
      "you": 541,
      "riam": 542,
      "myriam": 543,
      "trice": 544,
      "beatrice": 545,
      "jenn": 546,
      "stelle": 547,
      "emmanuel": 548,
      "anna": 549,
      "lette": 550,
      "ahmed": 551,
      "tri": 552,
      "remi": 553,
      "maria": 554,
      "amelie": 555,
      "raphael": 556,
      "michael": 557,
      "fabienne": 558,
      "yannick": 559,
      "gau": 560,
      "ica": 561,
      "jessica": 562,
      "cathy": 563,
      "gregory": 564,
      "eth": 565,
      "pascale": 566,
      "wen": 567,
      "cin": 568,
      "cindy": 569,
      "gab": 570,
      "mehdi": 571,
      "victor": 572,
      "leo": 573,
      "thur": 574,
      "arthur": 575,
      "tom": 576,
      "elly": 577,
      "abdel": 578,
      "estelle": 579,
      "chris": 580,
      "bo": 581,
      "melissa": 582,
      "evelyne": 583,
      "clara": 584,
      "alice": 585,
      "joel": 586,
      "christiane": 587,
      "gis": 588,
      "onel": 589,
      "lionel": 590,
      "axel": 591,
      "elisab": 592,
      "elisabeth": 593,
      "auro": 594,
      "sof": 595,
      "aurore": 596,
      "florent": 597,
      "ag": 598,
      "agnes": 599,
      "ines": 600,
      "claudine": 601,
      "rand": 602,
      "ris": 603,
      "queline": 604,
      "jacqueline": 605,
      "gabriel": 606,
      "uel": 607,
      "samuel": 608,
      "magali": 609,
      "liam": 610,
      "william": 611,
      "geral": 612,
      "ifer": 613,
      "jennifer": 614,
      "ele": 615,
      "coren": 616,
      "corentin": 617,
      "gwen": 618,
      "jack": 619,
      "aline": 620,
      "ila": 621,
      "juliette": 622,
      "da": 623,
      "robert": 624,
      "rich": 625,
      "richard": 626,
      "francis": 627,
      "rene": 628,
      "nathan": 629,
      "rachid": 630,
      "ange": 631,
      "stan": 632,
      "lisa": 633,
      "bar": 634,
      "amel": 635,
      "fatima": 636,
      "es": 637,
      "za": 638,
      "gaelle": 639,
      "kh": 640,
      "jeanpierre": 641,
      "danielle": 642,
      "emmanu": 643,
      "emmanuelle": 644,
      "anton": 645,
      "annick": 646,
      "ault": 647,
      "thibault": 648,
      "joelle": 649,
      "coralie": 650,
      "riane": 651,
      "gaet": 652,
      "gaetan": 653,
      "rahim": 654,
      "yoh": 655,
      "marina": 656,
      "maeva": 657,
      "ryan": 658,
      "sabine": 659,
      "pau": 660,
      "reille": 661,
      "mireille": 662,
      "momo": 663,
      "emie": 664,
      "noemie": 665,
      "elise": 666,
      "margau": 667,
      "margaux": 668,
      "lola": 669,
      "madou": 670,
      "ven": 671,
      "steven": 672,
      "celyne": 673,
      "jocelyne": 674,
      "siane": 675,
      "adeline": 676,
      "rge": 677,
      "mali": 678,
      "george": 679,
      "georges": 680,
      "gen": 681,
      "martin": 682,
      "tou": 683,
      "seb": 684,
      "france": 685,
      "yoann": 686,
      "clemence": 687,
      "cel": 688,
      "celia": 689,
      "louise": 690,
      "ienne": 691,
      "land": 692,
      "bertrand": 693,
      "carine": 694,
      "amine": 695,
      "said": 696,
      "john": 697,
      "ff": 698,
      "jim": 699,
      "jimmy": 700,
      "jeanne": 701,
      "nadege": 702,
      "io": 703,
      "alid": 704,
      "ffre": 705,
      "laine": 706,
      "ffrey": 707,
      "rese": 708,
      "therese": 709,
      "samir": 710,
      "ray": 711,
      "josiane": 712,
      "yanis": 713,
      "jeanluc": 714,
      "lydie": 715,
      "christopher": 716,
      "gine": 717,
      "mitri": 718,
      "julia": 719,
      "dimitri": 720,
      "pha": 721,
      "sara": 722,
      "maryse": 723,
      "ias": 724,
      "farid": 725,
      "jeanclaude": 726,
      "roger": 727,
      "mane": 728,
      "amina": 729,
      "michelle": 730,
      "gh": 731,
      "ghis": 732,
      "nina": 733,
      "dany": 734,
      "jules": 735,
      "etienne": 736,
      "cine": 737,
      "nelly": 738,
      "hen": 739,
      "henri": 740,
      "ophelie": 741,
      "lin": 742,
      "linda": 743,
      "sal": 744,
      "erw": 745,
      "bin": 746,
      "robin": 747,
      "bernade": 748,
      "bernadette": 749,
      "lil": 750,
      "joseph": 751,
      "kim": 752,
      "antonio": 753,
      "elisa": 754,
      "viv": 755,
      "rem": 756,
      "jerem": 757,
      "colette": 758,
      "vine": 759,
      "ludi": 760,
      "ludivine": 761,
      "regis": 762,
      "maxence": 763,
      "aut": 764,
      "thibaut": 765,
      "alexia": 766,
      "alicia": 767,
      "geraldine": 768,
      "jacky": 769,
      "morgan": 770,
      "gil": 771,
      "maurice": 772,
      "ieve": 773,
      "evieve": 774,
      "genevieve": 775,
      "tristan": 776,
      "laurie": 777,
      "yass": 778,
      "sou": 779,
      "mathis": 780,
      "jeanmarc": 781,
      "sofiane": 782,
      "sta": 783,
      "musta": 784,
      "andrea": 785,
      "adam": 786,
      "rachel": 787,
      "greg": 788,
      "bryan": 789,
      "ria": 790,
      "jeanfrancois": 791,
      "jade": 792,
      "dorian": 793,
      "rique": 794,
      "charlene": 795,
      "frederique": 796,
      "geoffrey": 797,
      "ima": 798,
      "leila": 799,
      "margo": 800,
      "margot": 801,
      "odi": 802,
      "mohammed": 803,
      "odile": 804,
      "brice": 805,
      "kamel": 806,
      "coco": 807,
      "erwan": 808,
      "hi": 809,
      "los": 810,
      "carlos": 811,
      "marcel": 812,
      "moussa": 813,
      "katia": 814,
      "omar": 815,
      "arm": 816,
      "ban": 817,
      "lan": 818,
      "rose": 819,
      "mael": 820,
      "mon": 821,
      "maud": 822,
      "raymon": 823,
      "daniele": 824,
      "jason": 825,
      "debo": 826,
      "deborah": 827,
      "ay": 828,
      "gilbert": 829,
      "steve": 830,
      "josette": 831,
      "gael": 832,
      "mamadou": 833,
      "jeanmichel": 834,
      "ghislaine": 835,
      "gue": 836,
      "nata": 837,
      "natacha": 838,
      "ki": 839,
      "sm": 840,
      "yasm": 841,
      "der": 842,
      "kader": 843,
      "eve": 844,
      "johan": 845,
      "sse": 846,
      "yousse": 847,
      "youssef": 848,
      "cass": 849,
      "liliane": 850,
      "edi": 851,
      "eloise": 852,
      "aga": 853,
      "elsa": 854,
      "agathe": 855,
      "kelly": 856,
      "meric": 857,
      "emeline": 858,
      "aude": 859,
      "francine": 860,
      "olivia": 861,
      "fi": 862,
      "rayan": 863,
      "marco": 864,
      "jeremie": 865,
      "eliane": 866,
      "marianne": 867,
      "gisele": 868,
      "bara": 869,
      "barbara": 870,
      "malika": 871,
      "nab": 872,
      "maryl": 873,
      "nabil": 874,
      "maryline": 875,
      "carla": 876,
      "ddy": 877,
      "lolo": 878,
      "teddy": 879,
      "roland": 880,
      "eddy": 881,
      "victoria": 882,
      "lian": 883,
      "hich": 884,
      "yv": 885,
      "iz": 886,
      "lina": 887,
      "cyrille": 888,
      "viviane": 889,
      "yassine": 890,
      "hamza": 891,
      "marjo": 892,
      "met": 893,
      "annemarie": 894,
      "yohan": 895,
      "marjorie": 896,
      "mathias": 897,
      "ibrahim": 898,
      "val": 899,
      "ssan": 900,
      "hassan": 901,
      "grid": 902,
      "tt": 903,
      "ingrid": 904,
      "solene": 905,
      "denise": 906,
      "johanna": 907,
      "edou": 908,
      "ke": 909,
      "marlene": 910,
      "mike": 911,
      "edouard": 912,
      "noel": 913,
      "regine": 914,
      "jamel": 915,
      "abdou": 916,
      "su": 917,
      "walid": 918,
      "lena": 919,
      "romane": 920,
      "brahim": 921,
      "thee": 922,
      "james": 923,
      "ai": 924,
      "yohann": 925,
      "aicha": 926,
      "nth": 927,
      "vero": 928,
      "cynth": 929,
      "cynthia": 930,
      "men": 931,
      "lah": 932,
      "jeanlouis": 933,
      "sylviane": 934,
      "sandy": 935,
      "murielle": 936,
      "rad": 937,
      "mourad": 938,
      "fla": 939,
      "icte": 940,
      "bened": 941,
      "flav": 942,
      "benedicte": 943,
      "tine": 944,
      "valentine": 945,
      "yvette": 946,
      "lydia": 947,
      "alan": 948,
      "jeanpaul": 949,
      "samy": 950,
      "charly": 951,
      "fatou": 952,
      "laurine": 953,
      "joa": 954,
      "gerald": 955,
      "az": 956,
      "mylene": 957,
      "aziz": 958,
      "lucile": 959,
      "titi": 960,
      "magalie": 961,
      "hakim": 962,
      "jeanmarie": 963,
      "edith": 964,
      "allan": 965,
      "lilou": 966,
      "ssim": 967,
      "nand": 968,
      "fernand": 969,
      "mario": 970,
      "jeanbaptiste": 971,
      "renaud": 972,
      "tan": 973,
      "migu": 974,
      "tanguy": 975,
      "miguel": 976,
      "soso": 977,
      "samira": 978,
      "salim": 979,
      "cassandra": 980,
      "rudy": 981,
      "kil": 982,
      "killian": 983,
      "aelle": 984,
      "sacha": 985,
      "jojo": 986,
      "raymond": 987,
      "tiana": 988,
      "hamid": 989,
      "tatiana": 990,
      "eo": 991,
      "matheo": 992,
      "sofia": 993,
      "matte": 994,
      "matteo": 995,
      "bett": 996,
      "betty": 997,
      "zoe": 998,
      "jessy": 999,
      "phaine": 1000,
      "charline": 1001,
      "anit": 1002,
      "pat": 1003,
      "anita": 1004,
      "dri": 1005,
      "albert": 1006,
      "samia": 1007,
      "bl": 1008,
      "bou": 1009,
      "mail": 1010,
      "blandine": 1011,
      "nora": 1012,
      "aymeric": 1013,
      "karima": 1014,
      "nan": 1015,
      "claris": 1016,
      "nanou": 1017,
      "clarisse": 1018,
      "ilia": 1019,
      "jeanphilippe": 1020,
      "clementine": 1021,
      "cecilia": 1022,
      "aure": 1023,
      "yacine": 1024,
      "johnn": 1025,
      "johnny": 1026,
      "gregoire": 1027,
      "lilian": 1028,
      "adel": 1029,
      "paulo": 1030,
      "noelle": 1031,
      "lucien": 1032,
      "annesophie": 1033,
      "elena": 1034,
      "simone": 1035,
      "lulu": 1036,
      "per": 1037,
      "ison": 1038,
      "alison": 1039,
      "perrine": 1040,
      "marti": 1041,
      "claudia": 1042,
      "axelle": 1043,
      "martial": 1044,
      "luis": 1045,
      "lise": 1046,
      "mustapha": 1047,
      "malik": 1048,
      "lange": 1049,
      "solange": 1050,
      "willy": 1051,
      "kyl": 1052,
      "alban": 1053,
      "yoan": 1054,
      "yasmine": 1055,
      "dro": 1056,
      "zanne": 1057,
      "pedro": 1058,
      "hubert": 1059,
      "suzanne": 1060,
      "mariechristine": 1061,
      "paule": 1062,
      "any": 1063,
      "tiff": 1064,
      "tiffany": 1065,
      "christel": 1066,
      "hicham": 1067,
      "gane": 1068,
      "megane": 1069,
      "brand": 1070,
      "naima": 1071,
      "samanth": 1072,
      "jenny": 1073,
      "brandon": 1074,
      "samantha": 1075,
      "sylvia": 1076,
      "floriane": 1077,
      "diane": 1078,
      "arlette": 1079,
      "lot": 1080,
      "loren": 1081,
      "lorenzo": 1082,
      "jeanjacques": 1083,
      "anissa": 1084,
      "bre": 1085,
      "ambre": 1086,
      "jp": 1087,
      "mikael": 1088,
      "ald": 1089,
      "romu": 1090,
      "stef": 1091,
      "romuald": 1092,
      "micheline": 1093,
      "freddy": 1094,
      "mika": 1095,
      "bila": 1096,
      "jeff": 1097,
      "bilal": 1098,
      "johann": 1099,
      "ken": 1100,
      "kenza": 1101,
      "maelle": 1102,
      "ija": 1103,
      "tiphaine": 1104,
      "adija": 1105,
      "khalid": 1106,
      "khadija": 1107,
      "armelle": 1108,
      "mina": 1109,
      "moha": 1110,
      "yoland": 1111,
      "yolande": 1112,
      "aurelia": 1113,
      "lph": 1114,
      "rick": 1115,
      "rodo": 1116,
      "pierrick": 1117,
      "boris": 1118,
      "antonin": 1119,
      "lphe": 1120,
      "rodolphe": 1121,
      "fatiha": 1122,
      "younes": 1123,
      "irene": 1124,
      "matt": 1125,
      "eine": 1126,
      "madel": 1127,
      "andree": 1128,
      "madeleine": 1129,
      "doline": 1130,
      "gwendoline": 1131,
      "joris": 1132,
      "yvan": 1133,
      "fel": 1134,
      "ix": 1135,
      "ome": 1136,
      "mehmet": 1137,
      "salome": 1138,
      "felix": 1139,
      "alix": 1140,
      "nine": 1141,
      "jeannine": 1142,
      "karen": 1143,
      "gabrielle": 1144,
      "jeanyves": 1145,
      "coline": 1146,
      "josephine": 1147,
      "aled": 1148,
      "khaled": 1149,
      "antony": 1150,
      "gg": 1151,
      "us": 1152,
      "juju": 1153,
      "pegg": 1154,
      "marius": 1155,
      "diana": 1156,
      "peggy": 1157,
      "djamel": 1158,
      "sala": 1159,
      "angele": 1160,
      "salah": 1161,
      "ir": 1162,
      "lie": 1163,
      "nir": 1164,
      "nassim": 1165,
      "marielaure": 1166,
      "leslie": 1167,
      "mounir": 1168,
      "mustafa": 1169,
      "timo": 1170,
      "loulou": 1171,
      "ayou": 1172,
      "abelle": 1173,
      "mariefrance": 1174,
      "annabelle": 1175,
      "ayoub": 1176,
      "anis": 1177,
      "lia": 1178,
      "illia": 1179,
      "lila": 1180,
      "scillia": 1181,
      "marvin": 1182,
      "claudie": 1183,
      "fou": 1184,
      "gauthier": 1185,
      "rothee": 1186,
      "dorothee": 1187,
      "gues": 1188,
      "hugues": 1189,
      "flora": 1190,
      "dem": 1191,
      "kiki": 1192,
      "vio": 1193,
      "joe": 1194,
      "fernando": 1195,
      "carmen": 1196,
      "melina": 1197,
      "lily": 1198,
      "andy": 1199,
      "rosa": 1200,
      "mariam": 1201,
      "dal": 1202,
      "marieclaude": 1203,
      "thibaud": 1204,
      "renee": 1205,
      "ast": 1206,
      "bob": 1207,
      "armand": 1208,
      "astrid": 1209,
      "evan": 1210,
      "ige": 1211,
      "wige": 1212,
      "edwige": 1213,
      "ginette": 1214,
      "jc": 1215,
      "nana": 1216,
      "reda": 1217,
      "phil": 1218,
      "ys": 1219,
      "maya": 1220,
      "chry": 1221,
      "pierrette": 1222,
      "gwenaelle": 1223,
      "ismail": 1224,
      "diego": 1225,
      "jeanchristophe": 1226,
      "joao": 1227,
      "xane": 1228,
      "roxane": 1229,
      "helena": 1230,
      "yaya": 1231,
      "fan": 1232,
      "jb": 1233,
      "emilien": 1234,
      "con": 1235,
      "rdine": 1236,
      "nordine": 1237,
      "stance": 1238,
      "fiona": 1239,
      "flavien": 1240,
      "constance": 1241,
      "ismael": 1242,
      "driss": 1243,
      "bil": 1244,
      "bilel": 1245,
      "jan": 1246,
      "jeanine": 1247,
      "paulette": 1248,
      "janine": 1249,
      "si": 1250,
      "tma": 1251,
      "toto": 1252,
      "fatma": 1253,
      "selyne": 1254,
      "roselyne": 1255,
      "yannis": 1256,
      "matthias": 1257,
      "este": 1258,
      "ron": 1259,
      "mam": 1260,
      "corine": 1261,
      "kylian": 1262,
      "esteban": 1263,
      "ronan": 1264,
      "ied": 1265,
      "steeve": 1266,
      "fried": 1267,
      "hugue": 1268,
      "wilfried": 1269,
      "jorge": 1270,
      "huguette": 1271,
      "cloe": 1272,
      "han": 1273,
      "elaure": 1274,
      "annelaure": 1275,
      "adil": 1276,
      "hanane": 1277,
      "odie": 1278,
      "melodie": 1279,
      "amau": 1280,
      "emi": 1281,
      "amaury": 1282,
      "emile": 1283,
      "souad": 1284,
      "gan": 1285,
      "logan": 1286,
      "amar": 1287,
      "lauriane": 1288,
      "nour": 1289,
      "hab": 1290,
      "heloise": 1291,
      "imane": 1292,
      "habib": 1293,
      "lle": 1294,
      "marielle": 1295,
      "adele": 1296,
      "vince": 1297,
      "manuela": 1298,
      "cand": 1299,
      "ice": 1300,
      "mariehelene": 1301,
      "noe": 1302,
      "candice": 1303,
      "lwen": 1304,
      "nolwen": 1305,
      "oum": 1306,
      "nolwenn": 1307,
      "mariepierre": 1308,
      "antho": 1309,
      "imen": 1310,
      "abou": 1311,
      "nat": 1312,
      "rachida": 1313,
      "abdelkader": 1314,
      "ass": 1315,
      "anaelle": 1316,
      "assia": 1317,
      "dali": 1318,
      "dalila": 1319,
      "ama": 1320,
      "adama": 1321,
      "yasmina": 1322,
      "flavie": 1323,
      "fle": 1324,
      "fleur": 1325,
      "yvon": 1326,
      "eu": 1327,
      "mate": 1328,
      "davy": 1329,
      "genie": 1330,
      "eugenie": 1331,
      "mateo": 1332,
      "ore": 1333,
      "ye": 1334,
      "laye": 1335,
      "onore": 1336,
      "eleonore": 1337,
      "abdoulaye": 1338,
      "raya": 1339,
      "florine": 1340,
      "ahmet": 1341,
      "soraya": 1342,
      "amadou": 1343,
      "ode": 1344,
      "maely": 1345,
      "rayane": 1346,
      "odette": 1347,
      "maelys": 1348,
      "fouad": 1349,
      "cef": 1350,
      "marieclaire": 1351,
      "youcef": 1352,
      "stin": 1353,
      "augu": 1354,
      "augustin": 1355,
      "von": 1356,
      "maryvon": 1357,
      "farida": 1358,
      "maryvonne": 1359,
      "ite": 1360,
      "maite": 1361,
      "ee": 1362,
      "zee": 1363,
      "alizee": 1364,
      "karia": 1365,
      "zakaria": 1366,
      "claudette": 1367,
      "marylene": 1368,
      "hra": 1369,
      "zohra": 1370,
      "aymen": 1371,
      "timothee": 1372,
      "doriane": 1373,
      "mata": 1374,
      "fatoumata": 1375,
      "jeancharles": 1376,
      "aminata": 1377,
      "nia": 1378,
      "ugo": 1379,
      "yes": 1380,
      "ilyes": 1381,
      "flore": 1382,
      "dounia": 1383,
      "kili": 1384,
      "rek": 1385,
      "quim": 1386,
      "louna": 1387,
      "tarek": 1388,
      "joaquim": 1389,
      "kilian": 1390,
      "clot": 1391,
      "rite": 1392,
      "margue": 1393,
      "oumar": 1394,
      "vivien": 1395,
      "clotilde": 1396,
      "marguerite": 1397,
      "abdal": 1398,
      "samba": 1399,
      "abdallah": 1400,
      "pu": 1401,
      "capu": 1402,
      "raymonde": 1403,
      "capucine": 1404,
      "ibrah": 1405,
      "chrystelle": 1406,
      "ibrahima": 1407,
      "marcelle": 1408,
      "cyriel": 1409,
      "cyrielle": 1410,
      "lati": 1411,
      "hichem": 1412,
      "latifa": 1413,
      "victoire": 1414,
      "tier": 1415,
      "pascaline": 1416,
      "sole": 1417,
      "gautier": 1418,
      "smane": 1419,
      "res": 1420,
      "ousmane": 1421,
      "fares": 1422,
      "ilona": 1423,
      "abdellah": 1424,
      "rik": 1425,
      "loris": 1426,
      "tarik": 1427,
      "arno": 1428,
      "siham": 1429,
      "ho": 1430,
      "sali": 1431,
      "hocine": 1432,
      "salima": 1433,
      "fili": 1434,
      "leon": 1435,
      "lain": 1436,
      "joffrey": 1437,
      "ghislain": 1438,
      "filipe": 1439,
      "leonie": 1440,
      "emeric": 1441,
      "wel": 1442,
      "nawel": 1443,
      "nolan": 1444,
      "laurene": 1445,
      "rat": 1446,
      "murat": 1447,
      "pri": 1448,
      "yamina": 1449,
      "micka": 1450,
      "priscillia": 1451,
      "issam": 1452,
      "fafa": 1453,
      "violette": 1454,
      "tit": 1455,
      "petit": 1456,
      "mer": 1457,
      "iem": 1458,
      "marietherese": 1459,
      "meriem": 1460,
      "mamie": 1461,
      "adem": 1462,
      "christele": 1463,
      "lotfi": 1464,
      "cette": 1465,
      "lucette": 1466,
      "oussa": 1467,
      "gabin": 1468,
      "mauricette": 1469,
      "oussama": 1470,
      "marily": 1471,
      "sousou": 1472,
      "marilyne": 1473,
      "rab": 1474,
      "coraline": 1475,
      "rabah": 1476,
      "patou": 1477,
      "djam": 1478,
      "ddine": 1479,
      "ure": 1480,
      "noure": 1481,
      "djamila": 1482,
      "noureddine": 1483,
      "gege": 1484,
      "mine": 1485,
      "oriane": 1486,
      "lamine": 1487,
      "islas": 1488,
      "stanislas": 1489,
      "rodri": 1490,
      "francky": 1491,
      "raphaelle": 1492,
      "mouss": 1493,
      "cassandre": 1494,
      "rodrigue": 1495,
      "fredo": 1496,
      "roy": 1497,
      "mathys": 1498,
      "geoff": 1499,
      "geoffroy": 1500,
      "dj": 1501,
      "fau": 1502,
      "chra": 1503,
      "titou": 1504,
      "manue": 1505,
      "ibril": 1506,
      "bouchra": 1507,
      "djibril": 1508,
      "faustine": 1509,
      "titouan": 1510,
      "djo": 1511,
      "manuella": 1512,
      "lane": 1513,
      "or": 1514,
      "sofian": 1515,
      "orlane": 1516,
      "marieange": 1517,
      "renge": 1518,
      "berenge": 1519,
      "berengere": 1520,
      "kenzo": 1521,
      "nad": 1522,
      "toufi": 1523,
      "valou": 1524,
      "toufik": 1525,
      "lliv": 1526,
      "maha": 1527,
      "ilien": 1528,
      "imilien": 1529,
      "maximilien": 1530,
      "lucille": 1531,
      "sulliv": 1532,
      "mahamadou": 1533,
      "sullivan": 1534,
      "germain": 1535,
      "assim": 1536,
      "wassim": 1537,
      "yin": 1538,
      "redou": 1539,
      "seyin": 1540,
      "pierreyves": 1541,
      "huseyin": 1542,
      "redouane": 1543,
      "hedi": 1544,
      "pre": 1545,
      "zine": 1546,
      "prescillia": 1547,
      "zineb": 1548,
      "bab": 1549,
      "oelle": 1550,
      "marien": 1551,
      "demba": 1552,
      "babeth": 1553,
      "marienoelle": 1554,
      "cal": 1555,
      "ycal": 1556,
      "faycal": 1557,
      "mailys": 1558,
      "fanfan": 1559,
      "boubou": 1560,
      "rot": 1561,
      "dorine": 1562,
      "bakar": 1563,
      "pierrot": 1564,
      "kais": 1565,
      "bakary": 1566,
      "cric": 1567,
      "violaine": 1568,
      "cricri": 1569,
      "eri": 1570,
      "fiane": 1571,
      "hou": 1572,
      "cheri": 1573,
      "lucienne": 1574,
      "soufiane": 1575,
      "houria": 1576,
      "cherif": 1577,
      "aissa": 1578,
      "mariejose": 1579,
      "cen": 1580,
      "jeje": 1581,
      "lahcen": 1582,
      "tah": 1583,
      "maguy": 1584,
      "tahar": 1585,
      "mil": 1586,
      "ssou": 1587,
      "oud": 1588,
      "youssou": 1589,
      "miloud": 1590,
      "youssouf": 1591,
      "marieline": 1592,
      "lysiane": 1593,
      "mariepaule": 1594,
      "nass": 1595,
      "gwenael": 1596,
      "ap": 1597,
      "cer": 1598,
      "lline": 1599,
      "olline": 1600,
      "nacer": 1601,
      "apolline": 1602,
      "hem": 1603,
      "guilhem": 1604,
      "kyllian": 1605,
      "guylaine": 1606,
      "erwann": 1607,
      "malo": 1608,
      "lass": 1609,
      "lassana": 1610,
      "chaima": 1611,
      "mariefrancoise": 1612,
      "jeannoel": 1613,
      "pard": 1614,
      "spard": 1615,
      "gaspard": 1616,
      "dams": 1617,
      "ette": 1618,
      "gw": 1619,
      "hadrien": 1620,
      "lady": 1621,
      "sylvette": 1622,
      "timothe": 1623,
      "gwlady": 1624,
      "gwladys": 1625,
      "frid": 1626,
      "prien": 1627,
      "elio": 1628,
      "cyprien": 1629,
      "virgile": 1630,
      "wilfrid": 1631,
      "eliott": 1632,
      "ora": 1633,
      "enora": 1634,
      "mariejo": 1635,
      "berange": 1636,
      "imene": 1637,
      "berangere": 1638,
      "sile": 1639,
      "basile": 1640,
      "das": 1641,
      "gildas": 1642,
      "ophile": 1643,
      "theophile": 1644,
      "lyes": 1645,
      "mumu": 1646,
      "hina": 1647,
      "kahina": 1648,
      "didine": 1649,
      "gwendal": 1650,
      "bane": 1651,
      "maric": 1652,
      "albane": 1653,
      "romaric": 1654,
      "sylvaine": 1655,
      "solenn": 1656,
      "sli": 1657,
      "stel": 1658,
      "chrystel": 1659,
      "slimane": 1660,
      "meline": 1661,
      "sego": 1662,
      "segolene": 1663,
      "pine": 1664,
      "philippine": 1665,
      "loud": 1666,
      "medhi": 1667,
      "mouloud": 1668,
      "ei": 1669,
      "tibo": 1670,
      "khei": 1671,
      "mams": 1672,
      "kheira": 1673,
      "mymy": 1674,
      "phanie": 1675,
      "auriane": 1676,
      "tiphanie": 1677,
      "foued": 1678,
      "ies": 1679,
      "ilies": 1680,
      "nne": 1681,
      "ty": 1682,
      "louane": 1683,
      "solenne": 1684,
      "typhaine": 1685,
      "rel": 1686,
      "pierrel": 1687,
      "tof": 1688,
      "ouis": 1689,
      "pierrelouis": 1690,
      "sirine": 1691,
      "gar": 1692,
      "llau": 1693,
      "ance": 1694,
      "mallau": 1695,
      "soiz": 1696,
      "victorien": 1697,
      "garance": 1698,
      "mallaury": 1699,
      "soizic": 1700,
      "louanne": 1701,
      "dje": 1702
    },
    "merges": [
      "a n",
      "i e",
      "i n",
      "e l",
      "m a",
      "r i",
      "l e",
      "in e",
      "r e",
      "l a",
      "t h",
      "c h",
      "s t",
      "i s",
      "p h",
      "ma r",
      "j e",
      "i l",
      "a r",
      "a m",
      "e n",
      "o n",
      "a l",
      "e r",
      "ri c",
      "i c",
      "la u",
      "ie n",
      "l o",
      "a u",
      "an d",
      "ie r",
      "a le",
      "ch ri",
      "a b",
      "je an",
      "n e",
      "chri st",
      "an e",
      "r a",
      "q u",
      "m e",
      "i a",
      "n a",
      "r o",
      "j u",
      "el le",
      "j o",
      "d e",
      "m i",
      "c e",
      "c o",
      "p a",
      "mar ie",
      "s e",
      "st e",
      "qu e",
      "f r",
      "re n",
      "fr an",
      "l u",
      "n ic",
      "o ph",
      "ale x",
      "t e",
      "i d",
      "ju l",
      "d o",
      "y l",
      "an ie",
      "t te",
      "m o",
      "i que",
      "t ric",
      "nic o",
      "mi ch",
      "en t",
      "t i",
      "ste ph",
      "e v",
      "l i",
      "e m",
      "b a",
      "pa tric",
      "il i",
      "p ier",
      "t o",
      "c a",
      "a v",
      "s yl",
      "syl v",
      "pier re",
      "k a",
      "r ie",
      "f lo",
      "mich el",
      "g u",
      "an n",
      "s s",
      "m an",
      "p e",
      "f re",
      "la s",
      "lau ren",
      "nico las",
      "na th",
      "m y",
      "co is",
      "fran cois",
      "and re",
      "al ie",
      "g e",
      "christ oph",
      "au l",
      "c ar",
      "s and",
      "r y",
      "el ine",
      "n o",
      "ma th",
      "c lau",
      "b er",
      "ph ili",
      "phili p",
      "d av",
      "j a",
      "philip pe",
      "v ale",
      "dav id",
      "st ien",
      "ba stien",
      "jul ien",
      "il le",
      "ar d",
      "is ab",
      "christoph e",
      "b en",
      "p aul",
      "i m",
      "in a",
      "au d",
      "ma x",
      "f ab",
      "th o",
      "on y",
      "s c",
      "ma ri",
      "nath alie",
      "a d",
      "r ine",
      "ma s",
      "tho mas",
      "el ie",
      "s am",
      "pa sc",
      "e d",
      "lu c",
      "a h",
      "v e",
      "lo u",
      "o u",
      "se bastien",
      "g o",
      "h am",
      "r g",
      "er ine",
      "au r",
      "sylv ie",
      "an ne",
      "ch ar",
      "ca th",
      "isab elle",
      "jul ie",
      "li v",
      "on ique",
      "ja c",
      "steph ane",
      "fran c",
      "i ane",
      "lauren t",
      "o liv",
      "man u",
      "clau de",
      "d anie",
      "car o",
      "a la",
      "m el",
      "e ric",
      "s oph",
      "soph ie",
      "mar c",
      "fre de",
      "k ev",
      "kev in",
      "v in",
      "ie u",
      "d ie",
      "alex andre",
      "christ ine",
      "gu il",
      "mar t",
      "ala in",
      "patric k",
      "lau me",
      "guil laume",
      "c le",
      "cle m",
      "oliv ier",
      "f a",
      "c la",
      "th e",
      "s ar",
      "do m",
      "ma in",
      "th ier",
      "re my",
      "an th",
      "g er",
      "an a",
      "sand rine",
      "mo ham",
      "v ic",
      "danie l",
      "c eline",
      "ro main",
      "pasc al",
      "l ine",
      "v i",
      "c ent",
      "vin cent",
      "in ique",
      "dom inique",
      "frede ric",
      "i me",
      "max ime",
      "al i",
      "j am",
      "thier ry",
      "steph anie",
      "s a",
      "d ine",
      "vale rie",
      "anth ony",
      "s o",
      "el o",
      "d i",
      "l y",
      "an t",
      "d el",
      "je ro",
      "jero me",
      "an to",
      "anto ine",
      "lou is",
      "cath erine",
      "co r",
      "a el",
      "i an",
      "r u",
      "fab ien",
      "moham ed",
      "mart ine",
      "i re",
      "v er",
      "ri an",
      "sar ah",
      "lau ra",
      "ric e",
      "ber t",
      "jo se",
      "d y",
      "h u",
      "c am",
      "cam ille",
      "t in",
      "flo ren",
      "franc k",
      "c y",
      "ce d",
      "em il",
      "christ ian",
      "s ab",
      "el en",
      "t ia",
      "i b",
      "je remy",
      "francois e",
      "clem ent",
      "b ru",
      "bru no",
      "ced ric",
      "aur elie",
      "ka el",
      "vi rg",
      "ver onique",
      "math ieu",
      "patric ia",
      "rie l",
      "emil ie",
      "le a",
      "m u",
      "elo die",
      "in ie",
      "qu ent",
      "virg inie",
      "quent in",
      "lu ca",
      "m ic",
      "i le",
      "flo rian",
      "h elen",
      "y an",
      "man on",
      "g a",
      "ben jam",
      "benjam in",
      "d id",
      "re y",
      "aud rey",
      "mar ine",
      "e ti",
      "la eti",
      "el y",
      "y a",
      "jo h",
      "manu el",
      "did ier",
      "d am",
      "mic kael",
      "alex is",
      "d an",
      "le s",
      "ma t",
      "z o",
      "y o",
      "luca s",
      "que s",
      "jac ques",
      "vale n",
      "ri l",
      "on a",
      "caro line",
      "cla ire",
      "christ elle",
      "dam ien",
      "lu do",
      "laeti tia",
      "mari on",
      "helen e",
      "paul ine",
      "n aud",
      "ar naud",
      "lauren ce",
      "ely ne",
      "nic k",
      "i t",
      "g re",
      "ce c",
      "cy ril",
      "y ve",
      "le ne",
      "in ne",
      "cor inne",
      "n ard",
      "ber nard",
      "is e",
      "r ien",
      "ch ant",
      "chant al",
      "ph ine",
      "is a",
      "d ia",
      "me d",
      "ss a",
      "mel anie",
      "lo e",
      "b ri",
      "g i",
      "bri gi",
      "brigi tte",
      "sylv a",
      "b e",
      "s on",
      "ka ri",
      "do u",
      "hu go",
      "k ar",
      "mo rg",
      "ad rien",
      "sand ra",
      "sylva in",
      "ana is",
      "and ine",
      "the o",
      "j ona",
      "th an",
      "jona than",
      "vic to",
      "kar ine",
      "il de",
      "and ra",
      "ger ard",
      "ch loe",
      "valen tin",
      "je ss",
      "d en",
      "del phine",
      "aur el",
      "p ti",
      "ba pti",
      "bapti ste",
      "fab rice",
      "ev a",
      "o it",
      "ben oit",
      "cec ile",
      "th ib",
      "floren ce",
      "luc ie",
      "lau re",
      "lo ic",
      "nico le",
      "n n",
      "al ic",
      "m onique",
      "yve s",
      "ludo vic",
      "math ilde",
      "g el",
      "an gel",
      "r ina",
      "lo tte",
      "char lotte",
      "sab rina",
      "y ann",
      "gu y",
      "ann ie",
      "w il",
      "g ille",
      "gille s",
      "fre d",
      "d yl",
      "dyl an",
      "ma g",
      "jo r",
      "ch a",
      "mat th",
      "ra h",
      "sam i",
      "gre go",
      "u r",
      "st ine",
      "l ili",
      "x av",
      "e t",
      "ra ch",
      "am andine",
      "is sa",
      "be a",
      "h a",
      "caro le",
      "ra ph",
      "son ia",
      "ge o",
      "s im",
      "sim on",
      "alex andra",
      "se v",
      "kari m",
      "xav ier",
      "ri d",
      "me h",
      "h er",
      "her ve",
      "mar y",
      "en zo",
      "t ony",
      "mo u",
      "fa ti",
      "ju stine",
      "angel ique",
      "a x",
      "michel e",
      "en ce",
      "f er",
      "sev erine",
      "s er",
      "ser ge",
      "aurel ien",
      "v ane",
      "em ma",
      "vane ssa",
      "f ann",
      "fann y",
      "o ce",
      "oce ane",
      "den is",
      "jor dan",
      "char les",
      "na de",
      "t a",
      "patric e",
      "morg ane",
      "matth ieu",
      "ne s",
      "na dine",
      "mu riel",
      "ma u",
      "na dia",
      "y ou",
      "ri am",
      "my riam",
      "tric e",
      "bea trice",
      "je nn",
      "st elle",
      "em manuel",
      "an na",
      "le tte",
      "ah med",
      "t ri",
      "re mi",
      "mari a",
      "am elie",
      "raph ael",
      "mich ael",
      "fabien ne",
      "yan nick",
      "g au",
      "ic a",
      "jess ica",
      "cath y",
      "grego ry",
      "e th",
      "pasc ale",
      "w en",
      "c in",
      "cin dy",
      "g ab",
      "meh di",
      "victo r",
      "le o",
      "th ur",
      "ar thur",
      "to m",
      "el ly",
      "ab del",
      "e stelle",
      "chri s",
      "b o",
      "mel issa",
      "ev elyne",
      "cla ra",
      "alic e",
      "jo el",
      "christ iane",
      "g is",
      "on el",
      "li onel",
      "ax el",
      "el isab",
      "elisab eth",
      "au ro",
      "so f",
      "auro re",
      "floren t",
      "a g",
      "ag nes",
      "ine s",
      "clau dine",
      "r and",
      "ri s",
      "qu eline",
      "jac queline",
      "gab riel",
      "u el",
      "sam uel",
      "mag ali",
      "li am",
      "wil liam",
      "ger al",
      "i fer",
      "jenn ifer",
      "el e",
      "co ren",
      "coren tin",
      "g wen",
      "jac k",
      "al ine",
      "i la",
      "julie tte",
      "d a",
      "ro bert",
      "ri ch",
      "rich ard",
      "franc is",
      "re ne",
      "nath an",
      "rach id",
      "an ge",
      "st an",
      "l isa",
      "b ar",
      "am el",
      "fati ma",
      "e s",
      "z a",
      "ga elle",
      "k h",
      "jean pierre",
      "daniel le",
      "em manu",
      "emmanu elle",
      "ant on",
      "an nick",
      "aul t",
      "thib ault",
      "jo elle",
      "cor alie",
      "ri ane",
      "ga et",
      "gaet an",
      "rah im",
      "yo h",
      "mar ina",
      "ma eva",
      "ry an",
      "sab ine",
      "p au",
      "re ille",
      "mi reille",
      "mo mo",
      "em ie",
      "no emie",
      "el ise",
      "mar gau",
      "margau x",
      "lo la",
      "ma dou",
      "v en",
      "ste ven",
      "c elyne",
      "jo celyne",
      "s iane",
      "ad eline",
      "r ge",
      "ma li",
      "geo rge",
      "george s",
      "g en",
      "mart in",
      "to u",
      "se b",
      "fran ce",
      "yo ann",
      "clem ence",
      "c el",
      "cel ia",
      "louis e",
      "ien ne",
      "l and",
      "bert rand",
      "car ine",
      "am ine",
      "sa id",
      "joh n",
      "f f",
      "j im",
      "jim my",
      "jean ne",
      "nade ge",
      "i o",
      "al id",
      "f fre",
      "la ine",
      "ffre y",
      "re se",
      "the rese",
      "sami r",
      "ra y",
      "jo siane",
      "yan is",
      "jean luc",
      "ly die",
      "christoph er",
      "g ine",
      "mi tri",
      "jul ia",
      "di mitri",
      "ph a",
      "sar a",
      "mary se",
      "ia s",
      "fa rid",
      "jean claude",
      "ro ger",
      "m ane",
      "am ina",
      "mich elle",
      "g h",
      "gh is",
      "n ina",
      "dan y",
      "ju les",
      "et ienne",
      "c ine",
      "n elly",
      "h en",
      "hen ri",
      "oph elie",
      "l in",
      "lin da",
      "s al",
      "er w",
      "b in",
      "ro bin",
      "ber nade",
      "bernade tte",
      "l il",
      "jose ph",
      "k im",
      "anton io",
      "el isa",
      "vi v",
      "re m",
      "je rem",
      "co lette",
      "v ine",
      "lu di",
      "ludi vine",
      "re gis",
      "max ence",
      "au t",
      "thib aut",
      "alex ia",
      "alic ia",
      "geral dine",
      "jack y",
      "morg an",
      "g il",
      "mau rice",
      "ie ve",
      "ev ieve",
      "gen evieve",
      "tri stan",
      "lau rie",
      "ya ss",
      "s ou",
      "math is",
      "jean marc",
      "sof iane",
      "st a",
      "mu sta",
      "andre a",
      "ad am",
      "rach el",
      "gre g",
      "b ryan",
      "ri a",
      "jean francois",
      "ja de",
      "do rian",
      "ri que",
      "char lene",
      "frede rique",
      "geo ffrey",
      "i ma",
      "le ila",
      "mar go",
      "margo t",
      "o di",
      "moham med",
      "odi le",
      "b rice",
      "k amel",
      "co co",
      "erw an",
      "h i",
      "lo s",
      "car los",
      "marc el",
      "mou ssa",
      "ka tia",
      "o mar",
      "ar m",
      "b an",
      "l an",
      "ro se",
      "ma el",
      "m on",
      "mau d",
      "ray mon",
      "danie le",
      "ja son",
      "de bo",
      "debo rah",
      "a y",
      "gil bert",
      "ste ve",
      "jose tte",
      "g ael",
      "ma madou",
      "jean michel",
      "ghis laine",
      "gu e",
      "na ta",
      "nata cha",
      "k i",
      "s m",
      "ya sm",
      "d er",
      "ka der",
      "ev e",
      "joh an",
      "s se",
      "you sse",
      "yousse f",
      "ca ss",
      "lili ane",
      "ed i",
      "elo ise",
      "a ga",
      "el sa",
      "aga the",
      "k elly",
      "me ric",
      "em eline",
      "au de",
      "franc ine",
      "oliv ia",
      "f i",
      "ra yan",
      "mar co",
      "jerem ie",
      "el iane",
      "mari anne",
      "gis ele",
      "bar a",
      "bar bara",
      "mali ka",
      "n ab",
      "mar yl",
      "nab il",
      "maryl ine",
      "car la",
      "d dy",
      "lo lo",
      "te ddy",
      "ro land",
      "ed dy",
      "victo ria",
      "li an",
      "hi ch",
      "y v",
      "i z",
      "l ina",
      "cyril le",
      "viv iane",
      "yass ine",
      "ham za",
      "mar jo",
      "me t",
      "anne marie",
      "yoh an",
      "marjo rie",
      "math ias",
      "ib rahim",
      "v al",
      "ss an",
      "ha ssan",
      "g rid",
      "t t",
      "in grid",
      "so lene",
      "den ise",
      "joh anna",
      "e dou",
      "k e",
      "mar lene",
      "mi ke",
      "edou ard",
      "no el",
      "re gine",
      "jam el",
      "ab dou",
      "s u",
      "w alid",
      "le na",
      "ro mane",
      "b rahim",
      "the e",
      "jam es",
      "a i",
      "yoh ann",
      "ai cha",
      "n th",
      "ver o",
      "cy nth",
      "cynth ia",
      "m en",
      "la h",
      "jean louis",
      "sylv iane",
      "sand y",
      "muriel le",
      "ra d",
      "mou rad",
      "f la",
      "ic te",
      "ben ed",
      "fla v",
      "bened icte",
      "t ine",
      "valen tine",
      "yve tte",
      "ly dia",
      "al an",
      "jean paul",
      "sam y",
      "char ly",
      "fa tou",
      "lau rine",
      "jo a",
      "geral d",
      "a z",
      "my lene",
      "az iz",
      "luc ile",
      "ti ti",
      "mag alie",
      "ha kim",
      "jean marie",
      "edi th",
      "al lan",
      "lil ou",
      "ss im",
      "n and",
      "fer nand",
      "mari o",
      "jean baptiste",
      "ren aud",
      "t an",
      "mi gu",
      "tan guy",
      "migu el",
      "so so",
      "sami ra",
      "sal im",
      "cass andra",
      "ru dy",
      "k il",
      "kil lian",
      "a elle",
      "sa cha",
      "jo jo",
      "raymon d",
      "ti ana",
      "ham id",
      "ta tiana",
      "e o",
      "math eo",
      "sof ia",
      "ma tte",
      "matte o",
      "be tt",
      "bett y",
      "zo e",
      "jess y",
      "pha ine",
      "char line",
      "an it",
      "pa t",
      "anit a",
      "d ri",
      "al bert",
      "sam ia",
      "b l",
      "b ou",
      "ma il",
      "bl andine",
      "no ra",
      "ay meric",
      "kari ma",
      "n an",
      "cla ris",
      "nan ou",
      "claris se",
      "il ia",
      "jean philippe",
      "clement ine",
      "cec ilia",
      "au re",
      "ya cine",
      "joh nn",
      "johnn y",
      "grego ire",
      "lili an",
      "ad el",
      "pau lo",
      "no elle",
      "luc ien",
      "anne sophie",
      "elen a",
      "simon e",
      "lu lu",
      "p er",
      "is on",
      "al ison",
      "per rine",
      "mar ti",
      "clau dia",
      "ax elle",
      "marti al",
      "lu is",
      "l ise",
      "musta pha",
      "mali k",
      "l ange",
      "so lange",
      "wil ly",
      "k yl",
      "al ban",
      "yo an",
      "yasm ine",
      "d ro",
      "z anne",
      "pe dro",
      "hu bert",
      "su zanne",
      "marie christine",
      "pau le",
      "an y",
      "ti ff",
      "tiff any",
      "christ el",
      "hich am",
      "g ane",
      "me gane",
      "b rand",
      "na ima",
      "sam anth",
      "jenn y",
      "brand on",
      "samanth a",
      "sylv ia",
      "flo riane",
      "d iane",
      "ar lette",
      "lo t",
      "lo ren",
      "loren zo",
      "jean jacques",
      "an issa",
      "b re",
      "am bre",
      "j p",
      "mi kael",
      "al d",
      "ro mu",
      "ste f",
      "romu ald",
      "michel ine",
      "fred dy",
      "mi ka",
      "b ila",
      "je ff",
      "bila l",
      "joh ann",
      "k en",
      "ken za",
      "ma elle",
      "i ja",
      "ti phaine",
      "ad ija",
      "kh alid",
      "kh adija",
      "arm elle",
      "m ina",
      "mo ha",
      "yo land",
      "yoland e",
      "aurel ia",
      "l ph",
      "ric k",
      "ro do",
      "pier rick",
      "bo ris",
      "anton in",
      "lph e",
      "rodo lphe",
      "fati ha",
      "you nes",
      "ire ne",
      "mat t",
      "e ine",
      "ma del",
      "andre e",
      "madel eine",
      "do line",
      "gwen doline",
      "jo ris",
      "yv an",
      "f el",
      "i x",
      "o me",
      "meh met",
      "sal ome",
      "fel ix",
      "ali x",
      "n ine",
      "jean nine",
      "ka ren",
      "gabriel le",
      "jean yves",
      "co line",
      "jose phine",
      "ale d",
      "kh aled",
      "ant ony",
      "g g",
      "u s",
      "ju ju",
      "pe gg",
      "mari us",
      "di ana",
      "pegg y",
      "d jamel",
      "s ala",
      "angel e",
      "sala h",
      "i r",
      "l ie",
      "n ir",
      "na ssim",
      "marie laure",
      "les lie",
      "mou nir",
      "musta fa",
      "ti mo",
      "lou lou",
      "a you",
      "ab elle",
      "marie france",
      "ann abelle",
      "ayou b",
      "an is",
      "l ia",
      "il lia",
      "li la",
      "sc illia",
      "mar vin",
      "clau die",
      "f ou",
      "gau thier",
      "ro thee",
      "do rothee",
      "gu es",
      "hu gues",
      "flo ra",
      "de m",
      "ki ki",
      "vi o",
      "jo e",
      "fernand o",
      "car men",
      "mel ina",
      "lil y",
      "and y",
      "ro sa",
      "mari am",
      "d al",
      "marie claude",
      "thib aud",
      "rene e",
      "a st",
      "bo b",
      "arm and",
      "ast rid",
      "ev an",
      "i ge",
      "w ige",
      "ed wige",
      "gine tte",
      "j c",
      "n ana",
      "re da",
      "ph il",
      "y s",
      "ma ya",
      "ch ry",
      "pierre tte",
      "gwen aelle",
      "is mail",
      "die go",
      "jean christophe",
      "joa o",
      "x ane",
      "ro xane",
      "helen a",
      "ya ya",
      "f an",
      "j b",
      "emil ien",
      "c on",
      "r dine",
      "no rdine",
      "stan ce",
      "fi ona",
      "flav ien",
      "con stance",
      "is mael",
      "dri ss",
      "b il",
      "bil el",
      "j an",
      "jean ine",
      "pau lette",
      "jan ine",
      "s i",
      "t ma",
      "to to",
      "fa tma",
      "s elyne",
      "ro selyne",
      "yann is",
      "matth ias",
      "e ste",
      "r on",
      "ma m",
      "co rine",
      "kyl ian",
      "este ban",
      "ron an",
      "ie d",
      "ste eve",
      "fr ied",
      "hu gue",
      "wil fried",
      "jor ge",
      "hugue tte",
      "c loe",
      "h an",
      "el aure",
      "ann elaure",
      "ad il",
      "han ane",
      "o die",
      "mel odie",
      "a mau",
      "e mi",
      "amau ry",
      "emi le",
      "sou ad",
      "g an",
      "lo gan",
      "a mar",
      "lau riane",
      "no ur",
      "h ab",
      "h eloise",
      "im ane",
      "hab ib",
      "l le",
      "marie lle",
      "ad ele",
      "vin ce",
      "manuel a",
      "c and",
      "ic e",
      "marie helene",
      "no e",
      "cand ice",
      "l wen",
      "no lwen",
      "ou m",
      "nolwen n",
      "marie pierre",
      "an tho",
      "im en",
      "ab ou",
      "na t",
      "rachid a",
      "abdel kader",
      "a ss",
      "ana elle",
      "ass ia",
      "d ali",
      "dali la",
      "a ma",
      "ad ama",
      "yasm ina",
      "flav ie",
      "f le",
      "fle ur",
      "yv on",
      "e u",
      "ma te",
      "dav y",
      "gen ie",
      "eu genie",
      "mate o",
      "o re",
      "y e",
      "la ye",
      "on ore",
      "ele onore",
      "abdou laye",
      "ra ya",
      "flo rine",
      "ah met",
      "so raya",
      "a madou",
      "o de",
      "ma ely",
      "ray ane",
      "ode tte",
      "maely s",
      "fou ad",
      "ce f",
      "marie claire",
      "you cef",
      "st in",
      "au gu",
      "augu stin",
      "v on",
      "mary von",
      "farid a",
      "maryvon ne",
      "i te",
      "ma ite",
      "e e",
      "z ee",
      "ali zee",
      "kari a",
      "za karia",
      "claude tte",
      "mary lene",
      "h ra",
      "zo hra",
      "ay men",
      "timo thee",
      "do riane",
      "mat a",
      "fatou mata",
      "jean charles",
      "amina ta",
      "n ia",
      "u go",
      "y es",
      "il yes",
      "flo re",
      "dou nia",
      "k ili",
      "re k",
      "qu im",
      "lou na",
      "ta rek",
      "joa quim",
      "kili an",
      "c lot",
      "ri te",
      "mar gue",
      "ou mar",
      "viv ien",
      "clot ilde",
      "margue rite",
      "ab dal",
      "sam ba",
      "abdal lah",
      "p u",
      "ca pu",
      "raymon de",
      "capu cine",
      "ib rah",
      "chry stelle",
      "ibrah ima",
      "marc elle",
      "cy riel",
      "cyriel le",
      "la ti",
      "hich em",
      "lati fa",
      "victo ire",
      "t ier",
      "pascal ine",
      "so le",
      "gau tier",
      "s mane",
      "re s",
      "ou smane",
      "fa res",
      "il ona",
      "abdel lah",
      "ri k",
      "lo ris",
      "ta rik",
      "ar no",
      "si ham",
      "h o",
      "s ali",
      "ho cine",
      "sali ma",
      "f ili",
      "le on",
      "la in",
      "jo ffrey",
      "ghis lain",
      "fili pe",
      "leon ie",
      "e meric",
      "w el",
      "na wel",
      "no lan",
      "laure ne",
      "ra t",
      "mu rat",
      "p ri",
      "y amina",
      "mic ka",
      "pri scillia",
      "is sam",
      "fa fa",
      "vio lette",
      "ti t",
      "pe tit",
      "m er",
      "ie m",
      "marie therese",
      "mer iem",
      "mam ie",
      "a dem",
      "christ ele",
      "lot fi",
      "ce tte",
      "lu cette",
      "ou ssa",
      "gab in",
      "maurice tte",
      "oussa ma",
      "mari ly",
      "sou sou",
      "marily ne",
      "r ab",
      "cor aline",
      "rab ah",
      "pa tou",
      "d jam",
      "d dine",
      "u re",
      "no ure",
      "djam ila",
      "noure ddine",
      "ge ge",
      "m ine",
      "o riane",
      "la mine",
      "is las",
      "stan islas",
      "ro dri",
      "franck y",
      "raph aelle",
      "mou ss",
      "cass andre",
      "rodri gue",
      "fre do",
      "ro y",
      "math ys",
      "geo ff",
      "geoff roy",
      "d j",
      "f au",
      "ch ra",
      "ti tou",
      "manu e",
      "ib ril",
      "bou chra",
      "dj ibril",
      "fau stine",
      "titou an",
      "d jo",
      "manuel la",
      "l ane",
      "o r",
      "sof ian",
      "or lane",
      "marie ange",
      "ren ge",
      "be renge",
      "berenge re",
      "k enzo",
      "na d",
      "tou fi",
      "val ou",
      "toufi k",
      "l liv",
      "ma ha",
      "il ien",
      "im ilien",
      "max imilien",
      "luc ille",
      "su lliv",
      "maha madou",
      "sulliv an",
      "ger main",
      "a ssim",
      "w assim",
      "y in",
      "re dou",
      "se yin",
      "pierre yves",
      "hu seyin",
      "redou ane",
      "h edi",
      "p re",
      "z ine",
      "pre scillia",
      "zine b",
      "b ab",
      "o elle",
      "mar ien",
      "dem ba",
      "bab eth",
      "marien oelle",
      "c al",
      "y cal",
      "fa ycal",
      "mail ys",
      "fan fan",
      "bou bou",
      "ro t",
      "do rine",
      "ba kar",
      "pier rot",
      "ka is",
      "bakar y",
      "c ric",
      "vio laine",
      "cric ri",
      "e ri",
      "f iane",
      "h ou",
      "ch eri",
      "luc ienne",
      "sou fiane",
      "hou ria",
      "cheri f",
      "a issa",
      "marie jose",
      "c en",
      "je je",
      "lah cen",
      "t ah",
      "ma guy",
      "tah ar",
      "m il",
      "ss ou",
      "ou d",
      "you ssou",
      "mil oud",
      "youssou f",
      "marie line",
      "ly siane",
      "marie paule",
      "na ss",
      "gwen ael",
      "a p",
      "c er",
      "l line",
      "o lline",
      "na cer",
      "ap olline",
      "h em",
      "guil hem",
      "kyl lian",
      "guy laine",
      "erw ann",
      "ma lo",
      "la ss",
      "lass ana",
      "cha ima",
      "marie francoise",
      "jean noel",
      "p ard",
      "s pard",
      "ga spard",
      "dam s",
      "e tte",
      "g w",
      "h adrien",
      "la dy",
      "sylv ette",
      "timo the",
      "gw lady",
      "gwlady s",
      "f rid",
      "p rien",
      "el io",
      "cy prien",
      "virg ile",
      "wil frid",
      "elio tt",
      "o ra",
      "en ora",
      "marie jo",
      "ber ange",
      "imen e",
      "berange re",
      "s ile",
      "ba sile",
      "da s",
      "gil das",
      "oph ile",
      "the ophile",
      "ly es",
      "mu mu",
      "h ina",
      "ka hina",
      "did ine",
      "gwen dal",
      "b ane",
      "ma ric",
      "al bane",
      "ro maric",
      "sylva ine",
      "sole nn",
      "s li",
      "st el",
      "chry stel",
      "sli mane",
      "m eline",
      "se go",
      "sego lene",
      "p ine",
      "philip pine",
      "lou d",
      "med hi",
      "mou loud",
      "e i",
      "ti bo",
      "kh ei",
      "mam s",
      "khei ra",
      "my my",
      "ph anie",
      "au riane",
      "ti phanie",
      "fou ed",
      "ie s",
      "il ies",
      "n ne",
      "t y",
      "lou ane",
      "sole nne",
      "ty phaine",
      "r el",
      "pier rel",
      "to f",
      "ou is",
      "pierrel ouis",
      "si rine",
      "g ar",
      "l lau",
      "an ce",
      "ma llau",
      "so iz",
      "victo rien",
      "gar ance",
      "mallau ry",
      "soiz ic",
      "lou anne",
      "d je"
    ]
  }
}