{
  "version": "1.0",
  "truncation": null,
  "padding": null,
  "added_tokens": [
    {
      "id": 0,
      "content": "[UNK]",
      "single_word": false,
      "lstrip": false,
      "rstrip": false,
      "normalized": false,
      "special": true
    },
    {
      "id": 1,
      "content": "[CLS]",
      "single_word": false,
      "lstrip": false,
      "rstrip": false,
      "normalized": false,
      "special": true
    },
    {
      "id": 2,
      "content": "[SEP]",
      "single_word": false,
      "lstrip": false,
      "rstrip": false,
      "normalized": false,
      "special": true
    },
    {
      "id": 3,
      "content": "[PAD]",
      "single_word": false,
      "lstrip": false,
      "rstrip": false,
      "normalized": false,
      "special": true
    },
    {
      "id": 4,
      "content": "[MASK]",
      "single_word": false,
      "lstrip": false,
      "rstrip": false,
      "normalized": false,
      "special": true
    }
  ],
  "normalizer": null,
  "pre_tokenizer": {
    "type": "Whitespace"
  },
  "post_processor": null,
  "decoder": null,
  "model": {
    "type": "BPE",
    "dropout": null,
    "unk_token": "[UNK]",
    "continuing_subword_prefix": null,
    "end_of_word_suffix": null,
    "fuse_unk": false,
    "vocab": {
      "[UNK]": 0,
      "[CLS]": 1,
      "[SEP]": 2,
      "[PAD]": 3,
      "[MASK]": 4,
      "-": 5,
      "a": 6,
      "b": 7,
      "c": 8,
      "d": 9,
      "e": 10,
      "f": 11,
      "g": 12,
      "h": 13,
      "i": 14,
      "j": 15,
      "k": 16,
      "l": 17,
      "m": 18,
      "n": 19,
      "o": 20,
      "p": 21,
      "q": 22,
      "r": 23,
      "s": 24,
      "t": 25,
      "u": 26,
      "v": 27,
      "w": 28,
      "x": 29,
      "y": 30,
      "z": 31,
      "an": 32,
      "el": 33,
      "ma": 34,
      "na": 35,
      "ia": 36,
      "us": 37,
      "en": 38,
      "er": 39,
      "jo": 40,
      "on": 41,
      "es": 42,
      "il": 43,
      "ha": 44,
      "in": 45,
      "ri": 46,
      "da": 47,
      "et": 48,
      "ina": 49,
      "ul": 50,
      "sa": 51,
      "mar": 52,
      "as": 53,
      "le": 54,
      "ic": 55,
      "joh": 56,
      "im": 57,
      "ra": 58,
      "se": 59,
      "re": 60,
      "pa": 61,
      "th": 62,
      "ka": 63,
      "and": 64,
      "ab": 65,
      "to": 66,
      "johan": 67,
      "la": 68,
      "ja": 69,
      "ang": 70,
      "lo": 71,
      "hel": 72,
      "paul": 73,
      "hil": 74,
      "eni": 75,
      "pet": 76,
      "mart": 77,
      "ta": 78,
      "id": 79,
      "jose": 80,
      "maria": 81,
      "ine": 82,
      "ph": 83,
      "em": 84,
      "ro": 85,
      "nes": 86,
      "eli": 87,
      "te": 88,
      "nda": 89,
      "mon": 90,
      "ck": 91,
      "ly": 92,
      "li": 93,
      "ar": 94,
      "nd": 95,
      "al": 96,
      "sim": 97,
      "lu": 98,
      "wil": 99,
      "tus": 100,
      "ias": 101,
      "ris": 102,
      "john": 103,
      "ya": 104,
      "ch": 105,
      "joseph": 106,
      "sel": 107,
      "johannes": 108,
      "har": 109,
      "enn": 110,
      "martha": 111,
      "andre": 112,
      "selma": 113,
      "anna": 114,
      "or": 115,
      "ela": 116,
      "fr": 117,
      "eth": 118,
      "the": 119,
      "dav": 120,
      "un": 121,
      "fran": 122,
      "ik": 123,
      "ter": 124,
      "sy": 125,
      "vic": 126,
      "eliz": 127,
      "uel": 128,
      "mas": 129,
      "david": 130,
      "ert": 131,
      "ie": 132,
      "man": 133,
      "rus": 134,
      "sh": 135,
      "is": 136,
      "paulus": 137,
      "son": 138,
      "be": 139,
      "chris": 140,
      "abeth": 141,
      "elizabeth": 142,
      "me": 143,
      "frans": 144,
      "mag": 145,
      "simon": 146,
      "ge": 147,
      "go": 148,
      "rina": 149,
      "co": 150,
      "petrus": 151,
      "ce": 152,
      "dia": 153,
      "ester": 154,
      "os": 155,
      "ria": 156,
      "ti": 157,
      "mic": 158,
      "ena": 159,
      "ula": 160,
      "char": 161,
      "bert": 162,
      "ndap": 163,
      "ed": 164,
      "jul": 165,
      "mathe": 166,
      "tang": 167,
      "ilia": 168,
      "ne": 169,
      "wa": 170,
      "haf": 171,
      "ani": 172,
      "end": 173,
      "johanna": 174,
      "lia": 175,
      "andreas": 176,
      "fri": 177,
      "cky": 178,
      "ica": 179,
      "helena": 180,
      "mb": 181,
      "mari": 182,
      "ide": 183,
      "ol": 184,
      "victo": 185,
      "tu": 186,
      "fil": 187,
      "hael": 188,
      "michael": 189,
      "martin": 190,
      "luc": 191,
      "via": 192,
      "ru": 193,
      "eras": 194,
      "peter": 195,
      "sam": 196,
      "enny": 197,
      "ust": 198,
      "jona": 199,
      "ana": 200,
      "ben": 201,
      "tho": 202,
      "ika": 203,
      "ev": 204,
      "jam": 205,
      "dani": 206,
      "daniel": 207,
      "ene": 208,
      "lin": 209,
      "thomas": 210,
      "ndes": 211,
      "mos": 212,
      "moses": 213,
      "ir": 214,
      "iv": 215,
      "fes": 216,
      "nic": 217,
      "just": 218,
      "nel": 219,
      "kas": 220,
      "nang": 221,
      "julia": 222,
      "hilma": 223,
      "eda": 224,
      "frieda": 225,
      "ky": 226,
      "paulina": 227,
      "una": 228,
      "gab": 229,
      "imman": 230,
      "immanuel": 231,
      "ongo": 232,
      "ca": 233,
      "ste": 234,
      "isa": 235,
      "ard": 236,
      "lukas": 237,
      "ndesh": 238,
      "ther": 239,
      "cy": 240,
      "ver": 241,
      "ona": 242,
      "ley": 243,
      "erastus": 244,
      "mer": 245,
      "mu": 246,
      "ius": 247,
      "ess": 248,
      "loide": 249,
      "hend": 250,
      "esia": 251,
      "lau": 252,
      "jaco": 253,
      "eon": 254,
      "mathew": 255,
      "salo": 256,
      "line": 257,
      "albert": 258,
      "rosa": 259,
      "su": 260,
      "lemon": 261,
      "syl": 262,
      "jonas": 263,
      "lydia": 264,
      "emil": 265,
      "ton": 266,
      "ren": 267,
      "samuel": 268,
      "aina": 269,
      "ke": 270,
      "josef": 271,
      "hafeni": 272,
      "jas": 273,
      "jason": 274,
      "magg": 275,
      "pr": 276,
      "prin": 277,
      "festus": 278,
      "riel": 279,
      "gabriel": 280,
      "imi": 281,
      "ger": 282,
      "po": 283,
      "jer": 284,
      "pand": 285,
      "victoria": 286,
      "lem": 287,
      "tri": 288,
      "patri": 289,
      "ewa": 290,
      "laudia": 291,
      "ry": 292,
      "ii": 293,
      "fillemon": 294,
      "elao": 295,
      "fre": 296,
      "fred": 297,
      "sara": 298,
      "so": 299,
      "hileni": 300,
      "vicky": 301,
      "elias": 302,
      "cilia": 303,
      "sylvia": 304,
      "mat": 305,
      "orge": 306,
      "george": 307,
      "matheus": 308,
      "ven": 309,
      "jun": 310,
      "ga": 311,
      "ale": 312,
      "alex": 313,
      "ino": 314,
      "emilia": 315,
      "veron": 316,
      "chel": 317,
      "rachel": 318,
      "iku": 319,
      "lucia": 320,
      "ndapewa": 321,
      "penny": 322,
      "ike": 323,
      "ho": 324,
      "vin": 325,
      "titus": 326,
      "tas": 327,
      "esther": 328,
      "tangeni": 329,
      "ham": 330,
      "christ": 331,
      "charl": 332,
      "ty": 333,
      "albertina": 334,
      "ima": 335,
      "lip": 336,
      "lena": 337,
      "dy": 338,
      "di": 339,
      "linda": 340,
      "helm": 341,
      "wilhelm": 342,
      "salom": 343,
      "raham": 344,
      "abraham": 345,
      "monica": 346,
      "jacob": 347,
      "sacky": 348,
      "ndin": 349,
      "car": 350,
      "steven": 351,
      "rauna": 352,
      "ner": 353,
      "op": 354,
      "ara": 355,
      "saara": 356,
      "andrew": 357,
      "io": 358,
      "elago": 359,
      "ama": 360,
      "mike": 361,
      "tomas": 362,
      "victor": 363,
      "nico": 364,
      "bias": 365,
      "simeon": 366,
      "oli": 367,
      "maggy": 368,
      "olivia": 369,
      "andula": 370,
      "ndapandula": 371,
      "rosalia": 372,
      "james": 373,
      "imo": 374,
      "saima": 375,
      "teus": 376,
      "cia": 377,
      "willem": 378,
      "mario": 379,
      "tul": 380,
      "anus": 381,
      "rd": 382,
      "sil": 383,
      "leona": 384,
      "leonard": 385,
      "we": 386,
      "josephine": 387,
      "hendrina": 388,
      "ndeshi": 389,
      "qu": 390,
      "ini": 391,
      "sha": 392,
      "imm": 393,
      "ssy": 394,
      "tobias": 395,
      "gra": 396,
      "grace": 397,
      "petrina": 398,
      "monika": 399,
      "elia": 400,
      "ek": 401,
      "emily": 402,
      "hen": 403,
      "angula": 404,
      "hard": 405,
      "he": 406,
      "ny": 407,
      "if": 408,
      "vi": 409,
      "pi": 410,
      "bea": 411,
      "ing": 412,
      "mi": 413,
      "timo": 414,
      "nangula": 415,
      "de": 416,
      "anton": 417,
      "tasha": 418,
      "trina": 419,
      "katrina": 420,
      "ot": 421,
      "my": 422,
      "phil": 423,
      "elly": 424,
      "ko": 425,
      "resia": 426,
      "vis": 427,
      "ten": 428,
      "anda": 429,
      "richar": 430,
      "richard": 431,
      "emia": 432,
      "mus": 433,
      "iya": 434,
      "pandu": 435,
      "bi": 436,
      "elina": 437,
      "risto": 438,
      "karia": 439,
      "gide": 440,
      "gideon": 441,
      "helle": 442,
      "ano": 443,
      "ikongo": 444,
      "tuy": 445,
      "charles": 446,
      "imms": 447,
      "vil": 448,
      "ice": 449,
      "ndina": 450,
      "her": 451,
      "herman": 452,
      "sus": 453,
      "une": 454,
      "gerson": 455,
      "piet": 456,
      "bet": 457,
      "tresia": 458,
      "edw": 459,
      "patrick": 460,
      "fta": 461,
      "natang": 462,
      "natangwe": 463,
      "gina": 464,
      "elda": 465,
      "regina": 466,
      "shi": 467,
      "tenya": 468,
      "des": 469,
      "olina": 470,
      "opolina": 471,
      "robert": 472,
      "jossy": 473,
      "claudia": 474,
      "ron": 475,
      "alf": 476,
      "hafa": 477,
      "silas": 478,
      "cess": 479,
      "princess": 480,
      "mbo": 481,
      "lucas": 482,
      "veronica": 483,
      "rebe": 484,
      "zar": 485,
      "lazar": 486,
      "lazarus": 487,
      "tuhafeni": 488,
      "sakaria": 489,
      "fas": 490,
      "dalena": 491,
      "magdalena": 492,
      "nelly": 493,
      "ug": 494,
      "shikongo": 495,
      "emma": 496,
      "nata": 497,
      "eus": 498,
      "fransina": 499,
      "betty": 500,
      "michelle": 501,
      "diana": 502,
      "prince": 503,
      "nango": 504,
      "soph": 505,
      "mutenya": 506,
      "kenn": 507,
      "jack": 508,
      "ndeshy": 509,
      "ior": 510,
      "kia": 511,
      "joe": 512,
      "junior": 513,
      "lipus": 514,
      "ndinelao": 515,
      "giv": 516,
      "kon": 517,
      "anca": 518,
      "bianca": 519,
      "given": 520,
      "kond": 521,
      "jacky": 522,
      "magano": 523,
      "aune": 524,
      "max": 525,
      "christine": 526,
      "joel": 527,
      "tina": 528,
      "ruben": 529,
      "natasha": 530,
      "nafta": 531,
      "mond": 532,
      "cecilia": 533,
      "jeremia": 534,
      "hendri": 535,
      "st": 536,
      "ndahafa": 537,
      "bertha": 538,
      "edward": 539,
      "jess": 540,
      "secilia": 541,
      "jessica": 542,
      "ash": 543,
      "lah": 544,
      "alina": 545,
      "justina": 546,
      "ise": 547,
      "fina": 548,
      "ku": 549,
      "visa": 550,
      "lavin": 551,
      "lovisa": 552,
      "lavinia": 553,
      "linus": 554,
      "helvi": 555,
      "ime": 556,
      "cen": 557,
      "mbe": 558,
      "mir": 559,
      "ell": 560,
      "cent": 561,
      "mirjam": 562,
      "ser": 563,
      "asser": 564,
      "rose": 565,
      "klaudia": 566,
      "ld": 567,
      "charma": 568,
      "teopolina": 569,
      "natalia": 570,
      "ail": 571,
      "hilya": 572,
      "oscar": 573,
      "jackson": 574,
      "han": 575,
      "patricia": 576,
      "pin": 577,
      "pinge": 578,
      "wer": 579,
      "vilho": 580,
      "werner": 581,
      "kristo": 582,
      "ad": 583,
      "mati": 584,
      "kamati": 585,
      "kka": 586,
      "mmy": 587,
      "tommy": 588,
      "cor": 589,
      "roline": 590,
      "julius": 591,
      "caroline": 592,
      "matias": 593,
      "usa": 594,
      "hamb": 595,
      "kauna": 596,
      "taimi": 597,
      "johnny": 598,
      "mercy": 599,
      "sarah": 600,
      "susan": 601,
      "reen": 602,
      "anga": 603,
      "loo": 604,
      "eva": 605,
      "iyaloo": 606,
      "laimi": 607,
      "junias": 608,
      "laina": 609,
      "nelson": 610,
      "card": 611,
      "ricard": 612,
      "ricardo": 613,
      "fo": 614,
      "ibe": 615,
      "ind": 616,
      "tuyeni": 617,
      "sophia": 618,
      "foibe": 619,
      "elifas": 620,
      "usiku": 621,
      "ileni": 622,
      "inda": 623,
      "tate": 624,
      "nan": 625,
      "omi": 626,
      "naomi": 627,
      "leena": 628,
      "nancy": 629,
      "neli": 630,
      "sie": 631,
      "uha": 632,
      "rauha": 633,
      "von": 634,
      "yvon": 635,
      "yvonne": 636,
      "va": 637,
      "sand": 638,
      "anan": 639,
      "sandra": 640,
      "ananias": 641,
      "pen": 642,
      "penda": 643,
      "pris": 644,
      "shil": 645,
      "lucky": 646,
      "shilongo": 647,
      "sem": 648,
      "ruth": 649,
      "ag": 650,
      "dne": 651,
      "agnes": 652,
      "dney": 653,
      "bard": 654,
      "men": 655,
      "ones": 656,
      "wilbard": 657,
      "marie": 658,
      "theresia": 659,
      "onesmus": 660,
      "toini": 661,
      "elise": 662,
      "gerhard": 663,
      "pieter": 664,
      "abed": 665,
      "olf": 666,
      "pene": 667,
      "charmaine": 668,
      "eric": 669,
      "nicky": 670,
      "eliaser": 671,
      "deon": 672,
      "alfeus": 673,
      "fa": 674,
      "nangolo": 675,
      "jenny": 676,
      "fessy": 677,
      "shar": 678,
      "sharon": 679,
      "py": 680,
      "mateus": 681,
      "riaan": 682,
      "eun": 683,
      "eline": 684,
      "ruusa": 685,
      "eveline": 686,
      "hambel": 687,
      "josu": 688,
      "aria": 689,
      "wilhelmina": 690,
      "josua": 691,
      "lie": 692,
      "nesto": 693,
      "willia": 694,
      "justine": 695,
      "naftal": 696,
      "william": 697,
      "aman": 698,
      "kev": 699,
      "hilde": 700,
      "aron": 701,
      "amanda": 702,
      "kevin": 703,
      "no": 704,
      "sake": 705,
      "beata": 706,
      "timoteus": 707,
      "sakeus": 708,
      "liina": 709,
      "veronika": 710,
      "mael": 711,
      "ismael": 712,
      "fillipus": 713,
      "linea": 714,
      "uleni": 715,
      "toiv": 716,
      "rud": 717,
      "panduleni": 718,
      "toivo": 719,
      "jan": 720,
      "mw": 721,
      "wend": 722,
      "christa": 723,
      "wendy": 724,
      "joice": 725,
      "rejoice": 726,
      "ndapanda": 727,
      "fia": 728,
      "jenn": 729,
      "sofia": 730,
      "henry": 731,
      "ifer": 732,
      "jennifer": 733,
      "aya": 734,
      "jes": 735,
      "ve": 736,
      "inus": 737,
      "los": 738,
      "nday": 739,
      "sunday": 740,
      "carlos": 741,
      "jesaya": 742,
      "abel": 743,
      "tangi": 744,
      "mala": 745,
      "marius": 746,
      "ronel": 747,
      "malakia": 748,
      "abner": 749,
      "theo": 750,
      "tius": 751,
      "lahja": 752,
      "mona": 753,
      "ndamona": 754,
      "denn": 755,
      "justy": 756,
      "dennis": 757,
      "ashley": 758,
      "anuel": 759,
      "col": 760,
      "fanus": 761,
      "stefanus": 762,
      "isai": 763,
      "phillip": 764,
      "ef": 765,
      "raim": 766,
      "nde": 767,
      "heno": 768,
      "efraim": 769,
      "fel": 770,
      "pala": 771,
      "mariah": 772,
      "magr": 773,
      "hendrik": 774,
      "bel": 775,
      "belinda": 776,
      "anley": 777,
      "benjam": 778,
      "iita": 779,
      "stanley": 780,
      "benjamin": 781,
      "cio": 782,
      "fet": 783,
      "pre": 784,
      "jafet": 785,
      "nelius": 786,
      "cious": 787,
      "precious": 788,
      "maggie": 789,
      "amalia": 790,
      "illa": 791,
      "lou": 792,
      "math": 793,
      "sal": 794,
      "paula": 795,
      "que": 796,
      "mathias": 797,
      "teo": 798,
      "irene": 799,
      "nelia": 800,
      "kus": 801,
      "ilime": 802,
      "markus": 803,
      "ndilime": 804,
      "willy": 805,
      "ndilimeke": 806,
      "hau": 807,
      "jerry": 808,
      "hol": 809,
      "iam": 810,
      "inhol": 811,
      "reinhol": 812,
      "simson": 813,
      "meriam": 814,
      "reinhold": 815,
      "leo": 816,
      "absalom": 817,
      "lisa": 818,
      "josephina": 819,
      "has": 820,
      "amon": 821,
      "cca": 822,
      "van": 823,
      "christo": 824,
      "rebecca": 825,
      "bri": 826,
      "dan": 827,
      "brian": 828,
      "til": 829,
      "edy": 830,
      "ottil": 831,
      "kennedy": 832,
      "ottilie": 833,
      "mary": 834,
      "lee": 835,
      "ango": 836,
      "meke": 837,
      "eddy": 838,
      "ndinelago": 839,
      "nand": 840,
      "leon": 841,
      "franco": 842,
      "francois": 843,
      "lus": 844,
      "elvis": 845,
      "lusia": 846,
      "ellen": 847,
      "gabes": 848,
      "nestor": 849,
      "mem": 850,
      "angela": 851,
      "ory": 852,
      "isak": 853,
      "memory": 854,
      "flo": 855,
      "iana": 856,
      "christi": 857,
      "juliana": 858,
      "rence": 859,
      "vaino": 860,
      "florence": 861,
      "christian": 862,
      "kor": 863,
      "lucy": 864,
      "fi": 865,
      "tha": 866,
      "alma": 867,
      "antonio": 868,
      "fiina": 869,
      "apo": 870,
      "ig": 871,
      "than": 872,
      "jonathan": 873,
      "kie": 874,
      "ennie": 875,
      "ivan": 876,
      "wal": 877,
      "naem": 878,
      "walter": 879,
      "naemi": 880,
      "hert": 881,
      "rid": 882,
      "ingrid": 883,
      "hertha": 884,
      "kelly": 885,
      "mel": 886,
      "ody": 887,
      "tte": 888,
      "rael": 889,
      "lotte": 890,
      "pauline": 891,
      "israel": 892,
      "charlotte": 893,
      "melody": 894,
      "hangula": 895,
      "etu": 896,
      "alfred": 897,
      "freddy": 898,
      "nelao": 899,
      "pine": 900,
      "alet": 901,
      "ber": 902,
      "kristofina": 903,
      "meno": 904,
      "bb": 905,
      "ita": 906,
      "bby": 907,
      "nadia": 908,
      "marten": 909,
      "jero": 910,
      "zelda": 911,
      "bl": 912,
      "marth": 913,
      "ros": 914,
      "wilka": 915,
      "bon": 916,
      "rena": 917,
      "yambe": 918,
      "iipinge": 919,
      "cilla": 920,
      "ped": 921,
      "ander": 922,
      "justin": 923,
      "alexander": 924,
      "desmond": 925,
      "priscilla": 926,
      "pedro": 927,
      "visto": 928,
      "eino": 929,
      "inri": 930,
      "hilaria": 931,
      "heinri": 932,
      "rebekka": 933,
      "eunice": 934,
      "heinrich": 935,
      "ureen": 936,
      "maureen": 937,
      "wilika": 938,
      "dave": 939,
      "tuwilika": 940,
      "hans": 941,
      "magreth": 942,
      "ppy": 943,
      "happy": 944,
      "imelda": 945,
      "karen": 946,
      "rome": 947,
      "thew": 948,
      "masiku": 949,
      "matthew": 950,
      "jacobina": 951,
      "romeo": 952,
      "sias": 953,
      "yo": 954,
      "nald": 955,
      "ronald": 956,
      "elize": 957,
      "ronaldo": 958,
      "nu": 959,
      "pius": 960,
      "angel": 961,
      "rodney": 962,
      "josefina": 963,
      "christina": 964,
      "fiku": 965,
      "emus": 966,
      "johny": 967,
      "haufiku": 968,
      "cand": 969,
      "lly": 970,
      "candy": 971,
      "sonia": 972,
      "mercia": 973,
      "aug": 974,
      "eug": 975,
      "ire": 976,
      "nelago": 977,
      "ua": 978,
      "josh": 979,
      "essa": 980,
      "helen": 981,
      "manfred": 982,
      "erasmus": 983,
      "desire": 984,
      "vanessa": 985,
      "eugene": 986,
      "joshua": 987,
      "desiree": 988,
      "ymond": 989,
      "raymond": 990,
      "bever": 991,
      "mariana": 992,
      "suama": 993,
      "beverly": 994,
      "bra": 995,
      "cqu": 996,
      "fab": 997,
      "gert": 998,
      "mo": 999,
      "inno": 1000,
      "sea": 1001,
      "jacqu": 1002,
      "fredri": 1003,
      "hosea": 1004,
      "vincent": 1005,
      "shaun": 1006,
      "otto": 1007,
      "rudolf": 1008,
      "innocent": 1009,
      "jacques": 1010,
      "mba": 1011,
      "wilma": 1012,
      "anita": 1013,
      "ip": 1014,
      "ith": 1015,
      "sonja": 1016,
      "nicole": 1017,
      "faith": 1018,
      "collin": 1019,
      "bo": 1020,
      "kwa": 1021,
      "nat": 1022,
      "hausiku": 1023,
      "abisai": 1024,
      "aili": 1025,
      "kwaya": 1026,
      "olga": 1027,
      "indileni": 1028,
      "shir": 1029,
      "cota": 1030,
      "shirley": 1031,
      "ila": 1032,
      "bren": 1033,
      "tra": 1034,
      "ant": 1035,
      "onga": 1036,
      "petra": 1037,
      "chant": 1038,
      "mekond": 1039,
      "tulonga": 1040,
      "brenda": 1041,
      "tracy": 1042,
      "mekondjo": 1043,
      "fried": 1044,
      "zel": 1045,
      "uma": 1046,
      "ute": 1047,
      "shiv": 1048,
      "hafo": 1049,
      "penehafo": 1050,
      "shivute": 1051,
      "eben": 1052,
      "tuli": 1053,
      "kenneth": 1054,
      "gif": 1055,
      "kle": 1056,
      "les": 1057,
      "onia": 1058,
      "lea": 1059,
      "opas": 1060,
      "gift": 1061,
      "kleopas": 1062,
      "lesley": 1063,
      "pe": 1064,
      "willie": 1065,
      "lineek": 1066,
      "lineekela": 1067,
      "mwa": 1068,
      "yce": 1069,
      "joyce": 1070,
      "emilie": 1071,
      "sarafina": 1072,
      "got": 1073,
      "benny": 1074,
      "ique": 1075,
      "uk": 1076,
      "ili": 1077,
      "monique": 1078,
      "mbili": 1079,
      "ustinus": 1080,
      "pombili": 1081,
      "iaan": 1082,
      "kaino": 1083,
      "lame": 1084,
      "emilly": 1085,
      "emmy": 1086,
      "henock": 1087,
      "fanuel": 1088,
      "nth": 1089,
      "eleni": 1090,
      "erika": 1091,
      "sack": 1092,
      "aster": 1093,
      "she": 1094,
      "ndessy": 1095,
      "cynth": 1096,
      "diina": 1097,
      "hambeleleni": 1098,
      "asteria": 1099,
      "cynthia": 1100,
      "wid": 1101,
      "yela": 1102,
      "job": 1103,
      "dawid": 1104,
      "unyela": 1105,
      "evelina": 1106,
      "br": 1107,
      "nik": 1108,
      "ola": 1109,
      "pau": 1110,
      "andon": 1111,
      "ndara": 1112,
      "mee": 1113,
      "brandon": 1114,
      "olavi": 1115,
      "elsie": 1116,
      "jie": 1117,
      "lene": 1118,
      "marlene": 1119,
      "mathews": 1120,
      "iyambo": 1121,
      "naka": 1122,
      "salome": 1123,
      "nakale": 1124,
      "let": 1125,
      "marry": 1126,
      "fenny": 1127,
      "ipinge": 1128,
      "sia": 1129,
      "elton": 1130,
      "nam": 1131,
      "ence": 1132,
      "loini": 1133,
      "hilja": 1134,
      "pinehas": 1135,
      "jerome": 1136,
      "kkie": 1137,
      "win": 1138,
      "erwin": 1139,
      "hamutenya": 1140,
      "vistorina": 1141,
      "ura": 1142,
      "jus": 1143,
      "kela": 1144,
      "tz": 1145,
      "yambo": 1146,
      "fritz": 1147,
      "mervin": 1148,
      "iiyambo": 1149,
      "justus": 1150,
      "demus": 1151,
      "gu": 1152,
      "eny": 1153,
      "luise": 1154,
      "mega": 1155,
      "tangy": 1156,
      "erassy": 1157,
      "nangy": 1158,
      "essing": 1159,
      "tully": 1160,
      "cornelia": 1161,
      "blessing": 1162,
      "megameno": 1163,
      "do": 1164,
      "mor": 1165,
      "elhe": 1166,
      "erna": 1167,
      "adelhe": 1168,
      "doreen": 1169,
      "morne": 1170,
      "adelheid": 1171,
      "amutenya": 1172,
      "natius": 1173,
      "phanus": 1174,
      "lisias": 1175,
      "stephanus": 1176,
      "ignatius": 1177,
      "imy": 1178,
      "ons": 1179,
      "seun": 1180,
      "alfons": 1181,
      "louise": 1182,
      "dir": 1183,
      "petronel": 1184,
      "iola": 1185,
      "fabiola": 1186,
      "dirk": 1187,
      "petronella": 1188,
      "arina": 1189,
      "kaarina": 1190,
      "kim": 1191,
      "leev": 1192,
      "anael": 1193,
      "eliakim": 1194,
      "natanael": 1195,
      "leevi": 1196,
      "rra": 1197,
      "lorra": 1198,
      "hilia": 1199,
      "romario": 1200,
      "ndahambel": 1201,
      "benhard": 1202,
      "lorraine": 1203,
      "ndahambelela": 1204,
      "hango": 1205,
      "sir": 1206,
      "nally": 1207,
      "paules": 1208,
      "taa": 1209,
      "cornelius": 1210,
      "tre": 1211,
      "vor": 1212,
      "anika": 1213,
      "filip": 1214,
      "shaanika": 1215,
      "peneyambe": 1216,
      "aletta": 1217,
      "trevor": 1218,
      "peneyambeko": 1219,
      "du": 1220,
      "yne": 1221,
      "esme": 1222,
      "shang": 1223,
      "wayne": 1224,
      "charlene": 1225,
      "leni": 1226,
      "taleni": 1227,
      "bennie": 1228,
      "his": 1229,
      "nst": 1230,
      "ses": 1231,
      "ernst": 1232,
      "inton": 1233,
      "quinton": 1234,
      "dee": 1235,
      "jeremiah": 1236,
      "hiskia": 1237,
      "sesilia": 1238,
      "kius": 1239,
      "kelao": 1240,
      "len": 1241,
      "lonia": 1242,
      "ries": 1243,
      "riana": 1244,
      "andries": 1245,
      "likius": 1246,
      "selly": 1247,
      "susanna": 1248,
      "tuyenikelao": 1249,
      "imasiku": 1250,
      "simasiku": 1251,
      "sarus": 1252,
      "lasarus": 1253,
      "hilka": 1254,
      "hole": 1255,
      "hendrick": 1256,
      "ailly": 1257,
      "mand": 1258,
      "ume": 1259,
      "nevil": 1260,
      "isack": 1261,
      "salomo": 1262,
      "mandume": 1263,
      "neville": 1264,
      "cha": 1265,
      "umba": 1266,
      "lieb": 1267,
      "vanus": 1268,
      "kamw": 1269,
      "muron": 1270,
      "mukwaya": 1271,
      "silvanus": 1272,
      "adolf": 1273,
      "danie": 1274,
      "kamwi": 1275,
      "muronga": 1276,
      "bonny": 1277,
      "jeni": 1278,
      "sydney": 1279,
      "beatha": 1280,
      "kondjeni": 1281,
      "kornelius": 1282,
      "dley": 1283,
      "panda": 1284,
      "anne": 1285,
      "matty": 1286,
      "ndeshipanda": 1287,
      "shiwa": 1288,
      "bradley": 1289,
      "annemarie": 1290,
      "oo": 1291,
      "shoo": 1292,
      "kes": 1293,
      "namutenya": 1294,
      "kamb": 1295,
      "jacobus": 1296,
      "phillipus": 1297,
      "beam": 1298,
      "kson": 1299,
      "seven": 1300,
      "armas": 1301,
      "prisk": 1302,
      "erickson": 1303,
      "gus": 1304,
      "hemia": 1305,
      "ipala": 1306,
      "vester": 1307,
      "icco": 1308,
      "tav": 1309,
      "chicco": 1310,
      "nehemia": 1311,
      "olene": 1312,
      "nicolene": 1313,
      "sylvester": 1314,
      "ashipala": 1315,
      "salmi": 1316,
      "gustav": 1317,
      "ao": 1318,
      "cina": 1319,
      "den": 1320,
      "kan": 1321,
      "stas": 1322,
      "wy": 1323,
      "war": 1324,
      "helao": 1325,
      "annastas": 1326,
      "francina": 1327,
      "nice": 1328,
      "bernice": 1329,
      "denzel": 1330,
      "warren": 1331,
      "annastasia": 1332,
      "andjo": 1333,
      "annacky": 1334,
      "ekandjo": 1335,
      "louren": 1336,
      "elmarie": 1337,
      "yapo": 1338,
      "isie": 1339,
      "meisie": 1340,
      "heita": 1341,
      "ndinah": 1342,
      "nangombe": 1343,
      "lahya": 1344,
      "ndeapo": 1345,
      "ndeyapo": 1346,
      "nande": 1347,
      "ey": 1348,
      "dhil": 1349,
      "eka": 1350,
      "tk": 1351,
      "aneka": 1352,
      "sebby": 1353,
      "japh": 1354,
      "simaneka": 1355,
      "annah": 1356,
      "ung": 1357,
      "amadhil": 1358,
      "young": 1359,
      "japhet": 1360,
      "amadhila": 1361,
      "am": 1362,
      "anor": 1363,
      "haing": 1364,
      "alwe": 1365,
      "endo": 1366,
      "salomon": 1367,
      "renate": 1368,
      "nuusiku": 1369,
      "nikanor": 1370,
      "nampa": 1371,
      "amunyela": 1372,
      "haingura": 1373,
      "alweendo": 1374,
      "kanda": 1375,
      "pewa": 1376,
      "imanuel": 1377,
      "filus": 1378,
      "kondja": 1379,
      "teofilus": 1380,
      "kandali": 1381,
      "amb": 1382,
      "etjie": 1383,
      "marietjie": 1384,
      "muko": 1385,
      "indongo": 1386,
      "kornelia": 1387,
      "rosius": 1388,
      "lamek": 1389,
      "ambrosius": 1390,
      "itha": 1391,
      "upe": 1392,
      "witha": 1393,
      "enos": 1394,
      "pati": 1395,
      "rossy": 1396,
      "shek": 1397,
      "linekela": 1398,
      "soini": 1399,
      "kristof": 1400,
      "roswitha": 1401,
      "patience": 1402,
      "shekupe": 1403,
      "wanga": 1404,
      "bus": 1405,
      "gw": 1406,
      "ann": 1407,
      "joann": 1408,
      "edha": 1409,
      "christiaan": 1410,
      "kobus": 1411,
      "shigw": 1412,
      "henok": 1413,
      "fredrick": 1414,
      "shigwedha": 1415,
      "gg": 1416,
      "get": 1417,
      "ity": 1418,
      "uste": 1419,
      "icity": 1420,
      "megg": 1421,
      "kuku": 1422,
      "eunike": 1423,
      "felicity": 1424,
      "auguste": 1425,
      "getrud": 1426,
      "meggy": 1427,
      "kefas": 1428,
      "shiimi": 1429,
      "naftali": 1430,
      "renathe": 1431,
      "ll": 1432,
      "vy": 1433,
      "zuma": 1434,
      "dall": 1435,
      "etuna": 1436,
      "kapandu": 1437,
      "helaria": 1438,
      "helvy": 1439,
      "alber": 1440,
      "otja": 1441,
      "reginald": 1442,
      "felus": 1443,
      "teofelus": 1444,
      "dallas": 1445,
      "albertus": 1446,
      "engu": 1447,
      "mbu": 1448,
      "matengu": 1449,
      "nicodemus": 1450,
      "elfried": 1451,
      "sakkie": 1452,
      "theopolina": 1453,
      "elfriede": 1454,
      "epa": 1455,
      "hennie": 1456,
      "emon": 1457,
      "roman": 1458,
      "fras": 1459,
      "filemon": 1460,
      "augustinus": 1461,
      "epafras": 1462,
      "romanus": 1463,
      "hona": 1464,
      "uus": 1465,
      "loise": 1466,
      "isia": 1467,
      "chantell": 1468,
      "letisia": 1469,
      "uushona": 1470,
      "bhard": 1471,
      "manga": 1472,
      "phas": 1473,
      "uyo": 1474,
      "eliphas": 1475,
      "gebhard": 1476,
      "irja": 1477,
      "nuuyo": 1478,
      "sirkka": 1479,
      "nuuyoma": 1480,
      "ambo": 1481,
      "non": 1482,
      "elle": 1483,
      "naambo": 1484,
      "eneni": 1485,
      "elisia": 1486,
      "iska": 1487,
      "fransiska": 1488,
      "tuna": 1489,
      "vernon": 1490,
      "hannes": 1491,
      "mweneni": 1492,
      "chantelle": 1493,
      "ansie": 1494,
      "pendapala": 1495,
      "salmon": 1496,
      "queeny": 1497,
      "fredrika": 1498,
      "av": 1499,
      "gfried": 1500,
      "hester": 1501,
      "haim": 1502,
      "paav": 1503,
      "annamarie": 1504,
      "koos": 1505,
      "adriaan": 1506,
      "siegfried": 1507,
      "collen": 1508,
      "bodi": 1509,
      "haimbodi": 1510,
      "paavo": 1511,
      "eha": 1512,
      "kongo": 1513,
      "niita": 1514,
      "maano": 1515,
      "selmah": 1516,
      "nekongo": 1517,
      "oleni": 1518,
      "miina": 1519,
      "tuyoleni": 1520,
      "sheeha": 1521,
      "sheehama": 1522,
      "atius": 1523,
      "sima": 1524,
      "tlieb": 1525,
      "laimy": 1526,
      "taun": 1527,
      "issy": 1528,
      "tulela": 1529,
      "ifatius": 1530,
      "phillemon": 1531,
      "bonifatius": 1532,
      "gottlieb": 1533,
      "simataa": 1534,
      "tauno": 1535,
      "hedw": 1536,
      "set": 1537,
      "hamukwaya": 1538,
      "chuma": 1539,
      "ruan": 1540,
      "wilhelmine": 1541,
      "immz": 1542,
      "sophy": 1543,
      "sheya": 1544,
      "hedwig": 1545,
      "setson": 1546,
      "clem": 1547,
      "oma": 1548,
      "oiv": 1549,
      "elsa": 1550,
      "ens": 1551,
      "lovis": 1552,
      "ndumba": 1553,
      "suoma": 1554,
      "hepo": 1555,
      "antonius": 1556,
      "shihepo": 1557,
      "aletha": 1558,
      "clemens": 1559,
      "oiva": 1560,
      "elsabe": 1561,
      "for": 1562,
      "tune": 1563,
      "ulik": 1564,
      "kach": 1565,
      "tuulik": 1566,
      "tinah": 1567,
      "mwaka": 1568,
      "shange": 1569,
      "fortune": 1570,
      "kachana": 1571,
      "tuuliki": 1572,
      "aino": 1573,
      "dor": 1574,
      "longo": 1575,
      "elri": 1576,
      "kave": 1577,
      "toya": 1578,
      "latoya": 1579,
      "tea": 1580,
      "shalongo": 1581,
      "kudu": 1582,
      "faustinus": 1583,
      "dortea": 1584,
      "elrico": 1585,
      "kavee": 1586,
      "kudumo": 1587,
      "nessy": 1588,
      "iko": 1589,
      "veiko": 1590,
      "cd": 1591,
      "fan": 1592,
      "lk": 1593,
      "mcd": 1594,
      "scha": 1595,
      "tta": 1596,
      "pax": 1597,
      "jala": 1598,
      "ndali": 1599,
      "cotta": 1600,
      "endjala": 1601,
      "onald": 1602,
      "pomw": 1603,
      "eks": 1604,
      "dankie": 1605,
      "etuhole": 1606,
      "fanie": 1607,
      "mcdonald": 1608,
      "schalk": 1609,
      "pomwene": 1610,
      "efta": 1611,
      "jefta": 1612,
      "keni": 1613,
      "nyambe": 1614,
      "olo": 1615,
      "pus": 1616,
      "namasiku": 1617,
      "joolo": 1618,
      "unik": 1619,
      "ndapunik": 1620,
      "hanneli": 1621,
      "filippus": 1622,
      "kambinda": 1623,
      "joolokeni": 1624,
      "ndapunikwa": 1625,
      "hannelie": 1626,
      "yen": 1627,
      "annel": 1628,
      "else": 1629,
      "hellena": 1630,
      "hafela": 1631,
      "friedah": 1632,
      "muyen": 1633,
      "charlton": 1634,
      "ndeshihafela": 1635,
      "corne": 1636,
      "peya": 1637,
      "lourens": 1638,
      "annely": 1639,
      "muyenga": 1640,
      "bas": 1641,
      "bar": 1642,
      "phelle": 1643,
      "nabas": 1644,
      "lep": 1645,
      "kali": 1646,
      "amakali": 1647,
      "hermanus": 1648,
      "fellep": 1649,
      "marthin": 1650,
      "kanime": 1651,
      "barnabas": 1652,
      "phellep": 1653,
      "bson": 1654,
      "eimo": 1655,
      "ebson": 1656,
      "kk": 1657,
      "pro": 1658,
      "rakk": 1659,
      "paulinus": 1660,
      "phine": 1661,
      "tasius": 1662,
      "shali": 1663,
      "tuyeimo": 1664,
      "nestory": 1665,
      "christophine": 1666,
      "brave": 1667,
      "priskila": 1668,
      "protasius": 1669,
      "rakkel": 1670,
      "dika": 1671,
      "fenn": 1672,
      "lle": 1673,
      "sin": 1674,
      "sis": 1675,
      "tiaan": 1676,
      "vula": 1677,
      "wel": 1678,
      "weni": 1679,
      "welly": 1680,
      "yuk": 1681,
      "anyuk": 1682,
      "josia": 1683,
      "asino": 1684,
      "johanes": 1685,
      "angi": 1686,
      "ndangi": 1687,
      "laudika": 1688,
      "nyanyuk": 1689,
      "destus": 1690,
      "modestus": 1691,
      "fenni": 1692,
      "llewelly": 1693,
      "sinvula": 1694,
      "sisco": 1695,
      "wellem": 1696,
      "nyanyukweni": 1697,
      "llewellyn": 1698,
      "ameno": 1699,
      "bbe": 1700,
      "panga": 1701,
      "shafa": 1702,
      "rebbe": 1703,
      "pawa": 1704,
      "hilkka": 1705,
      "meameno": 1706,
      "muku": 1707,
      "ryno": 1708,
      "shipanga": 1709,
      "kaunapawa": 1710,
      "letta": 1711,
      "filipus": 1712,
      "wynand": 1713,
      "rebbeka": 1714,
      "mukuve": 1715,
      "ew": 1716,
      "kula": 1717,
      "rel": 1718,
      "hali": 1719,
      "habeam": 1720,
      "sarel": 1721,
      "rehabeam": 1722,
      "hileny": 1723,
      "taimy": 1724,
      "lizel": 1725,
      "alta": 1726,
      "yakula": 1727,
      "theus": 1728,
      "teresia": 1729,
      "oshali": 1730,
      "ndapew": 1731,
      "tuyakula": 1732,
      "timotheus": 1733,
      "magret": 1734,
      "lameck": 1735,
      "shoopala": 1736,
      "lizelle": 1737,
      "ndapewoshali": 1738,
      "hu": 1739,
      "hem": 1740,
      "jila": 1741,
      "pha": 1742,
      "sikongo": 1743,
      "yol": 1744,
      "namba": 1745,
      "andi": 1746,
      "jakes": 1747,
      "taapo": 1748,
      "josepha": 1749,
      "wilhem": 1750,
      "nandjila": 1751,
      "pineas": 1752,
      "sackey": 1753,
      "mukoya": 1754,
      "yolandi": 1755,
      "nambahu": 1756,
      "taapopi": 1757,
      "josephat": 1758,
      "ckaria": 1759,
      "pend": 1760,
      "sen": 1761,
      "sackaria": 1762,
      "sebl": 1763,
      "tonata": 1764,
      "riah": 1765,
      "petersen": 1766,
      "shakes": 1767,
      "menesia": 1768,
      "ukeni": 1769,
      "pendukeni": 1770,
      "seblon": 1771,
      "hime": 1772,
      "jimi": 1773,
      "kand": 1774,
      "rias": 1775,
      "zen": 1776,
      "naango": 1777,
      "inana": 1778,
      "andrias": 1779,
      "ndally": 1780,
      "shinana": 1781,
      "nekwaya": 1782,
      "frikkie": 1783,
      "suzen": 1784,
      "sackeus": 1785,
      "dux": 1786,
      "shoombe": 1787,
      "himee": 1788,
      "kandjimi": 1789,
      "iu": 1790,
      "lab": 1791,
      "mp": 1792,
      "vas": 1793,
      "naita": 1794,
      "esmer": 1795,
      "abiu": 1796,
      "lohole": 1797,
      "hilen": 1798,
      "talohole": 1799,
      "pheus": 1800,
      "alpheus": 1801,
      "thobias": 1802,
      "ndeshie": 1803,
      "gervas": 1804,
      "pandeni": 1805,
      "saarah": 1806,
      "ingana": 1807,
      "charmain": 1808,
      "jerobeam": 1809,
      "shangelao": 1810,
      "laban": 1811,
      "mpingana": 1812,
      "esmerelda": 1813,
      "abiud": 1814,
      "gervasius": 1815,
      "him": 1816,
      "irus": 1817,
      "ze": 1818,
      "kati": 1819,
      "kahim": 1820,
      "jairus": 1821,
      "lysias": 1822,
      "tusnel": 1823,
      "ainah": 1824,
      "hamunyela": 1825,
      "hauwanga": 1826,
      "taati": 1827,
      "chaze": 1828,
      "kativa": 1829,
      "kahimbi": 1830,
      "tusnelde": 1831,
      "dusa": 1832,
      "odemus": 1833,
      "sca": 1834,
      "tie": 1835,
      "tjie": 1836,
      "nali": 1837,
      "naapo": 1838,
      "dai": 1839,
      "kabo": 1840,
      "annatjie": 1841,
      "medusa": 1842,
      "negu": 1843,
      "pohamb": 1844,
      "tendai": 1845,
      "bettie": 1846,
      "aily": 1847,
      "indila": 1848,
      "pye": 1849,
      "nikodemus": 1850,
      "scara": 1851,
      "naapopye": 1852,
      "kaboy": 1853,
      "medusalem": 1854,
      "negumbo": 1855,
      "pohamba": 1856,
      "gela": 1857,
      "kii": 1858,
      "pie": 1859,
      "nawa": 1860,
      "iata": 1861,
      "engela": 1862,
      "era": 1863,
      "haipinge": 1864,
      "abiata": 1865,
      "tobby": 1866,
      "tiel": 1867,
      "kasera": 1868,
      "lempie": 1869,
      "ronell": 1870,
      "saltiel": 1871,
      "priskilla": 1872,
      "wyk": 1873,
      "kiito": 1874,
      "abiatar": 1875,
      "cl": 1876,
      "pu": 1877,
      "uko": 1878,
      "erence": 1879,
      "hale": 1880,
      "ule": 1881,
      "ulo": 1882,
      "rebby": 1883,
      "kalo": 1884,
      "kauko": 1885,
      "ligo": 1886,
      "ikulo": 1887,
      "masule": 1888,
      "shetu": 1889,
      "shikulo": 1890,
      "nehale": 1891,
      "popy": 1892,
      "iipu": 1893,
      "philip": 1894,
      "jackey": 1895,
      "angala": 1896,
      "teopo": 1897,
      "clerence": 1898,
      "kalola": 1899,
      "ligola": 1900,
      "popyeni": 1901,
      "iipumbu": 1902,
      "philipus": 1903,
      "dh": 1904,
      "omagano": 1905,
      "pumba": 1906,
      "ska": 1907,
      "uer": 1908,
      "uug": 1909,
      "onde": 1910,
      "tutaleni": 1911,
      "isaska": 1912,
      "shapumba": 1913,
      "mwadh": 1914,
      "kambonde": 1915,
      "uerii": 1916,
      "uugwanga": 1917,
      "isaskar": 1918,
      "mwadhina": 1919,
      "afa": 1920,
      "jii": 1921,
      "metu": 1922,
      "temus": 1923,
      "uend": 1924,
      "uetu": 1925,
      "nakan": 1926,
      "riet": 1927,
      "ete": 1928,
      "thresia": 1929,
      "inekela": 1930,
      "ndamon": 1931,
      "ndaafa": 1932,
      "yala": 1933,
      "magriet": 1934,
      "tangos": 1935,
      "lauren": 1936,
      "menete": 1937,
      "sirka": 1938,
      "metumo": 1939,
      "uendjii": 1940,
      "uetuu": 1941,
      "nakanyala": 1942,
      "ndamono": 1943,
      "magrietha": 1944,
      "laurentius": 1945,
      "amukwaya": 1946,
      "ianus": 1947,
      "nsa": 1948,
      "uusiku": 1949,
      "namu": 1950,
      "haindongo": 1951,
      "etie": 1952,
      "ulu": 1953,
      "kalu": 1954,
      "kava": 1955,
      "kalen": 1956,
      "helal": 1957,
      "meek": 1958,
      "erasy": 1959,
      "marthinus": 1960,
      "fabianus": 1961,
      "boetie": 1962,
      "sackie": 1963,
      "namtenya": 1964,
      "nsala": 1965,
      "namupa": 1966,
      "kalumbu": 1967,
      "kavax": 1968,
      "kalenga": 1969,
      "helalia": 1970,
      "meekulu": 1971,
      "jek": 1972,
      "mang": 1973,
      "mun": 1974,
      "und": 1975,
      "hamuko": 1976,
      "tonat": 1977,
      "beuk": 1978,
      "mwale": 1979,
      "gotlieb": 1980,
      "jekonia": 1981,
      "mangund": 1982,
      "munango": 1983,
      "hamukoto": 1984,
      "tonateni": 1985,
      "beukes": 1986,
      "mangundu": 1987,
      "fn": 1988,
      "met": 1989,
      "sita": 1990,
      "uta": 1991,
      "nashilongo": 1992,
      "ere": 1993,
      "hatu": 1994,
      "pety": 1995,
      "tale": 1996,
      "tago": 1997,
      "phina": 1998,
      "arere": 1999,
      "unotja": 2000,
      "nepety": 2001,
      "kasanga": 2002,
      "nangura": 2003,
      "mubi": 2004,
      "hofn": 2005,
      "koku": 2006,
      "kristophina": 2007,
      "nokoku": 2008,
      "ndeuta": 2009,
      "dantago": 2010,
      "gotty": 2011,
      "lourencia": 2012,
      "metarere": 2013,
      "sitali": 2014,
      "hatutale": 2015,
      "unotjari": 2016,
      "mubita": 2017,
      "hofni": 2018,
      "nokokure": 2019,
      "ndeutapo": 2020
    },
    "merges": [
      "a n",
      "e l",
      "m a",
      "n a",
      "i a",
      "u s",
      "e n",
      "e r",
      "j o",
      "o n",
      "e s",
      "i l",
      "h a",
      "i n",
      "r i",
      "d a",
      "e t",
      "i na",
      "u l",
      "s a",
      "ma r",
      "a s",
      "l e",
      "i c",
      "jo h",
      "i m",
      "r a",
      "s e",
      "r e",
      "p a",
      "t h",
      "k a",
      "an d",
      "a b",
      "t o",
      "joh an",
      "l a",
      "j a",
      "an g",
      "l o",
      "h el",
      "pa ul",
      "h il",
      "en i",
      "p et",
      "mar t",
      "t a",
      "i d",
      "jo se",
      "mar ia",
      "in e",
      "p h",
      "e m",
      "r o",
      "n es",
      "el i",
      "t e",
      "n da",
      "m on",
      "c k",
      "l y",
      "l i",
      "a r",
      "n d",
      "a l",
      "s im",
      "l u",
      "w il",
      "t us",
      "ia s",
      "ri s",
      "joh n",
      "y a",
      "c h",
      "jose ph",
      "s el",
      "johan nes",
      "ha r",
      "en n",
      "mart ha",
      "and re",
      "sel ma",
      "an na",
      "o r",
      "el a",
      "f r",
      "et h",
      "th e",
      "da v",
      "u n",
      "fr an",
      "i k",
      "t er",
      "s y",
      "v ic",
      "eli z",
      "u el",
      "ma s",
      "dav id",
      "er t",
      "i e",
      "m an",
      "r us",
      "s h",
      "i s",
      "paul us",
      "s on",
      "b e",
      "ch ris",
      "ab eth",
      "eliz abeth",
      "m e",
      "fran s",
      "ma g",
      "sim on",
      "g e",
      "g o",
      "ri na",
      "c o",
      "pet rus",
      "c e",
      "d ia",
      "es ter",
      "o s",
      "r ia",
      "t i",
      "m ic",
      "e na",
      "ul a",
      "c har",
      "b ert",
      "nda p",
      "e d",
      "j ul",
      "ma the",
      "t ang",
      "il ia",
      "n e",
      "w a",
      "ha f",
      "an i",
      "en d",
      "johan na",
      "l ia",
      "andre as",
      "f ri",
      "ck y",
      "ic a",
      "hel ena",
      "m b",
      "ma ri",
      "id e",
      "o l",
      "vic to",
      "t u",
      "f il",
      "ha el",
      "mic hael",
      "mart in",
      "lu c",
      "v ia",
      "r u",
      "er as",
      "pet er",
      "sa m",
      "enn y",
      "us t",
      "jo na",
      "an a",
      "b en",
      "th o",
      "i ka",
      "e v",
      "ja m",
      "d ani",
      "dani el",
      "en e",
      "l in",
      "tho mas",
      "nd es",
      "m os",
      "mos es",
      "i r",
      "i v",
      "f es",
      "n ic",
      "j ust",
      "n el",
      "k as",
      "n ang",
      "jul ia",
      "hil ma",
      "e da",
      "fri eda",
      "k y",
      "paul ina",
      "u na",
      "g ab",
      "im man",
      "imman uel",
      "on go",
      "c a",
      "s te",
      "i sa",
      "ar d",
      "lu kas",
      "ndes h",
      "th er",
      "c y",
      "v er",
      "o na",
      "le y",
      "eras tus",
      "m er",
      "m u",
      "i us",
      "es s",
      "lo ide",
      "h end",
      "es ia",
      "la u",
      "ja co",
      "e on",
      "mathe w",
      "sa lo",
      "l ine",
      "al bert",
      "ro sa",
      "s u",
      "le mon",
      "sy l",
      "jona s",
      "ly dia",
      "em il",
      "t on",
      "r en",
      "sam uel",
      "a ina",
      "k e",
      "jose f",
      "haf eni",
      "j as",
      "jas on",
      "mag g",
      "p r",
      "pr in",
      "fes tus",
      "ri el",
      "gab riel",
      "im i",
      "g er",
      "p o",
      "j er",
      "p and",
      "victo ria",
      "le m",
      "t ri",
      "pa tri",
      "e wa",
      "lau dia",
      "r y",
      "i i",
      "fil lemon",
      "ela o",
      "f re",
      "fre d",
      "sa ra",
      "s o",
      "hil eni",
      "vic ky",
      "el ias",
      "c ilia",
      "syl via",
      "ma t",
      "or ge",
      "ge orge",
      "mathe us",
      "v en",
      "j un",
      "g a",
      "a le",
      "ale x",
      "in o",
      "em ilia",
      "ver on",
      "c hel",
      "ra chel",
      "ik u",
      "luc ia",
      "ndap ewa",
      "p enny",
      "ik e",
      "h o",
      "v in",
      "ti tus",
      "t as",
      "es ther",
      "tang eni",
      "ha m",
      "chris t",
      "char l",
      "t y",
      "albert ina",
      "i ma",
      "li p",
      "le na",
      "d y",
      "d i",
      "lin da",
      "hel m",
      "wil helm",
      "salo m",
      "ra ham",
      "ab raham",
      "mon ica",
      "jaco b",
      "sa cky",
      "nd in",
      "c ar",
      "ste ven",
      "ra una",
      "n er",
      "o p",
      "a ra",
      "sa ara",
      "andre w",
      "i o",
      "ela go",
      "a ma",
      "m ike",
      "to mas",
      "victo r",
      "nic o",
      "b ias",
      "sim eon",
      "o li",
      "magg y",
      "oli via",
      "and ula",
      "ndap andula",
      "rosa lia",
      "jam es",
      "im o",
      "sa ima",
      "te us",
      "c ia",
      "wil lem",
      "mari o",
      "t ul",
      "an us",
      "r d",
      "s il",
      "le ona",
      "leona rd",
      "w e",
      "joseph ine",
      "hend rina",
      "ndesh i",
      "q u",
      "in i",
      "s ha",
      "im m",
      "s sy",
      "to bias",
      "g ra",
      "gra ce",
      "pet rina",
      "mon ika",
      "el ia",
      "e k",
      "emil y",
      "h en",
      "ang ula",
      "har d",
      "h e",
      "n y",
      "i f",
      "v i",
      "p i",
      "be a",
      "in g",
      "m i",
      "t imo",
      "nang ula",
      "d e",
      "an ton",
      "tas ha",
      "t rina",
      "ka trina",
      "o t",
      "m y",
      "p hil",
      "el ly",
      "k o",
      "r esia",
      "v is",
      "t en",
      "an da",
      "ri char",
      "richar d",
      "em ia",
      "m us",
      "i ya",
      "pand u",
      "b i",
      "el ina",
      "ris to",
      "ka ria",
      "g ide",
      "gide on",
      "hel le",
      "an o",
      "ik ongo",
      "tu y",
      "charl es",
      "imm s",
      "v il",
      "ic e",
      "nd ina",
      "h er",
      "her man",
      "s us",
      "un e",
      "ger son",
      "pi et",
      "b et",
      "t resia",
      "ed w",
      "patri ck",
      "f ta",
      "na tang",
      "natang we",
      "g ina",
      "el da",
      "re gina",
      "sh i",
      "ten ya",
      "d es",
      "ol ina",
      "op olina",
      "ro bert",
      "jo ssy",
      "c laudia",
      "r on",
      "al f",
      "haf a",
      "sil as",
      "c ess",
      "prin cess",
      "mb o",
      "luc as",
      "veron ica",
      "re be",
      "z ar",
      "la zar",
      "lazar us",
      "tu hafeni",
      "sa karia",
      "f as",
      "da lena",
      "mag dalena",
      "nel ly",
      "u g",
      "sh ikongo",
      "em ma",
      "na ta",
      "e us",
      "frans ina",
      "bet ty",
      "mic helle",
      "di ana",
      "prin ce",
      "nang o",
      "so ph",
      "mu tenya",
      "k enn",
      "ja ck",
      "ndesh y",
      "i or",
      "k ia",
      "jo e",
      "jun ior",
      "lip us",
      "ndin elao",
      "g iv",
      "k on",
      "an ca",
      "bi anca",
      "giv en",
      "kon d",
      "ja cky",
      "mag ano",
      "a une",
      "ma x",
      "christ ine",
      "jo el",
      "t ina",
      "ru ben",
      "na tasha",
      "na fta",
      "mon d",
      "ce cilia",
      "jer emia",
      "hend ri",
      "s t",
      "nda hafa",
      "bert ha",
      "edw ard",
      "j ess",
      "se cilia",
      "jess ica",
      "as h",
      "la h",
      "al ina",
      "just ina",
      "i se",
      "f ina",
      "k u",
      "v isa",
      "la vin",
      "lo visa",
      "lavin ia",
      "lin us",
      "hel vi",
      "im e",
      "c en",
      "m be",
      "m ir",
      "el l",
      "cen t",
      "mir jam",
      "s er",
      "as ser",
      "ro se",
      "k laudia",
      "l d",
      "char ma",
      "te opolina",
      "nata lia",
      "a il",
      "hil ya",
      "os car",
      "jack son",
      "h an",
      "patri cia",
      "p in",
      "pin ge",
      "w er",
      "vil ho",
      "wer ner",
      "k risto",
      "a d",
      "ma ti",
      "ka mati",
      "k ka",
      "m my",
      "to mmy",
      "c or",
      "ro line",
      "jul ius",
      "ca roline",
      "mat ias",
      "us a",
      "ha mb",
      "ka una",
      "ta imi",
      "john ny",
      "mer cy",
      "sara h",
      "sus an",
      "re en",
      "ang a",
      "lo o",
      "ev a",
      "iya loo",
      "la imi",
      "jun ias",
      "la ina",
      "nel son",
      "c ard",
      "ri card",
      "ricard o",
      "f o",
      "i be",
      "in d",
      "tuy eni",
      "soph ia",
      "fo ibe",
      "eli fas",
      "us iku",
      "il eni",
      "in da",
      "ta te",
      "n an",
      "o mi",
      "na omi",
      "le ena",
      "nan cy",
      "n eli",
      "s ie",
      "u ha",
      "ra uha",
      "v on",
      "y von",
      "yvon ne",
      "v a",
      "s and",
      "an an",
      "sand ra",
      "anan ias",
      "p en",
      "pen da",
      "p ris",
      "s hil",
      "lu cky",
      "shil ongo",
      "se m",
      "ru th",
      "a g",
      "d ne",
      "ag nes",
      "dne y",
      "b ard",
      "m en",
      "on es",
      "wil bard",
      "mari e",
      "ther esia",
      "ones mus",
      "to ini",
      "eli se",
      "ger hard",
      "piet er",
      "ab ed",
      "ol f",
      "p ene",
      "charma ine",
      "er ic",
      "nic ky",
      "elias er",
      "d eon",
      "alf eus",
      "f a",
      "nango lo",
      "j enny",
      "fes sy",
      "s har",
      "shar on",
      "p y",
      "ma teus",
      "ria an",
      "e un",
      "el ine",
      "ru usa",
      "ev eline",
      "hamb el",
      "jo su",
      "ar ia",
      "wilhelm ina",
      "josu a",
      "li e",
      "nes to",
      "wil lia",
      "just ine",
      "nafta l",
      "willia m",
      "a man",
      "k ev",
      "hil de",
      "ar on",
      "aman da",
      "kev in",
      "n o",
      "sa ke",
      "bea ta",
      "timo teus",
      "sake us",
      "li ina",
      "veron ika",
      "ma el",
      "is mael",
      "fil lipus",
      "line a",
      "ul eni",
      "to iv",
      "ru d",
      "pand uleni",
      "toiv o",
      "j an",
      "m w",
      "w end",
      "chris ta",
      "wend y",
      "jo ice",
      "re joice",
      "ndap anda",
      "f ia",
      "j enn",
      "so fia",
      "hen ry",
      "if er",
      "jenn ifer",
      "a ya",
      "j es",
      "v e",
      "in us",
      "lo s",
      "nda y",
      "su nday",
      "car los",
      "jes aya",
      "ab el",
      "tang i",
      "ma la",
      "mari us",
      "ron el",
      "mala kia",
      "ab ner",
      "the o",
      "ti us",
      "lah ja",
      "m ona",
      "nda mona",
      "d enn",
      "just y",
      "denn is",
      "ash ley",
      "an uel",
      "co l",
      "f anus",
      "ste fanus",
      "isa i",
      "phil lip",
      "e f",
      "ra im",
      "nd e",
      "hen o",
      "ef raim",
      "f el",
      "pa la",
      "maria h",
      "mag r",
      "hendri k",
      "b el",
      "bel inda",
      "an ley",
      "ben jam",
      "ii ta",
      "st anley",
      "benjam in",
      "c io",
      "f et",
      "p re",
      "ja fet",
      "neli us",
      "cio us",
      "pre cious",
      "magg ie",
      "ama lia",
      "il la",
      "lo u",
      "ma th",
      "sa l",
      "paul a",
      "qu e",
      "math ias",
      "te o",
      "ir ene",
      "nel ia",
      "k us",
      "il ime",
      "mar kus",
      "nd ilime",
      "wil ly",
      "ndilime ke",
      "ha u",
      "jer ry",
      "h ol",
      "ia m",
      "in hol",
      "re inhol",
      "sim son",
      "mer iam",
      "reinhol d",
      "le o",
      "ab salom",
      "li sa",
      "joseph ina",
      "ha s",
      "a mon",
      "c ca",
      "v an",
      "chris to",
      "rebe cca",
      "b ri",
      "d an",
      "bri an",
      "t il",
      "ed y",
      "ot til",
      "kenn edy",
      "ottil ie",
      "mar y",
      "le e",
      "ang o",
      "me ke",
      "ed dy",
      "ndin elago",
      "n and",
      "le on",
      "fran co",
      "franco is",
      "l us",
      "el vis",
      "lus ia",
      "ell en",
      "gab es",
      "nesto r",
      "m em",
      "ang ela",
      "or y",
      "isa k",
      "mem ory",
      "f lo",
      "i ana",
      "chris ti",
      "jul iana",
      "ren ce",
      "va ino",
      "flo rence",
      "christi an",
      "k or",
      "luc y",
      "f i",
      "t ha",
      "al ma",
      "anton io",
      "fi ina",
      "a po",
      "i g",
      "th an",
      "jona than",
      "k ie",
      "enn ie",
      "iv an",
      "w al",
      "na em",
      "wal ter",
      "naem i",
      "h ert",
      "ri d",
      "ing rid",
      "hert ha",
      "k elly",
      "m el",
      "o dy",
      "t te",
      "ra el",
      "lo tte",
      "paul ine",
      "is rael",
      "char lotte",
      "mel ody",
      "h angula",
      "et u",
      "al fred",
      "fred dy",
      "n elao",
      "p ine",
      "al et",
      "b er",
      "kristo fina",
      "men o",
      "b b",
      "i ta",
      "bb y",
      "na dia",
      "mart en",
      "jer o",
      "z elda",
      "b l",
      "mar th",
      "ro s",
      "wil ka",
      "b on",
      "re na",
      "ya mbe",
      "ii pinge",
      "c illa",
      "p ed",
      "and er",
      "just in",
      "alex ander",
      "des mond",
      "pris cilla",
      "ped ro",
      "vis to",
      "e ino",
      "in ri",
      "hil aria",
      "he inri",
      "rebe kka",
      "eun ice",
      "heinri ch",
      "u reen",
      "ma ureen",
      "wil ika",
      "dav e",
      "tu wilika",
      "han s",
      "magr eth",
      "p py",
      "ha ppy",
      "im elda",
      "ka ren",
      "ro me",
      "the w",
      "mas iku",
      "mat thew",
      "jacob ina",
      "rome o",
      "s ias",
      "y o",
      "na ld",
      "ro nald",
      "eliz e",
      "ronald o",
      "n u",
      "p ius",
      "ang el",
      "ro dney",
      "josef ina",
      "christ ina",
      "f iku",
      "em us",
      "john y",
      "hau fiku",
      "c and",
      "l ly",
      "cand y",
      "son ia",
      "mer cia",
      "a ug",
      "e ug",
      "i re",
      "n elago",
      "u a",
      "jo sh",
      "es sa",
      "hel en",
      "man fred",
      "eras mus",
      "des ire",
      "van essa",
      "eug ene",
      "josh ua",
      "desire e",
      "y mond",
      "ra ymond",
      "be ver",
      "mari ana",
      "su ama",
      "bever ly",
      "b ra",
      "c qu",
      "f ab",
      "g ert",
      "m o",
      "in no",
      "se a",
      "ja cqu",
      "fred ri",
      "ho sea",
      "vin cent",
      "sha un",
      "ot to",
      "rud olf",
      "inno cent",
      "jacqu es",
      "mb a",
      "wil ma",
      "ani ta",
      "i p",
      "i th",
      "son ja",
      "nico le",
      "fa ith",
      "col lin",
      "b o",
      "k wa",
      "na t",
      "ha usiku",
      "ab isai",
      "ail i",
      "kwa ya",
      "ol ga",
      "ind ileni",
      "sh ir",
      "co ta",
      "shir ley",
      "il a",
      "b ren",
      "t ra",
      "an t",
      "on ga",
      "pet ra",
      "ch ant",
      "me kond",
      "tul onga",
      "bren da",
      "tra cy",
      "mekond jo",
      "fri ed",
      "z el",
      "u ma",
      "u te",
      "sh iv",
      "haf o",
      "pene hafo",
      "shiv ute",
      "e ben",
      "tul i",
      "kenn eth",
      "g if",
      "k le",
      "l es",
      "on ia",
      "le a",
      "op as",
      "gif t",
      "kle opas",
      "les ley",
      "p e",
      "wil lie",
      "line ek",
      "lineek ela",
      "m wa",
      "y ce",
      "jo yce",
      "emil ie",
      "sara fina",
      "go t",
      "b enny",
      "i que",
      "u k",
      "il i",
      "mon ique",
      "mb ili",
      "ust inus",
      "po mbili",
      "ia an",
      "ka ino",
      "la me",
      "emil ly",
      "em my",
      "heno ck",
      "f anuel",
      "n th",
      "el eni",
      "er ika",
      "sa ck",
      "as ter",
      "sh e",
      "ndes sy",
      "cy nth",
      "di ina",
      "hambel eleni",
      "aster ia",
      "cynth ia",
      "w id",
      "y ela",
      "jo b",
      "da wid",
      "un yela",
      "ev elina",
      "b r",
      "n ik",
      "o la",
      "pa u",
      "and on",
      "nda ra",
      "me e",
      "br andon",
      "ola vi",
      "el sie",
      "j ie",
      "l ene",
      "mar lene",
      "mathew s",
      "iya mbo",
      "na ka",
      "salo me",
      "naka le",
      "l et",
      "mar ry",
      "f enny",
      "i pinge",
      "s ia",
      "el ton",
      "na m",
      "en ce",
      "lo ini",
      "hil ja",
      "pine has",
      "jero me",
      "k kie",
      "w in",
      "er win",
      "ha mutenya",
      "visto rina",
      "u ra",
      "j us",
      "k ela",
      "t z",
      "ya mbo",
      "fri tz",
      "mer vin",
      "ii yambo",
      "jus tus",
      "d emus",
      "g u",
      "en y",
      "lu ise",
      "me ga",
      "tang y",
      "eras sy",
      "nang y",
      "ess ing",
      "tul ly",
      "cor nelia",
      "bl essing",
      "mega meno",
      "d o",
      "m or",
      "el he",
      "er na",
      "ad elhe",
      "do reen",
      "mor ne",
      "adelhe id",
      "a mutenya",
      "na tius",
      "ph anus",
      "li sias",
      "ste phanus",
      "ig natius",
      "im y",
      "on s",
      "se un",
      "alf ons",
      "lou ise",
      "d ir",
      "pet ronel",
      "io la",
      "fab iola",
      "dir k",
      "petronel la",
      "a rina",
      "ka arina",
      "k im",
      "le ev",
      "ana el",
      "elia kim",
      "nat anael",
      "leev i",
      "r ra",
      "lo rra",
      "hil ia",
      "ro mario",
      "nda hambel",
      "ben hard",
      "lorra ine",
      "ndahambel ela",
      "h ango",
      "s ir",
      "na lly",
      "paul es",
      "ta a",
      "cor nelius",
      "t re",
      "v or",
      "ani ka",
      "fil ip",
      "sha anika",
      "pene yambe",
      "alet ta",
      "tre vor",
      "peneyambe ko",
      "d u",
      "y ne",
      "es me",
      "sh ang",
      "wa yne",
      "charl ene",
      "l eni",
      "ta leni",
      "b ennie",
      "h is",
      "n st",
      "s es",
      "er nst",
      "in ton",
      "qu inton",
      "de e",
      "jeremia h",
      "his kia",
      "ses ilia",
      "k ius",
      "k elao",
      "l en",
      "l onia",
      "ri es",
      "ri ana",
      "and ries",
      "li kius",
      "sel ly",
      "sus anna",
      "tuyeni kelao",
      "i masiku",
      "s imasiku",
      "sa rus",
      "la sarus",
      "hil ka",
      "ho le",
      "hendri ck",
      "ail ly",
      "m and",
      "u me",
      "ne vil",
      "isa ck",
      "salom o",
      "mand ume",
      "nevil le",
      "c ha",
      "u mba",
      "lie b",
      "v anus",
      "ka mw",
      "mu ron",
      "mu kwaya",
      "sil vanus",
      "ad olf",
      "dan ie",
      "kamw i",
      "muron ga",
      "bon ny",
      "j eni",
      "sy dney",
      "bea tha",
      "kond jeni",
      "kor nelius",
      "d ley",
      "p anda",
      "an ne",
      "mat ty",
      "ndeshi panda",
      "shi wa",
      "bra dley",
      "anne marie",
      "o o",
      "sh oo",
      "k es",
      "na mutenya",
      "ka mb",
      "jacob us",
      "phil lipus",
      "bea m",
      "k son",
      "se ven",
      "ar mas",
      "pris k",
      "eric kson",
      "g us",
      "h emia",
      "i pala",
      "v ester",
      "ic co",
      "ta v",
      "ch icco",
      "ne hemia",
      "ol ene",
      "nic olene",
      "syl vester",
      "ash ipala",
      "sal mi",
      "gus tav",
      "a o",
      "c ina",
      "d en",
      "k an",
      "s tas",
      "w y",
      "w ar",
      "hel ao",
      "anna stas",
      "fran cina",
      "nic e",
      "ber nice",
      "den zel",
      "war ren",
      "annastas ia",
      "and jo",
      "anna cky",
      "ek andjo",
      "lou ren",
      "el marie",
      "ya po",
      "is ie",
      "me isie",
      "he ita",
      "ndina h",
      "nango mbe",
      "lah ya",
      "nde apo",
      "nde yapo",
      "nand e",
      "e y",
      "d hil",
      "e ka",
      "t k",
      "an eka",
      "se bby",
      "ja ph",
      "sim aneka",
      "anna h",
      "un g",
      "ama dhil",
      "yo ung",
      "japh et",
      "amadhil a",
      "a m",
      "an or",
      "ha ing",
      "al we",
      "end o",
      "salo mon",
      "rena te",
      "nu usiku",
      "nik anor",
      "nam pa",
      "am unyela",
      "haing ura",
      "alwe endo",
      "k anda",
      "p ewa",
      "im anuel",
      "fil us",
      "kond ja",
      "teo filus",
      "kanda li",
      "a mb",
      "et jie",
      "mari etjie",
      "mu ko",
      "ind ongo",
      "kor nelia",
      "ros ius",
      "lame k",
      "amb rosius",
      "i tha",
      "u pe",
      "w itha",
      "en os",
      "pa ti",
      "ro ssy",
      "sh ek",
      "line kela",
      "so ini",
      "kristo f",
      "ros witha",
      "pati ence",
      "shek upe",
      "w anga",
      "b us",
      "g w",
      "an n",
      "jo ann",
      "ed ha",
      "christ iaan",
      "ko bus",
      "shi gw",
      "heno k",
      "fredri ck",
      "shigw edha",
      "g g",
      "g et",
      "i ty",
      "us te",
      "ic ity",
      "me gg",
      "ku ku",
      "eun ike",
      "fel icity",
      "aug uste",
      "get rud",
      "megg y",
      "ke fas",
      "shi imi",
      "nafta li",
      "rena the",
      "l l",
      "v y",
      "z uma",
      "da ll",
      "et una",
      "ka pandu",
      "hel aria",
      "hel vy",
      "al ber",
      "ot ja",
      "regina ld",
      "fel us",
      "teo felus",
      "dall as",
      "alber tus",
      "en gu",
      "mb u",
      "mat engu",
      "nico demus",
      "el fried",
      "sa kkie",
      "the opolina",
      "elfried e",
      "e pa",
      "h ennie",
      "em on",
      "ro man",
      "fr as",
      "fil emon",
      "aug ustinus",
      "epa fras",
      "roman us",
      "h ona",
      "u us",
      "lo ise",
      "is ia",
      "chant ell",
      "let isia",
      "uus hona",
      "b hard",
      "m anga",
      "p has",
      "u yo",
      "eli phas",
      "ge bhard",
      "ir ja",
      "nu uyo",
      "sir kka",
      "nuuyo ma",
      "a mbo",
      "n on",
      "el le",
      "na ambo",
      "en eni",
      "eli sia",
      "is ka",
      "frans iska",
      "tu na",
      "ver non",
      "han nes",
      "mw eneni",
      "chant elle",
      "an sie",
      "penda pala",
      "sal mon",
      "que eny",
      "fredri ka",
      "a v",
      "g fried",
      "h ester",
      "ha im",
      "pa av",
      "anna marie",
      "ko os",
      "ad riaan",
      "sie gfried",
      "col len",
      "bo di",
      "haim bodi",
      "paav o",
      "e ha",
      "k ongo",
      "n iita",
      "ma ano",
      "selma h",
      "ne kongo",
      "ol eni",
      "mi ina",
      "tuy oleni",
      "she eha",
      "sheeha ma",
      "a tius",
      "s ima",
      "t lieb",
      "la imy",
      "ta un",
      "is sy",
      "tul ela",
      "if atius",
      "phil lemon",
      "bon ifatius",
      "got tlieb",
      "sima taa",
      "taun o",
      "h edw",
      "s et",
      "ha mukwaya",
      "ch uma",
      "ru an",
      "wilhelm ine",
      "imm z",
      "soph y",
      "she ya",
      "hedw ig",
      "set son",
      "c lem",
      "o ma",
      "o iv",
      "el sa",
      "en s",
      "lo vis",
      "nd umba",
      "su oma",
      "he po",
      "anton ius",
      "shi hepo",
      "alet ha",
      "clem ens",
      "oiv a",
      "elsa be",
      "f or",
      "t une",
      "ul ik",
      "ka ch",
      "tu ulik",
      "tina h",
      "mwa ka",
      "shang e",
      "for tune",
      "kach ana",
      "tuulik i",
      "a ino",
      "d or",
      "l ongo",
      "el ri",
      "ka ve",
      "to ya",
      "la toya",
      "te a",
      "sha longo",
      "ku du",
      "fa ustinus",
      "dor tea",
      "elri co",
      "kave e",
      "kudu mo",
      "nes sy",
      "ik o",
      "ve iko",
      "c d",
      "f an",
      "l k",
      "m cd",
      "s cha",
      "t ta",
      "pa x",
      "ja la",
      "nda li",
      "co tta",
      "end jala",
      "ona ld",
      "po mw",
      "ek s",
      "dan kie",
      "etu hole",
      "fan ie",
      "mcd onald",
      "scha lk",
      "pomw ene",
      "e fta",
      "j efta",
      "k eni",
      "n yambe",
      "o lo",
      "p us",
      "na masiku",
      "jo olo",
      "un ik",
      "ndap unik",
      "han neli",
      "filip pus",
      "kamb inda",
      "joolo keni",
      "ndapunik wa",
      "hanneli e",
      "y en",
      "an nel",
      "el se",
      "hel lena",
      "haf ela",
      "frieda h",
      "mu yen",
      "charl ton",
      "ndeshi hafela",
      "cor ne",
      "pe ya",
      "louren s",
      "annel y",
      "muyen ga",
      "b as",
      "b ar",
      "p helle",
      "na bas",
      "le p",
      "ka li",
      "ama kali",
      "herman us",
      "fel lep",
      "marth in",
      "kan ime",
      "bar nabas",
      "phelle p",
      "b son",
      "e imo",
      "e bson",
      "k k",
      "p ro",
      "ra kk",
      "paul inus",
      "ph ine",
      "tas ius",
      "sha li",
      "tuy eimo",
      "nesto ry",
      "christo phine",
      "bra ve",
      "prisk ila",
      "pro tasius",
      "rakk el",
      "d ika",
      "f enn",
      "l le",
      "s in",
      "s is",
      "t iaan",
      "v ula",
      "w el",
      "w eni",
      "w elly",
      "y uk",
      "an yuk",
      "jo sia",
      "as ino",
      "johan es",
      "ang i",
      "nd angi",
      "lau dika",
      "ny anyuk",
      "des tus",
      "mo destus",
      "fenn i",
      "lle welly",
      "sin vula",
      "sis co",
      "wel lem",
      "nyanyuk weni",
      "llewelly n",
      "a meno",
      "b be",
      "p anga",
      "s hafa",
      "re bbe",
      "pa wa",
      "hil kka",
      "me ameno",
      "mu ku",
      "ry no",
      "shi panga",
      "kauna pawa",
      "let ta",
      "filip us",
      "wy nand",
      "rebbe ka",
      "muku ve",
      "e w",
      "k ula",
      "r el",
      "ha li",
      "ha beam",
      "sa rel",
      "re habeam",
      "hil eny",
      "ta imy",
      "li zel",
      "al ta",
      "ya kula",
      "the us",
      "ter esia",
      "os hali",
      "ndap ew",
      "tu yakula",
      "timo theus",
      "magr et",
      "lame ck",
      "shoo pala",
      "lizel le",
      "ndapew oshali",
      "h u",
      "h em",
      "j ila",
      "p ha",
      "s ikongo",
      "y ol",
      "na mba",
      "and i",
      "ja kes",
      "ta apo",
      "jose pha",
      "wil hem",
      "nand jila",
      "pine as",
      "sack ey",
      "muko ya",
      "yol andi",
      "namba hu",
      "taapo pi",
      "josepha t",
      "c karia",
      "p end",
      "s en",
      "sa ckaria",
      "se bl",
      "to nata",
      "ria h",
      "peter sen",
      "sha kes",
      "men esia",
      "uk eni",
      "pend ukeni",
      "sebl on",
      "h ime",
      "j imi",
      "k and",
      "r ias",
      "z en",
      "na ango",
      "in ana",
      "and rias",
      "nda lly",
      "sh inana",
      "ne kwaya",
      "fri kkie",
      "su zen",
      "sack eus",
      "du x",
      "shoo mbe",
      "hime e",
      "kand jimi",
      "i u",
      "l ab",
      "m p",
      "v as",
      "na ita",
      "es mer",
      "ab iu",
      "lo hole",
      "hil en",
      "ta lohole",
      "ph eus",
      "al pheus",
      "tho bias",
      "ndesh ie",
      "ger vas",
      "pand eni",
      "saara h",
      "ing ana",
      "charma in",
      "jero beam",
      "shang elao",
      "lab an",
      "mp ingana",
      "esmer elda",
      "abiu d",
      "gervas ius",
      "h im",
      "i rus",
      "z e",
      "ka ti",
      "ka him",
      "ja irus",
      "ly sias",
      "tus nel",
      "aina h",
      "ham unyela",
      "hau wanga",
      "taa ti",
      "cha ze",
      "kati va",
      "kahim bi",
      "tusnel de",
      "d usa",
      "o demus",
      "s ca",
      "t ie",
      "t jie",
      "na li",
      "na apo",
      "da i",
      "ka bo",
      "anna tjie",
      "me dusa",
      "ne gu",
      "po hamb",
      "ten dai",
      "bet tie",
      "ail y",
      "ind ila",
      "py e",
      "nik odemus",
      "sca ra",
      "naapo pye",
      "kabo y",
      "medusa lem",
      "negu mbo",
      "pohamb a",
      "g ela",
      "k ii",
      "p ie",
      "na wa",
      "ia ta",
      "en gela",
      "er a",
      "ha ipinge",
      "ab iata",
      "to bby",
      "ti el",
      "kas era",
      "lem pie",
      "ron ell",
      "sal tiel",
      "prisk illa",
      "wy k",
      "kii to",
      "abiata r",
      "c l",
      "p u",
      "u ko",
      "er ence",
      "ha le",
      "ul e",
      "ul o",
      "re bby",
      "ka lo",
      "ka uko",
      "li go",
      "ik ulo",
      "mas ule",
      "sh etu",
      "sh ikulo",
      "ne hale",
      "po py",
      "ii pu",
      "phil ip",
      "jack ey",
      "anga la",
      "teo po",
      "cl erence",
      "kalo la",
      "ligo la",
      "popy eni",
      "iipu mbu",
      "philip us",
      "d h",
      "o magano",
      "p umba",
      "s ka",
      "u er",
      "u ug",
      "on de",
      "tu taleni",
      "isa ska",
      "sha pumba",
      "mwa dh",
      "kamb onde",
      "uer ii",
      "uug wanga",
      "isaska r",
      "mwadh ina",
      "a fa",
      "j ii",
      "m etu",
      "t emus",
      "u end",
      "u etu",
      "na kan",
      "ri et",
      "et e",
      "th resia",
      "ine kela",
      "nda mon",
      "nda afa",
      "ya la",
      "mag riet",
      "tang os",
      "lau ren",
      "men ete",
      "sir ka",
      "metu mo",
      "uend jii",
      "uetu u",
      "nakan yala",
      "ndamon o",
      "magriet ha",
      "lauren tius",
      "a mukwaya",
      "i anus",
      "n sa",
      "u usiku",
      "na mu",
      "ha indongo",
      "et ie",
      "ul u",
      "ka lu",
      "ka va",
      "ka len",
      "hel al",
      "me ek",
      "eras y",
      "marth inus",
      "fab ianus",
      "bo etie",
      "sack ie",
      "nam tenya",
      "nsa la",
      "namu pa",
      "kalu mbu",
      "kava x",
      "kalen ga",
      "helal ia",
      "meek ulu",
      "j ek",
      "m ang",
      "m un",
      "u nd",
      "ha muko",
      "to nat",
      "be uk",
      "mwa le",
      "got lieb",
      "jek onia",
      "mang und",
      "mun ango",
      "hamuko to",
      "tonat eni",
      "beuk es",
      "mangund u",
      "f n",
      "m et",
      "s ita",
      "u ta",
      "na shilongo",
      "er e",
      "ha tu",
      "pet y",
      "ta le",
      "ta go",
      "ph ina",
      "ar ere",
      "un otja",
      "ne pety",
      "kas anga",
      "nang ura",
      "mu bi",
      "ho fn",
      "ko ku",
      "kristo phina",
      "no koku",
      "nde uta",
      "dan tago",
      "got ty",
      "louren cia",
      "met arere",
      "sita li",
      "hatu tale",
      "unotja ri",
      "mubi ta",
      "hofn i",
      "nokoku re",
      "ndeuta po"
    ]
  }
}