{
    "version": "1.0",
    "truncation": null,
    "padding": null,
    "added_tokens": [
        {
            "id": 0,
            "content": "[UNK]",
            "single_word": false,
            "lstrip": false,
            "rstrip": false,
            "normalized": false,
            "special": true
        },
        {
            "id": 1,
            "content": "[CLS]",
            "single_word": false,
            "lstrip": false,
            "rstrip": false,
            "normalized": false,
            "special": true
        },
        {
            "id": 2,
            "content": "[SEP]",
            "single_word": false,
            "lstrip": false,
            "rstrip": false,
            "normalized": false,
            "special": true
        },
        {
            "id": 3,
            "content": "[PAD]",
            "single_word": false,
            "lstrip": false,
            "rstrip": false,
            "normalized": false,
            "special": true
        },
        {
            "id": 4,
            "content": "[MASK]",
            "single_word": false,
            "lstrip": false,
            "rstrip": false,
            "normalized": false,
            "special": true
        }
    ],
    "normalizer": null,
    "pre_tokenizer": {
        "type": "Whitespace"
    },
    "post_processor": null,
    "decoder": null,
    "model": {
        "type": "BPE",
        "dropout": null,
        "unk_token": "[UNK]",
        "continuing_subword_prefix": null,
        "end_of_word_suffix": null,
        "fuse_unk": false,
        "vocab": {
            "[UNK]": 0,
            "[CLS]": 1,
            "[SEP]": 2,
            "[PAD]": 3,
            "[MASK]": 4,
            "-": 5,
            "a": 6,
            "b": 7,
            "c": 8,
            "d": 9,
            "e": 10,
            "f": 11,
            "g": 12,
            "h": 13,
            "i": 14,
            "j": 15,
            "k": 16,
            "l": 17,
            "m": 18,
            "n": 19,
            "o": 20,
            "p": 21,
            "q": 22,
            "r": 23,
            "s": 24,
            "t": 25,
            "u": 26,
            "v": 27,
            "w": 28,
            "x": 29,
            "y": 30,
            "z": 31,
            "an": 32,
            "ar": 33,
            "el": 34,
            "in": 35,
            "er": 36,
            "en": 37,
            "mar": 38,
            "ri": 39,
            "al": 40,
            "on": 41,
            "ia": 42,
            "ra": 43,
            "ma": 44,
            "is": 45,
            "jo": 46,
            "il": 47,
            "es": 48,
            "and": 49,
            "am": 50,
            "ic": 51,
            "la": 52,
            "at": 53,
            "st": 54,
            "ro": 55,
            "ab": 56,
            "ed": 57,
            "et": 58,
            "ana": 59,
            "lo": 60,
            "io": 61,
            "se": 62,
            "ina": 63,
            "ha": 64,
            "ul": 65,
            "to": 66,
            "ch": 67,
            "ja": 68,
            "car": 69,
            "da": 70,
            "lu": 71,
            "ie": 72,
            "re": 73,
            "le": 74,
            "im": 75,
            "ann": 76,
            "ka": 77,
            "do": 78,
            "th": 79,
            "vi": 80,
            "us": 81,
            "mo": 82,
            "mi": 83,
            "ani": 84,
            "ine": 85,
            "ian": 86,
            "ta": 87,
            "go": 88,
            "uel": 89,
            "ad": 90,
            "ale": 91,
            "ju": 92,
            "ol": 93,
            "rist": 94,
            "fr": 95,
            "pa": 96,
            "sh": 97,
            "ber": 98,
            "man": 99,
            "sa": 100,
            "te": 101,
            "ela": 102,
            "ph": 103,
            "ang": 104,
            "co": 105,
            "ir": 106,
            "ham": 107,
            "un": 108,
            "ton": 109,
            "di": 110,
            "ev": 111,
            "or": 112,
            "ah": 113,
            "mic": 114,
            "em": 115,
            "as": 116,
            "lau": 117,
            "ric": 118,
            "kar": 119,
            "ge": 120,
            "ena": 121,
            "son": 122,
            "it": 123,
            "na": 124,
            "ica": 125,
            "de": 126,
            "iv": 127,
            "joh": 128,
            "ko": 129,
            "mad": 130,
            "pat": 131,
            "ara": 132,
            "andra": 133,
            "mon": 134,
            "ur": 135,
            "ce": 136,
            "fer": 137,
            "so": 138,
            "jul": 139,
            "pet": 140,
            "jan": 141,
            "hel": 142,
            "ren": 143,
            "enn": 144,
            "eli": 145,
            "ry": 146,
            "ik": 147,
            "luc": 148,
            "ba": 149,
            "ath": 150,
            "jor": 151,
            "bo": 152,
            "id": 153,
            "moham": 154,
            "ke": 155,
            "gu": 156,
            "tor": 157,
            "mas": 158,
            "je": 159,
            "sam": 160,
            "eth": 161,
            "md": 162,
            "nic": 163,
            "ris": 164,
            "ben": 165,
            "fa": 166,
            "mu": 167,
            "ard": 168,
            "ru": 169,
            "vic": 170,
            "ste": 171,
            "ter": 172,
            "no": 173,
            "jes": 174,
            "ger": 175,
            "qu": 176,
            "ando": 177,
            "gab": 178,
            "ne": 179,
            "isa": 180,
            "ya": 181,
            "za": 182,
            "dy": 183,
            "ly": 184,
            "pe": 185,
            "san": 186,
            "si": 187,
            "ola": 188,
            "ga": 189,
            "wil": 190,
            "kat": 191,
            "lin": 192,
            "ardo": 193,
            "ali": 194,
            "os": 195,
            "ili": 196,
            "ari": 197,
            "vin": 198,
            "su": 199,
            "be": 200,
            "mat": 201,
            "crist": 202,
            "jam": 203,
            "li": 204,
            "men": 205,
            "med": 206,
            "ika": 207,
            "sim": 208,
            "abd": 209,
            "mig": 210,
            "he": 211,
            "fern": 212,
            "ene": 213,
            "ver": 214,
            "ila": 215,
            "jon": 216,
            "val": 217,
            "joa": 218,
            "esh": 219,
            "ca": 220,
            "ros": 221,
            "mel": 222,
            "hen": 223,
            "ped": 224,
            "wa": 225,
            "min": 226,
            "pau": 227,
            "ti": 228,
            "tan": 229,
            "ati": 230,
            "fab": 231,
            "rah": 232,
            "ias": 233,
            "tho": 234,
            "ria": 235,
            "yo": 236,
            "me": 237,
            "ette": 238,
            "ku": 239,
            "sil": 240,
            "van": 241,
            "vier": 242,
            "han": 243,
            "ag": 244,
            "sha": 245,
            "nat": 246,
            "ent": 247,
            "mer": 248,
            "kev": 249,
            "que": 250,
            "alej": 251,
            "br": 252,
            "sus": 253,
            "andr": 254,
            "gio": 255,
            "sy": 256,
            "hu": 257,
            "ser": 258,
            "cy": 259,
            "elo": 260,
            "sta": 261,
            "bar": 262,
            "ni": 263,
            "dan": 264,
            "flo": 265,
            "ile": 266,
            "fan": 267,
            "die": 268,
            "edu": 269,
            "rin": 270,
            "via": 271,
            "ron": 272,
            "esa": 273,
            "mir": 274,
            "abeth": 275,
            "iz": 276,
            "hal": 277,
            "jac": 278,
            "ise": 279,
            "ve": 280,
            "ky": 281,
            "sar": 282,
            "gi": 283,
            "gar": 284,
            "win": 285,
            "bast": 286,
            "pi": 287,
            "char": 288,
            "nel": 289,
            "har": 290,
            "dri": 291,
            "per": 292,
            "uno": 293,
            "sz": 294,
            "lan": 295,
            "den": 296,
            "ole": 297,
            "sal": 298,
            "az": 299,
            "mag": 300,
            "jer": 301,
            "muham": 302,
            "sebast": 303,
            "ib": 304,
            "gra": 305,
            "jay": 306,
            "veron": 307,
            "eva": 308,
            "her": 309,
            "my": 310,
            "tu": 311,
            "ces": 312,
            "ane": 313,
            "les": 314,
            "hd": 315,
            "mau": 316,
            "ida": 317,
            "ing": 318,
            "tom": 319,
            "kim": 320,
            "eliz": 321,
            "mil": 322,
            "dar": 323,
            "sof": 324,
            "gen": 325,
            "iam": 326,
            "tia": 327,
            "yn": 328,
            "kel": 329,
            "nad": 330,
            "len": 331,
            "nur": 332,
            "dra": 333,
            "sab": 334,
            "ley": 335,
            "eta": 336,
            "cam": 337,
            "nor": 338,
            "ilip": 339,
            "athan": 340,
            "lav": 341,
            "ald": 342,
            "cel": 343,
            "bel": 344,
            "fi": 345,
            "ong": 346,
            "we": 347,
            "ud": 348,
            "ther": 349,
            "oph": 350,
            "nes": 351,
            "ant": 352,
            "ice": 353,
            "ze": 354,
            "nan": 355,
            "gor": 356,
            "the": 357,
            "ona": 358,
            "ho": 359,
            "she": 360,
            "ny": 361,
            "pab": 362,
            "anie": 363,
            "mal": 364,
            "riz": 365,
            "yan": 366,
            "lor": 367,
            "wan": 368,
            "ony": 369,
            "cio": 370,
            "ino": 371,
            "stev": 372,
            "rid": 373,
            "rik": 374,
            "max": 375,
            "quel": 376,
            "domin": 377,
            "wal": 378,
            "ime": 379,
            "ram": 380,
            "zo": 381,
            "vo": 382,
            "stin": 383,
            "ji": 384,
            "cil": 385,
            "ou": 386,
            "ty": 387,
            "va": 388,
            "edi": 389,
            "ki": 390,
            "icia": 391,
            "ig": 392,
            "toria": 393,
            "kam": 394,
            "ler": 395,
            "hil": 396,
            "lar": 397,
            "ira": 398,
            "anth": 399,
            "geor": 400,
            "des": 401,
            "one": 402,
            "ci": 403,
            "po": 404,
            "con": 405,
            "don": 406,
            "dam": 407,
            "sel": 408,
            "bri": 409,
            "ash": 410,
            "raj": 411,
            "bal": 412,
            "tim": 413,
            "ata": 414,
            "ek": 415,
            "syl": 416,
            "au": 417,
            "ish": 418,
            "hon": 419,
            "nik": 420,
            "jar": 421,
            "has": 422,
            "git": 423,
            "yna": 424,
            "prin": 425,
            "zi": 426,
            "rol": 427,
            "der": 428,
            "ato": 429,
            "gil": 430,
            "rach": 431,
            "guil": 432,
            "sol": 433,
            "bi": 434,
            "alo": 435,
            "ique": 436,
            "gusta": 437,
            "aro": 438,
            "jun": 439,
            "ak": 440,
            "jim": 441,
            "ele": 442,
            "iane": 443,
            "lil": 444,
            "valer": 445,
            "cat": 446,
            "mah": 447,
            "bet": 448,
            "bern": 449,
            "glo": 450,
            "ff": 451,
            "evel": 452,
            "este": 453,
            "leo": 454,
            "lou": 455,
            "abu": 456,
            "rique": 457,
            "marg": 458,
            "vis": 459,
            "iano": 460,
            "rob": 461,
            "fat": 462,
            "bu": 463,
            "may": 464,
            "erine": 465,
            "oliv": 466,
            "luz": 467,
            "arina": 468,
            "benjam": 469,
            "joe": 470,
            "hec": 471,
            "cha": 472,
            "ye": 473,
            "pra": 474,
            "cin": 475,
            "ille": 476,
            "ien": 477,
            "yu": 478,
            "iso": 479,
            "fo": 480,
            "yv": 481,
            "joy": 482,
            "abo": 483,
            "vinc": 484,
            "pu": 485,
            "ija": 486,
            "sun": 487,
            "ilo": 488,
            "if": 489,
            "yas": 490,
            "ala": 491,
            "hi": 492,
            "gla": 493,
            "art": 494,
            "gon": 495,
            "wen": 496,
            "rey": 497,
            "riam": 498,
            "mauric": 499,
            "ban": 500,
            "lot": 501,
            "ran": 502,
            "din": 503,
            "iana": 504,
            "pas": 505,
            "usz": 506,
            "eng": 507,
            "jas": 508,
            "olo": 509,
            "margari": 510,
            "dou": 511,
            "arm": 512,
            "ior": 513,
            "sef": 514,
            "dee": 515,
            "ire": 516,
            "ven": 517,
            "onne": 518,
            "eu": 519,
            "gan": 520,
            "lie": 521,
            "ita": 522,
            "du": 523,
            "tr": 524,
            "dol": 525,
            "lee": 526,
            "gre": 527,
            "ray": 528,
            "by": 529,
            "gun": 530,
            "kha": 531,
            "cal": 532,
            "jen": 533,
            "let": 534,
            "kir": 535,
            "maris": 536,
            "khal": 537,
            "pho": 538,
            "suz": 539,
            "judi": 540,
            "wi": 541,
            "sue": 542,
            "iti": 543,
            "ac": 544,
            "dia": 545,
            "ced": 546,
            "fri": 547,
            "bra": 548,
            "wel": 549,
            "yol": 550,
            "soph": 551,
            "raf": 552,
            "roy": 553,
            "eni": 554,
            "gy": 555,
            "alv": 556,
            "lis": 557,
            "vel": 558,
            "law": 559,
            "thia": 560,
            "od": 561,
            "fili": 562,
            "lam": 563,
            "una": 564,
            "floren": 565,
            "kw": 566,
            "liz": 567,
            "annes": 568,
            "rui": 569,
            "tra": 570,
            "rg": 571,
            "denn": 572,
            "tshe": 573,
            "del": 574,
            "joaqu": 575,
            "ken": 576,
            "chi": 577,
            "sin": 578,
            "onso": 579,
            "cla": 580,
            "col": 581,
            "ade": 582,
            "isha": 583,
            "jos": 584,
            "esz": 585,
            "ua": 586,
            "day": 587,
            "sep": 588,
            "queline": 589,
            "gr": 590,
            "pre": 591,
            "ernes": 592,
            "far": 593,
            "dys": 594,
            "sur": 595,
            "ker": 596,
            "ete": 597,
            "vla": 598,
            "est": 599,
            "ima": 600,
            "dim": 601,
            "nu": 602,
            "yne": 603,
            "zy": 604,
            "of": 605,
            "jit": 606,
            "agu": 607,
            "pha": 608,
            "mus": 609,
            "ula": 610,
            "bor": 611,
            "dio": 612,
            "rit": 613,
            "ay": 614,
            "giov": 615,
            "thi": 616,
            "guiller": 617,
            "ame": 618,
            "lyn": 619,
            "mor": 620,
            "lim": 621,
            "nie": 622,
            "ner": 623,
            "kr": 624,
            "dor": 625,
            "las": 626,
            "met": 627,
            "vio": 628,
            "war": 629,
            "uf": 630,
            "alf": 631,
            "blan": 632,
            "ast": 633,
            "musta": 634,
            "bir": 635,
            "oli": 636,
            "cia": 637,
            "idi": 638,
            "yam": 639,
            "dolfo": 640,
            "illa": 641,
            "yous": 642,
            "rice": 643,
            "maril": 644,
            "idia": 645,
            "bas": 646,
            "tt": 647,
            "pam": 648,
            "bil": 649,
            "vik": 650,
            "emi": 651,
            "oj": 652,
            "adi": 653,
            "yes": 654,
            "lour": 655,
            "hann": 656,
            "gorz": 657,
            "iva": 658,
            "che": 659,
            "zel": 660,
            "kash": 661,
            "abi": 662,
            "ison": 663,
            "kka": 664,
            "sia": 665,
            "virg": 666,
            "cor": 667,
            "cca": 668,
            "ten": 669,
            "pio": 670,
            "pri": 671,
            "vil": 672,
            "tin": 673,
            "tar": 674,
            "zul": 675,
            "ng": 676,
            "islav": 677,
            "gh": 678,
            "thab": 679,
            "virgin": 680,
            "par": 681,
            "ot": 682,
            "bon": 683,
            "gang": 684,
            "gel": 685,
            "thew": 686,
            "inda": 687,
            "lon": 688,
            "bes": 689,
            "cle": 690,
            "yl": 691,
            "nar": 692,
            "giu": 693,
            "sen": 694,
            "giusep": 695,
            "lasz": 696,
            "hard": 697,
            "cho": 698,
            "pan": 699,
            "nas": 700,
            "fed": 701,
            "amy": 702,
            "melo": 703,
            "bab": 704,
            "you": 705,
            "ura": 706,
            "nil": 707,
            "kay": 708,
            "agni": 709,
            "eszka": 710,
            "ese": 711,
            "ick": 712,
            "graci": 713,
            "tri": 714,
            "pal": 715,
            "zyna": 716,
            "ez": 717,
            "mik": 718,
            "yus": 719,
            "nthia": 720,
            "iro": 721,
            "teo": 722,
            "zol": 723,
            "mun": 724,
            "um": 725,
            "moh": 726,
            "ises": 727,
            "gonz": 728,
            "augu": 729,
            "ith": 730,
            "haf": 731,
            "jesh": 732,
            "aly": 733,
            "antha": 734,
            "uli": 735,
            "isi": 736,
            "jel": 737,
            "pia": 738,
            "tob": 739,
            "endra": 740,
            "ok": 741,
            "mia": 742,
            "bian": 743,
            "natas": 744,
            "af": 745,
            "uz": 746,
            "aur": 747,
            "lea": 748,
            "meh": 749,
            "margar": 750,
            "ist": 751,
            "chant": 752,
            "ef": 753,
            "rul": 754,
            "xa": 755,
            "ilar": 756,
            "sylv": 757,
            "fiq": 758,
            "igna": 759,
            "rox": 760,
            "urt": 761,
            "pak": 762,
            "ett": 763,
            "ama": 764,
            "hle": 765,
            "rie": 766,
            "merced": 767,
            "els": 768,
            "enne": 769,
            "silv": 770,
            "artu": 771,
            "hay": 772,
            "gis": 773,
            "ide": 774,
            "bogo": 775,
            "tsh": 776,
            "dija": 777,
            "mos": 778,
            "dre": 779,
            "bob": 780,
            "valdo": 781,
            "ike": 782,
            "itu": 783,
            "ini": 784,
            "pris": 785,
            "yi": 786,
            "rat": 787,
            "etta": 788,
            "mire": 789,
            "tha": 790,
            "xh": 791,
            "sat": 792,
            "loren": 793,
            "ewa": 794,
            "ril": 795,
            "kla": 796,
            "rish": 797,
            "alu": 798,
            "rad": 799,
            "chu": 800,
            "maric": 801,
            "naz": 802,
            "for": 803,
            "tof": 804,
            "jaku": 805,
            "imo": 806,
            "olu": 807,
            "zan": 808,
            "ussa": 809,
            "om": 810,
            "had": 811,
            "angeli": 812,
            "zim": 813,
            "cas": 814,
            "eze": 815,
            "eda": 816,
            "jur": 817,
            "arzyna": 818,
            "qui": 819,
            "ryst": 820,
            "grego": 821,
            "ck": 822,
            "mine": 823,
            "clemen": 824,
            "ax": 825,
            "fel": 826,
            "ney": 827,
            "pr": 828,
            "eri": 829,
            "pin": 830,
            "sul": 831,
            "isra": 832,
            "erina": 833,
            "aud": 834,
            "matth": 835,
            "jn": 836,
            "bus": 837,
            "dir": 838,
            "old": 839,
            "edy": 840,
            "ques": 841,
            "abela": 842,
            "kan": 843,
            "hola": 844,
            "sk": 845,
            "nus": 846,
            "bie": 847,
            "wn": 848,
            "sya": 849,
            "kh": 850,
            "ung": 851,
            "ee": 852,
            "dimir": 853,
            "eer": 854,
            "miros": 855,
            "kimber": 856,
            "oy": 857,
            "jh": 858,
            "ilde": 859,
            "abra": 860,
            "sing": 861,
            "hum": 862,
            "mit": 863,
            "nab": 864,
            "vor": 865,
            "cie": 866,
            "malgorz": 867,
            "joz": 868,
            "sandr": 869,
            "jet": 870,
            "irul": 871,
            "rim": 872,
            "main": 873,
            "tun": 874,
            "arn": 875,
            "ras": 876,
            "ada": 877,
            "guy": 878,
            "wer": 879,
            "rine": 880,
            "sad": 881,
            "bog": 882,
            "cious": 883,
            "isy": 884,
            "nom": 885,
            "zah": 886,
            "adalu": 887,
            "guadalu": 888,
            "eka": 889,
            "jaros": 890,
            "maj": 891,
            "zen": 892,
            "rio": 893,
            "bla": 894,
            "zej": 895,
            "mot": 896,
            "kgo": 897,
            "jef": 898,
            "lem": 899,
            "zsol": 900,
            "etse": 901,
            "ilwe": 902,
            "non": 903,
            "idy": 904,
            "tat": 905,
            "ienne": 906,
            "vas": 907,
            "bles": 908,
            "zena": 909,
            "ind": 910,
            "sri": 911,
            "geo": 912,
            "imi": 913,
            "calo": 914,
            "ayou": 915,
            "ut": 916,
            "jaz": 917,
            "mahmo": 918,
            "them": 919,
            "mis": 920,
            "sor": 921,
            "sti": 922,
            "loe": 923,
            "era": 924,
            "hic": 925,
            "lind": 926,
            "zsuz": 927,
            "enc": 928,
            "kal": 929,
            "ano": 930,
            "wo": 931,
            "dev": 932,
            "itse": 933,
            "vira": 934,
            "god": 935,
            "auro": 936,
            "wol": 937,
            "lui": 938,
            "bler": 939,
            "ito": 940,
            "amo": 941,
            "pp": 942,
            "deb": 943,
            "kas": 944,
            "ves": 945,
            "any": 946,
            "edad": 947,
            "ach": 948,
            "estefan": 949,
            "mie": 950,
            "ston": 951,
            "lenn": 952,
            "etso": 953,
            "oba": 954,
            "rapha": 955,
            "kob": 956,
            "asa": 957,
            "dil": 958,
            "lian": 959,
            "gif": 960,
            "kle": 961,
            "liv": 962,
            "alb": 963,
            "zelj": 964,
            "kwu": 965,
            "ieu": 966,
            "enia": 967,
            "zia": 968,
            "fau": 969,
            "undo": 970,
            "ivo": 971,
            "giul": 972,
            "anu": 973,
            "bernad": 974,
            "une": 975,
            "mai": 976,
            "jah": 977,
            "guilher": 978,
            "neo": 979,
            "dal": 980,
            "ido": 981,
            "zd": 982,
            "quiel": 983,
            "imena": 984,
            "dek": 985,
            "hit": 986,
            "ora": 987,
            "ife": 988,
            "rom": 989,
            "ferson": 990,
            "uk": 991,
            "rizio": 992,
            "ate": 993,
            "arl": 994,
            "vind": 995,
            "sey": 996,
            "eun": 997,
            "raig": 998,
            "lul": 999,
            "iah": 1000,
            "aw": 1001,
            "hab": 1002,
            "bran": 1003,
            "sio": 1004,
            "kon": 1005,
            "suel": 1006,
            "lah": 1007,
            "kaj": 1008,
            "azs": 1009,
            "shel": 1010,
            "kryst": 1011,
            "nah": 1012,
            "ely": 1013,
            "flav": 1014,
            "isal": 1015,
            "bad": 1016,
            "kit": 1017,
            "usa": 1018,
            "mou": 1019,
            "sie": 1020,
            "sig": 1021,
            "vato": 1022,
            "stafa": 1023,
            "jil": 1024,
            "esmer": 1025,
            "sula": 1026,
            "sco": 1027,
            "usi": 1028,
            "csab": 1029,
            "dine": 1030,
            "omi": 1031,
            "salvato": 1032,
            "zuz": 1033,
            "aj": 1034,
            "priscil": 1035,
            "eep": 1036,
            "fried": 1037,
            "eg": 1038,
            "ema": 1039,
            "cs": 1040,
            "gia": 1041,
            "madou": 1042,
            "patien": 1043,
            "maz": 1044,
            "gie": 1045,
            "katle": 1046,
            "dis": 1047,
            "dul": 1048,
            "cey": 1049,
            "ush": 1050,
            "bam": 1051,
            "yul": 1052,
            "sou": 1053,
            "mh": 1054,
            "itz": 1055,
            "rome": 1056,
            "ago": 1057,
            "end": 1058,
            "ileen": 1059,
            "laume": 1060,
            "arth": 1061,
            "mur": 1062,
            "jad": 1063,
            "peran": 1064,
            "shi": 1065,
            "rence": 1066,
            "pai": 1067,
            "tshep": 1068,
            "esperan": 1069,
            "bou": 1070,
            "wia": 1071,
            "gas": 1072,
            "bun": 1073,
            "imir": 1074,
            "itumelo": 1075,
            "tre": 1076,
            "thy": 1077,
            "jol": 1078,
            "mb": 1079,
            "thu": 1080,
            "eko": 1081,
            "tif": 1082,
            "ako": 1083,
            "sir": 1084,
            "uni": 1085,
            "tam": 1086,
            "wid": 1087,
            "bened": 1088,
            "cky": 1089,
            "ys": 1090,
            "sale": 1091,
            "ego": 1092,
            "filwe": 1093,
            "corin": 1094,
            "bl": 1095,
            "fir": 1096,
            "edg": 1097,
            "macie": 1098,
            "pol": 1099,
            "lovel": 1100,
            "arna": 1101,
            "fac": 1102,
            "pita": 1103,
            "rash": 1104,
            "nda": 1105,
            "bia": 1106,
            "theus": 1107,
            "dag": 1108,
            "iwe": 1109,
            "aracel": 1110,
            "av": 1111,
            "all": 1112,
            "ilson": 1113,
            "youn": 1114,
            "fid": 1115,
            "fla": 1116,
            "karia": 1117,
            "hla": 1118,
            "lip": 1119,
            "amp": 1120,
            "lur": 1121,
            "wah": 1122,
            "rand": 1123,
            "rus": 1124,
            "hor": 1125,
            "are": 1126,
            "szil": 1127,
            "kag": 1128,
            "red": 1129,
            "conce": 1130,
            "slav": 1131,
            "riel": 1132,
            "ayu": 1133,
            "itri": 1134,
            "ion": 1135,
            "woj": 1136,
            "kab": 1137,
            "kul": 1138,
            "sas": 1139,
            "jus": 1140,
            "iswa": 1141,
            "ess": 1142,
            "iw": 1143,
            "asi": 1144,
            "por": 1145,
            "filo": 1146,
            "fad": 1147,
            "fe": 1148,
            "zor": 1149,
            "hian": 1150,
            "erz": 1151,
            "eem": 1152,
            "uta": 1153,
            "pern": 1154,
            "tek": 1155,
            "oma": 1156,
            "ity": 1157,
            "omo": 1158,
            "pad": 1159,
            "maa": 1160,
            "diet": 1161,
            "hol": 1162,
            "igh": 1163,
            "zam": 1164,
            "yaw": 1165,
            "reyn": 1166,
            "rok": 1167,
            "xol": 1168,
            "enek": 1169,
            "ow": 1170,
            "zar": 1171,
            "lia": 1172,
            "genes": 1173,
            "ved": 1174,
            "zden": 1175,
            "ob": 1176,
            "mod": 1177,
            "eto": 1178,
            "cand": 1179,
            "esi": 1180,
            "pasc": 1181,
            "var": 1182,
            "dari": 1183,
            "vet": 1184,
            "reg": 1185,
            "his": 1186,
            "noe": 1187,
            "solo": 1188,
            "iq": 1189,
            "cher": 1190,
            "tay": 1191,
            "ruz": 1192,
            "say": 1193,
            "glas": 1194,
            "fu": 1195,
            "pen": 1196,
            "jtim": 1197,
            "pon": 1198,
            "ico": 1199,
            "nay": 1200,
            "veen": 1201,
            "iao": 1202,
            "wim": 1203,
            "udu": 1204,
            "cek": 1205,
            "lov": 1206,
            "kai": 1207,
            "icao": 1208,
            "tis": 1209,
            "shu": 1210,
            "ather": 1211,
            "wis": 1212,
            "ziq": 1213,
            "dolor": 1214,
            "tse": 1215,
            "ayo": 1216,
            "amand": 1217,
            "motso": 1218,
            "lum": 1219,
            "kis": 1220,
            "lud": 1221,
            "rogel": 1222,
            "pir": 1223,
            "chim": 1224,
            "sn": 1225,
            "yaz": 1226,
            "mut": 1227,
            "bis": 1228,
            "josel": 1229,
            "wes": 1230,
            "ii": 1231,
            "bash": 1232,
            "bro": 1233,
            "hora": 1234,
            "yon": 1235,
            "vu": 1236,
            "gyor": 1237,
            "cec": 1238,
            "nit": 1239,
            "yin": 1240,
            "nd": 1241,
            "henn": 1242,
            "pand": 1243,
            "jdi": 1244,
            "aria": 1245,
            "zon": 1246,
            "estr": 1247,
            "salo": 1248,
            "tit": 1249,
            "fort": 1250,
            "hat": 1251,
            "jith": 1252,
            "phine": 1253,
            "zbi": 1254,
            "elzbi": 1255,
            "jell": 1256,
            "tade": 1257,
            "ain": 1258,
            "yad": 1259,
            "kwa": 1260,
            "geov": 1261,
            "alph": 1262,
            "eno": 1263,
            "felic": 1264,
            "ais": 1265,
            "ilah": 1266,
            "vir": 1267,
            "ulri": 1268,
            "hir": 1269,
            "ffen": 1270,
            "ell": 1271,
            "ap": 1272,
            "hlan": 1273,
            "hlanhla": 1274,
            "shad": 1275,
            "klo": 1276,
            "yah": 1277,
            "ikka": 1278,
            "naj": 1279,
            "alc": 1280,
            "zak": 1281,
            "hav": 1282,
            "miche": 1283,
            "fin": 1284,
            "jho": 1285,
            "madele": 1286,
            "tea": 1287,
            "fabric": 1288,
            "isiwe": 1289,
            "com": 1290,
            "sah": 1291,
            "ides": 1292,
            "pul": 1293,
            "ket": 1294,
            "esia": 1295,
            "hjh": 1296,
            "vinic": 1297,
            "raim": 1298,
            "uso": 1299,
            "cent": 1300,
            "boy": 1301,
            "zem": 1302,
            "inno": 1303,
            "iven": 1304,
            "amil": 1305,
            "urs": 1306,
            "hus": 1307,
            "vit": 1308,
            "emu": 1309,
            "dwi": 1310,
            "aku": 1311,
            "get": 1312,
            "keem": 1313,
            "div": 1314,
            "nev": 1315,
            "kol": 1316,
            "rata": 1317,
            "ivy": 1318,
            "mand": 1319,
            "gaet": 1320,
            "yar": 1321,
            "los": 1322,
            "maic": 1323,
            "sever": 1324,
            "oth": 1325,
            "rizia": 1326,
            "sis": 1327,
            "kor": 1328,
            "hos": 1329,
            "ero": 1330,
            "rag": 1331,
            "hussa": 1332,
            "ai": 1333,
            "mae": 1334,
            "zoe": 1335,
            "lax": 1336,
            "hek": 1337,
            "laet": 1338,
            "aid": 1339,
            "ondre": 1340,
            "dun": 1341,
            "frim": 1342,
            "celi": 1343,
            "raffa": 1344,
            "souf": 1345,
            "onga": 1346,
            "annon": 1347,
            "bea": 1348,
            "ede": 1349,
            "drag": 1350,
            "dip": 1351,
            "clav": 1352,
            "xio": 1353,
            "ert": 1354,
            "js": 1355,
            "nen": 1356,
            "sley": 1357,
            "tavio": 1358,
            "zu": 1359,
            "bin": 1360,
            "ewel": 1361,
            "aya": 1362,
            "quent": 1363,
            "ey": 1364,
            "court": 1365,
            "hend": 1366,
            "von": 1367,
            "osa": 1368,
            "hj": 1369,
            "goh": 1370,
            "ege": 1371,
            "ea": 1372,
            "ntom": 1373,
            "brigh": 1374,
            "kem": 1375,
            "wu": 1376,
            "agn": 1377,
            "saj": 1378,
            "ei": 1379,
            "male": 1380,
            "cja": 1381,
            "ao": 1382,
            "ggy": 1383,
            "estu": 1384,
            "benedic": 1385,
            "niam": 1386,
            "obak": 1387,
            "busiso": 1388,
            "alyn": 1389,
            "jc": 1390,
            "jeev": 1391,
            "consuel": 1392,
            "time": 1393,
            "sid": 1394,
            "arte": 1395,
            "sub": 1396,
            "szab": 1397,
            "gesh": 1398,
            "oc": 1399,
            "zin": 1400,
            "ezer": 1401,
            "lung": 1402,
            "lat": 1403,
            "itia": 1404,
            "dah": 1405,
            "shkel": 1406,
            "mul": 1407,
            "abdula": 1408,
            "tl": 1409,
            "haj": 1410,
            "rem": 1411,
            "nam": 1412,
            "sho": 1413,
            "amaril": 1414,
            "siy": 1415,
            "voj": 1416,
            "usu": 1417,
            "bogile": 1418,
            "dur": 1419,
            "sica": 1420,
            "ande": 1421,
            "sebet": 1422,
            "kko": 1423,
            "yer": 1424,
            "izz": 1425,
            "fari": 1426,
            "felo": 1427,
            "kok": 1428,
            "cryst": 1429,
            "unn": 1430,
            "uwe": 1431,
            "yen": 1432,
            "key": 1433,
            "gur": 1434,
            "ets": 1435,
            "tso": 1436,
            "ziz": 1437,
            "lad": 1438,
            "hr": 1439,
            "iska": 1440,
            "faust": 1441,
            "armen": 1442,
            "ethe": 1443,
            "sei": 1444,
            "xin": 1445,
            "pav": 1446,
            "hild": 1447,
            "pela": 1448,
            "yos": 1449,
            "wad": 1450,
            "ikh": 1451,
            "ethu": 1452,
            "thand": 1453,
            "ikki": 1454,
            "sak": 1455,
            "ciech": 1456,
            "ishnu": 1457,
            "teres": 1458,
            "kac": 1459,
            "moj": 1460,
            "jacin": 1461,
            "roz": 1462,
            "seb": 1463,
            "fun": 1464,
            "abile": 1465,
            "dus": 1466,
            "mol": 1467,
            "mimo": 1468,
            "bhar": 1469,
            "mla": 1470,
            "barto": 1471,
            "onel": 1472,
            "pel": 1473,
            "kier": 1474,
            "nal": 1475,
            "hou": 1476,
            "aq": 1477,
            "bap": 1478,
            "jir": 1479,
            "wou": 1480,
            "sud": 1481,
            "hem": 1482,
            "adwo": 1483,
            "kene": 1484,
            "kho": 1485,
            "srin": 1486,
            "itta": 1487,
            "dhar": 1488,
            "bh": 1489,
            "shant": 1490,
            "thul": 1491,
            "dey": 1492,
            "stu": 1493,
            "wik": 1494,
            "tte": 1495,
            "maart": 1496,
            "nis": 1497,
            "omph": 1498,
            "mann": 1499,
            "kand": 1500,
            "abder": 1501,
            "eb": 1502,
            "can": 1503,
            "yd": 1504,
            "unrul": 1505,
            "voje": 1506,
            "abonga": 1507,
            "fior": 1508,
            "nea": 1509,
            "led": 1510,
            "gau": 1511,
            "oja": 1512,
            "omir": 1513,
            "vina": 1514,
            "mund": 1515,
            "hali": 1516,
            "meleng": 1517,
            "celest": 1518,
            "loki": 1519,
            "baptis": 1520,
            "bhan": 1521,
            "macar": 1522,
            "eo": 1523,
            "mim": 1524,
            "thabis": 1525,
            "stje": 1526,
            "bib": 1527,
            "zb": 1528,
            "joo": 1529,
            "aba": 1530,
            "cer": 1531,
            "gro": 1532,
            "bjar": 1533,
            "gior": 1534,
            "ibu": 1535,
            "tle": 1536,
            "sai": 1537,
            "fik": 1538,
            "yaku": 1539,
            "alic": 1540,
            "kun": 1541,
            "iko": 1542,
            "azu": 1543,
            "fest": 1544,
            "gul": 1545,
            "zie": 1546,
            "joon": 1547,
            "dh": 1548,
            "yap": 1549,
            "fah": 1550,
            "gam": 1551,
            "sask": 1552,
            "urav": 1553,
            "anit": 1554,
            "tz": 1555,
            "inha": 1556,
            "int": 1557,
            "dec": 1558,
            "lal": 1559,
            "zai": 1560,
            "gir": 1561,
            "lirid": 1562,
            "bile": 1563,
            "abhis": 1564,
            "gud": 1565,
            "abio": 1566,
            "pasqu": 1567,
            "xhul": 1568,
            "isse": 1569,
            "knu": 1570,
            "odd": 1571,
            "thil": 1572,
            "alys": 1573,
            "ence": 1574,
            "oussa": 1575,
            "suha": 1576,
            "etu": 1577,
            "qi": 1578,
            "well": 1579,
            "gely": 1580,
            "geng": 1581,
            "thiba": 1582,
            "kur": 1583,
            "tul": 1584,
            "athi": 1585,
            "ern": 1586,
            "khu": 1587,
            "socor": 1588,
            "ail": 1589,
            "bul": 1590,
            "tuo": 1591,
            "rod": 1592,
            "dali": 1593,
            "sora": 1594,
            "snje": 1595,
            "inette": 1596,
            "szy": 1597,
            "happ": 1598,
            "koh": 1599,
            "jy": 1600,
            "jeann": 1601,
            "ius": 1602,
            "flam": 1603,
            "nko": 1604,
            "stjan": 1605,
            "dai": 1606,
            "sua": 1607,
            "sve": 1608,
            "ase": 1609,
            "eed": 1610,
            "pit": 1611,
            "svet": 1612,
            "cli": 1613,
            "veig": 1614,
            "ace": 1615,
            "vig": 1616,
            "app": 1617,
            "myr": 1618,
            "agostin": 1619,
            "til": 1620,
            "yun": 1621,
            "jut": 1622,
            "ks": 1623,
            "llo": 1624,
            "oh": 1625,
            "ulf": 1626,
            "ts": 1627,
            "deir": 1628,
            "kil": 1629,
            "nthabis": 1630,
            "rude": 1631,
            "gaz": 1632,
            "noku": 1633,
            "etsi": 1634,
            "zlat": 1635,
            "tai": 1636,
            "bos": 1637,
            "olcs": 1638,
            "cen": 1639,
            "islaw": 1640,
            "tise": 1641,
            "phum": 1642,
            "ignie": 1643,
            "zbignie": 1644,
            "narc": 1645,
            "oke": 1646,
            "umi": 1647,
            "vid": 1648,
            "lai": 1649,
            "wilhel": 1650,
            "sath": 1651,
            "agye": 1652,
            "kush": 1653,
            "karth": 1654,
            "ndesh": 1655,
            "nin": 1656,
            "xhi": 1657,
            "anou": 1658,
            "ioma": 1659,
            "hash": 1660,
            "uddin": 1661,
            "mma": 1662,
            "lic": 1663,
            "csil": 1664,
            "ct": 1665,
            "dom": 1666,
            "tany": 1667,
            "zvon": 1668,
            "vy": 1669,
            "evi": 1670,
            "fit": 1671,
            "sph": 1672,
            "onye": 1673,
            "eve": 1674,
            "pap": 1675,
            "fro": 1676,
            "pert": 1677,
            "abe": 1678,
            "eme": 1679,
            "sem": 1680,
            "wei": 1681,
            "sein": 1682,
            "saf": 1683,
            "vive": 1684,
            "kaw": 1685,
            "erast": 1686,
            "shani": 1687,
            "yaa": 1688,
            "senia": 1689,
            "shpet": 1690,
            "fortun": 1691,
            "cinth": 1692,
            "run": 1693,
            "entse": 1694,
            "wena": 1695,
            "bah": 1696,
            "mei": 1697,
            "lawa": 1698,
            "urad": 1699,
            "ppe": 1700,
            "cic": 1701,
            "luk": 1702,
            "low": 1703,
            "mogo": 1704,
            "oney": 1705,
            "uha": 1706,
            "berth": 1707,
            "frey": 1708,
            "ndu": 1709,
            "yat": 1710,
            "akh": 1711,
            "iza": 1712,
            "ree": 1713,
            "cl": 1714,
            "lju": 1715,
            "fou": 1716,
            "ofo": 1717,
            "sif": 1718,
            "sao": 1719,
            "riot": 1720,
            "striot": 1721,
            "giwe": 1722,
            "set": 1723,
            "zal": 1724,
            "ongo": 1725,
            "cristoph": 1726,
            "nir": 1727,
            "dk": 1728,
            "tus": 1729,
            "isu": 1730,
            "itha": 1731,
            "eleon": 1732,
            "siv": 1733,
            "kova": 1734,
            "meg": 1735,
            "det": 1736,
            "metse": 1737,
            "gyu": 1738,
            "oluw": 1739,
            "favo": 1740,
            "gjer": 1741,
            "moz": 1742,
            "iku": 1743,
            "qim": 1744,
            "xhe": 1745,
            "jie": 1746,
            "boit": 1747,
            "rashe": 1748,
            "elyn": 1749,
            "enka": 1750,
            "shar": 1751,
            "jackel": 1752,
            "juna": 1753,
            "bhu": 1754,
            "jag": 1755,
            "ider": 1756,
            "pao": 1757,
            "morg": 1758,
            "chid": 1759,
            "ope": 1760,
            "heem": 1761,
            "fatso": 1762,
            "essy": 1763,
            "abdal": 1764,
            "tou": 1765,
            "vko": 1766,
            "bham": 1767,
            "ziana": 1768,
            "stapha": 1769,
            "mes": 1770,
            "wio": 1771,
            "allis": 1772,
            "vanan": 1773,
            "illemon": 1774,
            "taro": 1775,
            "kjet": 1776,
            "mita": 1777,
            "angir": 1778,
            "ft": 1779,
            "yor": 1780,
            "jann": 1781,
            "ington": 1782,
            "nand": 1783,
            "isin": 1784,
            "dharmen": 1785,
            "wla": 1786,
            "iek": 1787,
            "nia": 1788,
            "nun": 1789,
            "zine": 1790,
            "shpr": 1791,
            "priyan": 1792,
            "cik": 1793,
            "lca": 1794,
            "vjol": 1795,
            "rei": 1796,
            "ilio": 1797,
            "chra": 1798,
            "onika": 1799,
            "ljil": 1800,
            "dira": 1801,
            "ferdin": 1802,
            "iaan": 1803,
            "dw": 1804,
            "gomo": 1805,
            "ight": 1806,
            "ans": 1807,
            "rud": 1808,
            "ori": 1809,
            "kres": 1810,
            "hang": 1811,
            "arb": 1812,
            "aniel": 1813,
            "fre": 1814,
            "oum": 1815,
            "bat": 1816,
            "oni": 1817,
            "santho": 1818,
            "flem": 1819,
            "eez": 1820,
            "nto": 1821,
            "shington": 1822,
            "prom": 1823,
            "xhev": 1824,
            "ute": 1825,
            "thula": 1826,
            "etswe": 1827,
            "wasi": 1828,
            "keitu": 1829,
            "shik": 1830,
            "horv": 1831,
            "jram": 1832,
            "een": 1833,
            "moun": 1834,
            "mj": 1835,
            "trist": 1836,
            "shqi": 1837,
            "esan": 1838,
            "lati": 1839,
            "leh": 1840,
            "cena": 1841,
            "ild": 1842,
            "anast": 1843,
            "ushad": 1844,
            "amr": 1845,
            "ivind": 1846,
            "adu": 1847,
            "ursz": 1848,
            "haz": 1849,
            "husey": 1850,
            "gus": 1851,
            "fren": 1852,
            "hafa": 1853,
            "kx": 1854,
            "clo": 1855,
            "dem": 1856,
            "alebo": 1857,
            "kealebo": 1858,
            "fal": 1859,
            "isid": 1860,
            "imal": 1861,
            "bika": 1862,
            "siph": 1863,
            "giaco": 1864,
            "millic": 1865,
            "gjerg": 1866,
            "sken": 1867,
            "guh": 1868,
            "was": 1869,
            "sf": 1870,
            "fia": 1871,
            "iki": 1872,
            "dard": 1873,
            "kie": 1874,
            "nhild": 1875,
            "hy": 1876,
            "maar": 1877,
            "ngo": 1878,
            "apar": 1879,
            "fauz": 1880,
            "hida": 1881,
            "rysz": 1882,
            "zek": 1883,
            "yslaw": 1884,
            "eska": 1885,
            "sii": 1886,
            "mano": 1887,
            "louren": 1888,
            "oda": 1889,
            "iamo": 1890,
            "lef": 1891,
            "oce": 1892,
            "esego": 1893,
            "olan": 1894,
            "elizab": 1895,
            "orat": 1896,
            "lho": 1897,
            "kard": 1898,
            "pur": 1899,
            "diusz": 1900,
            "inde": 1901,
            "enyo": 1902,
            "mundo": 1903,
            "romu": 1904,
            "arka": 1905,
            "ugo": 1906,
            "unde": 1907,
            "ej": 1908,
            "traud": 1909,
            "ret": 1910,
            "mac": 1911,
            "daph": 1912,
            "tris": 1913,
            "idu": 1914,
            "sieg": 1915,
            "tlo": 1916,
            "hugu": 1917,
            "inar": 1918,
            "eld": 1919,
            "lemo": 1920,
            "estef": 1921,
            "sla": 1922,
            "aji": 1923,
            "fen": 1924,
            "zdra": 1925,
            "imy": 1926,
            "uza": 1927,
            "iskand": 1928,
            "stant": 1929,
            "iru": 1930,
            "dubra": 1931,
            "ford": 1932,
            "arg": 1933,
            "tlhe": 1934,
            "lend": 1935,
            "anxh": 1936,
            "kozo": 1937,
            "tab": 1938,
            "idad": 1939,
            "cion": 1940,
            "orsol": 1941,
            "tric": 1942,
            "pg": 1943,
            "fil": 1944,
            "mz": 1945,
            "afer": 1946,
            "gner": 1947,
            "mom": 1948,
            "muri": 1949,
            "ufik": 1950,
            "jerne": 1951,
            "vol": 1952,
            "piah": 1953,
            "indile": 1954,
            "ulant": 1955,
            "pus": 1956,
            "abetswe": 1957,
            "edo": 1958,
            "fon": 1959,
            "uko": 1960,
            "encar": 1961,
            "oldo": 1962,
            "paa": 1963,
            "leven": 1964,
            "oz": 1965,
            "pros": 1966,
            "mak": 1967,
            "lei": 1968,
            "fis": 1969,
            "gonolo": 1970,
            "lay": 1971,
            "waa": 1972,
            "mpu": 1973,
            "tlam": 1974,
            "ked": 1975,
            "lak": 1976,
            "tik": 1977,
            "inash": 1978,
            "seem": 1979,
            "ual": 1980,
            "noem": 1981,
            "aga": 1982,
            "kg": 1983,
            "xi": 1984,
            "mith": 1985,
            "serrat": 1986,
            "fli": 1987,
            "agi": 1988,
            "pula": 1989,
            "sty": 1990,
            "ovan": 1991,
            "brun": 1992,
            "pesh": 1993,
            "kica": 1994,
            "ljub": 1995,
            "rix": 1996,
            "jib": 1997,
            "wiga": 1998,
            "gao": 1999,
            "dred": 2000,
            "borg": 2001,
            "up": 2002,
            "aki": 2003,
            "hya": 2004,
            "tir": 2005,
            "cham": 2006,
            "tee": 2007,
            "ury": 2008,
            "ttu": 2009,
            "edana": 2010,
            "tok": 2011,
            "tari": 2012,
            "perpar": 2013,
            "fath": 2014,
            "ceu": 2015,
            "dieud": 2016,
            "boah": 2017,
            "gazmen": 2018,
            "iliano": 2019,
            "massim": 2020,
            "utam": 2021,
            "kish": 2022,
            "flu": 2023,
            "selv": 2024,
            "ilash": 2025,
            "slam": 2026,
            "loh": 2027,
            "apare": 2028,
            "afi": 2029,
            "usy": 2030,
            "ary": 2031,
            "gyong": 2032,
            "som": 2033,
            "ove": 2034,
            "sheer": 2035,
            "ryn": 2036,
            "ip": 2037,
            "seam": 2038,
            "elao": 2039,
            "amant": 2040,
            "soul": 2041,
            "oul": 2042,
            "eras": 2043,
            "jaira": 2044,
            "rone": 2045,
            "sma": 2046,
            "giorg": 2047,
            "yeo": 2048,
            "uleko": 2049,
            "balo": 2050,
            "kululeko": 2051,
            "jyo": 2052,
            "tumis": 2053,
            "melelo": 2054,
            "ndin": 2055,
            "ms": 2056,
            "larka": 2057,
            "ore": 2058,
            "poku": 2059,
            "nkosin": 2060,
            "isile": 2061,
            "gilio": 2062,
            "rak": 2063,
            "bre": 2064,
            "witha": 2065,
            "gelang": 2066,
            "pil": 2067,
            "dik": 2068,
            "fae": 2069,
            "gal": 2070,
            "anor": 2071,
            "yee": 2072,
            "hama": 2073,
            "ady": 2074,
            "temi": 2075,
            "xho": 2076,
            "dd": 2077,
            "jai": 2078,
            "helo": 2079,
            "fundo": 2080,
            "sura": 2081,
            "hau": 2082,
            "mmo": 2083,
            "wee": 2084,
            "naa": 2085,
            "eraj": 2086,
            "mc": 2087,
            "motsi": 2088,
            "olabi": 2089,
            "jin": 2090,
            "andine": 2091,
            "itlin": 2092,
            "toh": 2093,
            "boz": 2094,
            "idiso": 2095,
            "reth": 2096,
            "vao": 2097,
            "kjer": 2098,
            "edou": 2099,
            "uska": 2100,
            "modes": 2101,
            "sain": 2102,
            "cco": 2103,
            "ndapand": 2104,
            "vie": 2105,
            "ult": 2106,
            "zile": 2107,
            "iy": 2108,
            "haik": 2109,
            "sch": 2110,
            "onimo": 2111,
            "teof": 2112,
            "laz": 2113,
            "theoph": 2114,
            "gee": 2115,
            "atu": 2116,
            "hinde": 2117,
            "olya": 2118,
            "tsa": 2119,
            "avel": 2120,
            "ibrah": 2121,
            "cine": 2122,
            "rai": 2123,
            "beka": 2124,
            "hous": 2125,
            "tlot": 2126,
            "matsh": 2127,
            "wek": 2128,
            "dish": 2129,
            "bay": 2130,
            "kin": 2131,
            "hajn": 2132,
            "lhogonolo": 2133,
            "jp": 2134,
            "bna": 2135,
            "erd": 2136,
            "kosi": 2137,
            "sky": 2138,
            "diri": 2139,
            "mesh": 2140,
            "eti": 2141,
            "tech": 2142,
            "asy": 2143,
            "bud": 2144,
            "dile": 2145,
            "lope": 2146,
            "philo": 2147,
            "kiel": 2148,
            "dney": 2149,
            "jaf": 2150,
            "garfi": 2151,
            "cz": 2152,
            "ksen": 2153,
            "boik": 2154,
            "rh": 2155,
            "eddine": 2156,
            "beko": 2157,
            "erva": 2158,
            "hs": 2159,
            "pran": 2160,
            "euseb": 2161,
            "ghn": 2162,
            "gendra": 2163,
            "aobak": 2164,
            "fes": 2165,
            "tsho": 2166,
            "rre": 2167,
            "viane": 2168,
            "oar": 2169,
            "aa": 2170,
            "elito": 2171,
            "nhar": 2172,
            "zby": 2173,
            "rea": 2174,
            "trin": 2175,
            "sthem": 2176,
            "bogeng": 2177,
            "vald": 2178,
            "gim": 2179,
            "sek": 2180,
            "vka": 2181,
            "maso": 2182,
            "brey": 2183,
            "siz": 2184,
            "angwe": 2185,
            "piwa": 2186,
            "ghan": 2187,
            "jm": 2188,
            "wig": 2189,
            "bru": 2190,
            "emal": 2191,
            "hed": 2192,
            "zee": 2193,
            "icka": 2194,
            "uy": 2195,
            "hane": 2196,
            "horten": 2197,
            "niv": 2198,
            "manso": 2199,
            "cao": 2200,
            "andira": 2201,
            "ungo": 2202,
            "fem": 2203,
            "lumb": 2204,
            "dea": 2205,
            "kov": 2206,
            "bza": 2207,
            "oge": 2208,
            "wazi": 2209,
            "edwi": 2210,
            "amandla": 2211,
            "zimi": 2212,
            "hui": 2213,
            "boitshe": 2214,
            "rena": 2215,
            "boliv": 2216,
            "themb": 2217,
            "elou": 2218,
            "foo": 2219,
            "jia": 2220,
            "mohm": 2221,
            "dwa": 2222,
            "beiro": 2223,
            "try": 2224,
            "mee": 2225,
            "kresh": 2226,
            "kc": 2227,
            "iner": 2228,
            "mariv": 2229,
            "paz": 2230,
            "ragh": 2231,
            "rosal": 2232,
            "rj": 2233,
            "ew": 2234,
            "ulia": 2235,
            "bhe": 2236,
            "sne": 2237,
            "ndi": 2238,
            "moren": 2239,
            "ynor": 2240,
            "mam": 2241,
            "syn": 2242,
            "osi": 2243,
            "hold": 2244,
            "tal": 2245,
            "ouane": 2246,
            "kki": 2247,
            "wethu": 2248,
            "vany": 2249,
            "kedib": 2250,
            "morit": 2251,
            "gui": 2252,
            "ziano": 2253,
            "mant": 2254,
            "tette": 2255,
            "fie": 2256,
            "siek": 2257,
            "spar": 2258,
            "lop": 2259,
            "ivas": 2260,
            "ije": 2261,
            "bit": 2262,
            "yud": 2263,
            "ep": 2264,
            "ohe": 2265,
            "eel": 2266,
            "onkab": 2267,
            "coren": 2268,
            "atunde": 2269,
            "bey": 2270,
            "kye": 2271,
            "inah": 2272,
            "quita": 2273,
            "udo": 2274,
            "good": 2275,
            "anta": 2276,
            "athe": 2277,
            "yode": 2278,
            "agwe": 2279,
            "mud": 2280,
            "haira": 2281,
            "zona": 2282,
            "hak": 2283,
            "pru": 2284,
            "pruden": 2285,
            "endar": 2286,
            "margau": 2287,
            "dula": 2288,
            "cale": 2289,
            "fle": 2290,
            "zio": 2291,
            "editse": 2292,
            "aden": 2293,
            "org": 2294,
            "shil": 2295,
            "phe": 2296,
            "op": 2297,
            "abdl": 2298,
            "eucl": 2299,
            "usitse": 2300,
            "uis": 2301,
            "demet": 2302,
            "bhav": 2303,
            "raz": 2304,
            "hale": 2305,
            "sela": 2306,
            "oslav": 2307,
            "ume": 2308,
            "xto": 2309,
            "jei": 2310,
            "oi": 2311,
            "tap": 2312,
            "esihle": 2313,
            "ifa": 2314,
            "onkem": 2315,
            "swa": 2316,
            "vinia": 2317,
            "fola": 2318,
            "rry": 2319,
            "tru": 2320,
            "ilyn": 2321,
            "ilene": 2322,
            "giz": 2323,
            "qir": 2324,
            "adeni": 2325,
            "lut": 2326,
            "ted": 2327,
            "dhu": 2328,
            "kus": 2329,
            "avi": 2330,
            "ijo": 2331,
            "emba": 2332,
            "ivin": 2333,
            "kren": 2334,
            "xolo": 2335,
            "dau": 2336,
            "vuy": 2337,
            "jat": 2338,
            "brune": 2339,
            "ibe": 2340,
            "cj": 2341,
            "soh": 2342,
            "winder": 2343,
            "jal": 2344,
            "res": 2345,
            "ilton": 2346,
            "kak": 2347,
            "tau": 2348,
            "olam": 2349,
            "sap": 2350,
            "gara": 2351,
            "ilesh": 2352,
            "jeni": 2353,
            "kes": 2354,
            "elwa": 2355,
            "nol": 2356,
            "magdol": 2357,
            "urabh": 2358,
            "pold": 2359,
            "eletso": 2360,
            "elele": 2361,
            "tenya": 2362,
            "babal": 2363,
            "rexhe": 2364,
            "ughn": 2365,
            "yll": 2366,
            "zimierz": 2367,
            "quelin": 2368,
            "gve": 2369,
            "oko": 2370,
            "keamo": 2371,
            "job": 2372,
            "rost": 2373,
            "adar": 2374,
            "dash": 2375,
            "samp": 2376,
            "rabi": 2377,
            "adio": 2378,
            "net": 2379,
            "muh": 2380,
            "pong": 2381,
            "unle": 2382,
            "cita": 2383,
            "ayomi": 2384,
            "bby": 2385,
            "utt": 2386,
            "elfried": 2387,
            "rato": 2388,
            "josa": 2389,
            "dikel": 2390,
            "nagara": 2391,
            "tame": 2392,
            "reu": 2393,
            "dary": 2394,
            "pumelelo": 2395,
            "benedik": 2396,
            "jind": 2397,
            "ord": 2398,
            "lid": 2399,
            "etsang": 2400,
            "mogen": 2401,
            "qe": 2402,
            "alk": 2403,
            "alfon": 2404,
            "rki": 2405,
            "mook": 2406,
            "elouise": 2407,
            "jeeb": 2408,
            "onie": 2409,
            "milo": 2410,
            "rab": 2411,
            "piotre": 2412,
            "bed": 2413,
            "lomie": 2414,
            "nq": 2415,
            "ojo": 2416,
            "abdela": 2417,
            "ender": 2418,
            "sbon": 2419,
            "pl": 2420,
            "uri": 2421,
            "gula": 2422,
            "buso": 2423,
            "rhe": 2424,
            "njo": 2425,
            "nem": 2426,
            "lej": 2427,
            "bol": 2428,
            "hlen": 2429,
            "mok": 2430,
            "phem": 2431,
            "dav": 2432,
            "faro": 2433,
            "obi": 2434,
            "cquel": 2435,
            "lein": 2436,
            "abr": 2437,
            "mxol": 2438,
            "fry": 2439,
            "vje": 2440,
            "ukka": 2441,
            "zha": 2442,
            "satou": 2443,
            "torio": 2444,
            "ovi": 2445,
            "ulfo": 2446,
            "alphon": 2447,
            "laur": 2448,
            "izlan": 2449,
            "og": 2450,
            "hul": 2451,
            "oag": 2452,
            "unia": 2453,
            "botsh": 2454,
            "uan": 2455,
            "nii": 2456,
            "inye": 2457,
            "nango": 2458,
            "cilia": 2459,
            "tissam": 2460,
            "lette": 2461,
            "shadra": 2462,
            "gben": 2463,
            "barnab": 2464,
            "qend": 2465,
            "resa": 2466,
            "sthafa": 2467,
            "kutl": 2468,
            "wano": 2469,
            "dall": 2470,
            "utenya": 2471,
            "zira": 2472,
            "margu": 2473,
            "erite": 2474,
            "jab": 2475,
            "cko": 2476,
            "fadz": 2477,
            "eny": 2478,
            "khair": 2479,
            "dimo": 2480,
            "nav": 2481,
            "rou": 2482,
            "phyl": 2483,
            "mdudu": 2484,
            "nohe": 2485,
            "vinda": 2486,
            "sang": 2487,
            "zsan": 2488,
            "ateng": 2489,
            "cula": 2490,
            "culada": 2491,
            "kond": 2492,
            "benn": 2493,
            "ses": 2494,
            "sake": 2495,
            "awg": 2496,
            "odiri": 2497,
            "bair": 2498,
            "fay": 2499,
            "lun": 2500,
            "tza": 2501,
            "fj": 2502,
            "ilid": 2503,
            "weku": 2504,
            "vlast": 2505,
            "emetse": 2506,
            "ttya": 2507,
            "oye": 2508,
            "kani": 2509,
            "tj": 2510,
            "ergy": 2511,
            "xha": 2512,
            "soha": 2513,
            "alio": 2514,
            "faa": 2515,
            "enolo": 2516,
            "pun": 2517,
            "iken": 2518,
            "katari": 2519,
            "bath": 2520,
            "conc": 2521,
            "tura": 2522,
            "vlat": 2523,
            "naft": 2524,
            "eime": 2525,
            "teh": 2526,
            "ster": 2527,
            "fruz": 2528,
            "chita": 2529,
            "moke": 2530,
            "ooi": 2531,
            "poh": 2532,
            "dore": 2533,
            "iley": 2534,
            "liselo": 2535,
            "seer": 2536,
            "genn": 2537,
            "chibu": 2538,
            "enye": 2539,
            "sre": 2540,
            "cit": 2541,
            "boa": 2542,
            "zachar": 2543,
            "das": 2544,
            "mola": 2545,
            "anan": 2546,
            "erique": 2547,
            "krun": 2548,
            "kia": 2549,
            "yal": 2550,
            "seraf": 2551,
            "ness": 2552,
            "dic": 2553,
            "atla": 2554,
            "bha": 2555,
            "ngu": 2556,
            "sver": 2557,
            "getse": 2558,
            "xe": 2559,
            "zule": 2560,
            "vard": 2561,
            "gna": 2562,
            "zeyne": 2563,
            "sjo": 2564,
            "buku": 2565,
            "erito": 2566,
            "pent": 2567,
            "juni": 2568,
            "top": 2569,
            "tje": 2570,
            "vula": 2571,
            "zer": 2572,
            "arah": 2573,
            "herita": 2574,
            "moe": 2575,
            "yase": 2576,
            "binda": 2577,
            "mahla": 2578,
            "eek": 2579,
            "qman": 2580,
            "vim": 2581,
            "kyer": 2582,
            "sp": 2583,
            "wai": 2584,
            "dahi": 2585,
            "obile": 2586,
            "nja": 2587,
            "iem": 2588,
            "aleena": 2589,
            "nexh": 2590,
            "sv": 2591,
            "bur": 2592,
            "mza": 2593,
            "assun": 2594,
            "urd": 2595,
            "prasan": 2596,
            "gret": 2597,
            "oluwato": 2598,
            "ello": 2599,
            "margr": 2600,
            "eveli": 2601,
            "some": 2602,
            "mohs": 2603,
            "sahe": 2604,
            "zdz": 2605,
            "verio": 2606,
            "iful": 2607,
            "nyo": 2608,
            "sera": 2609,
            "ukri": 2610,
            "amade": 2611,
            "ix": 2612,
            "ineelo": 2613,
            "und": 2614,
            "khtar": 2615,
            "nesh": 2616,
            "unmi": 2617,
            "kri": 2618,
            "bw": 2619,
            "mbar": 2620,
            "opp": 2621,
            "clari": 2622,
            "ful": 2623,
            "grett": 2624,
            "eus": 2625,
            "lh": 2626,
            "dod": 2627,
            "estre": 2628,
            "aan": 2629,
            "ilola": 2630,
            "ulay": 2631,
            "dica": 2632,
            "nette": 2633,
            "seini": 2634,
            "aish": 2635,
            "jago": 2636,
            "saw": 2637,
            "jda": 2638,
            "maka": 2639,
            "simpl": 2640,
            "pinge": 2641,
            "weta": 2642,
            "mais": 2643,
            "baz": 2644,
            "biso": 2645,
            "bomir": 2646,
            "tide": 2647,
            "cim": 2648,
            "abh": 2649,
            "lle": 2650,
            "moem": 2651,
            "ethemba": 2652,
            "tro": 2653,
            "tserrat": 2654,
            "tol": 2655,
            "fakh": 2656,
            "sna": 2657,
            "beren": 2658,
            "heid": 2659,
            "lex": 2660,
            "faan": 2661,
            "pj": 2662,
            "kv": 2663,
            "bry": 2664,
            "liu": 2665,
            "chay": 2666,
            "aloo": 2667,
            "idou": 2668,
            "iola": 2669,
            "imatou": 2670,
            "dhe": 2671,
            "lijn": 2672,
            "andrina": 2673,
            "push": 2674,
            "iraj": 2675,
            "lete": 2676,
            "lehlo": 2677,
            "odu": 2678,
            "ott": 2679,
            "valde": 2680,
            "ryl": 2681,
            "eq": 2682,
            "moa": 2683,
            "ista": 2684,
            "bron": 2685,
            "bai": 2686,
            "keel": 2687,
            "osu": 2688,
            "goncal": 2689,
            "clet": 2690,
            "encer": 2691,
            "mmag": 2692,
            "modimo": 2693,
            "phu": 2694,
            "laer": 2695,
            "nw": 2696,
            "hmd": 2697,
            "mba": 2698,
            "edli": 2699,
            "usiku": 2700,
            "elore": 2701,
            "gry": 2702,
            "mp": 2703,
            "mbal": 2704,
            "tuel": 2705,
            "iades": 2706,
            "swe": 2707,
            "xii": 2708,
            "oua": 2709,
            "vlastim": 2710,
            "alita": 2711,
            "olani": 2712,
            "fawa": 2713,
            "gha": 2714,
            "jahan": 2715,
            "nek": 2716,
            "ebu": 2717,
            "chana": 2718,
            "rewa": 2719,
            "cep": 2720,
            "eeq": 2721,
            "olanrewa": 2722,
            "heen": 2723,
            "tta": 2724,
            "klav": 2725,
            "ub": 2726,
            "wladys": 2727,
            "mlung": 2728,
            "bek": 2729,
            "maw": 2730,
            "iya": 2731,
            "vani": 2732,
            "babo": 2733,
            "nke": 2734,
            "zrin": 2735,
            "mamou": 2736,
            "pcion": 2737,
            "popp": 2738,
            "slind": 2739,
            "nove": 2740,
            "shef": 2741,
            "neli": 2742,
            "erb": 2743,
            "fjol": 2744,
            "rex": 2745,
            "aleth": 2746,
            "onaleth": 2747,
            "sto": 2748,
            "see": 2749,
            "refilo": 2750,
            "ellio": 2751,
            "not": 2752,
            "mawan": 2753,
            "zef": 2754,
            "tie": 2755,
            "roj": 2756,
            "siel": 2757,
            "bien": 2758,
            "hys": 2759,
            "ook": 2760,
            "use": 2761,
            "cht": 2762,
            "exe": 2763,
            "nix": 2764,
            "dna": 2765,
            "ite": 2766,
            "pim": 2767,
            "diswa": 2768,
            "inho": 2769,
            "ones": 2770,
            "leva": 2771,
            "fino": 2772,
            "etan": 2773,
            "carias": 2774,
            "jj": 2775,
            "gott": 2776,
            "coal": 2777,
            "that": 2778,
            "eph": 2779,
            "ake": 2780,
            "sbu": 2781,
            "endo": 2782,
            "naw": 2783,
            "dos": 2784,
            "lidi": 2785,
            "ono": 2786,
            "ouda": 2787,
            "hes": 2788,
            "nde": 2789,
            "pene": 2790,
            "cu": 2791,
            "caoim": 2792,
            "jot": 2793,
            "xter": 2794,
            "candel": 2795,
            "blen": 2796,
            "loo": 2797,
            "wna": 2798,
            "ianto": 2799,
            "hra": 2800,
            "pana": 2801,
            "anael": 2802,
            "anayan": 2803,
            "vz": 2804,
            "diell": 2805,
            "petaga": 2806,
            "cka": 2807,
            "kn": 2808,
            "orine": 2809,
            "ophie": 2810,
            "nokw": 2811,
            "anti": 2812,
            "paol": 2813,
            "yambo": 2814,
            "jossel": 2815,
            "segam": 2816,
            "tando": 2817,
            "oya": 2818,
            "xu": 2819,
            "esor": 2820,
            "unah": 2821,
            "anyo": 2822,
            "noa": 2823,
            "nth": 2824,
            "zenka": 2825,
            "khali": 2826,
            "teu": 2827,
            "tur": 2828,
            "sene": 2829,
            "hambel": 2830,
            "gomodi": 2831,
            "abim": 2832,
            "fra": 2833,
            "hamo": 2834,
            "maje": 2835,
            "annem": 2836,
            "sakh": 2837,
            "bee": 2838,
            "vesh": 2839,
            "erg": 2840,
            "tah": 2841,
            "godira": 2842,
            "evy": 2843,
            "oa": 2844,
            "kolaw": 2845,
            "vii": 2846,
            "muhar": 2847,
            "bih": 2848,
            "razd": 2849,
            "llan": 2850,
            "yiso": 2851,
            "sik": 2852,
            "wunmi": 2853,
            "scar": 2854,
            "fait": 2855,
            "zaw": 2856,
            "kale": 2857,
            "araf": 2858,
            "ure": 2859,
            "rett": 2860,
            "biswa": 2861,
            "mayma": 2862,
            "ulena": 2863,
            "fai": 2864,
            "futhi": 2865,
            "mugam": 2866,
            "bonge": 2867,
            "isson": 2868,
            "abong": 2869,
            "arist": 2870,
            "leth": 2871,
            "mahle": 2872,
            "gton": 2873,
            "barrin": 2874,
            "hando": 2875,
            "siby": 2876,
            "kum": 2877,
            "petse": 2878,
            "gue": 2879,
            "gaola": 2880,
            "lipus": 2881,
            "ikhona": 2882,
            "hm": 2883,
            "yur": 2884,
            "simane": 2885,
            "cus": 2886,
            "edc": 2887,
            "rust": 2888,
            "qa": 2889,
            "yet": 2890,
            "cak": 2891,
            "pard": 2892,
            "uma": 2893,
            "veed": 2894,
            "uleni": 2895,
            "uff": 2896,
            "faz": 2897,
            "iton": 2898,
            "kga": 2899,
            "nk": 2900,
            "poloki": 2901,
            "gato": 2902,
            "ellin": 2903,
            "bonifa": 2904,
            "air": 2905,
            "wumi": 2906,
            "zsom": 2907,
            "jend": 2908,
            "ble": 2909,
            "sc": 2910,
            "kelo": 2911,
            "icio": 2912,
            "koso": 2913,
            "rif": 2914,
            "elihle": 2915,
            "vladim": 2916,
            "aye": 2917,
            "neft": 2918,
            "abderah": 2919,
            "fio": 2920,
            "eria": 2921,
            "libu": 2922,
            "wak": 2923,
            "zeer": 2924,
            "youss": 2925,
            "ilie": 2926,
            "muti": 2927,
            "anic": 2928,
            "asya": 2929,
            "inald": 2930,
            "maim": 2931,
            "firio": 2932,
            "dae": 2933,
            "szek": 2934,
            "erka": 2935,
            "deji": 2936,
            "angjel": 2937,
            "unya": 2938,
            "anyang": 2939,
            "fata": 2940,
            "ikko": 2941,
            "keni": 2942,
            "hernand": 2943,
            "uhir": 2944,
            "frid": 2945,
            "poli": 2946,
            "hutso": 2947,
            "warelo": 2948,
            "eeb": 2949,
            "nombul": 2950,
            "ppo": 2951,
            "laine": 2952,
            "hila": 2953,
            "bogu": 2954,
            "ibhav": 2955,
            "zarta": 2956,
            "zuan": 2957,
            "yanu": 2958,
            "bardo": 2959,
            "haro": 2960,
            "ades": 2961,
            "sford": 2962,
            "share": 2963,
            "ryam": 2964,
            "inou": 2965,
            "kera": 2966,
            "luig": 2967,
            "swap": 2968,
            "bolan": 2969,
            "zad": 2970,
            "sane": 2971,
            "mocha": 2972,
            "piyus": 2973,
            "qah": 2974,
            "chiz": 2975,
            "peleng": 2976,
            "jb": 2977,
            "gfj": 2978,
            "ery": 2979,
            "guz": 2980,
            "nji": 2981,
            "shal": 2982,
            "mio": 2983,
            "dagh": 2984,
            "husa": 2985,
            "wyn": 2986,
            "glori": 2987,
            "eal": 2988,
            "zos": 2989,
            "enke": 2990,
            "phi": 2991,
            "delo": 2992,
            "nhla": 2993,
            "izia": 2994,
            "snr": 2995,
            "famil": 2996,
            "ontlam": 2997,
            "suri": 2998,
            "hoa": 2999,
            "anx": 3000,
            "alme": 3001,
            "jsi": 3002,
            "joff": 3003,
            "arin": 3004,
            "molo": 3005,
            "chaib": 3006,
            "isola": 3007,
            "andana": 3008,
            "jhos": 3009,
            "ejf": 3010,
            "ildo": 3011,
            "dud": 3012,
            "victo": 3013,
            "nelius": 3014,
            "inkosi": 3015,
            "gjo": 3016,
            "bio": 3017,
            "menn": 3018,
            "onsah": 3019,
            "shit": 3020,
            "nwa": 3021,
            "kopan": 3022,
            "ushik": 3023,
            "ulam": 3024,
            "ive": 3025,
            "miljen": 3026,
            "nnam": 3027,
            "lodi": 3028,
            "bhas": 3029,
            "cke": 3030,
            "ass": 3031,
            "tabo": 3032,
            "atos": 3033,
            "dez": 3034,
            "dolphe": 3035,
            "rilo": 3036,
            "tey": 3037,
            "yapo": 3038,
            "obaka": 3039,
            "giam": 3040,
            "rk": 3041,
            "rosh": 3042,
            "jash": 3043,
            "sala": 3044,
            "hun": 3045,
            "vey": 3046,
            "stel": 3047,
            "diwe": 3048,
            "mahabu": 3049,
            "iusz": 3050,
            "vag": 3051,
            "dak": 3052,
            "pep": 3053,
            "qis": 3054,
            "chandr": 3055,
            "leat": 3056,
            "ffah": 3057,
            "ndil": 3058,
            "oka": 3059,
            "inu": 3060,
            "ami": 3061,
            "aded": 3062,
            "imeke": 3063,
            "unda": 3064,
            "nei": 3065,
            "evaughn": 3066,
            "myo": 3067,
            "janu": 3068,
            "bohu": 3069,
            "teef": 3070,
            "soo": 3071,
            "bach": 3072,
            "nehem": 3073,
            "nkan": 3074,
            "pend": 3075,
            "tya": 3076,
            "tius": 3077,
            "kwo": 3078,
            "hika": 3079,
            "emon": 3080,
            "zale": 3081,
            "kyi": 3082,
            "almud": 3083,
            "eul": 3084,
            "andel": 3085,
            "nguy": 3086,
            "wane": 3087,
            "gozie": 3088,
            "nne": 3089,
            "tii": 3090,
            "juven": 3091,
            "itan": 3092,
            "anao": 3093,
            "bonye": 3094,
            "zuk": 3095,
            "zuba": 3096,
            "ug": 3097,
            "mana": 3098,
            "wie": 3099,
            "lek": 3100,
            "aleel": 3101,
            "kef": 3102,
            "ibiades": 3103,
            "hole": 3104,
            "gesan": 3105,
            "onkgo": 3106,
            "jko": 3107,
            "gods": 3108,
            "brik": 3109,
            "nts": 3110,
            "czes": 3111,
            "mn": 3112,
            "rathe": 3113,
            "irin": 3114,
            "amb": 3115,
            "nolu": 3116,
            "emo": 3117,
            "tlhale": 3118,
            "csi": 3119,
            "sidor": 3120,
            "ghani": 3121,
            "oq": 3122,
            "mast": 3123,
            "chiso": 3124,
            "jio": 3125,
            "mene": 3126,
            "chijio": 3127,
            "oluwatos": 3128,
            "qet": 3129,
            "yis": 3130,
            "ferino": 3131,
            "uls": 3132,
            "jed": 3133,
            "ilayo": 3134,
            "honolo": 3135,
            "oler": 3136,
            "ghi": 3137,
            "emana": 3138,
            "ned": 3139,
            "ergen": 3140,
            "rukay": 3141,
            "gito": 3142,
            "uki": 3143,
            "mokg": 3144,
            "aiz": 3145,
            "uju": 3146,
            "iang": 3147,
            "benedi": 3148,
            "wanto": 3149,
            "mouh": 3150,
            "kacs": 3151,
            "kelisiwe": 3152,
            "ify": 3153,
            "etal": 3154,
            "china": 3155,
            "kozi": 3156,
            "prit": 3157,
            "celyn": 3158,
            "tes": 3159,
            "ricim": 3160,
            "ushi": 3161,
            "tond": 3162,
            "idele": 3163,
            "vindo": 3164,
            "hayu": 3165,
            "laug": 3166,
            "boye": 3167,
            "keo": 3168,
            "zouha": 3169,
            "prati": 3170,
            "mayan": 3171,
            "iche": 3172,
            "roris": 3173,
            "quille": 3174,
            "cornel": 3175,
            "iis": 3176,
            "yend": 3177,
            "tebat": 3178,
            "kiso": 3179,
            "fton": 3180,
            "chira": 3181,
            "tae": 3182,
            "gero": 3183,
            "elys": 3184,
            "ontir": 3185,
            "csen": 3186,
            "edrag": 3187,
            "shua": 3188,
            "yuk": 3189,
            "adeye": 3190,
            "hawn": 3191,
            "shkur": 3192,
            "luu": 3193,
            "adhar": 3194,
            "rd": 3195,
            "ssa": 3196,
            "xhen": 3197,
            "cito": 3198,
            "kgot": 3199,
            "enada": 3200,
            "eleen": 3201,
            "uka": 3202,
            "nast": 3203,
            "hart": 3204,
            "ares": 3205,
            "lindel": 3206,
            "cica": 3207,
            "ss": 3208,
            "niva": 3209,
            "sudhe": 3210,
            "kgothat": 3211,
            "aros": 3212,
            "imon": 3213,
            "imti": 3214,
            "pei": 3215,
            "vee": 3216,
            "peo": 3217,
            "kait": 3218,
            "cely": 3219,
            "youssou": 3220,
            "grac": 3221,
            "raff": 3222,
            "sev": 3223,
            "medes": 3224,
            "inocen": 3225,
            "thembin": 3226,
            "jnr": 3227,
            "eil": 3228,
            "lale": 3229,
            "soum": 3230,
            "motlale": 3231,
            "andar": 3232,
            "alez": 3233,
            "pion": 3234,
            "kjel": 3235,
            "araj": 3236,
            "aloy": 3237,
            "tti": 3238,
            "enal": 3239,
            "teix": 3240,
            "tij": 3241,
            "hiwa": 3242,
            "gamali": 3243,
            "fras": 3244,
            "lnet": 3245,
            "vul": 3246,
            "jovel": 3247,
            "hli": 3248,
            "abg": 3249,
            "vez": 3250,
            "iin": 3251,
            "juel": 3252,
            "pine": 3253,
            "ricar": 3254,
            "nazi": 3255,
            "caitri": 3256,
            "tsi": 3257,
            "cezar": 3258,
            "illah": 3259,
            "wor": 3260,
            "hah": 3261,
            "buzo": 3262,
            "skhum": 3263,
            "uny": 3264,
            "kos": 3265,
            "yorlen": 3266,
            "krim": 3267,
            "ill": 3268,
            "rell": 3269,
            "rije": 3270,
            "ansel": 3271,
            "isia": 3272,
            "abos": 3273,
            "loth": 3274,
            "bina": 3275,
            "eisha": 3276,
            "ous": 3277,
            "sit": 3278,
            "wir": 3279,
            "qer": 3280,
            "tch": 3281,
            "anga": 3282,
            "hele": 3283,
            "zka": 3284,
            "gyi": 3285,
            "xie": 3286,
            "yem": 3287,
            "etha": 3288,
            "witol": 3289,
            "thier": 3290,
            "czy": 3291,
            "iri": 3292,
            "nkir": 3293,
            "ogun": 3294,
            "kee": 3295,
            "mieczy": 3296,
            "anje": 3297,
            "oleka": 3298,
            "awa": 3299,
            "nhy": 3300,
            "noriz": 3301,
            "sius": 3302,
            "pendra": 3303,
            "valin": 3304,
            "itshe": 3305,
            "iseni": 3306,
            "sava": 3307,
            "qase": 3308,
            "haim": 3309,
            "bachi": 3310,
            "ava": 3311,
            "rrique": 3312,
            "ango": 3313,
            "maul": 3314,
            "anasta": 3315,
            "teiro": 3316,
            "nou": 3317,
            "eef": 3318,
            "qin": 3319,
            "uzo": 3320,
            "entle": 3321,
            "anthi": 3322,
            "uyile": 3323,
            "kshi": 3324,
            "laver": 3325,
            "unga": 3326,
            "nokul": 3327,
            "uzile": 3328,
            "gela": 3329,
            "mijn": 3330,
            "abisa": 3331,
            "adon": 3332,
            "shade": 3333,
            "arko": 3334,
            "angida": 3335,
            "yew": 3336,
            "age": 3337,
            "aza": 3338,
            "bev": 3339,
            "nett": 3340,
            "hona": 3341,
            "ety": 3342,
            "ceba": 3343,
            "wilika": 3344,
            "zeez": 3345,
            "ouan": 3346,
            "ebe": 3347,
            "slim": 3348,
            "gers": 3349,
            "eley": 3350,
            "essica": 3351,
            "tung": 3352,
            "wul": 3353,
            "attil": 3354,
            "dika": 3355,
            "orm": 3356,
            "wole": 3357,
            "masiku": 3358,
            "oyin": 3359,
            "ivis": 3360,
            "gole": 3361,
            "shwarelo": 3362,
            "ado": 3363,
            "jka": 3364,
            "path": 3365,
            "grz": 3366,
            "jem": 3367,
            "kau": 3368,
            "buisi": 3369,
            "koz": 3370,
            "tudu": 3371,
            "muid": 3372,
            "prim": 3373,
            "valdec": 3374,
            "hirah": 3375,
            "berte": 3376,
            "petron": 3377,
            "masi": 3378,
            "kic": 3379,
            "hauf": 3380,
            "ukje": 3381,
            "dha": 3382,
            "kke": 3383,
            "ws": 3384,
            "monye": 3385,
            "boiko": 3386,
            "cherie": 3387,
            "yda": 3388,
            "alid": 3389,
            "icke": 3390,
            "kah": 3391,
            "adet": 3392,
            "lw": 3393,
            "wlo": 3394,
            "anura": 3395,
            "ios": 3396,
            "remed": 3397,
            "eesh": 3398,
            "stino": 3399,
            "taw": 3400,
            "onia": 3401,
            "peton": 3402,
            "ganetso": 3403,
            "rez": 3404,
            "kaou": 3405,
            "celes": 3406,
            "kanipho": 3407,
            "hdi": 3408,
            "tger": 3409,
            "zhi": 3410,
            "rito": 3411,
            "aul": 3412,
            "rysia": 3413,
            "hey": 3414,
            "sirk": 3415,
            "gugul": 3416,
            "unnisa": 3417,
            "py": 3418,
            "potse": 3419,
            "shoko": 3420,
            "won": 3421,
            "muk": 3422,
            "pilo": 3423,
            "pok": 3424,
            "babalo": 3425,
            "eulo": 3426,
            "sea": 3427,
            "unka": 3428,
            "drah": 3429,
            "loven": 3430,
            "fair": 3431,
            "konstant": 3432,
            "onkar": 3433,
            "reet": 3434,
            "kenzie": 3435,
            "slad": 3436,
            "arant": 3437,
            "ache": 3438,
            "sker": 3439,
            "esse": 3440,
            "mtho": 3441,
            "anam": 3442,
            "jemi": 3443,
            "imar": 3444,
            "whit": 3445,
            "cema": 3446,
            "keora": 3447,
            "imit": 3448,
            "siw": 3449,
            "dhimit": 3450,
            "daf": 3451,
            "meag": 3452,
            "isie": 3453,
            "jr": 3454,
            "mbu": 3455,
            "tid": 3456,
            "alhad": 3457,
            "ich": 3458,
            "rajpu": 3459,
            "ulek": 3460,
            "bot": 3461,
            "khulek": 3462,
            "anner": 3463,
            "keole": 3464,
            "lincol": 3465,
            "motsh": 3466,
            "idisi": 3467,
            "agh": 3468,
            "sau": 3469,
            "gea": 3470,
            "shqip": 3471,
            "tuul": 3472,
            "svan": 3473,
            "taju": 3474,
            "blon": 3475,
            "haak": 3476,
            "chal": 3477,
            "adede": 3478,
            "reia": 3479,
            "mosimane": 3480,
            "lucine": 3481,
            "magdel": 3482,
            "aloj": 3483,
            "kik": 3484,
            "tosh": 3485,
            "gezi": 3486,
            "tashe": 3487,
            "shame": 3488,
            "mekond": 3489,
            "azar": 3490,
            "nsim": 3491,
            "aad": 3492,
            "ogo": 3493,
            "monser": 3494,
            "guen": 3495,
            "monserra": 3496,
            "fetse": 3497,
            "alill": 3498,
            "lavi": 3499,
            "edza": 3500,
            "gopol": 3501,
            "shko": 3502,
            "itsi": 3503,
            "arita": 3504,
            "gmor": 3505,
            "hafo": 3506,
            "lorun": 3507,
            "cip": 3508,
            "bem": 3509,
            "dahir": 3510,
            "kagis": 3511,
            "irine": 3512,
            "moek": 3513,
            "pjet": 3514,
            "usou": 3515,
            "mide": 3516,
            "leopol": 3517,
            "atif": 3518,
            "khush": 3519,
            "sos": 3520,
            "nim": 3521,
            "ogomodi": 3522,
            "rapel": 3523,
            "tafadz": 3524,
            "kolodi": 3525,
            "shy": 3526,
            "ilekan": 3527,
            "nauf": 3528,
            "shou": 3529,
            "sanqa": 3530,
            "artha": 3531,
            "batris": 3532,
            "esika": 3533,
            "biah": 3534,
            "carval": 3535,
            "mocham": 3536,
            "ekela": 3537,
            "nugro": 3538,
            "kras": 3539,
            "pis": 3540,
            "niqi": 3541,
            "shpe": 3542,
            "nohem": 3543,
            "doua": 3544,
            "fha": 3545,
            "rese": 3546,
            "pinder": 3547,
            "lathe": 3548,
            "saloma": 3549,
            "sushan": 3550,
            "amfi": 3551,
            "pherd": 3552,
            "aqu": 3553,
            "iba": 3554,
            "inus": 3555,
            "darw": 3556,
            "aquil": 3557,
            "mem": 3558,
            "sm": 3559,
            "fru": 3560,
            "hee": 3561,
            "sav": 3562,
            "waki": 3563,
            "mole": 3564,
            "mdu": 3565,
            "mr": 3566,
            "seli": 3567,
            "joyn": 3568,
            "abima": 3569,
            "hipoli": 3570,
            "rits": 3571,
            "boh": 3572,
            "pomb": 3573,
            "jsa": 3574,
            "tio": 3575,
            "ercia": 3576,
            "alzb": 3577,
            "imiro": 3578,
            "kea": 3579,
            "hoo": 3580,
            "mhd": 3581,
            "uke": 3582,
            "wart": 3583,
            "umo": 3584,
            "wit": 3585,
            "mum": 3586,
            "eck": 3587,
            "baut": 3588,
            "pendu": 3589,
            "ritt": 3590,
            "lynd": 3591,
            "jman": 3592,
            "inio": 3593,
            "mumun": 3594,
            "bd": 3595,
            "diel": 3596,
            "bep": 3597,
            "thembis": 3598,
            "dime": 3599,
            "ges": 3600,
            "ock": 3601,
            "umugam": 3602,
            "karish": 3603,
            "oladime": 3604,
            "wilfri": 3605,
            "yie": 3606,
            "ramire": 3607,
            "taou": 3608,
            "omoto": 3609,
            "queta": 3610,
            "fta": 3611,
            "tet": 3612,
            "supar": 3613,
            "ambro": 3614,
            "beh": 3615,
            "pro": 3616,
            "ple": 3617,
            "yaou": 3618,
            "antse": 3619,
            "neet": 3620,
            "meen": 3621,
            "ffer": 3622,
            "moy": 3623,
            "soe": 3624,
            "unyela": 3625,
            "disiwe": 3626,
            "mbon": 3627,
            "elsab": 3628,
            "chic": 3629,
            "karna": 3630,
            "zulkarna": 3631,
            "chib": 3632,
            "brin": 3633,
            "uzor": 3634,
            "motlat": 3635,
            "rhman": 3636,
            "heim": 3637,
            "zyg": 3638,
            "nid": 3639,
            "ule": 3640,
            "iffer": 3641,
            "rigel": 3642,
            "osethu": 3643,
            "cah": 3644,
            "ntu": 3645,
            "weli": 3646,
            "wija": 3647,
            "dodo": 3648,
            "thuko": 3649,
            "koy": 3650,
            "arion": 3651,
            "aca": 3652,
            "rogi": 3653,
            "kenale": 3654,
            "nafi": 3655,
            "nyan": 3656,
            "ox": 3657,
            "zir": 3658,
            "valqui": 3659,
            "wini": 3660,
            "dadi": 3661,
            "sac": 3662,
            "edine": 3663,
            "goke": 3664,
            "vad": 3665,
            "afri": 3666,
            "fol": 3667,
            "gervas": 3668,
            "bec": 3669,
            "suley": 3670,
            "zik": 3671,
            "joch": 3672,
            "moor": 3673,
            "juma": 3674,
            "cali": 3675,
            "maib": 3676,
            "nafis": 3677,
            "akan": 3678,
            "adeda": 3679,
            "vaish": 3680,
            "doline": 3681,
            "ghese": 3682,
            "walo": 3683,
            "syb": 3684,
            "hain": 3685,
            "zur": 3686,
            "hall": 3687,
            "hati": 3688,
            "elani": 3689,
            "worth": 3690,
            "dei": 3691,
            "cast": 3692,
            "raus": 3693,
            "asim": 3694,
            "sibon": 3695,
            "narasim": 3696,
            "ded": 3697,
            "zvje": 3698,
            "jaou": 3699,
            "gutin": 3700,
            "torina": 3701,
            "cass": 3702,
            "prana": 3703,
            "bami": 3704,
            "zvjez": 3705,
            "haiq": 3706,
            "gomot": 3707,
            "pheto": 3708,
            "gey": 3709,
            "sed": 3710,
            "neg": 3711,
            "dras": 3712,
            "oki": 3713,
            "seni": 3714,
            "brig": 3715,
            "khar": 3716,
            "yil": 3717,
            "dipan": 3718,
            "serik": 3719,
            "ntsa": 3720,
            "bonna": 3721,
            "cis": 3722,
            "mero": 3723,
            "ynka": 3724,
            "tinyi": 3725,
            "lj": 3726,
            "oab": 3727,
            "sr": 3728,
            "amod": 3729,
            "megam": 3730,
            "itshepi": 3731,
            "amodimo": 3732,
            "hin": 3733,
            "ethiwe": 3734,
            "aali": 3735,
            "marsh": 3736,
            "lux": 3737,
            "mey": 3738,
            "ffo": 3739,
            "dzimierz": 3740,
            "gyo": 3741,
            "sila": 3742,
            "ushal": 3743,
            "irse": 3744,
            "benig": 3745,
            "munt": 3746,
            "aja": 3747,
            "isetso": 3748,
            "edade": 3749,
            "tavar": 3750,
            "urin": 3751,
            "yip": 3752,
            "afa": 3753,
            "khum": 3754,
            "djo": 3755,
            "pla": 3756,
            "ral": 3757,
            "lofelo": 3758,
            "ceng": 3759,
            "lik": 3760,
            "ogau": 3761,
            "shath": 3762,
            "vasili": 3763,
            "woo": 3764,
            "vent": 3765,
            "ancio": 3766,
            "haku": 3767,
            "chime": 3768,
            "ader": 3769,
            "alefa": 3770,
            "elvina": 3771,
            "lakat": 3772,
            "hanee": 3773,
            "gnesh": 3774,
            "ielo": 3775,
            "nall": 3776,
            "urne": 3777,
            "siu": 3778,
            "jip": 3779,
            "elelo": 3780,
            "ikelelo": 3781,
            "jorgel": 3782,
            "bodh": 3783,
            "siddhar": 3784,
            "wola": 3785,
            "stod": 3786,
            "keil": 3787,
            "olayi": 3788,
            "bahu": 3789,
            "custod": 3790,
            "diso": 3791,
            "kb": 3792,
            "erese": 3793,
            "lade": 3794,
            "atlar": 3795,
            "takal": 3796,
            "keatlar": 3797,
            "matso": 3798,
            "buy": 3799,
            "kgakga": 3800,
            "magdal": 3801,
            "ota": 3802,
            "luken": 3803,
            "taa": 3804,
            "mahbu": 3805,
            "bekile": 3806,
            "radou": 3807,
            "doine": 3808,
            "lys": 3809,
            "bana": 3810,
            "funo": 3811,
            "gfi": 3812,
            "hid": 3813,
            "esate": 3814,
            "leid": 3815,
            "tadh": 3816,
            "fiesate": 3817,
            "kgod": 3818,
            "effen": 3819,
            "nz": 3820,
            "anya": 3821,
            "esca": 3822,
            "loire": 3823,
            "imalo": 3824,
            "kaiz": 3825,
            "ynara": 3826,
            "shego": 3827,
            "maur": 3828,
            "koya": 3829,
            "sema": 3830,
            "gric": 3831,
            "uyo": 3832,
            "ladou": 3833,
            "quah": 3834,
            "selle": 3835,
            "djell": 3836,
            "nyn": 3837,
            "icah": 3838,
            "buchi": 3839,
            "ilare": 3840,
            "mouhs": 3841,
            "obus": 3842,
            "itswe": 3843,
            "boip": 3844,
            "gica": 3845,
            "minder": 3846,
            "para": 3847,
            "vare": 3848,
            "ndahambel": 3849,
            "vetka": 3850,
            "fjd": 3851,
            "jv": 3852,
            "pip": 3853,
            "awu": 3854,
            "cut": 3855,
            "gem": 3856,
            "suwar": 3857,
            "eleng": 3858,
            "aby": 3859,
            "remig": 3860,
            "ireleng": 3861,
            "fek": 3862,
            "mesz": 3863,
            "nane": 3864,
            "chho": 3865,
            "rencia": 3866,
            "cson": 3867,
            "dja": 3868,
            "moide": 3869,
            "ivel": 3870,
            "sigr": 3871,
            "quez": 3872,
            "gearo": 3873,
            "yambeko": 3874,
            "sl": 3875,
            "roelo": 3876,
            "aje": 3877,
            "aib": 3878,
            "adh": 3879,
            "ifeyin": 3880,
            "raic": 3881,
            "belani": 3882,
            "yolwethu": 3883,
            "raimon": 3884,
            "oel": 3885,
            "zl": 3886,
            "pertun": 3887,
            "buj": 3888,
            "ipho": 3889,
            "nder": 3890,
            "lew": 3891,
            "vinder": 3892,
            "hma": 3893,
            "arez": 3894,
            "atjie": 3895,
            "fim": 3896,
            "jata": 3897,
            "etz": 3898,
            "hag": 3899,
            "much": 3900,
            "valda": 3901,
            "enhlanhla": 3902,
            "onth": 3903,
            "pee": 3904,
            "barula": 3905,
            "poola": 3906,
            "ganye": 3907,
            "ulelo": 3908,
            "vaness": 3909,
            "vela": 3910,
            "gafo": 3911,
            "adeg": 3912,
            "frik": 3913,
            "rius": 3914,
            "maton": 3915,
            "ikelao": 3916,
            "tuyen": 3917,
            "cum": 3918,
            "kky": 3919,
            "xo": 3920,
            "zil": 3921,
            "ged": 3922,
            "uo": 3923,
            "wendu": 3924,
            "marist": 3925,
            "bk": 3926,
            "feliz": 3927,
            "lel": 3928,
            "lwan": 3929,
            "lasar": 3930,
            "manta": 3931,
            "yak": 3932,
            "utlwan": 3933,
            "cze": 3934,
            "hmi": 3935,
            "esth": 3936,
            "jue": 3937,
            "naf": 3938,
            "glau": 3939,
            "ndo": 3940,
            "mayo": 3941,
            "ilendra": 3942,
            "bilkis": 3943,
            "eh": 3944,
            "gri": 3945,
            "cos": 3946,
            "ehh": 3947,
            "cun": 3948,
            "ejh": 3949,
            "gali": 3950,
            "moac": 3951,
            "shru": 3952,
            "yok": 3953,
            "cipe": 3954,
            "iga": 3955,
            "kaya": 3956,
            "phume": 3957,
            "asz": 3958,
            "szu": 3959,
            "tsak": 3960,
            "obio": 3961,
            "kti": 3962,
            "ikin": 3963,
            "kegomodi": 3964,
            "tswe": 3965,
            "vine": 3966,
            "evin": 3967,
            "lieb": 3968,
            "ziah": 3969,
            "wesi": 3970,
            "unji": 3971,
            "waya": 3972,
            "ukwaya": 3973,
            "dran": 3974,
            "baldo": 3975,
            "aph": 3976,
            "ilagyi": 3977,
            "wac": 3978,
            "folorun": 3979,
            "fco": 3980,
            "lala": 3981,
            "dijat": 3982,
            "rra": 3983,
            "setswe": 3984,
            "paci": 3985,
            "bode": 3986,
            "gle": 3987,
            "lir": 3988,
            "vler": 3989,
            "vone": 3990,
            "almen": 3991,
            "lushe": 3992,
            "vino": 3993,
            "engjel": 3994,
            "iwo": 3995,
            "kile": 3996,
            "svit": 3997,
            "maimo": 3998,
            "phaine": 3999,
            "cleus": 4000,
            "vraj": 4001,
            "ratho": 4002,
            "emen": 4003,
            "keish": 4004,
            "ilien": 4005,
            "mess": 4006,
            "benhle": 4007,
            "how": 4008,
            "confid": 4009,
            "mosho": 4010,
            "dj": 4011,
            "khi": 4012,
            "arc": 4013,
            "pash": 4014,
            "shid": 4015,
            "urshid": 4016,
            "luck": 4017,
            "cabr": 4018,
            "kgao": 4019,
            "uhan": 4020,
            "moff": 4021,
            "suis": 4022,
            "mesta": 4023,
            "zslav": 4024,
            "vite": 4025,
            "janan": 4026,
            "rudol": 4027,
            "hei": 4028,
            "ndeship": 4029,
            "ddg": 4030,
            "sjor": 4031,
            "muhaim": 4032,
            "csis": 4033,
            "marjet": 4034,
            "rayo": 4035,
            "motun": 4036,
            "gerva": 4037,
            "fii": 4038,
            "xue": 4039,
            "velo": 4040,
            "ere": 4041,
            "torie": 4042,
            "ramani": 4043,
            "edile": 4044,
            "diq": 4045,
            "jop": 4046,
            "moga": 4047,
            "phin": 4048,
            "gai": 4049,
            "bhard": 4050,
            "yel": 4051,
            "gos": 4052,
            "flavi": 4053,
            "mzwak": 4054,
            "bhus": 4055,
            "gj": 4056,
            "ljer": 4057,
            "off": 4058,
            "kole": 4059,
            "olasun": 4060,
            "agyap": 4061,
            "kanmi": 4062,
            "ushka": 4063,
            "epi": 4064,
            "hmz": 4065,
            "qoba": 4066,
            "sidi": 4067,
            "prisk": 4068,
            "big": 4069,
            "melele": 4070,
            "fatee": 4071,
            "fui": 4072,
            "ndiv": 4073,
            "huwo": 4074,
            "majl": 4075,
            "abrah": 4076,
            "gav": 4077,
            "biz": 4078,
            "qy": 4079,
            "rrag": 4080,
            "zeli": 4081,
            "isani": 4082,
            "amelo": 4083,
            "adzi": 4084,
            "aship": 4085,
            "munyar": 4086,
            "ntombiz": 4087,
            "shyqy": 4088,
            "nwan": 4089,
            "owe": 4090,
            "baffo": 4091,
            "gwena": 4092,
            "enkosi": 4093,
            "imete": 4094,
            "medin": 4095,
            "hok": 4096,
            "dz": 4097,
            "moip": 4098,
            "ifhiwa": 4099,
            "kgau": 4100,
            "uba": 4101,
            "valdim": 4102,
            "kevau": 4103,
            "ooz": 4104,
            "ruv": 4105,
            "fiz": 4106,
            "rt": 4107,
            "zabe": 4108,
            "hafi": 4109,
            "reya": 4110,
            "iretse": 4111,
            "ahe": 4112,
            "milola": 4113,
            "jvi": 4114,
            "oak": 4115,
            "qas": 4116,
            "ujo": 4117,
            "iom": 4118,
            "rinha": 4119,
            "jhor": 4120,
            "onka": 4121,
            "andjo": 4122,
            "lain": 4123,
            "suh": 4124,
            "sudir": 4125,
            "oby": 4126,
            "ude": 4127,
            "thany": 4128,
            "maksy": 4129,
            "petual": 4130,
            "wij": 4131,
            "lemor": 4132,
            "deka": 4133,
            "egi": 4134,
            "iel": 4135,
            "kedu": 4136,
            "mbe": 4137,
            "ndea": 4138,
            "sikhona": 4139,
            "ory": 4140,
            "hebo": 4141,
            "poju": 4142,
            "gin": 4143,
            "andeep": 4144,
            "ibade": 4145,
            "yaris": 4146,
            "yr": 4147,
            "kou": 4148,
            "gl": 4149,
            "yia": 4150,
            "usua": 4151,
            "kolek": 4152,
            "etske": 4153,
            "feze": 4154,
            "tyre": 4155,
            "lary": 4156,
            "fez": 4157,
            "yise": 4158,
            "phel": 4159,
            "ntombika": 4160,
            "nwe": 4161,
            "rho": 4162,
            "snor": 4163,
            "wf": 4164,
            "yc": 4165,
            "shafe": 4166,
            "florid": 4167,
            "csa": 4168,
            "msi": 4169,
            "mmer": 4170,
            "pren": 4171,
            "smil": 4172,
            "tusa": 4173,
            "anat": 4174,
            "eseng": 4175,
            "enao": 4176,
            "idoo": 4177,
            "tshepile": 4178,
            "amad": 4179,
            "gette": 4180,
            "ibou": 4181,
            "rhi": 4182,
            "srik": 4183,
            "tk": 4184,
            "japh": 4185,
            "soua": 4186,
            "dieket": 4187,
            "edes": 4188,
            "guo": 4189,
            "lha": 4190,
            "lley": 4191,
            "tazar": 4192,
            "didri": 4193,
            "sic": 4194,
            "ske": 4195,
            "uti": 4196,
            "yed": 4197,
            "arbr": 4198,
            "ineth": 4199,
            "jae": 4200,
            "doren": 4201,
            "novel": 4202,
            "cedisi": 4203,
            "alwe": 4204,
            "gura": 4205,
            "dru": 4206,
            "kjar": 4207,
            "mpendu": 4208,
            "sino": 4209,
            "hao": 4210,
            "asdru": 4211,
            "efe": 4212,
            "uduzo": 4213,
            "eke": 4214,
            "mha": 4215,
            "oat": 4216,
            "udy": 4217,
            "laad": 4218,
            "monkgo": 4219,
            "siyam": 4220,
            "otlaad": 4221,
            "xao": 4222,
            "cre": 4223,
            "wene": 4224,
            "chor": 4225,
            "charia": 4226,
            "jard": 4227,
            "ncum": 4228,
            "tair": 4229,
            "cef": 4230,
            "power": 4231,
            "schmi": 4232,
            "aric": 4233,
            "andu": 4234,
            "aleen": 4235,
            "karup": 4236,
            "veland": 4237,
            "mamel": 4238,
            "gba": 4239,
            "radi": 4240,
            "etie": 4241,
            "mobil": 4242,
            "adhu": 4243,
            "olind": 4244,
            "shku": 4245,
            "abdes": 4246,
            "mbin": 4247,
            "mbat": 4248,
            "sbo": 4249,
            "tren": 4250,
            "uh": 4251,
            "ujun": 4252,
            "haw": 4253,
            "ikany": 4254,
            "gum": 4255,
            "peh": 4256,
            "gaole": 4257,
            "dongo": 4258,
            "apart": 4259,
            "cem": 4260,
            "inav": 4261,
            "taof": 4262,
            "fy": 4263,
            "froy": 4264,
            "vya": 4265,
            "inara": 4266,
            "lady": 4267,
            "stlady": 4268,
            "heged": 4269,
            "oduna": 4270,
            "eith": 4271,
            "ampo": 4272,
            "atas": 4273,
            "kupe": 4274,
            "pop": 4275,
            "honora": 4276,
            "vincen": 4277,
            "hayla": 4278,
            "zib": 4279,
            "elem": 4280,
            "toy": 4281,
            "thelem": 4282,
            "barthelem": 4283,
            "tints": 4284,
            "nasi": 4285,
            "onja": 4286,
            "haith": 4287,
            "shrik": 4288,
            "helm": 4289,
            "sard": 4290,
            "amede": 4291,
            "dapo": 4292,
            "hell": 4293,
            "bojsa": 4294,
            "yau": 4295,
            "gajen": 4296,
            "oux": 4297,
            "hmo": 4298,
            "wed": 4299,
            "shig": 4300,
            "yner": 4301,
            "ashfa": 4302,
            "biyi": 4303,
            "wedha": 4304,
            "anyan": 4305,
            "aleye": 4306,
            "blos": 4307,
            "umu": 4308,
            "kaa": 4309,
            "gome": 4310,
            "unanya": 4311,
            "hore": 4312,
            "iu": 4313,
            "seca": 4314,
            "hair": 4315,
            "hua": 4316,
            "fei": 4317,
            "phanie": 4318,
            "nov": 4319,
            "gih": 4320,
            "zhan": 4321,
            "raq": 4322,
            "etto": 4323,
            "dyg": 4324,
            "yotlhe": 4325,
            "fhiwa": 4326,
            "pk": 4327,
            "iaa": 4328,
            "ilan": 4329,
            "shob": 4330,
            "itzi": 4331,
            "aver": 4332,
            "evair": 4333,
            "ponja": 4334,
            "yand": 4335,
            "argen": 4336,
            "noy": 4337,
            "nosiph": 4338,
            "arito": 4339,
            "leye": 4340,
            "volo": 4341,
            "rajend": 4342,
            "butrin": 4343,
            "luzvim": 4344,
            "kwah": 4345,
            "bris": 4346,
            "islas": 4347,
            "rot": 4348,
            "evedo": 4349,
            "tiar": 4350,
            "choua": 4351,
            "karena": 4352,
            "cai": 4353,
            "rosse": 4354,
            "conda": 4355,
            "ccia": 4356,
            "yue": 4357,
            "fur": 4358,
            "famodimo": 4359,
            "kvet": 4360,
            "wanelo": 4361,
            "kwashe": 4362,
            "elus": 4363,
            "bourne": 4364,
            "milian": 4365,
            "ccio": 4366,
            "omy": 4367,
            "tty": 4368,
            "ukel": 4369,
            "umal": 4370,
            "arik": 4371,
            "issi": 4372,
            "amukel": 4373,
            "roca": 4374,
            "thola": 4375,
            "deib": 4376,
            "syarik": 4377,
            "rele": 4378,
            "sisi": 4379,
            "rog": 4380,
            "ores": 4381,
            "ormais": 4382,
            "serxh": 4383,
            "turie": 4384,
            "irat": 4385,
            "bohile": 4386,
            "echi": 4387,
            "eii": 4388,
            "kusu": 4389,
            "plex": 4390,
            "wiek": 4391,
            "engu": 4392,
            "phile": 4393,
            "emus": 4394,
            "nicod": 4395,
            "giphile": 4396,
            "aou": 4397,
            "sbah": 4398,
            "mudu": 4399,
            "cido": 4400,
            "pres": 4401,
            "khard": 4402,
            "xane": 4403,
            "zid": 4404,
            "anso": 4405,
            "onthat": 4406,
            "gaya": 4407,
            "hyne": 4408,
            "ld": 4409,
            "nna": 4410,
            "vl": 4411,
            "temita": 4412,
            "come": 4413,
            "azz": 4414,
            "fja": 4415,
            "ksa": 4416,
            "prach": 4417,
            "radam": 4418,
            "maham": 4419,
            "mek": 4420,
            "aun": 4421,
            "qtr": 4422,
            "manjun": 4423,
            "ival": 4424,
            "quiades": 4425,
            "eku": 4426,
            "lonne": 4427,
            "edele": 4428,
            "hade": 4429,
            "annesof": 4430,
            "ngon": 4431,
            "vete": 4432,
            "thir": 4433,
            "glad": 4434,
            "emaa": 4435,
            "dnyan": 4436,
            "mail": 4437,
            "impia": 4438,
            "taz": 4439,
            "ilaine": 4440,
            "eshwar": 4441,
            "epa": 4442,
            "atlho": 4443,
            "etano": 4444,
            "chta": 4445,
            "dawo": 4446,
            "moatlho": 4447,
            "phelo": 4448,
            "dyl": 4449,
            "ciosa": 4450,
            "ganedi": 4451,
            "weletse": 4452,
            "godswa": 4453,
            "mousu": 4454,
            "adesan": 4455,
            "tier": 4456,
            "bena": 4457,
            "alas": 4458,
            "rosha": 4459,
            "daliz": 4460,
            "hwa": 4461,
            "aoib": 4462,
            "oise": 4463,
            "uush": 4464,
            "alh": 4465,
            "yama": 4466,
            "milen": 4467,
            "ento": 4468,
            "iomar": 4469,
            "ulani": 4470,
            "unba": 4471,
            "boo": 4472,
            "jepo": 4473,
            "sithemb": 4474,
            "ireann": 4475,
            "nascim": 4476,
            "cet": 4477,
            "andzeli": 4478,
            "atien": 4479,
            "syuha": 4480,
            "azah": 4481,
            "itas": 4482,
            "kyo": 4483,
            "onti": 4484,
            "amangwe": 4485,
            "etsegang": 4486,
            "phas": 4487,
            "wier": 4488,
            "nuuyo": 4489,
            "kant": 4490,
            "ikisu": 4491,
            "salama": 4492,
            "compara": 4493,
            "apa": 4494,
            "keda": 4495,
            "mmy": 4496,
            "lahi": 4497,
            "moc": 4498,
            "adig": 4499,
            "dipo": 4500,
            "dienne": 4501,
            "gayat": 4502,
            "tshilid": 4503,
            "rc": 4504,
            "enji": 4505,
            "thenji": 4506,
            "eev": 4507,
            "ebel": 4508,
            "mph": 4509,
            "mwen": 4510,
            "ambo": 4511,
            "edra": 4512,
            "torg": 4513,
            "idade": 4514,
            "akor": 4515,
            "tisam": 4516,
            "cuk": 4517,
            "geto": 4518,
            "lsa": 4519,
            "mpa": 4520,
            "arewa": 4521,
            "elbas": 4522,
            "edz": 4523,
            "segang": 4524,
            "taza": 4525,
            "adete": 4526,
            "olarewa": 4527,
            "sylej": 4528,
            "rushik": 4529,
            "uth": 4530,
            "maci": 4531,
            "kafa": 4532,
            "cid": 4533,
            "emz": 4534,
            "iliyas": 4535,
            "oslava": 4536,
            "cres": 4537,
            "gli": 4538,
            "galu": 4539,
            "jd": 4540,
            "oei": 4541,
            "andin": 4542,
            "standin": 4543,
            "sewer": 4544,
            "ianti": 4545,
            "gugli": 4546,
            "iseka": 4547,
            "pom": 4548,
            "lutgar": 4549,
            "cresc": 4550,
            "mmad": 4551,
            "pala": 4552,
            "vusu": 4553,
            "zta": 4554,
            "encia": 4555,
            "paw": 4556,
            "gida": 4557,
            "zimkh": 4558,
            "amola": 4559,
            "mithil": 4560,
            "kop": 4561,
            "dano": 4562,
            "damola": 4563,
            "kert": 4564,
            "cul": 4565,
            "alha": 4566,
            "hamd": 4567,
            "diong": 4568,
            "murit": 4569,
            "magalha": 4570,
            "hercul": 4571,
            "kita": 4572,
            "ezim": 4573,
            "gad": 4574,
            "jis": 4575,
            "obon": 4576,
            "sworth": 4577,
            "ank": 4578,
            "enyon": 4579,
            "maiz": 4580,
            "melin": 4581,
            "mysl": 4582,
            "ifele": 4583,
            "arteng": 4584,
            "yendra": 4585,
            "dashu": 4586,
            "luten": 4587,
            "basav": 4588,
            "rukh": 4589,
            "nadez": 4590,
            "wic": 4591,
            "ibuk": 4592,
            "akind": 4593,
            "zula": 4594,
            "tomor": 4595,
            "kasi": 4596,
            "thivel": 4597,
            "ikha": 4598,
            "sadh": 4599,
            "fony": 4600,
            "gria": 4601,
            "sg": 4602,
            "athon": 4603,
            "masix": 4604,
            "nge": 4605,
            "esit": 4606,
            "domon": 4607,
            "sahad": 4608,
            "idong": 4609,
            "nekon": 4610,
            "tuyol": 4611,
            "anurad": 4612,
            "ramas": 4613,
            "eser": 4614,
            "mour": 4615,
            "samsu": 4616,
            "rug": 4617,
            "idor": 4618,
            "welo": 4619,
            "zz": 4620,
            "uld": 4621,
            "kagel": 4622,
            "baft": 4623,
            "chryst": 4624,
            "naom": 4625,
            "mini": 4626,
            "heriti": 4627,
            "bald": 4628,
            "ily": 4629,
            "hada": 4630,
            "yao": 4631,
            "pear": 4632,
            "harto": 4633,
            "dt": 4634,
            "gusz": 4635,
            "jham": 4636,
            "kade": 4637,
            "oly": 4638,
            "debas": 4639,
            "camil": 4640,
            "prasen": 4641,
            "fee": 4642,
            "kala": 4643,
            "eshi": 4644,
            "cinthe": 4645,
            "clot": 4646,
            "hig": 4647,
            "kbir": 4648,
            "xon": 4649,
            "raki": 4650,
            "vika": 4651,
            "szimon": 4652,
            "bulani": 4653,
            "luh": 4654,
            "bosco": 4655,
            "ckie": 4656,
            "gwe": 4657,
            "mmus": 4658,
            "raa": 4659,
            "ravan": 4660,
            "isanyang": 4661,
            "enngwe": 4662,
            "idzai": 4663,
            "rumb": 4664,
            "gaof": 4665,
            "wab": 4666,
            "miya": 4667,
            "monwab": 4668,
            "wyat": 4669,
            "annali": 4670,
            "nket": 4671,
            "yantha": 4672,
            "onzo": 4673,
            "sharm": 4674,
            "asande": 4675,
            "ghe": 4676,
            "yede": 4677,
            "arcen": 4678,
            "amjit": 4679,
            "mije": 4680,
            "shka": 4681,
            "hepo": 4682,
            "orghe": 4683,
            "bke": 4684,
            "sathi": 4685,
            "ayish": 4686,
            "bbie": 4687,
            "efi": 4688,
            "gbem": 4689,
            "inab": 4690,
            "dolyn": 4691,
            "motshe": 4692,
            "terio": 4693,
            "lane": 4694,
            "milcia": 4695,
            "lengi": 4696,
            "buike": 4697,
            "ganyo": 4698,
            "primit": 4699,
            "okun": 4700,
            "getsi": 4701,
            "ayn": 4702,
            "cing": 4703,
            "gyas": 4704,
            "jher": 4705,
            "modie": 4706,
            "kirah": 4707,
            "larys": 4708,
            "mwa": 4709,
            "pud": 4710,
            "uco": 4711,
            "inete": 4712,
            "isol": 4713,
            "ieve": 4714,
            "godel": 4715,
            "sion": 4716,
            "sutik": 4717,
            "ayi": 4718,
            "yaminu": 4719,
            "bim": 4720,
            "fjor": 4721,
            "ghaz": 4722,
            "arad": 4723,
            "elice": 4724,
            "kyl": 4725,
            "adebim": 4726,
            "zaharad": 4727,
            "guel": 4728,
            "spo": 4729,
            "kazimi": 4730,
            "menka": 4731,
            "tue": 4732,
            "fuh": 4733,
            "eid": 4734,
            "yle": 4735,
            "esito": 4736,
            "stime": 4737,
            "costant": 4738,
            "kamani": 4739,
            "bipla": 4740,
            "krush": 4741,
            "emeh": 4742,
            "sike": 4743,
            "zette": 4744,
            "iou": 4745,
            "shla": 4746,
            "kudu": 4747,
            "surpri": 4748,
            "nhan": 4749,
            "nkul": 4750,
            "onuo": 4751,
            "shanth": 4752,
            "deer": 4753,
            "ait": 4754,
            "hta": 4755,
            "vjer": 4756,
            "elyne": 4757,
            "haan": 4758,
            "carlin": 4759,
            "olayan": 4760,
            "mushta": 4761,
            "yenne": 4762,
            "roo": 4763,
            "shashik": 4764,
            "arosa": 4765,
            "oto": 4766,
            "pos": 4767,
            "zat": 4768,
            "ekile": 4769,
            "ghou": 4770,
            "obas": 4771,
            "urah": 4772,
            "wabile": 4773,
            "arcan": 4774,
            "annath": 4775,
            "noh": 4776,
            "nima": 4777,
            "ftar": 4778,
            "annela": 4779,
            "shaima": 4780,
            "nonts": 4781,
            "hlas": 4782,
            "ibo": 4783,
            "saje": 4784,
            "valden": 4785,
            "aldino": 4786,
            "celle": 4787,
            "zue": 4788,
            "mth": 4789,
            "nsan": 4790,
            "wld": 4791,
            "eledi": 4792,
            "alakan": 4793,
            "atinu": 4794,
            "atshego": 4795,
            "abunmi": 4796,
            "ulane": 4797,
            "gou": 4798,
            "golo": 4799,
            "unzi": 4800,
            "botse": 4801,
            "atijah": 4802,
            "kaleng": 4803,
            "awi": 4804,
            "ih": 4805,
            "jala": 4806,
            "islau": 4807,
            "estan": 4808,
            "luth": 4809,
            "pax": 4810,
            "bacar": 4811,
            "dymp": 4812,
            "magnol": 4813,
            "heraw": 4814,
            "eks": 4815,
            "getswe": 4816,
            "dair": 4817,
            "tej": 4818,
            "neh": 4819,
            "mindau": 4820,
            "hjal": 4821,
            "jt": 4822,
            "qx": 4823,
            "alci": 4824,
            "jaw": 4825,
            "itx": 4826,
            "kujt": 4827,
            "gist": 4828,
            "hlam": 4829,
            "krat": 4830,
            "nhlam": 4831,
            "ulo": 4832,
            "vrat": 4833,
            "esela": 4834,
            "milde": 4835,
            "ukisi": 4836,
            "nayar": 4837,
            "bisa": 4838,
            "fhd": 4839,
            "gco": 4840,
            "orio": 4841,
            "yelihle": 4842,
            "joolo": 4843,
            "dejo": 4844,
            "ikwa": 4845,
            "muyi": 4846,
            "ndapun": 4847,
            "ome": 4848,
            "kno": 4849,
            "ps": 4850,
            "tw": 4851,
            "vus": 4852,
            "zhu": 4853,
            "ineetse": 4854,
            "fays": 4855,
            "stair": 4856,
            "loreta": 4857,
            "heck": 4858,
            "umzi": 4859,
            "anoint": 4860,
            "godkno": 4861,
            "ntso": 4862,
            "juh": 4863,
            "asyi": 4864,
            "zafi": 4865,
            "liud": 4866,
            "valdine": 4867,
            "yng": 4868,
            "efj": 4869,
            "dila": 4870,
            "ukh": 4871,
            "muyen": 4872,
            "libra": 4873,
            "salau": 4874,
            "hafela": 4875,
            "boyega": 4876,
            "adou": 4877,
            "rath": 4878,
            "ivoj": 4879,
            "salaud": 4880,
            "anj": 4881,
            "seben": 4882,
            "regit": 4883,
            "empr": 4884,
            "entje": 4885,
            "elomo": 4886,
            "lalb": 4887,
            "sng": 4888,
            "ichu": 4889,
            "tofer": 4890,
            "shem": 4891,
            "kolo": 4892,
            "dymyr": 4893,
            "drit": 4894,
            "sze": 4895,
            "dukag": 4896,
            "kali": 4897,
            "lande": 4898,
            "wenn": 4899,
            "inatu": 4900,
            "raje": 4901,
            "lae": 4902,
            "laks": 4903,
            "dozie": 4904,
            "ems": 4905,
            "monsu": 4906,
            "cley": 4907,
            "dzai": 4908,
            "eji": 4909,
            "uman": 4910,
            "ilas": 4911,
            "abdol": 4912,
            "somo": 4913,
            "dulio": 4914,
            "fus": 4915,
            "gwan": 4916,
            "kib": 4917,
            "zun": 4918,
            "loud": 4919,
            "dako": 4920,
            "vikr": 4921,
            "arajan": 4922,
            "idio": 4923,
            "youno": 4924,
            "ritha": 4925,
            "jent": 4926,
            "twu": 4927,
            "ragi": 4928,
            "josil": 4929,
            "tav": 4930,
            "shrad": 4931,
            "osun": 4932,
            "pirit": 4933,
            "laznim": 4934,
            "hvi": 4935,
            "jhann": 4936,
            "opar": 4937,
            "rann": 4938,
            "ujj": 4939,
            "vior": 4940,
            "marzu": 4941,
            "alber": 4942,
            "jaur": 4943,
            "mahbo": 4944,
            "dzi": 4945,
            "ebo": 4946,
            "gine": 4947,
            "hini": 4948,
            "kje": 4949,
            "kthula": 4950,
            "qri": 4951,
            "qais": 4952,
            "vra": 4953,
            "rith": 4954,
            "tory": 4955,
            "luyo": 4956,
            "tasius": 4957,
            "evo": 4958,
            "itul": 4959,
            "boxolo": 4960,
            "katok": 4961,
            "meza": 4962,
            "drim": 4963,
            "ibel": 4964,
            "tuye": 4965,
            "darin": 4966,
            "udi": 4967,
            "ilesan": 4968,
            "sech": 4969,
            "shish": 4970,
            "szcze": 4971,
            "celles": 4972,
            "douh": 4973,
            "zenna": 4974,
            "nedjel": 4975,
            "deth": 4976,
            "jhe": 4977,
            "luzo": 4978,
            "sagr": 4979,
            "sow": 4980,
            "bexh": 4981,
            "shadre": 4982,
            "ridice": 4983,
            "ourab": 4984,
            "honourab": 4985,
            "srine": 4986,
            "kefli": 4987,
            "vek": 4988,
            "ilope": 4989,
            "korneli": 4990,
            "mmai": 4991,
            "mama": 4992,
            "stie": 4993,
            "stur": 4994,
            "mele": 4995,
            "gracas": 4996,
            "genowe": 4997,
            "weni": 4998,
            "wellyn": 4999,
            "yukweni": 5000,
            "iyas": 5001,
            "jmen": 5002,
            "elu": 5003,
            "sebes": 5004,
            "damasi": 5005,
            "itra": 5006,
            "fack": 5007,
            "periyas": 5008,
            "tyen": 5009,
            "delda": 5010,
            "tarcis": 5011,
            "bhak": 5012,
            "czar": 5013,
            "ewer": 5014,
            "hri": 5015,
            "joub": 5016,
            "abata": 5017,
            "sebia": 5018,
            "daws": 5019,
            "coura": 5020,
            "solay": 5021,
            "sujat": 5022,
            "anastasi": 5023,
            "aff": 5024,
            "jl": 5025,
            "reta": 5026,
            "onca": 5027,
            "macht": 5028,
            "adish": 5029,
            "manzo": 5030,
            "cay": 5031,
            "queo": 5032,
            "hasbul": 5033,
            "bbeka": 5034,
            "fale": 5035,
            "mnq": 5036,
            "amuz": 5037,
            "ameno": 5038,
            "mitra": 5039,
            "adetu": 5040,
            "pawa": 5041,
            "sono": 5042,
            "helmu": 5043,
            "muku": 5044,
            "siyas": 5045,
            "sukam": 5046,
            "mss": 5047,
            "dhd": 5048,
            "tiv": 5049,
            "elwe": 5050,
            "kao": 5051,
            "gofi": 5052,
            "itiretse": 5053,
            "patile": 5054,
            "masita": 5055,
            "yego": 5056,
            "wenyego": 5057,
            "limon": 5058,
            "palelwe": 5059,
            "uoma": 5060,
            "rasy": 5061,
            "icy": 5062,
            "laus": 5063,
            "safi": 5064,
            "asna": 5065,
            "lenes": 5066,
            "cii": 5067,
            "freke": 5068,
            "blin": 5069,
            "crt": 5070,
            "eig": 5071,
            "fki": 5072,
            "ige": 5073,
            "viren": 5074,
            "alem": 5075,
            "ussain": 5076,
            "anyichu": 5077,
            "ifeanyichu": 5078,
            "eam": 5079,
            "iul": 5080,
            "oon": 5081,
            "tish": 5082,
            "razi": 5083,
            "hait": 5084,
            "rehab": 5085,
            "refu": 5086,
            "koo": 5087,
            "pewo": 5088,
            "tuyaku": 5089,
            "ndapewo": 5090,
            "shoop": 5091,
            "mudzo": 5092,
            "dise": 5093,
            "free": 5094,
            "jelo": 5095,
            "ois": 5096,
            "mawu": 5097,
            "roga": 5098,
            "lorin": 5099,
            "inaka": 5100,
            "thjesh": 5101,
            "tein": 5102,
            "unj": 5103,
            "banjo": 5104,
            "prah": 5105,
            "rar": 5106,
            "dao": 5107,
            "jumo": 5108,
            "cee": 5109,
            "sanj": 5110,
            "gandeep": 5111,
            "mgir": 5112,
            "marley": 5113,
            "albri": 5114,
            "andle": 5115,
            "ickam": 5116,
            "chino": 5117,
            "boate": 5118,
            "gioac": 5119,
            "ikeji": 5120,
            "hler": 5121,
            "oguz": 5122,
            "uw": 5123,
            "vonne": 5124,
            "zsar": 5125,
            "daw": 5126,
            "moag": 5127,
            "taura": 5128,
            "boika": 5129,
            "yanju": 5130,
            "bita": 5131,
            "bite": 5132,
            "bashay": 5133,
            "utlo": 5134,
            "lovu": 5135,
            "ajo": 5136,
            "flau": 5137,
            "ihs": 5138,
            "jila": 5139,
            "pjer": 5140,
            "mahend": 5141,
            "juxh": 5142,
            "shedra": 5143,
            "ahed": 5144,
            "baud": 5145,
            "abdelou": 5146,
            "popi": 5147,
            "khayal": 5148,
            "ldo": 5149,
            "mbi": 5150,
            "rest": 5151,
            "zla": 5152,
            "raini": 5153,
            "olino": 5154,
            "shrest": 5155,
            "dirat": 5156,
            "rickar": 5157,
            "faze": 5158,
            "meno": 5159,
            "ingston": 5160,
            "ntia": 5161,
            "arge": 5162,
            "maji": 5163,
            "gezo": 5164,
            "nayi": 5165,
            "bosun": 5166,
            "news": 5167,
            "olatun": 5168,
            "tumn": 5169,
            "aar": 5170,
            "bhab": 5171,
            "cig": 5172,
            "dhi": 5173,
            "hbi": 5174,
            "erem": 5175,
            "ongezi": 5176,
            "iteria": 5177,
            "ariikka": 5178,
            "bjit": 5179,
            "cib": 5180,
            "ega": 5181,
            "fas": 5182,
            "hesh": 5183,
            "hwan": 5184,
            "hyun": 5185,
            "oder": 5186,
            "qib": 5187,
            "ydi": 5188,
            "anus": 5189,
            "esya": 5190,
            "julai": 5191,
            "naqib": 5192,
            "mukh": 5193,
            "olagun": 5194,
            "istyo": 5195,
            "radhesh": 5196,
            "lona": 5197,
            "marval": 5198,
            "shpen": 5199,
            "ricau": 5200,
            "ricaur": 5201,
            "hipp": 5202,
            "nuut": 5203,
            "olyte": 5204,
            "gile": 5205,
            "giso": 5206,
            "lf": 5207,
            "ponye": 5208,
            "uthu": 5209,
            "vari": 5210,
            "zja": 5211,
            "zsig": 5212,
            "ermann": 5213,
            "marim": 5214,
            "lev": 5215,
            "kakan": 5216,
            "moitshe": 5217,
            "gaok": 5218,
            "gakala": 5219,
            "nadi": 5220,
            "ikeyan": 5221,
            "edades": 5222,
            "lahs": 5223,
            "aic": 5224,
            "bray": 5225,
            "want": 5226,
            "melis": 5227,
            "jerd": 5228,
            "eniyi": 5229,
            "hatou": 5230,
            "hrete": 5231,
            "ndal": 5232,
            "orie": 5233,
            "sacke": 5234,
            "nekwa": 5235,
            "eneho": 5236,
            "lert": 5237,
            "dux": 5238,
            "ombe": 5239,
            "ein": 5240,
            "obian": 5241,
            "adona": 5242,
            "lucres": 5243,
            "anko": 5244,
            "andaniel": 5245,
            "iodh": 5246,
            "manor": 5247,
            "fiong": 5248,
            "cliodh": 5249,
            "yudu": 5250,
            "ariah": 5251,
            "arabe": 5252,
            "ambit": 5253,
            "ious": 5254,
            "daz": 5255,
            "shanie": 5256,
            "adewu": 5257,
            "quito": 5258,
            "bias": 5259,
            "eud": 5260,
            "fine": 5261,
            "qso": 5262,
            "rzej": 5263,
            "talo": 5264,
            "albar": 5265,
            "maqso": 5266,
            "romay": 5267,
            "lovan": 5268,
            "seina": 5269,
            "shon": 5270,
            "beam": 5271,
            "hermelin": 5272,
            "ingana": 5273,
            "dert": 5274,
            "bant": 5275,
            "badi": 5276,
            "efo": 5277,
            "nchid": 5278,
            "ose": 5279,
            "ppu": 5280,
            "xis": 5281,
            "enot": 5282,
            "onkag": 5283,
            "maitse": 5284,
            "inei": 5285,
            "unas": 5286,
            "orene": 5287,
            "bots": 5288,
            "kebab": 5289,
            "osenot": 5290,
            "pedi": 5291,
            "tiraf": 5292,
            "iamiso": 5293,
            "hoi": 5294,
            "betso": 5295,
            "ayyap": 5296,
            "fufa": 5297,
            "tlhole": 5298,
            "dhir": 5299,
            "lio": 5300,
            "qeri": 5301,
            "sena": 5302,
            "vri": 5303,
            "zhar": 5304,
            "chou": 5305,
            "adeta": 5306,
            "elah": 5307,
            "irete": 5308,
            "itun": 5309,
            "dekar": 5310,
            "abdera": 5311,
            "ibig": 5312,
            "ridia": 5313,
            "nurad": 5314,
            "aibou": 5315,
            "aderibig": 5316,
            "nsi": 5317,
            "enildo": 5318,
            "seh": 5319,
            "teek": 5320,
            "sukan": 5321,
            "capu": 5322,
            "charnel": 5323,
            "nyi": 5324,
            "ouf": 5325,
            "eju": 5326,
            "gat": 5327,
            "hjor": 5328,
            "nkwa": 5329,
            "oky": 5330,
            "qou": 5331,
            "tot": 5332,
            "jap": 5333,
            "teia": 5334,
            "kodie": 5335,
            "jeewa": 5336,
            "nomo": 5337,
            "yaqou": 5338,
            "alija": 5339,
            "yosi": 5340,
            "kyire": 5341,
            "ceslau": 5342,
            "wenti": 5343,
            "yent": 5344,
            "lupit": 5345,
            "imbi": 5346,
            "kaar": 5347,
            "usia": 5348,
            "couba": 5349,
            "nelde": 5350,
            "lengy": 5351,
            "aara": 5352,
            "mish": 5353,
            "nneo": 5354,
            "plo": 5355,
            "reig": 5356,
            "thal": 5357,
            "shkol": 5358,
            "komola": 5359,
            "meritx": 5360,
            "hoff": 5361,
            "oui": 5362,
            "biplo": 5363,
            "pile": 5364,
            "pant": 5365,
            "raza": 5366,
            "ambr": 5367,
            "atha": 5368,
            "loj": 5369,
            "lefo": 5370,
            "moalo": 5371,
            "molat": 5372,
            "goeme": 5373,
            "angoni": 5374,
            "bood": 5375,
            "keolo": 5376,
            "quoph": 5377,
            "zac": 5378,
            "hankar": 5379,
            "azzur": 5380,
            "seleb": 5381,
            "welelo": 5382,
            "boles": 5383,
            "fet": 5384,
            "tjon": 5385,
            "eds": 5386,
            "berna": 5387,
            "dije": 5388,
            "jeovan": 5389,
            "yoj": 5390,
            "ekunda": 5391,
            "squez": 5392,
            "rasi": 5393,
            "issal": 5394,
            "stone": 5395,
            "romil": 5396,
            "usalem": 5397,
            "hamba": 5398,
            "dier": 5399,
            "negum": 5400,
            "hanshu": 5401,
            "wijn": 5402,
            "silvest": 5403,
            "naapop": 5404,
            "cur": 5405,
            "rek": 5406,
            "danlam": 5407,
            "beli": 5408,
            "bly": 5409,
            "gje": 5410,
            "olorun": 5411,
            "rja": 5412,
            "maring": 5413,
            "rival": 5414,
            "lota": 5415,
            "seida": 5416,
            "chior": 5417,
            "adine": 5418,
            "bolarin": 5419,
            "jmi": 5420,
            "tv": 5421,
            "uterio": 5422,
            "etislav": 5423,
            "tohe": 5424,
            "karya": 5425,
            "sabot": 5426,
            "abueze": 5427,
            "rtko": 5428,
            "jhas": 5429,
            "mst": 5430,
            "nya": 5431,
            "pie": 5432,
            "wy": 5433,
            "eljes": 5434,
            "iatar": 5435,
            "moot": 5436,
            "shena": 5437,
            "dipe": 5438,
            "soti": 5439,
            "zafer": 5440,
            "sano": 5441,
            "tiel": 5442,
            "gios": 5443,
            "azza": 5444,
            "fearg": 5445,
            "wyk": 5446,
            "fiam": 5447,
            "odi": 5448,
            "plin": 5449,
            "tx": 5450,
            "inam": 5451,
            "moath": 5452,
            "safu": 5453,
            "baje": 5454,
            "kebad": 5455,
            "tiroy": 5456,
            "hom": 5457,
            "ekes": 5458,
            "chakal": 5459,
            "lotse": 5460,
            "aguil": 5461,
            "qile": 5462,
            "srd": 5463,
            "yyanu": 5464,
            "boav": 5465,
            "entura": 5466,
            "shubh": 5467,
            "aey": 5468,
            "cr": 5469,
            "give": 5470,
            "ym": 5471,
            "enu": 5472,
            "essen": 5473,
            "atino": 5474,
            "tooc": 5475,
            "chym": 5476,
            "card": 5477,
            "boaa": 5478,
            "mefi": 5479,
            "clin": 5480,
            "cler": 5481,
            "dka": 5482,
            "gros": 5483,
            "ihu": 5484,
            "jhey": 5485,
            "kron": 5486,
            "pto": 5487,
            "pung": 5488,
            "sret": 5489,
            "marno": 5490,
            "rial": 5491,
            "chres": 5492,
            "doh": 5493,
            "gola": 5494,
            "shiku": 5495,
            "bohd": 5496,
            "neez": 5497,
            "suah": 5498,
            "supra": 5499,
            "jono": 5500,
            "pumbu": 5501,
            "vendul": 5502,
            "afar": 5503,
            "aras": 5504,
            "ribia": 5505,
            "atriz": 5506,
            "emper": 5507,
            "karsh": 5508,
            "bod": 5509,
            "hew": 5510,
            "euribia": 5511,
            "bker": 5512,
            "cival": 5513,
            "dmi": 5514,
            "wolo": 5515,
            "kayl": 5516,
            "gapo": 5517,
            "vanie": 5518,
            "maldo": 5519,
            "singapo": 5520,
            "efd": 5521,
            "slm": 5522,
            "dmitri": 5523,
            "jha": 5524,
            "reria": 5525,
            "roshe": 5526,
            "rojit": 5527,
            "dosh": 5528,
            "uscia": 5529,
            "izete": 5530,
            "hop": 5531,
            "nyl": 5532,
            "mahfo": 5533,
            "pinu": 5534,
            "bale": 5535,
            "bedi": 5536,
            "jk": 5537,
            "ntes": 5538,
            "yame": 5539,
            "roch": 5540,
            "domo": 5541,
            "mofen": 5542,
            "goope": 5543,
            "saone": 5544,
            "teza": 5545,
            "ahate": 5546,
            "renyin": 5547,
            "ikantse": 5548,
            "mubar": 5549,
            "matyl": 5550,
            "shaki": 5551,
            "braj": 5552,
            "hina": 5553,
            "mwad": 5554,
            "ueri": 5555,
            "uug": 5556,
            "zene": 5557,
            "alve": 5558,
            "isas": 5559,
            "dawu": 5560,
            "miku": 5561,
            "icacion": 5562,
            "idiane": 5563,
            "shapu": 5564,
            "kambon": 5565,
            "purif": 5566,
            "dene": 5567,
            "ovic": 5568,
            "praj": 5569,
            "yeli": 5570,
            "eres": 5571,
            "ramal": 5572,
            "roha": 5573,
            "chala": 5574,
            "kades": 5575,
            "thomp": 5576,
            "ingam": 5577,
            "anteng": 5578,
            "penchala": 5579,
            "gari": 5580,
            "yane": 5581,
            "zho": 5582,
            "shti": 5583,
            "diki": 5584,
            "dyshe": 5585,
            "tance": 5586,
            "lendyshe": 5587,
            "aikin": 5588,
            "fato": 5589,
            "lidu": 5590,
            "qw": 5591,
            "doy": 5592,
            "mohe": 5593,
            "elaire": 5594,
            "dearb": 5595,
            "lye": 5596,
            "beaud": 5597,
            "gracin": 5598,
            "hoe": 5599,
            "avis": 5600,
            "dge": 5601,
            "fele": 5602,
            "resia": 5603,
            "uend": 5604,
            "uetu": 5605,
            "yala": 5606,
            "zart": 5607,
            "alone": 5608,
            "ahire": 5609,
            "nakan": 5610,
            "ardh": 5611,
            "myze": 5612,
            "jii": 5613,
            "yuh": 5614,
            "wadys": 5615,
            "yra": 5616,
            "inia": 5617,
            "ici": 5618,
            "tos": 5619,
            "luo": 5620,
            "doe": 5621,
            "iredo": 5622,
            "nagar": 5623,
            "meze": 5624,
            "figue": 5625,
            "mry": 5626,
            "ride": 5627,
            "saur": 5628,
            "sayn": 5629,
            "bhi": 5630,
            "psatou": 5631,
            "rasto": 5632,
            "avdh": 5633,
            "abderraz": 5634,
            "cso": 5635,
            "fida": 5636,
            "mrin": 5637,
            "pune": 5638,
            "qul": 5639,
            "trud": 5640,
            "upa": 5641,
            "ulu": 5642,
            "kava": 5643,
            "meek": 5644,
            "jacqul": 5645,
            "szar": 5646,
            "umbu": 5647,
            "bjor": 5648,
            "mete": 5649,
            "ovani": 5650,
            "atou": 5651,
            "edim": 5652,
            "urang": 5653,
            "idda": 5654,
            "floran": 5655,
            "kayatou": 5656,
            "aka": 5657,
            "oros": 5658,
            "ariv": 5659,
            "sheen": 5660,
            "fti": 5661,
            "msh": 5662,
            "maid": 5663,
            "makw": 5664,
            "uss": 5665,
            "naou": 5666,
            "abdlil": 5667,
            "yoban": 5668,
            "mhm": 5669,
            "sja": 5670,
            "tlieb": 5671,
            "ateni": 5672,
            "mangun": 5673,
            "hamuko": 5674,
            "jekon": 5675,
            "mdm": 5676,
            "terran": 5677,
            "beuk": 5678,
            "menez": 5679,
            "kre": 5680,
            "sw": 5681,
            "jemaa": 5682,
            "sume": 5683,
            "fania": 5684,
            "zoub": 5685,
            "esten": 5686,
            "aaf": 5687,
            "hara": 5688,
            "husz": 5689,
            "likki": 5690,
            "rane": 5691,
            "ska": 5692,
            "tjer": 5693,
            "zigh": 5694,
            "alian": 5695,
            "adney": 5696,
            "judica": 5697,
            "guito": 5698,
            "jez": 5699,
            "laa": 5700,
            "nyuy": 5701,
            "csar": 5702,
            "cud": 5703,
            "eib": 5704,
            "fni": 5705,
            "hlin": 5706,
            "tser": 5707,
            "txi": 5708,
            "arere": 5709,
            "enbi": 5710,
            "annen": 5711,
            "mikha": 5712,
            "tago": 5713,
            "pasz": 5714,
            "koku": 5715,
            "pety": 5716,
            "nokoku": 5717,
            "utale": 5718,
            "utapo": 5719,
            "gpe": 5720,
            "het": 5721,
            "adir": 5722,
            "tei": 5723,
            "demok": 5724,
            "nore": 5725,
            "umm": 5726,
            "groz": 5727,
            "orti": 5728,
            "gere": 5729,
            "verie": 5730,
            "dinha": 5731,
            "teodo": 5732,
            "csk": 5733,
            "ier": 5734,
            "oe": 5735,
            "macha": 5736,
            "isso": 5737,
            "jost": 5738,
            "iltz": 5739,
            "kecsk": 5740,
            "meal": 5741,
            "kwt": 5742,
            "egj": 5743,
            "feta": 5744,
            "svin": 5745,
            "arpio": 5746,
            "inyu": 5747,
            "ispe": 5748,
            "amene": 5749,
            "icarpio": 5750,
            "berinyu": 5751,
            "askun": 5752,
            "bosil": 5753,
            "gjim": 5754,
            "otu": 5755,
            "vette": 5756,
            "rav": 5757,
            "anasz": 5758,
            "tazia": 5759,
            "paiah": 5760,
            "urh": 5761,
            "charlot": 5762,
            "chayi": 5763,
            "nti": 5764,
            "joua": 5765,
            "immy": 5766,
            "tas": 5767,
            "abdess": 5768,
            "jibach": 5769,
            "ofia": 5770,
            "cliv": 5771,
            "dde": 5772,
            "djur": 5773,
            "eur": 5774,
            "dog": 5775,
            "vian": 5776,
            "meuni": 5777,
            "baranya": 5778,
            "szo": 5779,
            "ciza": 5780,
            "jolico": 5781,
            "ciano": 5782,
            "ckera": 5783,
            "pluk": 5784,
            "rda": 5785,
            "svato": 5786,
            "majer": 5787,
            "jamaic": 5788,
            "kajet": 5789,
            "unsto": 5790,
            "eville": 5791,
            "izen": 5792,
            "pable": 5793,
            "cillia": 5794,
            "eyn": 5795,
            "fam": 5796,
            "lhs": 5797,
            "obo": 5798,
            "sza": 5799,
            "ondes": 5800,
            "taci": 5801,
            "olgo": 5802,
            "bohun": 5803,
            "suhe": 5804,
            "bex": 5805,
            "kyera": 5806,
            "girol": 5807,
            "qka": 5808,
            "toum": 5809,
            "berek": 5810,
            "lipe": 5811,
            "nassou": 5812,
            "ciz": 5813,
            "anciz": 5814,
            "atka": 5815,
            "annelo": 5816,
            "dien": 5817,
            "bepp": 5818,
            "meadh": 5819,
            "hjr": 5820,
            "hulu": 5821,
            "ssm": 5822,
            "ctor": 5823,
            "eide": 5824,
            "ncha": 5825,
            "etinho": 5826,
            "qua": 5827,
            "shavo": 5828,
            "pany": 5829,
            "fico": 5830,
            "xar": 5831,
            "iako": 5832,
            "amg": 5833,
            "viv": 5834,
            "evalo": 5835,
            "ayite": 5836,
            "bjon": 5837,
            "cric": 5838,
            "ex": 5839,
            "ecil": 5840,
            "ov": 5841,
            "eskim": 5842,
            "urva": 5843,
            "caecil": 5844,
            "pedito": 5845,
            "genov": 5846,
            "wahd": 5847,
            "akel": 5848,
            "hiz": 5849,
            "ledy": 5850,
            "vem": 5851,
            "romon": 5852,
            "sharn": 5853,
            "huw": 5854,
            "uino": 5855,
            "marlo": 5856,
            "luqu": 5857,
            "davin": 5858,
            "modio": 5859,
            "sotis": 5860,
            "caz": 5861,
            "krm": 5862,
            "tista": 5863,
            "njen": 5864,
            "swis": 5865,
            "vs": 5866,
            "erdel": 5867,
            "rame": 5868,
            "topg": 5869,
            "moula": 5870,
            "horat": 5871,
            "igbal": 5872,
            "acs": 5873,
            "frigy": 5874,
            "urat": 5875,
            "famo": 5876,
            "isab": 5877,
            "rosim": 5878,
            "adjo": 5879,
            "olgu": 5880,
            "berly": 5881,
            "emmel": 5882,
            "degra": 5883,
            "ferru": 5884,
            "barcel": 5885,
            "bik": 5886,
            "ckel": 5887,
            "clen": 5888,
            "jne": 5889,
            "lent": 5890,
            "ttor": 5891,
            "iciane": 5892,
            "rovic": 5893,
            "elijne": 5894,
            "guttor": 5895,
            "frio": 5896,
            "ervo": 5897,
            "lath": 5898,
            "hamer": 5899,
            "pepp": 5900,
            "sier": 5901,
            "bely": 5902,
            "ampi": 5903,
            "cayet": 5904,
            "hub": 5905,
            "larsolo": 5906,
            "keresz": 5907,
            "cir": 5908,
            "zsu": 5909,
            "engen": 5910,
            "laig": 5911,
            "mote": 5912,
            "heiro": 5913,
            "bretta": 5914,
            "gigl": 5915,
            "tymote": 5916,
            "breg": 5917,
            "jna": 5918,
            "twene": 5919,
            "udou": 5920,
            "yha": 5921,
            "imte": 5922,
            "baudou": 5923,
            "agyen": 5924,
            "cambio": 5925,
            "venido": 5926,
            "cika": 5927,
            "kmar": 5928,
            "yaad": 5929,
            "akak": 5930,
            "bsc": 5931,
            "lit": 5932,
            "neme": 5933,
            "wann": 5934,
            "abea": 5935,
            "abritt": 5936,
            "dorin": 5937,
            "gore": 5938,
            "coff": 5939,
            "emis": 5940,
            "emed": 5941,
            "antie": 5942,
            "malach": 5943,
            "obaaya": 5944,
            "qwa": 5945,
            "yton": 5946,
            "amena": 5947,
            "edio": 5948,
            "dac": 5949,
            "fabriz": 5950,
            "veslemo": 5951,
            "dzie": 5952,
            "zm": 5953,
            "aljka": 5954,
            "esie": 5955,
            "moah": 5956,
            "karler": 5957,
            "fidio": 5958,
            "awo": 5959,
            "dmy": 5960,
            "vuz": 5961,
            "juvent": 5962,
            "urka": 5963,
            "sety": 5964,
            "tel": 5965,
            "marro": 5966,
            "esje": 5967,
            "haq": 5968,
            "chis": 5969,
            "dot": 5970,
            "nell": 5971,
            "lervo": 5972,
            "hayr": 5973,
            "cru": 5974,
            "jmaa": 5975,
            "mm": 5976,
            "schu": 5977,
            "isnel": 5978,
            "caris": 5979,
            "caff": 5980,
            "trijn": 5981,
            "lalli": 5982,
            "caffe": 5983,
            "riit": 5984,
            "raad": 5985,
            "iss": 5986,
            "esita": 5987,
            "andes": 5988,
            "edor": 5989,
            "hadri": 5990,
            "annedor": 5991,
            "livi": 5992,
            "cinto": 5993,
            "nazzar": 5994,
            "hran": 5995,
            "lhak": 5996,
            "ue": 5997,
            "roci": 5998,
            "cypri": 5999,
            "four": 6000,
            "zkar": 6001,
            "inton": 6002,
            "icias": 6003,
            "berang": 6004,
            "saart": 6005,
            "irany": 6006,
            "orka": 6007,
            "guinha": 6008,
            "siobha": 6009,
            "bdr": 6010,
            "bjo": 6011,
            "dn": 6012,
            "dgh": 6013,
            "eilid": 6014,
            "oza": 6015,
            "snay": 6016,
            "yho": 6017,
            "encio": 6018,
            "marile": 6019,
            "uly": 6020,
            "door": 6021,
            "soula": 6022,
            "soulay": 6023,
            "nha": 6024,
            "tjo": 6025,
            "ziv": 6026,
            "zhr": 6027,
            "alise": 6028,
            "amrin": 6029,
            "liene": 6030,
            "giero": 6031,
            "fridtjo": 6032,
            "apra": 6033,
            "ewo": 6034,
            "fetta": 6035,
            "hte": 6036,
            "vat": 6037,
            "eliv": 6038,
            "moua": 6039,
            "ianara": 6040,
            "auhte": 6041,
            "cuauhte": 6042,
            "jete": 6043,
            "jnie": 6044,
            "ptey": 6045,
            "ucz": 6046,
            "intis": 6047,
            "esica": 6048,
            "stert": 6049,
            "etti": 6050,
            "lovor": 6051,
            "lupil": 6052,
            "ussy": 6053,
            "adjete": 6054,
            "laurid": 6055,
            "enake": 6056,
            "stee": 6057,
            "rinda": 6058,
            "aal": 6059,
            "aus": 6060,
            "csor": 6061,
            "fonso": 6062,
            "ltif": 6063,
            "xid": 6064,
            "zk": 6065,
            "zury": 6066,
            "amii": 6067,
            "lupi": 6068,
            "irsha": 6069,
            "harat": 6070,
            "olii": 6071,
            "stodia": 6072,
            "srt": 6073,
            "uzi": 6074,
            "iser": 6075,
            "abre": 6076,
            "dagr": 6077,
            "azzd": 6078,
            "fraz": 6079,
            "smo": 6080,
            "zane": 6081,
            "arine": 6082,
            "almer": 6083,
            "atert": 6084,
            "rofi": 6085,
            "abig": 6086,
            "reci": 6087,
            "itto": 6088,
            "szig": 6089,
            "szeg": 6090,
            "ofe": 6091,
            "vasi": 6092,
            "lukreci": 6093,
            "cana": 6094,
            "grg": 6095,
            "lenne": 6096,
            "tmir": 6097,
            "yzz": 6098,
            "marquel": 6099,
            "sonsol": 6100,
            "naider": 6101,
            "tudes": 6102,
            "ccion": 6103,
            "sney": 6104,
            "ube": 6105,
            "yhos": 6106,
            "eryna": 6107,
            "erube": 6108,
            "enam": 6109,
            "alides": 6110,
            "isel": 6111,
            "iszi": 6112,
            "chmee": 6113,
            "unyo": 6114,
            "asir": 6115,
            "naug": 6116,
            "confe": 6117,
            "redeem": 6118,
            "cciones": 6119,
            "him": 6120,
            "icho": 6121,
            "stro": 6122,
            "haus": 6123,
            "chur": 6124,
            "doo": 6125,
            "olfo": 6126,
            "padoo": 6127,
            "covad": 6128,
            "assu": 6129,
            "gith": 6130,
            "ramchur": 6131,
            "dumit": 6132,
            "mpta": 6133,
            "djica": 6134,
            "amay": 6135,
            "aod": 6136,
            "bdo": 6137,
            "dmit": 6138,
            "fos": 6139,
            "khe": 6140,
            "uber": 6141,
            "icu": 6142,
            "etor": 6143,
            "ossef": 6144,
            "serhi": 6145,
            "szala": 6146,
            "lenis": 6147,
            "uaa": 6148,
            "jhosu": 6149,
            "dhoo": 6150,
            "lka": 6151,
            "lkrim": 6152,
            "ont": 6153,
            "mair": 6154,
            "isterio": 6155,
            "jouse": 6156,
            "orvo": 6157,
            "siwaa": 6158,
            "libus": 6159,
            "jza": 6160,
            "ll": 6161,
            "uris": 6162,
            "losi": 6163,
            "kaz": 6164,
            "uszi": 6165,
            "ollosi": 6166,
            "ikhla": 6167,
            "xav": 6168,
            "skjal": 6169,
            "csu": 6170,
            "fyn": 6171,
            "nv": 6172,
            "rzak": 6173,
            "uise": 6174,
            "yir": 6175,
            "arinho": 6176,
            "ers": 6177,
            "mait": 6178,
            "iseth": 6179,
            "icel": 6180,
            "lany": 6181,
            "bilia": 6182,
            "ds": 6183,
            "vyn": 6184,
            "thna": 6185,
            "murato": 6186,
            "wagen": 6187,
            "afen": 6188,
            "zenko": 6189,
            "blathna": 6190,
            "cray": 6191,
            "eili": 6192,
            "ugu": 6193,
            "wka": 6194,
            "anilla": 6195,
            "arasz": 6196,
            "ersil": 6197,
            "iaco": 6198,
            "andjel": 6199,
            "urugu": 6200,
            "quie": 6201,
            "hercze": 6202,
            "vild": 6203,
            "smaa": 6204,
            "wine": 6205,
            "anal": 6206,
            "arger": 6207,
            "lub": 6208,
            "lumin": 6209,
            "recht": 6210,
            "vinzen": 6211,
            "ashwine": 6212,
            "elouis": 6213,
            "gne": 6214,
            "opg": 6215,
            "yika": 6216,
            "erbel": 6217,
            "isses": 6218,
            "stio": 6219,
            "semi": 6220,
            "chthil": 6221,
            "jaquel": 6222,
            "dasz": 6223,
            "orfel": 6224,
            "idonia": 6225,
            "mechthil": 6226,
            "weig": 6227,
            "ithin": 6228,
            "bbe": 6229,
            "cri": 6230,
            "uii": 6231,
            "yeri": 6232,
            "andad": 6233,
            "annun": 6234,
            "guari": 6235,
            "dencia": 6236,
            "onex": 6237,
            "ziata": 6238,
            "zsak": 6239,
            "ance": 6240,
            "laury": 6241,
            "soiz": 6242,
            "encser": 6243,
            "cab": 6244,
            "eki": 6245,
            "jla": 6246,
            "enbur": 6247,
            "isio": 6248,
            "andenbur": 6249,
            "dobri": 6250,
            "ruki": 6251,
            "gerain": 6252,
            "linger": 6253,
            "brandenbur": 6254,
            "tup": 6255,
            "puk": 6256,
            "iiv": 6257,
            "kru": 6258,
            "ioa": 6259,
            "ditle": 6260,
            "vics": 6261,
            "cup": 6262,
            "jlo": 6263,
            "ogum": 6264,
            "armo": 6265,
            "intu": 6266,
            "jaj": 6267,
            "ludi": 6268,
            "tawia": 6269,
            "bov": 6270,
            "idon": 6271,
            "anee": 6272,
            "lly": 6273,
            "xten": 6274,
            "escar": 6275,
            "kiril": 6276,
            "consig": 6277,
            "jene": 6278,
            "vesz": 6279,
            "anjos": 6280,
            "alit": 6281,
            "abas": 6282,
            "ors": 6283,
            "ruy": 6284,
            "nee": 6285,
            "shaye": 6286,
            "dje": 6287,
            "uen": 6288,
            "alik": 6289,
            "rosam": 6290,
            "chmun": 6291,
            "fron": 6292,
            "dymar": 6293,
            "salone": 6294,
            "aneira": 6295,
            "wery": 6296,
            "exi": 6297,
            "tesz": 6298,
            "intia": 6299,
            "ics": 6300,
            "nehu": 6301,
            "walent": 6302,
            "cta": 6303,
            "cqueline": 6304,
            "kra": 6305,
            "attra": 6306,
            "annas": 6307,
            "ados": 6308,
            "csal": 6309,
            "nyak": 6310,
            "maromi": 6311,
            "jock": 6312,
            "sebo": 6313,
            "ceg": 6314,
            "vai": 6315,
            "podin": 6316,
            "clos": 6317,
            "ux": 6318,
            "anghar": 6319,
            "itus": 6320,
            "csiz": 6321,
            "kt": 6322,
            "rast": 6323,
            "take": 6324,
            "adero": 6325,
            "devit": 6326,
            "madia": 6327,
            "benedy": 6328,
            "ibi": 6329,
            "aap": 6330,
            "owa": 6331,
            "alter": 6332,
            "atarina": 6333,
            "meritu": 6334,
            "aitzi": 6335,
            "jaleena": 6336,
            "xita": 6337,
            "kapit": 6338,
            "andomen": 6339,
            "giandomen": 6340,
            "tua": 6341,
            "mbos": 6342,
            "suli": 6343,
            "wand": 6344,
            "ysha": 6345,
            "arca": 6346,
            "onio": 6347,
            "yai": 6348,
            "dyna": 6349,
            "gacs": 6350,
            "tuse": 6351,
            "metta": 6352,
            "ggi": 6353,
            "ust": 6354,
            "miesz": 6355,
            "mangel": 6356,
            "angust": 6357,
            "aso": 6358,
            "kril": 6359,
            "elvi": 6360,
            "kazim": 6361,
            "dymph": 6362,
            "peg": 6363,
            "walki": 6364,
            "ydd": 6365,
            "veta": 6366,
            "uley": 6367,
            "ruaid": 6368,
            "roslav": 6369,
            "aong": 6370,
            "jusz": 6371,
            "arol": 6372,
            "pimir": 6373,
            "tka": 6374,
            "tanza": 6375,
            "sys": 6376,
            "zije": 6377,
            "tare": 6378,
            "osam": 6379,
            "sikka": 6380,
            "alaz": 6381,
            "stasi": 6382,
            "seosam": 6383,
            "adeth": 6384,
            "risima": 6385,
            "crach": 6386,
            "escrach": 6387,
            "gec": 6388,
            "bebi": 6389,
            "prazer": 6390,
            "pica": 6391,
            "elet": 6392,
            "espo": 6393,
            "evgen": 6394,
            "sove": 6395,
            "cabe": 6396,
            "ujv": 6397,
            "zsi": 6398,
            "dobro": 6399,
            "sone": 6400,
            "kosz": 6401,
            "cses": 6402,
            "kku": 6403,
            "speran": 6404,
            "erto": 6405,
            "andan": 6406,
            "orqu": 6407,
            "liban": 6408,
            "cacil": 6409,
            "kusti": 6410,
            "huerto": 6411,
            "derik": 6412,
            "ffni": 6413,
            "idea": 6414,
            "vojka": 6415,
            "cza": 6416,
            "pko": 6417,
            "pusz": 6418,
            "lacz": 6419,
            "emeti": 6420,
            "itrai": 6421,
            "harasz": 6422,
            "eab": 6423,
            "kry": 6424,
            "ppa": 6425,
            "xen": 6426,
            "inn": 6427,
            "ameri": 6428,
            "domh": 6429,
            "bebh": 6430,
            "eles": 6431,
            "onata": 6432,
            "lep": 6433,
            "fryd": 6434,
            "nai": 6435,
            "cro": 6436,
            "jica": 6437,
            "njica": 6438,
            "maury": 6439,
            "annib": 6440,
            "lough": 6441,
            "aeng": 6442,
            "mpar": 6443,
            "psu": 6444,
            "napsu": 6445,
            "tihan": 6446,
            "gitai": 6447,
            "zvi": 6448,
            "jepan": 6449,
            "bike": 6450,
            "cse": 6451,
            "egy": 6452,
            "iuli": 6453,
            "tesi": 6454,
            "zina": 6455,
            "mogyo": 6456,
            "tak": 6457,
            "szvet": 6458,
            "salvat": 6459,
            "nyerg": 6460,
            "cti": 6461,
            "zdes": 6462,
            "erino": 6463,
            "ewe": 6464,
            "svi": 6465,
            "anin": 6466,
            "rislav": 6467,
            "dyslav": 6468,
            "gane": 6469,
            "vos": 6470,
            "isz": 6471,
            "tojka": 6472,
            "muves": 6473,
            "hegy": 6474,
            "megy": 6475,
            "harango": 6476,
            "oktaw": 6477,
            "oty": 6478,
            "edmon": 6479,
            "swi": 6480,
            "esiu": 6481,
            "talos": 6482,
            "jz": 6483,
            "imira": 6484,
            "ruga": 6485,
            "silda": 6486,
            "szka": 6487,
            "icek": 6488,
            "pcel": 6489,
            "arst": 6490,
            "pcelarst": 6491,
            "rozar": 6492,
            "mowit": 6493,
            "brone": 6494,
            "ousek": 6495,
            "sinda": 6496,
            "iwa": 6497,
            "rs": 6498,
            "eslav": 6499,
            "cheslav": 6500,
            "denka": 6501,
            "spin": 6502,
            "tofa": 6503,
            "anek": 6504,
            "vady": 6505,
            "stre": 6506,
            "tvi": 6507,
            "nictvi": 6508,
            "wincent": 6509,
            "wirgin": 6510,
            "klar": 6511,
            "iar": 6512,
            "pka": 6513,
            "imil": 6514,
            "wlad": 6515,
            "islava": 6516,
            "lugi": 6517,
            "kot": 6518,
            "dzo": 6519,
            "zynka": 6520,
            "iia": 6521,
            "rz": 6522,
            "wrz": 6523,
            "iec": 6524,
            "eliusz": 6525,
            "wacla": 6526,
            "wawrz": 6527,
            "mykha": 6528,
            "yniec": 6529,
            "qba": 6530,
            "uro": 6531,
            "yev": 6532,
            "eligi": 6533,
            "henii": 6534,
            "nadzie": 6535,
            "kune": 6536,
            "mlo": 6537,
            "zela": 6538,
            "mitr": 6539,
            "szko": 6540,
            "gunda": 6541,
            "chna": 6542,
            "oslaw": 6543,
            "bros": 6544,
            "iaci": 6545,
            "dobros": 6546,
            "rys": 6547,
            "idka": 6548,
            "alij": 6549,
            "osp": 6550,
            "kwiaci": 6551,
            "arnia": 6552,
            "giej": 6553,
            "ksy": 6554,
            "ysia": 6555,
            "bozy": 6556,
            "zed": 6557,
            "erian": 6558,
            "onna": 6559,
            "isiek": 6560,
            "cown": 6561,
            "cyz": 6562,
            "szkole": 6563,
            "pracown": 6564,
            "przed": 6565
        },
        "merges": [
            "a n",
            "a r",
            "e l",
            "i n",
            "e r",
            "e n",
            "m ar",
            "r i",
            "a l",
            "o n",
            "i a",
            "r a",
            "m a",
            "i s",
            "j o",
            "i l",
            "e s",
            "an d",
            "a m",
            "i c",
            "l a",
            "a t",
            "s t",
            "r o",
            "a b",
            "e d",
            "e t",
            "an a",
            "l o",
            "i o",
            "s e",
            "in a",
            "h a",
            "u l",
            "t o",
            "c h",
            "j a",
            "c ar",
            "d a",
            "l u",
            "i e",
            "r e",
            "l e",
            "i m",
            "an n",
            "k a",
            "d o",
            "t h",
            "v i",
            "u s",
            "m o",
            "m i",
            "an i",
            "in e",
            "i an",
            "t a",
            "g o",
            "u el",
            "a d",
            "al e",
            "j u",
            "o l",
            "ri st",
            "f r",
            "p a",
            "s h",
            "b er",
            "m an",
            "s a",
            "t e",
            "el a",
            "p h",
            "an g",
            "c o",
            "i r",
            "h am",
            "u n",
            "t on",
            "d i",
            "e v",
            "o r",
            "a h",
            "m ic",
            "e m",
            "a s",
            "la u",
            "ri c",
            "k ar",
            "g e",
            "en a",
            "s on",
            "i t",
            "n a",
            "ic a",
            "d e",
            "i v",
            "jo h",
            "k o",
            "ma d",
            "p at",
            "ar a",
            "and ra",
            "m on",
            "u r",
            "c e",
            "f er",
            "s o",
            "j ul",
            "p et",
            "j an",
            "h el",
            "r en",
            "en n",
            "el i",
            "r y",
            "i k",
            "lu c",
            "b a",
            "at h",
            "jo r",
            "b o",
            "i d",
            "mo ham",
            "k e",
            "g u",
            "to r",
            "ma s",
            "j e",
            "s am",
            "et h",
            "m d",
            "n ic",
            "ri s",
            "b en",
            "f a",
            "m u",
            "ar d",
            "r u",
            "v ic",
            "st e",
            "t er",
            "n o",
            "j es",
            "g er",
            "q u",
            "and o",
            "g ab",
            "n e",
            "is a",
            "y a",
            "z a",
            "d y",
            "l y",
            "p e",
            "s an",
            "s i",
            "o la",
            "g a",
            "w il",
            "k at",
            "l in",
            "ar do",
            "al i",
            "o s",
            "il i",
            "ar i",
            "v in",
            "s u",
            "b e",
            "ma t",
            "c rist",
            "j am",
            "l i",
            "m en",
            "m ed",
            "i ka",
            "s im",
            "ab d",
            "mi g",
            "h e",
            "fer n",
            "en e",
            "v er",
            "il a",
            "j on",
            "v al",
            "jo a",
            "es h",
            "c a",
            "ro s",
            "m el",
            "h en",
            "p ed",
            "w a",
            "m in",
            "pa u",
            "t i",
            "t an",
            "at i",
            "f ab",
            "ra h",
            "ia s",
            "th o",
            "ri a",
            "y o",
            "m e",
            "et te",
            "k u",
            "s il",
            "v an",
            "vi er",
            "h an",
            "a g",
            "s ha",
            "n at",
            "en t",
            "m er",
            "k ev",
            "qu e",
            "ale j",
            "b r",
            "s us",
            "and r",
            "g io",
            "s y",
            "h u",
            "s er",
            "c y",
            "el o",
            "st a",
            "b ar",
            "n i",
            "d an",
            "f lo",
            "il e",
            "f an",
            "d ie",
            "ed u",
            "r in",
            "v ia",
            "r on",
            "es a",
            "mi r",
            "ab eth",
            "i z",
            "h al",
            "ja c",
            "is e",
            "v e",
            "k y",
            "s ar",
            "g i",
            "g ar",
            "w in",
            "ba st",
            "p i",
            "ch ar",
            "n el",
            "h ar",
            "d ri",
            "p er",
            "un o",
            "s z",
            "l an",
            "d en",
            "o le",
            "s al",
            "a z",
            "ma g",
            "j er",
            "mu ham",
            "se bast",
            "i b",
            "g ra",
            "ja y",
            "ver on",
            "ev a",
            "h er",
            "m y",
            "t u",
            "c es",
            "an e",
            "l es",
            "h d",
            "ma u",
            "i da",
            "in g",
            "to m",
            "k im",
            "eli z",
            "m il",
            "d ar",
            "so f",
            "g en",
            "ia m",
            "t ia",
            "y n",
            "k el",
            "n ad",
            "l en",
            "n ur",
            "d ra",
            "s ab",
            "le y",
            "et a",
            "c am",
            "n or",
            "ili p",
            "ath an",
            "la v",
            "al d",
            "c el",
            "b el",
            "f i",
            "on g",
            "w e",
            "u d",
            "th er",
            "o ph",
            "n es",
            "an t",
            "ic e",
            "z e",
            "n an",
            "go r",
            "th e",
            "on a",
            "h o",
            "sh e",
            "n y",
            "p ab",
            "an ie",
            "m al",
            "ri z",
            "y an",
            "lo r",
            "w an",
            "on y",
            "c io",
            "in o",
            "st ev",
            "ri d",
            "ri k",
            "ma x",
            "q uel",
            "do min",
            "w al",
            "im e",
            "ra m",
            "z o",
            "v o",
            "st in",
            "j i",
            "c il",
            "o u",
            "t y",
            "v a",
            "ed i",
            "k i",
            "ic ia",
            "i g",
            "to ria",
            "k am",
            "l er",
            "h il",
            "l ar",
            "i ra",
            "an th",
            "ge or",
            "d es",
            "on e",
            "c i",
            "p o",
            "c on",
            "d on",
            "d am",
            "s el",
            "b ri",
            "a sh",
            "ra j",
            "b al",
            "t im",
            "at a",
            "e k",
            "sy l",
            "a u",
            "is h",
            "h on",
            "n ik",
            "j ar",
            "ha s",
            "g it",
            "y na",
            "p rin",
            "z i",
            "ro l",
            "d er",
            "at o",
            "g il",
            "ra ch",
            "gu il",
            "s ol",
            "b i",
            "al o",
            "i que",
            "gu sta",
            "ar o",
            "ju n",
            "a k",
            "j im",
            "el e",
            "ian e",
            "l il",
            "val er",
            "c at",
            "ma h",
            "b et",
            "ber n",
            "g lo",
            "f f",
            "ev el",
            "es te",
            "le o",
            "lo u",
            "ab u",
            "ri que",
            "mar g",
            "v is",
            "ian o",
            "ro b",
            "f at",
            "b u",
            "ma y",
            "er ine",
            "ol iv",
            "lu z",
            "ar ina",
            "ben jam",
            "jo e",
            "he c",
            "c ha",
            "y e",
            "p ra",
            "c in",
            "il le",
            "i en",
            "y u",
            "is o",
            "f o",
            "y v",
            "jo y",
            "ab o",
            "vin c",
            "p u",
            "i ja",
            "s un",
            "il o",
            "i f",
            "y as",
            "al a",
            "h i",
            "g la",
            "ar t",
            "g on",
            "w en",
            "re y",
            "ri am",
            "mau ric",
            "b an",
            "lo t",
            "r an",
            "d in",
            "i ana",
            "pa s",
            "us z",
            "en g",
            "ja s",
            "o lo",
            "marg ari",
            "do u",
            "ar m",
            "io r",
            "se f",
            "de e",
            "i re",
            "v en",
            "on ne",
            "e u",
            "g an",
            "l ie",
            "i ta",
            "d u",
            "t r",
            "do l",
            "le e",
            "g re",
            "ra y",
            "b y",
            "g un",
            "k ha",
            "c al",
            "j en",
            "l et",
            "k ir",
            "mar is",
            "k hal",
            "ph o",
            "su z",
            "ju di",
            "w i",
            "su e",
            "it i",
            "a c",
            "d ia",
            "c ed",
            "f ri",
            "b ra",
            "w el",
            "y ol",
            "so ph",
            "ra f",
            "ro y",
            "en i",
            "g y",
            "al v",
            "l is",
            "v el",
            "la w",
            "th ia",
            "o d",
            "f ili",
            "l am",
            "un a",
            "flo ren",
            "k w",
            "li z",
            "ann es",
            "ru i",
            "t ra",
            "r g",
            "d enn",
            "t she",
            "d el",
            "joa qu",
            "k en",
            "ch i",
            "s in",
            "on so",
            "c la",
            "c ol",
            "ad e",
            "is ha",
            "jo s",
            "es z",
            "u a",
            "da y",
            "se p",
            "quel ine",
            "g r",
            "p re",
            "er nes",
            "f ar",
            "dy s",
            "s ur",
            "k er",
            "et e",
            "v la",
            "es t",
            "i ma",
            "d im",
            "n u",
            "y ne",
            "z y",
            "o f",
            "j it",
            "a gu",
            "p ha",
            "m us",
            "u la",
            "b or",
            "d io",
            "ri t",
            "a y",
            "gio v",
            "th i",
            "guil ler",
            "am e",
            "ly n",
            "mo r",
            "l im",
            "n ie",
            "n er",
            "k r",
            "do r",
            "la s",
            "m et",
            "v io",
            "w ar",
            "u f",
            "al f",
            "b lan",
            "a st",
            "mu sta",
            "b ir",
            "ol i",
            "c ia",
            "i di",
            "y am",
            "dol fo",
            "il la",
            "yo us",
            "ric e",
            "mar il",
            "id ia",
            "b as",
            "t t",
            "p am",
            "b il",
            "vi k",
            "e mi",
            "o j",
            "ad i",
            "y es",
            "lo ur",
            "h ann",
            "gor z",
            "iv a",
            "ch e",
            "z el",
            "ka sh",
            "ab i",
            "is on",
            "k ka",
            "s ia",
            "vi rg",
            "co r",
            "c ca",
            "t en",
            "p io",
            "p ri",
            "v il",
            "t in",
            "t ar",
            "z ul",
            "n g",
            "is lav",
            "g h",
            "th ab",
            "virg in",
            "p ar",
            "o t",
            "b on",
            "g ang",
            "g el",
            "the w",
            "in da",
            "l on",
            "b es",
            "c le",
            "y l",
            "n ar",
            "gi u",
            "s en",
            "giu sep",
            "la sz",
            "h ard",
            "ch o",
            "p an",
            "n as",
            "f ed",
            "am y",
            "mel o",
            "b ab",
            "yo u",
            "u ra",
            "n il",
            "ka y",
            "ag ni",
            "esz ka",
            "es e",
            "ic k",
            "gra ci",
            "t ri",
            "p al",
            "z yna",
            "e z",
            "mi k",
            "y us",
            "n thia",
            "i ro",
            "te o",
            "z ol",
            "m un",
            "u m",
            "mo h",
            "is es",
            "gon z",
            "au gu",
            "i th",
            "ha f",
            "jes h",
            "al y",
            "ant ha",
            "ul i",
            "is i",
            "j el",
            "p ia",
            "to b",
            "en dra",
            "o k",
            "m ia",
            "b ian",
            "nat as",
            "a f",
            "u z",
            "a ur",
            "le a",
            "me h",
            "mar gar",
            "is t",
            "ch ant",
            "e f",
            "r ul",
            "x a",
            "il ar",
            "syl v",
            "fi q",
            "ig na",
            "ro x",
            "ur t",
            "pa k",
            "et t",
            "a ma",
            "h le",
            "ri e",
            "mer ced",
            "el s",
            "enn e",
            "sil v",
            "ar tu",
            "ha y",
            "g is",
            "i de",
            "bo go",
            "t sh",
            "di ja",
            "mo s",
            "d re",
            "bo b",
            "val do",
            "ik e",
            "it u",
            "in i",
            "p ris",
            "y i",
            "ra t",
            "et ta",
            "mi re",
            "t ha",
            "x h",
            "s at",
            "lo ren",
            "e wa",
            "ri l",
            "k la",
            "ri sh",
            "al u",
            "ra d",
            "ch u",
            "mar ic",
            "na z",
            "f or",
            "to f",
            "ja ku",
            "im o",
            "o lu",
            "z an",
            "us sa",
            "o m",
            "ha d",
            "ang eli",
            "z im",
            "c as",
            "e ze",
            "ed a",
            "ju r",
            "ar zyna",
            "qu i",
            "ry st",
            "gre go",
            "c k",
            "m ine",
            "cle men",
            "a x",
            "f el",
            "ne y",
            "p r",
            "er i",
            "p in",
            "s ul",
            "is ra",
            "er ina",
            "a ud",
            "mat th",
            "j n",
            "b us",
            "d ir",
            "ol d",
            "ed y",
            "qu es",
            "ab ela",
            "k an",
            "h ola",
            "s k",
            "n us",
            "b ie",
            "w n",
            "s ya",
            "k h",
            "un g",
            "e e",
            "dim ir",
            "e er",
            "mi ros",
            "kim ber",
            "o y",
            "j h",
            "il de",
            "ab ra",
            "s ing",
            "hu m",
            "mi t",
            "n ab",
            "v or",
            "c ie",
            "mal gorz",
            "jo z",
            "s andr",
            "j et",
            "ir ul",
            "ri m",
            "ma in",
            "t un",
            "ar n",
            "ra s",
            "a da",
            "gu y",
            "w er",
            "r ine",
            "s ad",
            "bo g",
            "cio us",
            "is y",
            "no m",
            "z ah",
            "ad alu",
            "gu adalu",
            "e ka",
            "jar os",
            "ma j",
            "z en",
            "ri o",
            "b la",
            "ze j",
            "mo t",
            "k go",
            "je f",
            "le m",
            "z sol",
            "et se",
            "il we",
            "n on",
            "id y",
            "t at",
            "i enne",
            "v as",
            "b les",
            "z ena",
            "in d",
            "s ri",
            "ge o",
            "im i",
            "c alo",
            "a you",
            "u t",
            "ja z",
            "mah mo",
            "th em",
            "m is",
            "s or",
            "st i",
            "lo e",
            "er a",
            "h ic",
            "lin d",
            "z suz",
            "en c",
            "k al",
            "an o",
            "w o",
            "d ev",
            "it se",
            "vi ra",
            "go d",
            "au ro",
            "w ol",
            "lu i",
            "b ler",
            "i to",
            "am o",
            "p p",
            "de b",
            "ka s",
            "v es",
            "an y",
            "ed ad",
            "a ch",
            "este fan",
            "m ie",
            "st on",
            "l enn",
            "et so",
            "o ba",
            "ra pha",
            "ko b",
            "a sa",
            "d il",
            "l ian",
            "gi f",
            "k le",
            "l iv",
            "al b",
            "zel j",
            "kw u",
            "ie u",
            "en ia",
            "z ia",
            "fa u",
            "un do",
            "iv o",
            "gi ul",
            "an u",
            "ber nad",
            "un e",
            "ma i",
            "ja h",
            "guil her",
            "ne o",
            "d al",
            "i do",
            "z d",
            "qui el",
            "im ena",
            "de k",
            "h it",
            "o ra",
            "if e",
            "ro m",
            "fer son",
            "u k",
            "riz io",
            "at e",
            "ar l",
            "vin d",
            "se y",
            "e un",
            "ra ig",
            "l ul",
            "ia h",
            "a w",
            "h ab",
            "br an",
            "s io",
            "k on",
            "s uel",
            "la h",
            "ka j",
            "az s",
            "sh el",
            "k ryst",
            "n ah",
            "el y",
            "f lav",
            "is al",
            "b ad",
            "k it",
            "us a",
            "mo u",
            "s ie",
            "si g",
            "v ato",
            "sta fa",
            "j il",
            "es mer",
            "su la",
            "s co",
            "us i",
            "c sab",
            "d ine",
            "o mi",
            "sal vato",
            "z uz",
            "a j",
            "pris cil",
            "ee p",
            "fri ed",
            "e g",
            "e ma",
            "c s",
            "g ia",
            "ma dou",
            "pat ien",
            "ma z",
            "g ie",
            "kat le",
            "d is",
            "d ul",
            "ce y",
            "us h",
            "b am",
            "y ul",
            "so u",
            "m h",
            "it z",
            "ro me",
            "a go",
            "en d",
            "ile en",
            "lau me",
            "ar th",
            "m ur",
            "ja d",
            "per an",
            "sh i",
            "ren ce",
            "pa i",
            "tshe p",
            "es peran",
            "bo u",
            "w ia",
            "g as",
            "b un",
            "im ir",
            "itu melo",
            "t re",
            "th y",
            "jo l",
            "m b",
            "th u",
            "e ko",
            "ti f",
            "a ko",
            "s ir",
            "un i",
            "t am",
            "w id",
            "ben ed",
            "c ky",
            "y s",
            "s ale",
            "e go",
            "f ilwe",
            "co rin",
            "b l",
            "f ir",
            "ed g",
            "ma cie",
            "p ol",
            "lo vel",
            "ar na",
            "fa c",
            "pi ta",
            "ra sh",
            "n da",
            "b ia",
            "the us",
            "da g",
            "i we",
            "ara cel",
            "a v",
            "al l",
            "il son",
            "yo un",
            "f id",
            "f la",
            "kar ia",
            "h la",
            "li p",
            "am p",
            "lu r",
            "w ah",
            "r and",
            "r us",
            "h or",
            "ar e",
            "sz il",
            "ka g",
            "r ed",
            "con ce",
            "s lav",
            "ri el",
            "a yu",
            "it ri",
            "i on",
            "w oj",
            "k ab",
            "k ul",
            "sa s",
            "j us",
            "is wa",
            "es s",
            "i w",
            "as i",
            "p or",
            "f ilo",
            "f ad",
            "f e",
            "z or",
            "h ian",
            "er z",
            "e em",
            "u ta",
            "per n",
            "te k",
            "o ma",
            "it y",
            "o mo",
            "p ad",
            "ma a",
            "di et",
            "h ol",
            "ig h",
            "z am",
            "ya w",
            "re yn",
            "ro k",
            "x ol",
            "ene k",
            "o w",
            "z ar",
            "l ia",
            "gen es",
            "v ed",
            "z den",
            "o b",
            "mo d",
            "et o",
            "c and",
            "es i",
            "pas c",
            "v ar",
            "d ari",
            "v et",
            "re g",
            "h is",
            "no e",
            "so lo",
            "i q",
            "ch er",
            "ta y",
            "ru z",
            "sa y",
            "gla s",
            "f u",
            "p en",
            "j tim",
            "p on",
            "ic o",
            "na y",
            "ve en",
            "ia o",
            "w im",
            "ud u",
            "ce k",
            "lo v",
            "ka i",
            "ica o",
            "t is",
            "sh u",
            "ath er",
            "w is",
            "zi q",
            "do lor",
            "t se",
            "a yo",
            "am and",
            "mot so",
            "lu m",
            "k is",
            "lu d",
            "ro gel",
            "p ir",
            "ch im",
            "s n",
            "ya z",
            "mu t",
            "b is",
            "jo sel",
            "w es",
            "i i",
            "ba sh",
            "b ro",
            "ho ra",
            "y on",
            "v u",
            "gy or",
            "ce c",
            "n it",
            "y in",
            "n d",
            "h enn",
            "p and",
            "j di",
            "ar ia",
            "z on",
            "es tr",
            "sal o",
            "t it",
            "for t",
            "h at",
            "ji th",
            "ph ine",
            "z bi",
            "el zbi",
            "jel l",
            "ta de",
            "a in",
            "y ad",
            "k wa",
            "geo v",
            "al ph",
            "en o",
            "fel ic",
            "a is",
            "il ah",
            "vi r",
            "ul ri",
            "h ir",
            "ff en",
            "el l",
            "a p",
            "h lan",
            "hlan hla",
            "sha d",
            "k lo",
            "y ah",
            "ik ka",
            "na j",
            "al c",
            "za k",
            "ha v",
            "mic he",
            "f in",
            "j ho",
            "mad ele",
            "te a",
            "fab ric",
            "isi we",
            "co m",
            "sa h",
            "id es",
            "p ul",
            "k et",
            "es ia",
            "h jh",
            "vin ic",
            "ra im",
            "us o",
            "c ent",
            "bo y",
            "z em",
            "in no",
            "iv en",
            "am il",
            "ur s",
            "h us",
            "vi t",
            "em u",
            "d wi",
            "a ku",
            "g et",
            "ke em",
            "di v",
            "n ev",
            "k ol",
            "ra ta",
            "iv y",
            "m and",
            "ga et",
            "y ar",
            "lo s",
            "ma ic",
            "se ver",
            "o th",
            "riz ia",
            "s is",
            "k or",
            "h os",
            "er o",
            "ra g",
            "h ussa",
            "a i",
            "ma e",
            "zo e",
            "la x",
            "he k",
            "la et",
            "a id",
            "on dre",
            "d un",
            "fri m",
            "c eli",
            "raf fa",
            "so uf",
            "on ga",
            "ann on",
            "be a",
            "ed e",
            "dra g",
            "di p",
            "c lav",
            "x io",
            "er t",
            "j s",
            "n en",
            "s ley",
            "ta vio",
            "z u",
            "b in",
            "e wel",
            "a ya",
            "qu ent",
            "e y",
            "co urt",
            "hen d",
            "v on",
            "o sa",
            "h j",
            "go h",
            "e ge",
            "e a",
            "n tom",
            "bri gh",
            "k em",
            "w u",
            "ag n",
            "sa j",
            "e i",
            "m ale",
            "c ja",
            "a o",
            "g gy",
            "es tu",
            "bened ic",
            "n iam",
            "oba k",
            "bus iso",
            "al yn",
            "j c",
            "je ev",
            "con suel",
            "t ime",
            "s id",
            "ar te",
            "su b",
            "sz ab",
            "g esh",
            "o c",
            "z in",
            "ez er",
            "lu ng",
            "la t",
            "it ia",
            "da h",
            "sh kel",
            "m ul",
            "abd ula",
            "t l",
            "ha j",
            "re m",
            "n am",
            "sh o",
            "a maril",
            "si y",
            "vo j",
            "us u",
            "bog ile",
            "d ur",
            "s ica",
            "and e",
            "se bet",
            "k ko",
            "y er",
            "iz z",
            "f ari",
            "f elo",
            "ko k",
            "c ryst",
            "un n",
            "u we",
            "y en",
            "ke y",
            "g ur",
            "et s",
            "t so",
            "z iz",
            "la d",
            "h r",
            "is ka",
            "fau st",
            "ar men",
            "eth e",
            "se i",
            "x in",
            "pa v",
            "hil d",
            "p ela",
            "y os",
            "w ad",
            "ik h",
            "eth u",
            "th and",
            "ik ki",
            "sa k",
            "cie ch",
            "ish nu",
            "ter es",
            "ka c",
            "mo j",
            "jac in",
            "ro z",
            "se b",
            "f un",
            "ab ile",
            "d us",
            "mo l",
            "m imo",
            "b har",
            "m la",
[...]
