{
  "version": "1.0",
  "truncation": null,
  "padding": null,
  "added_tokens": [
    {
      "id": 0,
      "content": "[UNK]",
      "single_word": false,
      "lstrip": false,
      "rstrip": false,
      "normalized": false,
      "special": true
    },
    {
      "id": 1,
      "content": "[CLS]",
      "single_word": false,
      "lstrip": false,
      "rstrip": false,
      "normalized": false,
      "special": true
    },
    {
      "id": 2,
      "content": "[SEP]",
      "single_word": false,
      "lstrip": false,
      "rstrip": false,
      "normalized": false,
      "special": true
    },
    {
      "id": 3,
      "content": "[PAD]",
      "single_word": false,
      "lstrip": false,
      "rstrip": false,
      "normalized": false,
      "special": true
    },
    {
      "id": 4,
      "content": "[MASK]",
      "single_word": false,
      "lstrip": false,
      "rstrip": false,
      "normalized": false,
      "special": true
    }
  ],
  "normalizer": null,
  "pre_tokenizer": {
    "type": "Whitespace"
  },
  "post_processor": null,
  "decoder": null,
  "model": {
    "type": "BPE",
    "dropout": null,
    "unk_token": "[UNK]",
    "continuing_subword_prefix": null,
    "end_of_word_suffix": null,
    "fuse_unk": false,
    "vocab": {
      "[UNK]": 0,
      "[CLS]": 1,
      "[SEP]": 2,
      "[PAD]": 3,
      "[MASK]": 4,
      "a": 5,
      "b": 6,
      "c": 7,
      "d": 8,
      "e": 9,
      "f": 10,
      "g": 11,
      "h": 12,
      "i": 13,
      "j": 14,
      "k": 15,
      "l": 16,
      "m": 17,
      "n": 18,
      "o": 19,
      "p": 20,
      "q": 21,
      "r": 22,
      "s": 23,
      "t": 24,
      "u": 25,
      "v": 26,
      "x": 27,
      "y": 28,
      "z": 29,
      "an": 30,
      "ri": 31,
      "ar": 32,
      "en": 33,
      "di": 34,
      "el": 35,
      "er": 36,
      "on": 37,
      "al": 38,
      "mi": 39,
      "ti": 40,
      "li": 41,
      "le": 42,
      "da": 43,
      "ta": 44,
      "la": 45,
      "is": 46,
      "mir": 47,
      "xh": 48,
      "es": 49,
      "im": 50,
      "na": 51,
      "ma": 52,
      "ana": 53,
      "ela": 54,
      "sh": 55,
      "dri": 56,
      "lo": 57,
      "vi": 58,
      "fa": 59,
      "eri": 60,
      "ra": 61,
      "alb": 62,
      "lu": 63,
      "et": 64,
      "jan": 65,
      "do": 66,
      "jon": 67,
      "re": 68,
      "gen": 69,
      "si": 70,
      "ol": 71,
      "ani": 72,
      "ni": 73,
      "ur": 74,
      "fat": 75,
      "mar": 76,
      "oni": 77,
      "man": 78,
      "vis": 79,
      "lin": 80,
      "sa": 81,
      "art": 82,
      "jo": 83,
      "mari": 84,
      "bes": 85,
      "ard": 86,
      "ren": 87,
      "kle": 88,
      "ble": 89,
      "ed": 90,
      "ardi": 91,
      "ris": 92,
      "nik": 93,
      "arb": 94,
      "eli": 95,
      "tim": 96,
      "eta": 97,
      "ili": 98,
      "gj": 99,
      "zim": 100,
      "za": 101,
      "kris": 102,
      "flo": 103,
      "ag": 104,
      "rim": 105,
      "ilir": 106,
      "andi": 107,
      "or": 108,
      "ha": 109,
      "den": 110,
      "ger": 111,
      "and": 112,
      "drit": 113,
      "tin": 114,
      "kla": 115,
      "ona": 116,
      "va": 117,
      "ro": 118,
      "ka": 119,
      "st": 120,
      "mon": 121,
      "edi": 122,
      "rit": 123,
      "klo": 124,
      "shk": 125,
      "mira": 126,
      "vin": 127,
      "ali": 128,
      "eni": 129,
      "arben": 130,
      "denis": 131,
      "uli": 132,
      "jdi": 133,
      "kristi": 134,
      "jana": 135,
      "uj": 136,
      "ek": 137,
      "ton": 138,
      "mal": 139,
      "genti": 140,
      "altin": 141,
      "xhi": 142,
      "ru": 143,
      "xhe": 144,
      "ezim": 145,
      "gezim": 146,
      "shp": 147,
      "klodi": 148,
      "mo": 149,
      "ledi": 150,
      "yl": 151,
      "bard": 152,
      "aldo": 153,
      "lda": 154,
      "ald": 155,
      "jeta": 156,
      "flori": 157,
      "to": 158,
      "arman": 159,
      "ert": 160,
      "ul": 161,
      "so": 162,
      "klajdi": 163,
      "alban": 164,
      "me": 165,
      "isa": 166,
      "era": 167,
      "ron": 168,
      "fre": 169,
      "te": 170,
      "ervin": 171,
      "ida": 172,
      "toni": 173,
      "ke": 174,
      "rena": 175,
      "ba": 176,
      "dori": 177,
      "gi": 178,
      "ad": 179,
      "agim": 180,
      "kol": 181,
      "fatjon": 182,
      "ina": 183,
      "linda": 184,
      "emi": 185,
      "ci": 186,
      "ardit": 187,
      "fatmir": 188,
      "alek": 189,
      "ervis": 190,
      "elton": 191,
      "su": 192,
      "ir": 193,
      "pet": 194,
      "jet": 195,
      "ko": 196,
      "endri": 197,
      "ura": 198,
      "aur": 199,
      "ara": 200,
      "erjon": 201,
      "sokol": 202,
      "uri": 203,
      "lul": 204,
      "dritan": 205,
      "aleks": 206,
      "jola": 207,
      "sha": 208,
      "dita": 209,
      "moza": 210,
      "az": 211,
      "edu": 212,
      "son": 213,
      "artan": 214,
      "af": 215,
      "mario": 216,
      "mond": 217,
      "agron": 218,
      "besnik": 219,
      "len": 220,
      "anxh": 221,
      "sil": 222,
      "sel": 223,
      "ermal": 224,
      "artur": 225,
      "arjan": 226,
      "erti": 227,
      "bi": 228,
      "ast": 229,
      "leon": 230,
      "astrit": 231,
      "adri": 232,
      "esi": 233,
      "ys": 234,
      "res": 235,
      "bru": 236,
      "kuj": 237,
      "kujtim": 238,
      "pa": 239,
      "alda": 240,
      "shkel": 241,
      "petrit": 242,
      "albi": 243,
      "kel": 244,
      "miri": 245,
      "juli": 246,
      "bledi": 247,
      "vio": 248,
      "gaz": 249,
      "alma": 250,
      "dani": 251,
      "vera": 252,
      "luan": 253,
      "lum": 254,
      "xhuli": 255,
      "ea": 256,
      "met": 257,
      "edmond": 258,
      "ran": 259,
      "anila": 260,
      "ylli": 261,
      "ef": 262,
      "soni": 263,
      "albert": 264,
      "ergj": 265,
      "gjergj": 266,
      "fla": 267,
      "bardh": 268,
      "ada": 269,
      "leonard": 270,
      "oll": 271,
      "jona": 272,
      "os": 273,
      "bled": 274,
      "ladi": 275,
      "sara": 276,
      "renc": 277,
      "eduart": 278,
      "mimoza": 279,
      "emil": 280,
      "buj": 281,
      "bujar": 282,
      "alfre": 283,
      "alfred": 284,
      "armando": 285,
      "in": 286,
      "ora": 287,
      "amari": 288,
      "tor": 289,
      "don": 290,
      "anxhela": 291,
      "end": 292,
      "nela": 293,
      "etim": 294,
      "shpetim": 295,
      "klevis": 296,
      "elona": 297,
      "gli": 298,
      "emiljan": 299,
      "sk": 300,
      "erion": 301,
      "adi": 302,
      "meri": 303,
      "be": 304,
      "imir": 305,
      "saimir": 306,
      "val": 307,
      "niko": 308,
      "anisa": 309,
      "shkim": 310,
      "bashkim": 311,
      "valb": 312,
      "valbona": 313,
      "manu": 314,
      "bledar": 315,
      "mu": 316,
      "ldo": 317,
      "amarildo": 318,
      "ardian": 319,
      "mirela": 320,
      "arta": 321,
      "shpres": 322,
      "shpresa": 323,
      "rea": 324,
      "ca": 325,
      "joll": 326,
      "vjoll": 327,
      "vjollca": 328,
      "enea": 329,
      "elvis": 330,
      "indrit": 331,
      "erald": 332,
      "xho": 333,
      "ena": 334,
      "leo": 335,
      "albana": 336,
      "qim": 337,
      "alk": 338,
      "shkelqim": 339,
      "em": 340,
      "klau": 341,
      "glen": 342,
      "bu": 343,
      "fi": 344,
      "qe": 345,
      "dh": 346,
      "jlinda": 347,
      "majlinda": 348,
      "gentian": 349,
      "arber": 350,
      "jur": 351,
      "lindita": 352,
      "jurgen": 353,
      "est": 354,
      "elisa": 355,
      "olsi": 356,
      "zana": 357,
      "leta": 358,
      "qi": 359,
      "daniel": 360,
      "edison": 361,
      "no": 362,
      "aurel": 363,
      "ja": 364,
      "rol": 365,
      "roland": 366,
      "klea": 367,
      "renato": 368,
      "gent": 369,
      "tina": 370,
      "ari": 371,
      "eda": 372,
      "redi": 373,
      "erg": 374,
      "armand": 375,
      "bardha": 376,
      "du": 377,
      "teo": 378,
      "mariglen": 379,
      "lind": 380,
      "je": 381,
      "ne": 382,
      "lut": 383,
      "zen": 384,
      "tani": 385,
      "mer": 386,
      "mur": 387,
      "andrea": 388,
      "flamur": 389,
      "klodian": 390,
      "ant": 391,
      "rina": 392,
      "blerina": 393,
      "nerti": 394,
      "san": 395,
      "ander": 396,
      "aleksander": 397,
      "xhul": 398,
      "geri": 399,
      "il": 400,
      "fran": 401,
      "fatos": 402,
      "drita": 403,
      "afer": 404,
      "ender": 405,
      "skender": 406,
      "emiljano": 407,
      "emanu": 408,
      "igli": 409,
      "mateo": 410,
      "gerti": 411,
      "landi": 412,
      "elda": 413,
      "ot": 414,
      "riot": 415,
      "kast": 416,
      "kastriot": 417,
      "fredi": 418,
      "klaudi": 419,
      "gjel": 420,
      "pel": 421,
      "lumb": 422,
      "pellumb": 423,
      "lorenc": 424,
      "luljeta": 425,
      "dor": 426,
      "afrim": 427,
      "ter": 428,
      "mondi": 429,
      "julian": 430,
      "lulzim": 431,
      "hys": 432,
      "ent": 433,
      "anda": 434,
      "enkel": 435,
      "vana": 436,
      "genci": 437,
      "eva": 438,
      "har": 439,
      "blerim": 440,
      "aldi": 441,
      "vali": 442,
      "tik": 443,
      "bri": 444,
      "ornela": 445,
      "xheva": 446,
      "joni": 447,
      "florian": 448,
      "doni": 449,
      "kristina": 450,
      "gjergji": 451,
      "merita": 452,
      "ser": 453,
      "megi": 454,
      "aferdita": 455,
      "jonida": 456,
      "sonila": 457,
      "suela": 458,
      "aida": 459,
      "gert": 460,
      "ki": 461,
      "sta": 462,
      "marsel": 463,
      "denisa": 464,
      "enri": 465,
      "besi": 466,
      "olti": 467,
      "ktor": 468,
      "viktor": 469,
      "elina": 470,
      "besmir": 471,
      "bl": 472,
      "bler": 473,
      "mikel": 474,
      "taul": 475,
      "taulant": 476,
      "jmir": 477,
      "sajmir": 478,
      "dan": 479,
      "arlind": 480,
      "entina": 481,
      "valentina": 482,
      "rama": 483,
      "urata": 484,
      "dhurata": 485,
      "luli": 486,
      "edli": 487,
      "flut": 488,
      "ola": 489,
      "per": 490,
      "martin": 491,
      "parim": 492,
      "perparim": 493,
      "ljana": 494,
      "anna": 495,
      "liljana": 496,
      "elsa": 497,
      "turi": 498,
      "bra": 499,
      "bert": 500,
      "tilda": 501,
      "matilda": 502,
      "robert": 503,
      "violeta": 504,
      "alba": 505,
      "geni": 506,
      "beni": 507,
      "ergys": 508,
      "irena": 509,
      "shi": 510,
      "flora": 511,
      "klod": 512,
      "monda": 513,
      "vladi": 514,
      "miranda": 515,
      "vladimir": 516,
      "rei": 517,
      "dorina": 518,
      "esti": 519,
      "silvana": 520,
      "adrian": 521,
      "alesi": 522,
      "rez": 523,
      "bil": 524,
      "dina": 525,
      "jani": 526,
      "rudina": 527,
      "ergi": 528,
      "xheni": 529,
      "ver": 530,
      "uta": 531,
      "teuta": 532,
      "kevin": 533,
      "adela": 534,
      "alketa": 535,
      "esmer": 536,
      "esmeralda": 537,
      "av": 538,
      "zan": 539,
      "erdi": 540,
      "donald": 541,
      "ledio": 542,
      "cim": 543,
      "migen": 544,
      "hasan": 545,
      "adelina": 546,
      "xhesi": 547,
      "ermir": 548,
      "org": 549,
      "enxhi": 550,
      "nertila": 551,
      "diana": 552,
      "krist": 553,
      "eg": 554,
      "naim": 555,
      "zmi": 556,
      "nazmi": 557,
      "reta": 558,
      "atik": 559,
      "qa": 560,
      "kledi": 561,
      "adriatik": 562,
      "erin": 563,
      "ben": 564,
      "lan": 565,
      "mark": 566,
      "marsi": 567,
      "blerta": 568,
      "entela": 569,
      "nilda": 570,
      "brunilda": 571,
      "us": 572,
      "fabi": 573,
      "edlira": 574,
      "fabio": 575,
      "ilda": 576,
      "marjo": 577,
      "hmet": 578,
      "berti": 579,
      "sp": 580,
      "aurora": 581,
      "sami": 582,
      "dorian": 583,
      "anton": 584,
      "gentjan": 585,
      "visi": 586,
      "zef": 587,
      "manjola": 588,
      "jetmir": 589,
      "bruna": 590,
      "nardi": 591,
      "mela": 592,
      "led": 593,
      "gerald": 594,
      "flutura": 595,
      "cu": 596,
      "jsi": 597,
      "klevi": 598,
      "buk": 599,
      "isma": 600,
      "vasil": 601,
      "ismail": 602,
      "ermira": 603,
      "lori": 604,
      "mandi": 605,
      "ej": 606,
      "sela": 607,
      "marsela": 608,
      "maria": 609,
      "besim": 610,
      "suzana": 611,
      "donika": 612,
      "endrit": 613,
      "niku": 614,
      "lola": 615,
      "migena": 616,
      "enver": 617,
      "xhulio": 618,
      "avni": 619,
      "antoni": 620,
      "leva": 621,
      "etleva": 622,
      "behar": 623,
      "antonio": 624,
      "klaudio": 625,
      "she": 626,
      "hali": 627,
      "sen": 628,
      "arsen": 629,
      "rome": 630,
      "romeo": 631,
      "ilirjan": 632,
      "pran": 633,
      "pranvera": 634,
      "emanuel": 635,
      "van": 636,
      "zamira": 637,
      "qemal": 638,
      "hek": 639,
      "gazi": 640,
      "nikolin": 641,
      "ndu": 642,
      "tasha": 643,
      "natasha": 644,
      "shkelzen": 645,
      "ndue": 646,
      "engjel": 647,
      "luis": 648,
      "ete": 649,
      "liri": 650,
      "fatbardha": 651,
      "kristian": 652,
      "cimi": 653,
      "jra": 654,
      "bajra": 655,
      "durim": 656,
      "bajram": 657,
      "danj": 658,
      "ramazan": 659,
      "lav": 660,
      "iro": 661,
      "keli": 662,
      "erisa": 663,
      "hir": 664,
      "qir": 665,
      "xhevahir": 666,
      "marjeta": 667,
      "ronaldo": 668,
      "ismet": 669,
      "elis": 670,
      "hysen": 671,
      "enkeleda": 672,
      "marinela": 673,
      "stela": 674,
      "eno": 675,
      "florenc": 676,
      "kejsi": 677,
      "bo": 678,
      "gazm": 679,
      "marj": 680,
      "fes": 681,
      "endi": 682,
      "daniela": 683,
      "lumturi": 684,
      "festim": 685,
      "xhoni": 686,
      "gjo": 687,
      "tan": 688,
      "irma": 689,
      "klejdi": 690,
      "eduard": 691,
      "jor": 692,
      "bruno": 693,
      "flavio": 694,
      "deni": 695,
      "bek": 696,
      "mak": 697,
      "arian": 698,
      "marjana": 699,
      "haxhi": 700,
      "dorjan": 701,
      "dil": 702,
      "fadil": 703,
      "besa": 704,
      "shef": 705,
      "lule": 706,
      "as": 707,
      "teri": 708,
      "zeta": 709,
      "dasha": 710,
      "dashamir": 711,
      "alket": 712,
      "lson": 713,
      "sali": 714,
      "elo": 715,
      "vilson": 716,
      "gerta": 717,
      "anxhelo": 718,
      "iz": 719,
      "ano": 720,
      "sin": 721,
      "lili": 722,
      "joana": 723,
      "bora": 724,
      "th": 725,
      "mina": 726,
      "romina": 727,
      "ces": 728,
      "sim": 729,
      "frances": 730,
      "gazmir": 731,
      "sidor": 732,
      "cuni": 733,
      "sidorela": 734,
      "elena": 735,
      "lui": 736,
      "klodjan": 737,
      "noel": 738,
      "shqi": 739,
      "shqip": 740,
      "lef": 741,
      "kevi": 742,
      "rjan": 743,
      "elida": 744,
      "florjan": 745,
      "elio": 746,
      "henri": 747,
      "admir": 748,
      "urim": 749,
      "ndri": 750,
      "meti": 751,
      "ndricim": 752,
      "eris": 753,
      "marko": 754,
      "elidon": 755,
      "lirim": 756,
      "kren": 757,
      "krenar": 758,
      "gra": 759,
      "arjana": 760,
      "elvi": 761,
      "lorena": 762,
      "haj": 763,
      "gramo": 764,
      "elvira": 765,
      "men": 766,
      "rexhe": 767,
      "mentor": 768,
      "rexhep": 769,
      "lon": 770,
      "laura": 771,
      "kristjan": 772,
      "ardjan": 773,
      "emanuela": 774,
      "tonin": 775,
      "bukuri": 776,
      "hnik": 777,
      "kres": 778,
      "kadri": 779,
      "kreshnik": 780,
      "kl": 781,
      "klara": 782,
      "nor": 783,
      "ban": 784,
      "fab": 785,
      "shaban": 786,
      "ber": 787,
      "tion": 788,
      "fation": 789,
      "klodiana": 790,
      "ylber": 791,
      "xhoi": 792,
      "shaqe": 793,
      "bardhi": 794,
      "gjon": 795,
      "gersi": 796,
      "marjus": 797,
      "vena": 798,
      "anje": 799,
      "rovena": 800,
      "anjeza": 801,
      "valin": 802,
      "gjovalin": 803,
      "alesia": 804,
      "greta": 805,
      "davi": 806,
      "zamir": 807,
      "hysni": 808,
      "marsida": 809,
      "gazmend": 810,
      "david": 811,
      "gani": 812,
      "jmonda": 813,
      "rajmonda": 814,
      "fatmira": 815,
      "serxho": 816,
      "ajet": 817,
      "ku": 818,
      "arti": 819,
      "adem": 820,
      "adriana": 821,
      "bekim": 822,
      "ersi": 823,
      "kleo": 824,
      "klaudia": 825,
      "melisa": 826,
      "olta": 827,
      "egla": 828,
      "egli": 829,
      "rita": 830,
      "uran": 831,
      "hekuran": 832,
      "evis": 833,
      "nest": 834,
      "zh": 835,
      "ernest": 836,
      "ledion": 837,
      "lida": 838,
      "xhuljan": 839,
      "fatim": 840,
      "orgest": 841,
      "fatime": 842,
      "xhevi": 843,
      "samu": 844,
      "samuel": 845,
      "bona": 846,
      "gris": 847,
      "him": 848,
      "ibra": 849,
      "dion": 850,
      "ibrahim": 851,
      "dionis": 852,
      "silva": 853,
      "aqi": 854,
      "bedri": 855,
      "aqif": 856,
      "viola": 857,
      "bilbil": 858,
      "llan": 859,
      "bushi": 860,
      "qazim": 861,
      "asllan": 862,
      "bardhyl": 863,
      "dea": 864,
      "mit": 865,
      "lam": 866,
      "islam": 867,
      "xhemal": 868,
      "skerdi": 869,
      "iris": 870,
      "kena": 871,
      "elson": 872,
      "kateri": 873,
      "brikena": 874,
      "sindi": 875,
      "katerina": 876,
      "dhi": 877,
      "beta": 878,
      "musta": 879,
      "elisabeta": 880,
      "mustafa": 881,
      "eraldo": 882,
      "dash": 883,
      "reni": 884,
      "fitim": 885,
      "selim": 886,
      "armela": 887,
      "det": 888,
      "uf": 889,
      "vdet": 890,
      "isuf": 891,
      "xhevdet": 892,
      "lenci": 893,
      "koli": 894,
      "ahmet": 895,
      "sani": 896,
      "albion": 897,
      "gledi": 898,
      "pjet": 899,
      "alesio": 900,
      "pjeter": 901,
      "osman": 902,
      "lefter": 903,
      "sabri": 904,
      "nertil": 905,
      "erind": 906,
      "artak": 907,
      "spartak": 908,
      "riza": 909,
      "arjola": 910,
      "lela": 911,
      "genta": 912,
      "ilia": 913,
      "danjel": 914,
      "kristo": 915,
      "raq": 916,
      "elin": 917,
      "xhina": 918,
      "valter": 919,
      "leonora": 920,
      "gzim": 921,
      "sandri": 922,
      "jman": 923,
      "lejman": 924,
      "sulejman": 925,
      "xhesika": 926,
      "aurela": 927,
      "halil": 928,
      "luiza": 929,
      "land": 930,
      "riger": 931,
      "rigers": 932,
      "fta": 933,
      "ulin": 934,
      "drilon": 935,
      "genc": 936,
      "tefta": 937,
      "paulin": 938,
      "jori": 939,
      "orges": 940,
      "rem": 941,
      "manushaqe": 942,
      "muhar": 943,
      "muharrem": 944,
      "mil": 945,
      "qamil": 946,
      "miz": 947,
      "ramiz": 948,
      "erjona": 949,
      "zenel": 950,
      "spiro": 951,
      "lavdi": 952,
      "gel": 953,
      "rigel": 954,
      "rigels": 955,
      "jtim": 956,
      "pajtim": 957,
      "engjell": 958,
      "jul": 959,
      "arbri": 960,
      "bukurie": 961,
      "juljan": 962,
      "qeri": 963,
      "qet": 964,
      "dik": 965,
      "drini": 966,
      "albani": 967,
      "sadik": 968,
      "renis": 969,
      "shefqet": 970,
      "hajri": 971,
      "albania": 972,
      "bela": 973,
      "mehmet": 974,
      "lka": 975,
      "denada": 976,
      "yllka": 977,
      "xhoana": 978,
      "eglan": 979,
      "eglantina": 980,
      "enis": 981,
      "orgi": 982,
      "xhuljo": 983,
      "franko": 984,
      "orgito": 985,
      "haki": 986,
      "eldi": 987,
      "enkelej": 988,
      "vangjel": 989,
      "enkelejda": 990,
      "feri": 991,
      "ik": 992,
      "erjola": 993,
      "faik": 994,
      "ferit": 995,
      "serv": 996,
      "def": 997,
      "kli": 998,
      "albano": 999,
      "petro": 1000,
      "defrim": 1001,
      "fina": 1002,
      "dafina": 1003,
      "albina": 1004,
      "tomi": 1005,
      "tea": 1006,
      "ensi": 1007,
      "xhensi": 1008,
      "xhimi": 1009,
      "xhensila": 1010,
      "kejdi": 1011,
      "goni": 1012,
      "kosta": 1013,
      "ureta": 1014,
      "laureta": 1015,
      "mirjan": 1016,
      "griselda": 1017,
      "rezart": 1018,
      "nuri": 1019,
      "liano": 1020,
      "marjan": 1021,
      "emiliano": 1022,
      "kozeta": 1023,
      "dajana": 1024,
      "soti": 1025,
      "ramadan": 1026,
      "lika": 1027,
      "silika": 1028,
      "vasilika": 1029,
      "rezarta": 1030,
      "ln": 1031,
      "vul": 1032,
      "rimi": 1033,
      "erlind": 1034,
      "hamit": 1035,
      "lnet": 1036,
      "vullnet": 1037,
      "roza": 1038,
      "ilmi": 1039,
      "bosi": 1040,
      "miter": 1041,
      "vila": 1042,
      "edmir": 1043,
      "nevila": 1044,
      "shqipe": 1045,
      "dhimiter": 1046,
      "loni": 1047,
      "redon": 1048,
      "fatjona": 1049,
      "selman": 1050,
      "blen": 1051,
      "blendi": 1052,
      "diti": 1053,
      "vina": 1054,
      "malvina": 1055,
      "lutfi": 1056,
      "go": 1057,
      "kela": 1058,
      "vini": 1059,
      "xhemi": 1060,
      "benard": 1061,
      "jorgo": 1062,
      "maksim": 1063,
      "xha": 1064,
      "lume": 1065,
      "geraldo": 1066,
      "antoneta": 1067,
      "halit": 1068,
      "arsi": 1069,
      "xhmi": 1070,
      "nikoll": 1071,
      "nexhi": 1072,
      "nexhmi": 1073,
      "franci": 1074,
      "enes": 1075,
      "suada": 1076,
      "fren": 1077,
      "agus": 1078,
      "agustin": 1079,
      "anxhi": 1080,
      "dashi": 1081,
      "ardita": 1082,
      "gramoz": 1083,
      "beqir": 1084,
      "tjana": 1085,
      "tatjana": 1086,
      "gledis": 1087,
      "dal": 1088,
      "yshe": 1089,
      "angj": 1090,
      "hamet": 1091,
      "muhamet": 1092,
      "mura": 1093,
      "eljo": 1094,
      "lushe": 1095,
      "edvin": 1096,
      "keti": 1097,
      "azem": 1098,
      "xhulia": 1099,
      "engjellushe": 1100,
      "bobi": 1101,
      "murat": 1102,
      "gesti": 1103,
      "taq": 1104,
      "kristaq": 1105,
      "pashk": 1106,
      "am": 1107,
      "algert": 1108,
      "laz": 1109,
      "ambra": 1110,
      "keri": 1111,
      "par": 1112,
      "ukeri": 1113,
      "eleni": 1114,
      "parukeri": 1115,
      "rexhina": 1116,
      "fet": 1117,
      "safet": 1118,
      "eu": 1119,
      "jetnor": 1120,
      "eugen": 1121,
      "ju": 1122,
      "qy": 1123,
      "yqy": 1124,
      "shyqy": 1125,
      "shyqyri": 1126,
      "ok": 1127,
      "lindi": 1128,
      "bardhok": 1129,
      "arbi": 1130,
      "erinda": 1131,
      "maksi": 1132,
      "dej": 1133,
      "florida": 1134,
      "klaud": 1135,
      "dejvi": 1136,
      "at": 1137,
      "oma": 1138,
      "piro": 1139,
      "esat": 1140,
      "thoma": 1141,
      "fon": 1142,
      "nesti": 1143,
      "alfon": 1144,
      "andon": 1145,
      "jeton": 1146,
      "alfons": 1147,
      "aj": 1148,
      "mdi": 1149,
      "arlinda": 1150,
      "elal": 1151,
      "xhelal": 1152,
      "erisel": 1153,
      "hamdi": 1154,
      "ajla": 1155,
      "eriselda": 1156,
      "olla": 1157,
      "ymer": 1158,
      "orest": 1159,
      "francesko": 1160,
      "clirim": 1161,
      "ded": 1162,
      "medi": 1163,
      "pren": 1164,
      "vito": 1165,
      "fatbardh": 1166,
      "idajet": 1167,
      "tiku": 1168,
      "preng": 1169,
      "vitore": 1170,
      "dire": 1171,
      "nadire": 1172,
      "qani": 1173,
      "ledjon": 1174,
      "andri": 1175,
      "ledjo": 1176,
      "lavdie": 1177,
      "guri": 1178,
      "rasim": 1179,
      "danjela": 1180,
      "elion": 1181,
      "melin": 1182,
      "ermelin": 1183,
      "leri": 1184,
      "mobi": 1185,
      "ermelinda": 1186,
      "mobileri": 1187,
      "ori": 1188,
      "lek": 1189,
      "fiqi": 1190,
      "izmir": 1191,
      "fiqiri": 1192,
      "jda": 1193,
      "gjin": 1194,
      "stem": 1195,
      "rustem": 1196,
      "xhuljano": 1197,
      "lani": 1198,
      "vjola": 1199,
      "tixhe": 1200,
      "ardiana": 1201,
      "hatixhe": 1202,
      "bur": 1203,
      "de": 1204,
      "veli": 1205,
      "eralda": 1206,
      "rozeta": 1207,
      "buqe": 1208,
      "qerim": 1209,
      "burbuqe": 1210,
      "demir": 1211,
      "eljon": 1212,
      "gimi": 1213,
      "tedi": 1214,
      "aneta": 1215,
      "laert": 1216,
      "xhuliano": 1217,
      "zhaneta": 1218,
      "bani": 1219,
      "gesi": 1220,
      "onja": 1221,
      "xhevair": 1222,
      "shqiponja": 1223,
      "my": 1224,
      "mik": 1225,
      "namik": 1226,
      "silda": 1227,
      "bleona": 1228,
      "brisilda": 1229,
      "dashnor": 1230,
      "servet": 1231,
      "uro": 1232,
      "bukuro": 1233,
      "zani": 1234,
      "andu": 1235,
      "gentiana": 1236,
      "ruzh": 1237,
      "valmira": 1238,
      "ruzhdi": 1239,
      "egi": 1240,
      "rezi": 1241,
      "kledis": 1242,
      "gramos": 1243,
      "juri": 1244,
      "xhio": 1245,
      "serxhio": 1246,
      "lumturie": 1247,
      "besjana": 1248,
      "idri": 1249,
      "flutra": 1250,
      "idriz": 1251,
      "des": 1252,
      "seldi": 1253,
      "desara": 1254,
      "bar": 1255,
      "bis": 1256,
      "djana": 1257,
      "jam": 1258,
      "barjam": 1259,
      "bisha": 1260,
      "devis": 1261,
      "fjori": 1262,
      "sazan": 1263,
      "ledia": 1264,
      "brajan": 1265,
      "sanie": 1266,
      "sti": 1267,
      "lirie": 1268,
      "sotir": 1269,
      "stivi": 1270,
      "neri": 1271,
      "shaqir": 1272,
      "neritan": 1273,
      "fis": 1274,
      "zir": 1275,
      "armir": 1276,
      "xhon": 1277,
      "nezir": 1278,
      "fisnik": 1279,
      "shefki": 1280,
      "kim": 1281,
      "edona": 1282,
      "oresti": 1283,
      "xhino": 1284,
      "oltion": 1285,
      "sanije": 1286,
      "kimete": 1287,
      "dete": 1288,
      "jd": 1289,
      "sadete": 1290,
      "andin": 1291,
      "klajd": 1292,
      "standin": 1293,
      "kostandin": 1294,
      "izet": 1295,
      "ei": 1296,
      "sei": 1297,
      "hektor": 1298,
      "lulezim": 1299,
      "seit": 1300,
      "jsa": 1301,
      "ojsa": 1302,
      "vojsa": 1303,
      "besart": 1304,
      "dashuri": 1305,
      "vojsava": 1306,
      "mor": 1307,
      "tomor": 1308,
      "ergis": 1309,
      "xhevat": 1310,
      "tomorr": 1311,
      "reli": 1312,
      "arjeta": 1313,
      "zaim": 1314,
      "ergest": 1315,
      "ft": 1316,
      "jar": 1317,
      "baft": 1318,
      "baftjar": 1319,
      "dvan": 1320,
      "ridvan": 1321,
      "onda": 1322,
      "imonda": 1323,
      "raimonda": 1324,
      "lushi": 1325,
      "ejona": 1326,
      "sef": 1327,
      "raki": 1328,
      "flogert": 1329,
      "baci": 1330,
      "sefer": 1331,
      "rakip": 1332,
      "eo": 1333,
      "eneo": 1334,
      "olgert": 1335,
      "kamela": 1336,
      "klodjana": 1337,
      "arjon": 1338,
      "arani": 1339,
      "elvana": 1340,
      "mirjeta": 1341,
      "xhilda": 1342,
      "blero": 1343,
      "cun": 1344,
      "aranit": 1345,
      "iri": 1346,
      "llum": 1347,
      "ndo": 1348,
      "pllum": 1349,
      "vit": 1350,
      "franceska": 1351,
      "xhavit": 1352,
      "nexhmije": 1353,
      "irida": 1354,
      "ndoc": 1355,
      "mali": 1356,
      "landyshe": 1357,
      "kliton": 1358,
      "dallandyshe": 1359,
      "maliq": 1360,
      "fjor": 1361,
      "alvi": 1362,
      "xhuljana": 1363,
      "enrik": 1364,
      "edlir": 1365,
      "fjoralba": 1366,
      "ais": 1367,
      "he": 1368,
      "neta": 1369,
      "eljona": 1370,
      "taku": 1371,
      "lad": 1372,
      "fabjan": 1373,
      "xhemile": 1374,
      "aishe": 1375,
      "aleksi": 1376,
      "file": 1377,
      "jol": 1378,
      "landa": 1379,
      "ment": 1380,
      "sem": 1381,
      "arjol": 1382,
      "olger": 1383,
      "klement": 1384,
      "kasem": 1385,
      "ildi": 1386,
      "nim": 1387,
      "pu": 1388,
      "riku": 1389,
      "irdi": 1390,
      "amarilda": 1391,
      "fabjo": 1392,
      "nime": 1393,
      "punime": 1394,
      "eriona": 1395,
      "luigj": 1396,
      "aba": 1397,
      "kra": 1398,
      "sokra": 1399,
      "jorida": 1400,
      "frenkli": 1401,
      "abaz": 1402,
      "sokrat": 1403,
      "xhafer": 1404,
      "besjan": 1405,
      "klei": 1406,
      "ab": 1407,
      "dj": 1408,
      "pana": 1409,
      "dila": 1410,
      "eriola": 1411,
      "etmond": 1412,
      "jot": 1413,
      "edin": 1414,
      "ledian": 1415,
      "petraq": 1416,
      "avdi": 1417,
      "abedin": 1418,
      "djali": 1419,
      "panajot": 1420,
      "dilaver": 1421,
      "bos": 1422,
      "ile": 1423,
      "llaz": 1424,
      "xeni": 1425,
      "naile": 1426,
      "erida": 1427,
      "tosi": 1428,
      "bossi": 1429,
      "llazar": 1430,
      "dar": 1431,
      "zeni": 1432,
      "besmira": 1433,
      "hajdar": 1434,
      "anesti": 1435,
      "xhevit": 1436,
      "ush": 1437,
      "alush": 1438,
      "drim": 1439,
      "klevisa": 1440,
      "lavdrim": 1441,
      "xhet": 1442,
      "bexhet": 1443,
      "ariola": 1444,
      "fabjola": 1445,
      "fjona": 1446,
      "anas": 1447,
      "shar": 1448,
      "jashar": 1449,
      "thanas": 1450,
      "nis": 1451,
      "vlo": 1452,
      "nisi": 1453,
      "vlore": 1454,
      "hal": 1455,
      "mihal": 1456,
      "albjon": 1457,
      "sulo": 1458,
      "kristjana": 1459,
      "angjelin": 1460,
      "ez": 1461,
      "nard": 1462,
      "elez": 1463,
      "jetmira": 1464,
      "ht": 1465,
      "jes": 1466,
      "une": 1467,
      "angjel": 1468,
      "eliona": 1469,
      "sildi": 1470,
      "xhulian": 1471,
      "thjes": 1472,
      "angjelina": 1473,
      "angjelo": 1474,
      "thjesht": 1475,
      "blin": 1476,
      "uz": 1477,
      "erblin": 1478,
      "jonuz": 1479,
      "sidrit": 1480,
      "bukurije": 1481,
      "hajrie": 1482,
      "ajo": 1483,
      "ferdi": 1484,
      "jerin": 1485,
      "nant": 1486,
      "pjerin": 1487,
      "leke": 1488,
      "refat": 1489,
      "beso": 1490,
      "xhin": 1491,
      "gentjana": 1492,
      "jeti": 1493,
      "juxhin": 1494,
      "ferdinant": 1495,
      "eq": 1496,
      "erem": 1497,
      "lefteri": 1498,
      "klaudjo": 1499,
      "eqerem": 1500,
      "jaz": 1501,
      "jada": 1502,
      "klin": 1503,
      "lona": 1504,
      "njaz": 1505,
      "sal": 1506,
      "najada": 1507,
      "drilona": 1508,
      "shpendi": 1509,
      "redion": 1510,
      "klinton": 1511,
      "njazi": 1512,
      "sallon": 1513,
      "ija": 1514,
      "zija": 1515,
      "ervisa": 1516,
      "frenki": 1517,
      "uendi": 1518,
      "ermela": 1519,
      "tili": 1520,
      "nikolla": 1521,
      "xhoel": 1522,
      "mersin": 1523,
      "vlin": 1524,
      "ridi": 1525,
      "miklo": 1526,
      "luti": 1527,
      "pavlin": 1528,
      "julinda": 1529,
      "miklovan": 1530,
      "ajsi": 1531,
      "vri": 1532,
      "vla": 1533,
      "kleant": 1534,
      "fiqir": 1535,
      "stavri": 1536,
      "gazment": 1537,
      "asqeri": 1538,
      "vlash": 1539,
      "fiqirete": 1540,
      "dur": 1541,
      "rro": 1542,
      "enki": 1543,
      "loku": 1544,
      "emri": 1545,
      "nazmie": 1546,
      "ledjan": 1547,
      "klaudja": 1548,
      "durres": 1549,
      "rrok": 1550,
      "dervis": 1551,
      "ho": 1552,
      "ales": 1553,
      "marjola": 1554,
      "artjola": 1555,
      "shkolla": 1556,
      "fier": 1557,
      "xhulja": 1558,
      "adelajda": 1559,
      "dervish": 1560,
      "hoxha": 1561,
      "alesja": 1562,
      "ash": 1563,
      "tjon": 1564,
      "eraldi": 1565,
      "oltjon": 1566,
      "marash": 1567,
      "xhuliana": 1568,
      "lorenco": 1569,
      "lavdije": 1570,
      "der": 1571,
      "nglen": 1572,
      "oder": 1573,
      "rja": 1574,
      "sy": 1575,
      "ziz": 1576,
      "erzen": 1577,
      "maringlen": 1578,
      "haziz": 1579,
      "shkoder": 1580,
      "servete": 1581,
      "nexhmie": 1582,
      "lazer": 1583,
      "syrja": 1584,
      "fer": 1585,
      "mys": 1586,
      "pand": 1587,
      "lim": 1588,
      "dod": 1589,
      "fatri": 1590,
      "zafer": 1591,
      "marjol": 1592,
      "sotiraq": 1593,
      "myzafer": 1594,
      "anduela": 1595,
      "myslim": 1596,
      "pandeli": 1597,
      "lle": 1598,
      "mel": 1599,
      "arqi": 1600,
      "gjok": 1601,
      "llesh": 1602,
      "melsi": 1603,
      "arqile": 1604,
      "naldi": 1605,
      "anasta": 1606,
      "francesk": 1607,
      "anastas": 1608,
      "gy": 1609,
      "rana": 1610,
      "rigert": 1611,
      "enton": 1612,
      "tirana": 1613,
      "dosh": 1614,
      "klejda": 1615,
      "ledina": 1616,
      "ledja": 1617,
      "lavdosh": 1618,
      "bukurosh": 1619,
      "bukuroshe": 1620,
      "gysi": 1621,
      "ep": 1622,
      "pir": 1623,
      "eld": 1624,
      "zenep": 1625,
      "griseld": 1626,
      "mitraq": 1627,
      "dhimitraq": 1628,
      "pirro": 1629,
      "zenepe": 1630,
      "dyshe": 1631,
      "ldi": 1632,
      "psh": 1633,
      "rela": 1634,
      "rildi": 1635,
      "lorela": 1636,
      "kopsh": 1637,
      "lendyshe": 1638,
      "bardhe": 1639,
      "arsid": 1640,
      "dallendyshe": 1641,
      "kopshti": 1642,
      "zej": 1643,
      "rie": 1644,
      "tash": 1645,
      "farie": 1646,
      "xhuljeta": 1647,
      "bektash": 1648,
      "myzej": 1649,
      "myzejen": 1650,
      "alti": 1651,
      "alteo": 1652,
      "bardhul": 1653,
      "emiljana": 1654,
      "anduel": 1655,
      "bjor": 1656,
      "ismete": 1657,
      "bjorni": 1658
    },
    "merges": [
      "a n",
      "r i",
      "a r",
      "e n",
      "d i",
      "e l",
      "e r",
      "o n",
      "a l",
      "m i",
      "t i",
      "l i",
      "l e",
      "d a",
      "t a",
      "l a",
      "i s",
      "mi r",
      "x h",
      "e s",
      "i m",
      "n a",
      "m a",
      "an a",
      "el a",
      "s h",
      "d ri",
      "l o",
      "v i",
      "f a",
      "e ri",
      "r a",
      "al b",
      "l u",
      "e t",
      "j an",
      "d o",
      "j on",
      "r e",
      "g en",
      "s i",
      "o l",
      "an i",
      "n i",
      "u r",
      "fa t",
      "m ar",
      "on i",
      "m an",
      "v is",
      "li n",
      "s a",
      "ar t",
      "j o",
      "ma ri",
      "b es",
      "ar d",
      "r en",
      "k le",
      "b le",
      "e d",
      "ar di",
      "ri s",
      "ni k",
      "ar b",
      "el i",
      "ti m",
      "e ta",
      "i li",
      "g j",
      "z im",
      "z a",
      "k ris",
      "f lo",
      "a g",
      "ri m",
      "ili r",
      "an di",
      "o r",
      "h a",
      "d en",
      "g er",
      "an d",
      "dri t",
      "ti n",
      "k la",
      "on a",
      "v a",
      "r o",
      "k a",
      "s t",
      "m on",
      "e di",
      "ri t",
      "k lo",
      "sh k",
      "mir a",
      "vi n",
      "al i",
      "en i",
      "arb en",
      "den is",
      "u li",
      "j di",
      "kris ti",
      "j ana",
      "u j",
      "e k",
      "t on",
      "m al",
      "gen ti",
      "al tin",
      "xh i",
      "r u",
      "xh e",
      "e zim",
      "g ezim",
      "sh p",
      "klo di",
      "m o",
      "le di",
      "y l",
      "b ard",
      "al do",
      "l da",
      "al d",
      "j eta",
      "flo ri",
      "t o",
      "ar man",
      "er t",
      "u l",
      "s o",
      "kla jdi",
      "alb an",
      "m e",
      "is a",
      "er a",
      "r on",
      "f re",
      "t e",
      "er vin",
      "i da",
      "t oni",
      "k e",
      "ren a",
      "b a",
      "do ri",
      "g i",
      "a d",
      "ag im",
      "k ol",
      "fat jon",
      "i na",
      "lin da",
      "e mi",
      "c i",
      "ardi t",
      "fat mir",
      "al ek",
      "er vis",
      "el ton",
      "s u",
      "i r",
      "p et",
      "j et",
      "k o",
      "en dri",
      "u ra",
      "a ur",
      "ar a",
      "er jon",
      "so kol",
      "u ri",
      "lu l",
      "drit an",
      "alek s",
      "jo la",
      "sh a",
      "di ta",
      "mo za",
      "a z",
      "ed u",
      "s on",
      "art an",
      "a f",
      "mari o",
      "mon d",
      "ag ron",
      "bes nik",
      "l en",
      "an xh",
      "si l",
      "s el",
      "er mal",
      "art ur",
      "ar jan",
      "er ti",
      "b i",
      "a st",
      "le on",
      "ast rit",
      "a dri",
      "es i",
      "y s",
      "r es",
      "b ru",
      "k uj",
      "kuj tim",
      "p a",
      "al da",
      "shk el",
      "pet rit",
      "alb i",
      "k el",
      "mi ri",
      "j uli",
      "ble di",
      "vi o",
      "g az",
      "al ma",
      "d ani",
      "v era",
      "lu an",
      "lu m",
      "xh uli",
      "e a",
      "m et",
      "ed mond",
      "r an",
      "ani la",
      "yl li",
      "e f",
      "s oni",
      "alb ert",
      "er gj",
      "gj ergj",
      "f la",
      "bard h",
      "a da",
      "leon ard",
      "ol l",
      "jon a",
      "o s",
      "ble d",
      "la di",
      "s ara",
      "ren c",
      "edu art",
      "mi moza",
      "emi l",
      "b uj",
      "buj ar",
      "al fre",
      "alfre d",
      "arman do",
      "i n",
      "o ra",
      "a mari",
      "t or",
      "d on",
      "anxh ela",
      "en d",
      "n ela",
      "e tim",
      "shp etim",
      "kle vis",
      "el ona",
      "g li",
      "emil jan",
      "s k",
      "eri on",
      "a di",
      "m eri",
      "b e",
      "i mir",
      "sa imir",
      "v al",
      "nik o",
      "an isa",
      "shk im",
      "ba shkim",
      "v alb",
      "valb ona",
      "man u",
      "bled ar",
      "m u",
      "l do",
      "amari ldo",
      "ardi an",
      "mir ela",
      "ar ta",
      "shp res",
      "shpres a",
      "re a",
      "c a",
      "j oll",
      "v joll",
      "vjoll ca",
      "en ea",
      "el vis",
      "in drit",
      "er ald",
      "xh o",
      "en a",
      "le o",
      "alb ana",
      "q im",
      "al k",
      "shkel qim",
      "e m",
      "kla u",
      "g len",
      "b u",
      "f i",
      "q e",
      "d h",
      "j linda",
      "ma jlinda",
      "genti an",
      "arb er",
      "j ur",
      "lin dita",
      "jur gen",
      "es t",
      "el isa",
      "ol si",
      "z ana",
      "le ta",
      "q i",
      "dani el",
      "edi son",
      "n o",
      "aur el",
      "j a",
      "r ol",
      "rol and",
      "kle a",
      "rena to",
      "gen t",
      "ti na",
      "a ri",
      "e da",
      "re di",
      "er g",
      "arman d",
      "bard ha",
      "d u",
      "te o",
      "mari glen",
      "lin d",
      "j e",
      "n e",
      "lu t",
      "z en",
      "t ani",
      "m er",
      "m ur",
      "and rea",
      "fla mur",
      "klodi an",
      "an t",
      "ri na",
      "ble rina",
      "n erti",
      "s an",
      "and er",
      "aleks ander",
      "xh ul",
      "g eri",
      "i l",
      "f ran",
      "fat os",
      "dri ta",
      "af er",
      "end er",
      "sk ender",
      "emiljan o",
      "e manu",
      "i gli",
      "ma teo",
      "ger ti",
      "l andi",
      "el da",
      "o t",
      "ri ot",
      "ka st",
      "kast riot",
      "fre di",
      "klau di",
      "gj el",
      "p el",
      "lum b",
      "pel lumb",
      "lo renc",
      "lul jeta",
      "do r",
      "af rim",
      "t er",
      "mon di",
      "juli an",
      "lul zim",
      "h ys",
      "en t",
      "an da",
      "en kel",
      "v ana",
      "gen ci",
      "e va",
      "h ar",
      "ble rim",
      "al di",
      "v ali",
      "ti k",
      "b ri",
      "or nela",
      "xhe va",
      "jon i",
      "flori an",
      "d oni",
      "kristi na",
      "gjergj i",
      "meri ta",
      "s er",
      "me gi",
      "afer dita",
      "jon ida",
      "soni la",
      "su ela",
      "a ida",
      "ger t",
      "k i",
      "s ta",
      "mar sel",
      "denis a",
      "en ri",
      "bes i",
      "ol ti",
      "k tor",
      "vi ktor",
      "eli na",
      "bes mir",
      "b l",
      "bl er",
      "mi kel",
      "ta ul",
      "taul ant",
      "j mir",
      "sa jmir",
      "d an",
      "ar lind",
      "en tina",
      "val entina",
      "ra ma",
      "ura ta",
      "dh urata",
      "lu li",
      "ed li",
      "f lut",
      "o la",
      "p er",
      "mar tin",
      "pa rim",
      "per parim",
      "l jana",
      "an na",
      "li ljana",
      "el sa",
      "t uri",
      "b ra",
      "b ert",
      "ti lda",
      "ma tilda",
      "ro bert",
      "vio leta",
      "alb a",
      "gen i",
      "b eni",
      "erg ys",
      "i rena",
      "sh i",
      "flo ra",
      "klo d",
      "mon da",
      "v ladi",
      "mir anda",
      "vladi mir",
      "re i",
      "dori na",
      "es ti",
      "sil vana",
      "adri an",
      "al esi",
      "re z",
      "bi l",
      "di na",
      "jan i",
      "ru dina",
      "er gi",
      "xh eni",
      "v er",
      "u ta",
      "te uta",
      "ke vin",
      "ad ela",
      "alk eta",
      "es mer",
      "esmer alda",
      "a v",
      "z an",
      "er di",
      "don ald",
      "ledi o",
      "c im",
      "mi gen",
      "ha san",
      "ad elina",
      "xh esi",
      "er mir",
      "or g",
      "en xhi",
      "nerti la",
      "di ana",
      "kris t",
      "e g",
      "na im",
      "z mi",
      "na zmi",
      "re ta",
      "a tik",
      "q a",
      "kle di",
      "adri atik",
      "eri n",
      "b en",
      "l an",
      "mar k",
      "mar si",
      "bler ta",
      "ent ela",
      "ni lda",
      "bru nilda",
      "u s",
      "fa bi",
      "edli ra",
      "fabi o",
      "i lda",
      "mar jo",
      "h met",
      "b erti",
      "s p",
      "aur ora",
      "sa mi",
      "dori an",
      "an ton",
      "gent jan",
      "vis i",
      "z ef",
      "man jola",
      "jet mir",
      "bru na",
      "n ardi",
      "m ela",
      "le d",
      "ger ald",
      "flut ura",
      "c u",
      "j si",
      "kle vi",
      "bu k",
      "is ma",
      "va sil",
      "isma il",
      "er mira",
      "lo ri",
      "man di",
      "e j",
      "s ela",
      "mar sela",
      "mari a",
      "bes im",
      "su zana",
      "doni ka",
      "en drit",
      "nik u",
      "lo la",
      "migen a",
      "en ver",
      "xhuli o",
      "av ni",
      "an toni",
      "le va",
      "et leva",
      "be har",
      "antoni o",
      "klaudi o",
      "sh e",
      "h ali",
      "s en",
      "ar sen",
      "ro me",
      "rome o",
      "ilir jan",
      "p ran",
      "pran vera",
      "emanu el",
      "v an",
      "za mira",
      "qe mal",
      "h ek",
      "gaz i",
      "niko lin",
      "n du",
      "ta sha",
      "na tasha",
      "shkel zen",
      "ndu e",
      "en gjel",
      "lu is",
      "et e",
      "li ri",
      "fat bardha",
      "kristi an",
      "ci mi",
      "j ra",
      "ba jra",
      "du rim",
      "bajra m",
      "dan j",
      "rama zan",
      "la v",
      "i ro",
      "k eli",
      "eri sa",
      "h ir",
      "q ir",
      "xheva hir",
      "mar jeta",
      "ron aldo",
      "is met",
      "el is",
      "hys en",
      "enkel eda",
      "mari nela",
      "st ela",
      "en o",
      "flo renc",
      "ke jsi",
      "b o",
      "gaz m",
      "mar j",
      "f es",
      "en di",
      "dani ela",
      "lum turi",
      "fes tim",
      "xh oni",
      "g jo",
      "t an",
      "ir ma",
      "kle jdi",
      "edu ard",
      "jo r",
      "bru no",
      "fla vio",
      "den i",
      "b ek",
      "ma k",
      "ari an",
      "mar jana",
      "ha xhi",
      "dor jan",
      "di l",
      "fa dil",
      "bes a",
      "sh ef",
      "lu le",
      "a s",
      "t eri",
      "z eta",
      "da sha",
      "dasha mir",
      "alk et",
      "l son",
      "s ali",
      "el o",
      "vi lson",
      "ger ta",
      "anxh elo",
      "i z",
      "an o",
      "si n",
      "li li",
      "jo ana",
      "b ora",
      "t h",
      "mi na",
      "ro mina",
      "c es",
      "s im",
      "fran ces",
      "gaz mir",
      "si dor",
      "cu ni",
      "sidor ela",
      "el ena",
      "lu i",
      "klod jan",
      "no el",
      "sh qi",
      "shqi p",
      "le f",
      "ke vi",
      "r jan",
      "eli da",
      "flo rjan",
      "eli o",
      "h enri",
      "ad mir",
      "u rim",
      "n dri",
      "me ti",
      "ndri cim",
      "eri s",
      "mar ko",
      "eli don",
      "li rim",
      "k ren",
      "kren ar",
      "g ra",
      "ar jana",
      "el vi",
      "lo rena",
      "ha j",
      "gra mo",
      "elvi ra",
      "m en",
      "re xhe",
      "men tor",
      "rexhe p",
      "l on",
      "la ura",
      "krist jan",
      "ard jan",
      "emanu ela",
      "toni n",
      "buk uri",
      "h nik",
      "k res",
      "ka dri",
      "kres hnik",
      "k l",
      "kl ara",
      "n or",
      "b an",
      "fa b",
      "sha ban",
      "b er",
      "ti on",
      "fa tion",
      "klodi ana",
      "yl ber",
      "xho i",
      "sha qe",
      "bardh i",
      "g jon",
      "ger si",
      "marj us",
      "v ena",
      "an je",
      "ro vena",
      "anje za",
      "vali n",
      "gjo valin",
      "alesi a",
      "g reta",
      "da vi",
      "za mir",
      "hys ni",
      "marsi da",
      "gazm end",
      "davi d",
      "g ani",
      "j monda",
      "ra jmonda",
      "fat mira",
      "ser xho",
      "a jet",
      "k u",
      "ar ti",
      "ad em",
      "adri ana",
      "bek im",
      "er si",
      "kle o",
      "klaudi a",
      "m elisa",
      "ol ta",
      "eg la",
      "e gli",
      "ri ta",
      "ur an",
      "hek uran",
      "e vis",
      "n est",
      "z h",
      "er nest",
      "ledi on",
      "li da",
      "xhul jan",
      "fa tim",
      "org est",
      "fatim e",
      "xhe vi",
      "sa mu",
      "samu el",
      "b ona",
      "g ris",
      "h im",
      "i bra",
      "di on",
      "ibra him",
      "dion is",
      "sil va",
      "a qi",
      "be dri",
      "aqi f",
      "vio la",
      "bil bil",
      "l lan",
      "bu shi",
      "qa zim",
      "as llan",
      "bardh yl",
      "d ea",
      "mi t",
      "la m",
      "is lam",
      "xhe mal",
      "sk erdi",
      "i ris",
      "k ena",
      "el son",
      "ka teri",
      "bri kena",
      "sin di",
      "kateri na",
      "dh i",
      "b eta",
      "mu sta",
      "elisa beta",
      "musta fa",
      "er aldo",
      "da sh",
      "ren i",
      "fi tim",
      "sel im",
      "ar mela",
      "d et",
      "u f",
      "v det",
      "is uf",
      "xhe vdet",
      "len ci",
      "ko li",
      "a hmet",
      "s ani",
      "albi on",
      "g ledi",
      "p jet",
      "alesi o",
      "pjet er",
      "os man",
      "lef ter",
      "sa bri",
      "nerti l",
      "erin d",
      "arta k",
      "sp artak",
      "ri za",
      "ar jola",
      "l ela",
      "gen ta",
      "ili a",
      "danj el",
      "kris to",
      "ra q",
      "eli n",
      "xhi na",
      "val ter",
      "leon ora",
      "g zim",
      "san dri",
      "j man",
      "le jman",
      "su lejman",
      "xhesi ka",
      "aur ela",
      "hali l",
      "lui za",
      "l and",
      "ri ger",
      "riger s",
      "f ta",
      "u lin",
      "dri lon",
      "gen c",
      "te fta",
      "pa ulin",
      "jo ri",
      "org es",
      "re m",
      "manu shaqe",
      "mu har",
      "muhar rem",
      "mi l",
      "qa mil",
      "mi z",
      "ra miz",
      "erjon a",
      "zen el",
      "sp iro",
      "lav di",
      "g el",
      "ri gel",
      "rigel s",
      "j tim",
      "pa jtim",
      "engjel l",
      "j ul",
      "arb ri",
      "bukuri e",
      "jul jan",
      "q eri",
      "q et",
      "di k",
      "dri ni",
      "alb ani",
      "sa dik",
      "ren is",
      "shef qet",
      "haj ri",
      "albani a",
      "b ela",
      "me hmet",
      "l ka",
      "den ada",
      "yl lka",
      "xho ana",
      "eg lan",
      "eglan tina",
      "en is",
      "or gi",
      "xhul jo",
      "fran ko",
      "orgi to",
      "ha ki",
      "el di",
      "enkel ej",
      "van gjel",
      "enkelej da",
      "f eri",
      "i k",
      "er jola",
      "fa ik",
      "feri t",
      "ser v",
      "d ef",
      "k li",
      "alban o",
      "pet ro",
      "def rim",
      "f ina",
      "da fina",
      "alb ina",
      "to mi",
      "te a",
      "en si",
      "xh ensi",
      "xhi mi",
      "xhensi la",
      "ke jdi",
      "g oni",
      "ko sta",
      "u reta",
      "la ureta",
      "mir jan",
      "gris elda",
      "rez art",
      "n uri",
      "li ano",
      "mar jan",
      "emi liano",
      "ko zeta",
      "da jana",
      "so ti",
      "rama dan",
      "li ka",
      "si lika",
      "va silika",
      "rez arta",
      "l n",
      "v ul",
      "ri mi",
      "er lind",
      "ha mit",
      "ln et",
      "vul lnet",
      "ro za",
      "il mi",
      "bo si",
      "mi ter",
      "vi la",
      "ed mir",
      "ne vila",
      "shqip e",
      "dhi miter",
      "l oni",
      "re don",
      "fatjon a",
      "sel man",
      "b len",
      "blen di",
      "di ti",
      "vi na",
      "mal vina",
      "lut fi",
      "g o",
      "k ela",
      "vi ni",
      "xhe mi",
      "ben ard",
      "jor go",
      "mak sim",
      "xh a",
      "lu me",
      "ger aldo",
      "anton eta",
      "hali t",
      "ar si",
      "xh mi",
      "nik oll",
      "ne xhi",
      "ne xhmi",
      "fran ci",
      "en es",
      "su ada",
      "f ren",
      "ag us",
      "agus tin",
      "an xhi",
      "da shi",
      "ardi ta",
      "gramo z",
      "be qir",
      "t jana",
      "ta tjana",
      "gledi s",
      "d al",
      "y she",
      "an gj",
      "ha met",
      "mu hamet",
      "m ura",
      "el jo",
      "lu she",
      "ed vin",
      "ke ti",
      "az em",
      "xhuli a",
      "engjel lushe",
      "bo bi",
      "mura t",
      "g esti",
      "ta q",
      "kris taq",
      "pa shk",
      "a m",
      "al gert",
      "la z",
      "am bra",
      "k eri",
      "p ar",
      "u keri",
      "el eni",
      "par ukeri",
      "re xhina",
      "f et",
      "sa fet",
      "e u",
      "jet nor",
      "eu gen",
      "j u",
      "q y",
      "y qy",
      "sh yqy",
      "shyqy ri",
      "o k",
      "lin di",
      "bardh ok",
      "arb i",
      "erin da",
      "mak si",
      "d ej",
      "flori da",
      "klau d",
      "dej vi",
      "a t",
      "o ma",
      "p iro",
      "es at",
      "th oma",
      "f on",
      "n esti",
      "al fon",
      "and on",
      "jet on",
      "alfon s",
      "a j",
      "m di",
      "ar linda",
      "el al",
      "xh elal",
      "eri sel",
      "ha mdi",
      "aj la",
      "erisel da",
      "ol la",
      "y mer",
      "or est",
      "frances ko",
      "c lirim",
      "d ed",
      "m edi",
      "p ren",
      "vi to",
      "fat bardh",
      "ida jet",
      "tik u",
      "pren g",
      "vito re",
      "di re",
      "na dire",
      "q ani",
      "led jon",
      "an dri",
      "led jo",
      "lavdi e",
      "g uri",
      "ra sim",
      "danj ela",
      "eli on",
      "m elin",
      "er melin",
      "le ri",
      "mo bi",
      "ermelin da",
      "mobi leri",
      "o ri",
      "le k",
      "fi qi",
      "iz mir",
      "fiqi ri",
      "j da",
      "gj in",
      "st em",
      "ru stem",
      "xhuljan o",
      "l ani",
      "v jola",
      "ti xhe",
      "ardi ana",
      "ha tixhe",
      "b ur",
      "d e",
      "v eli",
      "er alda",
      "ro zeta",
      "bu qe",
      "qeri m",
      "bur buqe",
      "de mir",
      "el jon",
      "gi mi",
      "t edi",
      "an eta",
      "la ert",
      "xhuli ano",
      "zh aneta",
      "b ani",
      "g esi",
      "on ja",
      "xheva ir",
      "shqip onja",
      "m y",
      "mi k",
      "na mik",
      "si lda",
      "ble ona",
      "bri silda",
      "dash nor",
      "serv et",
      "ur o",
      "buk uro",
      "z ani",
      "and u",
      "genti ana",
      "ru zh",
      "val mira",
      "ruzh di",
      "e gi",
      "rez i",
      "kledi s",
      "gramo s",
      "j uri",
      "xhi o",
      "ser xhio",
      "lumturi e",
      "bes jana",
      "i dri",
      "flut ra",
      "idri z",
      "d es",
      "sel di",
      "des ara",
      "b ar",
      "b is",
      "d jana",
      "ja m",
      "bar jam",
      "bis ha",
      "d evis",
      "f jori",
      "sa zan",
      "ledi a",
      "bra jan",
      "sani e",
      "s ti",
      "liri e",
      "soti r",
      "sti vi",
      "n eri",
      "sha qir",
      "neri tan",
      "f is",
      "z ir",
      "ar mir",
      "xh on",
      "ne zir",
      "fis nik",
      "shef ki",
      "k im",
      "ed ona",
      "or esti",
      "xhi no",
      "olti on",
      "sani je",
      "kim ete",
      "d ete",
      "j d",
      "sa dete",
      "andi n",
      "kla jd",
      "st andin",
      "ko standin",
      "iz et",
      "e i",
      "s ei",
      "hek tor",
      "lule zim",
      "sei t",
      "j sa",
      "o jsa",
      "v ojsa",
      "bes art",
      "dash uri",
      "vojsa va",
      "m or",
      "to mor",
      "erg is",
      "xheva t",
      "tomor r",
      "r eli",
      "ar jeta",
      "za im",
      "erg est",
      "f t",
      "j ar",
      "ba ft",
      "baft jar",
      "d van",
      "ri dvan",
      "on da",
      "im onda",
      "ra imonda",
      "lu shi",
      "e jona",
      "s ef",
      "ra ki",
      "flo gert",
      "ba ci",
      "sef er",
      "raki p",
      "e o",
      "en eo",
      "ol gert",
      "ka mela",
      "klod jana",
      "ar jon",
      "ar ani",
      "el vana",
      "mir jeta",
      "xhi lda",
      "bler o",
      "cu n",
      "arani t",
      "i ri",
      "l lum",
      "n do",
      "p llum",
      "vi t",
      "frances ka",
      "xha vit",
      "nexhmi je",
      "iri da",
      "ndo c",
      "m ali",
      "land yshe",
      "kli ton",
      "dal landyshe",
      "mali q",
      "f jor",
      "al vi",
      "xhul jana",
      "enri k",
      "edli r",
      "fjor alba",
      "a is",
      "h e",
      "n eta",
      "el jona",
      "ta ku",
      "la d",
      "fab jan",
      "xhemi le",
      "ais he",
      "alek si",
      "fi le",
      "j ol",
      "l anda",
      "m ent",
      "s em",
      "ar jol",
      "ol ger",
      "kle ment",
      "ka sem",
      "il di",
      "n im",
      "p u",
      "ri ku",
      "ir di",
      "amari lda",
      "fab jo",
      "nim e",
      "pu nime",
      "eri ona",
      "lui gj",
      "a ba",
      "k ra",
      "so kra",
      "jori da",
      "fren kli",
      "aba z",
      "sokra t",
      "xh afer",
      "bes jan",
      "kle i",
      "a b",
      "d j",
      "p ana",
      "di la",
      "eri ola",
      "et mond",
      "jo t",
      "edi n",
      "ledi an",
      "pet raq",
      "av di",
      "ab edin",
      "dj ali",
      "pana jot",
      "dila ver",
      "b os",
      "i le",
      "l laz",
      "x eni",
      "na ile",
      "eri da",
      "to si",
      "bos si",
      "llaz ar",
      "d ar",
      "z eni",
      "bes mira",
      "haj dar",
      "an esti",
      "xhevi t",
      "u sh",
      "al ush",
      "dri m",
      "klevis a",
      "lav drim",
      "xh et",
      "be xhet",
      "ari ola",
      "fab jola",
      "f jona",
      "ana s",
      "sh ar",
      "ja shar",
      "th anas",
      "n is",
      "v lo",
      "nis i",
      "vlo re",
      "h al",
      "mi hal",
      "alb jon",
      "su lo",
      "krist jana",
      "angj elin",
      "e z",
      "n ard",
      "el ez",
      "jet mira",
      "h t",
      "j es",
      "u ne",
      "an gjel",
      "eli ona",
      "sil di",
      "xhuli an",
      "th jes",
      "angj elina",
      "angjel o",
      "thjes ht",
      "b lin",
      "u z",
      "er blin",
      "jon uz",
      "si drit",
      "bukuri je",
      "hajri e",
      "a jo",
      "f erdi",
      "j erin",
      "n ant",
      "p jerin",
      "le ke",
      "re fat",
      "bes o",
      "xhi n",
      "gent jana",
      "je ti",
      "ju xhin",
      "ferdi nant",
      "e q",
      "er em",
      "lef teri",
      "klaud jo",
      "eq erem",
      "j az",
      "j ada",
      "k lin",
      "l ona",
      "n jaz",
      "s al",
      "na jada",
      "dri lona",
      "shp endi",
      "redi on",
      "klin ton",
      "njaz i",
      "sal lon",
      "i ja",
      "z ija",
      "ervis a",
      "fren ki",
      "u endi",
      "er mela",
      "ti li",
      "nik olla",
      "xho el",
      "mer sin",
      "v lin",
      "ri di",
      "mi klo",
      "lu ti",
      "pa vlin",
      "ju linda",
      "miklo van",
      "a jsi",
      "v ri",
      "v la",
      "kle ant",
      "fi qir",
      "sta vri",
      "gazm ent",
      "as qeri",
      "vla sh",
      "fiqir ete",
      "d ur",
      "r ro",
      "en ki",
      "lo ku",
      "em ri",
      "nazmi e",
      "led jan",
      "klaud ja",
      "dur res",
      "rro k",
      "d ervis",
      "h o",
      "al es",
      "mar jola",
      "art jola",
      "shk olla",
      "fi er",
      "xhul ja",
      "adela jda",
      "dervis h",
      "ho xha",
      "ales ja",
      "a sh",
      "t jon",
      "er aldi",
      "ol tjon",
      "mar ash",
      "xhuli ana",
      "lorenc o",
      "lavdi je",
      "d er",
      "n glen",
      "o der",
      "r ja",
      "s y",
      "z iz",
      "er zen",
      "mari nglen",
      "ha ziz",
      "shk oder",
      "serv ete",
      "nexhmi e",
      "laz er",
      "sy rja",
      "f er",
      "m ys",
      "p and",
      "li m",
      "do d",
      "fat ri",
      "za fer",
      "marj ol",
      "soti raq",
      "my zafer",
      "andu ela",
      "mys lim",
      "pand eli",
      "l le",
      "m el",
      "ar qi",
      "gjo k",
      "lle sh",
      "mel si",
      "arqi le",
      "n aldi",
      "ana sta",
      "frances k",
      "anasta s",
      "g y",
      "r ana",
      "ri gert",
      "en ton",
      "ti rana",
      "do sh",
      "kle jda",
      "ledi na",
      "led ja",
      "lav dosh",
      "bukuro sh",
      "bukuro she",
      "gy si",
      "e p",
      "p ir",
      "el d",
      "zen ep",
      "gris eld",
      "mit raq",
      "dhi mitraq",
      "pir ro",
      "zenep e",
      "d yshe",
      "l di",
      "p sh",
      "r ela",
      "ri ldi",
      "lo rela",
      "ko psh",
      "len dyshe",
      "bardh e",
      "arsi d",
      "dal lendyshe",
      "kopsh ti",
      "z ej",
      "ri e",
      "ta sh",
      "fa rie",
      "xhul jeta",
      "bek tash",
      "my zej",
      "myzej en",
      "al ti",
      "al teo",
      "bardh ul",
      "emil jana",
      "andu el",
      "b jor",
      "ismet e",
      "bjor ni"
    ]
  }
}