{
    "version": "1.0",
    "truncation": null,
    "padding": null,
    "added_tokens": [
        {
            "id": 0,
            "content": "[UNK]",
            "single_word": false,
            "lstrip": false,
            "rstrip": false,
            "normalized": false,
            "special": true
        },
        {
            "id": 1,
            "content": "[CLS]",
            "single_word": false,
            "lstrip": false,
            "rstrip": false,
            "normalized": false,
            "special": true
        },
        {
            "id": 2,
            "content": "[SEP]",
            "single_word": false,
            "lstrip": false,
            "rstrip": false,
            "normalized": false,
            "special": true
        },
        {
            "id": 3,
            "content": "[PAD]",
            "single_word": false,
            "lstrip": false,
            "rstrip": false,
            "normalized": false,
            "special": true
        },
        {
            "id": 4,
            "content": "[MASK]",
            "single_word": false,
            "lstrip": false,
            "rstrip": false,
            "normalized": false,
            "special": true
        }
    ],
    "normalizer": null,
    "pre_tokenizer": {
        "type": "Whitespace"
    },
    "post_processor": null,
    "decoder": null,
    "model": {
        "type": "BPE",
        "dropout": null,
        "unk_token": "[UNK]",
        "continuing_subword_prefix": null,
        "end_of_word_suffix": null,
        "fuse_unk": false,
        "vocab": {
            "[UNK]": 0,
            "[CLS]": 1,
            "[SEP]": 2,
            "[PAD]": 3,
            "[MASK]": 4,
            "-": 5,
            "a": 6,
            "b": 7,
            "c": 8,
            "d": 9,
            "e": 10,
            "f": 11,
            "g": 12,
            "h": 13,
            "i": 14,
            "j": 15,
            "k": 16,
            "l": 17,
            "m": 18,
            "n": 19,
            "o": 20,
            "p": 21,
            "q": 22,
            "r": 23,
            "s": 24,
            "t": 25,
            "u": 26,
            "v": 27,
            "w": 28,
            "x": 29,
            "y": 30,
            "z": 31,
            "an": 32,
            "ar": 33,
            "el": 34,
            "in": 35,
            "en": 36,
            "mar": 37,
            "jo": 38,
            "er": 39,
            "ic": 40,
            "on": 41,
            "al": 42,
            "ie": 43,
            "is": 44,
            "ro": 45,
            "es": 46,
            "th": 47,
            "ja": 48,
            "ch": 49,
            "il": 50,
            "le": 51,
            "yn": 52,
            "ra": 53,
            "re": 54,
            "ann": 55,
            "ris": 56,
            "ma": 57,
            "ia": 58,
            "ine": 59,
            "lo": 60,
            "ju": 61,
            "sh": 62,
            "ich": 63,
            "se": 64,
            "ce": 65,
            "ang": 66,
            "rist": 67,
            "ian": 68,
            "da": 69,
            "vin": 70,
            "ph": 71,
            "ry": 72,
            "ess": 73,
            "ed": 74,
            "enn": 75,
            "hn": 76,
            "and": 77,
            "mel": 78,
            "jan": 79,
            "ber": 80,
            "jay": 81,
            "na": 82,
            "it": 83,
            "pa": 84,
            "arl": 85,
            "son": 86,
            "ica": 87,
            "je": 88,
            "ard": 89,
            "ina": 90,
            "im": 91,
            "iz": 92,
            "ren": 93,
            "ald": 94,
            "ka": 95,
            "ael": 96,
            "em": 97,
            "iel": 98,
            "ab": 99,
            "sa": 100,
            "elyn": 101,
            "ron": 102,
            "ick": 103,
            "jam": 104,
            "ke": 105,
            "joy": 106,
            "ol": 107,
            "jer": 108,
            "uel": 109,
            "eth": 110,
            "ex": 111,
            "te": 112,
            "pr": 113,
            "or": 114,
            "iv": 115,
            "la": 116,
            "dan": 117,
            "ca": 118,
            "car": 119,
            "rey": 120,
            "gra": 121,
            "win": 122,
            "mi": 123,
            "my": 124,
            "jh": 125,
            "lie": 126,
            "man": 127,
            "ter": 128,
            "fer": 129,
            "io": 130,
            "tr": 131,
            "ly": 132,
            "len": 133,
            "us": 134,
            "iza": 135,
            "ena": 136,
            "lyn": 137,
            "ev": 138,
            "jef": 139,
            "pau": 140,
            "prin": 141,
            "alyn": 142,
            "jun": 143,
            "ico": 144,
            "anc": 145,
            "mon": 146,
            "ony": 147,
            "ger": 148,
            "kim": 149,
            "maric": 150,
            "lan": 151,
            "lor": 152,
            "ve": 153,
            "nel": 154,
            "ita": 155,
            "mil": 156,
            "vi": 157,
            "ben": 158,
            "tin": 159,
            "ros": 160,
            "red": 161,
            "me": 162,
            "co": 163,
            "ene": 164,
            "fr": 165,
            "ther": 166,
            "mer": 167,
            "ea": 168,
            "don": 169,
            "dy": 170,
            "inda": 171,
            "no": 172,
            "patr": 173,
            "anth": 174,
            "crist": 175,
            "ah": 176,
            "maril": 177,
            "ice": 178,
            "ey": 179,
            "ail": 180,
            "ru": 181,
            "ky": 182,
            "ancis": 183,
            "ai": 184,
            "wil": 185,
            "rod": 186,
            "by": 187,
            "lu": 188,
            "ing": 189,
            "ifer": 190,
            "mae": 191,
            "rol": 192,
            "ray": 193,
            "gie": 194,
            "nie": 195,
            "row": 196,
            "joc": 197,
            "jon": 198,
            "therine": 199,
            "vic": 200,
            "de": 201,
            "oph": 202,
            "ou": 203,
            "sam": 204,
            "jen": 205,
            "jus": 206,
            "ha": 207,
            "ardo": 208,
            "cher": 209,
            "aren": 210,
            "rh": 211,
            "tor": 212,
            "un": 213,
            "zel": 214,
            "jas": 215,
            "yl": 216,
            "ge": 217,
            "nes": 218,
            "denn": 219,
            "ua": 220,
            "lou": 221,
            "ito": 222,
            "een": 223,
            "old": 224,
            "anie": 225,
            "hel": 226,
            "icky": 227,
            "ely": 228,
            "cy": 229,
            "she": 230,
            "di": 231,
            "ley": 232,
            "pe": 233,
            "ni": 234,
            "gil": 235,
            "mj": 236,
            "may": 237,
            "ent": 238,
            "lon": 239,
            "ton": 240,
            "hen": 241,
            "sar": 242,
            "mig": 243,
            "bo": 244,
            "fe": 245,
            "teres": 246,
            "lov": 247,
            "jul": 248,
            "apr": 249,
            "jim": 250,
            "ay": 251,
            "ck": 252,
            "ste": 253,
            "ome": 254,
            "jasm": 255,
            "ana": 256,
            "har": 257,
            "ad": 258,
            "jm": 259,
            "eliz": 260,
            "abeth": 261,
            "lil": 262,
            "tha": 263,
            "leo": 264,
            "gar": 265,
            "aby": 266,
            "icia": 267,
            "ir": 268,
            "vir": 269,
            "sus": 270,
            "raf": 271,
            "char": 272,
            "nold": 273,
            "reyn": 274,
            "at": 275,
            "cent": 276,
            "cil": 277,
            "jos": 278,
            "aj": 279,
            "ilo": 280,
            "rom": 281,
            "ila": 282,
            "ny": 283,
            "les": 284,
            "ken": 285,
            "tte": 286,
            "ag": 287,
            "rosal": 288,
            "ong": 289,
            "rome": 290,
            "ven": 291,
            "ane": 292,
            "jc": 293,
            "nik": 294,
            "gab": 295,
            "iam": 296,
            "gel": 297,
            "che": 298,
            "reg": 299,
            "nor": 300,
            "lea": 301,
            "isy": 302,
            "oliv": 303,
            "dar": 304,
            "ye": 305,
            "mariv": 306,
            "ius": 307,
            "quel": 308,
            "rj": 309,
            "lar": 310,
            "am": 311,
            "mo": 312,
            "bel": 313,
            "gl": 314,
            "sal": 315,
            "of": 316,
            "nanc": 317,
            "ur": 318,
            "ix": 319,
            "mit": 320,
            "lee": 321,
            "cj": 322,
            "ash": 323,
            "del": 324,
            "orge": 325,
            "roy": 326,
            "glor": 327,
            "nikk": 328,
            "van": 329,
            "ivy": 330,
            "rna": 331,
            "olo": 332,
            "ple": 333,
            "shiel": 334,
            "camil": 335,
            "joe": 336,
            "ime": 337,
            "ig": 338,
            "eng": 339,
            "jov": 340,
            "berna": 341,
            "bea": 342,
            "mac": 343,
            "ida": 344,
            "luz": 345,
            "ace": 346,
            "imel": 347,
            "eryl": 348,
            "ily": 349,
            "cla": 350,
            "ire": 351,
            "mal": 352,
            "pre": 353,
            "inky": 354,
            "ver": 355,
            "ap": 356,
            "riel": 357,
            "dex": 358,
            "ferd": 359,
            "rish": 360,
            "hon": 361,
            "gin": 362,
            "jie": 363,
            "qu": 364,
            "katr": 365,
            "eil": 366,
            "mia": 367,
            "uardo": 368,
            "cyn": 369,
            "thia": 370,
            "des": 371,
            "rdes": 372,
            "ram": 373,
            "amy": 374,
            "rie": 375,
            "ip": 376,
            "ilip": 377,
            "berly": 378,
            "ral": 379,
            "eva": 380,
            "ika": 381,
            "judi": 382,
            "ces": 383,
            "rin": 384,
            "men": 385,
            "cin": 386,
            "mylen": 387,
            "jho": 388,
            "fat": 389,
            "ima": 390,
            "rus": 391,
            "vil": 392,
            "dette": 393,
            "gla": 394,
            "yol": 395,
            "do": 396,
            "zon": 397,
            "he": 398,
            "rex": 399,
            "esa": 400,
            "viv": 401,
            "ona": 402,
            "fai": 403,
            "aliza": 404,
            "ody": 405,
            "sof": 406,
            "eu": 407,
            "ric": 408,
            "vie": 409,
            "soph": 410,
            "be": 411,
            "cca": 412,
            "virgin": 413,
            "nen": 414,
            "jp": 415,
            "bian": 416,
            "bby": 417,
            "inand": 418,
            "to": 419,
            "ernes": 420,
            "renat": 421,
            "jamin": 422,
            "kat": 423,
            "nand": 424,
            "cio": 425,
            "precio": 426,
            "ej": 427,
            "boy": 428,
            "eun": 429,
            "arth": 430,
            "ferson": 431,
            "onica": 432,
            "tris": 433,
            "cha": 434,
            "fy": 435,
            "art": 436,
            "rogel": 437,
            "ette": 438,
            "zena": 439,
            "abig": 440,
            "die": 441,
            "jb": 442,
            "mau": 443,
            "ilyn": 444,
            "fo": 445,
            "wren": 446,
            "annab": 447,
            "olfo": 448,
            "lawren": 449,
            "kc": 450,
            "jr": 451,
            "vy": 452,
            "con": 453,
            "ssa": 454,
            "yssa": 455,
            "chlo": 456,
            "loren": 457,
            "gen": 458,
            "dys": 459,
            "per": 460,
            "ria": 461,
            "ef": 462,
            "nin": 463,
            "den": 464,
            "ul": 465,
            "kur": 466,
            "emy": 467,
            "jj": 468,
            "bh": 469,
            "ew": 470,
            "tth": 471,
            "matth": 472,
            "fel": 473,
            "tch": 474,
            "gardo": 475,
            "dia": 476,
            "ko": 477,
            "lis": 478,
            "elito": 479,
            "pia": 480,
            "oy": 481,
            "mai": 482,
            "lei": 483,
            "fay": 484,
            "mun": 485,
            "sel": 486,
            "raymun": 487,
            "rho": 488,
            "bev": 489,
            "erly": 490,
            "ith": 491,
            "sie": 492,
            "liz": 493,
            "anz": 494,
            "pj": 495,
            "mc": 496,
            "ath": 497,
            "llo": 498,
            "yd": 499,
            "elvi": 500,
            "lj": 501,
            "riz": 502,
            "za": 503,
            "trix": 504,
            "gir": 505,
            "eg": 506,
            "abeg": 507,
            "dred": 508,
            "emi": 509,
            "itha": 510,
            "vina": 511,
            "jed": 512,
            "trist": 513,
            "zl": 514,
            "war": 515,
            "jaype": 516,
            "boye": 517,
            "mha": 518,
            "gilio": 519,
            "lal": 520,
            "gh": 521,
            "jem": 522,
            "yan": 523,
            "ict": 524,
            "edict": 525,
            "icho": 526,
            "her": 527,
            "yen": 528,
            "sun": 529,
            "vey": 530,
            "cel": 531,
            "zen": 532,
            "eska": 533,
            "div": 534,
            "au": 535,
            "brey": 536,
            "jet": 537,
            "gem": 538,
            "rea": 539,
            "milag": 540,
            "ner": 541,
            "zald": 542,
            "jayve": 543,
            "jv": 544,
            "wel": 545,
            "chor": 546,
            "muel": 547,
            "deliza": 548,
            "yam": 549,
            "vim": 550,
            "luzvim": 551,
            "nol": 552,
            "par": 553,
            "med": 554,
            "remed": 555,
            "ios": 556,
            "cl": 557,
            "arence": 558,
            "kit": 559,
            "fie": 560,
            "hyn": 561,
            "non": 562,
            "lig": 563,
            "aya": 564,
            "von": 565,
            "tet": 566,
            "bu": 567,
            "rc": 568,
            "when": 569,
            "edz": 570,
            "dim": 571,
            "emz": 572,
            "onila": 573,
            "arni": 574,
            "isse": 575,
            "gre": 576,
            "tchen": 577,
            "him": 578,
            "yna": 579,
            "cquel": 580,
            "marich": 581,
            "deth": 582,
            "poy": 583,
            "gy": 584,
            "ac": 585,
            "ion": 586,
            "vac": 587,
            "anj": 588,
            "salvac": 589,
            "emel": 590,
            "ems": 591,
            "fa": 592,
            "nim": 593,
            "kko": 594,
            "res": 595,
            "sol": 596,
            "ty": 597,
            "rasol": 598,
            "jhe": 599,
            "mie": 600,
            "din": 601,
            "bhe": 602,
            "thir": 603,
            "iy": 604,
            "iya": 605,
            "cee": 606,
            "br": 607,
            "ier": 608,
            "oly": 609,
            "hal": 610,
            "anal": 611,
            "cz": 612,
            "arina": 613,
            "reig": 614,
            "oj": 615,
            "yoj": 616,
            "eds": 617,
            "ani": 618,
            "isag": 619,
            "dor": 620,
            "nyl": 621,
            "rit": 622,
            "nit": 623
        },
        "merges": [
            "a n",
            "a r",
            "e l",
            "i n",
            "e n",
            "m ar",
            "j o",
            "e r",
            "i c",
            "o n",
            "a l",
            "i e",
            "i s",
            "r o",
            "e s",
            "t h",
            "j a",
            "c h",
            "i l",
            "l e",
            "y n",
            "r a",
            "r e",
            "an n",
            "r is",
            "m a",
            "i a",
            "in e",
            "l o",
            "j u",
            "s h",
            "ic h",
            "s e",
            "c e",
            "an g",
            "ris t",
            "i an",
            "d a",
            "v in",
            "p h",
            "r y",
            "es s",
            "e d",
            "en n",
            "h n",
            "an d",
            "m el",
            "j an",
            "b er",
            "ja y",
            "n a",
            "i t",
            "p a",
            "ar l",
            "s on",
            "ic a",
            "j e",
            "ar d",
            "in a",
            "i m",
            "i z",
            "r en",
            "al d",
            "k a",
            "a el",
            "e m",
            "i el",
            "a b",
            "s a",
            "el yn",
            "r on",
            "ic k",
            "ja m",
            "k e",
            "jo y",
            "o l",
            "j er",
            "u el",
            "e th",
            "e x",
            "t e",
            "p r",
            "o r",
            "i v",
            "l a",
            "d an",
            "c a",
            "c ar",
            "re y",
            "g ra",
            "w in",
            "m i",
            "m y",
            "j h",
            "l ie",
            "m an",
            "t er",
            "f er",
            "i o",
            "t r",
            "l y",
            "l en",
            "u s",
            "iz a",
            "en a",
            "l yn",
            "e v",
            "je f",
            "pa u",
            "pr in",
            "al yn",
            "ju n",
            "ic o",
            "an c",
            "m on",
            "on y",
            "g er",
            "k im",
            "mar ic",
            "l an",
            "lo r",
            "v e",
            "n el",
            "it a",
            "m il",
            "v i",
            "b en",
            "t in",
            "ro s",
            "re d",
            "m e",
            "c o",
            "en e",
            "f r",
            "th er",
            "m er",
            "e a",
            "d on",
            "d y",
            "in da",
            "n o",
            "pa tr",
            "an th",
            "c rist",
            "a h",
            "mar il",
            "ic e",
            "e y",
            "a il",
            "r u",
            "k y",
            "anc is",
            "a i",
            "w il",
            "ro d",
            "b y",
            "l u",
            "in g",
            "i fer",
            "ma e",
            "ro l",
            "ra y",
            "g ie",
            "n ie",
            "ro w",
            "jo c",
            "jo n",
            "ther ine",
            "v ic",
            "d e",
            "o ph",
            "o u",
            "sa m",
            "j en",
            "ju s",
            "h a",
            "ard o",
            "ch er",
            "ar en",
            "r h",
            "t or",
            "u n",
            "z el",
            "ja s",
            "y l",
            "g e",
            "n es",
            "d enn",
            "u a",
            "lo u",
            "it o",
            "e en",
            "ol d",
            "an ie",
            "h el",
            "ick y",
            "el y",
            "c y",
            "sh e",
            "d i",
            "le y",
            "p e",
            "n i",
            "g il",
            "m j",
            "ma y",
            "en t",
            "l on",
            "t on",
            "h en",
            "s ar",
            "mi g",
            "b o",
            "f e",
            "ter es",
            "lo v",
            "ju l",
            "a pr",
            "j im",
            "a y",
            "c k",
            "s te",
            "o me",
            "jas m",
            "an a",
            "h ar",
            "a d",
            "j m",
            "el iz",
            "ab eth",
            "l il",
            "th a",
            "le o",
            "g ar",
            "ab y",
            "ic ia",
            "i r",
            "vi r",
            "s us",
            "ra f",
            "ch ar",
            "n old",
            "re yn",
            "a t",
            "c ent",
            "c il",
            "jo s",
            "a j",
            "il o",
            "ro m",
            "il a",
            "n y",
            "l es",
            "k en",
            "t te",
            "a g",
            "ros al",
            "on g",
            "ro me",
            "v en",
            "an e",
            "j c",
            "ni k",
            "g ab",
            "ia m",
            "g el",
            "ch e",
            "re g",
            "n or",
            "le a",
            "is y",
            "ol iv",
            "d ar",
            "y e",
            "mar iv",
            "i us",
            "q uel",
            "r j",
            "l ar",
            "a m",
            "m o",
            "b el",
            "g l",
            "s al",
            "o f",
            "n anc",
            "u r",
            "i x",
            "m it",
            "le e",
            "c j",
            "a sh",
            "d el",
            "or ge",
            "ro y",
            "g lor",
            "nik k",
            "v an",
            "iv y",
            "r na",
            "o lo",
            "p le",
            "sh iel",
            "ca mil",
            "jo e",
            "im e",
            "i g",
            "en g",
            "jo v",
            "ber na",
            "b ea",
            "ma c",
            "i da",
            "lu z",
            "a ce",
            "i mel",
            "er yl",
            "il y",
            "c la",
            "i re",
            "m al",
            "p re",
            "in ky",
            "v er",
            "a p",
            "r iel",
            "d ex",
            "fer d",
            "ris h",
            "h on",
            "g in",
            "j ie",
            "q u",
            "ka tr",
            "e il",
            "m ia",
            "u ardo",
            "c yn",
            "th ia",
            "d es",
            "r des",
            "ra m",
            "a my",
            "r ie",
            "i p",
            "il ip",
            "ber ly",
            "r al",
            "ev a",
            "i ka",
            "ju di",
            "c es",
            "r in",
            "m en",
            "c in",
            "my len",
            "jh o",
            "f at",
            "i ma",
            "r us",
            "v il",
            "de tte",
            "g la",
            "y ol",
            "d o",
            "z on",
            "h e",
            "re x",
            "es a",
            "v iv",
            "on a",
            "f ai",
            "al iza",
            "o dy",
            "s of",
            "e u",
            "r ic",
            "v ie",
            "s oph",
            "b e",
            "c ca",
            "vir gin",
            "n en",
            "j p",
            "b ian",
            "b by",
            "in and",
            "t o",
            "er nes",
            "ren at",
            "jam in",
            "ka t",
            "n and",
            "c io",
            "pre cio",
            "e j",
            "bo y",
            "e un",
            "ar th",
            "fer son",
            "on ica",
            "t ris",
            "ch a",
            "f y",
            "ar t",
            "ro gel",
            "e tte",
            "z ena",
            "ab ig",
            "d ie",
            "j b",
            "ma u",
            "il yn",
            "f o",
            "w ren",
            "ann ab",
            "ol fo",
            "la wren",
            "k c",
            "j r",
            "v y",
            "c on",
            "s sa",
            "y ssa",
            "ch lo",
            "lo ren",
            "g en",
            "dy s",
            "p er",
            "r ia",
            "e f",
            "n in",
            "d en",
            "u l",
            "k ur",
            "em y",
            "j j",
            "b h",
            "e w",
            "t th",
            "ma tth",
            "f el",
            "t ch",
            "g ardo",
            "d ia",
            "k o",
            "l is",
            "el ito",
            "p ia",
            "o y",
            "ma i",
            "le i",
            "f ay",
            "m un",
            "s el",
            "ray mun",
            "rh o",
            "b ev",
            "er ly",
            "i th",
            "s ie",
            "l iz",
            "an z",
            "p j",
            "m c",
            "a th",
            "l lo",
            "y d",
            "el vi",
            "l j",
            "r iz",
            "z a",
            "tr ix",
            "g ir",
            "e g",
            "ab eg",
            "d red",
            "em i",
            "i tha",
            "vin a",
            "j ed",
            "t rist",
            "z l",
            "w ar",
            "jay pe",
            "bo ye",
            "m ha",
            "gil io",
            "l al",
            "g h",
            "je m",
            "y an",
            "ic t",
            "ed ict",
            "ich o",
            "h er",
            "y en",
            "s un",
            "ve y",
            "c el",
            "z en",
            "es ka",
            "d iv",
            "a u",
            "b rey",
            "je t",
            "g em",
            "re a",
            "mil ag",
            "n er",
            "z ald",
            "jay ve",
            "j v",
            "w el",
            "ch or",
            "m uel",
            "del iza",
            "y am",
            "v im",
            "luz vim",
            "n ol",
            "p ar",
            "m ed",
            "re med",
            "io s",
            "c l",
            "aren ce",
            "k it",
            "f ie",
            "h yn",
            "n on",
            "l ig",
            "ay a",
            "v on",
            "te t",
            "b u",
            "r c",
            "w hen",
            "ed z",
            "d im",
            "em z",
            "on ila",
            "ar ni",
            "is se",
            "g re",
            "tch en",
            "h im",
            "yn a",
            "c quel",
            "mar ich",
            "d eth",
            "p oy",
            "g y",
            "a c",
            "i on",
            "v ac",
            "an j",
            "sal vac",
            "e mel",
            "em s",
            "f a",
            "n im",
            "k ko",
            "r es",
            "s ol",
            "t y",
            "ra sol",
            "jh e",
            "m ie",
            "d in",
            "b he",
            "th ir",
            "i y",
            "iy a",
            "ce e",
            "b r",
            "i er",
            "ol y",
            "h al",
            "an al",
            "c z",
            "ar ina",
            "re ig",
            "o j",
            "y oj",
            "ed s",
            "an i",
            "is ag",
            "d or",
            "n yl",
            "r it",
            "n it"
        ]
    }
}