{
  "version": "1.0",
  "truncation": null,
  "padding": null,
  "added_tokens": [
    {
      "id": 0,
      "content": "[UNK]",
      "single_word": false,
      "lstrip": false,
      "rstrip": false,
      "normalized": false,
      "special": true
    },
    {
      "id": 1,
      "content": "[CLS]",
      "single_word": false,
      "lstrip": false,
      "rstrip": false,
      "normalized": false,
      "special": true
    },
    {
      "id": 2,
      "content": "[SEP]",
      "single_word": false,
      "lstrip": false,
      "rstrip": false,
      "normalized": false,
      "special": true
    },
    {
      "id": 3,
      "content": "[PAD]",
      "single_word": false,
      "lstrip": false,
      "rstrip": false,
      "normalized": false,
      "special": true
    },
    {
      "id": 4,
      "content": "[MASK]",
      "single_word": false,
      "lstrip": false,
      "rstrip": false,
      "normalized": false,
      "special": true
    }
  ],
  "normalizer": null,
  "pre_tokenizer": {
    "type": "Whitespace"
  },
  "post_processor": null,
  "decoder": null,
  "model": {
    "type": "BPE",
    "dropout": null,
    "unk_token": "[UNK]",
    "continuing_subword_prefix": null,
    "end_of_word_suffix": null,
    "fuse_unk": false,
    "vocab": {
      "[UNK]": 0,
      "[CLS]": 1,
      "[SEP]": 2,
      "[PAD]": 3,
      "[MASK]": 4,
      "-": 5,
      "a": 6,
      "b": 7,
      "c": 8,
      "d": 9,
      "e": 10,
      "f": 11,
      "g": 12,
      "h": 13,
      "i": 14,
      "j": 15,
      "k": 16,
      "l": 17,
      "m": 18,
      "n": 19,
      "o": 20,
      "p": 21,
      "r": 22,
      "s": 23,
      "t": 24,
      "u": 25,
      "v": 26,
      "w": 27,
      "x": 28,
      "y": 29,
      "an": 30,
      "ar": 31,
      "na": 32,
      "mi": 33,
      "ka": 34,
      "ja": 35,
      "ri": 36,
      "ti": 37,
      "li": 38,
      "ari": 39,
      "ni": 40,
      "sa": 41,
      "jo": 42,
      "la": 43,
      "ju": 44,
      "si": 45,
      "ma": 46,
      "ko": 47,
      "le": 48,
      "er": 49,
      "anna": 50,
      "vi": 51,
      "tu": 52,
      "mar": 53,
      "ta": 54,
      "ne": 55,
      "he": 56,
      "kka": 57,
      "to": 58,
      "ra": 59,
      "ina": 60,
      "mo": 61,
      "ki": 62,
      "pa": 63,
      "anne": 64,
      "pe": 65,
      "tti": 66,
      "kko": 67,
      "ija": 68,
      "te": 69,
      "mari": 70,
      "pi": 71,
      "nna": 72,
      "juh": 73,
      "us": 74,
      "je": 75,
      "eli": 76,
      "ani": 77,
      "hanna": 78,
      "se": 79,
      "tta": 80,
      "mu": 81,
      "lle": 82,
      "ssi": 83,
      "hei": 84,
      "no": 85,
      "mika": 86,
      "ve": 87,
      "el": 88,
      "pet": 89,
      "isa": 90,
      "lau": 91,
      "ku": 92,
      "juha": 93,
      "mikko": 94,
      "va": 95,
      "ia": 96,
      "ee": 97,
      "ris": 98,
      "mark": 99,
      "tiina": 100,
      "kari": 101,
      "kat": 102,
      "anni": 103,
      "ona": 104,
      "ro": 105,
      "antti": 106,
      "lla": 107,
      "ana": 108,
      "ville": 109,
      "jani": 110,
      "pekka": 111,
      "ter": 112,
      "jar": 113,
      "janne": 114,
      "timo": 115,
      "lee": 116,
      "minna": 117,
      "rii": 118,
      "jari": 119,
      "nni": 120,
      "ivi": 121,
      "matti": 122,
      "sami": 123,
      "sari": 124,
      "ula": 125,
      "arja": 126,
      "kki": 127,
      "jukka": 128,
      "as": 129,
      "marja": 130,
      "uli": 131,
      "joona": 132,
      "sanna": 133,
      "johanna": 134,
      "da": 135,
      "paivi": 136,
      "ale": 137,
      "leena": 138,
      "pir": 139,
      "kir": 140,
      "di": 141,
      "teri": 142,
      "il": 143,
      "marko": 144,
      "mmi": 145,
      "tuo": 146,
      "tee": 147,
      "laura": 148,
      "hen": 149,
      "teemu": 150,
      "po": 151,
      "han": 152,
      "heidi": 153,
      "ei": 154,
      "sir": 155,
      "lia": 156,
      "ttu": 157,
      "mer": 158,
      "petri": 159,
      "so": 160,
      "liisa": 161,
      "nu": 162,
      "jaana": 163,
      "maria": 164,
      "jenni": 165,
      "mas": 166,
      "satu": 167,
      "elina": 168,
      "jussi": 169,
      "kirsi": 170,
      "toni": 171,
      "lli": 172,
      "su": 173,
      "niko": 174,
      "kris": 175,
      "kim": 176,
      "alek": 177,
      "sse": 178,
      "jou": 179,
      "tarja": 180,
      "anja": 181,
      "henri": 182,
      "nja": 183,
      "ha": 184,
      "sus": 185,
      "mma": 186,
      "markus": 187,
      "anu": 188,
      "joni": 189,
      "katja": 190,
      "har": 191,
      "markku": 192,
      "me": 193,
      "ara": 194,
      "riitta": 195,
      "tomi": 196,
      "san": 197,
      "tuomas": 198,
      "joonas": 199,
      "aleksi": 200,
      "hannu": 201,
      "heikki": 202,
      "pirjo": 203,
      "juho": 204,
      "tero": 205,
      "tuula": 206,
      "pasi": 207,
      "ai": 208,
      "mir": 209,
      "lena": 210,
      "samu": 211,
      "eija": 212,
      "tommi": 213,
      "harri": 214,
      "olli": 215,
      "lauri": 216,
      "per": 217,
      "nina": 218,
      "maija": 219,
      "susanna": 220,
      "merja": 221,
      "ir": 222,
      "heli": 223,
      "sirpa": 224,
      "akko": 225,
      "jaakko": 226,
      "ppo": 227,
      "niina": 228,
      "emi": 229,
      "jer": 230,
      "ii": 231,
      "hanne": 232,
      "kaisa": 233,
      "sini": 234,
      "kati": 235,
      "os": 236,
      "kimmo": 237,
      "mii": 238,
      "riikka": 239,
      "henna": 240,
      "paula": 241,
      "noo": 242,
      "tanja": 243,
      "roo": 244,
      "jesse": 245,
      "jenna": 246,
      "jouni": 247,
      "suvi": 248,
      "vesa": 249,
      "ilkka": 250,
      "rai": 251,
      "ulla": 252,
      "katri": 253,
      "jarmo": 254,
      "esa": 255,
      "milla": 256,
      "seppo": 257,
      "noora": 258,
      "jere": 259,
      "jonna": 260,
      "jarkko": 261,
      "pia": 262,
      "helena": 263,
      "eeva": 264,
      "maari": 265,
      "jan": 266,
      "veli": 267,
      "pauli": 268,
      "marika": 269,
      "jy": 270,
      "kalle": 271,
      "juus": 272,
      "juuso": 273,
      "eetu": 274,
      "arto": 275,
      "maarit": 276,
      "marjo": 277,
      "hi": 278,
      "mati": 279,
      "tuija": 280,
      "tva": 281,
      "ritva": 282,
      "emilia": 283,
      "vir": 284,
      "md": 285,
      "tiia": 286,
      "risto": 287,
      "miia": 288,
      "vo": 289,
      "ca": 290,
      "med": 291,
      "julia": 292,
      "seija": 293,
      "annika": 294,
      "eijo": 295,
      "arttu": 296,
      "mikael": 297,
      "emma": 298,
      "lin": 299,
      "tian": 300,
      "eer": 301,
      "eero": 302,
      "sara": 303,
      "tte": 304,
      "era": 305,
      "aro": 306,
      "riku": 307,
      "raija": 308,
      "matias": 309,
      "lt": 310,
      "ltteri": 311,
      "ali": 312,
      "jor": 313,
      "kai": 314,
      "rik": 315,
      "lja": 316,
      "in": 317,
      "hamma": 318,
      "hammad": 319,
      "ila": 320,
      "ny": 321,
      "min": 322,
      "pirkko": 323,
      "ke": 324,
      "ou": 325,
      "outi": 326,
      "lo": 327,
      "tar": 328,
      "jorma": 329,
      "santeri": 330,
      "emmi": 331,
      "aki": 332,
      "mira": 333,
      "veera": 334,
      "miika": 335,
      "jarno": 336,
      "saara": 337,
      "kla": 338,
      "valtteri": 339,
      "ry": 340,
      "tapi": 341,
      "tapio": 342,
      "samuli": 343,
      "terhi": 344,
      "mervi": 345,
      "simo": 346,
      "sonja": 347,
      "juhani": 348,
      "and": 349,
      "sti": 350,
      "virpi": 351,
      "vei": 352,
      "pertti": 353,
      "lotta": 354,
      "mia": 355,
      "re": 356,
      "taina": 357,
      "piia": 358,
      "tuomo": 359,
      "essi": 360,
      "aino": 361,
      "erkki": 362,
      "katari": 363,
      "sh": 364,
      "klas": 365,
      "mirja": 366,
      "jas": 367,
      "petteri": 368,
      "salla": 369,
      "ot": 370,
      "iri": 371,
      "sko": 372,
      "kristiina": 373,
      "rki": 374,
      "jyrki": 375,
      "fia": 376,
      "sofia": 377,
      "linda": 378,
      "teija": 379,
      "aa": 380,
      "oskari": 381,
      "alex": 382,
      "tuuli": 383,
      "ella": 384,
      "niklas": 385,
      "ida": 386,
      "roosa": 387,
      "hannele": 388,
      "ul": 389,
      "taru": 390,
      "petra": 391,
      "anneli": 392,
      "elisa": 393,
      "jouko": 394,
      "nea": 395,
      "lasse": 396,
      "pauliina": 397,
      "iida": 398,
      "roope": 399,
      "muhammad": 400,
      "katariina": 401,
      "ntti": 402,
      "topi": 403,
      "joel": 404,
      "dani": 405,
      "marianne": 406,
      "anssi": 407,
      "pentti": 408,
      "liina": 409,
      "moha": 410,
      "vil": 411,
      "raimo": 412,
      "otto": 413,
      "ho": 414,
      "eveli": 415,
      "eveliina": 416,
      "ah": 417,
      "reijo": 418,
      "ch": 419,
      "krista": 420,
      "sanni": 421,
      "sirkka": 422,
      "riina": 423,
      "martti": 424,
      "anniina": 425,
      "sinikka": 426,
      "meli": 427,
      "atte": 428,
      "mus": 429,
      "nne": 430,
      "meri": 431,
      "karo": 432,
      "karoliina": 433,
      "sam": 434,
      "ree": 435,
      "kaija": 436,
      "pat": 437,
      "is": 438,
      "oona": 439,
      "daniel": 440,
      "esko": 441,
      "rika": 442,
      "jen": 443,
      "kirsti": 444,
      "chris": 445,
      "hannes": 446,
      "elias": 447,
      "tom": 448,
      "ire": 449,
      "ton": 450,
      "rob": 451,
      "mai": 452,
      "marita": 453,
      "miikka": 454,
      "eila": 455,
      "uno": 456,
      "anita": 457,
      "leevi": 458,
      "tuu": 459,
      "leila": 460,
      "marju": 461,
      "sakari": 462,
      "iina": 463,
      "kas": 464,
      "saija": 465,
      "avo": 466,
      "paavo": 467,
      "sta": 468,
      "smus": 469,
      "rasmus": 470,
      "man": 471,
      "tap": 472,
      "tina": 473,
      "jyri": 474,
      "soi": 475,
      "gi": 476,
      "jasmin": 477,
      "vilma": 478,
      "veikko": 479,
      "anton": 480,
      "tuukka": 481,
      "erja": 482,
      "jenny": 483,
      "kristian": 484,
      "nic": 485,
      "tapani": 486,
      "saku": 487,
      "ga": 488,
      "miro": 489,
      "mmed": 490,
      "ossi": 491,
      "lassi": 492,
      "rami": 493,
      "sand": 494,
      "keijo": 495,
      "maiju": 496,
      "jonne": 497,
      "fan": 498,
      "viivi": 499,
      "reetta": 500,
      "terttu": 501,
      "aila": 502,
      "marjut": 503,
      "tatu": 504,
      "hel": 505,
      "pinja": 506,
      "lea": 507,
      "cari": 508,
      "patrik": 509,
      "marjaleena": 510,
      "henrik": 511,
      "auli": 512,
      "roni": 513,
      "marjatta": 514,
      "ab": 515,
      "abd": 516,
      "hilkka": 517,
      "janina": 518,
      "ette": 519,
      "johannes": 520,
      "peter": 521,
      "eemeli": 522,
      "raili": 523,
      "ander": 524,
      "heini": 525,
      "inka": 526,
      "ji": 527,
      "ismo": 528,
      "jona": 529,
      "ver": 530,
      "annu": 531,
      "tan": 532,
      "samuel": 533,
      "erika": 534,
      "aaro": 535,
      "jessi": 536,
      "jessica": 537,
      "eti": 538,
      "leo": 539,
      "veeti": 540,
      "camilla": 541,
      "rei": 542,
      "oli": 543,
      "nsta": 544,
      "konsta": 545,
      "henry": 546,
      "irina": 547,
      "marjaliisa": 548,
      "johan": 549,
      "irma": 550,
      "iiro": 551,
      "nla": 552,
      "venla": 553,
      "elli": 554,
      "hmd": 555,
      "tony": 556,
      "uri": 557,
      "mauri": 558,
      "mohammed": 559,
      "ahmed": 560,
      "bas": 561,
      "vili": 562,
      "sebas": 563,
      "mirva": 564,
      "sebastian": 565,
      "ak": 566,
      "jutta": 567,
      "kar": 568,
      "rita": 569,
      "carita": 570,
      "nico": 571,
      "bir": 572,
      "birgi": 573,
      "ilona": 574,
      "abdul": 575,
      "kaari": 576,
      "kaarina": 577,
      "siiri": 578,
      "mat": 579,
      "elena": 580,
      "juuli": 581,
      "erik": 582,
      "mirka": 583,
      "soile": 584,
      "saana": 585,
      "santtu": 586,
      "aapo": 587,
      "lius": 588,
      "julius": 589,
      "asko": 590,
      "ert": 591,
      "janika": 592,
      "robert": 593,
      "sauli": 594,
      "lga": 595,
      "olga": 596,
      "silja": 597,
      "onni": 598,
      "katriina": 599,
      "mohamed": 600,
      "rauno": 601,
      "aman": 602,
      "amanda": 603,
      "ronja": 604,
      "emil": 605,
      "kale": 606,
      "perttu": 607,
      "moni": 608,
      "be": 609,
      "aku": 610,
      "mohammad": 611,
      "seli": 612,
      "marina": 613,
      "akseli": 614,
      "jami": 615,
      "jimi": 616,
      "milja": 617,
      "max": 618,
      "aar": 619,
      "nelli": 620,
      "velimatti": 621,
      "ilari": 622,
      "ska": 623,
      "mil": 624,
      "miska": 625,
      "teppo": 626,
      "tho": 627,
      "helmi": 628,
      "thomas": 629,
      "sandra": 630,
      "kku": 631,
      "marjaana": 632,
      "kaisu": 633,
      "panu": 634,
      "christian": 635,
      "okko": 636,
      "antero": 637,
      "annukka": 638,
      "mic": 639,
      "janita": 640,
      "minttu": 641,
      "pu": 642,
      "ran": 643,
      "ola": 644,
      "olavi": 645,
      "nata": 646,
      "natalia": 647,
      "ker": 648,
      "ela": 649,
      "sampo": 650,
      "iiris": 651,
      "jonas": 652,
      "annemari": 653,
      "ira": 654,
      "tea": 655,
      "alina": 656,
      "eva": 657,
      "kke": 658,
      "birgitta": 659,
      "py": 660,
      "pyry": 661,
      "taija": 662,
      "ty": 663,
      "tytti": 664,
      "susanne": 665,
      "vilja": 666,
      "rosa": 667,
      "asta": 668,
      "niil": 669,
      "kalevi": 670,
      "niilo": 671,
      "eeli": 672,
      "nora": 673,
      "robin": 674,
      "kasper": 675,
      "uko": 676,
      "uvo": 677,
      "ilpo": 678,
      "juhamatti": 679,
      "taneli": 680,
      "ky": 681,
      "uokko": 682,
      "vuokko": 683,
      "marke": 684,
      "virve": 685,
      "aatu": 686,
      "kristina": 687,
      "irene": 688,
      "topias": 689,
      "juhapekka": 690,
      "uni": 691,
      "tarmo": 692,
      "veijo": 693,
      "al": 694,
      "miko": 695,
      "tino": 696,
      "juulia": 697,
      "oliver": 698,
      "sirkku": 699,
      "saila": 700,
      "psa": 701,
      "annamaija": 702,
      "mhmd": 703,
      "ias": 704,
      "sisko": 705,
      "alexander": 706,
      "airi": 707,
      "hn": 708,
      "john": 709,
      "janette": 710,
      "annaliisa": 711,
      "lari": 712,
      "mona": 713,
      "enni": 714,
      "eemil": 715,
      "osmo": 716,
      "kaj": 717,
      "irja": 718,
      "lu": 719,
      "et": 720,
      "anette": 721,
      "eino": 722,
      "maritta": 723,
      "teuvo": 724,
      "annamari": 725,
      "irmeli": 726,
      "tomas": 727,
      "netta": 728,
      "kerttu": 729,
      "titta": 730,
      "jay": 731,
      "un": 732,
      "karri": 733,
      "monica": 734,
      "fa": 735,
      "armi": 736,
      "tin": 737,
      "martin": 738,
      "pete": 739,
      "njamin": 740,
      "benjamin": 741,
      "aija": 742,
      "oi": 743,
      "anders": 744,
      "ollipekka": 745,
      "marketta": 746,
      "miina": 747,
      "paul": 748,
      "ste": 749,
      "andre": 750,
      "stefan": 751,
      "andreas": 752,
      "jukkapekka": 753,
      "mee": 754,
      "toi": 755,
      "tuulikki": 756,
      "meeri": 757,
      "reija": 758,
      "jose": 759,
      "tus": 760,
      "tia": 761,
      "jori": 762,
      "viljami": 763,
      "th": 764,
      "lana": 765,
      "sve": 766,
      "tlana": 767,
      "svetlana": 768,
      "heta": 769,
      "marjukka": 770,
      "seve": 771,
      "isto": 772,
      "severi": 773,
      "akim": 774,
      "joakim": 775,
      "erno": 776,
      "mina": 777,
      "jemina": 778,
      "my": 779,
      "hael": 780,
      "tommy": 781,
      "michael": 782,
      "kauko": 783,
      "cus": 784,
      "marcus": 785,
      "kiia": 786,
      "tuulia": 787,
      "soili": 788,
      "andra": 789,
      "alexandra": 790,
      "ino": 791,
      "peri": 792,
      "vaino": 793,
      "kasperi": 794,
      "annakaisa": 795,
      "alisa": 796,
      "kimi": 797,
      "kia": 798,
      "maire": 799,
      "velipekka": 800,
      "rvo": 801,
      "tuire": 802,
      "inke": 803,
      "inkeri": 804,
      "manu": 805,
      "ppu": 806,
      "ilmari": 807,
      "mad": 808,
      "raja": 809,
      "ahmad": 810,
      "janna": 811,
      "lda": 812,
      "raju": 813,
      "jerry": 814,
      "matilda": 815,
      "kesh": 816,
      "fanny": 817,
      "osti": 818,
      "kyosti": 819,
      "marianna": 820,
      "hannamari": 821,
      "henriikka": 822,
      "lik": 823,
      "malik": 824,
      "drik": 825,
      "ea": 826,
      "fre": 827,
      "neea": 828,
      "mikaela": 829,
      "oskar": 830,
      "eevaliisa": 831,
      "fredrik": 832,
      "elsa": 833,
      "annina": 834,
      "joonatan": 835,
      "ner": 836,
      "juhana": 837,
      "car": 838,
      "ijo": 839,
      "teijo": 840,
      "oscar": 841,
      "linnea": 842,
      "reino": 843,
      "via": 844,
      "margi": 845,
      "tor": 846,
      "raje": 847,
      "olivia": 848,
      "margit": 849,
      "rajesh": 850,
      "ninni": 851,
      "elmeri": 852,
      "joanna": 853,
      "amir": 854,
      "nari": 855,
      "khan": 856,
      "kenne": 857,
      "kenneth": 858,
      "aripekka": 859,
      "senja": 860,
      "im": 861,
      "aimo": 862,
      "imran": 863,
      "ram": 864,
      "eelis": 865,
      "ck": 866,
      "vera": 867,
      "rick": 868,
      "simon": 869,
      "patrick": 870,
      "rauni": 871,
      "aada": 872,
      "go": 873,
      "timi": 874,
      "ahti": 875,
      "than": 876,
      "vid": 877,
      "david": 878,
      "jonathan": 879,
      "wil": 880,
      "harry": 881,
      "wilma": 882,
      "maisa": 883,
      "sper": 884,
      "annamaria": 885,
      "raisa": 886,
      "jesper": 887,
      "eerika": 888,
      "rame": 889,
      "christina": 890,
      "ramesh": 891,
      "klaus": 892,
      "otso": 893,
      "siru": 894,
      "mats": 895,
      "aarne": 896,
      "jus": 897,
      "karita": 898,
      "oili": 899,
      "toivo": 900,
      "altteri": 901,
      "ff": 902,
      "waltteri": 903,
      "jatta": 904,
      "anitta": 905,
      "ffer": 906,
      "janni": 907,
      "eve": 908,
      "reeta": 909,
      "var": 910,
      "ur": 911,
      "rainer": 912,
      "sampsa": 913,
      "rjo": 914,
      "yrjo": 915,
      "laila": 916,
      "lilli": 917,
      "ada": 918,
      "her": 919,
      "eira": 920,
      "katarina": 921,
      "janica": 922,
      "aira": 923,
      "hias": 924,
      "ktor": 925,
      "vin": 926,
      "viktor": 927,
      "kevin": 928,
      "mathias": 929,
      "ritta": 930,
      "nil": 931,
      "raj": 932,
      "piritta": 933,
      "sure": 934,
      "sunil": 935,
      "andrei": 936,
      "veikka": 937,
      "suresh": 938,
      "tauno": 939,
      "jasper": 940,
      "ax": 941,
      "erkka": 942,
      "axel": 943,
      "taisto": 944,
      "annikki": 945,
      "has": 946,
      "hassan": 947,
      "mauno": 948,
      "henni": 949,
      "ant": 950,
      "malin": 951,
      "sku": 952,
      "moona": 953,
      "sirkkaliisa": 954,
      "karin": 955,
      "daniela": 956,
      "caro": 957,
      "carola": 958,
      "niki": 959,
      "anil": 960,
      "diana": 961,
      "hans": 962,
      "lvi": 963,
      "oj": 964,
      "pilvi": 965,
      "manoj": 966,
      "ce": 967,
      "ci": 968,
      "muha": 969,
      "ceci": 970,
      "muhammed": 971,
      "cecilia": 972,
      "etu": 973,
      "omar": 974,
      "susan": 975,
      "monika": 976,
      "senni": 977,
      "ullamaija": 978,
      "gei": 979,
      "ser": 980,
      "miisa": 981,
      "reima": 982,
      "sergei": 983,
      "elle": 984,
      "hd": 985,
      "ppa": 986,
      "mohd": 987,
      "artturi": 988,
      "alpo": 989,
      "ellen": 990,
      "terho": 991,
      "ikka": 992,
      "jp": 993,
      "sanja": 994,
      "tafa": 995,
      "maijaliisa": 996,
      "mustafa": 997,
      "nariikka": 998,
      "sanjay": 999,
      "nella": 1000,
      "hla": 1001,
      "utti": 1002,
      "pihla": 1003,
      "nuutti": 1004,
      "stina": 1005,
      "aaron": 1006,
      "if": 1007,
      "leif": 1008,
      "martta": 1009,
      "ravi": 1010,
      "teresa": 1011,
      "au": 1012,
      "iris": 1013,
      "bra": 1014,
      "ibra": 1015,
      "lme": 1016,
      "salme": 1017,
      "helina": 1018,
      "him": 1019,
      "justus": 1020,
      "ibrahim": 1021,
      "asi": 1022,
      "vijay": 1023,
      "asif": 1024,
      "tai": 1025,
      "bias": 1026,
      "rana": 1027,
      "neri": 1028,
      "tobias": 1029,
      "hilla": 1030,
      "rene": 1031,
      "jens": 1032,
      "verneri": 1033,
      "ssa": 1034,
      "ten": 1035,
      "tessa": 1036,
      "eevi": 1037,
      "dja": 1038,
      "nadja": 1039,
      "mila": 1040,
      "minja": 1041,
      "visa": 1042,
      "tosh": 1043,
      "pipsa": 1044,
      "eerik": 1045,
      "santosh": 1046,
      "noor": 1047,
      "annaleena": 1048,
      "gn": 1049,
      "sia": 1050,
      "magn": 1051,
      "pirita": 1052,
      "anasta": 1053,
      "magnus": 1054,
      "anastasia": 1055,
      "lar": 1056,
      "kaar": 1057,
      "tiana": 1058,
      "tatiana": 1059,
      "hannaleena": 1060,
      "lars": 1061,
      "ajay": 1062,
      "kumar": 1063,
      "carina": 1064,
      "ppi": 1065,
      "peppi": 1066,
      "char": 1067,
      "jiri": 1068,
      "nita": 1069,
      "charlotta": 1070,
      "stiina": 1071,
      "aleksand": 1072,
      "aleksandr": 1073,
      "helja": 1074,
      "elise": 1075,
      "christer": 1076,
      "eep": 1077,
      "osku": 1078,
      "sandeep": 1079,
      "fanni": 1080,
      "rakesh": 1081,
      "asho": 1082,
      "ullah": 1083,
      "inga": 1084,
      "abdullah": 1085,
      "ashok": 1086,
      "aret": 1087,
      "maaret": 1088,
      "sannamari": 1089,
      "jaska": 1090,
      "aulis": 1091,
      "avi": 1092,
      "bila": 1093,
      "guni": 1094,
      "hul": 1095,
      "taavi": 1096,
      "rahul": 1097,
      "llevi": 1098,
      "sarita": 1099,
      "aulikki": 1100,
      "bilal": 1101,
      "gunilla": 1102,
      "sha": 1103,
      "arun": 1104,
      "riia": 1105,
      "las": 1106,
      "isal": 1107,
      "sonu": 1108,
      "emias": 1109,
      "jeremias": 1110,
      "iikka": 1111,
      "hid": 1112,
      "niclas": 1113,
      "faisal": 1114,
      "shahid": 1115,
      "melina": 1116,
      "eliisa": 1117,
      "jana": 1118,
      "tjana": 1119,
      "tatjana": 1120,
      "rauli": 1121,
      "eini": 1122,
      "birgit": 1123,
      "varpu": 1124,
      "bw": 1125,
      "ansku": 1126,
      "vino": 1127,
      "vinod": 1128,
      "aliisa": 1129,
      "malla": 1130,
      "ristoffer": 1131,
      "christoffer": 1132,
      "irfan": 1133,
      "raine": 1134,
      "kha": 1135,
      "kama": 1136,
      "lid": 1137,
      "mirjami": 1138,
      "khalid": 1139,
      "kamal": 1140,
      "krister": 1141,
      "matleena": 1142,
      "apo": 1143,
      "kaapo": 1144,
      "virva": 1145,
      "vilho": 1146,
      "samppa": 1147,
      "nanna": 1148,
      "ukas": 1149,
      "luukas": 1150,
      "tinja": 1151,
      "henkka": 1152,
      "ad": 1153,
      "nan": 1154,
      "mimmi": 1155,
      "usman": 1156,
      "mirkka": 1157,
      "adnan": 1158,
      "eka": 1159,
      "nesh": 1160,
      "dinesh": 1161,
      "terina": 1162,
      "ekaterina": 1163,
      "bjor": 1164,
      "igo": 1165,
      "hannakaisa": 1166,
      "jasmiina": 1167,
      "bjorn": 1168,
      "igor": 1169,
      "asa": 1170,
      "lilja": 1171,
      "llikki": 1172,
      "milka": 1173,
      "kyllikki": 1174,
      "make": 1175,
      "peetu": 1176,
      "heimo": 1177,
      "aune": 1178,
      "ed": 1179,
      "sy": 1180,
      "kata": 1181,
      "kirsimarja": 1182,
      "syed": 1183,
      "cas": 1184,
      "arvo": 1185,
      "elmo": 1186,
      "mirella": 1187,
      "casper": 1188,
      "fiina": 1189,
      "nikke": 1190,
      "mahe": 1191,
      "jaripekka": 1192,
      "aleksandra": 1193,
      "josefiina": 1194,
      "urpo": 1195,
      "mahesh": 1196,
      "galina": 1197,
      "sei": 1198,
      "aleksei": 1199,
      "fran": 1200,
      "sasu": 1201,
      "janerik": 1202,
      "stin": 1203,
      "kerstin": 1204,
      "frans": 1205,
      "mei": 1206,
      "meiju": 1207,
      "vertti": 1208,
      "unto": 1209,
      "joku": 1210,
      "helka": 1211,
      "antton": 1212,
      "mukesh": 1213,
      "mirjam": 1214,
      "kaarlo": 1215,
      "christa": 1216,
      "rebe": 1217,
      "rebekka": 1218,
      "saga": 1219,
      "saji": 1220,
      "touko": 1221,
      "sajid": 1222,
      "tii": 1223,
      "elin": 1224,
      "raila": 1225,
      "lmari": 1226,
      "jalmari": 1227,
      "juri": 1228,
      "aarni": 1229,
      "eppu": 1230,
      "rea": 1231,
      "lf": 1232,
      "rolf": 1233,
      "oiva": 1234,
      "fi": 1235,
      "kakka": 1236,
      "lip": 1237,
      "lenni": 1238,
      "mette": 1239,
      "filip": 1240,
      "manni": 1241,
      "arju": 1242,
      "kalervo": 1243,
      "hermanni": 1244,
      "arjun": 1245,
      "turo": 1246,
      "jelena": 1247,
      "linus": 1248,
      "de": 1249,
      "ille": 1250,
      "wille": 1251,
      "sakke": 1252,
      "sade": 1253,
      "piet": 1254,
      "sarianna": 1255,
      "tuovi": 1256,
      "maikki": 1257,
      "pietari": 1258,
      "rus": 1259,
      "minni": 1260,
      "kosti": 1261,
      "kiira": 1262,
      "petrus": 1263,
      "goran": 1264,
      "nmari": 1265,
      "annmari": 1266,
      "leea": 1267,
      "ulrika": 1268,
      "helvi": 1269,
      "viljo": 1270,
      "jannika": 1271,
      "tove": 1272,
      "harriet": 1273,
      "maaria": 1274,
      "salli": 1275,
      "jonni": 1276,
      "telle": 1277,
      "elsi": 1278,
      "vappu": 1279,
      "aarno": 1280,
      "paulus": 1281,
      "tellervo": 1282,
      "mico": 1283,
      "toini": 1284,
      "tenho": 1285,
      "riittaliisa": 1286,
      "ellinoora": 1287,
      "mikke": 1288,
      "nes": 1289,
      "kje": 1290,
      "ll": 1291,
      "villeveikko": 1292,
      "kjell": 1293,
      "iisa": 1294,
      "annastiina": 1295,
      "annemaria": 1296,
      "pena": 1297,
      "aleksanteri": 1298,
      "ssu": 1299,
      "tuure": 1300,
      "urho": 1301,
      "vesamatti": 1302,
      "maila": 1303,
      "aili": 1304,
      "bar": 1305,
      "bro": 1306,
      "brita": 1307,
      "it": 1308,
      "isi": 1309,
      "liisi": 1310,
      "kikka": 1311,
      "marjaterttu": 1312,
      "voit": 1313,
      "ulf": 1314,
      "barbro": 1315,
      "voitto": 1316,
      "ose": 1317,
      "joose": 1318,
      "susa": 1319,
      "hvi": 1320,
      "siv": 1321,
      "teea": 1322,
      "sohvi": 1323,
      "aini": 1324,
      "merita": 1325,
      "jasu": 1326,
      "petja": 1327,
      "ilja": 1328,
      "sirja": 1329,
      "sallamari": 1330,
      "sulo": 1331,
      "allu": 1332,
      "ntus": 1333,
      "orvo": 1334,
      "pontus": 1335,
      "reko": 1336,
      "orvokki": 1337,
      "micke": 1338,
      "assi": 1339,
      "itta": 1340,
      "marjari": 1341,
      "paivikki": 1342,
      "hennariikka": 1343,
      "eine": 1344,
      "hillevi": 1345,
      "anttoni": 1346,
      "marjariitta": 1347,
      "ru": 1348,
      "ut": 1349,
      "nilla": 1350,
      "munna": 1351,
      "pernilla": 1352,
      "ruut": 1353,
      "anttijussi": 1354,
      "iita": 1355,
      "nicklas": 1356,
      "dra": 1357,
      "sla": 1358,
      "mimo": 1359,
      "hellevi": 1360,
      "kaisla": 1361,
      "stig": 1362,
      "jiten": 1363,
      "mimosa": 1364,
      "jitendra": 1365,
      "em": 1366,
      "toffer": 1367,
      "riika": 1368,
      "kristoffer": 1369,
      "minka": 1370,
      "vilhelmi": 1371,
      "emppu": 1372,
      "vilhelmiina": 1373,
      "gt": 1374,
      "lvei": 1375,
      "ngt": 1376,
      "ansa": 1377,
      "eemi": 1378,
      "solvei": 1379,
      "bengt": 1380,
      "solveig": 1381,
      "eki": 1382,
      "llu": 1383,
      "arsi": 1384,
      "arvi": 1385,
      "vellu": 1386,
      "sannakaisa": 1387,
      "ilmo": 1388,
      "vari": 1389,
      "sarianne": 1390,
      "iivari": 1391,
      "aarre": 1392,
      "ger": 1393,
      "hja": 1394,
      "rkka": 1395,
      "lahja": 1396,
      "turkka": 1397,
      "hannamaria": 1398,
      "ellu": 1399,
      "kukka": 1400,
      "einari": 1401,
      "soin": 1402,
      "miira": 1403,
      "marjoriitta": 1404,
      "inari": 1405,
      "inger": 1406,
      "alvar": 1407,
      "sointu": 1408,
      "mmo": 1409,
      "oula": 1410,
      "hemmo": 1411,
      "jussipekka": 1412,
      "gun": 1413,
      "jokke": 1414,
      "siina": 1415,
      "nooa": 1416,
      "idamaria": 1417,
      "taimi": 1418,
      "muth": 1419,
      "muthu": 1420,
      "anki": 1421,
      "marleena": 1422,
      "annasofia": 1423,
      "hely": 1424,
      "pekko": 1425,
      "annica": 1426,
      "jarna": 1427,
      "jenniina": 1428,
      "henrika": 1429,
      "taika": 1430,
      "tiitus": 1431,
      "auvo": 1432,
      "nenna": 1433,
      "villepekka": 1434,
      "altti": 1435,
      "minea": 1436,
      "kasi": 1437,
      "sinna": 1438,
      "peli": 1439,
      "pietu": 1440,
      "eevamaria": 1441,
      "aapeli": 1442,
      "merituuli": 1443,
      "kasimir": 1444,
      "tua": 1445,
      "maijaleena": 1446,
      "iitu": 1447,
      "jannica": 1448,
      "en": 1449,
      "sio": 1450,
      "karipekka": 1451,
      "sannamaria": 1452,
      "pirkkoliisa": 1453,
      "aksu": 1454,
      "ensio": 1455,
      "annariikka": 1456,
      "pirkka": 1457,
      "jennika": 1458,
      "tiiamaria": 1459,
      "tiiu": 1460,
      "ffan": 1461,
      "ukko": 1462,
      "viira": 1463,
      "pate": 1464,
      "elviira": 1465,
      "staffan": 1466,
      "torsti": 1467,
      "kiti": 1468,
      "maikku": 1469,
      "herkko": 1470,
      "at": 1471,
      "jakke": 1472,
      "roosamaria": 1473,
      "hertta": 1474,
      "atso": 1475,
      "oner": 1476,
      "jaani": 1477,
      "onerva": 1478,
      "jasse": 1479,
      "tintti": 1480,
      "tos": 1481,
      "vesku": 1482,
      "hannariikka": 1483,
      "kirsikka": 1484,
      "krisse": 1485,
      "raino": 1486,
      "aatos": 1487,
      "lissu": 1488,
      "tori": 1489,
      "eljas": 1490,
      "anttipekka": 1491,
      "iines": 1492,
      "kassu": 1493,
      "justiina": 1494,
      "taito": 1495,
      "kaarle": 1496,
      "nestori": 1497,
      "maj": 1498,
      "erkko": 1499,
      "annemaj": 1500,
      "aake": 1501,
      "kus": 1502,
      "ksu": 1503,
      "miksu": 1504,
      "mirkku": 1505,
      "eevamaija": 1506,
      "iidamaria": 1507,
      "aukus": 1508,
      "aukusti": 1509,
      "pirre": 1510,
      "kirsimaria": 1511,
      "tsu": 1512,
      "asmo": 1513,
      "kaitsu": 1514,
      "ulpu": 1515,
      "tomppa": 1516,
      "hessu": 1517,
      "raak": 1518,
      "villematti": 1519,
      "suvituuli": 1520,
      "kaius": 1521,
      "tapsa": 1522,
      "raakel": 1523
    },
    "merges": [
      "a n",
      "a r",
      "n a",
      "m i",
      "k a",
      "j a",
      "r i",
      "t i",
      "l i",
      "ar i",
      "n i",
      "s a",
      "j o",
      "l a",
      "j u",
      "s i",
      "m a",
      "k o",
      "l e",
      "e r",
      "an na",
      "v i",
      "t u",
      "m ar",
      "t a",
      "n e",
      "h e",
      "k ka",
      "t o",
      "r a",
      "i na",
      "m o",
      "k i",
      "p a",
      "an ne",
      "p e",
      "t ti",
      "k ko",
      "i ja",
      "t e",
      "m ari",
      "p i",
      "n na",
      "ju h",
      "u s",
      "j e",
      "e li",
      "an i",
      "h anna",
      "s e",
      "t ta",
      "m u",
      "l le",
      "s si",
      "he i",
      "n o",
      "mi ka",
      "v e",
      "e l",
      "pe t",
      "i sa",
      "la u",
      "k u",
      "juh a",
      "mi kko",
      "v a",
      "i a",
      "e e",
      "ri s",
      "mar k",
      "ti ina",
      "k ari",
      "ka t",
      "an ni",
      "o na",
      "r o",
      "an tti",
      "l la",
      "an a",
      "vi lle",
      "j ani",
      "pe kka",
      "t er",
      "j ar",
      "j anne",
      "ti mo",
      "le e",
      "mi nna",
      "ri i",
      "j ari",
      "n ni",
      "i vi",
      "ma tti",
      "sa mi",
      "s ari",
      "u la",
      "ar ja",
      "k ki",
      "ju kka",
      "a s",
      "mar ja",
      "u li",
      "jo ona",
      "s anna",
      "jo hanna",
      "d a",
      "pa ivi",
      "a le",
      "lee na",
      "pi r",
      "ki r",
      "d i",
      "te ri",
      "i l",
      "mar ko",
      "m mi",
      "tu o",
      "te e",
      "lau ra",
      "he n",
      "tee mu",
      "p o",
      "h an",
      "hei di",
      "e i",
      "si r",
      "li a",
      "t tu",
      "m er",
      "pet ri",
      "s o",
      "li isa",
      "n u",
      "ja ana",
      "mari a",
      "je nni",
      "ma s",
      "sa tu",
      "eli na",
      "ju ssi",
      "kir si",
      "to ni",
      "l li",
      "s u",
      "ni ko",
      "k ris",
      "ki m",
      "ale k",
      "s se",
      "jo u",
      "t arja",
      "an ja",
      "hen ri",
      "n ja",
      "h a",
      "s us",
      "m ma",
      "mark us",
      "an u",
      "jo ni",
      "kat ja",
      "h ar",
      "mark ku",
      "m e",
      "ar a",
      "rii tta",
      "to mi",
      "s an",
      "tuo mas",
      "joona s",
      "alek si",
      "han nu",
      "hei kki",
      "pir jo",
      "juh o",
      "ter o",
      "tu ula",
      "pa si",
      "a i",
      "mi r",
      "le na",
      "sa mu",
      "e ija",
      "to mmi",
      "har ri",
      "o lli",
      "lau ri",
      "p er",
      "ni na",
      "ma ija",
      "sus anna",
      "mer ja",
      "i r",
      "he li",
      "sir pa",
      "a kko",
      "ja akko",
      "p po",
      "ni ina",
      "e mi",
      "j er",
      "i i",
      "h anne",
      "ka isa",
      "si ni",
      "ka ti",
      "o s",
      "kim mo",
      "mi i",
      "rii kka",
      "he nna",
      "pa ula",
      "no o",
      "t anja",
      "ro o",
      "je sse",
      "je nna",
      "jou ni",
      "su vi",
      "ve sa",
      "il kka",
      "ra i",
      "u lla",
      "kat ri",
      "jar mo",
      "e sa",
      "mi lla",
      "se ppo",
      "noo ra",
      "jer e",
      "jo nna",
      "jar kko",
      "pi a",
      "he lena",
      "ee va",
      "ma ari",
      "j an",
      "v eli",
      "pa uli",
      "mari ka",
      "j y",
      "ka lle",
      "ju us",
      "juus o",
      "ee tu",
      "ar to",
      "maari t",
      "mar jo",
      "h i",
      "ma ti",
      "tu ija",
      "t va",
      "ri tva",
      "emi lia",
      "vi r",
      "m d",
      "ti ia",
      "ris to",
      "mi ia",
      "v o",
      "c a",
      "me d",
      "ju lia",
      "se ija",
      "anni ka",
      "ei jo",
      "ar ttu",
      "mika el",
      "e mma",
      "li n",
      "ti an",
      "e er",
      "eer o",
      "s ara",
      "t te",
      "er a",
      "ar o",
      "ri ku",
      "ra ija",
      "mati as",
      "l t",
      "lt teri",
      "a li",
      "jo r",
      "ka i",
      "ri k",
      "l ja",
      "i n",
      "ha mma",
      "hamma d",
      "i la",
      "n y",
      "mi n",
      "pir kko",
      "k e",
      "o u",
      "ou ti",
      "l o",
      "t ar",
      "jor ma",
      "san teri",
      "e mmi",
      "a ki",
      "mi ra",
      "ve era",
      "mii ka",
      "jar no",
      "sa ara",
      "k la",
      "va ltteri",
      "r y",
      "ta pi",
      "tapi o",
      "samu li",
      "ter hi",
      "mer vi",
      "si mo",
      "so nja",
      "juh ani",
      "an d",
      "s ti",
      "vir pi",
      "ve i",
      "per tti",
      "lo tta",
      "mi a",
      "r e",
      "ta ina",
      "pi ia",
      "tuo mo",
      "e ssi",
      "ai no",
      "er kki",
      "kat ari",
      "s h",
      "kla s",
      "mir ja",
      "ja s",
      "pet teri",
      "sa lla",
      "o t",
      "i ri",
      "s ko",
      "kris tiina",
      "r ki",
      "jy rki",
      "f ia",
      "so fia",
      "lin da",
      "te ija",
      "a a",
      "os kari",
      "ale x",
      "tu uli",
      "el la",
      "ni klas",
      "i da",
      "roo sa",
      "hanne le",
      "u l",
      "tar u",
      "pet ra",
      "anne li",
      "eli sa",
      "jou ko",
      "ne a",
      "la sse",
      "pauli ina",
      "ii da",
      "roo pe",
      "mu hammad",
      "katari ina",
      "n tti",
      "to pi",
      "jo el",
      "d ani",
      "mari anne",
      "an ssi",
      "pe ntti",
      "li ina",
      "mo ha",
      "vi l",
      "rai mo",
      "ot to",
      "h o",
      "e veli",
      "eveli ina",
      "a h",
      "r eijo",
      "c h",
      "kris ta",
      "s anni",
      "sir kka",
      "ri ina",
      "mar tti",
      "anni ina",
      "sini kka",
      "m eli",
      "a tte",
      "m us",
      "n ne",
      "me ri",
      "k aro",
      "karo liina",
      "sa m",
      "r ee",
      "ka ija",
      "pa t",
      "i s",
      "o ona",
      "dani el",
      "e sko",
      "ri ka",
      "je n",
      "kir sti",
      "ch ris",
      "hanne s",
      "eli as",
      "to m",
      "ir e",
      "to n",
      "ro b",
      "ma i",
      "mari ta",
      "mii kka",
      "ei la",
      "u no",
      "ani ta",
      "lee vi",
      "tu u",
      "le ila",
      "mar ju",
      "sa kari",
      "i ina",
      "ka s",
      "sa ija",
      "a vo",
      "pa avo",
      "s ta",
      "s mus",
      "ra smus",
      "m an",
      "ta p",
      "ti na",
      "jy ri",
      "so i",
      "g i",
      "jas min",
      "vil ma",
      "vei kko",
      "an ton",
      "tuu kka",
      "er ja",
      "jen ny",
      "kris tian",
      "ni c",
      "tap ani",
      "sa ku",
      "g a",
      "mi ro",
      "m med",
      "o ssi",
      "la ssi",
      "ra mi",
      "san d",
      "k eijo",
      "mai ju",
      "jo nne",
      "f an",
      "vi ivi",
      "ree tta",
      "ter ttu",
      "ai la",
      "marju t",
      "ta tu",
      "he l",
      "pi nja",
      "le a",
      "c ari",
      "pat rik",
      "marja leena",
      "henri k",
      "a uli",
      "ro ni",
      "marja tta",
      "a b",
      "ab d",
      "h ilkka",
      "jan ina",
      "e tte",
      "jo hannes",
      "pet er",
      "ee meli",
      "rai li",
      "and er",
      "hei ni",
      "in ka",
      "j i",
      "is mo",
      "jo na",
      "v er",
      "an nu",
      "t an",
      "samu el",
      "e rika",
      "a aro",
      "je ssi",
      "jessi ca",
      "e ti",
      "le o",
      "ve eti",
      "ca milla",
      "r ei",
      "o li",
      "n sta",
      "ko nsta",
      "hen ry",
      "iri na",
      "marja liisa",
      "jo han",
      "ir ma",
      "ii ro",
      "n la",
      "ve nla",
      "el li",
      "h md",
      "to ny",
      "u ri",
      "ma uri",
      "moha mmed",
      "ah med",
      "b as",
      "vi li",
      "se bas",
      "mir va",
      "sebas tian",
      "a k",
      "ju tta",
      "k ar",
      "ri ta",
      "cari ta",
      "nic o",
      "b ir",
      "bir gi",
      "il ona",
      "abd ul",
      "ka ari",
      "kaari na",
      "si iri",
      "ma t",
      "e lena",
      "ju uli",
      "e rik",
      "mir ka",
      "soi le",
      "sa ana",
      "san ttu",
      "aa po",
      "li us",
      "ju lius",
      "as ko",
      "er t",
      "jani ka",
      "rob ert",
      "sa uli",
      "l ga",
      "o lga",
      "si lja",
      "o nni",
      "katri ina",
      "moha med",
      "ra uno",
      "a man",
      "aman da",
      "ro nja",
      "emi l",
      "ka le",
      "per ttu",
      "mo ni",
      "b e",
      "a ku",
      "mo hammad",
      "s eli",
      "mari na",
      "ak seli",
      "ja mi",
      "ji mi",
      "mi lja",
      "ma x",
      "a ar",
      "ne lli",
      "veli matti",
      "il ari",
      "s ka",
      "mi l",
      "mi ska",
      "te ppo",
      "t ho",
      "hel mi",
      "tho mas",
      "sand ra",
      "k ku",
      "marja ana",
      "kai su",
      "p anu",
      "chris tian",
      "o kko",
      "an tero",
      "annu kka",
      "mi c",
      "jani ta",
      "min ttu",
      "p u",
      "r an",
      "o la",
      "ola vi",
      "na ta",
      "nata lia",
      "k er",
      "e la",
      "sam po",
      "ii ris",
      "jona s",
      "anne mari",
      "i ra",
      "te a",
      "ali na",
      "e va",
      "k ke",
      "birgi tta",
      "p y",
      "py ry",
      "ta ija",
      "t y",
      "ty tti",
      "sus anne",
      "vi lja",
      "ro sa",
      "as ta",
      "ni il",
      "kale vi",
      "niil o",
      "e eli",
      "no ra",
      "rob in",
      "kas per",
      "u ko",
      "u vo",
      "il po",
      "juha matti",
      "tan eli",
      "k y",
      "u okko",
      "v uokko",
      "mark e",
      "vir ve",
      "aa tu",
      "kris tina",
      "ire ne",
      "topi as",
      "juha pekka",
      "u ni",
      "tar mo",
      "vei jo",
      "a l",
      "mi ko",
      "ti no",
      "juuli a",
      "oli ver",
      "sir kku",
      "sa ila",
      "p sa",
      "anna maija",
      "m hmd",
      "ia s",
      "si sko",
      "alex ander",
      "ai ri",
      "h n",
      "jo hn",
      "jan ette",
      "anna liisa",
      "l ari",
      "mo na",
      "e nni",
      "ee mil",
      "os mo",
      "ka j",
      "ir ja",
      "l u",
      "e t",
      "an ette",
      "ei no",
      "mari tta",
      "te uvo",
      "anna mari",
      "ir meli",
      "to mas",
      "ne tta",
      "ker ttu",
      "ti tta",
      "ja y",
      "u n",
      "kar ri",
      "moni ca",
      "f a",
      "ar mi",
      "ti n",
      "mar tin",
      "pe te",
      "nja min",
      "be njamin",
      "a ija",
      "o i",
      "ander s",
      "olli pekka",
      "marke tta",
      "mi ina",
      "pa ul",
      "s te",
      "and re",
      "ste fan",
      "andre as",
      "jukka pekka",
      "m ee",
      "to i",
      "tuuli kki",
      "mee ri",
      "r eija",
      "jo se",
      "tu s",
      "ti a",
      "jo ri",
      "vilja mi",
      "t h",
      "l ana",
      "s ve",
      "t lana",
      "sve tlana",
      "he ta",
      "mar jukka",
      "se ve",
      "is to",
      "seve ri",
      "a kim",
      "jo akim",
      "er no",
      "mi na",
      "je mina",
      "m y",
      "ha el",
      "tom my",
      "mic hael",
      "ka uko",
      "c us",
      "mar cus",
      "ki ia",
      "tuuli a",
      "soi li",
      "and ra",
      "alex andra",
      "i no",
      "pe ri",
      "va ino",
      "kas peri",
      "anna kaisa",
      "ali sa",
      "ki mi",
      "ki a",
      "ma ire",
      "veli pekka",
      "r vo",
      "tu ire",
      "in ke",
      "inke ri",
      "m anu",
      "p pu",
      "il mari",
      "ma d",
      "ra ja",
      "ah mad",
      "j anna",
      "l da",
      "ra ju",
      "jer ry",
      "mati lda",
      "ke sh",
      "fan ny",
      "os ti",
      "ky osti",
      "mari anna",
      "hanna mari",
      "hen riikka",
      "li k",
      "ma lik",
      "d rik",
      "e a",
      "f re",
      "ne ea",
      "mika ela",
      "os kar",
      "eeva liisa",
      "fre drik",
      "el sa",
      "anni na",
      "joona tan",
      "n er",
      "juh ana",
      "c ar",
      "i jo",
      "te ijo",
      "os car",
      "lin nea",
      "rei no",
      "vi a",
      "mar gi",
      "to r",
      "ra je",
      "oli via",
      "margi t",
      "raje sh",
      "ni nni",
      "el meri",
      "jo anna",
      "a mir",
      "n ari",
      "k han",
      "ke nne",
      "kenne th",
      "ari pekka",
      "se nja",
      "i m",
      "ai mo",
      "im ran",
      "ra m",
      "eeli s",
      "c k",
      "v era",
      "ri ck",
      "simo n",
      "pat rick",
      "ra uni",
      "aa da",
      "g o",
      "ti mi",
      "ah ti",
      "t han",
      "vi d",
      "da vid",
      "jona than",
      "w il",
      "har ry",
      "wil ma",
      "ma isa",
      "s per",
      "anna maria",
      "ra isa",
      "je sper",
      "ee rika",
      "ra me",
      "chris tina",
      "rame sh",
      "kla us",
      "ot so",
      "sir u",
      "mat s",
      "aar ne",
      "ju s",
      "kari ta",
      "oi li",
      "toi vo",
      "a ltteri",
      "f f",
      "w altteri",
      "ja tta",
      "ani tta",
      "ff er",
      "j anni",
      "e ve",
      "ree ta",
      "v ar",
      "u r",
      "rai ner",
      "sam psa",
      "r jo",
      "y rjo",
      "la ila",
      "li lli",
      "a da",
      "h er",
      "ei ra",
      "katari na",
      "jani ca",
      "ai ra",
      "h ias",
      "k tor",
      "vi n",
      "vi ktor",
      "ke vin",
      "mat hias",
      "ri tta",
      "ni l",
      "ra j",
      "pi ritta",
      "su re",
      "su nil",
      "and rei",
      "vei kka",
      "sure sh",
      "ta uno",
      "jas per",
      "a x",
      "er kka",
      "ax el",
      "ta isto",
      "anni kki",
      "h as",
      "has san",
      "ma uno",
      "he nni",
      "an t",
      "ma lin",
      "s ku",
      "mo ona",
      "sirkka liisa",
      "kari n",
      "dani ela",
      "c aro",
      "caro la",
      "ni ki",
      "ani l",
      "di ana",
      "han s",
      "l vi",
      "o j",
      "pi lvi",
      "man oj",
      "c e",
      "c i",
      "mu ha",
      "ce ci",
      "muha mmed",
      "ceci lia",
      "e tu",
      "o mar",
      "sus an",
      "moni ka",
      "se nni",
      "ulla maija",
      "g ei",
      "s er",
      "mi isa",
      "rei ma",
      "ser gei",
      "e lle",
      "h d",
      "p pa",
      "mo hd",
      "arttu ri",
      "al po",
      "elle n",
      "ter ho",
      "i kka",
      "j p",
      "s anja",
      "ta fa",
      "maija liisa",
      "mus tafa",
      "nari ikka",
      "sanja y",
      "ne lla",
      "h la",
      "u tti",
      "pi hla",
      "nu utti",
      "sti na",
      "aaro n",
      "i f",
      "le if",
      "mar tta",
      "ra vi",
      "ter esa",
      "a u",
      "i ris",
      "b ra",
      "i bra",
      "l me",
      "sa lme",
      "heli na",
      "hi m",
      "jus tus",
      "ibra him",
      "a si",
      "vi jay",
      "asi f",
      "ta i",
      "b ias",
      "r ana",
      "ne ri",
      "to bias",
      "hi lla",
      "re ne",
      "jen s",
      "ver neri",
      "s sa",
      "te n",
      "te ssa",
      "ee vi",
      "d ja",
      "na dja",
      "mi la",
      "mi nja",
      "vi sa",
      "to sh",
      "pi psa",
      "ee rik",
      "san tosh",
      "noo r",
      "anna leena",
      "g n",
      "si a",
      "ma gn",
      "pi rita",
      "ana sta",
      "magn us",
      "anasta sia",
      "l ar",
      "ka ar",
      "ti ana",
      "ta tiana",
      "hanna leena",
      "lar s",
      "a jay",
      "ku mar",
      "cari na",
      "p pi",
      "pe ppi",
      "c har",
      "j iri",
      "ni ta",
      "char lotta",
      "s tiina",
      "alek sand",
      "aleksand r",
      "he lja",
      "eli se",
      "chris ter",
      "ee p",
      "os ku",
      "sand eep",
      "f anni",
      "ra kesh",
      "as ho",
      "ulla h",
      "in ga",
      "abd ullah",
      "asho k",
      "ar et",
      "ma aret",
      "sanna mari",
      "jas ka",
      "auli s",
      "a vi",
      "b ila",
      "g uni",
      "h ul",
      "ta avi",
      "ra hul",
      "lle vi",
      "sari ta",
      "auli kki",
      "bila l",
      "guni lla",
      "s ha",
      "ar un",
      "ri ia",
      "la s",
      "isa l",
      "so nu",
      "emi as",
      "jer emias",
      "ii kka",
      "hi d",
      "nic las",
      "fa isal",
      "sha hid",
      "m elina",
      "eli isa",
      "j ana",
      "t jana",
      "ta tjana",
      "ra uli",
      "ei ni",
      "birgi t",
      "var pu",
      "b w",
      "an sku",
      "vi no",
      "vino d",
      "a liisa",
      "ma lla",
      "risto ffer",
      "ch ristoffer",
      "ir fan",
      "rai ne",
      "k ha",
      "ka ma",
      "li d",
      "mirja mi",
      "kha lid",
      "kama l",
      "kris ter",
      "mat leena",
      "a po",
      "ka apo",
      "vir va",
      "vil ho",
      "sam ppa",
      "n anna",
      "u kas",
      "lu ukas",
      "ti nja",
      "hen kka",
      "a d",
      "n an",
      "mi mmi",
      "us man",
      "mir kka",
      "ad nan",
      "e ka",
      "ne sh",
      "di nesh",
      "teri na",
      "eka terina",
      "b jor",
      "i go",
      "hanna kaisa",
      "jas miina",
      "bjor n",
      "igo r",
      "a sa",
      "li lja",
      "lli kki",
      "mil ka",
      "ky llikki",
      "ma ke",
      "pe etu",
      "hei mo",
      "au ne",
      "e d",
      "s y",
      "ka ta",
      "kirsi marja",
      "sy ed",
      "c as",
      "ar vo",
      "el mo",
      "mir ella",
      "cas per",
      "f iina",
      "ni kke",
      "ma he",
      "jari pekka",
      "alek sandra",
      "jose fiina",
      "ur po",
      "mahe sh",
      "g alina",
      "se i",
      "alek sei",
      "f ran",
      "sa su",
      "jan erik",
      "sti n",
      "ker stin",
      "fran s",
      "m ei",
      "mei ju",
      "ver tti",
      "un to",
      "jo ku",
      "hel ka",
      "ant ton",
      "mu kesh",
      "mirja m",
      "kaar lo",
      "chris ta",
      "re be",
      "rebe kka",
      "sa ga",
      "sa ji",
      "to uko",
      "saji d",
      "ti i",
      "eli n",
      "rai la",
      "l mari",
      "ja lmari",
      "ju ri",
      "aar ni",
      "e ppu",
      "re a",
      "l f",
      "ro lf",
      "oi va",
      "f i",
      "ka kka",
      "li p",
      "le nni",
      "me tte",
      "fi lip",
      "m anni",
      "ar ju",
      "kale rvo",
      "her manni",
      "arju n",
      "tu ro",
      "je lena",
      "lin us",
      "d e",
      "i lle",
      "w ille",
      "sa kke",
      "sa de",
      "pi et",
      "sari anna",
      "tuo vi",
      "mai kki",
      "piet ari",
      "r us",
      "mi nni",
      "ko sti",
      "ki ira",
      "pet rus",
      "go ran",
      "n mari",
      "an nmari",
      "lee a",
      "ul rika",
      "hel vi",
      "vil jo",
      "j annika",
      "to ve",
      "harri et",
      "maari a",
      "sa lli",
      "jo nni",
      "te lle",
      "el si",
      "va ppu",
      "aar no",
      "paul us",
      "telle rvo",
      "mic o",
      "toi ni",
      "ten ho",
      "riitta liisa",
      "elli noora",
      "mi kke",
      "ne s",
      "k je",
      "l l",
      "ville veikko",
      "kje ll",
      "i isa",
      "anna stiina",
      "anne maria",
      "pe na",
      "alek santeri",
      "s su",
      "tuu re",
      "ur ho",
      "vesa matti",
      "ma ila",
      "ai li",
      "b ar",
      "b ro",
      "b rita",
      "i t",
      "i si",
      "li isi",
      "ki kka",
      "marja terttu",
      "vo it",
      "ul f",
      "bar bro",
      "voit to",
      "o se",
      "jo ose",
      "su sa",
      "h vi",
      "si v",
      "tee a",
      "so hvi",
      "ai ni",
      "meri ta",
      "ja su",
      "pet ja",
      "il ja",
      "sir ja",
      "salla mari",
      "su lo",
      "al lu",
      "n tus",
      "o rvo",
      "po ntus",
      "re ko",
      "orvo kki",
      "mic ke",
      "a ssi",
      "i tta",
      "mar jari",
      "paivi kki",
      "hen nariikka",
      "ei ne",
      "hi llevi",
      "ant toni",
      "marjari itta",
      "r u",
      "u t",
      "ni lla",
      "mu nna",
      "per nilla",
      "ru ut",
      "antti jussi",
      "ii ta",
      "nic klas",
      "d ra",
      "s la",
      "mi mo",
      "he llevi",
      "kai sla",
      "sti g",
      "ji ten",
      "mimo sa",
      "jiten dra",
      "e m",
      "to ffer",
      "rii ka",
      "kris toffer",
      "min ka",
      "vil helmi",
      "em ppu",
      "vilhelmi ina",
      "g t",
      "l vei",
      "n gt",
      "an sa",
      "ee mi",
      "so lvei",
      "be ngt",
      "solvei g",
      "e ki",
      "l lu",
      "ar si",
      "ar vi",
      "ve llu",
      "sanna kaisa",
      "il mo",
      "v ari",
      "sari anne",
      "ii vari",
      "aar re",
      "g er",
      "h ja",
      "r kka",
      "la hja",
      "tu rkka",
      "hanna maria",
      "el lu",
      "ku kka",
      "ei nari",
      "so in",
      "mii ra",
      "marjo riitta",
      "in ari",
      "in ger",
      "al var",
      "soin tu",
      "m mo",
      "o ula",
      "he mmo",
      "jussi pekka",
      "g un",
      "jo kke",
      "si ina",
      "noo a",
      "ida maria",
      "tai mi",
      "mu th",
      "muth u",
      "an ki",
      "mar leena",
      "anna sofia",
      "hel y",
      "pe kko",
      "anni ca",
      "jar na",
      "jenni ina",
      "henri ka",
      "tai ka",
      "tii tus",
      "a uvo",
      "ne nna",
      "ville pekka",
      "al tti",
      "mi nea",
      "ka si",
      "si nna",
      "pe li",
      "pi etu",
      "eeva maria",
      "aa peli",
      "meri tuuli",
      "kasi mir",
      "tu a",
      "maija leena",
      "ii tu",
      "janni ca",
      "e n",
      "si o",
      "kari pekka",
      "sanna maria",
      "pirkko liisa",
      "ak su",
      "en sio",
      "an nariikka",
      "pir kka",
      "jenni ka",
      "tiia maria",
      "tii u",
      "f fan",
      "u kko",
      "vi ira",
      "pa te",
      "el viira",
      "sta ffan",
      "tor sti",
      "ki ti",
      "mai kku",
      "her kko",
      "a t",
      "ja kke",
      "roosa maria",
      "her tta",
      "at so",
      "o ner",
      "ja ani",
      "oner va",
      "ja sse",
      "ti ntti",
      "to s",
      "ve sku",
      "han nariikka",
      "kirsi kka",
      "kris se",
      "rai no",
      "aa tos",
      "li ssu",
      "to ri",
      "el jas",
      "antti pekka",
      "ii nes",
      "kas su",
      "jus tiina",
      "tai to",
      "kaar le",
      "nes tori",
      "ma j",
      "er kko",
      "anne maj",
      "aa ke",
      "k us",
      "k su",
      "mi ksu",
      "mir kku",
      "eeva maija",
      "iida maria",
      "au kus",
      "aukus ti",
      "pir re",
      "kirsi maria",
      "t su",
      "as mo",
      "kai tsu",
      "ul pu",
      "tom ppa",
      "he ssu",
      "ra ak",
      "ville matti",
      "suvi tuuli",
      "kai us",
      "tap sa",
      "raak el"
    ]
  }
}