{
    "version": "1.0",
    "truncation": null,
    "padding": null,
    "added_tokens": [
        {
            "id": 0,
            "content": "[UNK]",
            "single_word": false,
            "lstrip": false,
            "rstrip": false,
            "normalized": false,
            "special": true
        },
        {
            "id": 1,
            "content": "[CLS]",
            "single_word": false,
            "lstrip": false,
            "rstrip": false,
            "normalized": false,
            "special": true
        },
        {
            "id": 2,
            "content": "[SEP]",
            "single_word": false,
            "lstrip": false,
            "rstrip": false,
            "normalized": false,
            "special": true
        },
        {
            "id": 3,
            "content": "[PAD]",
            "single_word": false,
            "lstrip": false,
            "rstrip": false,
            "normalized": false,
            "special": true
        },
        {
            "id": 4,
            "content": "[MASK]",
            "single_word": false,
            "lstrip": false,
            "rstrip": false,
            "normalized": false,
            "special": true
        }
    ],
    "normalizer": null,
    "pre_tokenizer": {
        "type": "Whitespace"
    },
    "post_processor": null,
    "decoder": null,
    "model": {
        "type": "BPE",
        "dropout": null,
        "unk_token": "[UNK]",
        "continuing_subword_prefix": null,
        "end_of_word_suffix": null,
        "fuse_unk": false,
        "vocab": {
            "[UNK]": 0,
            "[CLS]": 1,
            "[SEP]": 2,
            "[PAD]": 3,
            "[MASK]": 4,
            "-": 5,
            "a": 6,
            "b": 7,
            "c": 8,
            "d": 9,
            "e": 10,
            "f": 11,
            "g": 12,
            "h": 13,
            "i": 14,
            "j": 15,
            "k": 16,
            "l": 17,
            "m": 18,
            "n": 19,
            "o": 20,
            "p": 21,
            "q": 22,
            "r": 23,
            "s": 24,
            "t": 25,
            "u": 26,
            "v": 27,
            "w": 28,
            "x": 29,
            "y": 30,
            "z": 31,
            "ts": 32,
            "le": 33,
            "go": 34,
            "bo": 35,
            "lo": 36,
            "an": 37,
            "mo": 38,
            "th": 39,
            "on": 40,
            "ke": 41,
            "at": 42,
            "ka": 43,
            "di": 44,
            "he": 45,
            "me": 46,
            "se": 47,
            "ma": 48,
            "ang": 49,
            "ne": 50,
            "tse": 51,
            "re": 52,
            "is": 53,
            "one": 54,
            "la": 55,
            "ph": 56,
            "ba": 57,
            "tshe": 58,
            "elo": 59,
            "in": 60,
            "ra": 61,
            "ile": 62,
            "ga": 63,
            "te": 64,
            "we": 65,
            "tso": 66,
            "tu": 67,
            "el": 68,
            "tha": 69,
            "ic": 70,
            "us": 71,
            "ar": 72,
            "po": 73,
            "en": 74,
            "il": 75,
            "rat": 76,
            "boi": 77,
            "pho": 78,
            "tume": 79,
            "iso": 80,
            "na": 81,
            "ce": 82,
            "that": 83,
            "pe": 84,
            "jo": 85,
            "sa": 86,
            "ia": 87,
            "ng": 88,
            "tsh": 89,
            "olo": 90,
            "be": 91,
            "ona": 92,
            "da": 93,
            "bon": 94,
            "itse": 95,
            "ch": 96,
            "ie": 97,
            "fa": 98,
            "ko": 99,
            "ilwe": 100,
            "neo": 101,
            "sh": 102,
            "ro": 103,
            "phe": 104,
            "kgo": 105,
            "thab": 106,
            "wa": 107,
            "tsi": 108,
            "pat": 109,
            "ge": 110,
            "or": 111,
            "tshep": 112,
            "ny": 113,
            "ki": 114,
            "man": 115,
            "ty": 116,
            "thus": 117,
            "si": 118,
            "om": 119,
            "ani": 120,
            "ri": 121,
            "ly": 122,
            "tlo": 123,
            "filwe": 124,
            "ric": 125,
            "rato": 126,
            "du": 127,
            "the": 128,
            "ti": 129,
            "kat": 130,
            "belo": 131,
            "ag": 132,
            "kag": 133,
            "kea": 134,
            "li": 135,
            "pa": 136,
            "tle": 137,
            "mon": 138,
            "lly": 139,
            "cy": 140,
            "ta": 141,
            "lego": 142,
            "tl": 143,
            "oba": 144,
            "len": 145,
            "mar": 146,
            "uel": 147,
            "un": 148,
            "ken": 149,
            "gomo": 150,
            "mma": 151,
            "ss": 152,
            "ja": 153,
            "tin": 154,
            "any": 155,
            "ana": 156,
            "bile": 157,
            "joh": 158,
            "fo": 159,
            "pre": 160,
            "oa": 161,
            "ku": 162,
            "bri": 163,
            "za": 164,
            "io": 165,
            "itume": 166,
            "ris": 167,
            "tum": 168,
            "to": 169,
            "hu": 170,
            "khu": 171,
            "fi": 172,
            "loki": 173,
            "ha": 174,
            "dy": 175,
            "ed": 176,
            "motso": 177,
            "tsile": 178,
            "thu": 179,
            "ane": 180,
            "gorat": 181,
            "sha": 182,
            "tho": 183,
            "cio": 184,
            "cious": 185,
            "ld": 186,
            "no": 187,
            "kay": 188,
            "ck": 189,
            "tswe": 190,
            "ah": 191,
            "vin": 192,
            "modi": 193,
            "ho": 194,
            "gao": 195,
            "char": 196,
            "arl": 197,
            "em": 198,
            "id": 199,
            "lu": 200,
            "nie": 201,
            "do": 202,
            "ca": 203,
            "metse": 204,
            "seph": 205,
            "ono": 206,
            "mai": 207,
            "pr": 208,
            "ince": 209,
            "amo": 210,
            "mic": 211,
            "ard": 212,
            "ter": 213,
            "lese": 214,
            "onalen": 215,
            "felo": 216,
            "mose": 217,
            "vid": 218,
            "ano": 219,
            "tty": 220,
            "rt": 221,
            "tshi": 222,
            "neilwe": 223,
            "fen": 224,
            "ice": 225,
            "edw": 226,
            "lale": 227,
            "nah": 228,
            "so": 229,
            "nes": 230,
            "nolo": 231,
            "mmo": 232,
            "pu": 233,
            "gra": 234,
            "nce": 235,
            "rence": 236,
            "sam": 237,
            "onald": 238,
            "rcy": 239,
            "fre": 240,
            "ru": 241,
            "eng": 242,
            "car": 243,
            "kga": 244,
            "die": 245,
            "phile": 246,
            "ole": 247,
            "oke": 248,
            "ul": 249,
            "ica": 250,
            "keo": 251,
            "gi": 252,
            "bi": 253,
            "fentse": 254,
            "pheny": 255,
            "mi": 256,
            "ye": 257,
            "ote": 258,
            "mom": 259,
            "ine": 260,
            "cen": 261,
            "mis": 262,
            "cent": 263,
            "she": 264,
            "ve": 265,
            "ob": 266,
            "hael": 267,
            "elang": 268,
            "ditse": 269,
            "tshia": 270,
            "kany": 271,
            "eme": 272,
            "keitume": 273,
            "al": 274,
            "orat": 275,
            "atl": 276,
            "ago": 277,
            "ing": 278,
            "iwa": 279,
            "bonye": 280,
            "tire": 281,
            "ol": 282,
            "lemo": 283,
            "tsheph": 284,
            "ketso": 285,
            "etse": 286,
            "ity": 287,
            "onne": 288,
            "inah": 289,
            "betswe": 290,
            "con": 291,
            "tsho": 292,
            "aoba": 293,
            "kwe": 294,
            "rah": 295,
            "rabile": 296,
            "isang": 297,
            "tsang": 298,
            "ton": 299,
            "mba": 300,
            "ior": 301,
            "jun": 302,
            "onka": 303,
            "piwa": 304,
            "mogomo": 305,
            "illi": 306,
            "les": 307,
            "hel": 308,
            "gg": 309,
            "ungo": 310,
            "lor": 311,
            "tlhe": 312,
            "atla": 313,
            "mes": 314,
            "rape": 315,
            "ence": 316,
            "gang": 317,
            "yce": 318,
            "pula": 319,
            "ben": 320,
            "jus": 321,
            "nya": 322,
            "betse": 323,
            "flo": 324,
            "zi": 325,
            "agwe": 326,
            "gelang": 327,
            "es": 328,
            "god": 329,
            "port": 330,
            "thusitse": 331,
            "modimo": 332,
            "isa": 333,
            "dah": 334,
            "odi": 335,
            "geor": 336,
            "cil": 337,
            "tshelo": 338,
            "abi": 339,
            "tsana": 340,
            "rile": 341,
            "son": 342,
            "gwe": 343,
            "for": 344,
            "ale": 345,
            "pher": 346,
            "mooke": 347,
            "tlw": 348,
            "gee": 349,
            "getse": 350,
            "ac": 351,
            "gonolo": 352,
            "hogonolo": 353,
            "can": 354,
            "nom": 355,
            "pheme": 356,
            "mogo": 357,
            "tla": 358,
            "cky": 359,
            "frey": 360,
            "nan": 361,
            "tor": 362,
            "vic": 363,
            "ble": 364,
            "er": 365,
            "dre": 366,
            "iza": 367,
            "ras": 368,
            "ith": 369,
            "goa": 370,
            "mogetse": 371,
            "ft": 372,
            "hard": 373,
            "lalelo": 374,
            "hma": 375,
            "wrence": 376,
            "ishma": 377,
            "lvin": 378,
            "dor": 379,
            "lin": 380,
            "teb": 381,
            "kanyo": 382,
            "ther": 383,
            "kes": 384,
            "moag": 385,
            "moeme": 386,
            "atsi": 387,
            "phatsi": 388,
            "nic": 389,
            "vis": 390,
            "gla": 391,
            "dys": 392,
            "las": 393,
            "inno": 394,
            "ssing": 395,
            "glor": 396,
            "dia": 397,
            "rai": 398,
            "get": 399,
            "mas": 400,
            "phemetse": 401,
            "fr": 402,
            "ou": 403,
            "boloki": 404,
            "ank": 405,
            "ooke": 406,
            "win": 407,
            "bany": 408,
            "kutlw": 409,
            "col": 410,
            "jul": 411,
            "let": 412,
            "metso": 413,
            "philli": 414,
            "nye": 415,
            "cob": 416,
            "gon": 417,
            "ks": 418,
            "reg": 419,
            "tlha": 420,
            "metsi": 421,
            "ata": 422,
            "rra": 423,
            "leb": 424,
            "raone": 425,
            "ipo": 426,
            "min": 427,
            "joe": 428,
            "jamin": 429,
            "ev": 430,
            "agile": 431,
            "tabo": 432,
            "gh": 433,
            "brigh": 434,
            "rre": 435,
            "magg": 436,
            "tiretse": 437,
            "rapetse": 438,
            "din": 439,
            "poloki": 440,
            "gane": 441,
            "lia": 442,
            "wil": 443,
            "topher": 444,
            "tebb": 445,
            "sus": 446,
            "relo": 447,
            "boikhu": 448,
            "tshwa": 449,
            "tice": 450,
            "mor": 451,
            "gany": 452,
            "ise": 453,
            "war": 454,
            "zy": 455,
            "zzy": 456,
            "ju": 457,
            "dith": 458,
            "pris": 459,
            "galale": 460,
            "taw": 461,
            "diwe": 462,
            "nest": 463,
            "cia": 464,
            "ll": 465,
            "ree": 466,
            "pon": 467,
            "ster": 468,
            "tr": 469,
            "pegg": 470,
            "obaka": 471,
            "lson": 472,
            "ndy": 473,
            "dza": 474,
            "cca": 475,
            "ess": 476,
            "thri": 477,
            "kenana": 478,
            "cathri": 479,
            "qu": 480,
            "ya": 481,
            "onkgo": 482,
            "kess": 483,
            "emo": 484,
            "pale": 485,
            "tlhale": 486,
            "kan": 487,
            "nth": 488,
            "cynth": 489,
            "holas": 490,
            "ua": 491,
            "naom": 492,
            "ab": 493,
            "che": 494,
            "dget": 495,
            "yn": 496,
            "elyn": 497,
            "kolo": 498,
            "matl": 499,
            "cha": 500,
            "dla": 501,
            "sea": 502,
            "os": 503,
            "tra": 504,
            "pro": 505,
            "usi": 506,
            "kie": 507,
            "pin": 508,
            "pus": 509,
            "ste": 510,
            "tlale": 511,
            "uben": 512,
            "motlale": 513,
            "phen": 514,
            "bu": 515,
            "den": 516,
            "nis": 517,
            "ron": 518,
            "veron": 519,
            "gotlo": 520,
            "boin": 521,
            "iv": 522,
            "meo": 523,
            "lagany": 524,
            "ivy": 525,
            "kani": 526,
            "kozi": 527,
            "ncan": 528,
            "st": 529,
            "solo": 530,
            "xwe": 531,
            "letl": 532,
            "ance": 533,
            "kai": 534,
            "sen": 535,
            "maxwe": 536,
            "const": 537,
            "nda": 538,
            "tat": 539,
            "gole": 540,
            "tenda": 541,
            "akany": 542,
            "cus": 543,
            "etso": 544,
            "leat": 545,
            "tudu": 546,
            "ashe": 547,
            "latl": 548,
            "lefi": 549,
            "kemmo": 550,
            "retse": 551,
            "ildah": 552,
            "boiko": 553,
            "gaolatl": 554,
            "mera": 555,
            "gadi": 556,
            "tshogane": 557,
            "eun": 558,
            "odu": 559,
            "potse": 560,
            "boitsho": 561,
            "yo": 562,
            "angu": 563,
            "mbi": 564,
            "nthab": 565,
            "iseng": 566,
            "vio": 567,
            "ness": 568,
            "del": 569,
            "gdel": 570,
            "hle": 571,
            "orape": 572,
            "annes": 573,
            "mosi": 574,
            "magdel": 575,
            "batso": 576,
            "ust": 577,
            "fetse": 578,
            "gopo": 579,
            "phi": 580,
            "mat": 581,
            "dz": 582,
            "ogomo": 583,
            "pelang": 584,
            "isra": 585,
            "tee": 586,
            "fadz": 587,
            "tafadz": 588,
            "kolodi": 589,
            "llo": 590,
            "yd": 591,
            "fortu": 592,
            "ame": 593,
            "fe": 594,
            "oree": 595,
            "sie": 596,
            "peo": 597,
            "kgosie": 598,
            "shepher": 599,
            "cas": 600,
            "ez": 601,
            "eki": 602,
            "ezeki": 603,
            "una": 604,
            "kantse": 605,
            "au": 606,
            "bre": 607,
            "shi": 608,
            "aubre": 609,
            "lve": 610,
            "sy": 611,
            "kena": 612,
            "lvester": 613,
            "kenale": 614,
            "moth": 615,
            "timoth": 616,
            "etsile": 617,
            "ow": 618,
            "memor": 619,
            "ner": 620,
            "sho": 621,
            "pheto": 622,
            "eph": 623,
            "pano": 624,
            "raim": 625,
            "fie": 626,
            "gosi": 627,
            "oga": 628,
            "ufi": 629,
            "ws": 630,
            "entle": 631,
            "shath": 632,
            "tswele": 633,
            "bin": 634,
            "kb": 635,
            "keatla": 636,
            "diso": 637,
            "matso": 638,
            "tau": 639,
            "kgakga": 640,
            "com": 641,
            "uya": 642,
            "zer": 643,
            "loe": 644,
            "fort": 645,
            "icah": 646,
            "cli": 647,
            "ffor": 648,
            "bedi": 649,
            "roris": 650,
            "obusi": 651,
            "cliffor": 652,
            "des": 653,
            "you": 654,
            "molo": 655,
            "laganye": 656,
            "bk": 657,
            "utlw": 658,
            "wi": 659,
            "zar": 660,
            "sib": 661,
            "ald": 662,
            "oag": 663,
            "kegomo": 664,
            "ditswe": 665,
            "inald": 666,
            "jn": 667,
            "ot": 668,
            "otse": 669,
            "ate": 670,
            "rejo": 671,
            "jnr": 672,
            "ala": 673,
            "ff": 674,
            "ogo": 675,
            "moff": 676,
            "gal": 677,
            "fun": 678,
            "kano": 679,
            "moga": 680,
            "gai": 681,
            "abe": 682,
            "bra": 683,
            "dzi": 684,
            "dnic": 685,
            "mu": 686,
            "osi": 687,
            "ock": 688,
            "mise": 689,
            "abednic": 690,
            "bul": 691,
            "dra": 692,
            "khe": 693,
            "skhe": 694,
            "kedu": 695,
            "jabul": 696,
            "shadra": 697,
            "balese": 698,
            "nao": 699,
            "tshepile": 700,
            "mol": 701,
            "otla": 702,
            "rethab": 703,
            "isano": 704,
            "poli": 705,
            "kgogi": 706,
            "moa": 707,
            "ikany": 708,
            "motse": 709,
            "kgomotse": 710,
            "gaole": 711,
            "de": 712,
            "spe": 713,
            "rude": 714,
            "prospe": 715,
            "sang": 716,
            "cinah": 717,
            "etsang": 718,
            "kwa": 719,
            "tank": 720,
            "wan": 721,
            "ancinah": 722,
            "lah": 723,
            "tshwan": 724,
            "pri": 725,
            "xane": 726,
            "zane": 727,
            "onthat": 728,
            "kere": 729,
            "lathe": 730,
            "kgane": 731,
            "lie": 732,
            "rlie": 733,
            "zha": 734,
            "letswele": 735,
            "bophe": 736,
            "moatl": 737,
            "motla": 738,
            "mokgane": 739,
            "sedi": 740,
            "hodi": 741,
            "as": 742,
            "imba": 743,
            "kg": 744,
            "ntle": 745,
            "tic": 746,
            "vimba": 747,
            "onti": 748,
            "phine": 749,
            "nametse": 750,
            "siphi": 751,
            "haona": 752,
            "ipe": 753,
            "mpa": 754,
            "tsegang": 755,
            "rashe": 756,
            "simba": 757,
            "ifa": 758,
            "nt": 759,
            "lefe": 760,
            "ney": 761,
            "phney": 762,
            "bonifa": 763,
            "ombi": 764,
            "gadife": 765,
            "welo": 766,
            "lelo": 767,
            "kage": 768,
            "bid": 769,
            "mm": 770,
            "mbid": 771,
            "bolo": 772,
            "isany": 773,
            "agisany": 774,
            "zai": 775,
            "gaofen": 776,
            "rumbid": 777,
            "motshe": 778,
            "getsi": 779,
            "thulagany": 780,
            "nko": 781,
            "ven": 782,
            "thews": 783,
            "ay": 784,
            "ldah": 785,
            "ore": 786,
            "omogo": 787,
            "pona": 788,
            "tie": 789,
            "tness": 790,
            "botse": 791,
            "sema": 792,
            "kanani": 793,
            "kno": 794,
            "ps": 795,
            "par": 796,
            "spar": 797,
            "keine": 798,
            "heck": 799,
            "refi": 800,
            "inte": 801,
            "anointe": 802,
            "godkno": 803,
            "ms": 804,
            "kuthu": 805,
            "kudza": 806,
            "nokuthu": 807,
            "abetswe": 808,
            "hono": 809,
            "ura": 810,
            "shadre": 811,
            "honoura": 812,
            "itiretse": 813,
            "lwe": 814,
            "ulu": 815,
            "zen": 816,
            "gofi": 817,
            "kao": 818,
            "matsh": 819,
            "wenye": 820,
            "patile": 821,
            "gaopale": 822,
            "senzen": 823,
            "matshwenye": 824,
            "bat": 825,
            "dlo": 826,
            "ego": 827,
            "itire": 828,
            "ndlo": 829,
            "oda": 830,
            "vu": 831,
            "anani": 832,
            "kale": 833,
            "kaego": 834,
            "isi": 835,
            "bileone": 836,
            "ganyi": 837,
            "bus": 838,
            "etsi": 839,
            "eti": 840,
            "gile": 841,
            "giso": 842,
            "ginah": 843,
            "ikag": 844,
            "sph": 845,
            "xol": 846,
            "lelen": 847,
            "kala": 848,
            "ompon": 849,
            "gaokga": 850,
            "fu": 851,
            "gwa": 852,
            "hl": 853,
            "hla": 854,
            "nne": 855,
            "nch": 856,
            "nhl": 857,
            "ose": 858,
            "swi": 859,
            "anhla": 860,
            "morape": 861,
            "ongwa": 862,
            "kesen": 863,
            "diri": 864,
            "maitse": 865,
            "tseng": 866,
            "usiso": 867,
            "betso": 868,
            "tlho": 869,
            "notse": 870,
            "idzi": 871,
            "gaolefu": 872,
            "ene": 873,
            "gan": 874,
            "kus": 875,
            "mza": 876,
            "ndi": 877,
            "ogan": 878,
            "pan": 879,
            "pile": 880,
            "lefo": 881,
            "leru": 882,
            "lebatso": 883,
            "goeme": 884,
            "losi": 885,
            "morat": 886,
            "kef": 887,
            "keolo": 888,
            "sekga": 889,
            "tsola": 890,
            "hatha": 891,
            "atedi": 892,
            "kiso": 893,
            "rwa": 894,
            "stu": 895,
            "lotse": 896,
            "mone": 897,
            "diretse": 898,
            "serwa": 899,
            "thodi": 900,
            "alo": 901,
            "ikantse": 902,
            "nke": 903,
            "nte": 904,
            "ope": 905,
            "tany": 906,
            "yi": 907,
            "tsalo": 908,
            "goope": 909,
            "mofen": 910,
            "bale": 911,
            "saone": 912,
            "tlotl": 913
        },
        "merges": [
            "t s",
            "l e",
            "g o",
            "b o",
            "l o",
            "a n",
            "m o",
            "t h",
            "o n",
            "k e",
            "a t",
            "k a",
            "d i",
            "h e",
            "m e",
            "s e",
            "m a",
            "an g",
            "n e",
            "ts e",
            "r e",
            "i s",
            "on e",
            "l a",
            "p h",
            "b a",
            "ts he",
            "e lo",
            "i n",
            "r a",
            "i le",
            "g a",
            "t e",
            "w e",
            "ts o",
            "t u",
            "e l",
            "th a",
            "i c",
            "u s",
            "a r",
            "p o",
            "e n",
            "i l",
            "r at",
            "bo i",
            "ph o",
            "tu me",
            "is o",
            "n a",
            "c e",
            "th at",
            "p e",
            "j o",
            "s a",
            "i a",
            "n g",
            "ts h",
            "o lo",
            "b e",
            "on a",
            "d a",
            "bo n",
            "i tse",
            "c h",
            "i e",
            "f a",
            "k o",
            "il we",
            "ne o",
            "s h",
            "r o",
            "p he",
            "k go",
            "tha b",
            "w a",
            "ts i",
            "p at",
            "g e",
            "o r",
            "tshe p",
            "n y",
            "k i",
            "m an",
            "t y",
            "th us",
            "s i",
            "o m",
            "an i",
            "r i",
            "l y",
            "t lo",
            "f ilwe",
            "r ic",
            "rat o",
            "d u",
            "th e",
            "t i",
            "k at",
            "b elo",
            "a g",
            "ka g",
            "ke a",
            "l i",
            "p a",
            "t le",
            "mo n",
            "l ly",
            "c y",
            "t a",
            "le go",
            "t l",
            "o ba",
            "le n",
            "ma r",
            "u el",
            "u n",
            "ke n",
            "go mo",
            "m ma",
            "s s",
            "j a",
            "t in",
            "an y",
            "an a",
            "b ile",
            "jo h",
            "f o",
            "p re",
            "o a",
            "k u",
            "b ri",
            "z a",
            "i o",
            "i tume",
            "r is",
            "tu m",
            "t o",
            "h u",
            "k hu",
            "f i",
            "lo ki",
            "h a",
            "d y",
            "e d",
            "mo tso",
            "ts ile",
            "th u",
            "an e",
            "go rat",
            "sh a",
            "th o",
            "c io",
            "cio us",
            "l d",
            "n o",
            "ka y",
            "c k",
            "ts we",
            "a h",
            "v in",
            "mo di",
            "h o",
            "ga o",
            "ch ar",
            "ar l",
            "e m",
            "i d",
            "l u",
            "n ie",
            "d o",
            "c a",
            "me tse",
            "se ph",
            "on o",
            "ma i",
            "p r",
            "in ce",
            "a mo",
            "m ic",
            "ar d",
            "te r",
            "le se",
            "ona len",
            "f elo",
            "mo se",
            "v id",
            "an o",
            "t ty",
            "r t",
            "tsh i",
            "ne ilwe",
            "f en",
            "ic e",
            "ed w",
            "la le",
            "na h",
            "s o",
            "ne s",
            "n olo",
            "m mo",
            "p u",
            "g ra",
            "n ce",
            "re nce",
            "sa m",
            "ona ld",
            "r cy",
            "f re",
            "r u",
            "en g",
            "c ar",
            "k ga",
            "di e",
            "ph ile",
            "o le",
            "o ke",
            "u l",
            "ic a",
            "ke o",
            "g i",
            "b i",
            "fen tse",
            "phe ny",
            "m i",
            "y e",
            "o te",
            "mo m",
            "i ne",
            "c en",
            "m is",
            "cen t",
            "s he",
            "v e",
            "o b",
            "ha el",
            "el ang",
            "di tse",
            "tsh ia",
            "k any",
            "e me",
            "ke itume",
            "a l",
            "o rat",
            "at l",
            "a go",
            "in g",
            "i wa",
            "bon ye",
            "ti re",
            "o l",
            "le mo",
            "tshe ph",
            "ke tso",
            "e tse",
            "i ty",
            "on ne",
            "in ah",
            "be tswe",
            "c on",
            "tsh o",
            "a oba",
            "k we",
            "ra h",
            "ra bile",
            "is ang",
            "ts ang",
            "t on",
            "m ba",
            "i or",
            "j un",
            "on ka",
            "p iwa",
            "mo gomo",
            "il li",
            "le s",
            "he l",
            "g g",
            "un go",
            "lo r",
            "tl he",
            "at la",
            "me s",
            "ra pe",
            "en ce",
            "g ang",
            "y ce",
            "pu la",
            "b en",
            "j us",
            "ny a",
            "be tse",
            "f lo",
            "z i",
            "ag we",
            "g elang",
            "e s",
            "go d",
            "po rt",
            "thus itse",
            "modi mo",
            "is a",
            "da h",
            "o di",
            "ge or",
            "c il",
            "tshe lo",
            "a bi",
            "ts ana",
            "r ile",
            "s on",
            "g we",
            "f or",
            "a le",
            "phe r",
            "mo oke",
            "tl w",
            "ge e",
            "ge tse",
            "a c",
            "go nolo",
            "ho gonolo",
            "c an",
            "n om",
            "phe me",
            "mo go",
            "t la",
            "ck y",
            "fre y",
            "n an",
            "t or",
            "v ic",
            "b le",
            "e r",
            "d re",
            "i za",
            "ra s",
            "i th",
            "go a",
            "mo getse",
            "f t",
            "h ard",
            "lale lo",
            "h ma",
            "w rence",
            "is hma",
            "l vin",
            "d or",
            "l in",
            "te b",
            "kany o",
            "the r",
            "ke s",
            "mo ag",
            "mo eme",
            "a tsi",
            "ph atsi",
            "n ic",
            "v is",
            "g la",
            "dy s",
            "la s",
            "in no",
            "ss ing",
            "g lor",
            "di a",
            "ra i",
            "ge t",
            "ma s",
            "phe metse",
            "f r",
            "o u",
            "bo loki",
            "an k",
            "o oke",
            "w in",
            "b any",
            "ku tlw",
            "c ol",
            "j ul",
            "le t",
            "me tso",
            "ph illi",
            "ny e",
            "c ob",
            "go n",
            "k s",
            "re g",
            "tl ha",
            "me tsi",
            "at a",
            "r ra",
            "le b",
            "ra one",
            "i po",
            "m in",
            "jo e",
            "ja min",
            "e v",
            "ag ile",
            "ta bo",
            "g h",
            "bri gh",
            "r re",
            "ma gg",
            "tire tse",
            "rape tse",
            "di n",
            "po loki",
            "g ane",
            "l ia",
            "w il",
            "to pher",
            "teb b",
            "s us",
            "re lo",
            "boi khu",
            "tsh wa",
            "t ice",
            "mo r",
            "g any",
            "i se",
            "w ar",
            "z y",
            "z zy",
            "j u",
            "di th",
            "p ris",
            "ga lale",
            "ta w",
            "di we",
            "nes t",
            "c ia",
            "l l",
            "re e",
            "p on",
            "s ter",
            "t r",
            "pe gg",
            "oba ka",
            "l son",
            "n dy",
            "d za",
            "c ca",
            "e ss",
            "th ri",
            "ken ana",
            "ca thri",
            "q u",
            "y a",
            "on kgo",
            "ke ss",
            "e mo",
            "pa le",
            "tlha le",
            "k an",
            "n th",
            "cy nth",
            "ho las",
            "u a",
            "na om",
            "a b",
            "c he",
            "d get",
            "y n",
            "el yn",
            "k olo",
            "m atl",
            "ch a",
            "d la",
            "se a",
            "o s",
            "t ra",
            "p ro",
            "us i",
            "k ie",
            "p in",
            "p us",
            "s te",
            "t lale",
            "u ben",
            "mo tlale",
            "phe n",
            "b u",
            "d en",
            "n is",
            "r on",
            "ve ron",
            "go tlo",
            "bo in",
            "i v",
            "me o",
            "la gany",
            "iv y",
            "k ani",
            "ko zi",
            "n can",
            "s t",
            "s olo",
            "x we",
            "le tl",
            "an ce",
            "ka i",
            "se n",
            "ma xwe",
            "con st",
            "n da",
            "t at",
            "go le",
            "te nda",
            "a kany",
            "c us",
            "e tso",
            "le at",
            "tu du",
            "a she",
            "l atl",
            "le fi",
            "ke mmo",
            "re tse",
            "il dah",
            "boi ko",
            "gao latl",
            "me ra",
            "ga di",
            "tsho gane",
            "e un",
            "o du",
            "po tse",
            "boi tsho",
            "y o",
            "ang u",
            "m bi",
            "n thab",
            "ise ng",
            "v io",
            "ne ss",
            "d el",
            "g del",
            "h le",
            "o rape",
            "an nes",
            "mo si",
            "ma gdel",
            "ba tso",
            "us t",
            "f etse",
            "go po",
            "ph i",
            "m at",
            "d z",
            "o gomo",
            "p elang",
            "is ra",
            "te e",
            "fa dz",
            "ta fadz",
            "kolo di",
            "l lo",
            "y d",
            "for tu",
            "a me",
            "f e",
            "o ree",
            "s ie",
            "pe o",
            "kgo sie",
            "she pher",
            "ca s",
            "e z",
            "e ki",
            "ez eki",
            "u na",
            "kan tse",
            "a u",
            "b re",
            "sh i",
            "au bre",
            "l ve",
            "s y",
            "ke na",
            "lve ster",
            "kena le",
            "mo th",
            "ti moth",
            "e tsile",
            "o w",
            "me mor",
            "ne r",
            "sh o",
            "phe to",
            "e ph",
            "p ano",
            "rai m",
            "f ie",
            "go si",
            "o ga",
            "u fi",
            "w s",
            "en tle",
            "sha th",
            "tswe le",
            "b in",
            "k b",
            "ke atla",
            "di so",
            "ma tso",
            "ta u",
            "kga kga",
            "c om",
            "u ya",
            "z er",
            "lo e",
            "for t",
            "ic ah",
            "c li",
            "f for",
            "be di",
            "ro ris",
            "ob usi",
            "cli ffor",
            "d es",
            "y ou",
            "mo lo",
            "lagany e",
            "b k",
            "u tlw",
            "w i",
            "z ar",
            "si b",
            "a ld",
            "o ag",
            "ke gomo",
            "di tswe",
            "in ald",
            "j n",
            "o t",
            "o tse",
            "at e",
            "re jo",
            "jn r",
            "a la",
            "f f",
            "o go",
            "mo ff",
            "ga l",
            "f un",
            "k ano",
            "mo ga",
            "ga i",
            "a be",
            "b ra",
            "d zi",
            "d nic",
            "m u",
            "o si",
            "o ck",
            "mi se",
            "abe dnic",
            "b ul",
            "d ra",
            "k he",
            "s khe",
            "ke du",
            "ja bul",
            "sha dra",
            "ba lese",
            "na o",
            "tshep ile",
            "mo l",
            "o tla",
            "re thab",
            "is ano",
            "po li",
            "kgo gi",
            "mo a",
            "i kany",
            "mo tse",
            "kgo motse",
            "gao le",
            "d e",
            "s pe",
            "ru de",
            "pro spe",
            "s ang",
            "c inah",
            "e tsang",
            "k wa",
            "t ank",
            "w an",
            "an cinah",
            "la h",
            "tsh wan",
            "p ri",
            "x ane",
            "z ane",
            "on that",
            "ke re",
            "la the",
            "k gane",
            "l ie",
            "r lie",
            "z ha",
            "le tswele",
            "bo phe",
            "mo atl",
            "mo tla",
            "mo kgane",
            "se di",
            "ho di",
            "a s",
            "i mba",
            "k g",
            "n tle",
            "t ic",
            "v imba",
            "on ti",
            "ph ine",
            "na metse",
            "si phi",
            "ha ona",
            "i pe",
            "m pa",
            "tse gang",
            "ra she",
            "si mba",
            "i fa",
            "n t",
            "le fe",
            "ne y",
            "ph ney",
            "bon ifa",
            "om bi",
            "gadi fe",
            "w elo",
            "le lo",
            "ka ge",
            "b id",
            "m m",
            "m bid",
            "bo lo",
            "is any",
            "ag isany",
            "za i",
            "gao fen",
            "ru mbid",
            "mo tshe",
            "ge tsi",
            "thu lagany",
            "n ko",
            "v en",
            "the ws",
            "a y",
            "l dah",
            "o re",
            "o mogo",
            "p ona",
            "t ie",
            "t ness",
            "bo tse",
            "se ma",
            "kan ani",
            "k no",
            "p s",
            "p ar",
            "s par",
            "ke ine",
            "he ck",
            "re fi",
            "in te",
            "ano inte",
            "god kno",
            "m s",
            "ku thu",
            "ku dza",
            "no kuthu",
            "a betswe",
            "h ono",
            "u ra",
            "sha dre",
            "hono ura",
            "i tiretse",
            "l we",
            "u lu",
            "z en",
            "go fi",
            "ka o",
            "ma tsh",
            "we nye",
            "pat ile",
            "gao pale",
            "sen zen",
            "matsh wenye",
            "b at",
            "d lo",
            "e go",
            "i tire",
            "n dlo",
            "o da",
            "v u",
            "an ani",
            "ka le",
            "ka ego",
            "is i",
            "bile one",
            "gany i",
            "b us",
            "e tsi",
            "e ti",
            "g ile",
            "g iso",
            "g inah",
            "i kag",
            "s ph",
            "x ol",
            "le len",
            "ka la",
            "om pon",
            "gao kga",
            "f u",
            "g wa",
            "h l",
            "h la",
            "n ne",
            "n ch",
            "n hl",
            "o se",
            "s wi",
            "an hla",
            "mo rape",
            "on gwa",
            "ke sen",
            "di ri",
            "ma itse",
            "tse ng",
            "us iso",
            "be tso",
            "tl ho",
            "no tse",
            "id zi",
            "gaole fu",
            "e ne",
            "g an",
            "k us",
            "m za",
            "n di",
            "o gan",
            "p an",
            "p ile",
            "le fo",
            "le ru",
            "le batso",
            "go eme",
            "lo si",
            "mo rat",
            "ke f",
            "ke olo",
            "se kga",
            "tso la",
            "ha tha",
            "ate di",
            "k iso",
            "r wa",
            "s tu",
            "lo tse",
            "mo ne",
            "di retse",
            "se rwa",
            "tho di",
            "a lo",
            "i kantse",
            "n ke",
            "n te",
            "o pe",
            "t any",
            "y i",
            "ts alo",
            "go ope",
            "mo fen",
            "ba le",
            "sa one",
            "tlo tl"
        ]
    }
}