{
  "version": "1.0",
  "truncation": null,
  "padding": null,
  "added_tokens": [
    {
      "id": 0,
      "content": "[UNK]",
      "single_word": false,
      "lstrip": false,
      "rstrip": false,
      "normalized": false,
      "special": true
    },
    {
      "id": 1,
      "content": "[CLS]",
      "single_word": false,
      "lstrip": false,
      "rstrip": false,
      "normalized": false,
      "special": true
    },
    {
      "id": 2,
      "content": "[SEP]",
      "single_word": false,
      "lstrip": false,
      "rstrip": false,
      "normalized": false,
      "special": true
    },
    {
      "id": 3,
      "content": "[PAD]",
      "single_word": false,
      "lstrip": false,
      "rstrip": false,
      "normalized": false,
      "special": true
    },
    {
      "id": 4,
      "content": "[MASK]",
      "single_word": false,
      "lstrip": false,
      "rstrip": false,
      "normalized": false,
      "special": true
    }
  ],
  "normalizer": null,
  "pre_tokenizer": {
    "type": "Whitespace"
  },
  "post_processor": null,
  "decoder": null,
  "model": {
    "type": "BPE",
    "dropout": null,
    "unk_token": "[UNK]",
    "continuing_subword_prefix": null,
    "end_of_word_suffix": null,
    "fuse_unk": false,
    "vocab": {
      "[UNK]": 0,
      "[CLS]": 1,
      "[SEP]": 2,
      "[PAD]": 3,
      "[MASK]": 4,
      "a": 5,
      "b": 6,
      "c": 7,
      "d": 8,
      "e": 9,
      "f": 10,
      "g": 11,
      "h": 12,
      "i": 13,
      "j": 14,
      "k": 15,
      "l": 16,
      "m": 17,
      "n": 18,
      "o": 19,
      "p": 20,
      "q": 21,
      "r": 22,
      "s": 23,
      "t": 24,
      "u": 25,
      "v": 26,
      "w": 27,
      "x": 28,
      "y": 29,
      "z": 30,
      "ma": 31,
      "la": 32,
      "in": 33,
      "ch": 34,
      "de": 35,
      "am": 36,
      "an": 37,
      "ab": 38,
      "el": 39,
      "ola": 40,
      "un": 41,
      "le": 42,
      "is": 43,
      "ra": 44,
      "em": 45,
      "en": 46,
      "us": 47,
      "ka": 48,
      "ade": 49,
      "on": 50,
      "ha": 51,
      "ba": 52,
      "jo": 53,
      "th": 54,
      "chi": 55,
      "wa": 56,
      "hi": 57,
      "da": 58,
      "er": 59,
      "man": 60,
      "ol": 61,
      "ri": 62,
      "ke": 63,
      "ce": 64,
      "mi": 65,
      "du": 66,
      "ham": 67,
      "se": 68,
      "yo": 69,
      "ss": 70,
      "li": 71,
      "to": 72,
      "uel": 73,
      "mar": 74,
      "mo": 75,
      "vi": 76,
      "di": 77,
      "uk": 78,
      "ib": 79,
      "ta": 80,
      "sa": 81,
      "olu": 82,
      "ti": 83,
      "wu": 84,
      "mu": 85,
      "emi": 86,
      "pe": 87,
      "abdu": 88,
      "abdul": 89,
      "pr": 90,
      "go": 91,
      "me": 92,
      "ji": 93,
      "if": 94,
      "es": 95,
      "or": 96,
      "ye": 97,
      "chuk": 98,
      "ibra": 99,
      "abi": 100,
      "ing": 101,
      "kar": 102,
      "cha": 103,
      "chukwu": 104,
      "emman": 105,
      "emmanuel": 106,
      "fa": 107,
      "him": 108,
      "ibrahim": 109,
      "abu": 110,
      "ju": 111,
      "ru": 112,
      "med": 113,
      "mad": 114,
      "ya": 115,
      "yi": 116,
      "ani": 117,
      "bakar": 118,
      "muham": 119,
      "ph": 120,
      "sam": 121,
      "ah": 122,
      "oma": 123,
      "ris": 124,
      "chin": 125,
      "om": 126,
      "abubakar": 127,
      "mus": 128,
      "day": 129,
      "hn": 130,
      "john": 131,
      "na": 132,
      "sh": 133,
      "bi": 134,
      "sun": 135,
      "oluwa": 136,
      "pa": 137,
      "mary": 138,
      "ble": 139,
      "ince": 140,
      "prince": 141,
      "tun": 142,
      "lo": 143,
      "jam": 144,
      "ssing": 145,
      "blessing": 146,
      "tin": 147,
      "yin": 148,
      "su": 149,
      "bu": 150,
      "ze": 151,
      "dam": 152,
      "cto": 153,
      "victo": 154,
      "chris": 155,
      "muhammad": 156,
      "il": 157,
      "ayo": 158,
      "re": 159,
      "ge": 160,
      "wo": 161,
      "samuel": 162,
      "za": 163,
      "ali": 164,
      "lahi": 165,
      "si": 166,
      "amin": 167,
      "yus": 168,
      "umar": 169,
      "jose": 170,
      "joseph": 171,
      "joy": 172,
      "ife": 173,
      "uf": 174,
      "abdullahi": 175,
      "sunday": 176,
      "st": 177,
      "cy": 178,
      "che": 179,
      "son": 180,
      "yemi": 181,
      "yusuf": 182,
      "al": 183,
      "eli": 184,
      "yu": 185,
      "ni": 186,
      "adam": 187,
      "gun": 188,
      "davi": 189,
      "david": 190,
      "bo": 191,
      "wal": 192,
      "musa": 193,
      "hammed": 194,
      "ther": 195,
      "god": 196,
      "esther": 197,
      "usman": 198,
      "isha": 199,
      "tunde": 200,
      "ran": 201,
      "ria": 202,
      "ama": 203,
      "ci": 204,
      "chael": 205,
      "od": 206,
      "unmi": 207,
      "ter": 208,
      "ee": 209,
      "ben": 210,
      "eka": 211,
      "zi": 212,
      "ja": 213,
      "id": 214,
      "ence": 215,
      "eth": 216,
      "ak": 217,
      "ck": 218,
      "au": 219,
      "dani": 220,
      "daniel": 221,
      "ro": 222,
      "victor": 223,
      "michael": 224,
      "bola": 225,
      "ga": 226,
      "bab": 227,
      "ley": 228,
      "mohammed": 229,
      "rah": 230,
      "peter": 231,
      "it": 232,
      "aliyu": 233,
      "hass": 234,
      "hassan": 235,
      "eze": 236,
      "char": 237,
      "fran": 238,
      "ony": 239,
      "tai": 240,
      "isi": 241,
      "enn": 242,
      "aisha": 243,
      "james": 244,
      "wale": 245,
      "ustin": 246,
      "emeka": 247,
      "pha": 248,
      "dele": 249,
      "mon": 250,
      "aminu": 251,
      "bas": 252,
      "isa": 253,
      "oke": 254,
      "et": 255,
      "ur": 256,
      "gra": 257,
      "grace": 258,
      "ry": 259,
      "ere": 260,
      "fola": 261,
      "ent": 262,
      "uche": 263,
      "gozi": 264,
      "iman": 265,
      "ul": 266,
      "itz": 267,
      "ob": 268,
      "hu": 269,
      "san": 270,
      "eci": 271,
      "ous": 272,
      "preci": 273,
      "precious": 274,
      "our": 275,
      "ine": 276,
      "tapha": 277,
      "mustapha": 278,
      "lor": 279,
      "femi": 280,
      "po": 281,
      "ok": 282,
      "nu": 283,
      "ua": 284,
      "adeni": 285,
      "mer": 286,
      "sani": 287,
      "mercy": 288,
      "anth": 289,
      "taiwo": 290,
      "adamu": 291,
      "odun": 292,
      "fai": 293,
      "baba": 294,
      "amaka": 295,
      "paul": 296,
      "tima": 297,
      "fatima": 298,
      "vour": 299,
      "bayo": 300,
      "favour": 301,
      "ahmad": 302,
      "omo": 303,
      "tian": 304,
      "christian": 305,
      "for": 306,
      "anyi": 307,
      "ifeanyi": 308,
      "bel": 309,
      "king": 310,
      "sley": 311,
      "kingsley": 312,
      "shua": 313,
      "oye": 314,
      "juli": 315,
      "victoria": 316,
      "chioma": 317,
      "ez": 318,
      "win": 319,
      "godwin": 320,
      "ike": 321,
      "faith": 322,
      "sule": 323,
      "kun": 324,
      "kel": 325,
      "isu": 326,
      "kabi": 327,
      "omon": 328,
      "je": 329,
      "ku": 330,
      "maryam": 331,
      "rose": 332,
      "akin": 333,
      "tope": 334,
      "adebayo": 335,
      "feli": 336,
      "ses": 337,
      "moses": 338,
      "bello": 339,
      "hen": 340,
      "henry": 341,
      "kunle": 342,
      "ahmed": 343,
      "deen": 344,
      "fi": 345,
      "anthony": 346,
      "lawal": 347,
      "kan": 348,
      "enna": 349,
      "ngozi": 350,
      "cent": 351,
      "les": 352,
      "charles": 353,
      "ope": 354,
      "auwal": 355,
      "temi": 356,
      "ki": 357,
      "nn": 358,
      "as": 359,
      "mide": 360,
      "chidi": 361,
      "onye": 362,
      "tu": 363,
      "vin": 364,
      "tri": 365,
      "patri": 366,
      "abiodun": 367,
      "sol": 368,
      "solomon": 369,
      "muhammed": 370,
      "inab": 371,
      "zainab": 372,
      "yinka": 373,
      "funmi": 374,
      "bashi": 375,
      "jan": 376,
      "inde": 377,
      "princess": 378,
      "isma": 379,
      "cis": 380,
      "sin": 381,
      "francis": 382,
      "kenn": 383,
      "toyin": 384,
      "una": 385,
      "amina": 386,
      "jib": 387,
      "eph": 388,
      "steph": 389,
      "stephen": 390,
      "wole": 391,
      "gi": 392,
      "the": 393,
      "gif": 394,
      "gift": 395,
      "oluwase": 396,
      "idris": 397,
      "tience": 398,
      "patience": 399,
      "ia": 400,
      "obi": 401,
      "joshua": 402,
      "edu": 403,
      "chinedu": 404,
      "hinde": 405,
      "kehinde": 406,
      "lu": 407,
      "zab": 408,
      "elizab": 409,
      "eed": 410,
      "elizabeth": 411,
      "cheal": 412,
      "ty": 413,
      "ala": 414,
      "hadi": 415,
      "layo": 416,
      "moh": 417,
      "ace": 418,
      "aja": 419,
      "peace": 420,
      "ac": 421,
      "isaac": 422,
      "sula": 423,
      "lin": 424,
      "zeez": 425,
      "ifeoma": 426,
      "ila": 427,
      "juliet": 428,
      "bashir": 429,
      "eem": 430,
      "ada": 431,
      "ella": 432,
      "stella": 433,
      "so": 434,
      "ale": 435,
      "ugo": 436,
      "temitope": 437,
      "lekan": 438,
      "we": 439,
      "yaku": 440,
      "chibu": 441,
      "kemi": 442,
      "cle": 443,
      "runa": 444,
      "haruna": 445,
      "hel": 446,
      "helen": 447,
      "thew": 448,
      "oge": 449,
      "nasi": 450,
      "nura": 451,
      "buk": 452,
      "ong": 453,
      "ustine": 454,
      "gab": 455,
      "olus": 456,
      "riel": 457,
      "gabriel": 458,
      "hau": 459,
      "kabiru": 460,
      "rita": 461,
      "haya": 462,
      "yahaya": 463,
      "ismail": 464,
      "samson": 465,
      "kola": 466,
      "bri": 467,
      "suleiman": 468,
      "abba": 469,
      "cky": 470,
      "wil": 471,
      "te": 472,
      "ruth": 473,
      "vian": 474,
      "vivian": 475,
      "glor": 476,
      "glory": 477,
      "felix": 478,
      "tosin": 479,
      "mhi": 480,
      "mhiz": 481,
      "inn": 482,
      "yere": 483,
      "abiu": 484,
      "chinyere": 485,
      "ije": 486,
      "ijeoma": 487,
      "johnson": 488,
      "bisi": 489,
      "lisu": 490,
      "salisu": 491,
      "babatunde": 492,
      "glo": 493,
      "gloria": 494,
      "frank": 495,
      "bere": 496,
      "ebere": 497,
      "kayo": 498,
      "kayode": 499,
      "patrick": 500,
      "yakubu": 501,
      "adeyemi": 502,
      "os": 503,
      "tayo": 504,
      "law": 505,
      "een": 506,
      "qu": 507,
      "queen": 508,
      "com": 509,
      "hauwa": 510,
      "sala": 511,
      "jenn": 512,
      "ifer": 513,
      "jennifer": 514,
      "dor": 515,
      "isah": 516,
      "alha": 517,
      "fri": 518,
      "friday": 519,
      "nre": 520,
      "ise": 521,
      "lov": 522,
      "ajayi": 523,
      "sadi": 524,
      "cia": 525,
      "tunji": 526,
      "afola": 527,
      "dra": 528,
      "deji": 529,
      "owu": 530,
      "idowu": 531,
      "opeyemi": 532,
      "sarah": 533,
      "eni": 534,
      "adekunle": 535,
      "sulaiman": 536,
      "est": 537,
      "jamin": 538,
      "benjamin": 539,
      "nth": 540,
      "cynth": 541,
      "cynthia": 542,
      "yan": 543,
      "ojo": 544,
      "echi": 545,
      "segun": 546,
      "richar": 547,
      "richard": 548,
      "adewale": 549,
      "toph": 550,
      "christoph": 551,
      "ikechukwu": 552,
      "christopher": 553,
      "aug": 554,
      "adeola": 555,
      "micheal": 556,
      "anley": 557,
      "stanley": 558,
      "inna": 559,
      "obinna": 560,
      "kenneth": 561,
      "fort": 562,
      "comfort": 563,
      "jide": 564,
      "debo": 565,
      "deborah": 566,
      "jer": 567,
      "phi": 568,
      "dith": 569,
      "rin": 570,
      "ibu": 571,
      "onyin": 572,
      "onyinye": 573,
      "waju": 574,
      "gben": 575,
      "gbenga": 576,
      "orge": 577,
      "george": 578,
      "flor": 579,
      "florence": 580,
      "than": 581,
      "alex": 582,
      "tony": 583,
      "she": 584,
      "alhaji": 585,
      "rabiu": 586,
      "bukola": 587,
      "chid": 588,
      "usi": 589,
      "mat": 590,
      "chika": 591,
      "dayo": 592,
      "monday": 593,
      "ocent": 594,
      "innocent": 595,
      "zu": 596,
      "sandra": 597,
      "ice": 598,
      "onso": 599,
      "enye": 600,
      "chinenye": 601,
      "afolabi": 602,
      "olayinka": 603,
      "thy": 604,
      "wola": 605,
      "azeez": 606,
      "be": 607,
      "kelvin": 608,
      "bam": 609,
      "bami": 610,
      "ag": 611,
      "uch": 612,
      "uchenna": 613,
      "oluchi": 614,
      "adeniyi": 615,
      "adele": 616,
      "oladi": 617,
      "des": 618,
      "fiu": 619,
      "yem": 620,
      "tee": 621,
      "oluwaseun": 622,
      "ajib": 623,
      "onyeka": 624,
      "gh": 625,
      "hamza": 626,
      "jane": 627,
      "brigh": 628,
      "bright": 629,
      "damil": 630,
      "damilola": 631,
      "rity": 632,
      "charity": 633,
      "abiola": 634,
      "jude": 635,
      "ini": 636,
      "funmilayo": 637,
      "rash": 638,
      "lucky": 639,
      "ayodele": 640,
      "shehu": 641,
      "mau": 642,
      "mike": 643,
      "ona": 644,
      "bunmi": 645,
      "ny": 646,
      "jimoh": 647,
      "sunny": 648,
      "kelechi": 649,
      "omola": 650,
      "isola": 651,
      "matthew": 652,
      "zo": 653,
      "inma": 654,
      "chidinma": 655,
      "mola": 656,
      "ademola": 657,
      "nasiru": 658,
      "vincent": 659,
      "good": 660,
      "olani": 661,
      "sadiq": 662,
      "augustine": 663,
      "siu": 664,
      "col": 665,
      "lins": 666,
      "collins": 667,
      "ebu": 668,
      "olanre": 669,
      "olanrewaju": 670,
      "lip": 671,
      "philip": 672,
      "prom": 673,
      "promise": 674,
      "mark": 675,
      "emma": 676,
      "nke": 677,
      "olawale": 678,
      "nkechi": 679,
      "bala": 680,
      "abra": 681,
      "abraham": 682,
      "oka": 683,
      "balo": 684,
      "balogun": 685,
      "christiana": 686,
      "jamil": 687,
      "jamilu": 688,
      "ustina": 689,
      "jani": 690,
      "ams": 691,
      "liams": 692,
      "williams": 693,
      "muk": 694,
      "tar": 695,
      "rachi": 696,
      "amarachi": 697,
      "jumo": 698,
      "hali": 699,
      "gods": 700,
      "ezeki": 701,
      "ezekiel": 702,
      "khadi": 703,
      "khadija": 704,
      "sham": 705,
      "shamsu": 706,
      "janet": 707,
      "pp": 708,
      "happ": 709,
      "iness": 710,
      "happiness": 711,
      "abo": 712,
      "zy": 713,
      "zzy": 714,
      "dre": 715,
      "andre": 716,
      "andrew": 717,
      "rence": 718,
      "lawrence": 719,
      "dan": 720,
      "tina": 721,
      "adenike": 722,
      "rta": 723,
      "murta": 724,
      "simon": 725,
      "murtala": 726,
      "ruka": 727,
      "mothy": 728,
      "timothy": 729,
      "heed": 730,
      "saheed": 731,
      "ugochukwu": 732,
      "lian": 733,
      "lilian": 734,
      "titi": 735,
      "rak": 736,
      "barak": 737,
      "mubarak": 738,
      "mbola": 739,
      "abimbola": 740,
      "fun": 741,
      "ogechi": 742,
      "funke": 743,
      "kolawole": 744,
      "hus": 745,
      "hussa": 746,
      "rasheed": 747,
      "rosemary": 748,
      "wunmi": 749,
      "amos": 750,
      "olamide": 751,
      "sede": 752,
      "chinwe": 753,
      "uda": 754,
      "dauda": 755,
      "ange": 756,
      "yat": 757,
      "angela": 758,
      "loveth": 759,
      "kate": 760,
      "mma": 761,
      "hiru": 762,
      "oluwatoyin": 763,
      "wumi": 764,
      "chima": 765,
      "hab": 766,
      "mari": 767,
      "mariam": 768,
      "okechukwu": 769,
      "dupe": 770,
      "akan": 771,
      "austin": 772,
      "sali": 773,
      "olalekan": 774,
      "josephine": 775,
      "hadiza": 776,
      "eun": 777,
      "eunice": 778,
      "abdulka": 779,
      "dom": 780,
      "wis": 781,
      "wisdom": 782,
      "ake": 783,
      "abdulrah": 784,
      "akeem": 785,
      "abdulrahman": 786,
      "usa": 787,
      "sho": 788,
      "hope": 789,
      "kaze": 790,
      "ebuka": 791,
      "kazeem": 792,
      "olatunji": 793,
      "anas": 794,
      "jona": 795,
      "jonathan": 796,
      "jerry": 797,
      "nle": 798,
      "bolanle": 799,
      "tine": 800,
      "sha": 801,
      "don": 802,
      "ev": 803,
      "yn": 804,
      "elyn": 805,
      "sanusi": 806,
      "kabir": 807,
      "evelyn": 808,
      "oluwakemi": 809,
      "iy": 810,
      "adeleke": 811,
      "ment": 812,
      "clement": 813,
      "nwa": 814,
      "alabi": 815,
      "julius": 816,
      "jumoke": 817,
      "amdi": 818,
      "nnamdi": 819,
      "linda": 820,
      "yetunde": 821,
      "doris": 822,
      "chukwudi": 823,
      "ndu": 824,
      "halima": 825,
      "okafor": 826,
      "ayomide": 827,
      "sola": 828,
      "latee": 829,
      "fide": 830,
      "lateef": 831,
      "abiga": 832,
      "abigail": 833,
      "kwo": 834,
      "ddeen": 835,
      "felicia": 836,
      "basi": 837,
      "chuks": 838,
      "kareem": 839,
      "chigozi": 840,
      "chigozie": 841,
      "nneka": 842,
      "hussaini": 843,
      "fsa": 844,
      "hafsa": 845,
      "hafsat": 846,
      "cob": 847,
      "jacob": 848,
      "fest": 849,
      "rba": 850,
      "garba": 851,
      "festus": 852,
      "tolu": 853,
      "ina": 854,
      "thoma": 855,
      "chinonso": 856,
      "thomas": 857,
      "ori": 858,
      "chiamaka": 859,
      "wasiu": 860,
      "isra": 861,
      "israel": 862,
      "owola": 863,
      "owolabi": 864,
      "nan": 865,
      "nancy": 866,
      "heem": 867,
      "ibraheem": 868,
      "nel": 869,
      "chis": 870,
      "adams": 871,
      "nelson": 872,
      "chisom": 873,
      "chiji": 874,
      "oluwatosin": 875,
      "reen": 876,
      "maureen": 877,
      "chijioke": 878,
      "martin": 879,
      "martins": 880,
      "titilayo": 881,
      "ken": 882,
      "seun": 883,
      "kene": 884,
      "christy": 885,
      "rat": 886,
      "kenny": 887,
      "eji": 888,
      "gel": 889,
      "uju": 890,
      "angel": 891,
      "agbo": 892,
      "egun": 893,
      "olusegun": 894,
      "joel": 895,
      "ify": 896,
      "joyce": 897,
      "ron": 898,
      "ronke": 899,
      "china": 900,
      "olola": 901,
      "bamidele": 902,
      "lizzy": 903,
      "ca": 904,
      "ica": 905,
      "ssica": 906,
      "jessica": 907,
      "gb": 908,
      "joke": 909,
      "lope": 910,
      "endu": 911,
      "oluwafemi": 912,
      "shuaibu": 913,
      "chidimma": 914,
      "cas": 915,
      "dorcas": 916,
      "hola": 917,
      "deon": 918,
      "gideon": 919,
      "olajide": 920,
      "olabisi": 921,
      "adebisi": 922,
      "wan": 923,
      "azu": 924,
      "patricia": 925,
      "edith": 926,
      "fe": 927,
      "mah": 928,
      "tiny": 929,
      "destiny": 930,
      "kiru": 931,
      "gr": 932,
      "engr": 933,
      "omolara": 934,
      "tola": 935,
      "justina": 936,
      "fee": 937,
      "zie": 938,
      "ayu": 939,
      "ayuba": 940,
      "salihu": 941,
      "ne": 942,
      "goodne": 943,
      "abbas": 944,
      "bolaji": 945,
      "abosede": 946,
      "gani": 947,
      "yemisi": 948,
      "ogun": 949,
      "okeke": 950,
      "modupe": 951,
      "akinola": 952,
      "luk": 953,
      "ayodeji": 954,
      "lukman": 955,
      "maman": 956,
      "judith": 957,
      "nest": 958,
      "shi": 959,
      "ernest": 960,
      "bil": 961,
      "mathew": 962,
      "olai": 963,
      "marga": 964,
      "ret": 965,
      "nasir": 966,
      "margaret": 967,
      "idu": 968,
      "saidu": 969,
      "chukwuemeka": 970,
      "austine": 971,
      "will": 972,
      "shade": 973,
      "folashade": 974,
      "olusola": 975,
      "angi": 976,
      "babangi": 977,
      "babangida": 978,
      "dy": 979,
      "gla": 980,
      "racle": 981,
      "miracle": 982,
      "nuhu": 983,
      "dys": 984,
      "gladys": 985,
      "lazeez": 986,
      "abayo": 987,
      "abdulazeez": 988,
      "abayomi": 989,
      "oyin": 990,
      "sade": 991,
      "leye": 992,
      "hari": 993,
      "buhari": 994,
      "tochukwu": 995,
      "shola": 996,
      "buisi": 997,
      "omotayo": 998,
      "ndubuisi": 999,
      "ann": 1000,
      "adebo": 1001,
      "dir": 1002,
      "abdulkadir": 1003,
      "jah": 1004,
      "elijah": 1005,
      "ko": 1006,
      "okon": 1007,
      "aded": 1008,
      "chukwuma": 1009,
      "gwe": 1010,
      "igwe": 1011,
      "ik": 1012,
      "ikenna": 1013,
      "sel": 1014,
      "oladele": 1015,
      "olufemi": 1016,
      "rosel": 1017,
      "roseline": 1018,
      "rapha": 1019,
      "raphael": 1020,
      "ung": 1021,
      "young": 1022,
      "chizo": 1023,
      "chizoba": 1024,
      "dar": 1025,
      "iu": 1026,
      "abdulra": 1027,
      "jamiu": 1028,
      "auwalu": 1029,
      "onyinyechi": 1030,
      "olayemi": 1031,
      "chibuike": 1032,
      "taju": 1033,
      "tajudeen": 1034,
      "ekene": 1035,
      "hd": 1036,
      "adedeji": 1037,
      "muhd": 1038,
      "rudeen": 1039,
      "nurudeen": 1040,
      "eniola": 1041,
      "lv": 1042,
      "sy": 1043,
      "yeni": 1044,
      "ester": 1045,
      "lvester": 1046,
      "sylvester": 1047,
      "ede": 1048,
      "alola": 1049,
      "babalola": 1050,
      "chidiebere": 1051,
      "htar": 1052,
      "mukhtar": 1053,
      "adebi": 1054,
      "ogo": 1055,
      "tijani": 1056,
      "ogochukwu": 1057,
      "abdulsala": 1058,
      "obong": 1059,
      "nwachukwu": 1060,
      "abdulsalam": 1061,
      "olor": 1062,
      "olorun": 1063,
      "ban": 1064,
      "dahiru": 1065,
      "olumide": 1066,
      "aminat": 1067,
      "love": 1068,
      "ius": 1069,
      "pius": 1070,
      "olami": 1071,
      "fatai": 1072,
      "olamilekan": 1073,
      "lawan": 1074,
      "ishaq": 1075,
      "adeoye": 1076,
      "oro": 1077,
      "okoro": 1078,
      "olaniyi": 1079,
      "becky": 1080,
      "ssy": 1081,
      "tessy": 1082,
      "ora": 1083,
      "fre": 1084,
      "mud": 1085,
      "mahmud": 1086,
      "onia": 1087,
      "anthonia": 1088,
      "nnenna": 1089,
      "salami": 1090,
      "lus": 1091,
      "racheal": 1092,
      "tus": 1093,
      "gwu": 1094,
      "ili": 1095,
      "ugwu": 1096,
      "iliya": 1097,
      "lis": 1098,
      "fidelis": 1099,
      "ajibola": 1100,
      "sey": 1101,
      "bassey": 1102,
      "meji": 1103,
      "oladimeji": 1104,
      "ejike": 1105,
      "osa": 1106,
      "yun": 1107,
      "yunusa": 1108,
      "alhassan": 1109,
      "dge": 1110,
      "zor": 1111,
      "hamisu": 1112,
      "jibrin": 1113,
      "chibuzor": 1114,
      "bridge": 1115,
      "tolulope": 1116,
      "bridget": 1117,
      "demi": 1118,
      "adeyem": 1119,
      "adeyemo": 1120,
      "didi": 1121,
      "omolola": 1122,
      "nafiu": 1123,
      "aishat": 1124,
      "suleman": 1125,
      "iyke": 1126,
      "jamila": 1127,
      "adego": 1128,
      "ayoola": 1129,
      "adegoke": 1130,
      "juma": 1131,
      "danjuma": 1132,
      "bose": 1133,
      "adedayo": 1134,
      "emiah": 1135,
      "jeremiah": 1136,
      "olait": 1137,
      "mond": 1138,
      "desmond": 1139,
      "danla": 1140,
      "olaitan": 1141,
      "vine": 1142,
      "divine": 1143,
      "timi": 1144,
      "rotimi": 1145,
      "adesin": 1146,
      "adesina": 1147,
      "nonso": 1148,
      "adeyinka": 1149,
      "goodness": 1150,
      "arin": 1151,
      "olatunde": 1152,
      "ayobami": 1153,
      "arinze": 1154,
      "ntine": 1155,
      "vale": 1156,
      "valentine": 1157,
      "olubunmi": 1158,
      "ogb": 1159,
      "onna": 1160,
      "ogbonna": 1161,
      "uz": 1162,
      "uzoma": 1163,
      "okoye": 1164,
      "olaide": 1165,
      "sanni": 1166,
      "ude": 1167,
      "audu": 1168,
      "nna": 1169,
      "eeb": 1170,
      "udu": 1171,
      "uduak": 1172,
      "chime": 1173,
      "oluwaseyi": 1174,
      "chimezie": 1175,
      "sunusi": 1176,
      "wel": 1177,
      "xwel": 1178,
      "maxwel": 1179,
      "akande": 1180,
      "maxwell": 1181,
      "omowunmi": 1182,
      "olayi": 1183,
      "olayiwola": 1184,
      "jus": 1185,
      "oluwole": 1186,
      "tice": 1187,
      "justice": 1188,
      "maila": 1189,
      "haja": 1190,
      "samaila": 1191,
      "hajara": 1192,
      "iah": 1193,
      "isaiah": 1194,
      "bakare": 1195,
      "ismaila": 1196,
      "jjani": 1197,
      "elo": 1198,
      "tijjani": 1199,
      "chinelo": 1200,
      "kgod": 1201,
      "thankgod": 1202,
      "yomi": 1203,
      "akinyemi": 1204,
      "mali": 1205,
      "seyi": 1206,
      "abdulmali": 1207,
      "abdulmalik": 1208,
      "lanre": 1209,
      "muktar": 1210,
      "imon": 1211,
      "raji": 1212,
      "sulaimon": 1213,
      "ganiyu": 1214,
      "pra": 1215,
      "buchi": 1216,
      "damila": 1217,
      "onyebuchi": 1218,
      "praise": 1219,
      "damilare": 1220,
      "onyekachi": 1221,
      "rukayat": 1222,
      "nkiru": 1223,
      "mansu": 1224,
      "mansur": 1225,
      "han": 1226,
      "kem": 1227,
      "nkem": 1228,
      "oni": 1229,
      "agboola": 1230,
      "godswill": 1231,
      "yinwa": 1232,
      "ifeyinwa": 1233,
      "olajumoke": 1234,
      "dat": 1235,
      "ibe": 1236,
      "okey": 1237,
      "ugochi": 1238,
      "sadiya": 1239,
      "bong": 1240,
      "ubong": 1241,
      "etz": 1242,
      "my": 1243,
      "rachael": 1244,
      "adebola": 1245,
      "poola": 1246,
      "popoola": 1247,
      "shafiu": 1248,
      "emem": 1249,
      "adeg": 1250,
      "okonkwo": 1251,
      "ky": 1252,
      "bukky": 1253,
      "wendu": 1254,
      "chinwendu": 1255,
      "folake": 1256,
      "habi": 1257,
      "kisu": 1258,
      "ttu": 1259,
      "mayo": 1260,
      "kalu": 1261,
      "shittu": 1262,
      "bilkisu": 1263,
      "habiba": 1264,
      "mayowa": 1265,
      "dare": 1266,
      "eben": 1267,
      "ezer": 1268,
      "ebenezer": 1269,
      "adebowale": 1270,
      "adetunji": 1271,
      "folorun": 1272,
      "adewumi": 1273,
      "khadijat": 1274,
      "olabo": 1275,
      "adesh": 1276,
      "amadi": 1277,
      "oko": 1278,
      "olabode": 1279,
      "adeshina": 1280,
      "ifeoluwa": 1281,
      "chinasa": 1282,
      "ishola": 1283,
      "mosho": 1284,
      "moshood": 1285,
      "ayeni": 1286,
      "jisola": 1287,
      "mojisola": 1288,
      "adeniran": 1289,
      "luck": 1290,
      "goodluck": 1291,
      "matu": 1292,
      "rayo": 1293,
      "motun": 1294,
      "benson": 1295,
      "motunrayo": 1296,
      "ogechukwu": 1297,
      "aderonke": 1298,
      "diq": 1299,
      "sodiq": 1300,
      "abdulraza": 1301,
      "okol": 1302,
      "gam": 1303,
      "pu": 1304,
      "joice": 1305,
      "anie": 1306,
      "rejoice": 1307,
      "oluwasegun": 1308,
      "oladipu": 1309,
      "gambo": 1310,
      "oladipupo": 1311,
      "olasun": 1312,
      "adesola": 1313,
      "ril": 1314,
      "kanmi": 1315,
      "jibril": 1316,
      "adaeze": 1317,
      "olasunkanmi": 1318,
      "cel": 1319,
      "estine": 1320,
      "fatee": 1321,
      "celestine": 1322,
      "nwan": 1323,
      "enike": 1324,
      "nwankwo": 1325,
      "dick": 1326,
      "mohd": 1327,
      "dickson": 1328,
      "aka": 1329,
      "adejoke": 1330,
      "isiaka": 1331,
      "uchechukwu": 1332,
      "adeleye": 1333,
      "basiru": 1334,
      "kole": 1335,
      "bankole": 1336,
      "lola": 1337,
      "funmilola": 1338,
      "chibueze": 1339,
      "mmi": 1340,
      "ummi": 1341,
      "shamsuddeen": 1342,
      "adedoyin": 1343,
      "yanu": 1344,
      "oby": 1345,
      "dera": 1346,
      "chidera": 1347,
      "asmau": 1348,
      "ashiru": 1349,
      "ajoke": 1350,
      "adepo": 1351,
      "adepoju": 1352,
      "ajibade": 1353,
      "afee": 1354,
      "afeez": 1355,
      "bin": 1356,
      "binta": 1357,
      "wf": 1358,
      "ezinn": 1359,
      "ezinne": 1360,
      "oyewole": 1361,
      "aishatu": 1362,
      "habibu": 1363,
      "osas": 1364,
      "olakunle": 1365,
      "efe": 1366,
      "abdulkareem": 1367,
      "dmus": 1368,
      "badmus": 1369,
      "orji": 1370,
      "omowumi": 1371,
      "bashiru": 1372,
      "aliu": 1373,
      "eu": 1374,
      "charia": 1375,
      "godfre": 1376,
      "uchechi": 1377,
      "chinaza": 1378,
      "eucharia": 1379,
      "godfrey": 1380,
      "wer": 1381,
      "abdulrasheed": 1382,
      "power": 1383,
      "godspower": 1384,
      "abidemi": 1385,
      "im": 1386,
      "maim": 1387,
      "augustina": 1388,
      "maimuna": 1389,
      "jun": 1390,
      "ujun": 1391,
      "ujunwa": 1392,
      "ofee": 1393,
      "taofee": 1394,
      "taofeek": 1395,
      "adeniji": 1396,
      "dwan": 1397,
      "ridwan": 1398,
      "odunayo": 1399,
      "per": 1400,
      "pros": 1401,
      "hassana": 1402,
      "prosper": 1403,
      "folasade": 1404,
      "olada": 1405,
      "iyabo": 1406,
      "oladapo": 1407,
      "abbakar": 1408,
      "adebiyi": 1409,
      "anyan": 1410,
      "olaleye": 1411,
      "danladi": 1412,
      "anyanwu": 1413,
      "anya": 1414,
      "unanya": 1415,
      "ifunanya": 1416,
      "ar": 1417,
      "sabiu": 1418,
      "emu": 1419,
      "aremu": 1420,
      "inu": 1421,
      "saminu": 1422,
      "olushola": 1423,
      "olori": 1424,
      "ling": 1425,
      "ton": 1426,
      "darling": 1427,
      "darlington": 1428,
      "ogunleye": 1429,
      "ese": 1430,
      "izu": 1431,
      "sagi": 1432,
      "yusif": 1433,
      "izuchukwu": 1434,
      "sagir": 1435,
      "gan": 1436,
      "babagan": 1437,
      "babagana": 1438,
      "bus": 1439,
      "busayo": 1440,
      "eq": 1441,
      "yya": 1442,
      "rance": 1443,
      "rukayya": 1444,
      "endurance": 1445,
      "sadeeq": 1446,
      "abbe": 1447,
      "olufunke": 1448,
      "agu": 1449,
      "abbey": 1450,
      "chibuzo": 1451,
      "amaechi": 1452,
      "njo": 1453,
      "njoku": 1454,
      "maga": 1455,
      "magaji": 1456,
      "osi": 1457,
      "ophi": 1458,
      "temitayo": 1459,
      "theophi": 1460,
      "alade": 1461,
      "habeeb": 1462,
      "nnaemeka": 1463,
      "osita": 1464,
      "theophilus": 1465,
      "rasa": 1466,
      "rasaq": 1467,
      "adaobi": 1468,
      "olaniyan": 1469,
      "kari": 1470,
      "zakari": 1471,
      "adesan": 1472,
      "udeme": 1473,
      "adesanya": 1474,
      "saada": 1475,
      "raheem": 1476,
      "saadatu": 1477,
      "tasiu": 1478,
      "adewole": 1479,
      "tune": 1480,
      "alh": 1481,
      "fortune": 1482,
      "obiora": 1483,
      "oseni": 1484,
      "otun": 1485,
      "akintunde": 1486,
      "otunba": 1487,
      "remi": 1488,
      "aderemi": 1489,
      "hamid": 1490,
      "abdulhamid": 1491,
      "rufai": 1492,
      "ezeh": 1493,
      "cletus": 1494,
      "ozi": 1495,
      "alao": 1496,
      "ozioma": 1497,
      "adi": 1498,
      "saif": 1499,
      "bukar": 1500,
      "ullahi": 1501,
      "oladipo": 1502,
      "adigun": 1503,
      "saifullahi": 1504,
      "iyi": 1505,
      "muazu": 1506,
      "omoniyi": 1507,
      "ebel": 1508,
      "okori": 1509,
      "ajiboye": 1510,
      "ebele": 1511,
      "okorie": 1512,
      "olare": 1513,
      "tobi": 1514,
      "oluwatobi": 1515,
      "olarewaju": 1516,
      "uth": 1517,
      "kafa": 1518,
      "adewunmi": 1519,
      "uthman": 1520,
      "kafayat": 1521,
      "olugbenga": 1522,
      "iliyasu": 1523,
      "fon": 1524,
      "mfon": 1525,
      "alaba": 1526,
      "shaibu": 1527,
      "hon": 1528,
      "amola": 1529,
      "damola": 1530,
      "oyindamola": 1531,
      "daramola": 1532,
      "edidi": 1533,
      "murita": 1534,
      "edidiong": 1535,
      "muritala": 1536,
      "yusuff": 1537,
      "ukun": 1538,
      "ibukun": 1539,
      "bosede": 1540,
      "omotola": 1541,
      "akindele": 1542,
      "bahu": 1543,
      "esit": 1544,
      "emmanuella": 1545,
      "musbahu": 1546,
      "idong": 1547,
      "idongesit": 1548,
      "ayin": 1549,
      "tuk": 1550,
      "ayinde": 1551,
      "tukur": 1552,
      "chizzy": 1553,
      "con": 1554,
      "nce": 1555,
      "rus": 1556,
      "trus": 1557,
      "uka": 1558,
      "maka": 1559,
      "biodun": 1560,
      "bitrus": 1561,
      "fidence": 1562,
      "confidence": 1563,
      "ukamaka": 1564,
      "nwo": 1565,
      "rim": 1566,
      "abdulkarim": 1567,
      "nwosu": 1568,
      "akanbi": 1569,
      "iru": 1570,
      "rafiu": 1571,
      "bairu": 1572,
      "nazi": 1573,
      "sikiru": 1574,
      "umaru": 1575,
      "zubairu": 1576,
      "naziru": 1577,
      "dri": 1578,
      "qua": 1579,
      "zif": 1580,
      "nazif": 1581,
      "quadri": 1582,
      "nazifi": 1583,
      "anayo": 1584,
      "olaoluwa": 1585,
      "wahab": 1586,
      "abdulwahab": 1587,
      "tosho": 1588,
      "omotosho": 1589,
      "adeko": 1590,
      "adekoya": 1591,
      "dora": 1592,
      "onyi": 1593,
      "nwafor": 1594,
      "dorathy": 1595,
      "eh": 1596,
      "ameh": 1597,
      "oloye": 1598,
      "tochi": 1599,
      "momoh": 1600,
      "oloyede": 1601,
      "bisola": 1602,
      "eke": 1603,
      "fisa": 1604,
      "nafisa": 1605,
      "nafisat": 1606,
      "emisola": 1607,
      "chinonye": 1608,
      "buike": 1609,
      "okun": 1610,
      "gbemisola": 1611,
      "azubuike": 1612,
      "adedokun": 1613,
      "dona": 1614,
      "chukwuebuka": 1615,
      "donatus": 1616,
      "nonye": 1617,
      "yaminu": 1618,
      "rashi": 1619,
      "bilyaminu": 1620,
      "rashidat": 1621,
      "mpe": 1622,
      "raddeen": 1623,
      "haraddeen": 1624,
      "zaharaddeen": 1625,
      "adebimpe": 1626,
      "scha": 1627,
      "pascha": 1628,
      "paschal": 1629,
      "time": 1630,
      "godstime": 1631,
      "opa": 1632,
      "chukwuka": 1633,
      "opara": 1634,
      "oha": 1635,
      "uoha": 1636,
      "onuoha": 1637,
      "ishaku": 1638,
      "omobolanle": 1639,
      "afolayan": 1640,
      "natu": 1641,
      "hannatu": 1642,
      "cce": 1643,
      "kinde": 1644,
      "makinde": 1645,
      "saka": 1646,
      "succe": 1647,
      "hamzat": 1648,
      "success": 1649,
      "obasi": 1650,
      "niyi": 1651,
      "kv": 1652,
      "ng": 1653,
      "kvng": 1654,
      "doka": 1655,
      "udoka": 1656,
      "atin": 1657,
      "ndidi": 1658,
      "uke": 1659,
      "wab": 1660,
      "oluwab": 1661,
      "bulus": 1662,
      "atinuke": 1663,
      "oluwabunmi": 1664,
      "nwe": 1665,
      "okoh": 1666,
      "nweke": 1667,
      "nki": 1668,
      "akinwale": 1669,
      "nkiruka": 1670,
      "chike": 1671,
      "yau": 1672,
      "ololade": 1673,
      "viour": 1674,
      "saviour": 1675,
      "temidayo": 1676,
      "omolade": 1677,
      "dejo": 1678,
      "oladeji": 1679,
      "oladejo": 1680,
      "rajo": 1681,
      "muyi": 1682,
      "surajo": 1683,
      "folorunsho": 1684,
      "muyiwa": 1685,
      "adeboye": 1686,
      "godson": 1687,
      "taiye": 1688,
      "udeen": 1689,
      "yega": 1690,
      "boyega": 1691,
      "obioma": 1692,
      "salaudeen": 1693,
      "ganiyat": 1694,
      "adegboyega": 1695,
      "ari": 1696,
      "olaoye": 1697,
      "ariyo": 1698,
      "kelomo": 1699,
      "kikelomo": 1700,
      "olanike": 1701,
      "dola": 1702,
      "princewill": 1703,
      "kolade": 1704,
      "okoli": 1705,
      "dolapo": 1706,
      "ozie": 1707,
      "sse": 1708,
      "adetola": 1709,
      "blesse": 1710,
      "surat": 1711,
      "monsurat": 1712,
      "chidozie": 1713,
      "blessed": 1714,
      "meen": 1715,
      "alameen": 1716,
      "saliu": 1717,
      "ejiro": 1718,
      "fateema": 1719,
      "osun": 1720,
      "uoluwa": 1721,
      "anuoluwa": 1722,
      "adeosun": 1723,
      "dike": 1724,
      "anuoluwapo": 1725,
      "ima": 1726,
      "imaobong": 1727,
      "madu": 1728,
      "muhammadu": 1729,
      "halimat": 1730,
      "ile": 1731,
      "adeye": 1732,
      "yahu": 1733,
      "dammy": 1734,
      "sanmi": 1735,
      "ilesanmi": 1736,
      "adeyeye": 1737,
      "yahuza": 1738,
      "abdulrazak": 1739,
      "titilope": 1740,
      "tem": 1741,
      "onah": 1742,
      "tiu": 1743,
      "mutiu": 1744,
      "jumma": 1745,
      "temmy": 1746,
      "jummai": 1747,
      "masi": 1748,
      "haman": 1749,
      "bada": 1750,
      "abdulrahaman": 1751,
      "badamasi": 1752,
      "olawunmi": 1753,
      "shamsudeen": 1754,
      "ratu": 1755,
      "adetu": 1756,
      "saratu": 1757,
      "ishaya": 1758,
      "adetutu": 1759,
      "oluchukwu": 1760,
      "biola": 1761,
      "hauwau": 1762,
      "salamatu": 1763,
      "ndi": 1764,
      "uoma": 1765,
      "safi": 1766,
      "ufuoma": 1767,
      "akintola": 1768,
      "freke": 1769,
      "ndifreke": 1770,
      "safiyanu": 1771,
      "ige": 1772,
      "mman": 1773,
      "ome": 1774,
      "mamman": 1775,
      "adekola": 1776,
      "onome": 1777,
      "ifeanyichukwu": 1778,
      "alhaja": 1779,
      "abuchi": 1780,
      "at": 1781,
      "gbu": 1782,
      "ogbu": 1783,
      "adeban": 1784,
      "erif": 1785,
      "sherif": 1786,
      "odina": 1787,
      "adebanjo": 1788,
      "sherifat": 1789,
      "odinaka": 1790,
      "ume": 1791,
      "adejumo": 1792,
      "ajala": 1793,
      "umeh": 1794,
      "habu": 1795,
      "renike": 1796,
      "isyaku": 1797,
      "morenike": 1798,
      "oyedele": 1799,
      "morenikeji": 1800,
      "uw": 1801,
      "uba": 1802,
      "adeyan": 1803,
      "taye": 1804,
      "bite": 1805,
      "adegbite": 1806,
      "uwem": 1807,
      "adeyanju": 1808,
      "gbola": 1809,
      "orede": 1810,
      "akorede": 1811,
      "drack": 1812,
      "shedrack": 1813,
      "gbolahan": 1814,
      "dirat": 1815,
      "kudirat": 1816,
      "onyema": 1817,
      "iniobong": 1818,
      "ws": 1819,
      "abisola": 1820,
      "olatun": 1821,
      "bosun": 1822,
      "giwa": 1823,
      "ajao": 1824,
      "goodnews": 1825,
      "edet": 1826,
      "olatunbosun": 1827,
      "njide": 1828,
      "tie": 1829,
      "edeh": 1830,
      "aniekan": 1831,
      "anietie": 1832,
      "njideka": 1833,
      "olagun": 1834,
      "olagunju": 1835,
      "folu": 1836,
      "ito": 1837,
      "foluke": 1838,
      "itoro": 1839,
      "busa": 1840,
      "ebube": 1841,
      "busari": 1842,
      "oyeni": 1843,
      "pan": 1844,
      "adedi": 1845,
      "abdullateef": 1846,
      "oluwayemisi": 1847,
      "akpan": 1848,
      "ogundele": 1849,
      "oyeniyi": 1850,
      "adediran": 1851,
      "lati": 1852,
      "ramatu": 1853,
      "haji": 1854,
      "fat": 1855,
      "babajide": 1856,
      "latifat": 1857,
      "hajiya": 1858,
      "anuju": 1859,
      "olubukola": 1860,
      "folarin": 1861,
      "obianuju": 1862,
      "boluwa": 1863,
      "ef": 1864,
      "sisi": 1865,
      "lasisi": 1866,
      "tife": 1867,
      "fiong": 1868,
      "olaiya": 1869,
      "boluwatife": 1870,
      "effiong": 1871,
      "rab": 1872,
      "adewu": 1873,
      "ayoade": 1874,
      "eedat": 1875,
      "gie": 1876,
      "rasheedat": 1877,
      "balarab": 1878,
      "osagie": 1879,
      "adewuyi": 1880,
      "balarabe": 1881,
      "uzo": 1882,
      "abioye": 1883,
      "basirat": 1884,
      "uzoamaka": 1885,
      "isioma": 1886,
      "gbe": 1887,
      "aderi": 1888,
      "adetayo": 1889,
      "duru": 1890,
      "bigbe": 1891,
      "nuraddeen": 1892,
      "kenechukwu": 1893,
      "aderibigbe": 1894,
      "nsi": 1895,
      "emenike": 1896,
      "kak": 1897,
      "oluwadamilola": 1898,
      "akanni": 1899,
      "nsikak": 1900,
      "bidemi": 1901,
      "udeh": 1902,
      "hussaina": 1903,
      "eoma": 1904,
      "komola": 1905,
      "odi": 1906,
      "olawumi": 1907,
      "nneoma": 1908,
      "comr": 1909,
      "komolafe": 1910,
      "odion": 1911,
      "oluyemi": 1912,
      "folorunso": 1913,
      "abdulrazaq": 1914,
      "ekun": 1915,
      "ekundayo": 1916,
      "oluwadamilare": 1917,
      "usaini": 1918,
      "nduka": 1919,
      "azuka": 1920,
      "oriyomi": 1921,
      "danlami": 1922,
      "bolarin": 1923,
      "christianah": 1924,
      "olorunfemi": 1925,
      "bolarinwa": 1926,
      "heeb": 1927,
      "nw": 1928,
      "toheeb": 1929,
      "abueze": 1930,
      "nnaji": 1931,
      "nwabueze": 1932,
      "imoh": 1933,
      "dipe": 1934,
      "uko": 1935,
      "yushau": 1936,
      "aluko": 1937,
      "idoko": 1938,
      "ogundipe": 1939,
      "baje": 1940,
      "agbaje": 1941,
      "kuf": 1942,
      "yyanu": 1943,
      "zayyanu": 1944,
      "kufre": 1945,
      "pel": 1946,
      "umi": 1947,
      "enobong": 1948,
      "oluwafunmilayo": 1949,
      "oyeyemi": 1950,
      "okolo": 1951,
      "pelumi": 1952,
      "ihu": 1953,
      "unyi": 1954,
      "ihuoma": 1955,
      "unyime": 1956,
      "olukayode": 1957,
      "chimaobi": 1958,
      "ibeh": 1959,
      "fateemah": 1960,
      "aro": 1961,
      "wol": 1962,
      "arowol": 1963,
      "arowolo": 1964,
      "ai": 1965,
      "oss": 1966,
      "enyin": 1967,
      "orenyin": 1968,
      "idorenyin": 1969,
      "folakemi": 1970,
      "kirat": 1971,
      "shakirat": 1972,
      "ossai": 1973
    },
    "merges": [
      "m a",
      "l a",
      "i n",
      "c h",
      "d e",
      "a m",
      "a n",
      "a b",
      "e l",
      "o la",
      "u n",
      "l e",
      "i s",
      "r a",
      "e m",
      "e n",
      "u s",
      "k a",
      "a de",
      "o n",
      "h a",
      "b a",
      "j o",
      "t h",
      "ch i",
      "w a",
      "h i",
      "d a",
      "e r",
      "ma n",
      "o l",
      "r i",
      "k e",
      "c e",
      "m i",
      "d u",
      "h am",
      "s e",
      "y o",
      "s s",
      "l i",
      "t o",
      "u el",
      "ma r",
      "m o",
      "v i",
      "d i",
      "u k",
      "i b",
      "t a",
      "s a",
      "ol u",
      "t i",
      "w u",
      "m u",
      "em i",
      "p e",
      "ab du",
      "abdu l",
      "p r",
      "g o",
      "m e",
      "j i",
      "i f",
      "e s",
      "o r",
      "y e",
      "ch uk",
      "ib ra",
      "ab i",
      "in g",
      "ka r",
      "ch a",
      "chuk wu",
      "em man",
      "emman uel",
      "f a",
      "hi m",
      "ibra him",
      "ab u",
      "j u",
      "r u",
      "me d",
      "ma d",
      "y a",
      "y i",
      "an i",
      "ba kar",
      "mu ham",
      "p h",
      "s am",
      "a h",
      "o ma",
      "r is",
      "ch in",
      "o m",
      "abu bakar",
      "m us",
      "da y",
      "h n",
      "jo hn",
      "n a",
      "s h",
      "b i",
      "s un",
      "olu wa",
      "p a",
      "mar y",
      "b le",
      "in ce",
      "pr ince",
      "t un",
      "l o",
      "j am",
      "ss ing",
      "ble ssing",
      "t in",
      "y in",
      "s u",
      "b u",
      "z e",
      "d am",
      "c to",
      "vi cto",
      "ch ris",
      "muham mad",
      "i l",
      "a yo",
      "r e",
      "g e",
      "w o",
      "sam uel",
      "z a",
      "a li",
      "la hi",
      "s i",
      "am in",
      "y us",
      "u mar",
      "jo se",
      "jose ph",
      "jo y",
      "if e",
      "u f",
      "abdul lahi",
      "sun day",
      "s t",
      "c y",
      "ch e",
      "s on",
      "y emi",
      "yus uf",
      "a l",
      "el i",
      "y u",
      "n i",
      "a dam",
      "g un",
      "da vi",
      "davi d",
      "b o",
      "wa l",
      "mus a",
      "ham med",
      "th er",
      "go d",
      "es ther",
      "us man",
      "is ha",
      "tun de",
      "r an",
      "ri a",
      "a ma",
      "c i",
      "cha el",
      "o d",
      "un mi",
      "t er",
      "e e",
      "b en",
      "e ka",
      "z i",
      "j a",
      "i d",
      "en ce",
      "e th",
      "a k",
      "c k",
      "a u",
      "d ani",
      "dani el",
      "r o",
      "victo r",
      "mi chael",
      "b ola",
      "g a",
      "b ab",
      "le y",
      "mo hammed",
      "ra h",
      "pe ter",
      "i t",
      "ali yu",
      "ha ss",
      "hass an",
      "e ze",
      "cha r",
      "f ran",
      "on y",
      "ta i",
      "is i",
      "en n",
      "a isha",
      "jam es",
      "wa le",
      "us tin",
      "em eka",
      "p ha",
      "de le",
      "m on",
      "amin u",
      "ba s",
      "is a",
      "o ke",
      "e t",
      "u r",
      "g ra",
      "gra ce",
      "r y",
      "er e",
      "f ola",
      "en t",
      "u che",
      "go zi",
      "i man",
      "u l",
      "it z",
      "o b",
      "h u",
      "s an",
      "e ci",
      "o us",
      "pr eci",
      "preci ous",
      "o ur",
      "in e",
      "ta pha",
      "mus tapha",
      "l or",
      "f emi",
      "p o",
      "o k",
      "n u",
      "u a",
      "ade ni",
      "m er",
      "s ani",
      "mer cy",
      "an th",
      "tai wo",
      "adam u",
      "od un",
      "fa i",
      "bab a",
      "ama ka",
      "pa ul",
      "ti ma",
      "fa tima",
      "v our",
      "ba yo",
      "fa vour",
      "ah mad",
      "o mo",
      "ti an",
      "chris tian",
      "f or",
      "an yi",
      "ife anyi",
      "b el",
      "k ing",
      "s ley",
      "king sley",
      "sh ua",
      "o ye",
      "ju li",
      "victo ria",
      "chi oma",
      "e z",
      "w in",
      "god win",
      "i ke",
      "fai th",
      "su le",
      "k un",
      "k el",
      "is u",
      "k abi",
      "om on",
      "j e",
      "k u",
      "mary am",
      "ro se",
      "ak in",
      "to pe",
      "ade bayo",
      "f eli",
      "se s",
      "mo ses",
      "bel lo",
      "h en",
      "hen ry",
      "kun le",
      "ah med",
      "de en",
      "f i",
      "anth ony",
      "la wal",
      "k an",
      "en na",
      "n gozi",
      "c ent",
      "le s",
      "char les",
      "o pe",
      "au wal",
      "t emi",
      "k i",
      "n n",
      "a s",
      "mi de",
      "chi di",
      "on ye",
      "t u",
      "v in",
      "t ri",
      "pa tri",
      "abi odun",
      "s ol",
      "sol omon",
      "muham med",
      "in ab",
      "za inab",
      "yin ka",
      "f unmi",
      "bas hi",
      "j an",
      "in de",
      "prince ss",
      "is ma",
      "c is",
      "s in",
      "fran cis",
      "k enn",
      "to yin",
      "un a",
      "amin a",
      "j ib",
      "e ph",
      "st eph",
      "steph en",
      "wo le",
      "g i",
      "th e",
      "g if",
      "gif t",
      "oluwa se",
      "id ris",
      "ti ence",
      "pa tience",
      "i a",
      "o bi",
      "jo shua",
      "e du",
      "chin edu",
      "h inde",
      "ke hinde",
      "l u",
      "z ab",
      "eli zab",
      "ee d",
      "elizab eth",
      "che al",
      "t y",
      "a la",
      "ha di",
      "la yo",
      "mo h",
      "a ce",
      "a ja",
      "pe ace",
      "a c",
      "isa ac",
      "su la",
      "l in",
      "ze ez",
      "ife oma",
      "i la",
      "juli et",
      "bashi r",
      "e em",
      "a da",
      "el la",
      "st ella",
      "s o",
      "a le",
      "u go",
      "temi tope",
      "le kan",
      "w e",
      "ya ku",
      "chi bu",
      "k emi",
      "c le",
      "r una",
      "ha runa",
      "h el",
      "hel en",
      "the w",
      "o ge",
      "na si",
      "nu ra",
      "b uk",
      "on g",
      "ustin e",
      "g ab",
      "ol us",
      "ri el",
      "gab riel",
      "ha u",
      "kabi ru",
      "ri ta",
      "ha ya",
      "ya haya",
      "isma il",
      "sam son",
      "k ola",
      "b ri",
      "sule iman",
      "ab ba",
      "ck y",
      "w il",
      "t e",
      "ru th",
      "vi an",
      "vi vian",
      "g lor",
      "glor y",
      "feli x",
      "to sin",
      "m hi",
      "mhi z",
      "in n",
      "y ere",
      "abi u",
      "chin yere",
      "i je",
      "ije oma",
      "john son",
      "b isi",
      "l isu",
      "sa lisu",
      "baba tunde",
      "g lo",
      "glo ria",
      "fran k",
      "b ere",
      "e bere",
      "ka yo",
      "kayo de",
      "patri ck",
      "yaku bu",
      "ade yemi",
      "o s",
      "ta yo",
      "la w",
      "e en",
      "q u",
      "qu een",
      "c om",
      "hau wa",
      "sa la",
      "j enn",
      "if er",
      "jenn ifer",
      "d or",
      "is ah",
      "al ha",
      "f ri",
      "fri day",
      "n re",
      "is e",
      "lo v",
      "aja yi",
      "sa di",
      "ci a",
      "tun ji",
      "a fola",
      "d ra",
      "de ji",
      "o wu",
      "id owu",
      "ope yemi",
      "sa rah",
      "en i",
      "ade kunle",
      "sula iman",
      "es t",
      "jam in",
      "ben jamin",
      "n th",
      "cy nth",
      "cynth ia",
      "y an",
      "o jo",
      "e chi",
      "se gun",
      "ri char",
      "richar d",
      "ade wale",
      "to ph",
      "chris toph",
      "ike chukwu",
      "christoph er",
      "au g",
      "ade ola",
      "mi cheal",
      "an ley",
      "st anley",
      "in na",
      "ob inna",
      "kenn eth",
      "for t",
      "com fort",
      "ji de",
      "de bo",
      "debo rah",
      "j er",
      "p hi",
      "di th",
      "r in",
      "ib u",
      "on yin",
      "onyin ye",
      "wa ju",
      "g ben",
      "gben ga",
      "or ge",
      "ge orge",
      "f lor",
      "flor ence",
      "th an",
      "ale x",
      "t ony",
      "sh e",
      "alha ji",
      "r abiu",
      "buk ola",
      "chi d",
      "us i",
      "ma t",
      "chi ka",
      "da yo",
      "mon day",
      "o cent",
      "inn ocent",
      "z u",
      "san dra",
      "i ce",
      "on so",
      "en ye",
      "chin enye",
      "afola bi",
      "ola yinka",
      "th y",
      "w ola",
      "a zeez",
      "b e",
      "kel vin",
      "b am",
      "bam i",
      "a g",
      "u ch",
      "uch enna",
      "olu chi",
      "adeni yi",
      "ade le",
      "ola di",
      "de s",
      "fi u",
      "y em",
      "t ee",
      "oluwase un",
      "a jib",
      "onye ka",
      "g h",
      "ham za",
      "jan e",
      "bri gh",
      "brigh t",
      "dam il",
      "damil ola",
      "ri ty",
      "cha rity",
      "abi ola",
      "ju de",
      "in i",
      "funmi layo",
      "ra sh",
      "lu cky",
      "ayo dele",
      "she hu",
      "ma u",
      "mi ke",
      "on a",
      "b unmi",
      "n y",
      "ji moh",
      "sun ny",
      "kel echi",
      "om ola",
      "is ola",
      "mat thew",
      "z o",
      "in ma",
      "chid inma",
      "m ola",
      "ade mola",
      "nasi ru",
      "vin cent",
      "go od",
      "ola ni",
      "sadi q",
      "aug ustine",
      "si u",
      "c ol",
      "lin s",
      "col lins",
      "e bu",
      "ola nre",
      "olanre waju",
      "li p",
      "phi lip",
      "pr om",
      "prom ise",
      "mar k",
      "em ma",
      "n ke",
      "ola wale",
      "nke chi",
      "ba la",
      "ab ra",
      "abra ham",
      "o ka",
      "ba lo",
      "balo gun",
      "christian a",
      "jam il",
      "jamil u",
      "ustin a",
      "j ani",
      "am s",
      "li ams",
      "wil liams",
      "m uk",
      "ta r",
      "ra chi",
      "ama rachi",
      "ju mo",
      "ha li",
      "god s",
      "eze ki",
      "ezeki el",
      "k hadi",
      "khadi ja",
      "s ham",
      "sham su",
      "jan et",
      "p p",
      "ha pp",
      "ine ss",
      "happ iness",
      "ab o",
      "z y",
      "z zy",
      "d re",
      "an dre",
      "andre w",
      "r ence",
      "law rence",
      "d an",
      "tin a",
      "adeni ke",
      "r ta",
      "mu rta",
      "si mon",
      "murta la",
      "ru ka",
      "mo thy",
      "ti mothy",
      "h eed",
      "sa heed",
      "ugo chukwu",
      "li an",
      "li lian",
      "ti ti",
      "ra k",
      "ba rak",
      "mu barak",
      "m bola",
      "abi mbola",
      "f un",
      "oge chi",
      "fun ke",
      "kola wole",
      "h us",
      "hus sa",
      "rash eed",
      "rose mary",
      "w unmi",
      "am os",
      "ola mide",
      "se de",
      "chin we",
      "u da",
      "da uda",
      "an ge",
      "ya t",
      "ange la",
      "lov eth",
      "ka te",
      "m ma",
      "hi ru",
      "oluwa toyin",
      "wu mi",
      "chi ma",
      "h ab",
      "ma ri",
      "mari am",
      "oke chukwu",
      "du pe",
      "ak an",
      "a ustin",
      "sa li",
      "ola lekan",
      "joseph ine",
      "hadi za",
      "e un",
      "eun ice",
      "abdul ka",
      "d om",
      "w is",
      "wis dom",
      "a ke",
      "abdul rah",
      "ake em",
      "abdulrah man",
      "us a",
      "sh o",
      "h ope",
      "ka ze",
      "ebu ka",
      "kaze em",
      "ola tunji",
      "an as",
      "j ona",
      "jona than",
      "jer ry",
      "n le",
      "bola nle",
      "tin e",
      "s ha",
      "d on",
      "e v",
      "y n",
      "el yn",
      "san usi",
      "kabi r",
      "ev elyn",
      "oluwa kemi",
      "i y",
      "adele ke",
      "m ent",
      "cle ment",
      "n wa",
      "ala bi",
      "juli us",
      "jumo ke",
      "am di",
      "nn amdi",
      "lin da",
      "ye tunde",
      "dor is",
      "chukwu di",
      "n du",
      "hali ma",
      "oka for",
      "ayo mide",
      "s ola",
      "la tee",
      "fi de",
      "latee f",
      "abi ga",
      "abiga il",
      "k wo",
      "d deen",
      "feli cia",
      "ba si",
      "chuk s",
      "kar eem",
      "chi gozi",
      "chigozi e",
      "nn eka",
      "hussa ini",
      "f sa",
      "ha fsa",
      "hafsa t",
      "c ob",
      "ja cob",
      "f est",
      "r ba",
      "ga rba",
      "fest us",
      "t olu",
      "in a",
      "th oma",
      "chin onso",
      "thoma s",
      "o ri",
      "chi amaka",
      "wa siu",
      "is ra",
      "isra el",
      "o wola",
      "owola bi",
      "n an",
      "nan cy",
      "h eem",
      "ibra heem",
      "n el",
      "ch is",
      "adam s",
      "nel son",
      "chis om",
      "chi ji",
      "oluwa tosin",
      "re en",
      "mau reen",
      "chiji oke",
      "mar tin",
      "martin s",
      "titi layo",
      "k en",
      "se un",
      "ken e",
      "chris ty",
      "ra t",
      "kenn y",
      "e ji",
      "g el",
      "u ju",
      "an gel",
      "ag bo",
      "e gun",
      "olus egun",
      "jo el",
      "if y",
      "joy ce",
      "r on",
      "ron ke",
      "chin a",
      "ol ola",
      "bami dele",
      "li zzy",
      "c a",
      "i ca",
      "ss ica",
      "je ssica",
      "g b",
      "jo ke",
      "lo pe",
      "en du",
      "oluwa femi",
      "shua ibu",
      "chidi mma",
      "c as",
      "dor cas",
      "h ola",
      "de on",
      "gi deon",
      "ola jide",
      "ola bisi",
      "ade bisi",
      "w an",
      "a zu",
      "patri cia",
      "e dith",
      "f e",
      "ma h",
      "tin y",
      "des tiny",
      "ki ru",
      "g r",
      "en gr",
      "omola ra",
      "t ola",
      "j ustina",
      "f ee",
      "zi e",
      "a yu",
      "ayu ba",
      "sali hu",
      "n e",
      "good ne",
      "ab bas",
      "bola ji",
      "abo sede",
      "g ani",
      "yem isi",
      "o gun",
      "oke ke",
      "mo dupe",
      "akin ola",
      "l uk",
      "ayo deji",
      "luk man",
      "ma man",
      "ju dith",
      "n est",
      "s hi",
      "er nest",
      "bi l",
      "ma thew",
      "ola i",
      "mar ga",
      "re t",
      "nasi r",
      "marga ret",
      "i du",
      "sa idu",
      "chukwu emeka",
      "a ustine",
      "wil l",
      "sh ade",
      "fola shade",
      "olus ola",
      "an gi",
      "bab angi",
      "babangi da",
      "d y",
      "g la",
      "ra cle",
      "mi racle",
      "nu hu",
      "dy s",
      "gla dys",
      "la zeez",
      "ab ayo",
      "abdu lazeez",
      "abayo mi",
      "o yin",
      "s ade",
      "le ye",
      "ha ri",
      "bu hari",
      "to chukwu",
      "sh ola",
      "bu isi",
      "omo tayo",
      "ndu buisi",
      "an n",
      "ade bo",
      "di r",
      "abdulka dir",
      "j ah",
      "eli jah",
      "k o",
      "ok on",
      "ade d",
      "chukwu ma",
      "g we",
      "i gwe",
      "i k",
      "ik enna",
      "s el",
      "ola dele",
      "olu femi",
      "ro sel",
      "rosel ine",
      "ra pha",
      "rapha el",
      "un g",
      "yo ung",
      "chi zo",
      "chizo ba",
      "da r",
      "i u",
      "abdul ra",
      "jam iu",
      "auwal u",
      "onyinye chi",
      "ola yemi",
      "chibu ike",
      "ta ju",
      "taju deen",
      "e kene",
      "h d",
      "ade deji",
      "mu hd",
      "ru deen",
      "nu rudeen",
      "eni ola",
      "l v",
      "s y",
      "y eni",
      "es ter",
      "lv ester",
      "sy lvester",
      "e de",
      "al ola",
      "bab alola",
      "chidi ebere",
      "h tar",
      "muk htar",
      "ade bi",
      "o go",
      "ti jani",
      "ogo chukwu",
      "abdul sala",
      "ob ong",
      "nwa chukwu",
      "abdulsala m",
      "ol or",
      "olor un",
      "b an",
      "da hiru",
      "olu mide",
      "amina t",
      "lov e",
      "i us",
      "p ius",
      "ola mi",
      "fa tai",
      "olami lekan",
      "law an",
      "isha q",
      "ade oye",
      "or o",
      "ok oro",
      "olani yi",
      "be cky",
      "ss y",
      "te ssy",
      "o ra",
      "f re",
      "mu d",
      "mah mud",
      "on ia",
      "anth onia",
      "nn enna",
      "sala mi",
      "l us",
      "ra cheal",
      "t us",
      "g wu",
      "i li",
      "u gwu",
      "ili ya",
      "l is",
      "fide lis",
      "ajib ola",
      "se y",
      "bas sey",
      "me ji",
      "oladi meji",
      "eji ke",
      "o sa",
      "y un",
      "yun usa",
      "al hassan",
      "d ge",
      "z or",
      "ham isu",
      "jib rin",
      "chibu zor",
      "bri dge",
      "tolu lope",
      "bridge t",
      "de mi",
      "ade yem",
      "adeyem o",
      "di di",
      "om olola",
      "na fiu",
      "aisha t",
      "sule man",
      "iy ke",
      "jam ila",
      "ade go",
      "ayo ola",
      "adego ke",
      "ju ma",
      "dan juma",
      "bo se",
      "ade dayo",
      "emi ah",
      "jer emiah",
      "ola it",
      "mon d",
      "des mond",
      "dan la",
      "olait an",
      "v ine",
      "di vine",
      "ti mi",
      "ro timi",
      "ade sin",
      "adesin a",
      "n onso",
      "ade yinka",
      "goodne ss",
      "a rin",
      "ola tunde",
      "ayo bami",
      "arin ze",
      "n tine",
      "v ale",
      "vale ntine",
      "olu bunmi",
      "o gb",
      "on na",
      "ogb onna",
      "u z",
      "uz oma",
      "ok oye",
      "olai de",
      "san ni",
      "u de",
      "au du",
      "n na",
      "ee b",
      "u du",
      "udu ak",
      "chi me",
      "oluwase yi",
      "chime zie",
      "sun usi",
      "w el",
      "x wel",
      "ma xwel",
      "akan de",
      "maxwel l",
      "omo wunmi",
      "ola yi",
      "olayi wola",
      "j us",
      "olu wole",
      "ti ce",
      "jus tice",
      "ma ila",
      "ha ja",
      "sa maila",
      "haja ra",
      "i ah",
      "isa iah",
      "bakar e",
      "isma ila",
      "j jani",
      "el o",
      "ti jjani",
      "chin elo",
      "k god",
      "than kgod",
      "yo mi",
      "akin yemi",
      "ma li",
      "se yi",
      "abdul mali",
      "abdulmali k",
      "la nre",
      "muk tar",
      "i mon",
      "ra ji",
      "sula imon",
      "gani yu",
      "p ra",
      "bu chi",
      "dam ila",
      "onye buchi",
      "pra ise",
      "damila re",
      "onyeka chi",
      "ruka yat",
      "n kiru",
      "man su",
      "mansu r",
      "h an",
      "k em",
      "n kem",
      "on i",
      "agbo ola",
      "gods will",
      "yin wa",
      "ife yinwa",
      "ola jumoke",
      "da t",
      "ib e",
      "oke y",
      "ugo chi",
      "sadi ya",
      "b ong",
      "u bong",
      "et z",
      "m y",
      "ra chael",
      "ade bola",
      "po ola",
      "po poola",
      "sha fiu",
      "em em",
      "ade g",
      "okon kwo",
      "k y",
      "buk ky",
      "w endu",
      "chin wendu",
      "fola ke",
      "h abi",
      "k isu",
      "t tu",
      "ma yo",
      "ka lu",
      "shi ttu",
      "bil kisu",
      "habi ba",
      "mayo wa",
      "da re",
      "e ben",
      "ez er",
      "eben ezer",
      "adebo wale",
      "ade tunji",
      "f olorun",
      "ade wumi",
      "khadija t",
      "ola bo",
      "ade sh",
      "ama di",
      "ok o",
      "olabo de",
      "adesh ina",
      "ife oluwa",
      "china sa",
      "is hola",
      "mo sho",
      "mosho od",
      "a yeni",
      "j isola",
      "mo jisola",
      "adeni ran",
      "lu ck",
      "good luck",
      "ma tu",
      "ra yo",
      "mo tun",
      "ben son",
      "motun rayo",
      "oge chukwu",
      "ade ronke",
      "di q",
      "so diq",
      "abdulra za",
      "ok ol",
      "g am",
      "p u",
      "jo ice",
      "ani e",
      "re joice",
      "oluwase gun",
      "oladi pu",
      "gam bo",
      "oladipu po",
      "ola sun",
      "ade sola",
      "ri l",
      "kan mi",
      "jib ril",
      "ada eze",
      "olasun kanmi",
      "c el",
      "es tine",
      "fa tee",
      "cel estine",
      "n wan",
      "en ike",
      "nwan kwo",
      "di ck",
      "moh d",
      "dick son",
      "a ka",
      "ade joke",
      "isi aka",
      "uche chukwu",
      "adele ye",
      "basi ru",
      "ko le",
      "ban kole",
      "l ola",
      "funmi lola",
      "chibu eze",
      "m mi",
      "u mmi",
      "shamsu ddeen",
      "aded oyin",
      "yan u",
      "ob y",
      "de ra",
      "chi dera",
      "as mau",
      "as hiru",
      "a joke",
      "ade po",
      "adepo ju",
      "ajib ade",
      "a fee",
      "afee z",
      "b in",
      "bin ta",
      "w f",
      "ez inn",
      "ezinn e",
      "oye wole",
      "aisha tu",
      "hab ibu",
      "osa s",
      "ola kunle",
      "e fe",
      "abdul kareem",
      "d mus",
      "ba dmus",
      "or ji",
      "omo wumi",
      "bashi ru",
      "ali u",
      "e u",
      "cha ria",
      "god fre",
      "uche chi",
      "china za",
      "eu charia",
      "godfre y",
      "w er",
      "abdul rasheed",
      "po wer",
      "gods power",
      "abi demi",
      "i m",
      "ma im",
      "aug ustina",
      "maim una",
      "j un",
      "u jun",
      "ujun wa",
      "o fee",
      "ta ofee",
      "taofee k",
      "adeni ji",
      "d wan",
      "ri dwan",
      "odun ayo",
      "p er",
      "pr os",
      "hassan a",
      "pros per",
      "fola sade",
      "ola da",
      "iy abo",
      "olada po",
      "ab bakar",
      "adebi yi",
      "an yan",
      "ola leye",
      "danla di",
      "anyan wu",
      "an ya",
      "un anya",
      "if unanya",
      "a r",
      "s abiu",
      "em u",
      "ar emu",
      "in u",
      "sam inu",
      "olus hola",
      "ol ori",
      "l ing",
      "t on",
      "dar ling",
      "darling ton",
      "ogun leye",
      "e se",
      "i zu",
      "sa gi",
      "yus if",
      "izu chukwu",
      "sagi r",
      "g an",
      "baba gan",
      "babagan a",
      "b us",
      "bus ayo",
      "e q",
      "y ya",
      "ran ce",
      "ruka yya",
      "endu rance",
      "sade eq",
      "ab be",
      "olu funke",
      "ag u",
      "abbe y",
      "chibu zo",
      "ama echi",
      "n jo",
      "njo ku",
      "ma ga",
      "maga ji",
      "o si",
      "o phi",
      "temi tayo",
      "the ophi",
      "ala de",
      "hab eeb",
      "nna emeka",
      "osi ta",
      "theophi lus",
      "ra sa",
      "rasa q",
      "ada obi",
      "olani yan",
      "ka ri",
      "za kari",
      "ade san",
      "ude me",
      "adesan ya",
      "sa ada",
      "rah eem",
      "saada tu",
      "ta siu",
      "ade wole",
      "tun e",
      "al h",
      "for tune",
      "obi ora",
      "os eni",
      "o tun",
      "akin tunde",
      "otun ba",
      "r emi",
      "ade remi",
      "ham id",
      "abdul hamid",
      "ru fai",
      "eze h",
      "cle tus",
      "o zi",
      "ala o",
      "ozi oma",
      "a di",
      "sa if",
      "bu kar",
      "ul lahi",
      "oladi po",
      "adi gun",
      "saif ullahi",
      "i yi",
      "mu azu",
      "omon iyi",
      "e bel",
      "ok ori",
      "ajib oye",
      "ebel e",
      "okori e",
      "ola re",
      "to bi",
      "oluwa tobi",
      "olare waju",
      "u th",
      "ka fa",
      "ade wunmi",
      "uth man",
      "kafa yat",
      "olu gbenga",
      "iliya su",
      "f on",
      "m fon",
      "ala ba",
      "sha ibu",
      "h on",
      "am ola",
      "dam ola",
      "oyin damola",
      "dar amola",
      "e didi",
      "mu rita",
      "edidi ong",
      "murita la",
      "yusuf f",
      "uk un",
      "ib ukun",
      "bo sede",
      "omo tola",
      "akin dele",
      "ba hu",
      "es it",
      "emmanuel la",
      "mus bahu",
      "id ong",
      "idong esit",
      "a yin",
      "t uk",
      "ayin de",
      "tuk ur",
      "chi zzy",
      "c on",
      "n ce",
      "r us",
      "t rus",
      "u ka",
      "ma ka",
      "bi odun",
      "bi trus",
      "fide nce",
      "con fidence",
      "uka maka",
      "n wo",
      "ri m",
      "abdulka rim",
      "nwo su",
      "akan bi",
      "i ru",
      "ra fiu",
      "ba iru",
      "na zi",
      "si kiru",
      "umar u",
      "zu bairu",
      "nazi ru",
      "d ri",
      "q ua",
      "z if",
      "na zif",
      "qua dri",
      "nazif i",
      "an ayo",
      "ola oluwa",
      "wa hab",
      "abdul wahab",
      "to sho",
      "omo tosho",
      "ade ko",
      "adeko ya",
      "d ora",
      "on yi",
      "nwa for",
      "dora thy",
      "e h",
      "am eh",
      "ol oye",
      "to chi",
      "mo moh",
      "oloye de",
      "b isola",
      "e ke",
      "f isa",
      "na fisa",
      "nafisa t",
      "em isola",
      "chin onye",
      "bu ike",
      "ok un",
      "gb emisola",
      "azu buike",
      "aded okun",
      "d ona",
      "chukwu ebuka",
      "dona tus",
      "n onye",
      "y aminu",
      "ra shi",
      "bil yaminu",
      "rashi dat",
      "m pe",
      "ra ddeen",
      "ha raddeen",
      "za haraddeen",
      "adebi mpe",
      "s cha",
      "pa scha",
      "pascha l",
      "ti me",
      "gods time",
      "o pa",
      "chukwu ka",
      "opa ra",
      "o ha",
      "u oha",
      "on uoha",
      "isha ku",
      "omo bolanle",
      "afola yan",
      "na tu",
      "han natu",
      "c ce",
      "k inde",
      "ma kinde",
      "sa ka",
      "su cce",
      "hamza t",
      "succe ss",
      "o basi",
      "ni yi",
      "k v",
      "n g",
      "kv ng",
      "d oka",
      "u doka",
      "a tin",
      "n didi",
      "u ke",
      "w ab",
      "olu wab",
      "bu lus",
      "atin uke",
      "oluwab unmi",
      "n we",
      "oko h",
      "nwe ke",
      "n ki",
      "akin wale",
      "nki ruka",
      "chi ke",
      "ya u",
      "olola de",
      "vi our",
      "sa viour",
      "temi dayo",
      "omola de",
      "de jo",
      "ola deji",
      "ola dejo",
      "ra jo",
      "mu yi",
      "su rajo",
      "folorun sho",
      "muyi wa",
      "adebo ye",
      "god son",
      "tai ye",
      "u deen",
      "ye ga",
      "bo yega",
      "obi oma",
      "sala udeen",
      "gani yat",
      "adeg boyega",
      "a ri",
      "ola oye",
      "ari yo",
      "kel omo",
      "ki kelomo",
      "olani ke",
      "d ola",
      "prince will",
      "kola de",
      "okol i",
      "dola po",
      "o zie",
      "s se",
      "ade tola",
      "ble sse",
      "su rat",
      "mon surat",
      "chid ozie",
      "blesse d",
      "me en",
      "ala meen",
      "sali u",
      "eji ro",
      "fatee ma",
      "o sun",
      "u oluwa",
      "an uoluwa",
      "ade osun",
      "di ke",
      "anuoluwa po",
      "i ma",
      "ima obong",
      "ma du",
      "muham madu",
      "hali mat",
      "i le",
      "ade ye",
      "ya hu",
      "dam my",
      "san mi",
      "ile sanmi",
      "adeye ye",
      "yahu za",
      "abdulraza k",
      "titi lope",
      "t em",
      "on ah",
      "ti u",
      "mu tiu",
      "ju mma",
      "tem my",
      "jumma i",
      "ma si",
      "ha man",
      "ba da",
      "abdulra haman",
      "bada masi",
      "ola wunmi",
      "shamsu deen",
      "ra tu",
      "ade tu",
      "sa ratu",
      "isha ya",
      "adetu tu",
      "olu chukwu",
      "bi ola",
      "hauwa u",
      "sala matu",
      "n di",
      "u oma",
      "sa fi",
      "uf uoma",
      "akin tola",
      "fre ke",
      "ndi freke",
      "safi yanu",
      "i ge",
      "m man",
      "o me",
      "ma mman",
      "ade kola",
      "on ome",
      "ifeanyi chukwu",
      "alha ja",
      "abu chi",
      "a t",
      "g bu",
      "o gbu",
      "ade ban",
      "er if",
      "sh erif",
      "od ina",
      "adeban jo",
      "sherif at",
      "odina ka",
      "u me",
      "ade jumo",
      "aja la",
      "ume h",
      "h abu",
      "r enike",
      "is yaku",
      "mo renike",
      "oye dele",
      "morenike ji",
      "u w",
      "u ba",
      "ade yan",
      "ta ye",
      "bi te",
      "adeg bite",
      "uw em",
      "adeyan ju",
      "g bola",
      "or ede",
      "ak orede",
      "dra ck",
      "she drack",
      "gbola han",
      "di rat",
      "ku dirat",
      "onye ma",
      "ini obong",
      "w s",
      "ab isola",
      "ola tun",
      "bo sun",
      "gi wa",
      "aja o",
      "goodne ws",
      "ede t",
      "olatun bosun",
      "n jide",
      "ti e",
      "ede h",
      "anie kan",
      "anie tie",
      "njide ka",
      "ola gun",
      "olagun ju",
      "f olu",
      "i to",
      "folu ke",
      "ito ro",
      "b usa",
      "ebu be",
      "busa ri",
      "o yeni",
      "p an",
      "ade di",
      "abdul lateef",
      "oluwa yemisi",
      "ak pan",
      "ogun dele",
      "oyeni yi",
      "adedi ran",
      "la ti",
      "ra matu",
      "ha ji",
      "fa t",
      "baba jide",
      "lati fat",
      "haji ya",
      "an uju",
      "olu bukola",
      "fola rin",
      "obi anuju",
      "b oluwa",
      "e f",
      "s isi",
      "la sisi",
      "ti fe",
      "fi ong",
      "olai ya",
      "boluwa tife",
      "ef fiong",
      "r ab",
      "ade wu",
      "ayo ade",
      "ee dat",
      "gi e",
      "rash eedat",
      "bala rab",
      "osa gie",
      "adewu yi",
      "balarab e",
      "u zo",
      "abi oye",
      "basi rat",
      "uzo amaka",
      "isi oma",
      "g be",
      "ade ri",
      "ade tayo",
      "du ru",
      "bi gbe",
      "nura ddeen",
      "kene chukwu",
      "aderi bigbe",
      "n si",
      "em enike",
      "ka k",
      "oluwa damilola",
      "akan ni",
      "nsi kak",
      "bi demi",
      "ude h",
      "hussa ina",
      "e oma",
      "k omola",
      "o di",
      "ola wumi",
      "nn eoma",
      "com r",
      "komola fe",
      "odi on",
      "olu yemi",
      "folorun so",
      "abdulraza q",
      "e kun",
      "ekun dayo",
      "oluwa damilare",
      "usa ini",
      "ndu ka",
      "azu ka",
      "ori yomi",
      "danla mi",
      "bola rin",
      "christian ah",
      "olorun femi",
      "bolarin wa",
      "h eeb",
      "n w",
      "to heeb",
      "abu eze",
      "nna ji",
      "nw abueze",
      "i moh",
      "di pe",
      "uk o",
      "yus hau",
      "al uko",
      "id oko",
      "ogun dipe",
      "ba je",
      "ag baje",
      "k uf",
      "y yanu",
      "za yyanu",
      "kuf re",
      "p el",
      "u mi",
      "en obong",
      "oluwa funmilayo",
      "oye yemi",
      "okol o",
      "pel umi",
      "i hu",
      "un yi",
      "ihu oma",
      "unyi me",
      "olu kayode",
      "chima obi",
      "ibe h",
      "fatee mah",
      "a ro",
      "w ol",
      "aro wol",
      "arowol o",
      "a i",
      "o ss",
      "en yin",
      "or enyin",
      "id orenyin",
      "fola kemi",
      "ki rat",
      "sha kirat",
      "oss ai"
    ]
  }
}