{
  "version": "1.0",
  "truncation": null,
  "padding": null,
  "added_tokens": [
    {
      "id": 0,
      "content": "[UNK]",
      "single_word": false,
      "lstrip": false,
      "rstrip": false,
      "normalized": false,
      "special": true
    },
    {
      "id": 1,
      "content": "[CLS]",
      "single_word": false,
      "lstrip": false,
      "rstrip": false,
      "normalized": false,
      "special": true
    },
    {
      "id": 2,
      "content": "[SEP]",
      "single_word": false,
      "lstrip": false,
      "rstrip": false,
      "normalized": false,
      "special": true
    },
    {
      "id": 3,
      "content": "[PAD]",
      "single_word": false,
      "lstrip": false,
      "rstrip": false,
      "normalized": false,
      "special": true
    },
    {
      "id": 4,
      "content": "[MASK]",
      "single_word": false,
      "lstrip": false,
      "rstrip": false,
      "normalized": false,
      "special": true
    }
  ],
  "normalizer": null,
  "pre_tokenizer": {
    "type": "Whitespace"
  },
  "post_processor": null,
  "decoder": null,
  "model": {
    "type": "BPE",
    "dropout": null,
    "unk_token": "[UNK]",
    "continuing_subword_prefix": null,
    "end_of_word_suffix": null,
    "fuse_unk": false,
    "vocab": {
      "[UNK]": 0,
      "[CLS]": 1,
      "[SEP]": 2,
      "[PAD]": 3,
      "[MASK]": 4,
      "-": 5,
      "a": 6,
      "b": 7,
      "c": 8,
      "d": 9,
      "e": 10,
      "f": 11,
      "g": 12,
      "h": 13,
      "i": 14,
      "j": 15,
      "k": 16,
      "l": 17,
      "m": 18,
      "n": 19,
      "o": 20,
      "p": 21,
      "q": 22,
      "r": 23,
      "s": 24,
      "t": 25,
      "u": 26,
      "v": 27,
      "w": 28,
      "x": 29,
      "y": 30,
      "z": 31,
      "an": 32,
      "ar": 33,
      "in": 34,
      "er": 35,
      "el": 36,
      "en": 37,
      "ri": 38,
      "mar": 39,
      "st": 40,
      "ch": 41,
      "jo": 42,
      "ma": 43,
      "ann": 44,
      "on": 45,
      "ie": 46,
      "le": 47,
      "and": 48,
      "ia": 49,
      "th": 50,
      "mi": 51,
      "re": 52,
      "ra": 53,
      "as": 54,
      "et": 55,
      "il": 56,
      "am": 57,
      "is": 58,
      "ke": 59,
      "al": 60,
      "la": 61,
      "ic": 62,
      "ka": 63,
      "ina": 64,
      "da": 65,
      "ro": 66,
      "us": 67,
      "es": 68,
      "chri": 69,
      "im": 70,
      "ja": 71,
      "ian": 72,
      "ul": 73,
      "or": 74,
      "ine": 75,
      "ste": 76,
      "pa": 77,
      "ol": 78,
      "joh": 79,
      "mich": 80,
      "pet": 81,
      "christ": 82,
      "anna": 83,
      "anne": 84,
      "dan": 85,
      "enn": 86,
      "tt": 87,
      "ph": 88,
      "jan": 89,
      "andre": 90,
      "iel": 91,
      "car": 92,
      "ab": 93,
      "ber": 94,
      "lo": 95,
      "to": 96,
      "se": 97,
      "ael": 98,
      "na": 99,
      "kar": 100,
      "peter": 101,
      "daniel": 102,
      "ik": 103,
      "ara": 104,
      "marc": 105,
      "mart": 106,
      "id": 107,
      "michael": 108,
      "ale": 109,
      "lin": 110,
      "ger": 111,
      "nic": 112,
      "ck": 113,
      "dav": 114,
      "mas": 115,
      "alex": 116,
      "bert": 117,
      "stef": 118,
      "ir": 119,
      "em": 120,
      "ed": 121,
      "mark": 122,
      "ander": 123,
      "ne": 124,
      "ry": 125,
      "ly": 126,
      "char": 127,
      "ud": 128,
      "te": 129,
      "ran": 130,
      "tho": 131,
      "mari": 132,
      "sara": 133,
      "thomas": 134,
      "tri": 135,
      "ca": 136,
      "ena": 137,
      "ge": 138,
      "ias": 139,
      "fran": 140,
      "david": 141,
      "paul": 142,
      "mon": 143,
      "john": 144,
      "andra": 145,
      "be": 146,
      "stefan": 147,
      "lu": 148,
      "patri": 149,
      "jor": 150,
      "martin": 151,
      "har": 152,
      "jam": 153,
      "maria": 154,
      "wil": 155,
      "fre": 156,
      "ren": 157,
      "ad": 158,
      "hel": 159,
      "isa": 160,
      "andreas": 161,
      "ica": 162,
      "hen": 163,
      "han": 164,
      "mo": 165,
      "jul": 166,
      "vin": 167,
      "ben": 168,
      "rob": 169,
      "rik": 170,
      "sa": 171,
      "ton": 172,
      "jenn": 173,
      "johan": 174,
      "ce": 175,
      "nico": 176,
      "je": 177,
      "mat": 178,
      "ang": 179,
      "ham": 180,
      "fred": 181,
      "marie": 182,
      "co": 183,
      "ika": 184,
      "christian": 185,
      "ev": 186,
      "ta": 187,
      "emma": 188,
      "sandra": 189,
      "ha": 190,
      "tom": 191,
      "ela": 192,
      "man": 193,
      "gu": 194,
      "he": 195,
      "jes": 196,
      "robert": 197,
      "ter": 198,
      "so": 199,
      "sus": 200,
      "sim": 201,
      "simon": 202,
      "kat": 203,
      "chris": 204,
      "de": 205,
      "lau": 206,
      "sam": 207,
      "gi": 208,
      "qu": 209,
      "per": 210,
      "ur": 211,
      "ast": 212,
      "ven": 213,
      "art": 214,
      "hans": 215,
      "cla": 216,
      "iv": 217,
      "lisa": 218,
      "lar": 219,
      "linda": 220,
      "karin": 221,
      "steph": 222,
      "ell": 223,
      "sarah": 224,
      "frank": 225,
      "jon": 226,
      "ley": 227,
      "gn": 228,
      "ise": 229,
      "do": 230,
      "mad": 231,
      "ette": 232,
      "tte": 233,
      "erik": 234,
      "andy": 235,
      "carol": 236,
      "elle": 237,
      "ing": 238,
      "bri": 239,
      "kim": 240,
      "richar": 241,
      "richard": 242,
      "ron": 243,
      "ig": 244,
      "tim": 245,
      "stin": 246,
      "anja": 247,
      "ah": 248,
      "gar": 249,
      "jess": 250,
      "mel": 251,
      "ker": 252,
      "ij": 253,
      "mil": 254,
      "eva": 255,
      "dy": 256,
      "anda": 257,
      "my": 258,
      "moham": 259,
      "kevin": 260,
      "anders": 261,
      "patrick": 262,
      "sab": 263,
      "lars": 264,
      "ali": 265,
      "denn": 266,
      "ru": 267,
      "bast": 268,
      "laura": 269,
      "las": 270,
      "alexander": 271,
      "james": 272,
      "tta": 273,
      "sten": 274,
      "anie": 275,
      "ip": 276,
      "dennis": 277,
      "ny": 278,
      "petra": 279,
      "the": 280,
      "jose": 281,
      "rid": 282,
      "phil": 283,
      "eth": 284,
      "bo": 285,
      "tor": 286,
      "nicole": 287,
      "jenny": 288,
      "sta": 289,
      "max": 290,
      "lou": 291,
      "lie": 292,
      "kri": 293,
      "fer": 294,
      "matt": 295,
      "marcel": 296,
      "onne": 297,
      "julia": 298,
      "hanna": 299,
      "nick": 300,
      "jessica": 301,
      "bar": 302,
      "fredrik": 303,
      "jack": 304,
      "isab": 305,
      "tob": 306,
      "eli": 307,
      "nath": 308,
      "yv": 309,
      "ve": 310,
      "gun": 311,
      "mu": 312,
      "gen": 313,
      "mike": 314,
      "sebast": 315,
      "christo": 316,
      "jorn": 317,
      "lena": 318,
      "rene": 319,
      "jas": 320,
      "marco": 321,
      "adam": 322,
      "markus": 323,
      "ther": 324,
      "que": 325,
      "su": 326,
      "nat": 327,
      "sven": 328,
      "geor": 329,
      "jos": 330,
      "jonas": 331,
      "mika": 332,
      "yvonne": 333,
      "anny": 334,
      "min": 335,
      "bjorn": 336,
      "mir": 337,
      "os": 338,
      "lia": 339,
      "sof": 340,
      "cor": 341,
      "sebastian": 342,
      "oliv": 343,
      "cy": 344,
      "andrea": 345,
      "med": 346,
      "fa": 347,
      "yl": 348,
      "thias": 349,
      "ria": 350,
      "jen": 351,
      "helen": 352,
      "lotte": 353,
      "susanne": 354,
      "jer": 355,
      "her": 356,
      "kath": 357,
      "me": 358,
      "ju": 359,
      "tobias": 360,
      "vic": 361,
      "robin": 362,
      "bir": 363,
      "oen": 364,
      "udia": 365,
      "henk": 366,
      "ris": 367,
      "liam": 368,
      "magn": 369,
      "magnus": 370,
      "rian": 371,
      "alie": 372,
      "krist": 373,
      "nik": 374,
      "ijn": 375,
      "claudia": 376,
      "ike": 377,
      "marcus": 378,
      "mikael": 379,
      "birgi": 380,
      "soph": 381,
      "tina": 382,
      "nad": 383,
      "kerstin": 384,
      "michelle": 385,
      "fri": 386,
      "lf": 387,
      "johanna": 388,
      "bec": 389,
      "ique": 390,
      "ga": 391,
      "eline": 392,
      "caroline": 393,
      "gab": 394,
      "malin": 395,
      "ola": 396,
      "louise": 397,
      "dian": 398,
      "no": 399,
      "ald": 400,
      "ita": 401,
      "rin": 402,
      "philip": 403,
      "ki": 404,
      "christoph": 405,
      "sas": 406,
      "anita": 407,
      "charlotte": 408,
      "joe": 409,
      "arina": 410,
      "barb": 411,
      "jens": 412,
      "andrew": 413,
      "ver": 414,
      "die": 415,
      "ith": 416,
      "joa": 417,
      "nathan": 418,
      "bra": 419,
      "dir": 420,
      "cal": 421,
      "tony": 422,
      "jur": 423,
      "pie": 424,
      "christina": 425,
      "sabine": 426,
      "flo": 427,
      "ulri": 428,
      "via": 429,
      "rebec": 430,
      "manu": 431,
      "elie": 432,
      "christine": 433,
      "dirk": 434,
      "ou": 435,
      "ingrid": 436,
      "illa": 437,
      "den": 438,
      "jim": 439,
      "danny": 440,
      "steve": 441,
      "kla": 442,
      "ele": 443,
      "elly": 444,
      "anth": 445,
      "anton": 446,
      "ard": 447,
      "melanie": 448,
      "sophie": 449,
      "rach": 450,
      "dave": 451,
      "sil": 452,
      "oliver": 453,
      "ryan": 454,
      "henrik": 455,
      "jeroen": 456,
      "jenni": 457,
      "ire": 458,
      "bb": 459,
      "bern": 460,
      "jac": 461,
      "kan": 462,
      "jurgen": 463,
      "cha": 464,
      "gor": 465,
      "angela": 466,
      "li": 467,
      "nina": 468,
      "hu": 469,
      "monika": 470,
      "win": 471,
      "amanda": 472,
      "con": 473,
      "steven": 474,
      "leon": 475,
      "ill": 476,
      "wille": 477,
      "diana": 478,
      "rebecca": 479,
      "jennifer": 480,
      "wen": 481,
      "harry": 482,
      "josef": 483,
      "marianne": 484,
      "anette": 485,
      "met": 486,
      "agn": 487,
      "alexandra": 488,
      "margar": 489,
      "helena": 490,
      "jacqu": 491,
      "annika": 492,
      "has": 493,
      "olf": 494,
      "ene": 495,
      "we": 496,
      "eric": 497,
      "karen": 498,
      "patric": 499,
      "matthias": 500,
      "son": 501,
      "mattias": 502,
      "niklas": 503,
      "julie": 504,
      "monique": 505,
      "mats": 506,
      "ant": 507,
      "mario": 508,
      "lee": 509,
      "steff": 510,
      "sofia": 511,
      "annie": 512,
      "karl": 513,
      "elin": 514,
      "angel": 515,
      "annes": 516,
      "uwe": 517,
      "patrik": 518,
      "rina": 519,
      "stephen": 520,
      "io": 521,
      "rie": 522,
      "claire": 523,
      "ent": 524,
      "elisab": 525,
      "nor": 526,
      "bas": 527,
      "hol": 528,
      "george": 529,
      "tanja": 530,
      "patricia": 531,
      "carina": 532,
      "jamie": 533,
      "anneke": 534,
      "susan": 535,
      "ona": 536,
      "lyn": 537,
      "ay": 538,
      "kir": 539,
      "ellen": 540,
      "kas": 541,
      "syl": 542,
      "shar": 543,
      "hannah": 544,
      "marion": 545,
      "margaret": 546,
      "bian": 547,
      "barbara": 548,
      "domin": 549,
      "cas": 550,
      "gabri": 551,
      "simone": 552,
      "tra": 553,
      "mandy": 554,
      "rick": 555,
      "ice": 556,
      "mohamed": 557,
      "mary": 558,
      "klaus": 559,
      "inge": 560,
      "nadine": 561,
      "jonathan": 562,
      "amy": 563,
      "beth": 564,
      "theres": 565,
      "asa": 566,
      "stephanie": 567,
      "rachel": 568,
      "martina": 569,
      "hakan": 570,
      "bea": 571,
      "annette": 572,
      "wolf": 573,
      "lenn": 574,
      "essa": 575,
      "britt": 576,
      "tomas": 577,
      "rit": 578,
      "lauren": 579,
      "carl": 580,
      "willem": 581,
      "issa": 582,
      "hard": 583,
      "gan": 584,
      "ros": 585,
      "lan": 586,
      "alan": 587,
      "william": 588,
      "bianca": 589,
      "ralf": 590,
      "sharon": 591,
      "fab": 592,
      "emi": 593,
      "ko": 594,
      "toria": 595,
      "florian": 596,
      "jacqueline": 597,
      "camil": 598,
      "camilla": 599,
      "wim": 600,
      "thew": 601,
      "leen": 602,
      "wendy": 603,
      "lis": 604,
      "bart": 605,
      "monica": 606,
      "daniela": 607,
      "col": 608,
      "kristina": 609,
      "mau": 610,
      "dar": 611,
      "emil": 612,
      "les": 613,
      "ronald": 614,
      "un": 615,
      "jol": 616,
      "di": 617,
      "mohammed": 618,
      "enny": 619,
      "ahmed": 620,
      "gra": 621,
      "danielle": 622,
      "stephan": 623,
      "gang": 624,
      "wolfgang": 625,
      "vik": 626,
      "denise": 627,
      "van": 628,
      "ella": 629,
      "of": 630,
      "sabrina": 631,
      "roger": 632,
      "tommy": 633,
      "ula": 634,
      "jorg": 635,
      "mie": 636,
      "nel": 637,
      "gre": 638,
      "sonja": 639,
      "bernd": 640,
      "sylvia": 641,
      "joakim": 642,
      "michel": 643,
      "georg": 644,
      "elisabeth": 645,
      "don": 646,
      "gary": 647,
      "matthew": 648,
      "jason": 649,
      "joo": 650,
      "stafa": 651,
      "martijn": 652,
      "kelly": 653,
      "christopher": 654,
      "roy": 655,
      "est": 656,
      "esther": 657,
      "birgitta": 658,
      "cil": 659,
      "cecil": 660,
      "cecilia": 661,
      "cob": 662,
      "men": 663,
      "heike": 664,
      "mer": 665,
      "lotta": 666,
      "brian": 667,
      "za": 668,
      "lukas": 669,
      "ien": 670,
      "ash": 671,
      "jamin": 672,
      "benjamin": 673,
      "natalie": 674,
      "sascha": 675,
      "hein": 676,
      "theo": 677,
      "ulla": 678,
      "ineke": 679,
      "thij": 680,
      "johannes": 681,
      "katie": 682,
      "luke": 683,
      "sh": 684,
      "stefanie": 685,
      "ahmad": 686,
      "jane": 687,
      "ky": 688,
      "debb": 689,
      "ek": 690,
      "manuela": 691,
      "mustafa": 692,
      "land": 693,
      "goran": 694,
      "julian": 695,
      "mona": 696,
      "franz": 697,
      "marina": 698,
      "birgit": 699,
      "jud": 700,
      "astrid": 701,
      "sue": 702,
      "cey": 703,
      "thijs": 704,
      "roland": 705,
      "michaela": 706,
      "jolanda": 707,
      "gerard": 708,
      "ilda": 709,
      "paula": 710,
      "emily": 711,
      "leo": 712,
      "cra": 713,
      "craig": 714,
      "sander": 715,
      "pas": 716,
      "jay": 717,
      "fat": 718,
      "alena": 719,
      "stu": 720,
      "irene": 721,
      "ulf": 722,
      "therese": 723,
      "lina": 724,
      "kees": 725,
      "ony": 726,
      "natas": 727,
      "mia": 728,
      "pascal": 729,
      "jana": 730,
      "rud": 731,
      "go": 732,
      "mal": 733,
      "chim": 734,
      "nie": 735,
      "lucy": 736,
      "ew": 737,
      "suz": 738,
      "maik": 739,
      "frida": 740,
      "ray": 741,
      "ida": 742,
      "melissa": 743,
      "katrin": 744,
      "katja": 745,
      "fabian": 746,
      "maart": 747,
      "ulrika": 748,
      "pia": 749,
      "lor": 750,
      "iska": 751,
      "gunilla": 752,
      "sco": 753,
      "nicola": 754,
      "scott": 755,
      "mathias": 756,
      "josh": 757,
      "kay": 758,
      "charlie": 759,
      "chlo": 760,
      "chloe": 761,
      "niel": 762,
      "niels": 763,
      "iris": 764,
      "heid": 765,
      "gert": 766,
      "jimmy": 767,
      "alice": 768,
      "darren": 769,
      "victoria": 770,
      "adrian": 771,
      "ett": 772,
      "samanth": 773,
      "samantha": 774,
      "vanessa": 775,
      "feli": 776,
      "felix": 777,
      "meh": 778,
      "jef": 779,
      "sofie": 780,
      "ellie": 781,
      "piet": 782,
      "iner": 783,
      "christer": 784,
      "reen": 785,
      "kia": 786,
      "neil": 787,
      "colin": 788,
      "debbie": 789,
      "frans": 790,
      "vinc": 791,
      "lara": 792,
      "anthony": 793,
      "steffen": 794,
      "rolf": 795,
      "zo": 796,
      "chant": 797,
      "mohammad": 798,
      "oscar": 799,
      "judith": 800,
      "bil": 801,
      "stuart": 802,
      "annelie": 803,
      "gusta": 804,
      "ronny": 805,
      "jaa": 806,
      "emelie": 807,
      "riet": 808,
      "ert": 809,
      "jacob": 810,
      "saskia": 811,
      "nan": 812,
      "dieter": 813,
      "joy": 814,
      "veron": 815,
      "justin": 816,
      "ze": 817,
      "lies": 818,
      "katarina": 819,
      "mehmet": 820,
      "marian": 821,
      "timo": 822,
      "rita": 823,
      "bob": 824,
      "joke": 825,
      "philipp": 826,
      "jesper": 827,
      "ern": 828,
      "vincent": 829,
      "ax": 830,
      "axel": 831,
      "marij": 832,
      "torsten": 833,
      "kai": 834,
      "pieter": 835,
      "wilma": 836,
      "nathalie": 837,
      "wal": 838,
      "wou": 839,
      "sanne": 840,
      "joel": 841,
      "if": 842,
      "lennart": 843,
      "thor": 844,
      "yn": 845,
      "jordan": 846,
      "linne": 847,
      "linnea": 848,
      "fil": 849,
      "mut": 850,
      "elina": 851,
      "ick": 852,
      "him": 853,
      "ibra": 854,
      "kard": 855,
      "ibrahim": 856,
      "gitte": 857,
      "brigitte": 858,
      "daan": 859,
      "victor": 860,
      "alis": 861,
      "nil": 862,
      "nils": 863,
      "uk": 864,
      "suzanne": 865,
      "uel": 866,
      "inger": 867,
      "viktor": 868,
      "silke": 869,
      "silvia": 870,
      "lucas": 871,
      "ier": 872,
      "conny": 873,
      "janet": 874,
      "carla": 875,
      "frey": 876,
      "sean": 877,
      "chantal": 878,
      "heidi": 879,
      "san": 880,
      "jeanette": 881,
      "hassan": 882,
      "albert": 883,
      "katharina": 884,
      "joanne": 885,
      "it": 886,
      "manfred": 887,
      "sha": 888,
      "maarten": 889,
      "annemarie": 890,
      "elke": 891,
      "ruud": 892,
      "dominik": 893,
      "leig": 894,
      "edwin": 895,
      "leigh": 896,
      "gemma": 897,
      "wis": 898,
      "lewis": 899,
      "kate": 900,
      "carmen": 901,
      "joachim": 902,
      "heinz": 903,
      "iko": 904,
      "heiko": 905,
      "filip": 906,
      "erika": 907,
      "erwin": 908,
      "holger": 909,
      "joyce": 910,
      "fried": 911,
      "mag": 912,
      "omar": 913,
      "wes": 914,
      "rem": 915,
      "pe": 916,
      "franc": 917,
      "graham": 918,
      "va": 919,
      "mieke": 920,
      "indy": 921,
      "beng": 922,
      "manuel": 923,
      "anke": 924,
      "rena": 925,
      "renate": 926,
      "ric": 927,
      "sie": 928,
      "alison": 929,
      "urt": 930,
      "bram": 931,
      "sal": 932,
      "therine": 933,
      "gerrit": 934,
      "thorsten": 935,
      "nilla": 936,
      "rico": 937,
      "rainer": 938,
      "bengt": 939,
      "jake": 940,
      "loes": 941,
      "liz": 942,
      "barry": 943,
      "ashley": 944,
      "abd": 945,
      "jasmin": 946,
      "zoe": 947,
      "henry": 948,
      "wouter": 949,
      "eta": 950,
      "angelika": 951,
      "kathrin": 952,
      "samuel": 953,
      "roel": 954,
      "janine": 955,
      "omi": 956,
      "pauline": 957,
      "kirst": 958,
      "pernilla": 959,
      "marius": 960,
      "leif": 961,
      "hasan": 962,
      "rice": 963,
      "maurice": 964,
      "joost": 965,
      "helene": 966,
      "ewa": 967,
      "mariel": 968,
      "daw": 969,
      "lil": 970,
      "olivia": 971,
      "nancy": 972,
      "margareta": 973,
      "fati": 974,
      "beck": 975,
      "gerd": 976,
      "jaap": 977,
      "miranda": 978,
      "mit": 979,
      "madele": 980,
      "madeleine": 981,
      "henn": 982,
      "raymon": 983,
      "vol": 984,
      "dean": 985,
      "stina": 986,
      "marieke": 987,
      "dylan": 988,
      "gina": 989,
      "jorgen": 990,
      "jeffrey": 991,
      "gerda": 992,
      "agneta": 993,
      "arno": 994,
      "gustav": 995,
      "donna": 996,
      "joseph": 997,
      "joer": 998,
      "tracey": 999,
      "rein": 1000,
      "sz": 1001,
      "zy": 1002,
      "megan": 1003,
      "steffi": 1004,
      "olaf": 1005,
      "elena": 1006,
      "olga": 1007,
      "els": 1008,
      "jean": 1009,
      "vera": 1010,
      "wern": 1011,
      "johnny": 1012,
      "werner": 1013,
      "fi": 1014,
      "aar": 1015,
      "arjan": 1016,
      "aaron": 1017,
      "keith": 1018,
      "sel": 1019,
      "carsten": 1020,
      "cath": 1021,
      "agnes": 1022,
      "hay": 1023,
      "marjo": 1024,
      "naomi": 1025,
      "christof": 1026,
      "kenn": 1027,
      "lum": 1028,
      "callum": 1029,
      "carlo": 1030,
      "tin": 1031,
      "jackie": 1032,
      "niclas": 1033,
      "remco": 1034,
      "bet": 1035,
      "kirsty": 1036,
      "gill": 1037,
      "len": 1038,
      "linus": 1039,
      "iaan": 1040,
      "hus": 1041,
      "mor": 1042,
      "kier": 1043,
      "gunn": 1044,
      "raymond": 1045,
      "mirjam": 1046,
      "bren": 1047,
      "dami": 1048,
      "rah": 1049,
      "dick": 1050,
      "ute": 1051,
      "ilona": 1052,
      "toni": 1053,
      "joshu": 1054,
      "joshua": 1055,
      "ila": 1056,
      "rose": 1057,
      "vi": 1058,
      "mara": 1059,
      "tamara": 1060,
      "hil": 1061,
      "amber": 1062,
      "matilda": 1063,
      "cindy": 1064,
      "jako": 1065,
      "jakob": 1066,
      "ya": 1067,
      "ouk": 1068,
      "riam": 1069,
      "miriam": 1070,
      "iot": 1071,
      "stan": 1072,
      "gunnar": 1073,
      "geert": 1074,
      "joanna": 1075,
      "kenneth": 1076,
      "kh": 1077,
      "tracy": 1078,
      "icia": 1079,
      "val": 1080,
      "wesley": 1081,
      "becky": 1082,
      "ras": 1083,
      "teres": 1084,
      "zab": 1085,
      "elizab": 1086,
      "jasper": 1087,
      "elizabeth": 1088,
      "jade": 1089,
      "thea": 1090,
      "pier": 1091,
      "carola": 1092,
      "harald": 1093,
      "koen": 1094,
      "marvin": 1095,
      "volker": 1096,
      "ahmet": 1097,
      "jennie": 1098,
      "cornel": 1099,
      "marijke": 1100,
      "herman": 1101,
      "angeli": 1102,
      "ruben": 1103,
      "angelique": 1104,
      "oskar": 1105,
      "etty": 1106,
      "can": 1107,
      "lesley": 1108,
      "pierre": 1109,
      "catherine": 1110,
      "kirsten": 1111,
      "elias": 1112,
      "mitch": 1113,
      "kristin": 1114,
      "rickard": 1115,
      "anneli": 1116,
      "maja": 1117,
      "norbert": 1118,
      "connor": 1119,
      "der": 1120,
      "anouk": 1121,
      "christoffer": 1122,
      "will": 1123,
      "elaine": 1124,
      "old": 1125,
      "clar": 1126,
      "ilse": 1127,
      "clare": 1128,
      "jill": 1129,
      "hm": 1130,
      "hmd": 1131,
      "shaun": 1132,
      "hayley": 1133,
      "maxi": 1134,
      "veronica": 1135,
      "ricar": 1136,
      "ido": 1137,
      "guido": 1138,
      "joop": 1139,
      "sami": 1140,
      "tje": 1141,
      "kj": 1142,
      "ni": 1143,
      "pon": 1144,
      "si": 1145,
      "tus": 1146,
      "pontus": 1147,
      "joch": 1148,
      "kerry": 1149,
      "nikki": 1150,
      "fiona": 1151,
      "gabriel": 1152,
      "walter": 1153,
      "sey": 1154,
      "cke": 1155,
      "bie": 1156,
      "bettina": 1157,
      "ulrike": 1158,
      "marja": 1159,
      "ruth": 1160,
      "lud": 1161,
      "dawn": 1162,
      "gabriele": 1163,
      "sally": 1164,
      "yas": 1165,
      "damian": 1166,
      "lynn": 1167,
      "rat": 1168,
      "murat": 1169,
      "joey": 1170,
      "josefine": 1171,
      "ey": 1172,
      "terry": 1173,
      "ingo": 1174,
      "shir": 1175,
      "franziska": 1176,
      "dia": 1177,
      "way": 1178,
      "lydia": 1179,
      "wayne": 1180,
      "henny": 1181,
      "ramona": 1182,
      "cat": 1183,
      "ingela": 1184,
      "josefin": 1185,
      "helmut": 1186,
      "pat": 1187,
      "ward": 1188,
      "kjell": 1189,
      "mus": 1190,
      "isabel": 1191,
      "olly": 1192,
      "ross": 1193,
      "nicky": 1194,
      "ff": 1195,
      "annon": 1196,
      "iz": 1197,
      "dalena": 1198,
      "diane": 1199,
      "magdalena": 1200,
      "ans": 1201,
      "maureen": 1202,
      "luca": 1203,
      "brenda": 1204,
      "olof": 1205,
      "mick": 1206,
      "kimber": 1207,
      "sanna": 1208,
      "leonie": 1209,
      "romy": 1210,
      "tineke": 1211,
      "gareth": 1212,
      "rich": 1213,
      "ather": 1214,
      "heather": 1215,
      "cornelia": 1216,
      "hugo": 1217,
      "elo": 1218,
      "beate": 1219,
      "ricardo": 1220,
      "hennie": 1221,
      "jelle": 1222,
      "isabelle": 1223,
      "jonny": 1224,
      "cees": 1225,
      "olle": 1226,
      "kieran": 1227,
      "fatima": 1228,
      "christiane": 1229,
      "wan": 1230,
      "vicky": 1231,
      "kyle": 1232,
      "rh": 1233,
      "greet": 1234,
      "carin": 1235,
      "gunter": 1236,
      "carlos": 1237,
      "anni": 1238,
      "michiel": 1239,
      "holly": 1240,
      "shirley": 1241,
      "christin": 1242,
      "billy": 1243,
      "aike": 1244,
      "maaike": 1245,
      "raine": 1246,
      "lorraine": 1247,
      "glenn": 1248,
      "lein": 1249,
      "marjolein": 1250,
      "claes": 1251,
      "det": 1252,
      "mah": 1253,
      "detle": 1254,
      "louis": 1255,
      "antje": 1256,
      "jordy": 1257,
      "teresa": 1258,
      "kaj": 1259,
      "karol": 1260,
      "drik": 1261,
      "hendrik": 1262,
      "run": 1263,
      "js": 1264,
      "gijs": 1265,
      "arne": 1266,
      "gerhard": 1267,
      "britta": 1268,
      "pam": 1269,
      "klaas": 1270,
      "debo": 1271,
      "deborah": 1272,
      "kal": 1273,
      "leanne": 1274,
      "kalle": 1275,
      "arie": 1276,
      "barbro": 1277,
      "linn": 1278,
      "karsten": 1279,
      "manon": 1280,
      "ines": 1281,
      "nadia": 1282,
      "mariska": 1283,
      "nig": 1284,
      "nigel": 1285,
      "hor": 1286,
      "horst": 1287,
      "amir": 1288,
      "doreen": 1289,
      "henri": 1290,
      "corrie": 1291,
      "rasmus": 1292,
      "ana": 1293,
      "ser": 1294,
      "ivan": 1295,
      "frances": 1296,
      "moha": 1297,
      "mohamad": 1298,
      "gabi": 1299,
      "sophia": 1300,
      "tz": 1301,
      "mail": 1302,
      "ismail": 1303,
      "jesse": 1304,
      "brad": 1305,
      "annica": 1306,
      "christel": 1307,
      "fem": 1308,
      "femke": 1309,
      "udo": 1310,
      "antonio": 1311,
      "torbjorn": 1312,
      "stacey": 1313,
      "dani": 1314,
      "ken": 1315,
      "demi": 1316,
      "caro": 1317,
      "marita": 1318,
      "amer": 1319,
      "christa": 1320,
      "ee": 1321,
      "tessa": 1322,
      "willy": 1323,
      "karolina": 1324,
      "marcin": 1325,
      "tre": 1326,
      "edward": 1327,
      "rien": 1328,
      "lph": 1329,
      "ralph": 1330,
      "doris": 1331,
      "mhmd": 1332,
      "vor": 1333,
      "marielle": 1334,
      "marleen": 1335,
      "denis": 1336,
      "luuk": 1337,
      "ske": 1338,
      "shannon": 1339,
      "helga": 1340,
      "natascha": 1341,
      "muham": 1342,
      "fatma": 1343,
      "jutta": 1344,
      "janneke": 1345,
      "kent": 1346,
      "enno": 1347,
      "georgia": 1348,
      "fel": 1349,
      "erica": 1350,
      "annalena": 1351,
      "lasse": 1352,
      "morgan": 1353,
      "par": 1354,
      "detlef": 1355,
      "bin": 1356,
      "regina": 1357,
      "sig": 1358,
      "ronnie": 1359,
      "enrico": 1360,
      "marko": 1361,
      "samir": 1362,
      "piot": 1363,
      "piotr": 1364,
      "yo": 1365,
      "maud": 1366,
      "alina": 1367,
      "pete": 1368,
      "uf": 1369,
      "dag": 1370,
      "wie": 1371,
      "milian": 1372,
      "maximilian": 1373,
      "roos": 1374,
      "gaby": 1375,
      "benny": 1376,
      "sjoer": 1377,
      "sjoerd": 1378,
      "rze": 1379,
      "griet": 1380,
      "marlies": 1381,
      "kayleigh": 1382,
      "she": 1383,
      "jannie": 1384,
      "iesz": 1385,
      "agniesz": 1386,
      "agnieszka": 1387,
      "rudi": 1388,
      "wel": 1389,
      "pawel": 1390,
      "luc": 1391,
      "visa": 1392,
      "lovisa": 1393,
      "natasha": 1394,
      "rudy": 1395,
      "marjan": 1396,
      "dominic": 1397,
      "staff": 1398,
      "staffan": 1399,
      "pim": 1400,
      "uke": 1401,
      "lind": 1402,
      "doro": 1403,
      "janny": 1404,
      "alia": 1405,
      "natalia": 1406,
      "hat": 1407,
      "ake": 1408,
      "viktoria": 1409,
      "ullah": 1410,
      "abdullah": 1411,
      "annelies": 1412,
      "des": 1413,
      "gillian": 1414,
      "kajsa": 1415,
      "carolin": 1416,
      "bernhard": 1417,
      "derek": 1418,
      "jochen": 1419,
      "rianne": 1420,
      "ulrich": 1421,
      "joris": 1422,
      "angelica": 1423,
      "ebb": 1424,
      "viv": 1425,
      "ebba": 1426,
      "liesbeth": 1427,
      "annakarin": 1428,
      "bilal": 1429,
      "rachael": 1430,
      "fle": 1431,
      "jeannette": 1432,
      "fleur": 1433,
      "ileen": 1434,
      "ys": 1435,
      "gavin": 1436,
      "verena": 1437,
      "janne": 1438,
      "yus": 1439,
      "yusuf": 1440,
      "ursu": 1441,
      "ursula": 1442,
      "felicia": 1443,
      "moa": 1444,
      "ov": 1445,
      "ug": 1446,
      "isy": 1447,
      "daisy": 1448,
      "beatri": 1449,
      "molly": 1450,
      "hanneke": 1451,
      "jodie": 1452,
      "nadja": 1453,
      "micke": 1454,
      "karlheinz": 1455,
      "shan": 1456,
      "shane": 1457,
      "fal": 1458,
      "daph": 1459,
      "daphne": 1460,
      "alf": 1461,
      "kathleen": 1462,
      "kristof": 1463,
      "kristoffer": 1464,
      "bryan": 1465,
      "din": 1466,
      "gud": 1467,
      "gudrun": 1468,
      "hamza": 1469,
      "lene": 1470,
      "camer": 1471,
      "cameron": 1472,
      "madel": 1473,
      "khal": 1474,
      "kimberley": 1475,
      "marloes": 1476,
      "grace": 1477,
      "stijn": 1478,
      "husey": 1479,
      "huseyin": 1480,
      "matthijs": 1481,
      "mee": 1482,
      "nicklas": 1483,
      "maj": 1484,
      "lea": 1485,
      "carolina": 1486,
      "mikaela": 1487,
      "arn": 1488,
      "petter": 1489,
      "corin": 1490,
      "niek": 1491,
      "jayne": 1492,
      "arth": 1493,
      "arthur": 1494,
      "ba": 1495,
      "vig": 1496,
      "elise": 1497,
      "sein": 1498,
      "reza": 1499,
      "noor": 1500,
      "leah": 1501,
      "sandy": 1502,
      "brittmarie": 1503,
      "hannes": 1504,
      "sor": 1505,
      "tan": 1506,
      "isabella": 1507,
      "bethan": 1508,
      "soren": 1509,
      "iree": 1510,
      "desiree": 1511,
      "rebecka": 1512,
      "gis": 1513,
      "gisela": 1514,
      "albin": 1515,
      "kurt": 1516,
      "allan": 1517,
      "margo": 1518,
      "dominique": 1519,
      "gg": 1520,
      "pegg": 1521,
      "peggy": 1522,
      "said": 1523,
      "noah": 1524,
      "chel": 1525,
      "sheila": 1526,
      "liv": 1527,
      "pus": 1528,
      "hampus": 1529,
      "ylva": 1530,
      "lilian": 1531,
      "fanny": 1532,
      "lisbeth": 1533,
      "dagmar": 1534,
      "evelina": 1535,
      "jn": 1536,
      "herbert": 1537,
      "ollie": 1538,
      "mirko": 1539,
      "doug": 1540,
      "nien": 1541,
      "nienke": 1542,
      "theresa": 1543,
      "irina": 1544,
      "enne": 1545,
      "olas": 1546,
      "rosie": 1547,
      "marten": 1548,
      "ukje": 1549,
      "celine": 1550,
      "omer": 1551,
      "tmar": 1552,
      "susanna": 1553,
      "dietmar": 1554,
      "tru": 1555,
      "truus": 1556,
      "eddie": 1557,
      "helm": 1558,
      "ayse": 1559,
      "lynne": 1560,
      "lukasz": 1561,
      "tha": 1562,
      "floor": 1563,
      "eileen": 1564,
      "kristian": 1565,
      "menno": 1566,
      "moud": 1567,
      "larissa": 1568,
      "mahmoud": 1569,
      "berit": 1570,
      "renee": 1571,
      "hilde": 1572,
      "by": 1573,
      "emilia": 1574,
      "merel": 1575,
      "lisette": 1576,
      "martine": 1577,
      "mitchell": 1578,
      "ramon": 1579,
      "michal": 1580,
      "betty": 1581,
      "esmee": 1582,
      "natasja": 1583,
      "geof": 1584,
      "jerry": 1585,
      "trevor": 1586,
      "ban": 1587,
      "emy": 1588,
      "lutz": 1589,
      "jeremy": 1590,
      "yann": 1591,
      "marta": 1592,
      "pelle": 1593,
      "bor": 1594,
      "bru": 1595,
      "eryl": 1596,
      "cheryl": 1597,
      "karina": 1598,
      "robbie": 1599,
      "gertjan": 1600,
      "elisabet": 1601,
      "ala": 1602,
      "annet": 1603,
      "annemie": 1604,
      "muhammad": 1605,
      "phill": 1606,
      "corinna": 1607,
      "edith": 1608,
      "lisanne": 1609,
      "bby": 1610,
      "rus": 1611,
      "russ": 1612,
      "marek": 1613,
      "shel": 1614,
      "aled": 1615,
      "tomasz": 1616,
      "hami": 1617,
      "rikard": 1618,
      "kr": 1619,
      "tof": 1620,
      "sztof": 1621,
      "zysztof": 1622,
      "krzysztof": 1623,
      "achim": 1624,
      "alfred": 1625,
      "sem": 1626,
      "guus": 1627,
      "ci": 1628,
      "morit": 1629,
      "sebastiaan": 1630,
      "moritz": 1631,
      "susann": 1632,
      "bill": 1633,
      "reinhard": 1634,
      "joep": 1635,
      "khalid": 1636,
      "toon": 1637,
      "nich": 1638,
      "gordon": 1639,
      "ryn": 1640,
      "quin": 1641,
      "eveli": 1642,
      "evelien": 1643,
      "gabriella": 1644,
      "marga": 1645,
      "veronika": 1646,
      "marit": 1647,
      "lieke": 1648,
      "irma": 1649,
      "sieg": 1650,
      "ney": 1651,
      "court": 1652,
      "courtney": 1653,
      "sy": 1654,
      "norman": 1655,
      "arnold": 1656,
      "angie": 1657,
      "casper": 1658,
      "sonia": 1659,
      "anki": 1660,
      "tiny": 1661,
      "ub": 1662,
      "maz": 1663,
      "gerrie": 1664,
      "ece": 1665,
      "reece": 1666,
      "harm": 1667,
      "rosemarie": 1668,
      "maikel": 1669,
      "loren": 1670,
      "ts": 1671,
      "tjana": 1672,
      "tatjana": 1673,
      "frits": 1674,
      "annemieke": 1675,
      "greg": 1676,
      "owen": 1677,
      "angelo": 1678,
      "roman": 1679,
      "ouise": 1680,
      "marielouise": 1681,
      "beatrice": 1682,
      "sand": 1683,
      "tove": 1684,
      "end": 1685,
      "adi": 1686,
      "armin": 1687,
      "colm": 1688,
      "mine": 1689,
      "jasmine": 1690,
      "joan": 1691,
      "carole": 1692,
      "cilla": 1693,
      "gustaf": 1694,
      "use": 1695,
      "bel": 1696,
      "karim": 1697,
      "khaled": 1698,
      "samira": 1699,
      "floris": 1700,
      "luis": 1701,
      "hussein": 1702,
      "margriet": 1703,
      "klas": 1704,
      "calle": 1705,
      "zel": 1706,
      "lianne": 1707,
      "kenny": 1708,
      "sea": 1709,
      "chelsea": 1710,
      "krister": 1711,
      "rhys": 1712,
      "klara": 1713,
      "teun": 1714,
      "liselo": 1715,
      "bradley": 1716,
      "reiner": 1717,
      "isabell": 1718,
      "barbel": 1719,
      "rosa": 1720,
      "een": 1721,
      "bertil": 1722,
      "til": 1723,
      "michele": 1724,
      "karel": 1725,
      "arjen": 1726,
      "laurens": 1727,
      "alicia": 1728,
      "kamil": 1729,
      "svenja": 1730,
      "trudy": 1731,
      "ut": 1732,
      "abbie": 1733,
      "francis": 1734,
      "sigrid": 1735,
      "thar": 1736,
      "lothar": 1737,
      "emre": 1738,
      "urban": 1739,
      "eri": 1740,
      "june": 1741,
      "charlotta": 1742,
      "pamela": 1743,
      "catharina": 1744,
      "kathryn": 1745,
      "malcolm": 1746,
      "sjaa": 1747,
      "sjaak": 1748,
      "annsofie": 1749,
      "nora": 1750,
      "hamid": 1751,
      "eu": 1752,
      "gerry": 1753,
      "br": 1754,
      "fin": 1755,
      "andon": 1756,
      "giov": 1757,
      "brandon": 1758,
      "giovanni": 1759,
      "maartje": 1760,
      "bep": 1761,
      "andrze": 1762,
      "mijn": 1763,
      "osman": 1764,
      "andrzej": 1765,
      "janina": 1766,
      "annmarie": 1767,
      "phillip": 1768,
      "charles": 1769,
      "ap": 1770,
      "fabi": 1771,
      "corina": 1772,
      "sian": 1773,
      "artur": 1774,
      "ivo": 1775,
      "ellin": 1776,
      "tino": 1777,
      "ellinor": 1778,
      "jann": 1779,
      "meike": 1780,
      "koos": 1781,
      "gunnel": 1782,
      "dil": 1783,
      "ingemar": 1784,
      "marije": 1785,
      "coen": 1786,
      "ricky": 1787,
      "ludvig": 1788,
      "iain": 1789,
      "rens": 1790,
      "tobi": 1791,
      "harriet": 1792,
      "jeff": 1793,
      "nia": 1794,
      "adnan": 1795,
      "chi": 1796,
      "katy": 1797,
      "dun": 1798,
      "kic": 1799,
      "kicki": 1800,
      "benn": 1801,
      "yannick": 1802,
      "annett": 1803,
      "melvin": 1804,
      "levi": 1805,
      "marijn": 1806,
      "annemiek": 1807,
      "kon": 1808,
      "eike": 1809,
      "arzy": 1810,
      "katarzy": 1811,
      "katarzyna": 1812,
      "sina": 1813,
      "willi": 1814,
      "bastian": 1815,
      "mann": 1816,
      "marlene": 1817,
      "dale": 1818,
      "hermann": 1819,
      "georgina": 1820,
      "bethany": 1821,
      "russell": 1822,
      "cri": 1823,
      "eddy": 1824,
      "tger": 1825,
      "janice": 1826,
      "rutger": 1827,
      "twan": 1828,
      "harrie": 1829,
      "adrie": 1830,
      "fay": 1831,
      "lorna": 1832,
      "aim": 1833,
      "geoff": 1834,
      "aimee": 1835,
      "wilco": 1836,
      "sef": 1837,
      "isak": 1838,
      "evert": 1839,
      "huub": 1840,
      "job": 1841,
      "abdul": 1842,
      "tmut": 1843,
      "johann": 1844,
      "emmy": 1845,
      "hartmut": 1846,
      "sandro": 1847,
      "margreet": 1848,
      "tyl": 1849,
      "hatice": 1850,
      "tyler": 1851,
      "cait": 1852,
      "caitlin": 1853,
      "jonat": 1854,
      "jonatan": 1855,
      "pris": 1856,
      "tonny": 1857,
      "elliot": 1858,
      "mariusz": 1859,
      "priscilla": 1860,
      "stig": 1861,
      "gerald": 1862,
      "math": 1863,
      "wig": 1864,
      "elsa": 1865,
      "heleen": 1866,
      "ludwig": 1867,
      "hilda": 1868,
      "nth": 1869,
      "christiaan": 1870,
      "hazel": 1871,
      "cynth": 1872,
      "rudiger": 1873,
      "lindsey": 1874,
      "madelene": 1875,
      "siegfried": 1876,
      "cynthia": 1877,
      "ige": 1878,
      "elyn": 1879,
      "elvi": 1880,
      "paige": 1881,
      "evelyn": 1882,
      "elvira": 1883,
      "ty": 1884,
      "fatih": 1885,
      "gon": 1886,
      "ethan": 1887,
      "paulina": 1888,
      "henriette": 1889,
      "tty": 1890,
      "kitty": 1891,
      "milan": 1892,
      "josephine": 1893,
      "franzi": 1894,
      "catarina": 1895,
      "rey": 1896,
      "gunther": 1897,
      "gail": 1898,
      "conor": 1899,
      "margi": 1900,
      "gerben": 1901,
      "vicki": 1902,
      "robbert": 1903,
      "ernst": 1904,
      "aad": 1905,
      "freek": 1906,
      "carolien": 1907,
      "alill": 1908,
      "ingalill": 1909,
      "jordi": 1910,
      "inga": 1911,
      "beata": 1912,
      "mien": 1913,
      "etha": 1914,
      "margaretha": 1915,
      "ferry": 1916,
      "susi": 1917,
      "jamal": 1918,
      "emine": 1919,
      "corry": 1920,
      "ster": 1921,
      "henning": 1922,
      "tanya": 1923,
      "oz": 1924,
      "ille": 1925,
      "gran": 1926,
      "grant": 1927,
      "coby": 1928,
      "tore": 1929,
      "vid": 1930,
      "erie": 1931,
      "eme": 1932,
      "graeme": 1933,
      "valerie": 1934,
      "clara": 1935,
      "az": 1936,
      "ted": 1937,
      "margot": 1938,
      "nicholas": 1939,
      "toby": 1940,
      "maren": 1941,
      "alaa": 1942,
      "say": 1943,
      "jar": 1944,
      "wart": 1945,
      "stewart": 1946,
      "linde": 1947,
      "gea": 1948,
      "malte": 1949,
      "usz": 1950,
      "laila": 1951,
      "cliv": 1952,
      "micha": 1953,
      "diny": 1954,
      "clive": 1955,
      "gul": 1956,
      "hann": 1957,
      "siv": 1958,
      "harold": 1959,
      "jacco": 1960,
      "lenie": 1961,
      "gin": 1962,
      "garry": 1963,
      "abdi": 1964,
      "lily": 1965,
      "douglas": 1966,
      "thy": 1967,
      "alfie": 1968,
      "hetty": 1969,
      "ove": 1970,
      "ho": 1971,
      "ergen": 1972,
      "andi": 1973,
      "juergen": 1974,
      "duncan": 1975,
      "jocke": 1976,
      "bre": 1977,
      "gie": 1978,
      "sabina": 1979,
      "maggie": 1980,
      "hannie": 1981,
      "sol": 1982,
      "thom": 1983,
      "debby": 1984,
      "selina": 1985,
      "danique": 1986,
      "ellis": 1987,
      "with": 1988,
      "rogi": 1989,
      "roswith": 1990,
      "juliane": 1991,
      "rogier": 1992,
      "roswitha": 1993,
      "wilhelm": 1994,
      "carly": 1995,
      "martyn": 1996,
      "deniz": 1997,
      "ten": 1998,
      "just": 1999,
      "ashleigh": 2000,
      "ti": 2001,
      "eveline": 2002,
      "wilfried": 2003,
      "lynda": 2004,
      "corne": 2005,
      "dion": 2006,
      "jochem": 2007,
      "kel": 2008,
      "lex": 2009,
      "katherine": 2010,
      "berry": 2011,
      "wessel": 2012,
      "erna": 2013,
      "dana": 2014,
      "tara": 2015,
      "anika": 2016,
      "hubert": 2017,
      "mathilda": 2018,
      "emiel": 2019,
      "matty": 2020,
      "finn": 2021,
      "jel": 2022,
      "ppe": 2023,
      "bever": 2024,
      "giuse": 2025,
      "gard": 2026,
      "beverley": 2027,
      "giuseppe": 2028,
      "kie": 2029,
      "vio": 2030,
      "silvio": 2031,
      "etlan": 2032,
      "ussef": 2033,
      "youssef": 2034,
      "etlana": 2035,
      "ott": 2036,
      "maike": 2037,
      "enna": 2038,
      "otto": 2039,
      "mathijs": 2040,
      "sse": 2041,
      "kev": 2042,
      "bosse": 2043,
      "jonna": 2044,
      "becca": 2045,
      "margit": 2046,
      "helma": 2047,
      "dawid": 2048,
      "tristan": 2049,
      "jeanne": 2050,
      "marika": 2051,
      "rachid": 2052,
      "arvid": 2053,
      "vana": 2054,
      "rafal": 2055,
      "luisa": 2056,
      "bobby": 2057,
      "yvette": 2058,
      "fabienne": 2059,
      "bodil": 2060,
      "filippa": 2061,
      "eugen": 2062,
      "nellie": 2063,
      "uli": 2064,
      "demar": 2065,
      "waldemar": 2066,
      "tonnie": 2067,
      "abo": 2068,
      "toos": 2069,
      "melina": 2070,
      "ulrica": 2071,
      "ksandra": 2072,
      "aleksandra": 2073,
      "hasse": 2074,
      "iane": 2075,
      "rudolf": 2076,
      "selma": 2077,
      "anor": 2078,
      "riaan": 2079,
      "eleanor": 2080,
      "sine": 2081,
      "pp": 2082,
      "marjon": 2083,
      "claus": 2084,
      "cathy": 2085,
      "ail": 2086,
      "millie": 2087,
      "glen": 2088,
      "hollie": 2089,
      "erin": 2090,
      "stant": 2091,
      "stantin": 2092,
      "oli": 2093,
      "joerg": 2094,
      "liselotte": 2095,
      "penny": 2096,
      "kasia": 2097,
      "bw": 2098,
      "mmi": 2099,
      "tar": 2100,
      "mimmi": 2101,
      "abi": 2102,
      "maxim": 2103,
      "traud": 2104,
      "ped": 2105,
      "peder": 2106,
      "nelly": 2107,
      "sv": 2108,
      "you": 2109,
      "lott": 2110,
      "youri": 2111,
      "faye": 2112,
      "jarno": 2113,
      "antony": 2114,
      "lindsay": 2115,
      "bennie": 2116,
      "jenna": 2117,
      "tayl": 2118,
      "wout": 2119,
      "kimberly": 2120,
      "taylor": 2121,
      "gret": 2122,
      "suzan": 2123,
      "roelof": 2124,
      "emin": 2125,
      "dianne": 2126,
      "curt": 2127,
      "yne": 2128,
      "louisa": 2129,
      "zeyne": 2130,
      "zeynep": 2131,
      "ai": 2132,
      "jemma": 2133,
      "jacqui": 2134,
      "aidan": 2135,
      "rowan": 2136,
      "jules": 2137,
      "erd": 2138,
      "ronja": 2139,
      "corine": 2140,
      "ries": 2141,
      "cristina": 2142,
      "sin": 2143,
      "sofi": 2144,
      "zie": 2145,
      "elia": 2146,
      "mareike": 2147,
      "amelia": 2148,
      "lizzie": 2149,
      "lorenzo": 2150,
      "rory": 2151,
      "hansjurgen": 2152,
      "mate": 2153,
      "maryam": 2154,
      "mateusz": 2155,
      "kathy": 2156,
      "francesca": 2157,
      "sev": 2158,
      "aziz": 2159,
      "hid": 2160,
      "heinrich": 2161,
      "bhan": 2162,
      "rthe": 2163,
      "sio": 2164,
      "myrthe": 2165,
      "rinus": 2166,
      "siobhan": 2167,
      "renske": 2168,
      "eef": 2169,
      "antonia": 2170,
      "alva": 2171,
      "carolyn": 2172,
      "ingegerd": 2173,
      "uschi": 2174,
      "sammy": 2175,
      "ingebor": 2176,
      "ingeborg": 2177,
      "ada": 2178,
      "dee": 2179,
      "grze": 2180,
      "gorz": 2181,
      "yasin": 2182,
      "grzegorz": 2183,
      "ole": 2184,
      "dorien": 2185,
      "jolijn": 2186,
      "gregor": 2187,
      "bi": 2188,
      "basti": 2189,
      "elli": 2190,
      "anncharlotte": 2191,
      "shelley": 2192,
      "gej": 2193,
      "sergej": 2194,
      "clan": 2195,
      "katrina": 2196,
      "declan": 2197,
      "boris": 2198,
      "abdel": 2199,
      "catrin": 2200,
      "elore": 2201,
      "borje": 2202,
      "hannelore": 2203,
      "kati": 2204,
      "dra": 2205,
      "willie": 2206,
      "angelina": 2207,
      "cael": 2208,
      "sjor": 2209,
      "micael": 2210,
      "fritz": 2211,
      "jari": 2212,
      "sjors": 2213,
      "milou": 2214,
      "abig": 2215,
      "jacques": 2216,
      "abigail": 2217,
      "mira": 2218,
      "noa": 2219,
      "nikola": 2220,
      "jannik": 2221,
      "tam": 2222,
      "ugu": 2223,
      "tu": 2224,
      "ons": 2225,
      "mans": 2226,
      "maxine": 2227,
      "michi": 2228,
      "veig": 2229,
      "solveig": 2230,
      "ikt": 2231,
      "edikt": 2232,
      "benedikt": 2233,
      "mariette": 2234,
      "ruby": 2235,
      "bastiaan": 2236,
      "adele": 2237,
      "robyn": 2238,
      "willeke": 2239,
      "erich": 2240,
      "jelmer": 2241,
      "hanny": 2242,
      "rosi": 2243,
      "bertus": 2244,
      "valent": 2245,
      "tij": 2246,
      "ivonne": 2247,
      "jet": 2248,
      "martha": 2249,
      "yd": 2250,
      "harve": 2251,
      "cora": 2252,
      "jule": 2253,
      "harvey": 2254,
      "abbe": 2255,
      "siet": 2256,
      "adri": 2257,
      "mert": 2258,
      "raph": 2259,
      "raphael": 2260,
      "fadi": 2261,
      "tas": 2262,
      "chantelle": 2263,
      "tasha": 2264,
      "kathi": 2265,
      "gabriela": 2266,
      "lemor": 2267,
      "janwillem": 2268,
      "ingmarie": 2269,
      "lillemor": 2270,
      "rine": 2271,
      "mariam": 2272,
      "chiel": 2273,
      "annchristin": 2274,
      "fra": 2275,
      "ofer": 2276,
      "yol": 2277,
      "kristofer": 2278,
      "yolanda": 2279,
      "bro": 2280,
      "um": 2281,
      "amelie": 2282,
      "rober": 2283,
      "calum": 2284,
      "roberto": 2285,
      "ler": 2286,
      "oy": 2287,
      "adriaan": 2288,
      "rits": 2289,
      "maurits": 2290,
      "leroy": 2291,
      "dre": 2292,
      "hi": 2293,
      "gino": 2294,
      "kasper": 2295,
      "bev": 2296,
      "rosemary": 2297,
      "rhi": 2298,
      "guy": 2299,
      "ion": 2300,
      "ija": 2301,
      "ril": 2302,
      "hold": 2303,
      "reinhold": 2304,
      "anto": 2305,
      "inette": 2306,
      "brendan": 2307,
      "grietje": 2308,
      "svetlana": 2309,
      "antoinette": 2310,
      "randy": 2311,
      "appie": 2312,
      "lynd": 2313,
      "leny": 2314,
      "pijn": 2315,
      "pepijn": 2316,
      "celina": 2317,
      "uard": 2318,
      "abby": 2319,
      "eduard": 2320,
      "alista": 2321,
      "alistair": 2322,
      "francesco": 2323,
      "tine": 2324,
      "zah": 2325,
      "ary": 2326,
      "imy": 2327,
      "jaimy": 2328,
      "rune": 2329,
      "joeri": 2330,
      "hilary": 2331,
      "zahra": 2332,
      "ddy": 2333,
      "svan": 2334,
      "paddy": 2335,
      "paulien": 2336,
      "georgie": 2337,
      "mitchel": 2338,
      "yasmin": 2339,
      "svante": 2340,
      "debra": 2341,
      "nour": 2342,
      "alma": 2343,
      "orjan": 2344,
      "kris": 2345,
      "reinier": 2346,
      "quinten": 2347,
      "remy": 2348,
      "niko": 2349,
      "nelle": 2350,
      "martien": 2351,
      "jasmijn": 2352,
      "metin": 2353,
      "nelleke": 2354,
      "annbritt": 2355,
      "mees": 2356,
      "ll": 2357,
      "pu": 2358,
      "douwe": 2359,
      "bruno": 2360,
      "niall": 2361,
      "ebe": 2362,
      "oebe": 2363,
      "uta": 2364,
      "phoebe": 2365,
      "frankie": 2366,
      "geertje": 2367,
      "brett": 2368,
      "moni": 2369,
      "tes": 2370,
      "amina": 2371,
      "dom": 2372,
      "gorza": 2373,
      "malgorza": 2374,
      "tess": 2375,
      "malgorzata": 2376,
      "karlijn": 2377,
      "vatore": 2378,
      "salvatore": 2379,
      "aud": 2380,
      "var": 2381,
      "evalena": 2382,
      "ingvar": 2383,
      "audrey": 2384,
      "maya": 2385,
      "imran": 2386,
      "josie": 2387,
      "cim": 2388,
      "joacim": 2389,
      "willemijn": 2390,
      "gay": 2391,
      "charlene": 2392,
      "rebe": 2393,
      "berend": 2394,
      "edvin": 2395,
      "saga": 2396,
      "matze": 2397,
      "domen": 2398,
      "viola": 2399,
      "eve": 2400,
      "torben": 2401,
      "vivien": 2402,
      "tilly": 2403,
      "ira": 2404,
      "mire": 2405,
      "denny": 2406,
      "mireille": 2407,
      "aart": 2408,
      "anuel": 2409,
      "ramaz": 2410,
      "emanuel": 2411,
      "hanspeter": 2412,
      "ramazan": 2413,
      "llo": 2414,
      "zia": 2415,
      "ram": 2416,
      "orhan": 2417,
      "lloyd": 2418,
      "dew": 2419,
      "jeanine": 2420,
      "olivier": 2421,
      "libby": 2422,
      "cer": 2423,
      "war": 2424,
      "warren": 2425,
      "cie": 2426,
      "du": 2427,
      "ivar": 2428,
      "lynsey": 2429,
      "wiet": 2430,
      "dustin": 2431,
      "bur": 2432,
      "cia": 2433,
      "khard": 2434,
      "elisa": 2435,
      "burkhard": 2436,
      "thil": 2437,
      "wilfred": 2438,
      "bianka": 2439,
      "mh": 2440,
      "judy": 2441,
      "dorothy": 2442,
      "niamh": 2443,
      "annlouise": 2444,
      "iek": 2445,
      "imke": 2446,
      "olov": 2447,
      "moniek": 2448,
      "lonne": 2449,
      "vil": 2450,
      "mathew": 2451,
      "nicolas": 2452,
      "yasemin": 2453,
      "lonneke": 2454,
      "fras": 2455,
      "igor": 2456,
      "mirco": 2457,
      "waltraud": 2458,
      "falk": 2459,
      "fraser": 2460,
      "gh": 2461,
      "davy": 2462,
      "hugh": 2463,
      "friedrich": 2464,
      "ea": 2465,
      "nke": 2466,
      "tilda": 2467,
      "nynke": 2468,
      "entina": 2469,
      "jessi": 2470,
      "valentina": 2471,
      "tammy": 2472,
      "leila": 2473,
      "janerik": 2474,
      "hester": 2475,
      "serkan": 2476,
      "wia": 2477,
      "bernt": 2478,
      "sylwia": 2479,
      "bruce": 2480,
      "hed": 2481,
      "vie": 2482,
      "xander": 2483,
      "lette": 2484,
      "stevie": 2485,
      "samer": 2486,
      "mikey": 2487,
      "terese": 2488,
      "inus": 2489,
      "marinus": 2490,
      "gunbritt": 2491,
      "carljohan": 2492,
      "maxime": 2493,
      "amal": 2494,
      "rosalie": 2495,
      "vive": 2496,
      "dert": 2497,
      "arend": 2498,
      "deb": 2499,
      "konstantin": 2500,
      "rami": 2501,
      "loek": 2502,
      "aylin": 2503,
      "fabio": 2504,
      "hal": 2505,
      "wren": 2506,
      "andries": 2507,
      "ilka": 2508,
      "lawren": 2509,
      "halil": 2510,
      "lawrence": 2511,
      "cle": 2512,
      "iw": 2513,
      "cara": 2514,
      "mens": 2515,
      "clemens": 2516,
      "iwona": 2517,
      "sen": 2518,
      "zara": 2519,
      "carrie": 2520,
      "larserik": 2521,
      "dor": 2522,
      "ib": 2523,
      "alo": 2524,
      "sasha": 2525,
      "hidde": 2526,
      "tobbe": 2527,
      "zak": 2528,
      "damien": 2529,
      "raj": 2530,
      "kemal": 2531,
      "minna": 2532,
      "silvana": 2533,
      "izzy": 2534,
      "glyn": 2535,
      "senna": 2536,
      "yna": 2537,
      "annacarin": 2538,
      "aran": 2539,
      "marjolijn": 2540,
      "ulli": 2541,
      "madlen": 2542,
      "ciaran": 2543,
      "dragan": 2544,
      "liane": 2545,
      "gerwin": 2546,
      "dionne": 2547,
      "gertrud": 2548,
      "bella": 2549,
      "cis": 2550,
      "ius": 2551,
      "iwan": 2552,
      "rad": 2553,
      "adel": 2554,
      "julius": 2555,
      "boy": 2556,
      "herma": 2557,
      "konrad": 2558,
      "puck": 2559,
      "benno": 2560,
      "remon": 2561,
      "kadir": 2562,
      "henric": 2563,
      "dorota": 2564,
      "ac": 2565,
      "allis": 2566,
      "isaac": 2567,
      "perry": 2568,
      "noortje": 2569,
      "allison": 2570,
      "wilbert": 2571,
      "carlijn": 2572,
      "veronique": 2573,
      "arnoud": 2574,
      "trees": 2575,
      "curtis": 2576,
      "frauke": 2577,
      "rhiannon": 2578,
      "grit": 2579,
      "kn": 2580,
      "anast": 2581,
      "anett": 2582,
      "asia": 2583,
      "juliette": 2584,
      "mahdi": 2585,
      "knut": 2586,
      "anastasia": 2587,
      "opp": 2588,
      "popp": 2589,
      "bodo": 2590,
      "geraldine": 2591,
      "poppy": 2592,
      "bab": 2593,
      "maril": 2594,
      "meg": 2595,
      "vikki": 2596,
      "jeanet": 2597,
      "sterre": 2598,
      "sinan": 2599,
      "marilyn": 2600,
      "terri": 2601,
      "pip": 2602,
      "amon": 2603,
      "howard": 2604,
      "bu": 2605,
      "rak": 2606,
      "elif": 2607,
      "burak": 2608,
      "fons": 2609,
      "ankie": 2610,
      "margret": 2611,
      "joelle": 2612,
      "onno": 2613,
      "ellio": 2614,
      "beau": 2615,
      "greetje": 2616,
      "drew": 2617,
      "elliott": 2618,
      "jit": 2619,
      "marni": 2620,
      "vivi": 2621,
      "jitske": 2622,
      "marnix": 2623,
      "hul": 2624,
      "sacha": 2625,
      "hansjoachim": 2626,
      "casey": 2627,
      "remko": 2628,
      "stanze": 2629,
      "hulya": 2630,
      "eg": 2631,
      "christofer": 2632,
      "egbert": 2633,
      "sah": 2634,
      "corey": 2635,
      "hai": 2636,
      "heidrun": 2637,
      "fael": 2638,
      "erkan": 2639,
      "rafael": 2640,
      "fredric": 2641,
      "sinead": 2642,
      "bke": 2643,
      "tia": 2644,
      "stella": 2645,
      "inab": 2646,
      "jaco": 2647,
      "tti": 2648,
      "adem": 2649,
      "mostafa": 2650,
      "gaz": 2651,
      "rosanne": 2652,
      "wiebke": 2653,
      "dat": 2654,
      "oul": 2655,
      "raoul": 2656,
      "abbas": 2657,
      "jorrit": 2658,
      "juan": 2659,
      "cornelis": 2660,
      "liselott": 2661,
      "eel": 2662,
      "netty": 2663,
      "edgar": 2664,
      "jessy": 2665,
      "ayhan": 2666,
      "eelco": 2667,
      "mina": 2668,
      "pien": 2669,
      "andrei": 2670,
      "kristel": 2671,
      "valentin": 2672,
      "anas": 2673,
      "rana": 2674,
      "bente": 2675,
      "arch": 2676,
      "olli": 2677,
      "harris": 2678,
      "davey": 2679,
      "cathrine": 2680,
      "patry": 2681,
      "kenth": 2682,
      "quincy": 2683,
      "archie": 2684,
      "harrison": 2685,
      "donald": 2686,
      "kyra": 2687,
      "kaylee": 2688,
      "alisha": 2689,
      "annchristine": 2690,
      "ity": 2691,
      "kelsey": 2692,
      "chey": 2693,
      "iman": 2694,
      "daniella": 2695,
      "susie": 2696,
      "ewan": 2697,
      "cheyenne": 2698,
      "kil": 2699,
      "ville": 2700,
      "francien": 2701,
      "tjeerd": 2702,
      "kenan": 2703,
      "ionut": 2704,
      "leyla": 2705,
      "leslie": 2706,
      "ullabritt": 2707,
      "mehdi": 2708,
      "bul": 2709,
      "reg": 2710,
      "love": 2711,
      "karola": 2712,
      "tania": 2713,
      "lyndsey": 2714,
      "bulent": 2715,
      "amin": 2716,
      "trish": 2717,
      "emile": 2718,
      "madelon": 2719,
      "tijmen": 2720,
      "auke": 2721,
      "cem": 2722,
      "ragn": 2723,
      "kari": 2724,
      "hani": 2725,
      "jessie": 2726,
      "nicolette": 2727,
      "emilie": 2728,
      "domenic": 2729,
      "sjef": 2730,
      "roelie": 2731,
      "freddie": 2732,
      "donny": 2733,
      "laurence": 2734,
      "dula": 2735,
      "erle": 2736,
      "ase": 2737,
      "ammar": 2738,
      "veerle": 2739,
      "del": 2740,
      "ano": 2741,
      "andrej": 2742,
      "toine": 2743,
      "alireza": 2744,
      "nicki": 2745,
      "jacky": 2746,
      "kieron": 2747,
      "delano": 2748,
      "jaqu": 2749,
      "kane": 2750,
      "huib": 2751,
      "youse": 2752,
      "beatrix": 2753,
      "jaqueline": 2754,
      "yousef": 2755,
      "nur": 2756,
      "seb": 2757,
      "gerlinde": 2758,
      "tord": 2759,
      "dinie": 2760,
      "lottie": 2761,
      "air": 2762,
      "dineke": 2763,
      "till": 2764,
      "alast": 2765,
      "thilo": 2766,
      "alastair": 2767,
      "kor": 2768,
      "sune": 2769,
      "winfried": 2770,
      "nelia": 2771,
      "shona": 2772,
      "chiara": 2773,
      "kornelia": 2774,
      "fro": 2775,
      "tijn": 2776,
      "perolof": 2777,
      "heiner": 2778,
      "mariana": 2779,
      "froukje": 2780,
      "fia": 2781,
      "khan": 2782,
      "gokhan": 2783,
      "derya": 2784,
      "hildegard": 2785,
      "bla": 2786,
      "mollie": 2787,
      "charley": 2788,
      "daryl": 2789,
      "timothy": 2790,
      "ok": 2791,
      "friedhelm": 2792,
      "maddie": 2793,
      "siri": 2794,
      "fol": 2795,
      "fad": 2796,
      "hanne": 2797,
      "oud": 2798,
      "tie": 2799,
      "yil": 2800,
      "enes": 2801,
      "cham": 2802,
      "joli": 2803,
      "annamaria": 2804,
      "nada": 2805,
      "isac": 2806,
      "yvon": 2807,
      "ciara": 2808,
      "nichola": 2809,
      "hicham": 2810,
      "ties": 2811,
      "yilmaz": 2812,
      "jolien": 2813,
      "aid": 2814,
      "nin": 2815,
      "ercan": 2816,
      "guen": 2817,
      "milena": 2818,
      "oub": 2819,
      "liza": 2820,
      "ayoub": 2821,
      "justine": 2822,
      "aiden": 2823,
      "cen": 2824,
      "raja": 2825,
      "giz": 2826,
      "dogan": 2827,
      "larsgoran": 2828,
      "dewi": 2829,
      "cengiz": 2830,
      "rika": 2831,
      "hanan": 2832,
      "fredrika": 2833,
      "noel": 2834,
      "norma": 2835,
      "lucie": 2836,
      "aukje": 2837,
      "nett": 2838,
      "mariet": 2839,
      "tay": 2840,
      "cathrin": 2841,
      "swen": 2842,
      "amie": 2843,
      "lay": 2844,
      "juul": 2845,
      "willemien": 2846,
      "derk": 2847,
      "april": 2848,
      "flor": 2849,
      "fenna": 2850,
      "giel": 2851,
      "jsa": 2852,
      "jip": 2853,
      "ally": 2854,
      "udew": 2855,
      "cajsa": 2856,
      "boudew": 2857,
      "bille": 2858,
      "sybille": 2859,
      "florin": 2860,
      "boudewijn": 2861,
      "dg": 2862,
      "hadi": 2863,
      "annkristin": 2864,
      "mason": 2865,
      "bridg": 2866,
      "jerker": 2867,
      "jimmie": 2868,
      "muhammed": 2869,
      "gaynor": 2870,
      "bridget": 2871,
      "eber": 2872,
      "sad": 2873,
      "erol": 2874,
      "lem": 2875,
      "alin": 2876,
      "helge": 2877,
      "kirstie": 2878,
      "ozlem": 2879,
      "eberhard": 2880,
      "sadie": 2881,
      "vla": 2882,
      "annsofi": 2883,
      "alwin": 2884,
      "bernie": 2885,
      "dimir": 2886,
      "thijmen": 2887,
      "vladimir": 2888,
      "oke": 2889,
      "bernad": 2890,
      "heide": 2891,
      "brooke": 2892,
      "bernadette": 2893,
      "derik": 2894,
      "glo": 2895,
      "kka": 2896,
      "nab": 2897,
      "pir": 2898,
      "janette": 2899,
      "diederik": 2900,
      "wiebe": 2901,
      "gloria": 2902,
      "nabil": 2903,
      "byl": 2904,
      "ilias": 2905,
      "lois": 2906,
      "suus": 2907,
      "sibyl": 2908,
      "sibylle": 2909,
      "augu": 2910,
      "nis": 2911,
      "jopie": 2912,
      "christien": 2913,
      "moira": 2914,
      "bernard": 2915,
      "sture": 2916,
      "wies": 2917,
      "august": 2918,
      "nisse": 2919,
      "belin": 2920,
      "ssandro": 2921,
      "erique": 2922,
      "alessandro": 2923,
      "tricia": 2924,
      "frederique": 2925,
      "yassine": 2926,
      "belinda": 2927,
      "mgard": 2928,
      "sindy": 2929,
      "inar": 2930,
      "lek": 2931,
      "irmgard": 2932,
      "robbin": 2933,
      "klaudia": 2934,
      "dilek": 2935,
      "ogen": 2936,
      "pen": 2937,
      "spen": 2938,
      "imogen": 2939,
      "jude": 2940,
      "spencer": 2941,
      "sali": 2942,
      "jorge": 2943,
      "angus": 2944,
      "aniek": 2945,
      "sylvana": 2946,
      "babette": 2947,
      "salih": 2948,
      "una": 2949,
      "onur": 2950,
      "shauna": 2951,
      "kelvin": 2952,
      "aida": 2953,
      "vanja": 2954,
      "mila": 2955,
      "sahar": 2956,
      "geoffrey": 2957,
      "milad": 2958,
      "ag": 2959,
      "fara": 2960,
      "enzo": 2961,
      "netha": 2962,
      "evi": 2963,
      "vincenzo": 2964,
      "walid": 2965,
      "omid": 2966,
      "yasar": 2967,
      "agnetha": 2968,
      "farah": 2969,
      "obel": 2970,
      "isobel": 2971,
      "gunvor": 2972,
      "kye": 2973,
      "polly": 2974,
      "stian": 2975,
      "cristian": 2976,
      "gonnie": 2977,
      "hala": 2978,
      "iley": 2979,
      "esra": 2980,
      "jantje": 2981,
      "manja": 2982,
      "kerrie": 2983,
      "freya": 2984,
      "dorothea": 2985,
      "bailey": 2986,
      "jannis": 2987,
      "benni": 2988,
      "vilma": 2989,
      "ciska": 2990,
      "ceri": 2991,
      "fan": 2992,
      "scha": 2993,
      "tif": 2994,
      "mischa": 2995,
      "mariejose": 2996,
      "evie": 2997,
      "leyman": 2998,
      "suleyman": 2999,
      "constanze": 3000,
      "syed": 3001,
      "tilde": 3002,
      "fany": 3003,
      "tiffany": 3004,
      "hos": 3005,
      "nele": 3006,
      "elles": 3007,
      "serdar": 3008,
      "euan": 3009,
      "titti": 3010,
      "sietske": 3011,
      "hossein": 3012,
      "sepp": 3013,
      "josefina": 3014,
      "kiran": 3015,
      "merijn": 3016,
      "ariane": 3017,
      "stell": 3018,
      "sake": 3019,
      "larsake": 3020,
      "klausdieter": 3021,
      "sibel": 3022,
      "detlev": 3023,
      "stellan": 3024,
      "kellie": 3025,
      "nny": 3026,
      "marlou": 3027,
      "sunny": 3028,
      "philippa": 3029,
      "fun": 3030,
      "elmar": 3031,
      "ritt": 3032,
      "abritt": 3033,
      "harmen": 3034,
      "filiz": 3035,
      "sheena": 3036,
      "erdal": 3037,
      "clas": 3038,
      "mihai": 3039,
      "mascha": 3040,
      "frederik": 3041,
      "cobie": 3042,
      "mahmut": 3043,
      "antoon": 3044,
      "erike": 3045,
      "maher": 3046,
      "cassie": 3047,
      "gosta": 3048,
      "friederike": 3049,
      "quinty": 3050,
      "justyna": 3051,
      "ku": 3052,
      "arron": 3053,
      "daz": 3054,
      "aydin": 3055,
      "shelly": 3056,
      "eke": 3057,
      "ank": 3058,
      "colette": 3059,
      "pererik": 3060,
      "connie": 3061,
      "leendert": 3062,
      "musa": 3063,
      "ugur": 3064,
      "wa": 3065,
      "jop": 3066,
      "annkathrin": 3067,
      "hoi": 3068,
      "eefje": 3069,
      "hsen": 3070,
      "lid": 3071,
      "emmel": 3072,
      "mohsen": 3073,
      "simona": 3074,
      "ayman": 3075,
      "tilo": 3076,
      "sietse": 3077,
      "lidy": 3078,
      "far": 3079,
      "had": 3080,
      "mais": 3081,
      "ryl": 3082,
      "jurjen": 3083,
      "darryl": 3084,
      "siw": 3085,
      "falko": 3086,
      "farhad": 3087,
      "maisie": 3088,
      "ebru": 3089,
      "geke": 3090,
      "matti": 3091,
      "svenerik": 3092,
      "elinor": 3093,
      "richie": 3094,
      "siggi": 3095,
      "majid": 3096,
      "yannik": 3097,
      "bitte": 3098,
      "umit": 3099,
      "ence": 3100,
      "engin": 3101,
      "leena": 3102,
      "terence": 3103,
      "betsie": 3104,
      "sjo": 3105,
      "aline": 3106,
      "kah": 3107,
      "luise": 3108,
      "greger": 3109,
      "ricarda": 3110,
      "rebekah": 3111,
      "sjoukje": 3112,
      "mes": 3113,
      "melli": 3114,
      "cht": 3115,
      "annabel": 3116,
      "annegret": 3117,
      "jantine": 3118,
      "riny": 3119,
      "zac": 3120,
      "mesut": 3121,
      "eb": 3122,
      "eiv": 3123,
      "nu": 3124,
      "wijn": 3125,
      "rece": 3126,
      "ferhat": 3127,
      "juliet": 3128,
      "rahman": 3129,
      "rhian": 3130,
      "khalil": 3131,
      "abdirahman": 3132,
      "eivor": 3133,
      "wijnand": 3134,
      "recep": 3135,
      "danni": 3136,
      "hermien": 3137,
      "riek": 3138,
      "siem": 3139,
      "hayden": 3140,
      "kilian": 3141,
      "eck": 3142,
      "gdan": 3143,
      "osa": 3144,
      "umu": 3145,
      "zandra": 3146,
      "alec": 3147,
      "patrizia": 3148,
      "chrissy": 3149,
      "clair": 3150,
      "kerri": 3151,
      "bogdan": 3152,
      "colleen": 3153,
      "dilara": 3154,
      "eckhard": 3155,
      "osama": 3156,
      "harley": 3157,
      "jessika": 3158,
      "baris": 3159,
      "dirkjan": 3160,
      "alana": 3161,
      "tarek": 3162,
      "wietske": 3163,
      "pippa": 3164,
      "amit": 3165,
      "otje": 3166,
      "keele": 3167,
      "mootje": 3168,
      "gios": 3169,
      "melek": 3170,
      "evamaria": 3171,
      "georgios": 3172,
      "lorenz": 3173,
      "keeley": 3174,
      "cco": 3175,
      "eda": 3176,
      "owe": 3177,
      "jody": 3178,
      "asif": 3179,
      "ilja": 3180,
      "rod": 3181,
      "rocco": 3182,
      "beryl": 3183,
      "frieda": 3184,
      "salah": 3185,
      "gonny": 3186,
      "oleg": 3187,
      "ling": 3188,
      "stacy": 3189,
      "jurre": 3190,
      "sylke": 3191,
      "lilli": 3192,
      "arnd": 3193,
      "abbey": 3194,
      "hedvig": 3195,
      "bry": 3196,
      "danne": 3197,
      "hes": 3198,
      "arash": 3199,
      "charissa": 3200,
      "chrissi": 3201,
      "constantin": 3202,
      "wolfram": 3203,
      "miep": 3204,
      "kylie": 3205,
      "rahul": 3206,
      "sieglinde": 3207,
      "bryony": 3208,
      "hessel": 3209,
      "maha": 3210,
      "miles": 3211,
      "ulrik": 3212,
      "barrie": 3213,
      "cordula": 3214,
      "sharona": 3215,
      "lennard": 3216,
      "selim": 3217,
      "yem": 3218,
      "cho": 3219,
      "laurie": 3220,
      "muna": 3221,
      "aya": 3222,
      "cassandra": 3223,
      "meryem": 3224,
      "majbritt": 3225,
      "tycho": 3226,
      "ande": 3227,
      "jolande": 3228,
      "volkan": 3229,
      "regine": 3230,
      "gwen": 3231,
      "hr": 3232,
      "kamal": 3233,
      "hamed": 3234,
      "hagen": 3235,
      "bashar": 3236,
      "merve": 3237,
      "suzie": 3238,
      "alois": 3239,
      "dela": 3240,
      "annmari": 3241,
      "isal": 3242,
      "teza": 3243,
      "vendela": 3244,
      "boel": 3245,
      "faisal": 3246,
      "bassam": 3247,
      "morteza": 3248,
      "emad": 3249,
      "tolga": 3250,
      "tova": 3251,
      "maggan": 3252,
      "bauke": 3253,
      "nas": 3254,
      "wiel": 3255,
      "peranders": 3256,
      "brittinger": 3257,
      "shadi": 3258,
      "naser": 3259,
      "mmer": 3260,
      "rima": 3261,
      "sedat": 3262,
      "summer": 3263,
      "ninni": 3264,
      "floren": 3265,
      "thold": 3266,
      "berthold": 3267,
      "jeannet": 3268,
      "hild": 3269,
      "abdullahi": 3270,
      "sevgi": 3271,
      "viveka": 3272,
      "florence": 3273,
      "bay": 3274,
      "tab": 3275,
      "marlen": 3276,
      "ismet": 3277,
      "kaan": 3278,
      "manal": 3279,
      "mirthe": 3280,
      "huda": 3281,
      "pietje": 3282,
      "bayram": 3283,
      "tabea": 3284,
      "om": 3285,
      "allar": 3286,
      "usman": 3287,
      "lizzy": 3288,
      "roeland": 3289,
      "allard": 3290,
      "bine": 3291,
      "cli": 3292,
      "zor": 3293,
      "ravi": 3294,
      "kara": 3295,
      "rania": 3296,
      "samar": 3297,
      "noud": 3298,
      "theodor": 3299,
      "cliff": 3300,
      "zoran": 3301,
      "umut": 3302,
      "maine": 3303,
      "onka": 3304,
      "ilonka": 3305,
      "charmaine": 3306,
      "saad": 3307,
      "melker": 3308,
      "nikolai": 3309,
      "guenter": 3310,
      "aileen": 3311,
      "iq": 3312,
      "kian": 3313,
      "yun": 3314,
      "andreea": 3315,
      "thee": 3316,
      "birger": 3317,
      "becki": 3318,
      "tinus": 3319,
      "signe": 3320,
      "dorothee": 3321,
      "tariq": 3322,
      "yunus": 3323,
      "carel": 3324,
      "anniek": 3325,
      "margarete": 3326,
      "zainab": 3327,
      "rebekka": 3328,
      "ziad": 3329,
      "ragnar": 3330,
      "zu": 3331,
      "arzu": 3332,
      "eltraud": 3333,
      "edeltraud": 3334,
      "faith": 3335,
      "birte": 3336,
      "sahin": 3337,
      "ef": 3338,
      "steef": 3339,
      "udi": 3340,
      "claudi": 3341,
      "minke": 3342,
      "ewald": 3343,
      "ewelina": 3344,
      "baukje": 3345,
      "micaela": 3346,
      "dolf": 3347,
      "eal": 3348,
      "fien": 3349,
      "gve": 3350,
      "sja": 3351,
      "tjitske": 3352,
      "micheal": 3353,
      "carita": 3354,
      "berith": 3355,
      "yngve": 3356,
      "sevda": 3357,
      "sjaan": 3358,
      "egon": 3359,
      "sw": 3360,
      "wael": 3361,
      "freja": 3362,
      "brita": 3363,
      "henkjan": 3364,
      "cissi": 3365,
      "nettie": 3366,
      "pirjo": 3367,
      "swetlana": 3368,
      "aa": 3369,
      "big": 3370,
      "dries": 3371,
      "eamon": 3372,
      "fke": 3373,
      "ibo": 3374,
      "jannes": 3375,
      "tjer": 3376,
      "uff": 3377,
      "onor": 3378,
      "ttis": 3379,
      "eleonor": 3380,
      "wietse": 3381,
      "aafke": 3382,
      "biggi": 3383,
      "tjerk": 3384,
      "uffe": 3385,
      "yuk": 3386,
      "jort": 3387,
      "bbi": 3388,
      "pascalle": 3389,
      "ludger": 3390,
      "tiina": 3391,
      "bibbi": 3392,
      "yuksel": 3393,
      "ania": 3394,
      "rasha": 3395,
      "aman": 3396,
      "jace": 3397,
      "nici": 3398,
      "neal": 3399,
      "manouk": 3400,
      "hansi": 3401,
      "gny": 3402,
      "maddy": 3403,
      "sabah": 3404,
      "torgny": 3405,
      "shahid": 3406,
      "majlis": 3407,
      "jacek": 3408,
      "av": 3409,
      "vit": 3410,
      "aneta": 3411,
      "reem": 3412,
      "isin": 3413,
      "roisin": 3414,
      "janolof": 3415,
      "tommie": 3416,
      "madde": 3417,
      "anneliese": 3418,
      "salam": 3419,
      "tijs": 3420,
      "viveca": 3421,
      "avril": 3422,
      "vitali": 3423,
      "ges": 3424,
      "kub": 3425,
      "trud": 3426,
      "jakub": 3427,
      "mariann": 3428,
      "marija": 3429,
      "christos": 3430,
      "aynur": 3431,
      "hiba": 3432,
      "trudie": 3433,
      "imad": 3434,
      "erhan": 3435,
      "kirstin": 3436,
      "gretha": 3437,
      "colinda": 3438,
      "tuula": 3439,
      "domenico": 3440,
      "hra": 3441,
      "jelena": 3442,
      "mette": 3443,
      "joran": 3444,
      "jorien": 3445,
      "raim": 3446,
      "maritha": 3447,
      "sussi": 3448,
      "juha": 3449,
      "aysel": 3450,
      "und": 3451,
      "gertie": 3452,
      "zehra": 3453,
      "selam": 3454,
      "vivienne": 3455,
      "raimund": 3456,
      "melle": 3457,
      "selin": 3458,
      "troy": 3459,
      "zi": 3460,
      "mala": 3461,
      "andru": 3462,
      "icity": 3463,
      "linzi": 3464,
      "alexandru": 3465,
      "charlott": 3466,
      "robban": 3467,
      "felicity": 3468,
      "cihan": 3469,
      "tarja": 3470,
      "dorte": 3471,
      "cisca": 3472,
      "patryk": 3473,
      "blake": 3474,
      "malak": 3475,
      "klauspeter": 3476,
      "zach": 3477,
      "azad": 3478,
      "dik": 3479,
      "skye": 3480,
      "ilhan": 3481,
      "serhat": 3482,
      "ile": 3483,
      "ple": 3484,
      "vas": 3485,
      "malena": 3486,
      "leven": 3487,
      "jaana": 3488,
      "petri": 3489,
      "triona": 3490,
      "catriona": 3491,
      "hauke": 3492,
      "nader": 3493,
      "eep": 3494,
      "sandeep": 3495,
      "valentijn": 3496,
      "hedda": 3497,
      "pleun": 3498,
      "vasile": 3499,
      "levent": 3500,
      "fur": 3501,
      "umo": 3502,
      "jolan": 3503,
      "bex": 3504,
      "rone": 3505,
      "out": 3506,
      "songul": 3507,
      "ewout": 3508,
      "siebe": 3509,
      "firas": 3510,
      "canan": 3511,
      "yorick": 3512,
      "tyrone": 3513,
      "ozcan": 3514,
      "fadumo": 3515,
      "furkan": 3516,
      "jolanta": 3517,
      "erhard": 3518,
      "esha": 3519,
      "gur": 3520,
      "bouke": 3521,
      "louie": 3522,
      "juri": 3523,
      "ayesha": 3524,
      "sharron": 3525,
      "zeki": 3526,
      "floortje": 3527,
      "ozgur": 3528,
      "vivianne": 3529,
      "aga": 3530,
      "annelo": 3531,
      "idar": 3532,
      "gerdi": 3533,
      "masoud": 3534,
      "cemal": 3535,
      "haidar": 3536,
      "kert": 3537,
      "barend": 3538,
      "meik": 3539,
      "friso": 3540,
      "kirk": 3541,
      "peet": 3542,
      "hillevi": 3543,
      "shirin": 3544,
      "eloise": 3545,
      "corinne": 3546,
      "beppie": 3547,
      "folkert": 3548,
      "agata": 3549,
      "anneloes": 3550,
      "gerdien": 3551,
      "bj": 3552,
      "damon": 3553,
      "elfried": 3554,
      "miel": 3555,
      "camiel": 3556,
      "heino": 3557,
      "thorben": 3558,
      "hillie": 3559,
      "alfons": 3560,
      "sevim": 3561,
      "oktay": 3562,
      "bjarne": 3563,
      "elfriede": 3564,
      "lam": 3565,
      "macie": 3566,
      "evalo": 3567,
      "lisamarie": 3568,
      "ekrem": 3569,
      "thorbjorn": 3570,
      "lammert": 3571,
      "maciej": 3572,
      "evalotta": 3573,
      "okan": 3574,
      "annkatrin": 3575,
      "emrah": 3576,
      "sussie": 3577,
      "ingbritt": 3578,
      "sonke": 3579,
      "riekie": 3580,
      "ritva": 3581,
      "geertjan": 3582,
      "karolin": 3583,
      "yosef": 3584,
      "tuva": 3585,
      "xanne": 3586,
      "roxanne": 3587,
      "perarne": 3588,
      "perake": 3589,
      "timm": 3590,
      "huw": 3591,
      "catalin": 3592,
      "mazen": 3593,
      "tygo": 3594,
      "marlo": 3595,
      "marwa": 3596,
      "mitri": 3597,
      "hansdieter": 3598,
      "ingolf": 3599,
      "myles": 3600,
      "josje": 3601,
      "dimitri": 3602,
      "nihat": 3603,
      "marlous": 3604,
      "dimitrios": 3605,
      "gmor": 3606,
      "rigmor": 3607,
      "paiv": 3608,
      "lova": 3609,
      "trisha": 3610,
      "caz": 3611,
      "kennet": 3612,
      "catrine": 3613,
      "paivi": 3614,
      "iusz": 3615,
      "elis": 3616,
      "mirte": 3617,
      "dariusz": 3618,
      "tindra": 3619,
      "kiera": 3620,
      "hilly": 3621,
      "elisha": 3622,
      "jouke": 3623,
      "machiel": 3624,
      "dajana": 3625,
      "robertjan": 3626,
      "josien": 3627,
      "mirja": 3628,
      "merja": 3629,
      "jayden": 3630,
      "emmelie": 3631,
      "lol": 3632,
      "lijn": 3633,
      "pek": 3634,
      "tun": 3635,
      "cay": 3636,
      "bekir": 3637,
      "merlijn": 3638,
      "peo": 3639,
      "tinie": 3640,
      "jelte": 3641,
      "lollo": 3642,
      "pekka": 3643,
      "tuncay": 3644,
      "cja": 3645,
      "kam": 3646,
      "aram": 3647,
      "elfi": 3648,
      "reine": 3649,
      "ttan": 3650,
      "gerjan": 3651,
      "henke": 3652,
      "samet": 3653,
      "sammie": 3654,
      "gittan": 3655,
      "beckie": 3656,
      "majd": 3657,
      "hamish": 3658,
      "patrycja": 3659,
      "kamran": 3660,
      "cuk": 3661,
      "jko": 3662,
      "yke": 3663,
      "mayke": 3664,
      "annine": 3665,
      "keira": 3666,
      "romee": 3667,
      "jeannine": 3668,
      "evamarie": 3669,
      "larsolof": 3670,
      "hub": 3671,
      "billie": 3672,
      "selcuk": 3673,
      "semra": 3674,
      "zeljko": 3675,
      "nuray": 3676,
      "hael": 3677,
      "sir": 3678,
      "mihael": 3679,
      "rag": 3680,
      "tori": 3681,
      "morag": 3682,
      "verity": 3683,
      "basel": 3684,
      "lynette": 3685,
      "collette": 3686,
      "peer": 3687,
      "elske": 3688,
      "dougie": 3689,
      "dunja": 3690,
      "gayle": 3691,
      "sahra": 3692,
      "sirpa": 3693,
      "mihaela": 3694,
      "gje": 3695,
      "tula": 3696,
      "tug": 3697,
      "jodi": 3698,
      "harma": 3699,
      "pert": 3700,
      "ronan": 3701,
      "rupert": 3702,
      "rietje": 3703,
      "bregje": 3704,
      "tulay": 3705,
      "tugba": 3706,
      "eija": 3707,
      "kmar": 3708,
      "mur": 3709,
      "uben": 3710,
      "eltje": 3711,
      "reuben": 3712,
      "neeltje": 3713,
      "cody": 3714,
      "giles": 3715,
      "hansjorg": 3716,
      "vickie": 3717,
      "volkmar": 3718,
      "madelen": 3719,
      "cerys": 3720,
      "vilhelm": 3721,
      "ebony": 3722,
      "murray": 3723,
      "pil": 3724,
      "zan": 3725,
      "teus": 3726,
      "evabritt": 3727,
      "gulay": 3728,
      "sarahjane": 3729,
      "zeinab": 3730,
      "bets": 3731,
      "yazan": 3732,
      "serpil": 3733,
      "yoeri": 3734,
      "majed": 3735,
      "pinar": 3736,
      "indert": 3737,
      "jonath": 3738,
      "chrissie": 3739,
      "meindert": 3740,
      "janake": 3741,
      "patsy": 3742,
      "finlay": 3743,
      "lyndsay": 3744,
      "jonathon": 3745,
      "iona": 3746,
      "arran": 3747,
      "carys": 3748,
      "cock": 3749,
      "birgitt": 3750,
      "rinie": 3751,
      "karlerik": 3752,
      "dylano": 3753,
      "gulcan": 3754,
      "uz": 3755,
      "vuz": 3756,
      "marietje": 3757,
      "baran": 3758,
      "gav": 3759,
      "cobi": 3760,
      "reinder": 3761,
      "yavuz": 3762,
      "muhammet": 3763,
      "viggo": 3764,
      "justus": 3765,
      "cig": 3766,
      "dem": 3767,
      "manni": 3768,
      "ogu": 3769,
      "zhan": 3770,
      "riley": 3771,
      "ramin": 3772,
      "esje": 3773,
      "janin": 3774,
      "geesje": 3775,
      "dot": 3776,
      "matts": 3777,
      "jurriaan": 3778,
      "karljohan": 3779,
      "senol": 3780,
      "cigdem": 3781,
      "oguzhan": 3782,
      "ghassan": 3783,
      "itta": 3784,
      "rell": 3785,
      "riitta": 3786,
      "trijn": 3787,
      "darrell": 3788,
      "yaku": 3789,
      "shelby": 3790,
      "trijntje": 3791,
      "yakup": 3792,
      "gha": 3793,
      "raija": 3794,
      "liisa": 3795,
      "tracie": 3796,
      "hussam": 3797,
      "taner": 3798,
      "chelsey": 3799,
      "shell": 3800,
      "guusje": 3801,
      "ghada": 3802,
      "sti": 3803,
      "jez": 3804,
      "hei": 3805,
      "kersti": 3806,
      "krijn": 3807,
      "katha": 3808,
      "noreen": 3809,
      "ayten": 3810,
      "fok": 3811,
      "tash": 3812,
      "vedat": 3813,
      "henkie": 3814,
      "fokke": 3815,
      "bjo": 3816,
      "dn": 3817,
      "eil": 3818,
      "gam": 3819,
      "uno": 3820,
      "erdogan": 3821,
      "mareen": 3822,
      "thir": 3823,
      "amus": 3824,
      "ortje": 3825,
      "petron": 3826,
      "seamus": 3827,
      "idh": 3828,
      "corien": 3829,
      "doortje": 3830,
      "haydn": 3831,
      "jillian": 3832,
      "ufuk": 3833,
      "bjoern": 3834,
      "eilidh": 3835,
      "gamze": 3836,
      "thirza": 3837,
      "petronella": 3838,
      "einar": 3839,
      "yson": 3840,
      "zhr": 3841,
      "alyson": 3842,
      "carmel": 3843,
      "gerno": 3844,
      "gerold": 3845,
      "tegan": 3846,
      "gitta": 3847,
      "liene": 3848,
      "meral": 3849,
      "shaz": 3850,
      "leighton": 3851,
      "wieke": 3852,
      "gernot": 3853,
      "lieneke": 3854,
      "nanna": 3855,
      "eld": 3856,
      "macht": 3857,
      "raik": 3858,
      "isol": 3859,
      "lodew": 3860,
      "irdre": 3861,
      "neville": 3862,
      "deirdre": 3863,
      "perola": 3864,
      "ijk": 3865,
      "ewoud": 3866,
      "margitta": 3867,
      "folke": 3868,
      "funda": 3869,
      "machteld": 3870,
      "isolde": 3871,
      "lodewijk": 3872,
      "gos": 3873,
      "hj": 3874,
      "jnie": 3875,
      "lineke": 3876,
      "vad": 3877,
      "asda": 3878,
      "almar": 3879,
      "alasda": 3880,
      "javad": 3881,
      "trijnie": 3882,
      "enake": 3883,
      "larsgunnar": 3884,
      "ellake": 3885,
      "kjellake": 3886,
      "baz": 3887,
      "ozkan": 3888,
      "svenake": 3889,
      "nurcan": 3890,
      "gosia": 3891,
      "hjalmar": 3892,
      "alasdair": 3893,
      "aal": 3894,
      "bryn": 3895,
      "alun": 3896,
      "aleyna": 3897,
      "hanad": 3898,
      "mohanad": 3899,
      "jenneke": 3900,
      "fadia": 3901,
      "aaltje": 3902,
      "cel": 3903,
      "dev": 3904,
      "wol": 3905,
      "marlis": 3906,
      "mient": 3907,
      "gerco": 3908,
      "dome": 3909,
      "ansgar": 3910,
      "serap": 3911,
      "blair": 3912,
      "tayfun": 3913,
      "heidemarie": 3914,
      "celal": 3915,
      "devon": 3916,
      "wolter": 3917,
      "mientje": 3918,
      "dd": 3919,
      "zer": 3920,
      "arine": 3921,
      "matte": 3922,
      "todd": 3923,
      "nicke": 3924,
      "hansgeorg": 3925,
      "svenolof": 3926,
      "katharine": 3927,
      "rinske": 3928,
      "rosalin": 3929,
      "franzjosef": 3930,
      "gote": 3931,
      "mags": 3932,
      "rhona": 3933,
      "tamsin": 3934,
      "frazer": 3935,
      "ragnhild": 3936,
      "rosalind": 3937,
      "cet": 3938,
      "gem": 3939,
      "sjon": 3940,
      "keir": 3941,
      "lacey": 3942,
      "jonte": 3943,
      "lenneke": 3944,
      "gijsbert": 3945,
      "gonul": 3946,
      "cetin": 3947,
      "keiran": 3948,
      "sjan": 3949,
      "trich": 3950,
      "boukje": 3951,
      "becci": 3952,
      "dietrich": 3953,
      "ludde": 3954,
      "ner": 3955,
      "sver": 3956,
      "vard": 3957,
      "kattis": 3958,
      "abbi": 3959,
      "davie": 3960,
      "edvard": 3961,
      "charbel": 3962,
      "conner": 3963,
      "berndt": 3964,
      "ashton": 3965,
      "thord": 3966,
      "sverker": 3967,
      "marrit": 3968,
      "seija": 3969,
      "jordon": 3970,
      "hanswerner": 3971,
      "stacie": 3972,
      "jurrien": 3973,
      "kaye": 3974,
      "ged": 3975,
      "erling": 3976,
      "tage": 3977,
      "lisen": 3978,
      "kaiuwe": 3979,
      "klaske": 3980,
      "dill": 3981,
      "jed": 3982,
      "erland": 3983,
      "kaz": 3984,
      "orla": 3985,
      "perolov": 3986,
      "ingmar": 3987,
      "hubertus": 3988,
      "brogan": 3989,
      "rhianna": 3990,
      "domenik": 3991,
      "glynis": 3992,
      "dillon": 3993,
      "fyn": 3994,
      "manne": 3995,
      "uise": 3996,
      "kaisa": 3997,
      "marieluise": 3998,
      "jarmo": 3999,
      "debs": 4000,
      "adelheid": 4001,
      "sebbe": 4002,
      "fynn": 4003,
      "regan": 4004,
      "isla": 4005,
      "markku": 4006,
      "hajo": 4007,
      "bobb": 4008,
      "veit": 4009,
      "gorel": 4010,
      "brittmari": 4011,
      "kayley": 4012,
      "lotten": 4013,
      "nikolaus": 4014,
      "arndt": 4015,
      "bobbie": 4016,
      "ao": 4017,
      "ais": 4018,
      "arit": 4019,
      "ely": 4020,
      "maarit": 4021,
      "rab": 4022,
      "keely": 4023,
      "matz": 4024,
      "jacquie": 4025,
      "ife": 4026,
      "sigge": 4027,
      "hodan": 4028,
      "aoife": 4029,
      "aisling": 4030,
      "ffi": 4031,
      "albre": 4032,
      "carro": 4033,
      "ingabritt": 4034,
      "ffion": 4035,
      "albrecht": 4036,
      "nim": 4037,
      "uven": 4038,
      "erbel": 4039,
      "chthil": 4040,
      "rouven": 4041,
      "miljen": 4042,
      "familjen": 4043,
      "mechthil": 4044,
      "weig": 4045,
      "leeanne": 4046,
      "baerbel": 4047,
      "solweig": 4048,
      "nimco": 4049,
      "mechthild": 4050,
      "annic": 4051,
      "teresia": 4052,
      "annicka": 4053,
      "gus": 4054,
      "jannica": 4055,
      "arja": 4056,
      "rike": 4057,
      "anncatrin": 4058,
      "issy": 4059,
      "fergus": 4060,
      "vidar": 4061,
      "ain": 4062,
      "gerain": 4063,
      "satu": 4064,
      "suse": 4065,
      "nilserik": 4066,
      "hannu": 4067,
      "nettan": 4068,
      "geraint": 4069,
      "kimmo": 4070,
      "rosmarie": 4071,
      "gesa": 4072,
      "cina": 4073,
      "disa": 4074,
      "iger": 4075,
      "roine": 4076,
      "ediger": 4077,
      "ruediger": 4078,
      "claesgoran": 4079,
      "eo": 4080,
      "ibert": 4081,
      "mhai": 4082,
      "xten": 4083,
      "eskil": 4084,
      "annekathrin": 4085,
      "gundula": 4086,
      "heribert": 4087,
      "kirsi": 4088,
      "sixten": 4089,
      "guenther": 4090,
      "eamonn": 4091,
      "eoin": 4092,
      "mhairi": 4093,
      "ttie": 4094,
      "hattie": 4095,
      "darran": 4096,
      "kieren": 4097,
      "chelsie": 4098,
      "brun": 4099,
      "ikka": 4100,
      "saff": 4101,
      "jarl": 4102,
      "sinikka": 4103,
      "brunhilde": 4104,
      "saffron": 4105,
      "ej": 4106,
      "alexej": 4107,
      "jorma": 4108,
      "jannike": 4109,
      "bror": 4110,
      "seppo": 4111,
      "bett": 4112,
      "kko": 4113,
      "osten": 4114,
      "odi": 4115,
      "vron": 4116,
      "joar": 4117,
      "totte": 4118,
      "hamodi": 4119,
      "briony": 4120,
      "evakarin": 4121,
      "ingegard": 4122,
      "pasi": 4123,
      "konstanze": 4124,
      "hannele": 4125,
      "ailsa": 4126,
      "babsi": 4127,
      "pirkko": 4128,
      "bettan": 4129,
      "vroni": 4130,
      "wic": 4131,
      "beccy": 4132,
      "majvor": 4133,
      "ninos": 4134,
      "wictor": 4135,
      "hara": 4136,
      "anghara": 4137,
      "brittlouise": 4138,
      "finley": 4139,
      "emmeli": 4140,
      "angharad": 4141,
      "jus": 4142,
      "uan": 4143,
      "ieuan": 4144,
      "annagre": 4145,
      "carley": 4146,
      "take": 4147,
      "gitti": 4148,
      "ingmari": 4149,
      "bridie": 4150,
      "gunhild": 4151,
      "pehr": 4152,
      "bengtake": 4153,
      "trev": 4154,
      "glenys": 4155,
      "ebbe": 4156,
      "gesine": 4157,
      "jussi": 4158,
      "annagreta": 4159,
      "glynn": 4160,
      "owa": 4161,
      "tarina": 4162,
      "jukka": 4163,
      "chatarina": 4164,
      "owain": 4165,
      "mange": 4166,
      "deano": 4167,
      "cic": 4168,
      "dis": 4169,
      "hjor": 4170,
      "lbritt": 4171,
      "elen": 4172,
      "anncharlott": 4173,
      "annastina": 4174,
      "ingvor": 4175,
      "carlfredrik": 4176,
      "gullbritt": 4177,
      "putte": 4178,
      "nuala": 4179,
      "cicci": 4180,
      "hjordis": 4181,
      "elenor": 4182,
      "ijo": 4183,
      "kki": 4184,
      "erkki": 4185,
      "maire": 4186,
      "reijo": 4187,
      "torkel": 4188,
      "greig": 4189,
      "mairead": 4190,
      "fyd": 4191,
      "lle": 4192,
      "dafyd": 4193,
      "caisa": 4194,
      "krille": 4195,
      "solbritt": 4196,
      "dafydd": 4197,
      "uley": 4198,
      "maca": 4199,
      "annmargret": 4200,
      "piers": 4201,
      "tuija": 4202,
      "macauley": 4203,
      "did": 4204,
      "iri": 4205,
      "mairi": 4206,
      "adde": 4207,
      "didrik": 4208,
      "cattis": 4209,
      "grahame": 4210,
      "gla": 4211,
      "wri": 4212,
      "engla": 4213,
      "janolov": 4214,
      "lowri": 4215,
      "towe": 4216,
      "sharna": 4217,
      "carlhenrik": 4218,
      "ingalena": 4219,
      "ibbe": 4220,
      "sove": 4221,
      "larsove": 4222,
      "gunmarie": 4223,
      "gullan": 4224,
      "esbjorn": 4225
    },
    "merges": [
      "a n",
      "a r",
      "i n",
      "e r",
      "e l",
      "e n",
      "r i",
      "m ar",
      "s t",
      "c h",
      "j o",
      "m a",
      "an n",
      "o n",
      "i e",
      "l e",
      "an d",
      "i a",
      "t h",
      "m i",
      "r e",
      "r a",
      "a s",
      "e t",
      "i l",
      "a m",
      "i s",
      "k e",
      "a l",
      "l a",
      "i c",
      "k a",
      "in a",
      "d a",
      "r o",
      "u s",
      "e s",
      "ch ri",
      "i m",
      "j a",
      "i an",
      "u l",
      "o r",
      "in e",
      "st e",
      "p a",
      "o l",
      "jo h",
      "mi ch",
      "p et",
      "chri st",
      "ann a",
      "ann e",
      "d an",
      "en n",
      "t t",
      "p h",
      "j an",
      "and re",
      "i el",
      "c ar",
      "a b",
      "b er",
      "l o",
      "t o",
      "s e",
      "a el",
      "n a",
      "k ar",
      "pet er",
      "dan iel",
      "i k",
      "ar a",
      "mar c",
      "mar t",
      "i d",
      "mich ael",
      "a le",
      "l in",
      "g er",
      "n ic",
      "c k",
      "da v",
      "ma s",
      "ale x",
      "ber t",
      "ste f",
      "i r",
      "e m",
      "e d",
      "mar k",
      "and er",
      "n e",
      "r y",
      "l y",
      "ch ar",
      "u d",
      "t e",
      "r an",
      "th o",
      "mar i",
      "s ara",
      "tho mas",
      "t ri",
      "c a",
      "en a",
      "g e",
      "ia s",
      "f ran",
      "dav id",
      "pa ul",
      "m on",
      "joh n",
      "and ra",
      "b e",
      "stef an",
      "l u",
      "pa tri",
      "jo r",
      "mart in",
      "h ar",
      "j am",
      "mar ia",
      "w il",
      "f re",
      "r en",
      "a d",
      "h el",
      "is a",
      "andre as",
      "ic a",
      "h en",
      "h an",
      "m o",
      "j ul",
      "v in",
      "b en",
      "ro b",
      "ri k",
      "s a",
      "t on",
      "j enn",
      "joh an",
      "c e",
      "nic o",
      "j e",
      "ma t",
      "an g",
      "h am",
      "fre d",
      "mar ie",
      "c o",
      "i ka",
      "christ ian",
      "e v",
      "t a",
      "em ma",
      "s andra",
      "h a",
      "to m",
      "el a",
      "m an",
      "g u",
      "h e",
      "j es",
      "ro bert",
      "t er",
      "s o",
      "s us",
      "s im",
      "sim on",
      "ka t",
      "chri s",
      "d e",
      "la u",
      "s am",
      "g i",
      "q u",
      "p er",
      "u r",
      "a st",
      "v en",
      "ar t",
      "han s",
      "c la",
      "i v",
      "l isa",
      "l ar",
      "lin da",
      "kar in",
      "ste ph",
      "el l",
      "sara h",
      "fran k",
      "jo n",
      "le y",
      "g n",
      "is e",
      "d o",
      "ma d",
      "et te",
      "tt e",
      "er ik",
      "and y",
      "car ol",
      "el le",
      "in g",
      "b ri",
      "k im",
      "ri char",
      "richar d",
      "r on",
      "i g",
      "t im",
      "st in",
      "an ja",
      "a h",
      "g ar",
      "jes s",
      "m el",
      "k er",
      "i j",
      "mi l",
      "ev a",
      "d y",
      "and a",
      "m y",
      "mo ham",
      "ke vin",
      "ander s",
      "patri ck",
      "s ab",
      "lar s",
      "al i",
      "d enn",
      "r u",
      "b ast",
      "lau ra",
      "l as",
      "alex ander",
      "jam es",
      "tt a",
      "st en",
      "an ie",
      "i p",
      "denn is",
      "n y",
      "pet ra",
      "th e",
      "jo se",
      "ri d",
      "ph il",
      "e th",
      "b o",
      "t or",
      "nico le",
      "jenn y",
      "st a",
      "ma x",
      "lo u",
      "l ie",
      "k ri",
      "f er",
      "ma tt",
      "marc el",
      "on ne",
      "jul ia",
      "h anna",
      "nic k",
      "jess ica",
      "b ar",
      "fred rik",
      "ja ck",
      "is ab",
      "to b",
      "el i",
      "na th",
      "y v",
      "v e",
      "gu n",
      "m u",
      "g en",
      "mi ke",
      "se bast",
      "christ o",
      "jor n",
      "l ena",
      "ren e",
      "j as",
      "marc o",
      "ad am",
      "mark us",
      "th er",
      "qu e",
      "s u",
      "na t",
      "s ven",
      "ge or",
      "jo s",
      "jon as",
      "mi ka",
      "yv onne",
      "ann y",
      "m in",
      "b jorn",
      "mi r",
      "o s",
      "l ia",
      "so f",
      "c or",
      "sebast ian",
      "ol iv",
      "c y",
      "andre a",
      "m ed",
      "f a",
      "y l",
      "th ias",
      "ri a",
      "j en",
      "hel en",
      "lo tte",
      "sus anne",
      "j er",
      "h er",
      "ka th",
      "m e",
      "j u",
      "tob ias",
      "v ic",
      "rob in",
      "b ir",
      "o en",
      "ud ia",
      "hen k",
      "ri s",
      "lia m",
      "ma gn",
      "magn us",
      "ri an",
      "al ie",
      "kri st",
      "n ik",
      "ij n",
      "cla udia",
      "i ke",
      "marc us",
      "mika el",
      "bir gi",
      "so ph",
      "t ina",
      "na d",
      "ker stin",
      "mich elle",
      "f ri",
      "l f",
      "joh anna",
      "be c",
      "i que",
      "g a",
      "el ine",
      "carol ine",
      "g ab",
      "ma lin",
      "o la",
      "lou ise",
      "d ian",
      "n o",
      "al d",
      "i ta",
      "r in",
      "phil ip",
      "k i",
      "christo ph",
      "s as",
      "an ita",
      "char lotte",
      "jo e",
      "ar ina",
      "bar b",
      "jen s",
      "andre w",
      "v er",
      "d ie",
      "i th",
      "jo a",
      "nath an",
      "b ra",
      "d ir",
      "c al",
      "ton y",
      "j ur",
      "p ie",
      "christ ina",
      "sab ine",
      "f lo",
      "ul ri",
      "v ia",
      "re bec",
      "man u",
      "el ie",
      "christ ine",
      "dir k",
      "o u",
      "ing rid",
      "il la",
      "d en",
      "j im",
      "d anny",
      "ste ve",
      "k la",
      "el e",
      "el ly",
      "an th",
      "an ton",
      "ar d",
      "mel anie",
      "soph ie",
      "ra ch",
      "dav e",
      "s il",
      "oliv er",
      "ry an",
      "hen rik",
      "jer oen",
      "jenn i",
      "i re",
      "b b",
      "ber n",
      "ja c",
      "k an",
      "jur gen",
      "ch a",
      "g or",
      "ang ela",
      "l i",
      "n ina",
      "h u",
      "mon ika",
      "w in",
      "am anda",
      "c on",
      "ste ven",
      "le on",
      "il l",
      "wil le",
      "dian a",
      "rebec ca",
      "jenni fer",
      "w en",
      "har ry",
      "jose f",
      "mari anne",
      "an ette",
      "m et",
      "a gn",
      "alex andra",
      "mar gar",
      "hel ena",
      "jac qu",
      "ann ika",
      "h as",
      "ol f",
      "en e",
      "w e",
      "er ic",
      "kar en",
      "patri c",
      "mat thias",
      "s on",
      "matt ias",
      "nik las",
      "jul ie",
      "mon ique",
      "mat s",
      "an t",
      "mari o",
      "le e",
      "stef f",
      "sof ia",
      "ann ie",
      "kar l",
      "el in",
      "ang el",
      "ann es",
      "u we",
      "patri k",
      "r ina",
      "steph en",
      "i o",
      "ri e",
      "cla ire",
      "en t",
      "el isab",
      "n or",
      "b as",
      "h ol",
      "geor ge",
      "t anja",
      "patric ia",
      "car ina",
      "jam ie",
      "anne ke",
      "sus an",
      "on a",
      "ly n",
      "a y",
      "k ir",
      "ell en",
      "k as",
      "s yl",
      "s har",
      "hanna h",
      "mari on",
      "margar et",
      "b ian",
      "barb ara",
      "do min",
      "c as",
      "gab ri",
      "simon e",
      "t ra",
      "m andy",
      "ri ck",
      "ic e",
      "moham ed",
      "mar y",
      "kla us",
      "in ge",
      "nad ine",
      "jo nathan",
      "am y",
      "be th",
      "ther es",
      "as a",
      "steph anie",
      "rach el",
      "mart ina",
      "ha kan",
      "be a",
      "ann ette",
      "w olf",
      "l enn",
      "es sa",
      "bri tt",
      "to mas",
      "ri t",
      "lau ren",
      "car l",
      "wille m",
      "is sa",
      "har d",
      "g an",
      "ro s",
      "l an",
      "al an",
      "wil liam",
      "bian ca",
      "ra lf",
      "shar on",
      "f ab",
      "e mi",
      "k o",
      "to ria",
      "flo rian",
      "jacqu eline",
      "ca mil",
      "camil la",
      "w im",
      "the w",
      "le en",
      "wen dy",
      "l is",
      "b art",
      "mon ica",
      "daniel a",
      "c ol",
      "krist ina",
      "ma u",
      "d ar",
      "e mil",
      "le s",
      "ron ald",
      "u n",
      "jo l",
      "d i",
      "moham med",
      "enn y",
      "ah med",
      "g ra",
      "daniel le",
      "steph an",
      "g ang",
      "wolf gang",
      "v ik",
      "den ise",
      "v an",
      "el la",
      "o f",
      "sab rina",
      "ro ger",
      "tom my",
      "u la",
      "jor g",
      "m ie",
      "n el",
      "g re",
      "son ja",
      "bern d",
      "syl via",
      "joa kim",
      "mich el",
      "geor g",
      "elisab eth",
      "d on",
      "gar y",
      "mat thew",
      "jas on",
      "jo o",
      "sta fa",
      "mart ijn",
      "k elly",
      "christoph er",
      "ro y",
      "e st",
      "est her",
      "birgi tta",
      "c il",
      "ce cil",
      "cecil ia",
      "co b",
      "m en",
      "he ike",
      "m er",
      "lo tta",
      "bri an",
      "z a",
      "lu kas",
      "i en",
      "as h",
      "jam in",
      "ben jamin",
      "nat alie",
      "sas cha",
      "he in",
      "the o",
      "ul la",
      "ine ke",
      "th ij",
      "joh annes",
      "kat ie",
      "lu ke",
      "s h",
      "stefan ie",
      "ah mad",
      "jan e",
      "k y",
      "de bb",
      "e k",
      "manu ela",
      "mu stafa",
      "l and",
      "gor an",
      "jul ian",
      "mon a",
      "fran z",
      "mar ina",
      "birgi t",
      "j ud",
      "ast rid",
      "su e",
      "ce y",
      "thij s",
      "ro land",
      "michael a",
      "jol anda",
      "ger ard",
      "il da",
      "pa ula",
      "emi ly",
      "le o",
      "c ra",
      "cra ig",
      "s ander",
      "p as",
      "ja y",
      "fa t",
      "al ena",
      "st u",
      "ir ene",
      "ul f",
      "theres e",
      "l ina",
      "ke es",
      "on y",
      "nat as",
      "m ia",
      "pas cal",
      "jan a",
      "r ud",
      "g o",
      "ma l",
      "ch im",
      "n ie",
      "lu cy",
      "e w",
      "su z",
      "ma ik",
      "fri da",
      "ra y",
      "i da",
      "mel issa",
      "kat rin",
      "kat ja",
      "fab ian",
      "ma art",
      "ulri ka",
      "p ia",
      "l or",
      "is ka",
      "gun illa",
      "s co",
      "nico la",
      "sco tt",
      "ma thias",
      "jos h",
      "ka y",
      "char lie",
      "ch lo",
      "chlo e",
      "n iel",
      "niel s",
      "i ris",
      "he id",
      "ger t",
      "jim my",
      "al ice",
      "dar ren",
      "vic toria",
      "ad rian",
      "et t",
      "sam anth",
      "samanth a",
      "van essa",
      "f eli",
      "feli x",
      "me h",
      "je f",
      "sof ie",
      "ell ie",
      "pie t",
      "in er",
      "christ er",
      "re en",
      "k ia",
      "ne il",
      "col in",
      "debb ie",
      "fran s",
      "vin c",
      "l ara",
      "anth ony",
      "steff en",
      "ro lf",
      "z o",
      "ch ant",
      "moham mad",
      "os car",
      "jud ith",
      "b il",
      "stu art",
      "ann elie",
      "gu sta",
      "ron ny",
      "ja a",
      "em elie",
      "ri et",
      "er t",
      "ja cob",
      "sas kia",
      "n an",
      "die ter",
      "jo y",
      "ver on",
      "ju stin",
      "z e",
      "lie s",
      "kat arina",
      "meh met",
      "mar ian",
      "tim o",
      "ri ta",
      "bo b",
      "jo ke",
      "philip p",
      "jes per",
      "er n",
      "vinc ent",
      "a x",
      "ax el",
      "mari j",
      "tor sten",
      "ka i",
      "pie ter",
      "wil ma",
      "nath alie",
      "w al",
      "w ou",
      "s anne",
      "jo el",
      "i f",
      "lenn art",
      "th or",
      "y n",
      "jor dan",
      "lin ne",
      "linne a",
      "f il",
      "mu t",
      "el ina",
      "ic k",
      "h im",
      "i bra",
      "kar d",
      "ibra him",
      "gi tte",
      "bri gitte",
      "da an",
      "vic tor",
      "al is",
      "n il",
      "nil s",
      "u k",
      "suz anne",
      "u el",
      "in ger",
      "vik tor",
      "sil ke",
      "sil via",
      "lu cas",
      "i er",
      "con ny",
      "jan et",
      "car la",
      "fre y",
      "se an",
      "chant al",
      "heid i",
      "s an",
      "je anette",
      "has san",
      "al bert",
      "kath arina",
      "jo anne",
      "i t",
      "man fred",
      "s ha",
      "maart en",
      "anne marie",
      "el ke",
      "ru ud",
      "domin ik",
      "le ig",
      "ed win",
      "leig h",
      "g emma",
      "w is",
      "le wis",
      "ka te",
      "car men",
      "joa chim",
      "hein z",
      "ik o",
      "he iko",
      "fil ip",
      "er ika",
      "er win",
      "hol ger",
      "joy ce",
      "fri ed",
      "ma g",
      "o mar",
      "w es",
      "re m",
      "p e",
      "fran c",
      "gra ham",
      "v a",
      "mie ke",
      "in dy",
      "ben g",
      "manu el",
      "an ke",
      "r ena",
      "rena te",
      "ri c",
      "s ie",
      "alis on",
      "ur t",
      "bra m",
      "s al",
      "ther ine",
      "ger rit",
      "thor sten",
      "n illa",
      "ri co",
      "ra iner",
      "beng t",
      "ja ke",
      "lo es",
      "li z",
      "bar ry",
      "ash ley",
      "ab d",
      "jas min",
      "zo e",
      "hen ry",
      "wou ter",
      "et a",
      "angel ika",
      "kath rin",
      "sam uel",
      "ro el",
      "jan ine",
      "o mi",
      "paul ine",
      "kir st",
      "per nilla",
      "mari us",
      "le if",
      "has an",
      "ri ce",
      "mau rice",
      "joo st",
      "helen e",
      "ew a",
      "mar iel",
      "da w",
      "l il",
      "oliv ia",
      "nan cy",
      "margaret a",
      "fat i",
      "be ck",
      "ger d",
      "jaa p",
      "mir anda",
      "mi t",
      "mad ele",
      "madele ine",
      "h enn",
      "ray mon",
      "v ol",
      "de an",
      "st ina",
      "marie ke",
      "dy lan",
      "g ina",
      "jor gen",
      "jef frey",
      "ger da",
      "agn eta",
      "ar no",
      "gusta v",
      "don na",
      "jose ph",
      "jo er",
      "tra cey",
      "re in",
      "s z",
      "z y",
      "me gan",
      "steff i",
      "ola f",
      "el ena",
      "ol ga",
      "el s",
      "je an",
      "ver a",
      "w ern",
      "john ny",
      "wern er",
      "f i",
      "a ar",
      "ar jan",
      "aar on",
      "ke ith",
      "s el",
      "car sten",
      "ca th",
      "agn es",
      "ha y",
      "mar jo",
      "na omi",
      "christo f",
      "k enn",
      "lu m",
      "cal lum",
      "car lo",
      "t in",
      "jack ie",
      "nic las",
      "rem co",
      "b et",
      "kirst y",
      "g ill",
      "l en",
      "lin us",
      "ia an",
      "h us",
      "m or",
      "ki er",
      "gun n",
      "raymon d",
      "mir jam",
      "b ren",
      "da mi",
      "ra h",
      "d ick",
      "u te",
      "il ona",
      "ton i",
      "jos hu",
      "joshu a",
      "il a",
      "ro se",
      "v i",
      "mar a",
      "ta mara",
      "h il",
      "am ber",
      "mat ilda",
      "c indy",
      "ja ko",
      "jako b",
      "y a",
      "ou k",
      "ri am",
      "mi riam",
      "io t",
      "st an",
      "gunn ar",
      "ge ert",
      "jo anna",
      "kenn eth",
      "k h",
      "tra cy",
      "ic ia",
      "v al",
      "wes ley",
      "beck y",
      "ra s",
      "ter es",
      "z ab",
      "eli zab",
      "jas per",
      "elizab eth",
      "ja de",
      "the a",
      "p ier",
      "car ola",
      "har ald",
      "k oen",
      "mar vin",
      "vol ker",
      "ah met",
      "jenn ie",
      "cor nel",
      "marij ke",
      "her man",
      "ang eli",
      "ru ben",
      "angeli que",
      "os kar",
      "ett y",
      "c an",
      "les ley",
      "pier re",
      "ca therine",
      "kir sten",
      "el ias",
      "mit ch",
      "kri stin",
      "ric kard",
      "ann eli",
      "ma ja",
      "nor bert",
      "con nor",
      "d er",
      "an ouk",
      "christof fer",
      "wil l",
      "ela ine",
      "ol d",
      "c lar",
      "il se",
      "clar e",
      "j ill",
      "h m",
      "hm d",
      "sha un",
      "hay ley",
      "max i",
      "veron ica",
      "ri car",
      "id o",
      "gu ido",
      "joo p",
      "sa mi",
      "t je",
      "k j",
      "n i",
      "p on",
      "s i",
      "t us",
      "pon tus",
      "jo ch",
      "ker ry",
      "nik ki",
      "fi ona",
      "gabri el",
      "wal ter",
      "se y",
      "c ke",
      "b ie",
      "bet tina",
      "ulri ke",
      "mar ja",
      "ru th",
      "l ud",
      "daw n",
      "gabri ele",
      "sal ly",
      "y as",
      "dami an",
      "lyn n",
      "ra t",
      "mu rat",
      "joe y",
      "josef ine",
      "e y",
      "ter ry",
      "ing o",
      "sh ir",
      "franz iska",
      "d ia",
      "w ay",
      "ly dia",
      "way ne",
      "h enny",
      "ra mona",
      "ca t",
      "ing ela",
      "josef in",
      "hel mut",
      "pa t",
      "w ard",
      "kj ell",
      "m us",
      "isab el",
      "ol ly",
      "ros s",
      "nick y",
      "f f",
      "ann on",
      "i z",
      "d alena",
      "dian e",
      "mag dalena",
      "an s",
      "mau reen",
      "lu ca",
      "bren da",
      "ol of",
      "mi ck",
      "kim ber",
      "s anna",
      "leon ie",
      "ro my",
      "t ineke",
      "gar eth",
      "ri ch",
      "a ther",
      "he ather",
      "cornel ia",
      "hu go",
      "el o",
      "bea te",
      "ricar do",
      "henn ie",
      "j elle",
      "isab elle",
      "jon ny",
      "ce es",
      "ol le",
      "kier an",
      "fati ma",
      "christian e",
      "w an",
      "vic ky",
      "ky le",
      "r h",
      "gre et",
      "car in",
      "gun ter",
      "carlo s",
      "ann i",
      "mich iel",
      "hol ly",
      "shir ley",
      "christ in",
      "bil ly",
      "a ike",
      "ma aike",
      "ra ine",
      "lor raine",
      "g lenn",
      "le in",
      "marjo lein",
      "cla es",
      "d et",
      "ma h",
      "det le",
      "lou is",
      "ant je",
      "jor dy",
      "teres a",
      "ka j",
      "kar ol",
      "d rik",
      "hen drik",
      "ru n",
      "j s",
      "gi js",
      "ar ne",
      "ger hard",
      "bri tta",
      "p am",
      "kla as",
      "de bo",
      "debo rah",
      "k al",
      "le anne",
      "kal le",
      "ar ie",
      "barb ro",
      "lin n",
      "kar sten",
      "man on",
      "in es",
      "nad ia",
      "mar iska",
      "n ig",
      "nig el",
      "h or",
      "hor st",
      "a mir",
      "do reen",
      "hen ri",
      "cor rie",
      "ras mus",
      "an a",
      "s er",
      "iv an",
      "franc es",
      "mo ha",
      "moha mad",
      "gab i",
      "soph ia",
      "t z",
      "ma il",
      "is mail",
      "jes se",
      "bra d",
      "ann ica",
      "christ el",
      "f em",
      "fem ke",
      "ud o",
      "anton io",
      "tor bjorn",
      "sta cey",
      "dan i",
      "k en",
      "de mi",
      "car o",
      "mari ta",
      "am er",
      "christ a",
      "e e",
      "t essa",
      "wil ly",
      "karol ina",
      "marc in",
      "t re",
      "ed ward",
      "ri en",
      "l ph",
      "ra lph",
      "do ris",
      "m hmd",
      "v or",
      "mariel le",
      "mar leen",
      "den is",
      "lu uk",
      "s ke",
      "sh annon",
      "hel ga",
      "natas cha",
      "mu ham",
      "fat ma",
      "ju tta",
      "j anneke",
      "k ent",
      "enn o",
      "georg ia",
      "f el",
      "er ica",
      "ann alena",
      "las se",
      "mor gan",
      "p ar",
      "detle f",
      "b in",
      "re gina",
      "s ig",
      "ron nie",
      "en rico",
      "mark o",
      "sa mir",
      "p iot",
      "piot r",
      "y o",
      "ma ud",
      "al ina",
      "pet e",
      "u f",
      "da g",
      "w ie",
      "mil ian",
      "maxi milian",
      "ro os",
      "gab y",
      "b enny",
      "s joer",
      "sjoer d",
      "r ze",
      "g riet",
      "mar lies",
      "kay leigh",
      "s he",
      "j annie",
      "ie sz",
      "agn iesz",
      "agniesz ka",
      "rud i",
      "w el",
      "pa wel",
      "lu c",
      "v isa",
      "lo visa",
      "natas ha",
      "rud y",
      "mar jan",
      "domin ic",
      "sta ff",
      "staff an",
      "p im",
      "u ke",
      "lin d",
      "do ro",
      "j anny",
      "al ia",
      "nat alia",
      "ha t",
      "a ke",
      "vik toria",
      "ulla h",
      "abd ullah",
      "annelie s",
      "d es",
      "gill ian",
      "kaj sa",
      "carol in",
      "bern hard",
      "der ek",
      "joch en",
      "ri anne",
      "ulri ch",
      "jo ris",
      "angel ica",
      "e bb",
      "v iv",
      "ebb a",
      "lies beth",
      "anna karin",
      "bil al",
      "rach ael",
      "f le",
      "je annette",
      "fle ur",
      "i leen",
      "y s",
      "ga vin",
      "ver ena",
      "j anne",
      "y us",
      "yus uf",
      "ur su",
      "ursu la",
      "fel icia",
      "mo a",
      "o v",
      "u g",
      "is y",
      "da isy",
      "bea tri",
      "m olly",
      "h anneke",
      "jo die",
      "nad ja",
      "mi cke",
      "karl heinz",
      "s han",
      "shan e",
      "f al",
      "da ph",
      "daph ne",
      "al f",
      "kath leen",
      "krist of",
      "kristof fer",
      "b ryan",
      "d in",
      "g ud",
      "gud run",
      "ham za",
      "l ene",
      "c amer",
      "camer on",
      "mad el",
      "kh al",
      "kimber ley",
      "mar loes",
      "gra ce",
      "st ijn",
      "hus ey",
      "husey in",
      "mat thijs",
      "me e",
      "nick las",
      "ma j",
      "le a",
      "carol ina",
      "mika ela",
      "ar n",
      "pet ter",
      "cor in",
      "nie k",
      "jay ne",
      "ar th",
      "arth ur",
      "b a",
      "v ig",
      "el ise",
      "se in",
      "re za",
      "no or",
      "le ah",
      "s andy",
      "britt marie",
      "h annes",
      "s or",
      "t an",
      "isab ella",
      "beth an",
      "sor en",
      "ire e",
      "des iree",
      "rebec ka",
      "g is",
      "gis ela",
      "al bin",
      "k urt",
      "al lan",
      "mar go",
      "domin ique",
      "g g",
      "pe gg",
      "pegg y",
      "sa id",
      "no ah",
      "ch el",
      "she ila",
      "l iv",
      "p us",
      "ham pus",
      "yl va",
      "lil ian",
      "f anny",
      "lis beth",
      "dag mar",
      "ev elina",
      "j n",
      "her bert",
      "ol lie",
      "mir ko",
      "do ug",
      "n ien",
      "nien ke",
      "theres a",
      "ir ina",
      "enn e",
      "ol as",
      "ros ie",
      "mart en",
      "uk je",
      "c eline",
      "o mer",
      "t mar",
      "sus anna",
      "die tmar",
      "t ru",
      "tru us",
      "ed die",
      "hel m",
      "ay se",
      "lyn ne",
      "lukas z",
      "th a",
      "flo or",
      "e ileen",
      "krist ian",
      "m enno",
      "mo ud",
      "lar issa",
      "mah moud",
      "ber it",
      "rene e",
      "hil de",
      "b y",
      "emil ia",
      "mer el",
      "lis ette",
      "mart ine",
      "mitch ell",
      "ra mon",
      "mich al",
      "b etty",
      "es mee",
      "natas ja",
      "ge of",
      "jer ry",
      "tre vor",
      "b an",
      "em y",
      "lu tz",
      "jer emy",
      "y ann",
      "mart a",
      "p elle",
      "b or",
      "b ru",
      "er yl",
      "ch eryl",
      "kar ina",
      "rob bie",
      "gert jan",
      "elisab et",
      "al a",
      "ann et",
      "anne mie",
      "muham mad",
      "phil l",
      "corin na",
      "ed ith",
      "lis anne",
      "bb y",
      "r us",
      "rus s",
      "mar ek",
      "s hel",
      "ale d",
      "tomas z",
      "ha mi",
      "ri kard",
      "k r",
      "to f",
      "sz tof",
      "zy sztof",
      "kr zysztof",
      "a chim",
      "al fred",
      "se m",
      "gu us",
      "c i",
      "mo rit",
      "sebast iaan",
      "morit z",
      "sus ann",
      "b ill",
      "rein hard",
      "joe p",
      "khal id",
      "to on",
      "ni ch",
      "gor don",
      "ry n",
      "qu in",
      "ev eli",
      "eveli en",
      "gabri ella",
      "mar ga",
      "veron ika",
      "mari t",
      "lie ke",
      "ir ma",
      "sie g",
      "ne y",
      "co urt",
      "court ney",
      "s y",
      "nor man",
      "arn old",
      "ang ie",
      "cas per",
      "son ia",
      "an ki",
      "tin y",
      "u b",
      "ma z",
      "ger rie",
      "e ce",
      "re ece",
      "har m",
      "rose marie",
      "maik el",
      "lor en",
      "t s",
      "t jana",
      "ta tjana",
      "fri ts",
      "anne mieke",
      "gre g",
      "o wen",
      "angel o",
      "ro man",
      "ou ise",
      "mariel ouise",
      "beatri ce",
      "s and",
      "to ve",
      "en d",
      "ad i",
      "ar min",
      "col m",
      "m ine",
      "jas mine",
      "jo an",
      "caro le",
      "c illa",
      "gusta f",
      "us e",
      "b el",
      "kar im",
      "kh aled",
      "sami ra",
      "flo ris",
      "lu is",
      "hus sein",
      "mar griet",
      "k las",
      "cal le",
      "z el",
      "li anne",
      "k enny",
      "se a",
      "chel sea",
      "krist er",
      "rh ys",
      "k lara",
      "te un",
      "lis elo",
      "brad ley",
      "re iner",
      "isab ell",
      "barb el",
      "ro sa",
      "e en",
      "bert il",
      "t il",
      "mich ele",
      "kar el",
      "ar jen",
      "lauren s",
      "al icia",
      "ka mil",
      "sven ja",
      "t rudy",
      "u t",
      "ab bie",
      "franc is",
      "sig rid",
      "th ar",
      "lo thar",
      "em re",
      "ur ban",
      "er i",
      "ju ne",
      "char lotta",
      "pam ela",
      "cath arina",
      "kath ryn",
      "mal colm",
      "s jaa",
      "sjaa k",
      "ann sofie",
      "no ra",
      "hami d",
      "e u",
      "ger ry",
      "b r",
      "f in",
      "and on",
      "gi ov",
      "br andon",
      "giov anni",
      "maart je",
      "be p",
      "and rze",
      "mi jn",
      "os man",
      "andrze j",
      "jan ina",
      "ann marie",
      "phill ip",
      "char les",
      "a p",
      "fab i",
      "cor ina",
      "s ian",
      "art ur",
      "iv o",
      "el lin",
      "tin o",
      "ellin or",
      "j ann",
      "me ike",
      "ko os",
      "gun nel",
      "d il",
      "inge mar",
      "mari je",
      "co en",
      "rick y",
      "lud vig",
      "ia in",
      "ren s",
      "tob i",
      "har riet",
      "jef f",
      "n ia",
      "ad nan",
      "ch i",
      "kat y",
      "d un",
      "k ic",
      "kic ki",
      "b enn",
      "yann ick",
      "ann ett",
      "mel vin",
      "le vi",
      "marij n",
      "annemie k",
      "k on",
      "e ike",
      "ar zy",
      "kat arzy",
      "katarzy na",
      "s ina",
      "wil li",
      "bast ian",
      "m ann",
      "mar lene",
      "da le",
      "her mann",
      "georg ina",
      "bethan y",
      "russ ell",
      "c ri",
      "ed dy",
      "t ger",
      "jan ice",
      "ru tger",
      "t wan",
      "har rie",
      "ad rie",
      "fa y",
      "lor na",
      "a im",
      "geof f",
      "aim ee",
      "wil co",
      "se f",
      "isa k",
      "ev ert",
      "hu ub",
      "jo b",
      "abd ul",
      "t mut",
      "joh ann",
      "em my",
      "har tmut",
      "sand ro",
      "mar greet",
      "t yl",
      "hat ice",
      "tyl er",
      "ca it",
      "cait lin",
      "jo nat",
      "jonat an",
      "p ris",
      "ton ny",
      "ell iot",
      "marius z",
      "pris cilla",
      "st ig",
      "ger ald",
      "ma th",
      "w ig",
      "el sa",
      "hel een",
      "lud wig",
      "h ilda",
      "n th",
      "christ iaan",
      "ha zel",
      "cy nth",
      "rudi ger",
      "lind sey",
      "madel ene",
      "sieg fried",
      "cynth ia",
      "i ge",
      "el yn",
      "el vi",
      "pa ige",
      "ev elyn",
      "elvi ra",
      "t y",
      "fati h",
      "g on",
      "eth an",
      "paul ina",
      "henri ette",
      "tt y",
      "ki tty",
      "mil an",
      "joseph ine",
      "franz i",
      "cat arina",
      "re y",
      "gun ther",
      "ga il",
      "con or",
      "mar gi",
      "ger ben",
      "vic ki",
      "rob bert",
      "ern st",
      "a ad",
      "fre ek",
      "carol ien",
      "al ill",
      "ing alill",
      "jor di",
      "ing a",
      "bea ta",
      "mi en",
      "eth a",
      "margar etha",
      "fer ry",
      "sus i",
      "ja mal",
      "em ine",
      "cor ry",
      "st er",
      "henn ing",
      "tan ya",
      "o z",
      "il le",
      "g ran",
      "gran t",
      "cob y",
      "to re",
      "v id",
      "er ie",
      "em e",
      "gra eme",
      "val erie",
      "c lara",
      "a z",
      "t ed",
      "margo t",
      "nich olas",
      "tob y",
      "mar en",
      "ala a",
      "sa y",
      "j ar",
      "w art",
      "ste wart",
      "lin de",
      "ge a",
      "mal te",
      "us z",
      "la ila",
      "c liv",
      "mich a",
      "din y",
      "cliv e",
      "g ul",
      "h ann",
      "s iv",
      "har old",
      "jac co",
      "len ie",
      "g in",
      "gar ry",
      "ab di",
      "lil y",
      "doug las",
      "th y",
      "alf ie",
      "h etty",
      "o ve",
      "h o",
      "er gen",
      "and i",
      "ju ergen",
      "dun can",
      "jo cke",
      "b re",
      "g ie",
      "sab ina",
      "mag gie",
      "h annie",
      "s ol",
      "tho m",
      "debb y",
      "s elina",
      "dan ique",
      "ell is",
      "w ith",
      "ro gi",
      "ros with",
      "julian e",
      "rogi er",
      "roswith a",
      "wil helm",
      "car ly",
      "mart yn",
      "den iz",
      "t en",
      "ju st",
      "ash leigh",
      "t i",
      "ev eline",
      "wil fried",
      "lyn da",
      "cor ne",
      "di on",
      "joch em",
      "k el",
      "le x",
      "ka therine",
      "ber ry",
      "wes sel",
      "er na",
      "dan a",
      "t ara",
      "an ika",
      "hu bert",
      "math ilda",
      "emi el",
      "matt y",
      "fin n",
      "j el",
      "p pe",
      "be ver",
      "gi use",
      "gar d",
      "bever ley",
      "giuse ppe",
      "k ie",
      "v io",
      "sil vio",
      "et lan",
      "us sef",
      "yo ussef",
      "etlan a",
      "o tt",
      "ma ike",
      "enn a",
      "ott o",
      "ma thijs",
      "s se",
      "ke v",
      "bo sse",
      "jon na",
      "bec ca",
      "margi t",
      "hel ma",
      "daw id",
      "tri stan",
      "je anne",
      "mari ka",
      "rach id",
      "ar vid",
      "van a",
      "ra fal",
      "lu isa",
      "bo bby",
      "yv ette",
      "fabi enne",
      "bo dil",
      "filip pa",
      "eu gen",
      "n ellie",
      "ul i",
      "de mar",
      "wal demar",
      "ton nie",
      "ab o",
      "to os",
      "mel ina",
      "ulri ca",
      "k sandra",
      "ale ksandra",
      "has se",
      "ian e",
      "rud olf",
      "sel ma",
      "an or",
      "ria an",
      "ele anor",
      "s ine",
      "p p",
      "mar jon",
      "cla us",
      "cath y",
      "a il",
      "mil lie",
      "g len",
      "hol lie",
      "er in",
      "st ant",
      "stant in",
      "ol i",
      "joer g",
      "liselo tte",
      "p enny",
      "kas ia",
      "b w",
      "m mi",
      "t ar",
      "mi mmi",
      "ab i",
      "max im",
      "tra ud",
      "p ed",
      "ped er",
      "n elly",
      "s v",
      "y ou",
      "lo tt",
      "you ri",
      "fay e",
      "j arno",
      "an tony",
      "lind say",
      "benn ie",
      "jenn a",
      "ta yl",
      "wou t",
      "kimber ly",
      "tayl or",
      "gre t",
      "suz an",
      "roel of",
      "em in",
      "di anne",
      "c urt",
      "y ne",
      "lou isa",
      "ze yne",
      "zeyne p",
      "a i",
      "j emma",
      "jacqu i",
      "ai dan",
      "ro wan",
      "ju les",
      "er d",
      "ron ja",
      "cor ine",
      "ri es",
      "cri stina",
      "s in",
      "sof i",
      "z ie",
      "el ia",
      "mar eike",
      "am elia",
      "liz zie",
      "loren zo",
      "ro ry",
      "hans jurgen",
      "ma te",
      "mary am",
      "mate usz",
      "kath y",
      "frances ca",
      "se v",
      "az iz",
      "h id",
      "hein rich",
      "b han",
      "r the",
      "s io",
      "my rthe",
      "rin us",
      "sio bhan",
      "ren ske",
      "ee f",
      "anton ia",
      "al va",
      "carol yn",
      "inge gerd",
      "us chi",
      "sam my",
      "inge bor",
      "ingebor g",
      "a da",
      "de e",
      "g rze",
      "gor z",
      "yas in",
      "grze gorz",
      "o le",
      "do rien",
      "jol ijn",
      "gre gor",
      "b i",
      "bast i",
      "ell i",
      "ann charlotte",
      "shel ley",
      "ge j",
      "ser gej",
      "c lan",
      "kat rina",
      "de clan",
      "bo ris",
      "abd el",
      "cat rin",
      "elo re",
      "bor je",
      "hann elore",
      "kat i",
      "d ra",
      "wil lie",
      "angel ina",
      "c ael",
      "s jor",
      "mi cael",
      "fri tz",
      "jar i",
      "sjor s",
      "mi lou",
      "ab ig",
      "jacqu es",
      "abig ail",
      "mi ra",
      "no a",
      "nik ola",
      "jann ik",
      "t am",
      "u gu",
      "t u",
      "on s",
      "man s",
      "max ine",
      "mich i",
      "ve ig",
      "sol veig",
      "ik t",
      "ed ikt",
      "ben edikt",
      "marie tte",
      "ru by",
      "bast iaan",
      "ad ele",
      "rob yn",
      "wille ke",
      "eri ch",
      "jel mer",
      "h anny",
      "ros i",
      "bert us",
      "val ent",
      "t ij",
      "iv onne",
      "j et",
      "mar tha",
      "y d",
      "har ve",
      "co ra",
      "ju le",
      "harve y",
      "ab be",
      "sie t",
      "ad ri",
      "mer t",
      "ra ph",
      "raph ael",
      "f adi",
      "t as",
      "chant elle",
      "tas ha",
      "kath i",
      "gabri ela",
      "le mor",
      "jan willem",
      "ing marie",
      "lil lemor",
      "r ine",
      "maria m",
      "ch iel",
      "ann christin",
      "f ra",
      "o fer",
      "y ol",
      "krist ofer",
      "yol anda",
      "b ro",
      "u m",
      "am elie",
      "ro ber",
      "cal um",
      "rober to",
      "l er",
      "o y",
      "ad riaan",
      "rit s",
      "mau rits",
      "ler oy",
      "d re",
      "h i",
      "gin o",
      "kas per",
      "be v",
      "rose mary",
      "rh i",
      "gu y",
      "i on",
      "i ja",
      "ri l",
      "hol d",
      "rein hold",
      "an to",
      "in ette",
      "bren dan",
      "griet je",
      "sv etlana",
      "anto inette",
      "r andy",
      "ap pie",
      "lyn d",
      "len y",
      "p ijn",
      "pe pijn",
      "c elina",
      "u ard",
      "ab by",
      "ed uard",
      "ali sta",
      "alista ir",
      "frances co",
      "t ine",
      "z ah",
      "ar y",
      "im y",
      "ja imy",
      "ru ne",
      "joer i",
      "hil ary",
      "zah ra",
      "d dy",
      "s van",
      "pa ddy",
      "paul ien",
      "georg ie",
      "mitch el",
      "yas min",
      "svan te",
      "de bra",
      "no ur",
      "al ma",
      "or jan",
      "kri s",
      "rein ier",
      "quin ten",
      "re my",
      "nik o",
      "n elle",
      "mart ien",
      "jas mijn",
      "met in",
      "nelle ke",
      "ann britt",
      "me es",
      "l l",
      "p u",
      "do uwe",
      "bru no",
      "nia ll",
      "e be",
      "o ebe",
      "u ta",
      "ph oebe",
      "frank ie",
      "geert je",
      "bre tt",
      "mon i",
      "t es",
      "am ina",
      "do m",
      "gor za",
      "mal gorza",
      "tes s",
      "malgorza ta",
      "karl ijn",
      "va tore",
      "sal vatore",
      "a ud",
      "v ar",
      "ev alena",
      "ing var",
      "aud rey",
      "ma ya",
      "im ran",
      "jos ie",
      "c im",
      "joa cim",
      "wille mijn",
      "ga y",
      "char lene",
      "re be",
      "ber end",
      "ed vin",
      "sa ga",
      "mat ze",
      "do men",
      "vi ola",
      "ev e",
      "tor ben",
      "viv ien",
      "til ly",
      "i ra",
      "mi re",
      "denn y",
      "mire ille",
      "a art",
      "an uel",
      "ra maz",
      "em anuel",
      "hans peter",
      "ramaz an",
      "l lo",
      "z ia",
      "ra m",
      "or han",
      "llo yd",
      "de w",
      "jean ine",
      "oliv ier",
      "li bby",
      "c er",
      "w ar",
      "war ren",
      "c ie",
      "d u",
      "iv ar",
      "lyn sey",
      "wie t",
      "du stin",
      "b ur",
      "c ia",
      "k hard",
      "el isa",
      "bur khard",
      "th il",
      "wil fred",
      "bian ka",
      "m h",
      "jud y",
      "doro thy",
      "nia mh",
      "ann louise",
      "ie k",
      "im ke",
      "ol ov",
      "mon iek",
      "l onne",
      "v il",
      "ma thew",
      "nic olas",
      "yas emin",
      "lonne ke",
      "f ras",
      "ig or",
      "mir co",
      "wal traud",
      "fal k",
      "fras er",
      "g h",
      "dav y",
      "hu gh",
      "fried rich",
      "e a",
      "n ke",
      "t ilda",
      "ny nke",
      "en tina",
      "jess i",
      "val entina",
      "tam my",
      "le ila",
      "jan erik",
      "he ster",
      "ser kan",
      "w ia",
      "bern t",
      "syl wia",
      "bru ce",
      "h ed",
      "v ie",
      "x ander",
      "le tte",
      "ste vie",
      "sam er",
      "mike y",
      "teres e",
      "in us",
      "mar inus",
      "gun britt",
      "carl johan",
      "maxim e",
      "a mal",
      "ros alie",
      "viv e",
      "d ert",
      "ar end",
      "de b",
      "kon stantin",
      "ra mi",
      "lo ek",
      "ay lin",
      "fab io",
      "h al",
      "w ren",
      "and ries",
      "il ka",
      "la wren",
      "hal il",
      "lawren ce",
      "c le",
      "i w",
      "car a",
      "men s",
      "cle mens",
      "iw ona",
      "s en",
      "z ara",
      "car rie",
      "lars erik",
      "d or",
      "i b",
      "al o",
      "sas ha",
      "hid de",
      "tob be",
      "za k",
      "dami en",
      "ra j",
      "ke mal",
      "min na",
      "sil vana",
      "iz zy",
      "g lyn",
      "s enna",
      "y na",
      "anna carin",
      "ar an",
      "mar jolijn",
      "ul li",
      "mad len",
      "ci aran",
      "dra gan",
      "l iane",
      "ger win",
      "di onne",
      "gert rud",
      "b ella",
      "c is",
      "i us",
      "i wan",
      "ra d",
      "ad el",
      "jul ius",
      "bo y",
      "her ma",
      "kon rad",
      "pu ck",
      "b enno",
      "re mon",
      "ka dir",
      "hen ric",
      "doro ta",
      "a c",
      "al lis",
      "isa ac",
      "per ry",
      "noor tje",
      "allis on",
      "wil bert",
      "carl ijn",
      "veron ique",
      "arno ud",
      "tre es",
      "curt is",
      "fra uke",
      "rhi annon",
      "g rit",
      "k n",
      "an ast",
      "an ett",
      "as ia",
      "julie tte",
      "mah di",
      "kn ut",
      "anast asia",
      "o pp",
      "p opp",
      "bo do",
      "gerald ine",
      "popp y",
      "b ab",
      "mar il",
      "me g",
      "vik ki",
      "jean et",
      "ster re",
      "sin an",
      "maril yn",
      "ter ri",
      "p ip",
      "am on",
      "ho ward",
      "b u",
      "ra k",
      "eli f",
      "bu rak",
      "f ons",
      "an kie",
      "mar gret",
      "jo elle",
      "on no",
      "ell io",
      "bea u",
      "greet je",
      "dre w",
      "ellio tt",
      "j it",
      "mar ni",
      "viv i",
      "jit ske",
      "marni x",
      "h ul",
      "sa cha",
      "hans joachim",
      "cas ey",
      "rem ko",
      "stan ze",
      "hul ya",
      "e g",
      "christo fer",
      "eg bert",
      "sa h",
      "co rey",
      "ha i",
      "heid run",
      "f ael",
      "er kan",
      "ra fael",
      "fred ric",
      "sine ad",
      "b ke",
      "t ia",
      "st ella",
      "ina b",
      "ja co",
      "tt i",
      "ad em",
      "mo stafa",
      "ga z",
      "ros anne",
      "wie bke",
      "da t",
      "o ul",
      "ra oul",
      "ab bas",
      "jor rit",
      "ju an",
      "cornel is",
      "liselo tt",
      "e el",
      "n etty",
      "ed gar",
      "jess y",
      "ay han",
      "eel co",
      "m ina",
      "p ien",
      "andre i",
      "krist el",
      "valent in",
      "an as",
      "ran a",
      "ben te",
      "ar ch",
      "ol li",
      "har ris",
      "dave y",
      "cath rine",
      "pat ry",
      "ken th",
      "quin cy",
      "arch ie",
      "harris on",
      "don ald",
      "ky ra",
      "kay lee",
      "alis ha",
      "ann christine",
      "it y",
      "kel sey",
      "ch ey",
      "im an",
      "daniel la",
      "sus ie",
      "ew an",
      "chey enne",
      "k il",
      "v ille",
      "franc ien",
      "tje erd",
      "ken an",
      "ion ut",
      "ley la",
      "les lie",
      "ulla britt",
      "meh di",
      "b ul",
      "re g",
      "lo ve",
      "kar ola",
      "tan ia",
      "lynd sey",
      "bul ent",
      "am in",
      "tri sh",
      "emi le",
      "madel on",
      "tij men",
      "a uke",
      "c em",
      "ra gn",
      "kar i",
      "han i",
      "jess ie",
      "nicole tte",
      "emil ie",
      "domen ic",
      "s jef",
      "ro elie",
      "fred die",
      "don ny",
      "lauren ce",
      "d ula",
      "er le",
      "as e",
      "am mar",
      "ve erle",
      "d el",
      "an o",
      "andre j",
      "to ine",
      "ali reza",
      "nick i",
      "jack y",
      "kier on",
      "del ano",
      "ja qu",
      "kan e",
      "hu ib",
      "yo use",
      "beatri x",
      "jaqu eline",
      "youse f",
      "n ur",
      "se b",
      "ger linde",
      "tor d",
      "din ie",
      "lott ie",
      "a ir",
      "d ineke",
      "t ill",
      "al ast",
      "thil o",
      "alast air",
      "k or",
      "su ne",
      "win fried",
      "nel ia",
      "sh ona",
      "chi ara",
      "kor nelia",
      "f ro",
      "t ijn",
      "per olof",
      "hein er",
      "marian a",
      "fro ukje",
      "f ia",
      "k han",
      "go khan",
      "der ya",
      "hilde gard",
      "b la",
      "m ollie",
      "char ley",
      "dar yl",
      "timo thy",
      "o k",
      "fried helm",
      "mad die",
      "si ri",
      "f ol",
      "f ad",
      "h anne",
      "o ud",
      "t ie",
      "y il",
      "en es",
      "ch am",
      "jo li",
      "anna maria",
      "na da",
      "isa c",
      "yv on",
      "ci ara",
      "nich ola",
      "hi cham",
      "tie s",
      "yil maz",
      "joli en",
      "a id",
      "n in",
      "er can",
      "gu en",
      "mil ena",
      "ou b",
      "li za",
      "ay oub",
      "just ine",
      "aid en",
      "c en",
      "ra ja",
      "gi z",
      "do gan",
      "lars goran",
      "dew i",
      "cen giz",
      "ri ka",
      "han an",
      "fred rika",
      "no el",
      "nor ma",
      "luc ie",
      "a ukje",
      "n ett",
      "marie t",
      "ta y",
      "cath rin",
      "s wen",
      "am ie",
      "la y",
      "ju ul",
      "wille mien",
      "der k",
      "ap ril",
      "f lor",
      "f enna",
      "g iel",
      "j sa",
      "j ip",
      "al ly",
      "ud ew",
      "ca jsa",
      "bo udew",
      "bil le",
      "sy bille",
      "flor in",
      "boudew ijn",
      "d g",
      "h adi",
      "ann kristin",
      "mas on",
      "bri dg",
      "jer ker",
      "jim mie",
      "muham med",
      "gay nor",
      "bridg et",
      "e ber",
      "s ad",
      "er ol",
      "le m",
      "al in",
      "hel ge",
      "kirst ie",
      "oz lem",
      "eber hard",
      "sad ie",
      "v la",
      "ann sofi",
      "al win",
      "bern ie",
      "di mir",
      "thij men",
      "vla dimir",
      "o ke",
      "ber nad",
      "heid e",
      "bro oke",
      "bernad ette",
      "d erik",
      "g lo",
      "k ka",
      "n ab",
      "p ir",
      "jan ette",
      "die derik",
      "wie be",
      "glo ria",
      "nab il",
      "b yl",
      "il ias",
      "lo is",
      "su us",
      "si byl",
      "sibyl le",
      "a ugu",
      "n is",
      "jo pie",
      "christ ien",
      "mo ira",
      "bern ard",
      "stu re",
      "wie s",
      "augu st",
      "nis se",
      "b elin",
      "s sandro",
      "er ique",
      "ale ssandro",
      "tri cia",
      "fred erique",
      "yas sine",
      "belin da",
      "m gard",
      "s indy",
      "in ar",
      "le k",
      "ir mgard",
      "rob bin",
      "kla udia",
      "di lek",
      "o gen",
      "p en",
      "s pen",
      "im ogen",
      "jud e",
      "spen cer",
      "s ali",
      "jor ge",
      "ang us",
      "anie k",
      "syl vana",
      "bab ette",
      "sali h",
      "u na",
      "on ur",
      "sha una",
      "kel vin",
      "a ida",
      "v anja",
      "mi la",
      "sa har",
      "geof frey",
      "mila d",
      "a g",
      "f ara",
      "en zo",
      "ne tha",
      "ev i",
      "vinc enzo",
      "wal id",
      "omi d",
      "yas ar",
      "ag netha",
      "fara h",
      "o bel",
      "is obel",
      "gun vor",
      "ky e",
      "p olly",
      "st ian",
      "cri stian",
      "gon nie",
      "h ala",
      "i ley",
      "es ra",
      "jan tje",
      "man ja",
      "ker rie",
      "frey a",
      "doro thea",
      "ba iley",
      "jann is",
      "benn i",
      "vil ma",
      "c iska",
      "c eri",
      "f an",
      "s cha",
      "t if",
      "mi scha",
      "marie jose",
      "ev ie",
      "ley man",
      "su leyman",
      "con stanze",
      "sy ed",
      "til de",
      "fan y",
      "tif fany",
      "h os",
      "n ele",
      "elle s",
      "ser dar",
      "eu an",
      "ti tti",
      "siet ske",
      "hos sein",
      "se pp",
      "josef ina",
      "kir an",
      "mer ijn",
      "ar iane",
      "st ell",
      "sa ke",
      "lar sake",
      "klaus dieter",
      "si bel",
      "detle v",
      "stell an",
      "k ellie",
      "n ny",
      "mar lou",
      "su nny",
      "philip pa",
      "f un",
      "el mar",
      "ri tt",
      "ab ritt",
      "har men",
      "fil iz",
      "she ena",
      "erd al",
      "c las",
      "mi hai",
      "mas cha",
      "fred erik",
      "cob ie",
      "mah mut",
      "an toon",
      "er ike",
      "ma her",
      "cas sie",
      "go sta",
      "fried erike",
      "quin ty",
      "just yna",
      "k u",
      "ar ron",
      "da z",
      "ay din",
      "shel ly",
      "e ke",
      "an k",
      "co lette",
      "per erik",
      "con nie",
      "leen dert",
      "mus a",
      "ugu r",
      "w a",
      "jo p",
      "ann kathrin",
      "ho i",
      "eef je",
      "h sen",
      "l id",
      "em mel",
      "mo hsen",
      "simon a",
      "ay man",
      "til o",
      "siet se",
      "lid y",
      "f ar",
      "h ad",
      "ma is",
      "ry l",
      "jur jen",
      "dar ryl",
      "si w",
      "fal ko",
      "far had",
      "mais ie",
      "e bru",
      "ge ke",
      "matt i",
      "sven erik",
      "elin or",
      "rich ie",
      "sig gi",
      "maj id",
      "yann ik",
      "bi tte",
      "u mit",
      "en ce",
      "en gin",
      "le ena",
      "ter ence",
      "bet sie",
      "s jo",
      "al ine",
      "ka h",
      "lu ise",
      "gre ger",
      "ricar da",
      "rebe kah",
      "sjo ukje",
      "m es",
      "m elli",
      "ch t",
      "anna bel",
      "anne gret",
      "jan tine",
      "rin y",
      "za c",
      "mes ut",
      "e b",
      "e iv",
      "n u",
      "w ijn",
      "re ce",
      "fer hat",
      "julie t",
      "rah man",
      "rh ian",
      "khal il",
      "abdi rahman",
      "eiv or",
      "wijn and",
      "rece p",
      "d anni",
      "her mien",
      "rie k",
      "sie m",
      "hay den",
      "kil ian",
      "e ck",
      "g dan",
      "o sa",
      "u mu",
      "z andra",
      "ale c",
      "patri zia",
      "chris sy",
      "cla ir",
      "ker ri",
      "bo gdan",
      "col leen",
      "dil ara",
      "eck hard",
      "osa ma",
      "har ley",
      "jess ika",
      "bar is",
      "dirk jan",
      "alan a",
      "tar ek",
      "wiet ske",
      "pip pa",
      "a mit",
      "o tje",
      "ke ele",
      "mo otje",
      "gi os",
      "mel ek",
      "eva maria",
      "geor gios",
      "loren z",
      "keele y",
      "c co",
      "e da",
      "o we",
      "jo dy",
      "as if",
      "il ja",
      "ro d",
      "ro cco",
      "ber yl",
      "fri eda",
      "sal ah",
      "gon ny",
      "ole g",
      "lin g",
      "sta cy",
      "jur re",
      "syl ke",
      "lil li",
      "arn d",
      "abbe y",
      "hed vig",
      "b ry",
      "d anne",
      "h es",
      "ar ash",
      "char issa",
      "chris si",
      "con stantin",
      "wolf ram",
      "mie p",
      "ky lie",
      "rah ul",
      "sieg linde",
      "bry ony",
      "hes sel",
      "ma ha",
      "mi les",
      "ul rik",
      "bar rie",
      "cor dula",
      "shar ona",
      "lenn ard",
      "sel im",
      "y em",
      "ch o",
      "lau rie",
      "mu na",
      "ay a",
      "cas sandra",
      "mer yem",
      "maj britt",
      "ty cho",
      "and e",
      "jol ande",
      "vol kan",
      "reg ine",
      "g wen",
      "h r",
      "ka mal",
      "ham ed",
      "ha gen",
      "bas har",
      "mer ve",
      "suz ie",
      "alo is",
      "d ela",
      "ann mari",
      "is al",
      "te za",
      "ven dela",
      "bo el",
      "fa isal",
      "bas sam",
      "mor teza",
      "e mad",
      "t olga",
      "to va",
      "mag gan",
      "ba uke",
      "n as",
      "w iel",
      "per anders",
      "britt inger",
      "sh adi",
      "nas er",
      "m mer",
      "ri ma",
      "se dat",
      "su mmer",
      "nin ni",
      "f loren",
      "th old",
      "ber thold",
      "je annet",
      "hil d",
      "abdullah i",
      "sev gi",
      "vive ka",
      "floren ce",
      "b ay",
      "t ab",
      "mar len",
      "is met",
      "ka an",
      "man al",
      "mir the",
      "hu da",
      "piet je",
      "bay ram",
      "tab ea",
      "o m",
      "al lar",
      "us man",
      "liz zy",
      "roel and",
      "allar d",
      "b ine",
      "c li",
      "z or",
      "ra vi",
      "kar a",
      "ran ia",
      "sa mar",
      "no ud",
      "theo dor",
      "cli ff",
      "zor an",
      "u mut",
      "ma ine",
      "on ka",
      "il onka",
      "char maine",
      "sa ad",
      "mel ker",
      "nikola i",
      "guen ter",
      "a ileen",
      "i q",
      "k ian",
      "y un",
      "andre ea",
      "the e",
      "bir ger",
      "beck i",
      "tin us",
      "sig ne",
      "doro thee",
      "tar iq",
      "yun us",
      "car el",
      "annie k",
      "margaret e",
      "za inab",
      "rebe kka",
      "zia d",
      "ragn ar",
      "z u",
      "ar zu",
      "el traud",
      "ed eltraud",
      "fa ith",
      "bir te",
      "sah in",
      "e f",
      "ste ef",
      "ud i",
      "cla udi",
      "min ke",
      "ew ald",
      "ew elina",
      "ba ukje",
      "micael a",
      "d olf",
      "e al",
      "f ien",
      "g ve",
      "s ja",
      "t jitske",
      "mich eal",
      "car ita",
      "ber ith",
      "yn gve",
      "sev da",
      "sja an",
      "e gon",
      "s w",
      "w ael",
      "fre ja",
      "bri ta",
      "henk jan",
      "cis si",
      "nett ie",
      "pir jo",
      "sw etlana",
      "a a",
      "b ig",
      "d ries",
      "e amon",
      "f ke",
      "i bo",
      "j annes",
      "t jer",
      "u ff",
      "on or",
      "tt is",
      "ele onor",
      "wiet se",
      "aa fke",
      "big gi",
      "tjer k",
      "uff e",
      "y uk",
      "jor t",
      "bb i",
      "pascal le",
      "lud ger",
      "ti ina",
      "bi bbi",
      "yuk sel",
      "an ia",
      "ra sha",
      "am an",
      "ja ce",
      "nic i",
      "ne al",
      "man ouk",
      "hans i",
      "gn y",
      "mad dy",
      "sab ah",
      "tor gny",
      "sha hid",
      "maj lis",
      "jace k",
      "a v",
      "v it",
      "an eta",
      "re em",
      "is in",
      "ro isin",
      "jan olof",
      "tom mie",
      "mad de",
      "annelie se",
      "sal am",
      "tij s",
      "vive ca",
      "av ril",
      "vit ali",
      "g es",
      "k ub",
      "t rud",
      "ja kub",
      "mari ann",
      "mari ja",
      "christo s",
      "ay nur",
      "hi ba",
      "trud ie",
      "i mad",
      "er han",
      "kir stin",
      "gre tha",
      "colin da",
      "tu ula",
      "domenic o",
      "h ra",
      "j elena",
      "m ette",
      "jo ran",
      "jo rien",
      "ra im",
      "mari tha",
      "sus si",
      "ju ha",
      "ay sel",
      "un d",
      "gert ie",
      "ze hra",
      "sel am",
      "vivi enne",
      "raim und",
      "m elle",
      "s elin",
      "t roy",
      "z i",
      "ma la",
      "and ru",
      "ic ity",
      "lin zi",
      "alex andru",
      "char lott",
      "rob ban",
      "fel icity",
      "ci han",
      "tar ja",
      "dor te",
      "cis ca",
      "patry k",
      "bla ke",
      "mala k",
      "klaus peter",
      "za ch",
      "az ad",
      "d ik",
      "s kye",
      "il han",
      "ser hat",
      "i le",
      "p le",
      "v as",
      "ma lena",
      "le ven",
      "ja ana",
      "pet ri",
      "tri ona",
      "ca triona",
      "ha uke",
      "nad er",
      "ee p",
      "sand eep",
      "valent ijn",
      "hed da",
      "ple un",
      "vas ile",
      "leven t",
      "f ur",
      "u mo",
      "jo lan",
      "be x",
      "ron e",
      "ou t",
      "son gul",
      "ew out",
      "sie be",
      "fi ras",
      "can an",
      "yo rick",
      "ty rone",
      "oz can",
      "fad umo",
      "fur kan",
      "jolan ta",
      "er hard",
      "es ha",
      "gu r",
      "bo uke",
      "lou ie",
      "ju ri",
      "ay esha",
      "shar ron",
      "ze ki",
      "floor tje",
      "oz gur",
      "vivi anne",
      "a ga",
      "ann elo",
      "id ar",
      "ger di",
      "mas oud",
      "ce mal",
      "ha idar",
      "ker t",
      "bar end",
      "me ik",
      "fri so",
      "kir k",
      "pe et",
      "hil levi",
      "shir in",
      "elo ise",
      "corin ne",
      "bep pie",
      "fol kert",
      "aga ta",
      "annelo es",
      "gerdi en",
      "b j",
      "d amon",
      "el fried",
      "mi el",
      "ca miel",
      "hein o",
      "thor ben",
      "hil lie",
      "alf ons",
      "sev im",
      "ok tay",
      "bj arne",
      "elfried e",
      "l am",
      "ma cie",
      "ev alo",
      "lisa marie",
      "ek rem",
      "thor bjorn",
      "lam mert",
      "macie j",
      "evalo tta",
      "o kan",
      "ann katrin",
      "em rah",
      "sus sie",
      "ing britt",
      "son ke",
      "rie kie",
      "rit va",
      "geert jan",
      "karol in",
      "yo sef",
      "tu va",
      "x anne",
      "ro xanne",
      "per arne",
      "per ake",
      "tim m",
      "hu w",
      "cat alin",
      "maz en",
      "ty go",
      "mar lo",
      "mar wa",
      "mi tri",
      "hans dieter",
      "ing olf",
      "my les",
      "jos je",
      "di mitri",
      "ni hat",
      "marlo us",
      "dimitri os",
      "g mor",
      "ri gmor",
      "pa iv",
      "lo va",
      "tri sha",
      "ca z",
      "kenn et",
      "cat rine",
      "paiv i",
      "i usz",
      "el is",
      "mir te",
      "dar iusz",
      "tin dra",
      "kier a",
      "hil ly",
      "elis ha",
      "jo uke",
      "ma chiel",
      "da jana",
      "robert jan",
      "jos ien",
      "mir ja",
      "mer ja",
      "jay den",
      "emmel ie",
      "l ol",
      "l ijn",
      "p ek",
      "t un",
      "ca y",
      "be kir",
      "mer lijn",
      "pe o",
      "tin ie",
      "jel te",
      "lol lo",
      "pek ka",
      "tun cay",
      "c ja",
      "k am",
      "ar am",
      "el fi",
      "re ine",
      "tt an",
      "ger jan",
      "hen ke",
      "sam et",
      "sam mie",
      "gi ttan",
      "beck ie",
      "maj d",
      "hami sh",
      "patry cja",
      "kam ran",
      "c uk",
      "j ko",
      "y ke",
      "ma yke",
      "ann ine",
      "ke ira",
      "ro mee",
      "je annine",
      "eva marie",
      "lars olof",
      "hu b",
      "bil lie",
      "sel cuk",
      "sem ra",
      "zel jko",
      "nu ray",
      "h ael",
      "s ir",
      "mi hael",
      "ra g",
      "to ri",
      "mo rag",
      "ver ity",
      "bas el",
      "lyn ette",
      "col lette",
      "pe er",
      "els ke",
      "doug ie",
      "dun ja",
      "gay le",
      "sah ra",
      "sir pa",
      "mihael a",
      "g je",
      "t ula",
      "t ug",
      "jo di",
      "har ma",
      "per t",
      "ron an",
      "ru pert",
      "riet je",
      "bre gje",
      "tula y",
      "tug ba",
      "e ija",
      "k mar",
      "m ur",
      "u ben",
      "el tje",
      "re uben",
      "ne eltje",
      "co dy",
      "gi les",
      "hans jorg",
      "vic kie",
      "vol kmar",
      "madel en",
      "cer ys",
      "vil helm",
      "eb ony",
      "mur ray",
      "p il",
      "z an",
      "te us",
      "ev abritt",
      "gu lay",
      "sarah jane",
      "ze inab",
      "bet s",
      "ya zan",
      "ser pil",
      "yo eri",
      "maj ed",
      "p inar",
      "in dert",
      "jo nath",
      "chris sie",
      "me indert",
      "jana ke",
      "pat sy",
      "fin lay",
      "lynd say",
      "jonath on",
      "i ona",
      "ar ran",
      "car ys",
      "co ck",
      "birgi tt",
      "rin ie",
      "karl erik",
      "dylan o",
      "gul can",
      "u z",
      "v uz",
      "marie tje",
      "bar an",
      "ga v",
      "cob i",
      "rein der",
      "ya vuz",
      "muham met",
      "vig go",
      "just us",
      "c ig",
      "d em",
      "m anni",
      "o gu",
      "z han",
      "ri ley",
      "ra min",
      "es je",
      "jan in",
      "ge esje",
      "do t",
      "matt s",
      "jur riaan",
      "karl johan",
      "sen ol",
      "cig dem",
      "ogu zhan",
      "g hassan",
      "i tta",
      "r ell",
      "ri itta",
      "tri jn",
      "dar rell",
      "ya ku",
      "shel by",
      "trijn tje",
      "yaku p",
      "g ha",
      "ra ija",
      "li isa",
      "tra cie",
      "hus sam",
      "tan er",
      "chel sey",
      "shel l",
      "guus je",
      "gha da",
      "st i",
      "je z",
      "he i",
      "ker sti",
      "kri jn",
      "kath a",
      "no reen",
      "ay ten",
      "f ok",
      "t ash",
      "ve dat",
      "henk ie",
      "fok ke",
      "b jo",
      "d n",
      "e il",
      "g am",
      "u no",
      "er dogan",
      "mar een",
      "th ir",
      "am us",
      "or tje",
      "pet ron",
      "se amus",
      "id h",
      "co rien",
      "do ortje",
      "hay dn",
      "jill ian",
      "uf uk",
      "bjo ern",
      "eil idh",
      "gam ze",
      "thir za",
      "petron ella",
      "e inar",
      "y son",
      "z hr",
      "al yson",
      "car mel",
      "ger no",
      "ger old",
      "te gan",
      "gi tta",
      "li ene",
      "mer al",
      "sha z",
      "leigh ton",
      "wie ke",
      "gerno t",
      "liene ke",
      "n anna",
      "el d",
      "ma cht",
      "ra ik",
      "is ol",
      "lo dew",
      "ir dre",
      "ne ville",
      "de irdre",
      "per ola",
      "ij k",
      "ew oud",
      "margi tta",
      "fol ke",
      "fun da",
      "macht eld",
      "isol de",
      "lodew ijk",
      "g os",
      "h j",
      "j nie",
      "l ineke",
      "v ad",
      "as da",
      "al mar",
      "al asda",
      "ja vad",
      "tri jnie",
      "ena ke",
      "lars gunnar",
      "ella ke",
      "kj ellake",
      "ba z",
      "oz kan",
      "sv enake",
      "nur can",
      "gos ia",
      "hj almar",
      "alasda ir",
      "a al",
      "b ryn",
      "al un",
      "ale yna",
      "han ad",
      "mo hanad",
      "jenn eke",
      "fad ia",
      "aal tje",
      "c el",
      "d ev",
      "w ol",
      "mar lis",
      "mi ent",
      "ger co",
      "do me",
      "ans gar",
      "ser ap",
      "bla ir",
      "tay fun",
      "heide marie",
      "cel al",
      "dev on",
      "wol ter",
      "mient je",
      "d d",
      "z er",
      "ar ine",
      "ma tte",
      "to dd",
      "nic ke",
      "hans georg",
      "sven olof",
      "kath arine",
      "rin ske",
      "ros alin",
      "franz josef",
      "go te",
      "mag s",
      "rh ona",
      "tam sin",
      "fra zer",
      "ragn hild",
      "rosalin d",
      "c et",
      "g em",
      "s jon",
      "ke ir",
      "la cey",
      "jon te",
      "lenn eke",
      "gijs bert",
      "gon ul",
      "cet in",
      "keir an",
      "s jan",
      "tri ch",
      "bo ukje",
      "bec ci",
      "die trich",
      "lud de",
      "n er",
      "s ver",
      "v ard",
      "ka ttis",
      "ab bi",
      "dav ie",
      "ed vard",
      "char bel",
      "con ner",
      "bernd t",
      "ash ton",
      "thor d",
      "sver ker",
      "mar rit",
      "se ija",
      "jor don",
      "hans werner",
      "sta cie",
      "jur rien",
      "kay e",
      "g ed",
      "er ling",
      "ta ge",
      "lis en",
      "kai uwe",
      "klas ke",
      "d ill",
      "j ed",
      "er land",
      "ka z",
      "or la",
      "per olov",
      "ing mar",
      "hubert us",
      "bro gan",
      "rhi anna",
      "domen ik",
      "glyn is",
      "dill on",
      "f yn",
      "m anne",
      "u ise",
      "ka isa",
      "mariel uise",
      "jar mo",
      "deb s",
      "adel heid",
      "seb be",
      "fyn n",
      "re gan",
      "is la",
      "mark ku",
      "ha jo",
      "bo bb",
      "ve it",
      "gor el",
      "britt mari",
      "kay ley",
      "lott en",
      "nikola us",
      "arnd t",
      "bobb ie",
      "a o",
      "a is",
      "ar it",
      "el y",
      "ma arit",
      "ra b",
      "ke ely",
      "mat z",
      "jacqu ie",
      "if e",
      "sig ge",
      "ho dan",
      "ao ife",
      "ais ling",
      "f fi",
      "al bre",
      "car ro",
      "ing abritt",
      "ffi on",
      "albre cht",
      "n im",
      "u ven",
      "er bel",
      "ch thil",
      "ro uven",
      "mil jen",
      "fa miljen",
      "me chthil",
      "we ig",
      "lee anne",
      "ba erbel",
      "sol weig",
      "nim co",
      "mechthil d",
      "ann ic",
      "teres ia",
      "annic ka",
      "g us",
      "j annica",
      "ar ja",
      "ri ke",
      "ann catrin",
      "is sy",
      "fer gus",
      "vid ar",
      "a in",
      "ger ain",
      "sa tu",
      "sus e",
      "nils erik",
      "hann u",
      "nett an",
      "gerain t",
      "kim mo",
      "ros marie",
      "ges a",
      "c ina",
      "d isa",
      "i ger",
      "ro ine",
      "ed iger",
      "ru ediger",
      "claes goran",
      "e o",
      "i bert",
      "m hai",
      "x ten",
      "es kil",
      "anne kathrin",
      "gun dula",
      "her ibert",
      "kir si",
      "si xten",
      "guen ther",
      "eamon n",
      "eo in",
      "mhai ri",
      "tt ie",
      "ha ttie",
      "dar ran",
      "kier en",
      "chel sie",
      "b run",
      "ik ka",
      "sa ff",
      "jar l",
      "sin ikka",
      "brun hilde",
      "saff ron",
      "e j",
      "alex ej",
      "jor ma",
      "jann ike",
      "bro r",
      "sepp o",
      "b ett",
      "k ko",
      "o sten",
      "o di",
      "v ron",
      "jo ar",
      "to tte",
      "ham odi",
      "bri ony",
      "eva karin",
      "inge gard",
      "pas i",
      "kon stanze",
      "hann ele",
      "ail sa",
      "bab si",
      "pir kko",
      "bett an",
      "vron i",
      "w ic",
      "bec cy",
      "maj vor",
      "nin os",
      "wic tor",
      "h ara",
      "ang hara",
      "britt louise",
      "fin ley",
      "emmel i",
      "anghara d",
      "j us",
      "u an",
      "ie uan",
      "anna gre",
      "car ley",
      "ta ke",
      "gi tti",
      "ing mari",
      "bri die",
      "gun hild",
      "pe hr",
      "beng take",
      "tre v",
      "glen ys",
      "eb be",
      "ges ine",
      "jus si",
      "annagre ta",
      "g lynn",
      "o wa",
      "t arina",
      "ju kka",
      "cha tarina",
      "owa in",
      "man ge",
      "dean o",
      "c ic",
      "d is",
      "h jor",
      "l britt",
      "el en",
      "ann charlott",
      "anna stina",
      "ing vor",
      "carl fredrik",
      "gul lbritt",
      "pu tte",
      "nu ala",
      "cic ci",
      "hjor dis",
      "elen or",
      "i jo",
      "k ki",
      "er kki",
      "ma ire",
      "re ijo",
      "tor kel",
      "gre ig",
      "maire ad",
      "f yd",
      "l le",
      "da fyd",
      "ca isa",
      "kri lle",
      "sol britt",
      "dafyd d",
      "u ley",
      "ma ca",
      "ann margret",
      "pier s",
      "tu ija",
      "maca uley",
      "d id",
      "i ri",
      "ma iri",
      "ad de",
      "did rik",
      "ca ttis",
      "graham e",
      "g la",
      "w ri",
      "en gla",
      "jan olov",
      "lo wri",
      "to we",
      "shar na",
      "carl henrik",
      "ing alena",
      "ib be",
      "so ve",
      "lar sove",
      "gun marie",
      "gul lan",
      "es bjorn"
    ]
  }
}