{
    "version": "1.0",
    "truncation": null,
    "padding": null,
    "added_tokens": [
        {
            "id": 0,
            "content": "[UNK]",
            "single_word": false,
            "lstrip": false,
            "rstrip": false,
            "normalized": false,
            "special": true
        },
        {
            "id": 1,
            "content": "[CLS]",
            "single_word": false,
            "lstrip": false,
            "rstrip": false,
            "normalized": false,
            "special": true
        },
        {
            "id": 2,
            "content": "[SEP]",
            "single_word": false,
            "lstrip": false,
            "rstrip": false,
            "normalized": false,
            "special": true
        },
        {
            "id": 3,
            "content": "[PAD]",
            "single_word": false,
            "lstrip": false,
            "rstrip": false,
            "normalized": false,
            "special": true
        },
        {
            "id": 4,
            "content": "[MASK]",
            "single_word": false,
            "lstrip": false,
            "rstrip": false,
            "normalized": false,
            "special": true
        }
    ],
    "normalizer": null,
    "pre_tokenizer": {
        "type": "Whitespace"
    },
    "post_processor": null,
    "decoder": null,
    "model": {
        "type": "BPE",
        "dropout": null,
        "unk_token": "[UNK]",
        "continuing_subword_prefix": null,
        "end_of_word_suffix": null,
        "fuse_unk": false,
        "vocab": {
            "[UNK]": 0,
            "[CLS]": 1,
            "[SEP]": 2,
            "[PAD]": 3,
            "[MASK]": 4,
            "-": 5,
            "a": 6,
            "b": 7,
            "c": 8,
            "d": 9,
            "e": 10,
            "f": 11,
            "g": 12,
            "h": 13,
            "i": 14,
            "j": 15,
            "k": 16,
            "l": 17,
            "m": 18,
            "n": 19,
            "o": 20,
            "p": 21,
            "q": 22,
            "r": 23,
            "s": 24,
            "t": 25,
            "u": 26,
            "v": 27,
            "w": 28,
            "x": 29,
            "y": 30,
            "z": 31,
            "an": 32,
            "ar": 33,
            "in": 34,
            "er": 35,
            "el": 36,
            "en": 37,
            "ri": 38,
            "mar": 39,
            "st": 40,
            "ch": 41,
            "jo": 42,
            "ma": 43,
            "ann": 44,
            "on": 45,
            "ie": 46,
            "le": 47,
            "and": 48,
            "ia": 49,
            "th": 50,
            "mi": 51,
            "re": 52,
            "ra": 53,
            "as": 54,
            "et": 55,
            "il": 56,
            "am": 57,
            "is": 58,
            "ke": 59,
            "al": 60,
            "la": 61,
            "ic": 62,
            "ka": 63,
            "ina": 64,
            "da": 65,
            "ro": 66,
            "us": 67,
            "es": 68,
            "im": 69,
            "ja": 70,
            "ian": 71,
            "ul": 72,
            "or": 73,
            "ine": 74,
            "ste": 75,
            "pa": 76,
            "ol": 77,
            "joh": 78,
            "pet": 79,
            "dan": 80,
            "enn": 81,
            "tt": 82,
            "ph": 83,
            "jan": 84,
            "iel": 85,
            "car": 86,
            "ab": 87,
            "ber": 88,
            "lo": 89,
            "to": 90,
            "se": 91,
            "ael": 92,
            "na": 93,
            "kar": 94,
            "ik": 95,
            "ara": 96,
            "id": 97,
            "ale": 98,
            "lin": 99,
            "ger": 100,
            "nic": 101,
            "ck": 102,
            "dav": 103,
            "mas": 104,
            "ir": 105,
            "em": 106,
            "ed": 107,
            "ne": 108,
            "ry": 109,
            "ly": 110,
            "char": 111,
            "ud": 112,
            "te": 113,
            "ran": 114,
            "tho": 115,
            "tri": 116,
            "ca": 117,
            "ena": 118,
            "ge": 119,
            "ias": 120,
            "mon": 121,
            "andra": 122,
            "be": 123,
            "lu": 124,
            "jor": 125,
            "har": 126,
            "jam": 127,
            "wil": 128,
            "fre": 129,
            "ren": 130,
            "ad": 131,
            "hel": 132,
            "isa": 133,
            "ica": 134,
            "hen": 135,
            "han": 136,
            "mo": 137,
            "jul": 138,
            "vin": 139,
            "ben": 140,
            "rob": 141,
            "rik": 142,
            "sa": 143,
            "ton": 144,
            "ce": 145,
            "je": 146,
            "mat": 147,
            "ang": 148,
            "ham": 149,
            "co": 150,
            "ika": 151,
            "ev": 152,
            "ta": 153,
            "ha": 154,
            "tom": 155,
            "ela": 156,
            "man": 157,
            "gu": 158,
            "he": 159,
            "jes": 160,
            "ter": 161,
            "so": 162,
            "sus": 163,
            "sim": 164,
            "kat": 165,
            "de": 166,
            "lau": 167,
            "sam": 168,
            "gi": 169,
            "qu": 170,
            "per": 171,
            "ur": 172,
            "ast": 173,
            "ven": 174,
            "art": 175,
            "cla": 176,
            "iv": 177,
            "lar": 178,
            "ell": 179,
            "jon": 180,
            "ley": 181,
            "gn": 182,
            "ise": 183,
            "do": 184,
            "mad": 185,
            "ette": 186,
            "tte": 187,
            "ing": 188,
            "bri": 189,
            "kim": 190,
            "ron": 191,
            "ig": 192,
            "tim": 193,
            "stin": 194,
            "ah": 195,
            "gar": 196,
            "mel": 197,
            "ker": 198,
            "ij": 199,
            "mil": 200,
            "eva": 201,
            "dy": 202,
            "my": 203,
            "moham": 204,
            "sab": 205,
            "ali": 206,
            "denn": 207,
            "ru": 208,
            "bast": 209,
            "las": 210,
            "tta": 211,
            "anie": 212,
            "ip": 213,
            "ny": 214,
            "the": 215,
            "rid": 216,
            "eth": 217,
            "bo": 218,
            "tor": 219,
            "sta": 220,
            "max": 221,
            "lou": 222,
            "lie": 223,
            "kri": 224,
            "fer": 225,
            "onne": 226,
            "bar": 227,
            "isab": 228,
            "tob": 229,
            "eli": 230,
            "yv": 231,
            "ve": 232,
            "gun": 233,
            "mu": 234,
            "gen": 235,
            "sebast": 236,
            "jas": 237,
            "ther": 238,
            "que": 239,
            "su": 240,
            "nat": 241,
            "geor": 242,
            "jos": 243,
            "min": 244,
            "mir": 245,
            "os": 246,
            "lia": 247,
            "sof": 248,
            "cor": 249,
            "oliv": 250,
            "cy": 251,
            "med": 252,
            "fa": 253,
            "yl": 254,
            "thias": 255,
            "ria": 256,
            "jen": 257,
            "jer": 258,
            "her": 259,
            "me": 260,
            "ju": 261,
            "vic": 262,
            "bir": 263,
            "oen": 264,
            "udia": 265,
            "ris": 266,
            "magn": 267,
            "nik": 268,
            "ijn": 269,
            "ike": 270,
            "birgi": 271,
            "soph": 272,
            "nad": 273,
            "fri": 274,
            "lf": 275,
            "bec": 276,
            "ique": 277,
            "ga": 278,
            "gab": 279,
            "ola": 280,
            "no": 281,
            "ald": 282,
            "ita": 283,
            "rin": 284,
            "ki": 285,
            "sas": 286,
            "joe": 287,
            "arina": 288,
            "ver": 289,
            "die": 290,
            "ith": 291,
            "joa": 292,
            "bra": 293,
            "dir": 294,
            "cal": 295,
            "jur": 296,
            "pie": 297,
            "flo": 298,
            "ulri": 299,
            "via": 300,
            "rebec": 301,
            "ou": 302,
            "illa": 303,
            "den": 304,
            "jim": 305,
            "kla": 306,
            "ele": 307,
            "anth": 308,
            "ard": 309,
            "rach": 310,
            "sil": 311,
            "ire": 312,
            "bb": 313,
            "bern": 314,
            "jac": 315,
            "kan": 316,
            "cha": 317,
            "gor": 318,
            "li": 319,
            "hu": 320,
            "win": 321,
            "con": 322,
            "ill": 323,
            "wen": 324,
            "met": 325,
            "agn": 326,
            "margar": 327,
            "jacqu": 328,
            "has": 329,
            "olf": 330,
            "ene": 331,
            "we": 332,
            "son": 333,
            "ant": 334,
            "lee": 335,
            "annes": 336,
            "uwe": 337,
            "io": 338,
            "rie": 339,
            "ent": 340,
            "elisab": 341,
            "nor": 342,
            "bas": 343,
            "hol": 344,
            "ona": 345,
            "lyn": 346,
            "ay": 347,
            "kir": 348,
            "kas": 349,
            "syl": 350,
            "shar": 351,
            "bian": 352,
            "domin": 353,
            "cas": 354,
            "tra": 355,
            "ice": 356,
            "amy": 357,
            "asa": 358,
            "bea": 359,
            "lenn": 360,
            "rit": 361,
            "hard": 362,
            "gan": 363,
            "ros": 364,
            "lan": 365,
            "fab": 366,
            "emi": 367,
            "ko": 368,
            "toria": 369,
            "camil": 370,
            "wim": 371,
            "thew": 372,
            "lis": 373,
            "col": 374,
            "mau": 375,
            "dar": 376,
            "les": 377,
            "un": 378,
            "jol": 379,
            "di": 380,
            "gra": 381,
            "gang": 382,
            "vik": 383,
            "van": 384,
            "of": 385,
            "ula": 386,
            "mie": 387,
            "nel": 388,
            "gre": 389,
            "don": 390,
            "joo": 391,
            "stafa": 392,
            "roy": 393,
            "est": 394,
            "cil": 395,
            "cob": 396,
            "men": 397,
            "mer": 398,
            "za": 399,
            "ien": 400,
            "ash": 401,
            "jamin": 402,
            "thij": 403,
            "sh": 404,
            "ky": 405,
            "debb": 406,
            "ek": 407,
            "jud": 408,
            "sue": 409,
            "cey": 410,
            "leo": 411,
            "cra": 412,
            "pas": 413,
            "jay": 414,
            "fat": 415,
            "stu": 416,
            "ulf": 417,
            "ony": 418,
            "natas": 419,
            "mia": 420,
            "rud": 421,
            "go": 422,
            "mal": 423,
            "chim": 424,
            "nie": 425,
            "ew": 426,
            "suz": 427,
            "ray": 428,
            "ida": 429,
            "maart": 430,
            "pia": 431,
            "lor": 432,
            "iska": 433,
            "sco": 434,
            "kay": 435,
            "chlo": 436,
            "heid": 437,
            "ett": 438,
            "samanth": 439,
            "meh": 440,
            "jef": 441,
            "iner": 442,
            "kia": 443,
            "vinc": 444,
            "zo": 445,
            "chant": 446,
            "bil": 447,
            "gusta": 448,
            "jaa": 449,
            "ert": 450,
            "nan": 451,
            "joy": 452,
            "veron": 453,
            "ze": 454,
            "bob": 455,
            "ern": 456,
            "ax": 457,
            "kai": 458,
            "wal": 459,
            "wou": 460,
            "if": 461,
            "yn": 462,
            "linne": 463,
            "fil": 464,
            "mut": 465,
            "ick": 466,
            "him": 467,
            "ibra": 468,
            "kard": 469,
            "nil": 470,
            "uk": 471,
            "uel": 472,
            "ier": 473,
            "frey": 474,
            "san": 475,
            "it": 476,
            "sha": 477,
            "leig": 478,
            "wis": 479,
            "iko": 480,
            "fried": 481,
            "mag": 482,
            "wes": 483,
            "rem": 484,
            "pe": 485,
            "va": 486,
            "rena": 487,
            "ric": 488,
            "sie": 489,
            "urt": 490,
            "sal": 491,
            "therine": 492,
            "liz": 493,
            "abd": 494,
            "zoe": 495,
            "eta": 496,
            "omi": 497,
            "kirst": 498,
            "rice": 499,
            "ewa": 500,
            "daw": 501,
            "lil": 502,
            "beck": 503,
            "mit": 504,
            "madele": 505,
            "henn": 506,
            "vol": 507,
            "joer": 508,
            "sz": 509,
            "zy": 510,
            "els": 511,
            "wern": 512,
            "fi": 513,
            "aar": 514,
            "sel": 515,
            "hay": 516,
            "lum": 517,
            "tin": 518,
            "bet": 519,
            "len": 520,
            "iaan": 521,
            "hus": 522,
            "mor": 523,
            "kier": 524,
            "dami": 525,
            "rah": 526,
            "ute": 527,
            "joshu": 528,
            "ila": 529,
            "vi": 530,
            "hil": 531,
            "jako": 532,
            "ya": 533,
            "ouk": 534,
            "riam": 535,
            "iot": 536,
            "kh": 537,
            "icia": 538,
            "val": 539,
            "ras": 540,
            "teres": 541,
            "zab": 542,
            "elizab": 543,
            "cornel": 544,
            "angeli": 545,
            "can": 546,
            "der": 547,
            "old": 548,
            "hm": 549,
            "hmd": 550,
            "ricar": 551,
            "ido": 552,
            "tje": 553,
            "kj": 554,
            "ni": 555,
            "pon": 556,
            "si": 557,
            "tus": 558,
            "joch": 559,
            "sey": 560,
            "cke": 561,
            "bie": 562,
            "lud": 563,
            "yas": 564,
            "rat": 565,
            "ey": 566,
            "dia": 567,
            "way": 568,
            "cat": 569,
            "pat": 570,
            "mus": 571,
            "ff": 572,
            "annon": 573,
            "iz": 574,
            "ans": 575,
            "kimber": 576,
            "ather": 577,
            "elo": 578,
            "wan": 579,
            "rh": 580,
            "aike": 581,
            "lein": 582,
            "det": 583,
            "mah": 584,
            "detle": 585,
            "kaj": 586,
            "drik": 587,
            "run": 588,
            "js": 589,
            "pam": 590,
            "kal": 591,
            "nig": 592,
            "hor": 593,
            "ana": 594,
            "ser": 595,
            "tz": 596,
            "mail": 597,
            "fem": 598,
            "udo": 599,
            "ken": 600,
            "ee": 601,
            "tre": 602,
            "lph": 603,
            "vor": 604,
            "ske": 605,
            "muham": 606,
            "enno": 607,
            "fel": 608,
            "par": 609,
            "bin": 610,
            "sig": 611,
            "piot": 612,
            "yo": 613,
            "uf": 614,
            "dag": 615,
            "wie": 616,
            "milian": 617,
            "sjoer": 618,
            "rze": 619,
            "she": 620,
            "iesz": 621,
            "agniesz": 622,
            "wel": 623,
            "luc": 624,
            "staff": 625,
            "pim": 626,
            "uke": 627,
            "lind": 628,
            "hat": 629,
            "ake": 630,
            "des": 631,
            "ebb": 632,
            "viv": 633,
            "fle": 634,
            "ys": 635,
            "yus": 636,
            "ursu": 637,
            "moa": 638,
            "ov": 639,
            "ug": 640,
            "isy": 641,
            "beatri": 642,
            "fal": 643,
            "daph": 644,
            "alf": 645,
            "din": 646,
            "gud": 647,
            "khal": 648,
            "husey": 649,
            "mee": 650,
            "maj": 651,
            "lea": 652,
            "arn": 653,
            "corin": 654,
            "arth": 655,
            "ba": 656,
            "vig": 657,
            "sein": 658,
            "sor": 659,
            "tan": 660,
            "iree": 661,
            "gis": 662,
            "gg": 663,
            "pegg": 664,
            "liv": 665,
            "pus": 666,
            "jn": 667,
            "nien": 668,
            "enne": 669,
            "olas": 670,
            "ukje": 671,
            "tmar": 672,
            "tru": 673,
            "helm": 674,
            "tha": 675,
            "moud": 676,
            "by": 677,
            "geof": 678,
            "ban": 679,
            "emy": 680,
            "bor": 681,
            "bru": 682,
            "eryl": 683,
            "ala": 684,
            "bby": 685,
            "rus": 686,
            "shel": 687,
            "hami": 688,
            "kr": 689,
            "tof": 690,
            "sztof": 691,
            "zysztof": 692,
            "sem": 693,
            "ci": 694,
            "morit": 695,
            "nich": 696,
            "ryn": 697,
            "eveli": 698,
            "sieg": 699,
            "ney": 700,
            "court": 701,
            "sy": 702,
            "ub": 703,
            "maz": 704,
            "ece": 705,
            "loren": 706,
            "ts": 707,
            "ouise": 708,
            "end": 709,
            "adi": 710,
            "mine": 711,
            "use": 712,
            "bel": 713,
            "zel": 714,
            "sea": 715,
            "liselo": 716,
            "een": 717,
            "til": 718,
            "ut": 719,
            "thar": 720,
            "eri": 721,
            "sjaa": 722,
            "eu": 723,
            "br": 724,
            "fin": 725,
            "giov": 726,
            "bep": 727,
            "andrze": 728,
            "mijn": 729,
            "ap": 730,
            "ivo": 731,
            "ellin": 732,
            "jann": 733,
            "dil": 734,
            "nia": 735,
            "chi": 736,
            "dun": 737,
            "kic": 738,
            "benn": 739,
            "kon": 740,
            "arzy": 741,
            "katarzy": 742,
            "mann": 743,
            "cri": 744,
            "tger": 745,
            "fay": 746,
            "aim": 747,
            "sef": 748,
            "job": 749,
            "tmut": 750,
            "tyl": 751,
            "jonat": 752,
            "pris": 753,
            "wig": 754,
            "nth": 755,
            "cynth": 756,
            "ige": 757,
            "elyn": 758,
            "elvi": 759,
            "ty": 760,
            "gon": 761,
            "tty": 762,
            "rey": 763,
            "margi": 764,
            "aad": 765,
            "alill": 766,
            "etha": 767,
            "ster": 768,
            "oz": 769,
            "ille": 770,
            "gran": 771,
            "vid": 772,
            "erie": 773,
            "eme": 774,
            "az": 775,
            "ted": 776,
            "say": 777,
            "jar": 778,
            "wart": 779,
            "gea": 780,
            "usz": 781,
            "cliv": 782,
            "gul": 783,
            "hann": 784,
            "siv": 785,
            "gin": 786,
            "thy": 787,
            "ove": 788,
            "ho": 789,
            "ergen": 790,
            "bre": 791,
            "gie": 792,
            "sol": 793,
            "with": 794,
            "rogi": 795,
            "roswith": 796,
            "ten": 797,
            "ti": 798,
            "kel": 799,
            "lex": 800,
            "jel": 801,
            "ppe": 802,
            "bever": 803,
            "giuse": 804,
            "kie": 805,
            "vio": 806,
            "etlan": 807,
            "ussef": 808,
            "etlana": 809,
            "ott": 810,
            "enna": 811,
            "sse": 812,
            "kev": 813,
            "uli": 814,
            "abo": 815,
            "iane": 816,
            "anor": 817,
            "pp": 818,
            "ail": 819,
            "stant": 820,
            "stantin": 821,
            "oli": 822,
            "bw": 823,
            "mmi": 824,
            "tar": 825,
            "abi": 826,
            "traud": 827,
            "ped": 828,
            "sv": 829,
            "you": 830,
            "lott": 831,
            "tayl": 832,
            "gret": 833,
            "yne": 834,
            "zeyne": 835,
            "ai": 836,
            "erd": 837,
            "sin": 838,
            "zie": 839,
            "sev": 840,
            "hid": 841,
            "bhan": 842,
            "rthe": 843,
            "sio": 844,
            "eef": 845,
            "ada": 846,
            "dee": 847,
            "gorz": 848,
            "ole": 849,
            "bi": 850,
            "gej": 851,
            "clan": 852,
            "elore": 853,
            "dra": 854,
            "cael": 855,
            "sjor": 856,
            "abig": 857,
            "noa": 858,
            "tam": 859,
            "ugu": 860,
            "tu": 861,
            "ons": 862,
            "veig": 863,
            "ikt": 864,
            "edikt": 865,
            "tij": 866,
            "jet": 867,
            "yd": 868,
            "harve": 869,
            "siet": 870,
            "tas": 871,
            "lemor": 872,
            "rine": 873,
            "fra": 874,
            "ofer": 875,
            "yol": 876,
            "bro": 877,
            "um": 878,
            "ler": 879,
            "oy": 880,
            "rits": 881,
            "dre": 882,
            "hi": 883,
            "bev": 884,
            "rhi": 885,
            "guy": 886,
            "ion": 887,
            "ija": 888,
            "ril": 889,
            "hold": 890,
            "inette": 891,
            "lynd": 892,
            "pijn": 893,
            "uard": 894,
            "alista": 895,
            "zah": 896,
            "ary": 897,
            "imy": 898,
            "ddy": 899,
            "svan": 900,
            "ll": 901,
            "pu": 902,
            "ebe": 903,
            "oebe": 904,
            "uta": 905,
            "tes": 906,
            "dom": 907,
            "gorza": 908,
            "malgorza": 909,
            "aud": 910,
            "var": 911,
            "cim": 912,
            "gay": 913,
            "eve": 914,
            "ira": 915,
            "mire": 916,
            "anuel": 917,
            "ramaz": 918,
            "llo": 919,
            "zia": 920,
            "ram": 921,
            "dew": 922,
            "cer": 923,
            "war": 924,
            "cie": 925,
            "du": 926,
            "wiet": 927,
            "bur": 928,
            "cia": 929,
            "khard": 930,
            "thil": 931,
            "mh": 932,
            "iek": 933,
            "lonne": 934,
            "vil": 935,
            "fras": 936,
            "gh": 937,
            "ea": 938,
            "nke": 939,
            "wia": 940,
            "hed": 941,
            "vie": 942,
            "lette": 943,
            "inus": 944,
            "vive": 945,
            "dert": 946,
            "deb": 947,
            "hal": 948,
            "wren": 949,
            "lawren": 950,
            "cle": 951,
            "iw": 952,
            "mens": 953,
            "sen": 954,
            "dor": 955,
            "ib": 956,
            "alo": 957,
            "zak": 958,
            "raj": 959,
            "yna": 960,
            "cis": 961,
            "ius": 962,
            "rad": 963,
            "boy": 964,
            "ac": 965,
            "allis": 966,
            "kn": 967,
            "anast": 968,
            "opp": 969,
            "popp": 970,
            "bab": 971,
            "maril": 972,
            "meg": 973,
            "pip": 974,
            "bu": 975,
            "rak": 976,
            "ellio": 977,
            "jit": 978,
            "marni": 979,
            "hul": 980,
            "eg": 981,
            "sah": 982,
            "hai": 983,
            "fael": 984,
            "bke": 985,
            "tia": 986,
            "inab": 987,
            "tti": 988,
            "gaz": 989,
            "dat": 990,
            "oul": 991,
            "eel": 992,
            "arch": 993,
            "harris": 994,
            "ity": 995,
            "chey": 996,
            "kil": 997,
            "bul": 998,
            "reg": 999,
            "cem": 1000,
            "ragn": 1001,
            "dula": 1002,
            "ase": 1003,
            "del": 1004,
            "ano": 1005,
            "jaqu": 1006,
            "youse": 1007,
            "nur": 1008,
            "seb": 1009,
            "air": 1010,
            "alast": 1011,
            "kor": 1012,
            "fro": 1013,
            "fia": 1014,
            "bla": 1015,
            "ok": 1016,
            "fol": 1017,
            "fad": 1018,
            "oud": 1019,
            "tie": 1020,
            "yil": 1021,
            "cham": 1022,
            "aid": 1023,
            "nin": 1024,
            "guen": 1025,
            "oub": 1026,
            "cen": 1027,
            "giz": 1028,
            "nett": 1029,
            "tay": 1030,
            "lay": 1031,
            "jsa": 1032,
            "jip": 1033,
            "udew": 1034,
            "boudew": 1035,
            "bille": 1036,
            "dg": 1037,
            "bridg": 1038,
            "sad": 1039,
            "lem": 1040,
            "vla": 1041,
            "dimir": 1042,
            "oke": 1043,
            "bernad": 1044,
            "glo": 1045,
            "kka": 1046,
            "nab": 1047,
            "pir": 1048,
            "byl": 1049,
            "sibyl": 1050,
            "augu": 1051,
            "nis": 1052,
            "erique": 1053,
            "inar": 1054,
            "lek": 1055,
            "ogen": 1056,
            "pen": 1057,
            "spen": 1058,
            "una": 1059,
            "ag": 1060,
            "netha": 1061,
            "evi": 1062,
            "obel": 1063,
            "kye": 1064,
            "iley": 1065,
            "fan": 1066,
            "tif": 1067,
            "leyman": 1068,
            "hos": 1069,
            "stell": 1070,
            "sake": 1071,
            "nny": 1072,
            "fun": 1073,
            "ritt": 1074,
            "abritt": 1075,
            "erike": 1076,
            "ku": 1077,
            "daz": 1078,
            "eke": 1079,
            "ank": 1080,
            "wa": 1081,
            "jop": 1082,
            "hoi": 1083,
            "hsen": 1084,
            "lid": 1085,
            "emmel": 1086,
            "far": 1087,
            "had": 1088,
            "mais": 1089,
            "ryl": 1090,
            "siw": 1091,
            "ence": 1092,
            "sjo": 1093,
            "kah": 1094,
            "mes": 1095,
            "cht": 1096,
            "zac": 1097,
            "eb": 1098,
            "eiv": 1099,
            "nu": 1100,
            "wijn": 1101,
            "rece": 1102,
            "eck": 1103,
            "gdan": 1104,
            "osa": 1105,
            "umu": 1106,
            "otje": 1107,
            "keele": 1108,
            "gios": 1109,
            "cco": 1110,
            "eda": 1111,
            "owe": 1112,
            "rod": 1113,
            "bry": 1114,
            "hes": 1115,
            "yem": 1116,
            "cho": 1117,
            "aya": 1118,
            "ande": 1119,
            "hr": 1120,
            "isal": 1121,
            "teza": 1122,
            "nas": 1123,
            "mmer": 1124,
            "floren": 1125,
            "thold": 1126,
            "hild": 1127,
            "bay": 1128,
            "tab": 1129,
            "om": 1130,
            "allar": 1131,
            "cli": 1132,
            "zor": 1133,
            "onka": 1134,
            "iq": 1135,
            "yun": 1136,
            "zu": 1137,
            "eltraud": 1138,
            "ef": 1139,
            "udi": 1140,
            "eal": 1141,
            "gve": 1142,
            "sja": 1143,
            "sw": 1144,
            "aa": 1145,
            "big": 1146,
            "fke": 1147,
            "ibo": 1148,
            "tjer": 1149,
            "uff": 1150,
            "onor": 1151,
            "ttis": 1152,
            "yuk": 1153,
            "bbi": 1154,
            "jace": 1155,
            "gny": 1156,
            "av": 1157,
            "vit": 1158,
            "isin": 1159,
            "ges": 1160,
            "kub": 1161,
            "trud": 1162,
            "hra": 1163,
            "raim": 1164,
            "und": 1165,
            "zi": 1166,
            "andru": 1167,
            "icity": 1168,
            "dik": 1169,
            "ile": 1170,
            "ple": 1171,
            "vas": 1172,
            "leven": 1173,
            "eep": 1174,
            "fur": 1175,
            "umo": 1176,
            "bex": 1177,
            "rone": 1178,
            "out": 1179,
            "gur": 1180,
            "aga": 1181,
            "annelo": 1182,
            "gerdi": 1183,
            "kert": 1184,
            "bj": 1185,
            "elfried": 1186,
            "miel": 1187,
            "lam": 1188,
            "macie": 1189,
            "evalo": 1190,
            "huw": 1191,
            "marlo": 1192,
            "mitri": 1193,
            "gmor": 1194,
            "paiv": 1195,
            "caz": 1196,
            "iusz": 1197,
            "lol": 1198,
            "lijn": 1199,
            "pek": 1200,
            "tun": 1201,
            "cay": 1202,
            "peo": 1203,
            "cja": 1204,
            "kam": 1205,
            "ttan": 1206,
            "cuk": 1207,
            "jko": 1208,
            "yke": 1209,
            "annine": 1210,
            "hub": 1211,
            "hael": 1212,
            "sir": 1213,
            "rag": 1214,
            "gje": 1215,
            "tula": 1216,
            "tug": 1217,
            "pert": 1218,
            "kmar": 1219,
            "mur": 1220,
            "uben": 1221,
            "eltje": 1222,
            "pil": 1223,
            "zan": 1224,
            "indert": 1225,
            "uz": 1226,
            "vuz": 1227,
            "gav": 1228,
            "cig": 1229,
            "dem": 1230,
            "ogu": 1231,
            "zhan": 1232,
            "esje": 1233,
            "dot": 1234,
            "itta": 1235,
            "rell": 1236,
            "trijn": 1237,
            "yaku": 1238,
            "gha": 1239,
            "sti": 1240,
            "jez": 1241,
            "hei": 1242,
            "fok": 1243,
            "bjo": 1244,
            "dn": 1245,
            "eil": 1246,
            "gam": 1247,
            "uno": 1248,
            "thir": 1249,
            "amus": 1250,
            "ortje": 1251,
            "petron": 1252,
            "idh": 1253,
            "yson": 1254,
            "zhr": 1255,
            "gerno": 1256,
            "liene": 1257,
            "eld": 1258,
            "macht": 1259,
            "isol": 1260,
            "lodew": 1261,
            "irdre": 1262,
            "ijk": 1263,
            "gos": 1264,
            "hj": 1265,
            "jnie": 1266,
            "vad": 1267,
            "asda": 1268,
            "almar": 1269,
            "alasda": 1270,
            "enake": 1271,
            "baz": 1272,
            "aal": 1273,
            "hanad": 1274,
            "cel": 1275,
            "dev": 1276,
            "wol": 1277,
            "mient": 1278,
            "dd": 1279,
            "zer": 1280,
            "arine": 1281,
            "cet": 1282,
            "gem": 1283,
            "keir": 1284,
            "trich": 1285,
            "ner": 1286,
            "sver": 1287,
            "vard": 1288,
            "ged": 1289,
            "dill": 1290,
            "jed": 1291,
            "kaz": 1292,
            "fyn": 1293,
            "uise": 1294,
            "bobb": 1295,
            "ao": 1296,
            "ais": 1297,
            "arit": 1298,
            "ely": 1299,
            "rab": 1300,
            "ife": 1301,
            "ffi": 1302,
            "albre": 1303,
            "nim": 1304,
            "uven": 1305,
            "erbel": 1306,
            "chthil": 1307,
            "miljen": 1308,
            "mechthil": 1309,
            "weig": 1310,
            "annic": 1311,
            "gus": 1312,
            "ain": 1313,
            "gerain": 1314,
            "iger": 1315,
            "ediger": 1316,
            "eo": 1317,
            "mhai": 1318,
            "xten": 1319,
            "ttie": 1320,
            "brun": 1321,
            "ikka": 1322,
            "saff": 1323,
            "ej": 1324,
            "bett": 1325,
            "kko": 1326,
            "odi": 1327,
            "vron": 1328,
            "wic": 1329,
            "hara": 1330,
            "anghara": 1331,
            "jus": 1332,
            "uan": 1333,
            "take": 1334,
            "owa": 1335,
            "tarina": 1336,
            "cic": 1337,
            "dis": 1338,
            "hjor": 1339,
            "ijo": 1340,
            "kki": 1341,
            "fyd": 1342,
            "lle": 1343,
            "dafyd": 1344,
            "uley": 1345,
            "did": 1346,
            "iri": 1347,
            "gla": 1348,
            "wri": 1349,
            "sove": 1350
        },
        "merges": [
            "a n",
            "a r",
            "i n",
            "e r",
            "e l",
            "e n",
            "r i",
            "m ar",
            "s t",
            "c h",
            "j o",
            "m a",
            "an n",
            "o n",
            "i e",
            "l e",
            "an d",
            "i a",
            "t h",
            "m i",
            "r e",
            "r a",
            "a s",
            "e t",
            "i l",
            "a m",
            "i s",
            "k e",
            "a l",
            "l a",
            "i c",
            "k a",
            "in a",
            "d a",
            "r o",
            "u s",
            "e s",
            "i m",
            "j a",
            "i an",
            "u l",
            "o r",
            "in e",
            "st e",
            "p a",
            "o l",
            "jo h",
            "p et",
            "d an",
            "en n",
            "t t",
            "p h",
            "j an",
            "i el",
            "c ar",
            "a b",
            "b er",
            "l o",
            "t o",
            "s e",
            "a el",
            "n a",
            "k ar",
            "i k",
            "ar a",
            "i d",
            "a le",
            "l in",
            "g er",
            "n ic",
            "c k",
            "da v",
            "ma s",
            "i r",
            "e m",
            "e d",
            "n e",
            "r y",
            "l y",
            "ch ar",
            "u d",
            "t e",
            "r an",
            "th o",
            "t ri",
            "c a",
            "en a",
            "g e",
            "ia s",
            "m on",
            "and ra",
            "b e",
            "l u",
            "jo r",
            "h ar",
            "j am",
            "w il",
            "f re",
            "r en",
            "a d",
            "h el",
            "is a",
            "ic a",
            "h en",
            "h an",
            "m o",
            "j ul",
            "v in",
            "b en",
            "ro b",
            "ri k",
            "s a",
            "t on",
            "c e",
            "j e",
            "ma t",
            "an g",
            "h am",
            "c o",
            "i ka",
            "e v",
            "t a",
            "h a",
            "to m",
            "el a",
            "m an",
            "g u",
            "h e",
            "j es",
            "t er",
            "s o",
            "s us",
            "s im",
            "ka t",
            "d e",
            "la u",
            "s am",
            "g i",
            "q u",
            "p er",
            "u r",
            "a st",
            "v en",
            "ar t",
            "c la",
            "i v",
            "l ar",
            "el l",
            "jo n",
            "le y",
            "g n",
            "is e",
            "d o",
            "ma d",
            "et te",
            "tt e",
            "in g",
            "b ri",
            "k im",
            "r on",
            "i g",
            "t im",
            "st in",
            "a h",
            "g ar",
            "m el",
            "k er",
            "i j",
            "mi l",
            "ev a",
            "d y",
            "m y",
            "mo ham",
            "s ab",
            "al i",
            "d enn",
            "r u",
            "b ast",
            "l as",
            "tt a",
            "an ie",
            "i p",
            "n y",
            "th e",
            "ri d",
            "e th",
            "b o",
            "t or",
            "st a",
            "ma x",
            "lo u",
            "l ie",
            "k ri",
            "f er",
            "on ne",
            "b ar",
            "is ab",
            "to b",
            "el i",
            "y v",
            "v e",
            "gu n",
            "m u",
            "g en",
            "se bast",
            "j as",
            "th er",
            "qu e",
            "s u",
            "na t",
            "ge or",
            "jo s",
            "m in",
            "mi r",
            "o s",
            "l ia",
            "so f",
            "c or",
            "ol iv",
            "c y",
            "m ed",
            "f a",
            "y l",
            "th ias",
            "ri a",
            "j en",
            "j er",
            "h er",
            "m e",
            "j u",
            "v ic",
            "b ir",
            "o en",
            "ud ia",
            "ri s",
            "ma gn",
            "n ik",
            "ij n",
            "i ke",
            "bir gi",
            "so ph",
            "na d",
            "f ri",
            "l f",
            "be c",
            "i que",
            "g a",
            "g ab",
            "o la",
            "n o",
            "al d",
            "i ta",
            "r in",
            "k i",
            "s as",
            "jo e",
            "ar ina",
            "v er",
            "d ie",
            "i th",
            "jo a",
            "b ra",
            "d ir",
            "c al",
            "j ur",
            "p ie",
            "f lo",
            "ul ri",
            "v ia",
            "re bec",
            "o u",
            "il la",
            "d en",
            "j im",
            "k la",
            "el e",
            "an th",
            "ar d",
            "ra ch",
            "s il",
            "i re",
            "b b",
            "ber n",
            "ja c",
            "k an",
            "ch a",
            "g or",
            "l i",
            "h u",
            "w in",
            "c on",
            "il l",
            "w en",
            "m et",
            "a gn",
            "mar gar",
            "jac qu",
            "h as",
            "ol f",
            "en e",
            "w e",
            "s on",
            "an t",
            "le e",
            "ann es",
            "u we",
            "i o",
            "ri e",
            "en t",
            "el isab",
            "n or",
            "b as",
            "h ol",
            "on a",
            "ly n",
            "a y",
            "k ir",
            "k as",
            "s yl",
            "s har",
            "b ian",
            "do min",
            "c as",
            "t ra",
            "ic e",
            "am y",
            "as a",
            "be a",
            "l enn",
            "ri t",
            "har d",
            "g an",
            "ro s",
            "l an",
            "f ab",
            "e mi",
            "k o",
            "to ria",
            "ca mil",
            "w im",
            "the w",
            "l is",
            "c ol",
            "ma u",
            "d ar",
            "le s",
            "u n",
            "jo l",
            "d i",
            "g ra",
            "g ang",
            "v ik",
            "v an",
            "o f",
            "u la",
            "m ie",
            "n el",
            "g re",
            "d on",
            "jo o",
            "sta fa",
            "ro y",
            "e st",
            "c il",
            "co b",
            "m en",
            "m er",
            "z a",
            "i en",
            "as h",
            "jam in",
            "th ij",
            "s h",
            "k y",
            "de bb",
            "e k",
            "j ud",
            "su e",
            "ce y",
            "le o",
            "c ra",
            "p as",
            "ja y",
            "fa t",
            "st u",
            "ul f",
            "on y",
            "nat as",
            "m ia",
            "r ud",
            "g o",
            "ma l",
            "ch im",
            "n ie",
            "e w",
            "su z",
            "ra y",
            "i da",
            "ma art",
            "p ia",
            "l or",
            "is ka",
            "s co",
            "ka y",
            "ch lo",
            "he id",
            "et t",
            "sam anth",
            "me h",
            "je f",
            "in er",
            "k ia",
            "vin c",
            "z o",
            "ch ant",
            "b il",
            "gu sta",
            "ja a",
            "er t",
            "n an",
            "jo y",
            "ver on",
            "z e",
            "bo b",
            "er n",
            "a x",
            "ka i",
            "w al",
            "w ou",
            "i f",
            "y n",
            "lin ne",
            "f il",
            "mu t",
            "ic k",
            "h im",
            "i bra",
            "kar d",
            "n il",
            "u k",
            "u el",
            "i er",
            "fre y",
            "s an",
            "i t",
            "s ha",
            "le ig",
            "w is",
            "ik o",
            "fri ed",
            "ma g",
            "w es",
            "re m",
            "p e",
            "v a",
            "r ena",
            "ri c",
            "s ie",
            "ur t",
            "s al",
            "ther ine",
            "li z",
            "ab d",
            "zo e",
            "et a",
            "o mi",
            "kir st",
            "ri ce",
            "ew a",
            "da w",
            "l il",
            "be ck",
            "mi t",
            "mad ele",
            "h enn",
            "v ol",
            "jo er",
            "s z",
            "z y",
            "el s",
            "w ern",
            "f i",
            "a ar",
            "s el",
            "ha y",
            "lu m",
            "t in",
            "b et",
            "l en",
            "ia an",
            "h us",
            "m or",
            "ki er",
            "da mi",
            "ra h",
            "u te",
            "jos hu",
            "il a",
            "v i",
            "h il",
            "ja ko",
            "y a",
            "ou k",
            "ri am",
            "io t",
            "k h",
            "ic ia",
            "v al",
            "ra s",
            "ter es",
            "z ab",
            "eli zab",
            "cor nel",
            "ang eli",
            "c an",
            "d er",
            "ol d",
            "h m",
            "hm d",
            "ri car",
            "id o",
            "t je",
            "k j",
            "n i",
            "p on",
            "s i",
            "t us",
            "jo ch",
            "se y",
            "c ke",
            "b ie",
            "l ud",
            "y as",
            "ra t",
            "e y",
            "d ia",
            "w ay",
            "ca t",
            "pa t",
            "m us",
            "f f",
            "ann on",
            "i z",
            "an s",
            "kim ber",
            "a ther",
            "el o",
            "w an",
            "r h",
            "a ike",
            "le in",
            "d et",
            "ma h",
            "det le",
            "ka j",
            "d rik",
            "ru n",
            "j s",
            "p am",
            "k al",
            "n ig",
            "h or",
            "an a",
            "s er",
            "t z",
            "ma il",
            "f em",
            "ud o",
            "k en",
            "e e",
            "t re",
            "l ph",
            "v or",
            "s ke",
            "mu ham",
            "enn o",
            "f el",
            "p ar",
            "b in",
            "s ig",
            "p iot",
            "y o",
            "u f",
            "da g",
            "w ie",
            "mil ian",
            "s joer",
            "r ze",
            "s he",
            "ie sz",
            "agn iesz",
            "w el",
            "lu c",
            "sta ff",
            "p im",
            "u ke",
            "lin d",
            "ha t",
            "a ke",
            "d es",
            "e bb",
            "v iv",
            "f le",
            "y s",
            "y us",
            "ur su",
            "mo a",
            "o v",
            "u g",
            "is y",
            "bea tri",
            "f al",
            "da ph",
            "al f",
            "d in",
            "g ud",
            "kh al",
            "hus ey",
            "me e",
            "ma j",
            "le a",
            "ar n",
            "cor in",
            "ar th",
            "b a",
            "v ig",
            "se in",
            "s or",
            "t an",
            "ire e",
            "g is",
            "g g",
            "pe gg",
            "l iv",
            "p us",
            "j n",
            "n ien",
            "enn e",
            "ol as",
            "uk je",
            "t mar",
            "t ru",
            "hel m",
            "th a",
            "mo ud",
            "b y",
            "ge of",
            "b an",
            "em y",
            "b or",
            "b ru",
            "er yl",
            "al a",
            "bb y",
            "r us",
            "s hel",
            "ha mi",
            "k r",
            "to f",
            "sz tof",
            "zy sztof",
            "se m",
            "c i",
            "mo rit",
            "ni ch",
            "ry n",
            "ev eli",
            "sie g",
            "ne y",
            "co urt",
            "s y",
            "u b",
            "ma z",
            "e ce",
            "lor en",
            "t s",
            "ou ise",
            "en d",
            "ad i",
            "m ine",
            "us e",
            "b el",
            "z el",
            "se a",
            "lis elo",
            "e en",
            "t il",
            "u t",
            "th ar",
            "er i",
            "s jaa",
            "e u",
            "b r",
            "f in",
            "gi ov",
            "be p",
            "and rze",
            "mi jn",
            "a p",
            "iv o",
            "el lin",
            "j ann",
            "d il",
            "n ia",
            "ch i",
            "d un",
            "k ic",
            "b enn",
            "k on",
            "ar zy",
            "kat arzy",
            "m ann",
            "c ri",
            "t ger",
            "fa y",
            "a im",
            "se f",
            "jo b",
            "t mut",
            "t yl",
            "jo nat",
            "p ris",
            "w ig",
            "n th",
            "cy nth",
            "i ge",
            "el yn",
            "el vi",
            "t y",
            "g on",
            "tt y",
            "re y",
            "mar gi",
            "a ad",
            "al ill",
            "eth a",
            "st er",
            "o z",
            "il le",
            "g ran",
            "v id",
            "er ie",
            "em e",
            "a z",
            "t ed",
            "sa y",
            "j ar",
            "w art",
            "ge a",
            "us z",
            "c liv",
            "g ul",
            "h ann",
            "s iv",
            "g in",
            "th y",
            "o ve",
            "h o",
            "er gen",
            "b re",
            "g ie",
            "s ol",
            "w ith",
            "ro gi",
            "ros with",
            "t en",
            "t i",
            "k el",
            "le x",
            "j el",
            "p pe",
            "be ver",
            "gi use",
            "k ie",
            "v io",
            "et lan",
            "us sef",
            "etlan a",
            "o tt",
            "enn a",
            "s se",
            "ke v",
            "ul i",
            "ab o",
            "ian e",
            "an or",
            "p p",
            "a il",
            "st ant",
            "stant in",
            "ol i",
            "b w",
            "m mi",
            "t ar",
            "ab i",
            "tra ud",
            "p ed",
            "s v",
            "y ou",
            "lo tt",
            "ta yl",
            "gre t",
            "y ne",
            "ze yne",
            "a i",
            "er d",
            "s in",
            "z ie",
            "se v",
            "h id",
            "b han",
            "r the",
            "s io",
            "ee f",
            "a da",
            "de e",
            "gor z",
            "o le",
            "b i",
            "ge j",
            "c lan",
            "elo re",
            "d ra",
            "c ael",
            "s jor",
            "ab ig",
            "no a",
            "t am",
            "u gu",
            "t u",
            "on s",
            "ve ig",
            "ik t",
            "ed ikt",
            "t ij",
            "j et",
            "y d",
            "har ve",
            "sie t",
            "t as",
            "le mor",
            "r ine",
            "f ra",
            "o fer",
            "y ol",
            "b ro",
            "u m",
            "l er",
            "o y",
            "rit s",
            "d re",
            "h i",
            "be v",
            "rh i",
            "gu y",
            "i on",
            "i ja",
            "ri l",
            "hol d",
            "in ette",
            "lyn d",
            "p ijn",
            "u ard",
            "ali sta",
            "z ah",
            "ar y",
            "im y",
            "d dy",
            "s van",
            "l l",
            "p u",
            "e be",
            "o ebe",
            "u ta",
            "t es",
            "do m",
            "gor za",
            "mal gorza",
            "a ud",
            "v ar",
            "c im",
            "ga y",
            "ev e",
            "i ra",
            "mi re",
            "an uel",
            "ra maz",
            "l lo",
            "z ia",
            "ra m",
            "de w",
            "c er",
            "w ar",
            "c ie",
            "d u",
            "wie t",
            "b ur",
            "c ia",
            "k hard",
            "th il",
            "m h",
            "ie k",
            "l onne",
            "v il",
            "f ras",
            "g h",
            "e a",
            "n ke",
            "w ia",
            "h ed",
            "v ie",
            "le tte",
            "in us",
            "viv e",
            "d ert",
            "de b",
            "h al",
            "w ren",
            "la wren",
            "c le",
            "i w",
            "men s",
            "s en",
            "d or",
            "i b",
            "al o",
            "za k",
            "ra j",
            "y na",
            "c is",
            "i us",
            "ra d",
            "bo y",
            "a c",
            "al lis",
            "k n",
            "an ast",
            "o pp",
            "p opp",
            "b ab",
            "mar il",
            "me g",
            "p ip",
            "b u",
            "ra k",
            "ell io",
            "j it",
            "mar ni",
            "h ul",
            "e g",
            "sa h",
            "ha i",
            "f ael",
            "b ke",
            "t ia",
            "ina b",
            "tt i",
            "ga z",
            "da t",
            "o ul",
            "e el",
            "ar ch",
            "har ris",
            "it y",
            "ch ey",
            "k il",
            "b ul",
            "re g",
            "c em",
            "ra gn",
            "d ula",
            "as e",
            "d el",
            "an o",
            "ja qu",
            "yo use",
            "n ur",
            "se b",
            "a ir",
            "al ast",
            "k or",
            "f ro",
            "f ia",
            "b la",
            "o k",
            "f ol",
            "f ad",
            "o ud",
            "t ie",
            "y il",
            "ch am",
            "a id",
            "n in",
            "gu en",
            "ou b",
            "c en",
            "gi z",
            "n ett",
            "ta y",
            "la y",
            "j sa",
            "j ip",
            "ud ew",
            "bo udew",
            "bil le",
            "d g",
            "bri dg",
            "s ad",
            "le m",
            "v la",
            "di mir",
            "o ke",
            "ber nad",
            "g lo",
            "k ka",
            "n ab",
            "p ir",
            "b yl",
            "si byl",
            "a ugu",
            "n is",
            "er ique",
            "in ar",
            "le k",
            "o gen",
            "p en",
            "s pen",
            "u na",
            "a g",
            "ne tha",
            "ev i",
            "o bel",
            "ky e",
            "i ley",
            "f an",
            "t if",
            "ley man",
            "h os",
            "st ell",
            "sa ke",
            "n ny",
            "f un",
            "ri tt",
            "ab ritt",
            "er ike",
            "k u",
            "da z",
            "e ke",
            "an k",
            "w a",
            "jo p",
            "ho i",
            "h sen",
            "l id",
            "em mel",
            "f ar",
            "h ad",
            "ma is",
            "ry l",
            "si w",
            "en ce",
            "s jo",
            "ka h",
            "m es",
            "ch t",
            "za c",
            "e b",
            "e iv",
            "n u",
            "w ijn",
            "re ce",
            "e ck",
            "g dan",
            "o sa",
            "u mu",
            "o tje",
            "ke ele",
            "gi os",
            "c co",
            "e da",
            "o we",
            "ro d",
            "b ry",
            "h es",
            "y em",
            "ch o",
            "ay a",
            "and e",
            "h r",
            "is al",
            "te za",
            "n as",
            "m mer",
            "f loren",
            "th old",
            "hil d",
            "b ay",
            "t ab",
            "o m",
            "al lar",
            "c li",
            "z or",
            "on ka",
            "i q",
            "y un",
            "z u",
            "el traud",
            "e f",
            "ud i",
            "e al",
            "g ve",
            "s ja",
            "s w",
            "a a",
            "b ig",
            "f ke",
            "i bo",
            "t jer",
            "u ff",
            "on or",
            "tt is",
            "y uk",
            "bb i",
            "ja ce",
            "gn y",
            "a v",
            "v it",
            "is in",
            "g es",
            "k ub",
            "t rud",
            "h ra",
            "ra im",
            "un d",
            "z i",
            "and ru",
            "ic ity",
            "d ik",
            "i le",
            "p le",
            "v as",
            "le ven",
            "ee p",
            "f ur",
            "u mo",
            "be x",
            "ron e",
            "ou t",
            "gu r",
            "a ga",
            "ann elo",
            "ger di",
            "ker t",
            "b j",
            "el fried",
            "mi el",
            "l am",
            "ma cie",
            "ev alo",
            "hu w",
            "mar lo",
            "mi tri",
            "g mor",
            "pa iv",
            "ca z",
            "i usz",
            "l ol",
            "l ijn",
            "p ek",
            "t un",
            "ca y",
            "pe o",
            "c ja",
            "k am",
            "tt an",
            "c uk",
            "j ko",
            "y ke",
            "ann ine",
            "hu b",
            "h ael",
            "s ir",
            "ra g",
            "g je",
            "t ula",
            "t ug",
            "per t",
            "k mar",
            "m ur",
            "u ben",
            "el tje",
            "p il",
            "z an",
            "in dert",
            "u z",
            "v uz",
            "ga v",
            "c ig",
            "d em",
            "o gu",
            "z han",
            "es je",
            "do t",
            "i tta",
            "r ell",
            "tri jn",
            "ya ku",
            "g ha",
            "st i",
            "je z",
            "he i",
            "f ok",
            "b jo",
            "d n",
            "e il",
            "g am",
            "u no",
            "th ir",
            "am us",
            "or tje",
            "pet ron",
            "id h",
            "y son",
            "z hr",
            "ger no",
            "li ene",
            "el d",
            "ma cht",
            "is ol",
            "lo dew",
            "ir dre",
            "ij k",
            "g os",
            "h j",
            "j nie",
            "v ad",
            "as da",
            "al mar",
            "al asda",
            "ena ke",
            "ba z",
            "a al",
            "han ad",
            "c el",
            "d ev",
            "w ol",
            "mi ent",
            "d d",
            "z er",
            "ar ine",
            "c et",
            "g em",
            "ke ir",
            "tri ch",
            "n er",
            "s ver",
            "v ard",
            "g ed",
            "d ill",
            "j ed",
            "ka z",
            "f yn",
            "u ise",
            "bo bb",
            "a o",
            "a is",
            "ar it",
            "el y",
            "ra b",
            "if e",
            "f fi",
            "al bre",
            "n im",
            "u ven",
            "er bel",
            "ch thil",
            "mil jen",
            "me chthil",
            "we ig",
            "ann ic",
            "g us",
            "a in",
            "ger ain",
            "i ger",
            "ed iger",
            "e o",
            "m hai",
            "x ten",
            "tt ie",
            "b run",
            "ik ka",
            "sa ff",
            "e j",
            "b ett",
            "k ko",
            "o di",
            "v ron",
            "w ic",
            "h ara",
            "ang hara",
            "j us",
            "u an",
            "ta ke",
            "o wa",
            "t arina",
            "c ic",
            "d is",
            "h jor",
            "i jo",
            "k ki",
            "f yd",
            "l le",
            "da fyd",
            "u ley",
            "d id",
            "i ri",
            "g la",
            "w ri",
            "so ve"
        ]
    }
}