{
  "version": "1.0",
  "truncation": null,
  "padding": null,
  "added_tokens": [
    {
      "id": 0,
      "content": "[UNK]",
      "single_word": false,
      "lstrip": false,
      "rstrip": false,
      "normalized": false,
      "special": true
    },
    {
      "id": 1,
      "content": "[CLS]",
      "single_word": false,
      "lstrip": false,
      "rstrip": false,
      "normalized": false,
      "special": true
    },
    {
      "id": 2,
      "content": "[SEP]",
      "single_word": false,
      "lstrip": false,
      "rstrip": false,
      "normalized": false,
      "special": true
    },
    {
      "id": 3,
      "content": "[PAD]",
      "single_word": false,
      "lstrip": false,
      "rstrip": false,
      "normalized": false,
      "special": true
    },
    {
      "id": 4,
      "content": "[MASK]",
      "single_word": false,
      "lstrip": false,
      "rstrip": false,
      "normalized": false,
      "special": true
    }
  ],
  "normalizer": null,
  "pre_tokenizer": {
    "type": "Whitespace"
  },
  "post_processor": null,
  "decoder": null,
  "model": {
    "type": "BPE",
    "dropout": null,
    "unk_token": "[UNK]",
    "continuing_subword_prefix": null,
    "end_of_word_suffix": null,
    "fuse_unk": false,
    "vocab": {
      "[UNK]": 0,
      "[CLS]": 1,
      "[SEP]": 2,
      "[PAD]": 3,
      "[MASK]": 4,
      "a": 5,
      "b": 6,
      "c": 7,
      "d": 8,
      "e": 9,
      "f": 10,
      "g": 11,
      "h": 12,
      "i": 13,
      "j": 14,
      "k": 15,
      "l": 16,
      "m": 17,
      "n": 18,
      "o": 19,
      "p": 20,
      "q": 21,
      "r": 22,
      "s": 23,
      "t": 24,
      "u": 25,
      "v": 26,
      "w": 27,
      "x": 28,
      "y": 29,
      "z": 30,
      "an": 31,
      "le": 32,
      "th": 33,
      "si": 34,
      "on": 35,
      "and": 36,
      "el": 37,
      "is": 38,
      "ph": 39,
      "ab": 40,
      "in": 41,
      "ile": 42,
      "en": 43,
      "ma": 44,
      "ts": 45,
      "no": 46,
      "we": 47,
      "ani": 48,
      "lo": 49,
      "am": 50,
      "mb": 51,
      "la": 52,
      "ic": 53,
      "ka": 54,
      "ele": 55,
      "lu": 56,
      "thab": 57,
      "to": 58,
      "ko": 59,
      "um": 60,
      "ong": 61,
      "elo": 62,
      "hle": 63,
      "bo": 64,
      "wa": 65,
      "ha": 66,
      "es": 67,
      "ia": 68,
      "iso": 69,
      "pho": 70,
      "anda": 71,
      "re": 72,
      "iwe": 73,
      "go": 74,
      "ind": 75,
      "te": 76,
      "the": 77,
      "ra": 78,
      "bu": 79,
      "bong": 80,
      "jo": 81,
      "li": 82,
      "tsh": 83,
      "ang": 84,
      "zi": 85,
      "kh": 86,
      "us": 87,
      "themb": 88,
      "ng": 89,
      "thand": 90,
      "ol": 91,
      "thu": 92,
      "mo": 93,
      "di": 94,
      "lind": 95,
      "pa": 96,
      "ne": 97,
      "andile": 98,
      "tso": 99,
      "mar": 100,
      "nom": 101,
      "na": 102,
      "tho": 103,
      "ce": 104,
      "se": 105,
      "er": 106,
      "joh": 107,
      "zo": 108,
      "tha": 109,
      "sa": 110,
      "il": 111,
      "anele": 112,
      "vu": 113,
      "ke": 114,
      "ku": 115,
      "ie": 116,
      "har": 117,
      "tshe": 118,
      "busi": 119,
      "tum": 120,
      "du": 121,
      "lebo": 122,
      "or": 123,
      "non": 124,
      "hla": 125,
      "isi": 126,
      "mon": 127,
      "nto": 128,
      "isa": 129,
      "mpho": 130,
      "da": 131,
      "ca": 132,
      "tshep": 133,
      "sipho": 134,
      "ch": 135,
      "iswa": 136,
      "yanda": 137,
      "sam": 138,
      "thabo": 139,
      "olo": 140,
      "lung": 141,
      "lan": 142,
      "abu": 143,
      "ric": 144,
      "un": 145,
      "ja": 146,
      "vuy": 147,
      "lani": 148,
      "ine": 149,
      "eka": 150,
      "phiwe": 151,
      "jabu": 152,
      "za": 153,
      "tebo": 154,
      "pat": 155,
      "ris": 156,
      "amo": 157,
      "johan": 158,
      "thando": 159,
      "id": 160,
      "hlan": 161,
      "hlanhla": 162,
      "lera": 163,
      "lerato": 164,
      "mic": 165,
      "thi": 166,
      "pe": 167,
      "siy": 168,
      "ter": 169,
      "abong": 170,
      "ren": 171,
      "busis": 172,
      "ky": 173,
      "kosi": 174,
      "ule": 175,
      "ob": 176,
      "eng": 177,
      "themba": 178,
      "char": 179,
      "chris": 180,
      "busiso": 181,
      "as": 182,
      "ntomb": 183,
      "itum": 184,
      "pr": 185,
      "ge": 186,
      "bon": 187,
      "jac": 188,
      "tle": 189,
      "al": 190,
      "ly": 191,
      "nes": 192,
      "phum": 193,
      "xol": 194,
      "pum": 195,
      "kele": 196,
      "tebogo": 197,
      "gu": 198,
      "pre": 199,
      "patric": 200,
      "tshepo": 201,
      "nel": 202,
      "luc": 203,
      "vin": 204,
      "abonga": 205,
      "mand": 206,
      "zanele": 207,
      "john": 208,
      "ent": 209,
      "thob": 210,
      "noku": 211,
      "sihle": 212,
      "bongani": 213,
      "nthab": 214,
      "lebog": 215,
      "vid": 216,
      "david": 217,
      "thabang": 218,
      "nathi": 219,
      "eli": 220,
      "tin": 221,
      "qu": 222,
      "ho": 223,
      "ri": 224,
      "any": 225,
      "ayanda": 226,
      "ela": 227,
      "thoko": 228,
      "thabiso": 229,
      "abelo": 230,
      "andre": 231,
      "ise": 232,
      "ran": 233,
      "sph": 234,
      "les": 235,
      "elle": 236,
      "ort": 237,
      "ntombi": 238,
      "pelo": 239,
      "dani": 240,
      "zile": 241,
      "jan": 242,
      "abo": 243,
      "tse": 244,
      "illi": 245,
      "katle": 246,
      "ert": 247,
      "dudu": 248,
      "nic": 249,
      "dum": 250,
      "hael": 251,
      "michael": 252,
      "ul": 253,
      "ona": 254,
      "uel": 255,
      "amanda": 256,
      "lucky": 257,
      "dwa": 258,
      "bongile": 259,
      "isiwe": 260,
      "khany": 261,
      "son": 262,
      "vuyo": 263,
      "thapelo": 264,
      "nkosi": 265,
      "do": 266,
      "mba": 267,
      "cent": 268,
      "fran": 269,
      "sandile": 270,
      "fiso": 271,
      "xo": 272,
      "be": 273,
      "siwe": 274,
      "peter": 275,
      "lebogang": 276,
      "de": 277,
      "fa": 278,
      "siyabonga": 279,
      "man": 280,
      "usa": 281,
      "iseng": 282,
      "nthabiseng": 283,
      "gi": 284,
      "lese": 285,
      "thato": 286,
      "kgo": 287,
      "ci": 288,
      "ous": 289,
      "preci": 290,
      "precious": 291,
      "ty": 292,
      "lindiwe": 293,
      "prin": 294,
      "rabo": 295,
      "zin": 296,
      "ley": 297,
      "karabo": 298,
      "thandeka": 299,
      "kile": 300,
      "katlego": 301,
      "zandile": 302,
      "ba": 303,
      "nhlanhla": 304,
      "sim": 305,
      "maria": 306,
      "sh": 307,
      "linda": 308,
      "port": 309,
      "portia": 310,
      "buhle": 311,
      "dy": 312,
      "fun": 313,
      "sibusiso": 314,
      "siph": 315,
      "pie": 316,
      "xolani": 317,
      "kuhle": 318,
      "hard": 319,
      "fi": 320,
      "ven": 321,
      "nico": 322,
      "ana": 323,
      "simphiwe": 324,
      "kamo": 325,
      "pule": 326,
      "nonhlanhla": 327,
      "willi": 328,
      "ice": 329,
      "daniel": 330,
      "kazi": 331,
      "lwa": 332,
      "eliz": 333,
      "eleng": 334,
      "lisi": 335,
      "mbali": 336,
      "sand": 337,
      "lindo": 338,
      "lesa": 339,
      "palesa": 340,
      "kozo": 341,
      "jabulo": 342,
      "patrick": 343,
      "ilwe": 344,
      "jose": 345,
      "joseph": 346,
      "sanele": 347,
      "thulani": 348,
      "abe": 349,
      "lule": 350,
      "sy": 351,
      "fundo": 352,
      "anna": 353,
      "zama": 354,
      "mpum": 355,
      "jam": 356,
      "james": 357,
      "tshi": 358,
      "motso": 359,
      "ry": 360,
      "thula": 361,
      "ale": 362,
      "ria": 363,
      "ro": 364,
      "ello": 365,
      "helle": 366,
      "michelle": 367,
      "boitum": 368,
      "boitumelo": 369,
      "rol": 370,
      "carol": 371,
      "mandla": 372,
      "gelo": 373,
      "vusi": 374,
      "paul": 375,
      "tumelo": 376,
      "khona": 377,
      "lon": 378,
      "ste": 379,
      "isile": 380,
      "ga": 381,
      "sbusiso": 382,
      "em": 383,
      "lou": 384,
      "kho": 385,
      "kulule": 386,
      "kululeko": 387,
      "pp": 388,
      "ica": 389,
      "elelo": 390,
      "lesego": 391,
      "zinhle": 392,
      "hen": 393,
      "kw": 394,
      "neo": 395,
      "fre": 396,
      "tsi": 397,
      "busisiwe": 398,
      "zu": 399,
      "sin": 400,
      "cy": 401,
      "ki": 402,
      "he": 403,
      "mond": 404,
      "nokuthula": 405,
      "que": 406,
      "phind": 407,
      "phindile": 408,
      "dine": 409,
      "dineo": 410,
      "dumiso": 411,
      "sibongile": 412,
      "simon": 413,
      "zipho": 414,
      "om": 415,
      "orge": 416,
      "george": 417,
      "thanda": 418,
      "ses": 419,
      "bri": 420,
      "ntokozo": 421,
      "itumeleng": 422,
      "nomsa": 423,
      "christo": 424,
      "patricia": 425,
      "thembi": 426,
      "fu": 427,
      "elele": 428,
      "ess": 429,
      "ence": 430,
      "richard": 431,
      "njabulo": 432,
      "mas": 433,
      "rah": 434,
      "pu": 435,
      "kabelo": 436,
      "wandile": 437,
      "leboh": 438,
      "sthemb": 439,
      "shar": 440,
      "gugu": 441,
      "sharon": 442,
      "ft": 443,
      "gift": 444,
      "qob": 445,
      "jus": 446,
      "sabelo": 447,
      "samuel": 448,
      "thandi": 449,
      "kag": 450,
      "luthando": 451,
      "uso": 452,
      "zodwa": 453,
      "charles": 454,
      "nkosinathi": 455,
      "musa": 456,
      "nosipho": 457,
      "nomb": 458,
      "andrew": 459,
      "zwe": 460,
      "sizwe": 461,
      "xolisi": 462,
      "ike": 463,
      "mike": 464,
      "sha": 465,
      "johannes": 466,
      "william": 467,
      "happ": 468,
      "pieter": 469,
      "yol": 470,
      "prince": 471,
      "thabile": 472,
      "br": 473,
      "lindokuhle": 474,
      "moses": 475,
      "bongiwe": 476,
      "brian": 477,
      "wethu": 478,
      "hleng": 479,
      "olwethu": 480,
      "phil": 481,
      "sfiso": 482,
      "asanda": 483,
      "onolo": 484,
      "nt": 485,
      "thomas": 486,
      "martin": 487,
      "kgomotso": 488,
      "kani": 489,
      "tshepiso": 490,
      "nelly": 491,
      "elizabe": 492,
      "elizabeth": 493,
      "au": 494,
      "lungile": 495,
      "rence": 496,
      "vic": 497,
      "tor": 498,
      "victor": 499,
      "tshego": 500,
      "filwe": 501,
      "jaco": 502,
      "sello": 503,
      "esihle": 504,
      "sarah": 505,
      "kagiso": 506,
      "ane": 507,
      "lebohang": 508,
      "ac": 509,
      "isaac": 510,
      "andla": 511,
      "amandla": 512,
      "zani": 513,
      "inno": 514,
      "innocent": 515,
      "inkosi": 516,
      "andiswa": 517,
      "xolo": 518,
      "pati": 519,
      "tan": 520,
      "nicole": 521,
      "nie": 522,
      "bab": 523,
      "wen": 524,
      "wendy": 525,
      "kga": 526,
      "maka": 527,
      "dimaka": 528,
      "dimakatso": 529,
      "teboho": 530,
      "khu": 531,
      "nonto": 532,
      "felo": 533,
      "olofelo": 534,
      "isani": 535,
      "vincent": 536,
      "lem": 537,
      "phumzile": 538,
      "koke": 539,
      "koketso": 540,
      "nompum": 541,
      "nompumelelo": 542,
      "sus": 543,
      "ve": 544,
      "susan": 545,
      "mz": 546,
      "tas": 547,
      "natas": 548,
      "natasha": 549,
      "samk": 550,
      "nqob": 551,
      "pet": 552,
      "tty": 553,
      "pretty": 554,
      "sbon": 555,
      "ken": 556,
      "ando": 557,
      "tham": 558,
      "fikile": 559,
      "hlengiwe": 560,
      "mel": 561,
      "len": 562,
      "mxolisi": 563,
      "cind": 564,
      "cindy": 565,
      "alex": 566,
      "thobile": 567,
      "rob": 568,
      "robert": 569,
      "kamogelo": 570,
      "sphiwe": 571,
      "hlo": 572,
      "manuel": 573,
      "emmanuel": 574,
      "lindile": 575,
      "ud": 576,
      "refilwe": 577,
      "lunga": 578,
      "shaun": 579,
      "sandra": 580,
      "mark": 581,
      "pin": 582,
      "ze": 583,
      "sifiso": 584,
      "mdudu": 585,
      "mduduzi": 586,
      "lwazi": 587,
      "rose": 588,
      "eric": 589,
      "lee": 590,
      "noxolo": 591,
      "nth": 592,
      "cynth": 593,
      "cynthia": 594,
      "antha": 595,
      "samantha": 596,
      "bonga": 597,
      "ulelo": 598,
      "nomfundo": 599,
      "fana": 600,
      "yce": 601,
      "joyce": 602,
      "riaan": 603,
      "beko": 604,
      "bren": 605,
      "brenda": 606,
      "jacqu": 607,
      "jacques": 608,
      "ta": 609,
      "co": 610,
      "pi": 611,
      "enhle": 612,
      "stan": 613,
      "maine": 614,
      "charmaine": 615,
      "bhe": 616,
      "bheki": 617,
      "nozipho": 618,
      "elisiwe": 619,
      "von": 620,
      "yvon": 621,
      "yvonne": 622,
      "ti": 623,
      "bus": 624,
      "jason": 625,
      "mahla": 626,
      "nkululeko": 627,
      "mthoko": 628,
      "nqobile": 629,
      "thokozani": 630,
      "bule": 631,
      "ben": 632,
      "luyanda": 633,
      "tumi": 634,
      "gra": 635,
      "grace": 636,
      "mary": 637,
      "pher": 638,
      "rai": 639,
      "christopher": 640,
      "steven": 641,
      "kevin": 642,
      "akhona": 643,
      "martha": 644,
      "eni": 645,
      "ton": 646,
      "tshid": 647,
      "tshidiso": 648,
      "nobuhle": 649,
      "happy": 650,
      "dfre": 651,
      "godfre": 652,
      "godfrey": 653,
      "me": 654,
      "lond": 655,
      "andi": 656,
      "col": 657,
      "yi": 658,
      "mu": 659,
      "monica": 660,
      "jabulani": 661,
      "liz": 662,
      "sthembiso": 663,
      "wab": 664,
      "leon": 665,
      "lile": 666,
      "nethemba": 667,
      "sbongile": 668,
      "bi": 669,
      "anca": 670,
      "bianca": 671,
      "luca": 672,
      "lucas": 673,
      "sphamandla": 674,
      "viwe": 675,
      "caroline": 676,
      "mandisa": 677,
      "yolanda": 678,
      "queen": 679,
      "thandazo": 680,
      "lehlo": 681,
      "cess": 682,
      "princess": 683,
      "sanda": 684,
      "fatso": 685,
      "tshegofatso": 686,
      "dumisani": 687,
      "jul": 688,
      "julia": 689,
      "ekile": 690,
      "sindi": 691,
      "inda": 692,
      "lene": 693,
      "lane": 694,
      "sen": 695,
      "senzo": 696,
      "thuli": 697,
      "mang": 698,
      "smang": 699,
      "jane": 700,
      "frans": 701,
      "gile": 702,
      "bogile": 703,
      "kelebogile": 704,
      "tshidi": 705,
      "angel": 706,
      "jona": 707,
      "than": 708,
      "jonathan": 709,
      "elani": 710,
      "mlung": 711,
      "mlungisi": 712,
      "hley": 713,
      "ashley": 714,
      "noma": 715,
      "san": 716,
      "slindile": 717,
      "puleng": 718,
      "ant": 719,
      "chant": 720,
      "pinky": 721,
      "hu": 722,
      "franco": 723,
      "francois": 724,
      "siya": 725,
      "khosi": 726,
      "joe": 727,
      "siphiwe": 728,
      "pilo": 729,
      "given": 730,
      "diswa": 731,
      "prom": 732,
      "louis": 733,
      "patience": 734,
      "promise": 735,
      "nts": 736,
      "zamo": 737,
      "phi": 738,
      "thandiwe": 739,
      "pris": 740,
      "zuko": 741,
      "rra": 742,
      "lorra": 743,
      "lorraine": 744,
      "ior": 745,
      "jun": 746,
      "junior": 747,
      "deon": 748,
      "nomvu": 749,
      "nomvula": 750,
      "sbu": 751,
      "tsholofelo": 752,
      "dikele": 753,
      "dikeledi": 754,
      "nokw": 755,
      "phumlani": 756,
      "nokwanda": 757,
      "nondumiso": 758,
      "jes": 759,
      "sica": 760,
      "jessica": 761,
      "philani": 762,
      "mahlatse": 763,
      "edwa": 764,
      "rd": 765,
      "tshepang": 766,
      "edward": 767,
      "noluthando": 768,
      "kha": 769,
      "khay": 770,
      "pon": 771,
      "zola": 772,
      "ndumiso": 773,
      "ymond": 774,
      "raymond": 775,
      "khile": 776,
      "sakhile": 777,
      "ou": 778,
      "bles": 779,
      "sing": 780,
      "thobeka": 781,
      "blessing": 782,
      "yne": 783,
      "wayne": 784,
      "lihle": 785,
      "justin": 786,
      "neth": 787,
      "kenneth": 788,
      "ith": 789,
      "lucia": 790,
      "faith": 791,
      "lv": 792,
      "sylv": 793,
      "sylvia": 794,
      "philli": 795,
      "phillip": 796,
      "lw": 797,
      "wrence": 798,
      "lawrence": 799,
      "mbu": 800,
      "khumbu": 801,
      "van": 802,
      "essa": 803,
      "vanessa": 804,
      "hi": 805,
      "futhi": 806,
      "lethabo": 807,
      "mahle": 808,
      "ernes": 809,
      "ernest": 810,
      "celo": 811,
      "andri": 812,
      "andries": 813,
      "ver": 814,
      "onica": 815,
      "veronica": 816,
      "unathi": 817,
      "inton": 818,
      "siyanda": 819,
      "karen": 820,
      "dia": 821,
      "lydia": 822,
      "phen": 823,
      "stephen": 824,
      "ney": 825,
      "eke": 826,
      "pam": 827,
      "pamela": 828,
      "anth": 829,
      "ony": 830,
      "yiko": 831,
      "anthony": 832,
      "aphiwe": 833,
      "samkelo": 834,
      "glo": 835,
      "bongi": 836,
      "elihle": 837,
      "gloria": 838,
      "dibon": 839,
      "kedibon": 840,
      "kedibone": 841,
      "esthe": 842,
      "nomthandazo": 843,
      "alwa": 844,
      "babalwa": 845,
      "esther": 846,
      "wil": 847,
      "willem": 848,
      "pha": 849,
      "fort": 850,
      "sie": 851,
      "frank": 852,
      "fortu": 853,
      "eu": 854,
      "gen": 855,
      "issa": 856,
      "melissa": 857,
      "eugen": 858,
      "eugene": 859,
      "siphokazi": 860,
      "nombulelo": 861,
      "nelisiwe": 862,
      "rach": 863,
      "rachel": 864,
      "jacob": 865,
      "ique": 866,
      "monique": 867,
      "win": 868,
      "winnie": 869,
      "gonolo": 870,
      "lisa": 871,
      "lefa": 872,
      "johanna": 873,
      "wel": 874,
      "andon": 875,
      "sphesihle": 876,
      "brandon": 877,
      "nonkululeko": 878,
      "alfre": 879,
      "alfred": 880,
      "zisi": 881,
      "mthokozisi": 882,
      "bert": 883,
      "let": 884,
      "jack": 885,
      "albert": 886,
      "nombuso": 887,
      "khe": 888,
      "nelson": 889,
      "nontobeko": 890,
      "ius": 891,
      "marius": 892,
      "lungelo": 893,
      "nhla": 894,
      "piet": 895,
      "thami": 896,
      "bza": 897,
      "ez": 898,
      "tre": 899,
      "vor": 900,
      "trevor": 901,
      "tice": 902,
      "justice": 903,
      "cca": 904,
      "rebe": 905,
      "rebecca": 906,
      "lvin": 907,
      "bonginkosi": 908,
      "calvin": 909,
      "mpume": 910,
      "jabulile": 911,
      "rik": 912,
      "henry": 913,
      "rethabile": 914,
      "prud": 915,
      "ryan": 916,
      "prudence": 917,
      "don": 918,
      "cebo": 919,
      "ald": 920,
      "donald": 921,
      "fen": 922,
      "ofen": 923,
      "ofentse": 924,
      "elwa": 925,
      "thabani": 926,
      "beau": 927,
      "beauty": 928,
      "loe": 929,
      "refi": 930,
      "refiloe": 931,
      "ir": 932,
      "shir": 933,
      "shirley": 934,
      "londiwe": 935,
      "nomusa": 936,
      "ledi": 937,
      "naledi": 938,
      "zy": 939,
      "lizzy": 940,
      "sol": 941,
      "solly": 942,
      "eun": 943,
      "eunice": 944,
      "etse": 945,
      "shane": 946,
      "elia": 947,
      "elias": 948,
      "las": 949,
      "mandy": 950,
      "holas": 951,
      "nicholas": 952,
      "bel": 953,
      "crai": 954,
      "belinda": 955,
      "craig": 956,
      "ntando": 957,
      "bre": 958,
      "aubre": 959,
      "aubrey": 960,
      "sani": 961,
      "elize": 962,
      "zuk": 963,
      "mor": 964,
      "ar": 965,
      "pear": 966,
      "kwanele": 967,
      "pearl": 968,
      "cil": 969,
      "priscil": 970,
      "priscilla": 971,
      "kyle": 972,
      "nothando": 973,
      "nce": 974,
      "nolu": 975,
      "cand": 976,
      "candice": 977,
      "thembeka": 978,
      "lesedi": 979,
      "solo": 980,
      "louise": 981,
      "solomon": 982,
      "ag": 983,
      "khanyisile": 984,
      "agnes": 985,
      "abongile": 986,
      "xoliswa": 987,
      "gla": 988,
      "honolo": 989,
      "marie": 990,
      "janine": 991,
      "dys": 992,
      "sbonelo": 993,
      "lehlohonolo": 994,
      "gladys": 995,
      "collen": 996,
      "xolile": 997,
      "vhu": 998,
      "mokga": 999,
      "sonto": 1000,
      "vhuw": 1001,
      "mokgadi": 1002,
      "eilwe": 1003,
      "yon": 1004,
      "yonela": 1005,
      "ena": 1006,
      "theo": 1007,
      "sina": 1008,
      "tie": 1009,
      "bafana": 1010,
      "siphe": 1011,
      "muzi": 1012,
      "bonolo": 1013,
      "smangele": 1014,
      "mathapelo": 1015,
      "khanya": 1016,
      "syabonga": 1017,
      "charlene": 1018,
      "ure": 1019,
      "maure": 1020,
      "maureen": 1021,
      "vuyokazi": 1022,
      "matshidiso": 1023,
      "ntombifuthi": 1024,
      "willie": 1025,
      "annah": 1026,
      "stanley": 1027,
      "mfundo": 1028,
      "bulelwa": 1029,
      "dipu": 1030,
      "dipuo": 1031,
      "sindiswa": 1032,
      "po": 1033,
      "mzwandile": 1034,
      "per": 1035,
      "aba": 1036,
      "percy": 1037,
      "thatso": 1038,
      "kgothatso": 1039,
      "amos": 1040,
      "kobus": 1041,
      "anga": 1042,
      "vis": 1043,
      "mavis": 1044,
      "thembinkosi": 1045,
      "danie": 1046,
      "bb": 1047,
      "tia": 1048,
      "unia": 1049,
      "lebogeng": 1050,
      "debb": 1051,
      "tiaan": 1052,
      "debbie": 1053,
      "sphelele": 1054,
      "zintle": 1055,
      "udu": 1056,
      "mash": 1057,
      "mashudu": 1058,
      "fhi": 1059,
      "fhiwa": 1060,
      "siphesihle": 1061,
      "skhumbu": 1062,
      "skhumbuzo": 1063,
      "pus": 1064,
      "eletso": 1065,
      "puseletso": 1066,
      "thembelihle": 1067,
      "sinethemba": 1068,
      "phile": 1069,
      "bra": 1070,
      "dley": 1071,
      "bradley": 1072,
      "khele": 1073,
      "zakhele": 1074,
      "phumla": 1075,
      "sthembile": 1076,
      "ger": 1077,
      "gerhard": 1078,
      "leka": 1079,
      "ano": 1080,
      "iseni": 1081,
      "bongiseni": 1082,
      "philile": 1083,
      "then": 1084,
      "vuyile": 1085,
      "nokulunga": 1086,
      "duduzile": 1087,
      "sboniso": 1088,
      "elsie": 1089,
      "nwab": 1090,
      "nwabisa": 1091,
      "gert": 1092,
      "mase": 1093,
      "masego": 1094,
      "banele": 1095,
      "min": 1096,
      "minenhle": 1097,
      "nandi": 1098,
      "nandipha": 1099,
      "tswe": 1100,
      "flo": 1101,
      "mbalen": 1102,
      "florence": 1103,
      "mbalenhle": 1104,
      "pase": 1105,
      "paseka": 1106,
      "thulisi": 1107,
      "thulisile": 1108,
      "katleho": 1109,
      "mato": 1110,
      "matome": 1111,
      "hennie": 1112,
      "oupa": 1113,
      "mpumelelo": 1114,
      "sive": 1115,
      "zol": 1116,
      "leen": 1117,
      "phila": 1118,
      "ziyanda": 1119,
      "xole": 1120,
      "nokubonga": 1121,
      "eza": 1122,
      "mapule": 1123,
      "jie": 1124,
      "tjie": 1125,
      "ck": 1126,
      "kanipho": 1127,
      "nhlakanipho": 1128,
      "amahle": 1129,
      "gule": 1130,
      "gugule": 1131,
      "khomotso": 1132,
      "gugulethu": 1133,
      "ak": 1134,
      "obak": 1135,
      "obakeng": 1136,
      "alo": 1137,
      "lela": 1138,
      "nompilo": 1139,
      "abulela": 1140,
      "siyabulela": 1141,
      "babalo": 1142,
      "dney": 1143,
      "mole": 1144,
      "sydney": 1145,
      "mthob": 1146,
      "tsho": 1147,
      "pontsho": 1148,
      "mthobisi": 1149,
      "ten": 1150,
      "drik": 1151,
      "hendrik": 1152,
      "rus": 1153,
      "ensani": 1154,
      "khensani": 1155,
      "petrus": 1156,
      "khule": 1157,
      "khulekani": 1158,
      "kany": 1159,
      "nkany": 1160,
      "lama": 1161,
      "lulama": 1162,
      "nkanyiso": 1163,
      "mpumi": 1164,
      "gavin": 1165,
      "scelo": 1166,
      "onde": 1167,
      "nomonde": 1168,
      "wy": 1169,
      "wyn": 1170,
      "ina": 1171,
      "onge": 1172,
      "lusanda": 1173,
      "des": 1174,
      "zikhona": 1175,
      "desmond": 1176,
      "mam": 1177,
      "moeke": 1178,
      "keitum": 1179,
      "moeketsi": 1180,
      "keitumetse": 1181,
      "xwel": 1182,
      "maxwel": 1183,
      "neliswa": 1184,
      "maxwell": 1185,
      "ity": 1186,
      "bongane": 1187,
      "charity": 1188,
      "morne": 1189,
      "clem": 1190,
      "nok": 1191,
      "clement": 1192,
      "ron": 1193,
      "lindani": 1194,
      "khanyi": 1195,
      "petro": 1196,
      "ronel": 1197,
      "qa": 1198,
      "thamsan": 1199,
      "thamsanqa": 1200,
      "mapu": 1201,
      "thobani": 1202,
      "mapula": 1203,
      "wazi": 1204,
      "pulane": 1205,
      "nolwazi": 1206,
      "anel": 1207,
      "khaya": 1208,
      "anelisa": 1209,
      "zukiswa": 1210,
      "tte": 1211,
      "nette": 1212,
      "lynette": 1213,
      "lesley": 1214,
      "khanyisa": 1215,
      "khutso": 1216,
      "rren": 1217,
      "mbuso": 1218,
      "warren": 1219,
      "waki": 1220,
      "anathi": 1221,
      "chantel": 1222,
      "ntswaki": 1223,
      "aviwe": 1224,
      "mdu": 1225,
      "amani": 1226,
      "con": 1227,
      "isang": 1228,
      "bongeka": 1229,
      "stance": 1230,
      "constance": 1231,
      "vela": 1232,
      "amu": 1233,
      "od": 1234,
      "good": 1235,
      "thembisile": 1236,
      "lho": 1237,
      "onke": 1238,
      "letlho": 1239,
      "letlhogonolo": 1240,
      "gran": 1241,
      "grant": 1242,
      "sisanda": 1243,
      "nomzamo": 1244,
      "idge": 1245,
      "bridge": 1246,
      "bridget": 1247,
      "ru": 1248,
      "ness": 1249,
      "ruan": 1250,
      "kie": 1251,
      "dimpho": 1252,
      "mbong": 1253,
      "lindy": 1254,
      "sindisiwe": 1255,
      "mbongeni": 1256,
      "vuyani": 1257,
      "hma": 1258,
      "usi": 1259,
      "ishma": 1260,
      "melusi": 1261,
      "ishmael": 1262,
      "bontle": 1263,
      "nthabi": 1264,
      "sethu": 1265,
      "siphosethu": 1266,
      "samkelisiwe": 1267,
      "uthu": 1268,
      "ntuthu": 1269,
      "ntuthuko": 1270,
      "asiphe": 1271,
      "ethu": 1272,
      "iness": 1273,
      "happiness": 1274,
      "uti": 1275,
      "phuti": 1276,
      "vuyiswa": 1277,
      "tshiamo": 1278,
      "vus": 1279,
      "vusum": 1280,
      "vo": 1281,
      "masi": 1282,
      "han": 1283,
      "chantelle": 1284,
      "hannes": 1285,
      "cli": 1286,
      "yanga": 1287,
      "clive": 1288,
      "sinazo": 1289,
      "ipati": 1290,
      "seipati": 1291,
      "cl": 1292,
      "dise": 1293,
      "thabisile": 1294,
      "bulelani": 1295,
      "clinton": 1296,
      "sibon": 1297,
      "nonjabulo": 1298,
      "sanelisiwe": 1299,
      "phem": 1300,
      "nonhle": 1301,
      "luvuyo": 1302,
      "kgotso": 1303,
      "ako": 1304,
      "ntsako": 1305,
      "nomcebo": 1306,
      "nate": 1307,
      "fortunate": 1308,
      "tinyiko": 1309,
      "thiwe": 1310,
      "khethiwe": 1311,
      "fani": 1312,
      "fanie": 1313,
      "ande": 1314,
      "moke": 1315,
      "isetso": 1316,
      "tiisetso": 1317,
      "mokete": 1318,
      "samke": 1319,
      "khanyo": 1320,
      "kholofelo": 1321,
      "lethu": 1322,
      "kela": 1323,
      "telle": 1324,
      "yam": 1325,
      "estelle": 1326,
      "yamkela": 1327,
      "gc": 1328,
      "moja": 1329,
      "mondli": 1330,
      "mojalefa": 1331,
      "os": 1332,
      "snethemba": 1333,
      "koos": 1334,
      "tebza": 1335,
      "kelelo": 1336,
      "tsikelelo": 1337,
      "zee": 1338,
      "koena": 1339,
      "kalani": 1340,
      "nthabeleng": 1341,
      "takalani": 1342,
      "andisiwe": 1343,
      "sivuyile": 1344,
      "keletso": 1345,
      "keneilwe": 1346,
      "zel": 1347,
      "lufu": 1348,
      "zelda": 1349,
      "lufuno": 1350,
      "gel": 1351,
      "amogel": 1352,
      "amogelang": 1353,
      "lindi": 1354,
      "bandile": 1355,
      "gon": 1356,
      "gontse": 1357,
      "hes": 1358,
      "hester": 1359,
      "ntobeko": 1360,
      "zoleka": 1361,
      "inric": 1362,
      "heinric": 1363,
      "heinrich": 1364,
      "quinton": 1365,
      "nyiko": 1366,
      "men": 1367,
      "menzi": 1368,
      "thembelani": 1369,
      "vuyolwethu": 1370,
      "spha": 1371,
      "olebogeng": 1372,
      "pert": 1373,
      "pertunia": 1374,
      "zizipho": 1375,
      "thokozile": 1376,
      "mpilo": 1377,
      "nonce": 1378,
      "lwando": 1379,
      "pab": 1380,
      "sthe": 1381,
      "allo": 1382,
      "nceba": 1383,
      "paballo": 1384,
      "ipelo": 1385,
      "boipelo": 1386,
      "nen": 1387,
      "snen": 1388,
      "snenhlanhla": 1389,
      "helo": 1390,
      "mbulelo": 1391,
      "lungi": 1392,
      "vuyelwa": 1393,
      "kamohelo": 1394,
      "lalo": 1395,
      "thembisa": 1396,
      "mulalo": 1397,
      "lic": 1398,
      "mil": 1399,
      "wise": 1400,
      "nontokozo": 1401,
      "licent": 1402,
      "millicent": 1403,
      "wiseman": 1404,
      "charl": 1405,
      "nicolene": 1406,
      "makhosi": 1407,
      "siphamandla": 1408,
      "siza": 1409,
      "keabe": 1410,
      "sizakele": 1411,
      "keabetswe": 1412,
      "colleen": 1413,
      "weli": 1414,
      "zweli": 1415,
      "phumeza": 1416,
      "ay": 1417,
      "akani": 1418,
      "ram": 1419,
      "abram": 1420,
      "tsakani": 1421,
      "hau": 1422,
      "mohau": 1423,
      "fortune": 1424,
      "ayabonga": 1425,
      "martie": 1426,
      "ora": 1427,
      "tile": 1428,
      "oratile": 1429,
      "sphe": 1430,
      "eph": 1431,
      "zethu": 1432,
      "raim": 1433,
      "ephraim": 1434,
      "aph": 1435,
      "syanda": 1436,
      "lesi": 1437,
      "aphelele": 1438,
      "lesiba": 1439,
      "ppy": 1440,
      "poppy": 1441,
      "lindelwa": 1442,
      "bongekile": 1443,
      "ntombenhle": 1444,
      "malebo": 1445,
      "elmarie": 1446,
      "ogelo": 1447,
      "lisiwe": 1448,
      "siphelele": 1449,
      "kgaogelo": 1450,
      "philisiwe": 1451,
      "nomathemba": 1452,
      "nka": 1453,
      "nkele": 1454,
      "teko": 1455,
      "nkateko": 1456,
      "velo": 1457,
      "monge": 1458,
      "mongezi": 1459,
      "thabisa": 1460,
      "lebza": 1461,
      "wakhe": 1462,
      "mzwakhe": 1463,
      "manqob": 1464,
      "manqoba": 1465,
      "phumelele": 1466,
      "ndi": 1467,
      "nozuko": 1468,
      "vhuwo": 1469,
      "ndivhuwo": 1470,
      "lungisani": 1471,
      "ntombizodwa": 1472,
      "athen": 1473,
      "innocentia": 1474,
      "athenkosi": 1475,
      "ipon": 1476,
      "livhuw": 1477,
      "moipon": 1478,
      "tshifhiwa": 1479,
      "livhuwani": 1480,
      "moipone": 1481,
      "okuhle": 1482,
      "ugelo": 1483,
      "christiaan": 1484,
      "kgaugelo": 1485,
      "mosa": 1486,
      "der": 1487,
      "won": 1488,
      "yiso": 1489,
      "loyiso": 1490,
      "omphile": 1491,
      "wonder": 1492,
      "ad": 1493,
      "thuso": 1494,
      "marietjie": 1495,
      "adriaan": 1496,
      "odwa": 1497,
      "monde": 1498,
      "londeka": 1499,
      "dra": 1500,
      "ntombie": 1501,
      "nkosikhona": 1502,
      "shadra": 1503,
      "shadrack": 1504,
      "mapaseka": 1505,
      "fez": 1506,
      "anthe": 1507,
      "jolene": 1508,
      "xolelwa": 1509,
      "fezeka": 1510,
      "anthea": 1511,
      "ezile": 1512,
      "fezile": 1513,
      "yise": 1514,
      "kayise": 1515,
      "ntombikayise": 1516,
      "sibongiseni": 1517,
      "rendani": 1518,
      "msi": 1519,
      "msizi": 1520,
      "tseng": 1521,
      "dieke": 1522,
      "dieketseng": 1523,
      "thandolwethu": 1524,
      "lizelle": 1525,
      "nokwazi": 1526,
      "mnce": 1527,
      "sicelo": 1528,
      "disi": 1529,
      "mncedisi": 1530,
      "mp": 1531,
      "ndudu": 1532,
      "sino": 1533,
      "endu": 1534,
      "busie": 1535,
      "xolisa": 1536,
      "lehlogonolo": 1537,
      "zolani": 1538,
      "mpendu": 1539,
      "nduduzo": 1540,
      "sinovuyo": 1541,
      "mpendulo": 1542,
      "amthanda": 1543,
      "siyamthanda": 1544,
      "xolisile": 1545,
      "mzamo": 1546,
      "lina": 1547,
      "nko": 1548,
      "pano": 1549,
      "sana": 1550,
      "wabo": 1551,
      "kopano": 1552,
      "umusa": 1553,
      "bongumusa": 1554,
      "lonwabo": 1555,
      "linah": 1556,
      "nkosana": 1557,
      "cum": 1558,
      "ncum": 1559,
      "ncumisa": 1560,
      "bongie": 1561,
      "mamello": 1562,
      "smanga": 1563,
      "sbo": 1564,
      "gomole": 1565,
      "gomolemo": 1566,
      "kang": 1567,
      "tale": 1568,
      "siviwe": 1569,
      "bokang": 1570,
      "nokukhanya": 1571,
      "lettie": 1572,
      "talent": 1573,
      "tsholo": 1574,
      "ashe": 1575,
      "tinashe": 1576,
      "tswa": 1577,
      "ntosh": 1578,
      "tintswa": 1579,
      "tintswalo": 1580,
      "luzuko": 1581,
      "rud": 1582,
      "rudzani": 1583,
      "sne": 1584,
      "teba": 1585,
      "tebatso": 1586,
      "ouma": 1587,
      "loko": 1588,
      "moloko": 1589,
      "tlw": 1590,
      "kutlw": 1591,
      "dai": 1592,
      "tendai": 1593,
      "kutlwano": 1594,
      "ase": 1595,
      "asemahle": 1596,
      "rofhiwa": 1597,
      "lindelani": 1598,
      "londy": 1599,
      "iw": 1600,
      "yand": 1601,
      "nosiph": 1602,
      "lubabalo": 1603,
      "thulile": 1604,
      "vuyisile": 1605,
      "iwo": 1606,
      "yandisa": 1607,
      "nosiphiwo": 1608,
      "tsepo": 1609,
      "phney": 1610,
      "mali": 1611,
      "bongwe": 1612,
      "daphney": 1613,
      "malibongwe": 1614,
      "thulane": 1615,
      "alta": 1616,
      "thembani": 1617,
      "xola": 1618,
      "sbongiseni": 1619,
      "sandiso": 1620,
      "kelani": 1621,
      "love": 1622,
      "lakele": 1623,
      "more": 1624,
      "tholakele": 1625,
      "fundiswa": 1626,
      "amukelani": 1627,
      "lovemore": 1628,
      "hile": 1629,
      "rele": 1630,
      "sisipho": 1631,
      "bohile": 1632,
      "relebohile": 1633,
      "iphile": 1634,
      "iska": 1635,
      "ngiphile": 1636,
      "mariska": 1637,
      "nkosingiphile": 1638,
      "sba": 1639,
      "silindile": 1640,
      "sbahle": 1641,
      "masa": 1642,
      "mbal": 1643,
      "luvo": 1644,
      "zimasa": 1645,
      "lungiswa": 1646,
      "mbally": 1647,
      "com": 1648,
      "mory": 1649,
      "busiswa": 1650,
      "memory": 1651,
      "welcom": 1652,
      "welcome": 1653,
      "ann": 1654,
      "marinda": 1655,
      "thandokazi": 1656,
      "leeann": 1657,
      "wynand": 1658,
      "liez": 1659,
      "liezel": 1660,
      "tta": 1661,
      "zamani": 1662,
      "aletta": 1663,
      "tlou": 1664,
      "phumza": 1665,
      "xoli": 1666,
      "lwandile": 1667,
      "zonke": 1668,
      "cor": 1669,
      "corne": 1670,
      "mm": 1671,
      "abatho": 1672,
      "mmabatho": 1673,
      "avela": 1674,
      "kes": 1675,
      "rhu": 1676,
      "sithemb": 1677,
      "modise": 1678,
      "zakes": 1679,
      "rhulani": 1680,
      "sithembiso": 1681,
      "phela": 1682,
      "nolubabalo": 1683,
      "pheladi": 1684,
      "bello": 1685,
      "ik": 1686,
      "nik": 1687,
      "tebello": 1688,
      "sesi": 1689,
      "reneilwe": 1690,
      "nokuzola": 1691,
      "yoliswa": 1692,
      "nikiwe": 1693,
      "ror": 1694,
      "pinkie": 1695,
      "zoliswa": 1696,
      "rorisang": 1697,
      "mka": 1698,
      "lumka": 1699,
      "jacobus": 1700,
      "dzi": 1701,
      "lidzi": 1702,
      "tshilidzi": 1703,
      "goodness": 1704,
      "jiwe": 1705,
      "lly": 1706,
      "thully": 1707,
      "thenjiwe": 1708,
      "etsi": 1709,
      "thandiswa": 1710,
      "tsietsi": 1711,
      "hlon": 1712,
      "hloni": 1713,
      "sile": 1714,
      "thabsile": 1715,
      "kwena": 1716,
      "yolandi": 1717,
      "noluvuyo": 1718,
      "onwyn": 1719,
      "iseka": 1720,
      "vuyiseka": 1721,
      "thandazile": 1722,
      "bronwyn": 1723,
      "cel": 1724,
      "itha": 1725,
      "mkh": 1726,
      "uzi": 1727,
      "zimkh": 1728,
      "nomhle": 1729,
      "vusumuzi": 1730,
      "celiwe": 1731,
      "zimkhitha": 1732,
      "thembela": 1733,
      "dorah": 1734,
      "tman": 1735,
      "thandy": 1736,
      "cia": 1737,
      "mer": 1738,
      "luten": 1739,
      "pumla": 1740,
      "mercia": 1741,
      "lutendo": 1742,
      "boniswa": 1743,
      "bonisiwe": 1744,
      "moleboh": 1745,
      "molefi": 1746,
      "masixole": 1747,
      "moleboheng": 1748,
      "sabe": 1749,
      "elsabe": 1750,
      "molebogeng": 1751,
      "lungani": 1752,
      "thembakazi": 1753,
      "petunia": 1754,
      "zamokuhle": 1755,
      "sbuda": 1756,
      "ld": 1757,
      "wald": 1758,
      "dewald": 1759,
      "tshepi": 1760,
      "gabo": 1761,
      "kgabo": 1762,
      "thabelo": 1763,
      "ryno": 1764,
      "siboniso": 1765,
      "mes": 1766,
      "hack": 1767,
      "khumbulani": 1768,
      "meshack": 1769,
      "mahlo": 1770,
      "lukhanyo": 1771,
      "thabi": 1772,
      "esethu": 1773,
      "mahlodi": 1774,
      "tsana": 1775,
      "setsana": 1776,
      "monwab": 1777,
      "basetsana": 1778,
      "monwabisi": 1779,
      "gh": 1780,
      "lindie": 1781,
      "nono": 1782,
      "brigh": 1783,
      "phemelo": 1784,
      "brighton": 1785,
      "sfundo": 1786,
      "malu": 1787,
      "tumisang": 1788,
      "sande": 1789,
      "annatjie": 1790,
      "philasande": 1791,
      "malusi": 1792,
      "kiso": 1793,
      "so": 1794,
      "bokamo": 1795,
      "tankiso": 1796,
      "bokamoso": 1797,
      "lungie": 1798,
      "sesethu": 1799,
      "ihle": 1800,
      "mhleng": 1801,
      "loven": 1802,
      "emihle": 1803,
      "goodman": 1804,
      "mhlengi": 1805,
      "loveness": 1806,
      "asa": 1807,
      "ehi": 1808,
      "kalo": 1809,
      "modi": 1810,
      "dakalo": 1811,
      "asavela": 1812,
      "modiehi": 1813,
      "qin": 1814,
      "qiniso": 1815,
      "buyi": 1816,
      "thozama": 1817,
      "sinah": 1818,
      "maze": 1819,
      "mazet": 1820,
      "kamani": 1821,
      "nam": 1822,
      "nomasonto": 1823,
      "phakamani": 1824,
      "namhla": 1825,
      "rpris": 1826,
      "su": 1827,
      "yandiswa": 1828,
      "buti": 1829,
      "rprise": 1830,
      "surprise": 1831,
      "azola": 1832,
      "nku": 1833,
      "zen": 1834,
      "lefu": 1835,
      "malefu": 1836,
      "lutho": 1837,
      "thembekile": 1838,
      "nkule": 1839,
      "zenande": 1840,
      "zand": 1841,
      "sandisiwe": 1842,
      "zandy": 1843,
      "zandi": 1844,
      "pitso": 1845,
      "it": 1846,
      "wit": 1847,
      "thandekile": 1848,
      "mokoena": 1849,
      "witness": 1850,
      "sonwab": 1851,
      "gcina": 1852,
      "sonwabile": 1853,
      "neka": 1854,
      "nontsikelelo": 1855,
      "funeka": 1856,
      "thandie": 1857,
      "cobus": 1858,
      "mahlako": 1859,
      "mthu": 1860,
      "nzi": 1861,
      "mamokete": 1862,
      "mthunzi": 1863,
      "frik": 1864,
      "ansie": 1865,
      "keamo": 1866,
      "getswe": 1867,
      "frikkie": 1868,
      "keamogetswe": 1869,
      "asive": 1870,
      "twa": 1871,
      "mantwa": 1872,
      "simam": 1873,
      "mathabo": 1874,
      "nosihle": 1875,
      "nhlaka": 1876,
      "simamkele": 1877,
      "hl": 1878,
      "mzuk": 1879,
      "nhl": 1880,
      "wande": 1881,
      "males": 1882,
      "mawande": 1883,
      "isie": 1884,
      "mphoza": 1885,
      "meisie": 1886,
      "amulo": 1887,
      "masilo": 1888,
      "mzukisi": 1889,
      "nhlamulo": 1890,
      "malesela": 1891,
      "kelisiwe": 1892,
      "ukelisiwe": 1893,
      "samukelisiwe": 1894,
      "obisa": 1895,
      "omphem": 1896,
      "khayelihle": 1897,
      "gcobisa": 1898,
      "omphemetse": 1899,
      "yiswa": 1900,
      "buyiswa": 1901,
      "thembile": 1902,
      "zukile": 1903,
      "ntsikelelo": 1904,
      "lelethu": 1905,
      "kholeka": 1906,
      "vusumzi": 1907,
      "aki": 1908,
      "ntso": 1909,
      "ntsoaki": 1910,
      "wie": 1911,
      "isho": 1912,
      "umo": 1913,
      "khumo": 1914,
      "dawie": 1915,
      "kagisho": 1916,
      "sibonelo": 1917,
      "alebog": 1918,
      "angele": 1919,
      "kefilwe": 1920,
      "kealebog": 1921,
      "simangele": 1922,
      "nonceba": 1923,
      "kealeboga": 1924,
      "tla": 1925,
      "motla": 1926,
      "nomvuyo": 1927,
      "seben": 1928,
      "daleen": 1929,
      "motlatsi": 1930,
      "sebenzile": 1931,
      "ntomby": 1932,
      "gomo": 1933,
      "mogomo": 1934,
      "mogomotsi": 1935,
      "ongwa": 1936,
      "morongwa": 1937,
      "ncebakazi": 1938,
      "by": 1939,
      "dile": 1940,
      "mfana": 1941,
      "sel": 1942,
      "sindile": 1943,
      "mfanafuthi": 1944,
      "selby": 1945,
      "thobekile": 1946,
      "oxolo": 1947,
      "yolo": 1948,
      "luyolo": 1949,
      "ntomboxolo": 1950,
      "pumeza": 1951,
      "nokthula": 1952,
      "bongs": 1953,
      "sech": 1954,
      "khotso": 1955,
      "sechaba": 1956,
      "ize": 1957,
      "annel": 1958,
      "jabulane": 1959,
      "thandoh": 1960,
      "annelize": 1961,
      "sli": 1962,
      "motshidi": 1963,
      "nomkhosi": 1964,
      "slie": 1965,
      "motshidisi": 1966,
      "kwazi": 1967,
      "sandiswa": 1968,
      "masaba": 1969,
      "masabata": 1970,
      "mnqob": 1971,
      "siyas": 1972,
      "luleka": 1973,
      "mnqobi": 1974,
      "siyasanga": 1975,
      "noncedo": 1976,
      "phumud": 1977,
      "pumza": 1978,
      "phumudzo": 1979,
      "avuyile": 1980,
      "nkhensani": 1981,
      "disebo": 1982,
      "tando": 1983,
      "kulani": 1984,
      "nontando": 1985,
      "mabong": 1986,
      "andle": 1987,
      "lwandle": 1988,
      "noluvo": 1989,
      "mabongi": 1990,
      "zane": 1991,
      "thokozane": 1992,
      "mpumie": 1993,
      "alethu": 1994,
      "khayalethu": 1995,
      "mvelo": 1996,
      "nomvelo": 1997,
      "thobela": 1998,
      "dumsani": 1999,
      "songe": 2000,
      "noli": 2001,
      "songezo": 2002,
      "nolitha": 2003,
      "ongez": 2004,
      "lungy": 2005,
      "ongeziwe": 2006
    },
    "merges": [
      "a n",
      "l e",
      "t h",
      "s i",
      "o n",
      "an d",
      "e l",
      "i s",
      "p h",
      "a b",
      "i n",
      "i le",
      "e n",
      "m a",
      "t s",
      "n o",
      "w e",
      "an i",
      "l o",
      "a m",
      "m b",
      "l a",
      "i c",
      "k a",
      "e le",
      "l u",
      "th ab",
      "t o",
      "k o",
      "u m",
      "on g",
      "el o",
      "h le",
      "b o",
      "w a",
      "h a",
      "e s",
      "i a",
      "is o",
      "ph o",
      "and a",
      "r e",
      "i we",
      "g o",
      "in d",
      "t e",
      "th e",
      "r a",
      "b u",
      "b ong",
      "j o",
      "l i",
      "ts h",
      "an g",
      "z i",
      "k h",
      "u s",
      "the mb",
      "n g",
      "th and",
      "o l",
      "th u",
      "m o",
      "d i",
      "l ind",
      "p a",
      "n e",
      "and ile",
      "ts o",
      "ma r",
      "no m",
      "n a",
      "th o",
      "c e",
      "s e",
      "e r",
      "jo h",
      "z o",
      "th a",
      "s a",
      "i l",
      "an ele",
      "v u",
      "k e",
      "k u",
      "i e",
      "ha r",
      "tsh e",
      "bu si",
      "t um",
      "d u",
      "le bo",
      "o r",
      "n on",
      "h la",
      "i si",
      "m on",
      "n to",
      "is a",
      "m pho",
      "d a",
      "c a",
      "tshe p",
      "si pho",
      "c h",
      "is wa",
      "y anda",
      "s am",
      "thab o",
      "o lo",
      "lu ng",
      "l an",
      "ab u",
      "r ic",
      "u n",
      "j a",
      "vu y",
      "l ani",
      "in e",
      "e ka",
      "ph iwe",
      "j abu",
      "z a",
      "te bo",
      "pa t",
      "r is",
      "am o",
      "joh an",
      "thand o",
      "i d",
      "h lan",
      "hlan hla",
      "le ra",
      "lera to",
      "m ic",
      "th i",
      "p e",
      "si y",
      "te r",
      "ab ong",
      "r en",
      "busi s",
      "k y",
      "ko si",
      "u le",
      "o b",
      "en g",
      "themb a",
      "c har",
      "ch ris",
      "busis o",
      "a s",
      "nto mb",
      "i tum",
      "p r",
      "g e",
      "b on",
      "ja c",
      "t le",
      "a l",
      "l y",
      "n es",
      "ph um",
      "x ol",
      "p um",
      "k ele",
      "tebo go",
      "g u",
      "p re",
      "pat ric",
      "tshep o",
      "n el",
      "lu c",
      "v in",
      "abong a",
      "m and",
      "z anele",
      "joh n",
      "en t",
      "tho b",
      "no ku",
      "si hle",
      "bong ani",
      "n thab",
      "lebo g",
      "v id",
      "da vid",
      "thab ang",
      "na thi",
      "el i",
      "t in",
      "q u",
      "h o",
      "r i",
      "an y",
      "a yanda",
      "el a",
      "tho ko",
      "thab iso",
      "ab elo",
      "and re",
      "is e",
      "r an",
      "s ph",
      "le s",
      "el le",
      "or t",
      "ntomb i",
      "p elo",
      "d ani",
      "z ile",
      "j an",
      "ab o",
      "ts e",
      "il li",
      "ka tle",
      "er t",
      "du du",
      "n ic",
      "d um",
      "ha el",
      "mic hael",
      "u l",
      "on a",
      "u el",
      "am anda",
      "luc ky",
      "d wa",
      "bong ile",
      "isi we",
      "kh any",
      "s on",
      "vuy o",
      "tha pelo",
      "n kosi",
      "d o",
      "mb a",
      "c ent",
      "f ran",
      "s andile",
      "f iso",
      "x o",
      "b e",
      "si we",
      "pe ter",
      "lebog ang",
      "d e",
      "f a",
      "siy abonga",
      "m an",
      "us a",
      "is eng",
      "nthab iseng",
      "g i",
      "le se",
      "tha to",
      "k go",
      "c i",
      "o us",
      "pre ci",
      "preci ous",
      "t y",
      "lind iwe",
      "pr in",
      "r abo",
      "z in",
      "le y",
      "ka rabo",
      "thand eka",
      "k ile",
      "katle go",
      "z andile",
      "b a",
      "n hlanhla",
      "si m",
      "mar ia",
      "s h",
      "lind a",
      "p ort",
      "port ia",
      "bu hle",
      "d y",
      "f un",
      "si busiso",
      "si ph",
      "p ie",
      "xol ani",
      "ku hle",
      "har d",
      "f i",
      "v en",
      "nic o",
      "an a",
      "sim phiwe",
      "k amo",
      "p ule",
      "non hlanhla",
      "w illi",
      "ic e",
      "dani el",
      "ka zi",
      "l wa",
      "eli z",
      "ele ng",
      "li si",
      "mba li",
      "s and",
      "lind o",
      "le sa",
      "pa lesa",
      "ko zo",
      "jabu lo",
      "patric k",
      "il we",
      "jo se",
      "jose ph",
      "s anele",
      "thu lani",
      "ab e",
      "lu le",
      "s y",
      "fun do",
      "an na",
      "za ma",
      "m pum",
      "j am",
      "jam es",
      "tsh i",
      "mo tso",
      "r y",
      "thu la",
      "a le",
      "r ia",
      "r o",
      "el lo",
      "h elle",
      "mic helle",
      "bo itum",
      "boitum elo",
      "r ol",
      "ca rol",
      "mand la",
      "g elo",
      "vu si",
      "pa ul",
      "tum elo",
      "kh ona",
      "l on",
      "s te",
      "isi le",
      "g a",
      "s busiso",
      "e m",
      "lo u",
      "kh o",
      "ku lule",
      "kulule ko",
      "p p",
      "ic a",
      "ele lo",
      "lese go",
      "zin hle",
      "h en",
      "k w",
      "ne o",
      "f re",
      "t si",
      "busi siwe",
      "z u",
      "si n",
      "c y",
      "k i",
      "h e",
      "mon d",
      "noku thula",
      "qu e",
      "ph ind",
      "phind ile",
      "d ine",
      "dine o",
      "dum iso",
      "si bongile",
      "si mon",
      "zi pho",
      "o m",
      "or ge",
      "ge orge",
      "th anda",
      "s es",
      "b ri",
      "nto kozo",
      "itum eleng",
      "nom sa",
      "chris to",
      "patric ia",
      "themb i",
      "f u",
      "ele le",
      "es s",
      "en ce",
      "ric hard",
      "n jabulo",
      "ma s",
      "ra h",
      "p u",
      "k abelo",
      "w andile",
      "lebo h",
      "s themb",
      "s har",
      "gu gu",
      "shar on",
      "f t",
      "gi ft",
      "q ob",
      "j us",
      "s abelo",
      "sam uel",
      "thand i",
      "ka g",
      "lu thando",
      "us o",
      "zo dwa",
      "char les",
      "nkosi nathi",
      "m usa",
      "no sipho",
      "no mb",
      "andre w",
      "z we",
      "si zwe",
      "xo lisi",
      "i ke",
      "m ike",
      "s ha",
      "johan nes",
      "willi am",
      "ha pp",
      "pie ter",
      "y ol",
      "prin ce",
      "thab ile",
      "b r",
      "lindo kuhle",
      "mo ses",
      "bong iwe",
      "bri an",
      "we thu",
      "hle ng",
      "ol wethu",
      "ph il",
      "s fiso",
      "as anda",
      "on olo",
      "n t",
      "tho mas",
      "mar tin",
      "kgo motso",
      "k ani",
      "tshep iso",
      "nel ly",
      "eliz abe",
      "elizabe th",
      "a u",
      "lung ile",
      "ren ce",
      "v ic",
      "to r",
      "vic tor",
      "tshe go",
      "f ilwe",
      "jac o",
      "s ello",
      "e sihle",
      "sa rah",
      "kag iso",
      "an e",
      "leboh ang",
      "a c",
      "isa ac",
      "and la",
      "am andla",
      "z ani",
      "in no",
      "inno cent",
      "in kosi",
      "and iswa",
      "x olo",
      "pat i",
      "t an",
      "nico le",
      "n ie",
      "b ab",
      "w en",
      "wen dy",
      "k ga",
      "ma ka",
      "di maka",
      "dimaka tso",
      "tebo ho",
      "kh u",
      "non to",
      "f elo",
      "olo felo",
      "is ani",
      "vin cent",
      "le m",
      "phum zile",
      "ko ke",
      "koke tso",
      "nom pum",
      "nompum elelo",
      "s us",
      "v e",
      "sus an",
      "m z",
      "t as",
      "na tas",
      "natas ha",
      "sam k",
      "n qob",
      "pe t",
      "t ty",
      "pre tty",
      "s bon",
      "k en",
      "and o",
      "th am",
      "fi kile",
      "hleng iwe",
      "m el",
      "le n",
      "m xolisi",
      "c ind",
      "cind y",
      "ale x",
      "thob ile",
      "r ob",
      "rob ert",
      "kamo gelo",
      "s phiwe",
      "h lo",
      "man uel",
      "em manuel",
      "lind ile",
      "u d",
      "re filwe",
      "lung a",
      "sha un",
      "sand ra",
      "mar k",
      "p in",
      "z e",
      "si fiso",
      "m dudu",
      "mdudu zi",
      "lwa zi",
      "ro se",
      "er ic",
      "le e",
      "no xolo",
      "n th",
      "cy nth",
      "cynth ia",
      "an tha",
      "sam antha",
      "bong a",
      "ule lo",
      "nom fundo",
      "f ana",
      "y ce",
      "jo yce",
      "ria an",
      "be ko",
      "b ren",
      "bren da",
      "jac qu",
      "jacqu es",
      "t a",
      "c o",
      "p i",
      "en hle",
      "s tan",
      "ma ine",
      "char maine",
      "b he",
      "bhe ki",
      "no zipho",
      "el isiwe",
      "v on",
      "y von",
      "yvon ne",
      "t i",
      "bu s",
      "ja son",
      "ma hla",
      "n kululeko",
      "m thoko",
      "nqob ile",
      "thoko zani",
      "bu le",
      "b en",
      "lu yanda",
      "tum i",
      "g ra",
      "gra ce",
      "mar y",
      "ph er",
      "ra i",
      "christo pher",
      "ste ven",
      "ke vin",
      "a khona",
      "mar tha",
      "en i",
      "t on",
      "tsh id",
      "tshid iso",
      "no buhle",
      "happ y",
      "d fre",
      "go dfre",
      "godfre y",
      "m e",
      "lon d",
      "and i",
      "c ol",
      "y i",
      "m u",
      "mon ica",
      "jabu lani",
      "li z",
      "sthemb iso",
      "w ab",
      "le on",
      "l ile",
      "ne themba",
      "s bongile",
      "b i",
      "an ca",
      "bi anca",
      "lu ca",
      "luca s",
      "sph amandla",
      "v iwe",
      "carol ine",
      "mand isa",
      "yol anda",
      "que en",
      "thanda zo",
      "le hlo",
      "c ess",
      "prin cess",
      "s anda",
      "fa tso",
      "tshego fatso",
      "dum isani",
      "j ul",
      "jul ia",
      "e kile",
      "sin di",
      "ind a",
      "le ne",
      "lan e",
      "s en",
      "sen zo",
      "thu li",
      "m ang",
      "s mang",
      "jan e",
      "fran s",
      "g ile",
      "bo gile",
      "kele bogile",
      "tshi di",
      "ang el",
      "j ona",
      "th an",
      "jona than",
      "el ani",
      "m lung",
      "mlung isi",
      "hle y",
      "as hley",
      "no ma",
      "s an",
      "s lindile",
      "pule ng",
      "an t",
      "ch ant",
      "pin ky",
      "h u",
      "fran co",
      "franco is",
      "siy a",
      "kho si",
      "jo e",
      "si phiwe",
      "pi lo",
      "gi ven",
      "d iswa",
      "pr om",
      "lou is",
      "pati ence",
      "prom ise",
      "n ts",
      "z amo",
      "ph i",
      "thand iwe",
      "p ris",
      "zu ko",
      "r ra",
      "lo rra",
      "lorra ine",
      "i or",
      "j un",
      "jun ior",
      "de on",
      "nom vu",
      "nomvu la",
      "s bu",
      "tsh olofelo",
      "di kele",
      "dikele di",
      "no kw",
      "phum lani",
      "nokw anda",
      "non dumiso",
      "j es",
      "si ca",
      "jes sica",
      "phil ani",
      "mahla tse",
      "e dwa",
      "r d",
      "tshep ang",
      "edwa rd",
      "no luthando",
      "k ha",
      "kha y",
      "p on",
      "zo la",
      "n dumiso",
      "y mond",
      "ra ymond",
      "kh ile",
      "sa khile",
      "o u",
      "b les",
      "si ng",
      "thob eka",
      "bles sing",
      "y ne",
      "wa yne",
      "li hle",
      "jus tin",
      "ne th",
      "ken neth",
      "i th",
      "luc ia",
      "fa ith",
      "l v",
      "sy lv",
      "sylv ia",
      "ph illi",
      "philli p",
      "l w",
      "w rence",
      "la wrence",
      "mb u",
      "khu mbu",
      "v an",
      "es sa",
      "van essa",
      "h i",
      "fu thi",
      "le thabo",
      "ma hle",
      "er nes",
      "ernes t",
      "c elo",
      "and ri",
      "andri es",
      "v er",
      "on ica",
      "ver onica",
      "u nathi",
      "in ton",
      "si yanda",
      "ka ren",
      "d ia",
      "ly dia",
      "ph en",
      "ste phen",
      "ne y",
      "e ke",
      "p am",
      "pam ela",
      "an th",
      "on y",
      "yi ko",
      "anth ony",
      "a phiwe",
      "samk elo",
      "g lo",
      "bong i",
      "eli hle",
      "glo ria",
      "di bon",
      "ke dibon",
      "kedibon e",
      "es the",
      "nom thandazo",
      "al wa",
      "bab alwa",
      "esthe r",
      "w il",
      "wil lem",
      "ph a",
      "f ort",
      "si e",
      "fran k",
      "fort u",
      "e u",
      "g en",
      "is sa",
      "mel issa",
      "eu gen",
      "eugen e",
      "sipho kazi",
      "nomb ulelo",
      "nel isiwe",
      "ra ch",
      "rach el",
      "jac ob",
      "i que",
      "mon ique",
      "w in",
      "win nie",
      "g onolo",
      "l isa",
      "le fa",
      "johan na",
      "w el",
      "and on",
      "sph esihle",
      "br andon",
      "non kululeko",
      "al fre",
      "alfre d",
      "zi si",
      "mthoko zisi",
      "b ert",
      "le t",
      "jac k",
      "al bert",
      "nomb uso",
      "kh e",
      "nel son",
      "nonto beko",
      "i us",
      "mar ius",
      "lung elo",
      "n hla",
      "pie t",
      "tham i",
      "b za",
      "e z",
      "t re",
      "v or",
      "tre vor",
      "t ice",
      "jus tice",
      "c ca",
      "re be",
      "rebe cca",
      "l vin",
      "bong inkosi",
      "ca lvin",
      "mpum e",
      "jabu lile",
      "ri k",
      "hen ry",
      "re thabile",
      "pr ud",
      "ry an",
      "prud ence",
      "d on",
      "ce bo",
      "al d",
      "don ald",
      "f en",
      "o fen",
      "ofen tse",
      "el wa",
      "thab ani",
      "be au",
      "beau ty",
      "lo e",
      "re fi",
      "refi loe",
      "i r",
      "sh ir",
      "shir ley",
      "lond iwe",
      "nom usa",
      "le di",
      "na ledi",
      "z y",
      "liz zy",
      "s ol",
      "sol ly",
      "e un",
      "eun ice",
      "e tse",
      "sh ane",
      "el ia",
      "elia s",
      "la s",
      "mand y",
      "ho las",
      "nic holas",
      "b el",
      "c rai",
      "bel inda",
      "crai g",
      "nt ando",
      "b re",
      "au bre",
      "aubre y",
      "s ani",
      "eliz e",
      "zu k",
      "mo r",
      "a r",
      "pe ar",
      "kw anele",
      "pear l",
      "c il",
      "pris cil",
      "priscil la",
      "ky le",
      "no thando",
      "n ce",
      "no lu",
      "c and",
      "cand ice",
      "themb eka",
      "lese di",
      "s olo",
      "lou ise",
      "solo mon",
      "a g",
      "khany isile",
      "ag nes",
      "abong ile",
      "xol iswa",
      "g la",
      "h onolo",
      "mar ie",
      "jan ine",
      "dy s",
      "sbon elo",
      "lehlo honolo",
      "gla dys",
      "col len",
      "xol ile",
      "v hu",
      "mo kga",
      "son to",
      "vhu w",
      "mokga di",
      "e ilwe",
      "y on",
      "yon ela",
      "en a",
      "the o",
      "si na",
      "t ie",
      "ba fana",
      "siph e",
      "mu zi",
      "bon olo",
      "smang ele",
      "ma thapelo",
      "khany a",
      "sy abonga",
      "char lene",
      "u re",
      "ma ure",
      "maure en",
      "vuyo kazi",
      "ma tshidiso",
      "ntombi futhi",
      "willi e",
      "anna h",
      "stan ley",
      "m fundo",
      "bule lwa",
      "di pu",
      "dipu o",
      "sin diswa",
      "p o",
      "mz wandile",
      "p er",
      "ab a",
      "per cy",
      "tha tso",
      "kgo thatso",
      "amo s",
      "ko bus",
      "ang a",
      "v is",
      "ma vis",
      "themb inkosi",
      "dani e",
      "b b",
      "t ia",
      "un ia",
      "lebog eng",
      "de bb",
      "tia an",
      "debb ie",
      "sph elele",
      "zin tle",
      "u du",
      "ma sh",
      "mash udu",
      "f hi",
      "fhi wa",
      "siph esihle",
      "s khumbu",
      "skhumbu zo",
      "p us",
      "ele tso",
      "pus eletso",
      "themb elihle",
      "si nethemba",
      "ph ile",
      "b ra",
      "d ley",
      "bra dley",
      "kh ele",
      "za khele",
      "phum la",
      "sthemb ile",
      "g er",
      "ger hard",
      "le ka",
      "an o",
      "is eni",
      "bong iseni",
      "phil ile",
      "th en",
      "vuy ile",
      "noku lunga",
      "dudu zile",
      "sbon iso",
      "el sie",
      "n wab",
      "nwab isa",
      "g ert",
      "ma se",
      "mase go",
      "b anele",
      "m in",
      "min enhle",
      "n andi",
      "nandi pha",
      "ts we",
      "f lo",
      "mba len",
      "flo rence",
      "mbalen hle",
      "pa se",
      "pase ka",
      "thu lisi",
      "thulisi le",
      "katle ho",
      "ma to",
      "mato me",
      "hen nie",
      "ou pa",
      "mpum elelo",
      "si ve",
      "z ol",
      "le en",
      "phi la",
      "zi yanda",
      "xo le",
      "noku bonga",
      "e za",
      "ma pule",
      "j ie",
      "t jie",
      "c k",
      "kani pho",
      "nhla kanipho",
      "a mahle",
      "g ule",
      "gu gule",
      "kho motso",
      "gugule thu",
      "a k",
      "ob ak",
      "obak eng",
      "a lo",
      "le la",
      "nom pilo",
      "abu lela",
      "siy abulela",
      "bab alo",
      "d ney",
      "mo le",
      "sy dney",
      "m thob",
      "tsh o",
      "pon tsho",
      "mthob isi",
      "t en",
      "d rik",
      "hen drik",
      "r us",
      "en sani",
      "kh ensani",
      "pet rus",
      "kh ule",
      "khule kani",
      "k any",
      "n kany",
      "la ma",
      "lu lama",
      "nkany iso",
      "mpum i",
      "ga vin",
      "s celo",
      "on de",
      "nom onde",
      "w y",
      "wy n",
      "in a",
      "ong e",
      "lu sanda",
      "d es",
      "zi khona",
      "des mond",
      "ma m",
      "mo eke",
      "ke itum",
      "moeke tsi",
      "keitum etse",
      "x wel",
      "ma xwel",
      "nel iswa",
      "maxwel l",
      "i ty",
      "bong ane",
      "char ity",
      "mor ne",
      "c lem",
      "no k",
      "clem ent",
      "r on",
      "lind ani",
      "khany i",
      "pet ro",
      "ron el",
      "q a",
      "tham san",
      "thamsan qa",
      "ma pu",
      "thob ani",
      "mapu la",
      "wa zi",
      "pu lane",
      "no lwazi",
      "an el",
      "khay a",
      "anel isa",
      "zuk iswa",
      "t te",
      "ne tte",
      "ly nette",
      "les ley",
      "khany isa",
      "khu tso",
      "r ren",
      "mb uso",
      "wa rren",
      "wa ki",
      "ana thi",
      "chant el",
      "nts waki",
      "a viwe",
      "m du",
      "am ani",
      "c on",
      "is ang",
      "bong eka",
      "stan ce",
      "con stance",
      "v ela",
      "am u",
      "o d",
      "go od",
      "themb isile",
      "l ho",
      "on ke",
      "let lho",
      "letlho gonolo",
      "g ran",
      "gran t",
      "si sanda",
      "nom zamo",
      "id ge",
      "br idge",
      "bridge t",
      "r u",
      "nes s",
      "ru an",
      "k ie",
      "di mpho",
      "mb ong",
      "lind y",
      "sindi siwe",
      "mbong eni",
      "vuy ani",
      "h ma",
      "u si",
      "is hma",
      "mel usi",
      "ishma el",
      "bon tle",
      "nthab i",
      "se thu",
      "sipho sethu",
      "samk elisiwe",
      "u thu",
      "nt uthu",
      "ntuthu ko",
      "a siphe",
      "e thu",
      "in ess",
      "happ iness",
      "u ti",
      "ph uti",
      "vuy iswa",
      "tshi amo",
      "v us",
      "vus um",
      "v o",
      "ma si",
      "h an",
      "chant elle",
      "han nes",
      "c li",
      "y anga",
      "cli ve",
      "sina zo",
      "i pati",
      "se ipati",
      "c l",
      "d ise",
      "thab isile",
      "bule lani",
      "cl inton",
      "si bon",
      "non jabulo",
      "san elisiwe",
      "ph em",
      "non hle",
      "lu vuyo",
      "kgo tso",
      "a ko",
      "nts ako",
      "nom cebo",
      "na te",
      "fortu nate",
      "tin yiko",
      "th iwe",
      "khe thiwe",
      "f ani",
      "fani e",
      "and e",
      "mo ke",
      "ise tso",
      "ti isetso",
      "moke te",
      "sam ke",
      "khany o",
      "kh olofelo",
      "le thu",
      "k ela",
      "t elle",
      "y am",
      "es telle",
      "yam kela",
      "g c",
      "mo ja",
      "mond li",
      "moja lefa",
      "o s",
      "s nethemba",
      "ko os",
      "te bza",
      "kele lo",
      "tsi kelelo",
      "ze e",
      "ko ena",
      "ka lani",
      "nthab eleng",
      "ta kalani",
      "and isiwe",
      "si vuyile",
      "kele tso",
      "ken eilwe",
      "z el",
      "lu fu",
      "zel da",
      "lufu no",
      "g el",
      "amo gel",
      "amogel ang",
      "lind i",
      "b andile",
      "g on",
      "gon tse",
      "h es",
      "hes ter",
      "nto beko",
      "zo leka",
      "in ric",
      "he inric",
      "heinric h",
      "qu inton",
      "n yiko",
      "m en",
      "men zi",
      "themb elani",
      "vuy olwethu",
      "sph a",
      "o lebogeng",
      "p ert",
      "pert unia",
      "zi zipho",
      "thoko zile",
      "m pilo",
      "non ce",
      "lw ando",
      "p ab",
      "s the",
      "al lo",
      "nce ba",
      "pab allo",
      "i pelo",
      "bo ipelo",
      "n en",
      "s nen",
      "snen hlanhla",
      "h elo",
      "mb ulelo",
      "lung i",
      "vuy elwa",
      "kamo helo",
      "la lo",
      "themb isa",
      "mu lalo",
      "l ic",
      "m il",
      "w ise",
      "nonto kozo",
      "lic ent",
      "mil licent",
      "wise man",
      "char l",
      "nicole ne",
      "ma khosi",
      "siph amandla",
      "si za",
      "ke abe",
      "siza kele",
      "keabe tswe",
      "col leen",
      "w eli",
      "z weli",
      "phum eza",
      "a y",
      "a kani",
      "r am",
      "ab ram",
      "ts akani",
      "ha u",
      "mo hau",
      "fortu ne",
      "ay abonga",
      "mar tie",
      "o ra",
      "t ile",
      "ora tile",
      "sph e",
      "e ph",
      "ze thu",
      "rai m",
      "eph raim",
      "a ph",
      "s yanda",
      "le si",
      "aph elele",
      "lesi ba",
      "pp y",
      "po ppy",
      "lind elwa",
      "bong ekile",
      "ntomb enhle",
      "ma lebo",
      "el marie",
      "o gelo",
      "li siwe",
      "siph elele",
      "kga ogelo",
      "phi lisiwe",
      "noma themba",
      "n ka",
      "n kele",
      "te ko",
      "nka teko",
      "v elo",
      "m onge",
      "monge zi",
      "thab isa",
      "le bza",
      "wa khe",
      "mz wakhe",
      "man qob",
      "manqob a",
      "phum elele",
      "n di",
      "no zuko",
      "vhuw o",
      "ndi vhuwo",
      "lung isani",
      "ntombi zodwa",
      "a then",
      "innocent ia",
      "athen kosi",
      "i pon",
      "li vhuw",
      "mo ipon",
      "tshi fhiwa",
      "livhuw ani",
      "moipon e",
      "o kuhle",
      "u gelo",
      "chris tiaan",
      "kga ugelo",
      "mo sa",
      "d er",
      "w on",
      "y iso",
      "lo yiso",
      "om phile",
      "won der",
      "a d",
      "th uso",
      "marie tjie",
      "ad riaan",
      "o dwa",
      "mon de",
      "lond eka",
      "d ra",
      "ntomb ie",
      "nkosi khona",
      "sha dra",
      "shadra ck",
      "ma paseka",
      "f ez",
      "an the",
      "jo lene",
      "xole lwa",
      "fez eka",
      "anthe a",
      "e zile",
      "f ezile",
      "y ise",
      "ka yise",
      "ntombi kayise",
      "si bongiseni",
      "ren dani",
      "m si",
      "msi zi",
      "ts eng",
      "di eke",
      "dieke tseng",
      "thand olwethu",
      "liz elle",
      "nok wazi",
      "m nce",
      "si celo",
      "di si",
      "mnce disi",
      "m p",
      "n dudu",
      "si no",
      "en du",
      "busi e",
      "xol isa",
      "lehlo gonolo",
      "zol ani",
      "mp endu",
      "ndudu zo",
      "sino vuyo",
      "mpendu lo",
      "am thanda",
      "siy amthanda",
      "xolisi le",
      "mz amo",
      "l ina",
      "n ko",
      "p ano",
      "s ana",
      "w abo",
      "ko pano",
      "um usa",
      "bong umusa",
      "lon wabo",
      "lina h",
      "nko sana",
      "c um",
      "n cum",
      "ncum isa",
      "bong ie",
      "mam ello",
      "smang a",
      "s bo",
      "go mole",
      "gomole mo",
      "k ang",
      "t ale",
      "si viwe",
      "bo kang",
      "noku khanya",
      "let tie",
      "tale nt",
      "tsh olo",
      "as he",
      "tin ashe",
      "ts wa",
      "nto sh",
      "tin tswa",
      "tintswa lo",
      "lu zuko",
      "r ud",
      "rud zani",
      "s ne",
      "te ba",
      "teba tso",
      "ou ma",
      "lo ko",
      "mo loko",
      "t lw",
      "ku tlw",
      "da i",
      "ten dai",
      "kutlw ano",
      "a se",
      "ase mahle",
      "ro fhiwa",
      "lind elani",
      "lon dy",
      "i w",
      "y and",
      "no siph",
      "lu babalo",
      "thu lile",
      "vuy isile",
      "iw o",
      "yand isa",
      "nosiph iwo",
      "tse po",
      "ph ney",
      "ma li",
      "bong we",
      "da phney",
      "mali bongwe",
      "thu lane",
      "al ta",
      "themb ani",
      "xo la",
      "s bongiseni",
      "sand iso",
      "k elani",
      "lo ve",
      "la kele",
      "mo re",
      "tho lakele",
      "fun diswa",
      "amu kelani",
      "love more",
      "h ile",
      "r ele",
      "si sipho",
      "bo hile",
      "rele bohile",
      "i phile",
      "is ka",
      "ng iphile",
      "mar iska",
      "nkosi ngiphile",
      "s ba",
      "si lindile",
      "sba hle",
      "ma sa",
      "mb al",
      "lu vo",
      "zi masa",
      "lung iswa",
      "mbal ly",
      "c om",
      "mo ry",
      "busis wa",
      "me mory",
      "wel com",
      "welcom e",
      "an n",
      "mar inda",
      "thando kazi",
      "lee ann",
      "wyn and",
      "li ez",
      "liez el",
      "t ta",
      "z amani",
      "ale tta",
      "t lou",
      "phum za",
      "xo li",
      "l wandile",
      "z onke",
      "c or",
      "cor ne",
      "m m",
      "aba tho",
      "mm abatho",
      "a vela",
      "k es",
      "r hu",
      "si themb",
      "mo dise",
      "za kes",
      "rhu lani",
      "sithemb iso",
      "ph ela",
      "nolu babalo",
      "phela di",
      "b ello",
      "i k",
      "n ik",
      "te bello",
      "se si",
      "ren eilwe",
      "noku zola",
      "yol iswa",
      "nik iwe",
      "r or",
      "pin kie",
      "zol iswa",
      "ror isang",
      "m ka",
      "lu mka",
      "jaco bus",
      "d zi",
      "li dzi",
      "tshi lidzi",
      "good ness",
      "j iwe",
      "l ly",
      "thu lly",
      "then jiwe",
      "e tsi",
      "thand iswa",
      "tsi etsi",
      "h lon",
      "hlon i",
      "si le",
      "thab sile",
      "kw ena",
      "yol andi",
      "nolu vuyo",
      "on wyn",
      "is eka",
      "vuy iseka",
      "thanda zile",
      "br onwyn",
      "c el",
      "i tha",
      "m kh",
      "u zi",
      "zi mkh",
      "nom hle",
      "vusum uzi",
      "cel iwe",
      "zimkh itha",
      "themb ela",
      "do rah",
      "t man",
      "thand y",
      "c ia",
      "m er",
      "lu ten",
      "pum la",
      "mer cia",
      "luten do",
      "bon iswa",
      "bon isiwe",
      "mo leboh",
      "mole fi",
      "masi xole",
      "moleboh eng",
      "s abe",
      "el sabe",
      "mo lebogeng",
      "lung ani",
      "themba kazi",
      "pet unia",
      "zamo kuhle",
      "sbu da",
      "l d",
      "wa ld",
      "de wald",
      "tshep i",
      "g abo",
      "k gabo",
      "thab elo",
      "ry no",
      "sibon iso",
      "m es",
      "ha ck",
      "khumbu lani",
      "mes hack",
      "ma hlo",
      "lu khanyo",
      "thab i",
      "es ethu",
      "mahlo di",
      "ts ana",
      "se tsana",
      "mon wab",
      "ba setsana",
      "monwab isi",
      "g h",
      "lind ie",
      "non o",
      "bri gh",
      "phem elo",
      "brigh ton",
      "s fundo",
      "ma lu",
      "tum isang",
      "sand e",
      "anna tjie",
      "phila sande",
      "malu si",
      "k iso",
      "s o",
      "bo kamo",
      "tan kiso",
      "bokamo so",
      "lung ie",
      "ses ethu",
      "i hle",
      "m hleng",
      "lo ven",
      "em ihle",
      "good man",
      "mhleng i",
      "loven ess",
      "a sa",
      "e hi",
      "ka lo",
      "mo di",
      "da kalo",
      "asa vela",
      "modi ehi",
      "q in",
      "qin iso",
      "bu yi",
      "tho zama",
      "sina h",
      "ma ze",
      "maze t",
      "k amani",
      "n am",
      "noma sonto",
      "pha kamani",
      "nam hla",
      "r pris",
      "s u",
      "y andiswa",
      "bu ti",
      "rpris e",
      "su rprise",
      "a zola",
      "n ku",
      "z en",
      "le fu",
      "ma lefu",
      "lu tho",
      "themb ekile",
      "nku le",
      "zen ande",
      "z and",
      "sand isiwe",
      "zand y",
      "z andi",
      "pi tso",
      "i t",
      "w it",
      "thand ekile",
      "mo koena",
      "wit ness",
      "son wab",
      "gc ina",
      "sonwab ile",
      "ne ka",
      "non tsikelelo",
      "fu neka",
      "thand ie",
      "co bus",
      "mahla ko",
      "m thu",
      "n zi",
      "ma mokete",
      "mthu nzi",
      "f rik",
      "an sie",
      "ke amo",
      "ge tswe",
      "frik kie",
      "keamo getswe",
      "a sive",
      "t wa",
      "man twa",
      "si mam",
      "ma thabo",
      "no sihle",
      "nhla ka",
      "simam kele",
      "h l",
      "m zuk",
      "n hl",
      "w ande",
      "ma les",
      "ma wande",
      "isi e",
      "mpho za",
      "me isie",
      "amu lo",
      "masi lo",
      "mzuk isi",
      "nhl amulo",
      "males ela",
      "k elisiwe",
      "u kelisiwe",
      "sam ukelisiwe",
      "ob isa",
      "om phem",
      "khay elihle",
      "gc obisa",
      "omphem etse",
      "y iswa",
      "bu yiswa",
      "themb ile",
      "zu kile",
      "n tsikelelo",
      "le lethu",
      "kho leka",
      "vusum zi",
      "a ki",
      "n tso",
      "ntso aki",
      "w ie",
      "is ho",
      "um o",
      "kh umo",
      "da wie",
      "kag isho",
      "sibon elo",
      "a lebog",
      "ang ele",
      "ke filwe",
      "ke alebog",
      "sim angele",
      "nonce ba",
      "kealebog a",
      "t la",
      "mo tla",
      "nom vuyo",
      "se ben",
      "da leen",
      "motla tsi",
      "seben zile",
      "ntomb y",
      "go mo",
      "mo gomo",
      "mogomo tsi",
      "ong wa",
      "mor ongwa",
      "nceba kazi",
      "b y",
      "d ile",
      "m fana",
      "s el",
      "sin dile",
      "mfana futhi",
      "sel by",
      "thob ekile",
      "o xolo",
      "y olo",
      "lu yolo",
      "ntomb oxolo",
      "pum eza",
      "nok thula",
      "bong s",
      "se ch",
      "kho tso",
      "sech aba",
      "i ze",
      "an nel",
      "jabu lane",
      "thando h",
      "annel ize",
      "s li",
      "mo tshidi",
      "nom khosi",
      "sli e",
      "motshidi si",
      "k wazi",
      "sand iswa",
      "mas aba",
      "masaba ta",
      "m nqob",
      "siy as",
      "lule ka",
      "mnqob i",
      "siyas anga",
      "nonce do",
      "phum ud",
      "pum za",
      "phumud zo",
      "a vuyile",
      "n khensani",
      "dise bo",
      "t ando",
      "ku lani",
      "non tando",
      "m abong",
      "and le",
      "lw andle",
      "nolu vo",
      "mabong i",
      "z ane",
      "thoko zane",
      "mpum ie",
      "ale thu",
      "khay alethu",
      "m velo",
      "nom velo",
      "thob ela",
      "dum sani",
      "s onge",
      "no li",
      "songe zo",
      "noli tha",
      "ong ez",
      "lung y",
      "ongez iwe"
    ]
  }
}