{
    "version": "1.0",
    "truncation": null,
    "padding": null,
    "added_tokens": [
        {
            "id": 0,
            "content": "[UNK]",
            "single_word": false,
            "lstrip": false,
            "rstrip": false,
            "normalized": false,
            "special": true
        },
        {
            "id": 1,
            "content": "[CLS]",
            "single_word": false,
            "lstrip": false,
            "rstrip": false,
            "normalized": false,
            "special": true
        },
        {
            "id": 2,
            "content": "[SEP]",
            "single_word": false,
            "lstrip": false,
            "rstrip": false,
            "normalized": false,
            "special": true
        },
        {
            "id": 3,
            "content": "[PAD]",
            "single_word": false,
            "lstrip": false,
            "rstrip": false,
            "normalized": false,
            "special": true
        },
        {
            "id": 4,
            "content": "[MASK]",
            "single_word": false,
            "lstrip": false,
            "rstrip": false,
            "normalized": false,
            "special": true
        }
    ],
    "normalizer": null,
    "pre_tokenizer": {
        "type": "Whitespace"
    },
    "post_processor": null,
    "decoder": null,
    "model": {
        "type": "BPE",
        "dropout": null,
        "unk_token": "[UNK]",
        "continuing_subword_prefix": null,
        "end_of_word_suffix": null,
        "fuse_unk": false,
        "vocab": {
            "[UNK]": 0,
            "[CLS]": 1,
            "[SEP]": 2,
            "[PAD]": 3,
            "[MASK]": 4,
            "-": 5,
            "a": 6,
            "b": 7,
            "c": 8,
            "d": 9,
            "e": 10,
            "f": 11,
            "g": 12,
            "h": 13,
            "i": 14,
            "j": 15,
            "k": 16,
            "l": 17,
            "m": 18,
            "n": 19,
            "o": 20,
            "p": 21,
            "q": 22,
            "r": 23,
            "s": 24,
            "t": 25,
            "u": 26,
            "v": 27,
            "w": 28,
            "x": 29,
            "y": 30,
            "z": 31,
            "ha": 32,
            "ma": 33,
            "ra": 34,
            "sa": 35,
            "sh": 36,
            "me": 37,
            "mo": 38,
            "md": 39,
            "med": 40,
            "an": 41,
            "ab": 42,
            "ul": 43,
            "ee": 44,
            "al": 45,
            "mad": 46,
            "ar": 47,
            "sha": 48,
            "am": 49,
            "in": 50,
            "su": 51,
            "raj": 52,
            "abd": 53,
            "mu": 54,
            "ah": 55,
            "man": 56,
            "na": 57,
            "il": 58,
            "esh": 59,
            "ja": 60,
            "ir": 61,
            "san": 62,
            "mar": 63,
            "im": 64,
            "id": 65,
            "ash": 66,
            "ham": 67,
            "ri": 68,
            "fa": 69,
            "el": 70,
            "nd": 71,
            "as": 72,
            "muham": 73,
            "it": 74,
            "sal": 75,
            "ali": 76,
            "mal": 77,
            "ram": 78,
            "ak": 79,
            "jay": 80,
            "ran": 81,
            "rah": 82,
            "kha": 83,
            "bi": 84,
            "ndra": 85,
            "pra": 86,
            "er": 87,
            "ed": 88,
            "ka": 89,
            "ro": 90,
            "jo": 91,
            "ur": 92,
            "th": 93,
            "mah": 94,
            "ad": 95,
            "endra": 96,
            "la": 97,
            "jit": 98,
            "no": 99,
            "dee": 100,
            "han": 101,
            "khal": 102,
            "un": 103,
            "abu": 104,
            "vi": 105,
            "eer": 106,
            "mesh": 107,
            "ik": 108,
            "if": 109,
            "bin": 110,
            "sur": 111,
            "ud": 112,
            "ib": 113,
            "or": 114,
            "se": 115,
            "moh": 116,
            "ip": 117,
            "ta": 118,
            "sam": 119,
            "pr": 120,
            "ya": 121,
            "raf": 122,
            "so": 123,
            "sun": 124,
            "cha": 125,
            "nas": 126,
            "ni": 127,
            "od": 128,
            "eem": 129,
            "osh": 130,
            "em": 131,
            "oj": 132,
            "dip": 133,
            "sant": 134,
            "kash": 135,
            "az": 136,
            "eed": 137,
            "shad": 138,
            "is": 139,
            "us": 140,
            "ish": 141,
            "yam": 142,
            "rish": 143,
            "ju": 144,
            "vin": 145,
            "nu": 146,
            "yed": 147,
            "gan": 148,
            "far": 149,
            "kar": 150,
            "iz": 151,
            "din": 152,
            "rash": 153,
            "iv": 154,
            "sad": 155,
            "sar": 156,
            "mahmo": 157,
            "ba": 158,
            "da": 159,
            "ga": 160,
            "lah": 161,
            "meer": 162,
            "go": 163,
            "jith": 164,
            "yo": 165,
            "mun": 166,
            "jan": 167,
            "pa": 168,
            "lam": 169,
            "iq": 170,
            "war": 171,
            "wan": 172,
            "ru": 173,
            "ssan": 174,
            "jee": 175,
            "yas": 176,
            "on": 177,
            "mon": 178,
            "es": 179,
            "bash": 180,
            "ek": 181,
            "inc": 182,
            "princ": 183,
            "mus": 184,
            "ok": 185,
            "gar": 186,
            "lo": 187,
            "lov": 188,
            "bh": 189,
            "isal": 190,
            "bir": 191,
            "tafa": 192,
            "fat": 193,
            "har": 194,
            "ima": 195,
            "mer": 196,
            "tar": 197,
            "saj": 198,
            "nou": 199,
            "lal": 200,
            "hn": 201,
            "dil": 202,
            "hel": 203,
            "yan": 204,
            "ala": 205,
            "ser": 206,
            "wa": 207,
            "mail": 208,
            "tan": 209,
            "een": 210,
            "gir": 211,
            "mi": 212,
            "iva": 213,
            "nur": 214,
            "sul": 215,
            "bel": 216,
            "tha": 217,
            "you": 218,
            "shnu": 219,
            "jun": 220,
            "eesh": 221,
            "had": 222,
            "za": 223,
            "om": 224,
            "lax": 225,
            "abo": 226,
            "af": 227,
            "par": 228,
            "hil": 229,
            "sain": 230,
            "dan": 231,
            "nab": 232,
            "ndar": 233,
            "sud": 234,
            "hi": 235,
            "gop": 236,
            "sr": 237,
            "mod": 238,
            "ay": 239,
            "bib": 240,
            "naz": 241,
            "ge": 242,
            "sel": 243,
            "ai": 244,
            "nan": 245,
            "amr": 246,
            "hus": 247,
            "sef": 248,
            "bu": 249,
            "jahan": 250,
            "os": 251,
            "sim": 252,
            "nar": 253,
            "nav": 254,
            "si": 255,
            "bha": 256,
            "uk": 257,
            "she": 258,
            "ely": 259,
            "jame": 260,
            "bil": 261,
            "ki": 262,
            "he": 263,
            "zal": 264,
            "santh": 265,
            "joy": 266,
            "fan": 267,
            "hab": 268,
            "fir": 269,
            "shaf": 270,
            "dam": 271,
            "rak": 272,
            "jad": 273,
            "stafa": 274,
            "wal": 275,
            "bal": 276,
            "ph": 277,
            "mil": 278,
            "kir": 279,
            "lu": 280,
            "dra": 281,
            "kan": 282,
            "re": 283,
            "bhu": 284,
            "sk": 285,
            "ji": 286,
            "tam": 287,
            "endar": 288,
            "ahid": 289,
            "osa": 290,
            "suf": 291,
            "de": 292,
            "dev": 293,
            "chael": 294,
            "sin": 295,
            "rif": 296,
            "ex": 297,
            "was": 298,
            "bar": 299,
            "gul": 300,
            "bas": 301,
            "eel": 302,
            "jeev": 303,
            "pu": 304,
            "sho": 305,
            "dur": 306,
            "gh": 307,
            "jeeb": 308,
            "pin": 309,
            "ck": 310,
            "jab": 311,
            "kam": 312,
            "ssim": 313,
            "sum": 314,
            "shi": 315,
            "anu": 316,
            "ano": 317,
            "muba": 318,
            "eek": 319,
            "vid": 320,
            "et": 321,
            "maj": 322,
            "yaz": 323,
            "govin": 324,
            "anan": 325,
            "niz": 326,
            "sudh": 327,
            "zak": 328,
            "kab": 329,
            "jam": 330,
            "hit": 331,
            "hail": 332,
            "eef": 333,
            "eh": 334,
            "hos": 335,
            "bair": 336,
            "shim": 337,
            "srin": 338,
            "orge": 339,
            "theesh": 340,
            "hada": 341,
            "gendra": 342,
            "mustha": 343,
            "mura": 344,
            "dhar": 345,
            "dharme": 346,
            "pan": 347,
            "sat": 348,
            "shak": 349,
            "zwan": 350,
            "hin": 351,
            "shal": 352,
            "manso": 353,
            "um": 354,
            "abdal": 355,
            "pur": 356,
            "rat": 357,
            "hu": 358,
            "shar": 359,
            "shek": 360,
            "aya": 361,
            "bind": 362,
            "veen": 363,
            "fath": 364,
            "hame": 365,
            "ved": 366,
            "oz": 367,
            "mee": 368,
            "jib": 369,
            "gel": 370,
            "gur": 371,
            "miz": 372,
            "faro": 373,
            "oma": 374,
            "pet": 375,
            "mmad": 376,
            "rd": 377,
            "noo": 378,
            "ifa": 379,
            "ita": 380,
            "bab": 381,
            "pri": 382,
            "nadee": 383,
            "li": 384,
            "eeq": 385,
            "kamr": 386,
            "ussef": 387,
            "iel": 388,
            "selv": 389,
            "ny": 390,
            "ess": 391,
            "up": 392,
            "yu": 393,
            "luck": 394,
            "pard": 395,
            "uddin": 396,
            "di": 397,
            "saf": 398,
            "ke": 399,
            "muth": 400,
            "pon": 401,
            "ppu": 402,
            "dar": 403,
            "hag": 404,
            "shib": 405,
            "cis": 406,
            "rul": 407,
            "nir": 408,
            "ton": 409,
            "av": 410,
            "ber": 411,
            "yad": 412,
            "tu": 413,
            "tab": 414,
            "lit": 415,
            "op": 416,
            "aj": 417,
            "udd": 418,
            "ey": 419,
            "shil": 420,
            "ith": 421,
            "bub": 422,
            "hadat": 423,
            "hem": 424,
            "ti": 425,
            "rar": 426,
            "zi": 427,
            "subha": 428,
            "min": 429,
            "tim": 430,
            "ubair": 431,
            "rai": 432,
            "kish": 433,
            "ep": 434,
            "nep": 435,
            "htar": 436,
            "eev": 437,
            "oor": 438,
            "sein": 439,
            "shr": 440,
            "ulam": 441,
            "ivas": 442,
            "nth": 443,
            "senth": 444,
            "til": 445,
            "del": 446,
            "var": 447,
            "moid": 448,
            "naid": 449,
            "kaj": 450,
            "sri": 451,
            "ushad": 452,
            "mood": 453,
            "sulai": 454,
            "rj": 455,
            "som": 456,
            "nda": 457,
            "sak": 458,
            "ub": 459,
            "wsar": 460,
            "ilash": 461,
            "zad": 462,
            "pesh": 463,
            "ttam": 464,
            "ghan": 465,
            "oq": 466,
            "sil": 467,
            "amee": 468,
            "qas": 469,
            "hon": 470,
            "jal": 471,
            "eep": 472,
            "sampa": 473,
            "theef": 474,
            "santha": 475,
            "mul": 476,
            "kul": 477,
            "sujo": 478,
            "do": 479,
            "thik": 480,
            "ef": 481,
            "jef": 482,
            "ung": 483,
            "ranjee": 484,
            "gudd": 485,
            "eez": 486,
            "esi": 487,
            "dul": 488,
            "sath": 489,
            "anee": 490,
            "ola": 491,
            "nik": 492,
            "cham": 493,
            "vek": 494,
            "inda": 495,
            "dish": 496,
            "gdish": 497,
            "haro": 498,
            "hud": 499,
            "eet": 500,
            "ku": 501,
            "red": 502,
            "iju": 503,
            "oud": 504,
            "vanan": 505,
            "rk": 506,
            "samee": 507,
            "kas": 508,
            "qt": 509,
            "qtr": 510,
            "tek": 511,
            "ez": 512,
            "vez": 513,
            "mta": 514,
            "mumta": 515,
            "eefa": 516,
            "zee": 517,
            "desh": 518,
            "rud": 519,
            "hid": 520,
            "utam": 521,
            "pil": 522,
            "zem": 523,
            "en": 524,
            "zen": 525,
            "abhil": 526,
            "aib": 527,
            "bad": 528,
            "mith": 529,
            "mat": 530,
            "bbir": 531,
            "hmmad": 532,
            "nal": 533,
            "eeb": 534,
            "ikha": 535,
            "lak": 536,
            "shmi": 537,
            "gal": 538,
            "njith": 539,
            "biul": 540,
            "zah": 541,
            "mmed": 542,
            "cin": 543,
            "tak": 544,
            "hul": 545,
            "eshi": 546,
            "foor": 547,
            "andan": 548,
            "yantha": 549,
            "bun": 550,
            "binda": 551,
            "indi": 552,
            "gad": 553,
            "gangad": 554,
            "oth": 555,
            "unus": 556,
            "sik": 557,
            "andar": 558,
            "meem": 559,
            "bri": 560,
            "jesh": 561,
            "ej": 562,
            "tej": 563,
            "ghe": 564,
            "varghe": 565,
            "asan": 566,
            "net": 567,
            "waz": 568,
            "shav": 569,
            "sobu": 570,
            "nit": 571,
            "auddin": 572,
            "gesh": 573,
            "imti": 574,
            "owar": 575,
            "anam": 576,
            "udhar": 577,
            "chaudhar": 578,
            "ter": 579,
            "hav": 580,
            "dhe": 581,
            "kur": 582,
            "hur": 583,
            "khur": 584,
            "shid": 585,
            "uz": 586,
            "sapan": 587,
            "ko": 588,
            "oy": 589,
            "dhi": 590,
            "kta": 591,
            "sit": 592,
            "zoor": 593,
            "kal": 594,
            "duk": 595,
            "ked": 596,
            "gor": 597,
            "seer": 598,
            "hun": 599,
            "lim": 600,
            "ii": 601,
            "xa": 602,
            "gam": 603,
            "alom": 604,
            "wel": 605,
            "wor": 606,
            "prata": 607,
            "estha": 608,
            "budd": 609,
            "rame": 610,
            "raz": 611,
            "faraz": 612,
            "jiv": 613,
            "jul": 614,
            "dal": 615,
            "jur": 616,
            "hman": 617,
            "rhman": 618,
            "sanjee": 619,
            "sheer": 620,
            "roz": 621,
            "ajee": 622,
            "beli": 623,
            "be": 624,
            "hom": 625,
            "jip": 626,
            "aey": 627,
            "eeth": 628,
            "suran": 629,
            "dka": 630,
            "wad": 631,
            "jha": 632,
            "uka": 633,
            "shouka": 634,
            "braj": 635,
            "pal": 636,
            "eera": 637,
            "araj": 638,
            "ac": 639,
            "hh": 640,
            "jibac": 641
        },
        "merges": [
            "h a",
            "m a",
            "r a",
            "s a",
            "s h",
            "m e",
            "m o",
            "m d",
            "me d",
            "a n",
            "a b",
            "u l",
            "e e",
            "a l",
            "ma d",
            "a r",
            "s ha",
            "a m",
            "i n",
            "s u",
            "ra j",
            "ab d",
            "m u",
            "a h",
            "ma n",
            "n a",
            "i l",
            "e sh",
            "j a",
            "i r",
            "sa n",
            "ma r",
            "i m",
            "i d",
            "a sh",
            "ha m",
            "r i",
            "f a",
            "e l",
            "n d",
            "a s",
            "mu ham",
            "i t",
            "sa l",
            "al i",
            "ma l",
            "ra m",
            "a k",
            "ja y",
            "ra n",
            "ra h",
            "k ha",
            "b i",
            "nd ra",
            "p ra",
            "e r",
            "e d",
            "k a",
            "r o",
            "j o",
            "u r",
            "t h",
            "ma h",
            "a d",
            "e ndra",
            "l a",
            "j it",
            "n o",
            "d ee",
            "ha n",
            "kha l",
            "u n",
            "ab u",
            "v i",
            "ee r",
            "me sh",
            "i k",
            "i f",
            "b in",
            "su r",
            "u d",
            "i b",
            "o r",
            "s e",
            "mo h",
            "i p",
            "t a",
            "sa m",
            "p r",
            "y a",
            "ra f",
            "s o",
            "su n",
            "c ha",
            "na s",
            "n i",
            "o d",
            "ee m",
            "o sh",
            "e m",
            "o j",
            "d ip",
            "san t",
            "k ash",
            "a z",
            "ee d",
            "sha d",
            "i s",
            "u s",
            "i sh",
            "y am",
            "ri sh",
            "j u",
            "v in",
            "n u",
            "y ed",
            "g an",
            "f ar",
            "k ar",
            "i z",
            "d in",
            "ra sh",
            "i v",
            "sa d",
            "sa r",
            "mah mo",
            "b a",
            "d a",
            "g a",
            "l ah",
            "me er",
            "g o",
            "jit h",
            "y o",
            "mu n",
            "j an",
            "p a",
            "l am",
            "i q",
            "w ar",
            "w an",
            "r u",
            "s san",
            "j ee",
            "y as",
            "o n",
            "mo n",
            "e s",
            "b ash",
            "e k",
            "in c",
            "pr inc",
            "mu s",
            "o k",
            "g ar",
            "l o",
            "lo v",
            "b h",
            "i sal",
            "b ir",
            "ta fa",
            "fa t",
            "ha r",
            "i ma",
            "me r",
            "t ar",
            "sa j",
            "no u",
            "l al",
            "h n",
            "d il",
            "h el",
            "y an",
            "al a",
            "s er",
            "w a",
            "ma il",
            "t an",
            "ee n",
            "g ir",
            "m i",
            "iv a",
            "n ur",
            "s ul",
            "b el",
            "t ha",
            "yo u",
            "sh nu",
            "j un",
            "ee sh",
            "ha d",
            "z a",
            "o m",
            "la x",
            "ab o",
            "a f",
            "p ar",
            "h il",
            "sa in",
            "d an",
            "n ab",
            "nd ar",
            "su d",
            "h i",
            "go p",
            "s r",
            "mo d",
            "a y",
            "bi b",
            "na z",
            "g e",
            "s el",
            "a i",
            "n an",
            "am r",
            "h us",
            "se f",
            "b u",
            "ja han",
            "o s",
            "s im",
            "n ar",
            "na v",
            "s i",
            "b ha",
            "u k",
            "sh e",
            "el y",
            "ja me",
            "b il",
            "k i",
            "h e",
            "z al",
            "san th",
            "jo y",
            "f an",
            "ha b",
            "f ir",
            "sha f",
            "d am",
            "ra k",
            "ja d",
            "s tafa",
            "w al",
            "b al",
            "p h",
            "m il",
            "k ir",
            "l u",
            "d ra",
            "k an",
            "r e",
            "bh u",
            "s k",
            "j i",
            "t am",
            "e ndar",
            "ah id",
            "o sa",
            "su f",
            "d e",
            "de v",
            "cha el",
            "s in",
            "ri f",
            "e x",
            "w as",
            "b ar",
            "g ul",
            "b as",
            "ee l",
            "jee v",
            "p u",
            "sh o",
            "d ur",
            "g h",
            "jee b",
            "p in",
            "c k",
            "j ab",
            "k am",
            "s sim",
            "su m",
            "sh i",
            "an u",
            "an o",
            "mu ba",
            "ee k",
            "v id",
            "e t",
            "ma j",
            "ya z",
            "go vin",
            "an an",
            "ni z",
            "sud h",
            "z ak",
            "k ab",
            "j am",
            "h it",
            "ha il",
            "ee f",
            "e h",
            "h os",
            "ba ir",
            "sh im",
            "sr in",
            "or ge",
            "th eesh",
            "ha da",
            "g endra",
            "mus tha",
            "mu ra",
            "d har",
            "dhar me",
            "p an",
            "sa t",
            "sha k",
            "z wan",
            "h in",
            "sha l",
            "man so",
            "u m",
            "abd al",
            "p ur",
            "ra t",
            "h u",
            "sha r",
            "sh ek",
            "a ya",
            "bin d",
            "v een",
            "fa th",
            "ha me",
            "v ed",
            "o z",
            "me e",
            "j ib",
            "g el",
            "g ur",
            "m iz",
            "far o",
            "o ma",
            "p et",
            "m mad",
            "r d",
            "no o",
            "i fa",
            "it a",
            "b ab",
            "p ri",
            "na dee",
            "l i",
            "ee q",
            "k amr",
            "us sef",
            "i el",
            "sel v",
            "n y",
            "es s",
            "u p",
            "y u",
            "lu ck",
            "par d",
            "ud din",
            "d i",
            "sa f",
            "k e",
            "mu th",
            "p on",
            "p pu",
            "d ar",
            "ha g",
            "sh ib",
            "c is",
            "r ul",
            "n ir",
            "t on",
            "a v",
            "b er",
            "y ad",
            "t u",
            "t ab",
            "l it",
            "o p",
            "a j",
            "ud d",
            "e y",
            "sh il",
            "it h",
            "bu b",
            "hada t",
            "h em",
            "t i",
            "ra r",
            "z i",
            "su bha",
            "m in",
            "t im",
            "u bair",
            "ra i",
            "k ish",
            "e p",
            "n ep",
            "h tar",
            "ee v",
            "o or",
            "se in",
            "sh r",
            "ul am",
            "iv as",
            "n th",
            "se nth",
            "t il",
            "d el",
            "v ar",
            "mo id",
            "na id",
            "ka j",
            "s ri",
            "u shad",
            "mo od",
            "sul ai",
            "r j",
            "so m",
            "nd a",
            "sa k",
            "u b",
            "w sar",
            "il ash",
            "z ad",
            "p esh",
            "t tam",
            "g han",
            "o q",
            "s il",
            "a mee",
            "q as",
            "h on",
            "j al",
            "ee p",
            "sam pa",
            "th eef",
            "sant ha",
            "m ul",
            "k ul",
            "su jo",
            "d o",
            "th ik",
            "e f",
            "j ef",
            "un g",
            "ran jee",
            "g udd",
            "ee z",
            "es i",
            "d ul",
            "sa th",
            "an ee",
            "o la",
            "n ik",
            "c ham",
            "v ek",
            "in da",
            "d ish",
            "g dish",
            "ha ro",
            "h ud",
            "ee t",
            "k u",
            "r ed",
            "i ju",
            "o ud",
            "v anan",
            "r k",
            "sa mee",
            "k as",
            "q t",
            "qt r",
            "t ek",
            "e z",
            "v ez",
            "m ta",
            "mu mta",
            "ee fa",
            "z ee",
            "d esh",
            "r ud",
            "h id",
            "u tam",
            "p il",
            "z em",
            "e n",
            "z en",
            "ab hil",
            "a ib",
            "b ad",
            "m ith",
            "ma t",
            "b bir",
            "h mmad",
            "n al",
            "ee b",
            "i kha",
            "l ak",
            "sh mi",
            "g al",
            "n jith",
            "bi ul",
            "z ah",
            "m med",
            "c in",
            "t ak",
            "h ul",
            "esh i",
            "f oor",
            "an dan",
            "yan tha",
            "b un",
            "bin da",
            "in di",
            "g ad",
            "gan gad",
            "o th",
            "un us",
            "s ik",
            "an dar",
            "me em",
            "b ri",
            "j esh",
            "e j",
            "t ej",
            "g he",
            "var ghe",
            "a san",
            "n et",
            "w az",
            "sha v",
            "so bu",
            "n it",
            "a uddin",
            "g esh",
            "im ti",
            "o war",
            "an am",
            "ud har",
            "cha udhar",
            "t er",
            "ha v",
            "d he",
            "k ur",
            "h ur",
            "k hur",
            "sh id",
            "u z",
            "sa pan",
            "k o",
            "o y",
            "d hi",
            "k ta",
            "s it",
            "z oor",
            "k al",
            "d uk",
            "k ed",
            "g or",
            "s eer",
            "h un",
            "l im",
            "i i",
            "x a",
            "g am",
            "al om",
            "w el",
            "w or",
            "pra ta",
            "es tha",
            "b udd",
            "ra me",
            "ra z",
            "fa raz",
            "j iv",
            "j ul",
            "d al",
            "j ur",
            "h man",
            "r hman",
            "san jee",
            "sh eer",
            "ro z",
            "a jee",
            "bel i",
            "b e",
            "h om",
            "j ip",
            "a ey",
            "ee th",
            "su ran",
            "d ka",
            "w ad",
            "j ha",
            "u ka",
            "sho uka",
            "b raj",
            "p al",
            "ee ra",
            "a raj",
            "a c",
            "h h",
            "jib ac"
        ]
    }
}