{
    "version": "1.0",
    "truncation": null,
    "padding": null,
    "added_tokens": [
        {
            "id": 0,
            "content": "[UNK]",
            "single_word": false,
            "lstrip": false,
            "rstrip": false,
            "normalized": false,
            "special": true
        },
        {
            "id": 1,
            "content": "[CLS]",
            "single_word": false,
            "lstrip": false,
            "rstrip": false,
            "normalized": false,
            "special": true
        },
        {
            "id": 2,
            "content": "[SEP]",
            "single_word": false,
            "lstrip": false,
            "rstrip": false,
            "normalized": false,
            "special": true
        },
        {
            "id": 3,
            "content": "[PAD]",
            "single_word": false,
            "lstrip": false,
            "rstrip": false,
            "normalized": false,
            "special": true
        },
        {
            "id": 4,
            "content": "[MASK]",
            "single_word": false,
            "lstrip": false,
            "rstrip": false,
            "normalized": false,
            "special": true
        }
    ],
    "normalizer": null,
    "pre_tokenizer": {
        "type": "Whitespace"
    },
    "post_processor": null,
    "decoder": null,
    "model": {
        "type": "BPE",
        "dropout": null,
        "unk_token": "[UNK]",
        "continuing_subword_prefix": null,
        "end_of_word_suffix": null,
        "fuse_unk": false,
        "vocab": {
            "[UNK]": 0,
            "[CLS]": 1,
            "[SEP]": 2,
            "[PAD]": 3,
            "[MASK]": 4,
            "a": 5,
            "b": 6,
            "c": 7,
            "d": 8,
            "e": 9,
            "f": 10,
            "g": 11,
            "h": 12,
            "i": 13,
            "j": 14,
            "k": 15,
            "l": 16,
            "m": 17,
            "n": 18,
            "o": 19,
            "p": 20,
            "q": 21,
            "r": 22,
            "s": 23,
            "t": 24,
            "u": 25,
            "v": 26,
            "w": 27,
            "x": 28,
            "y": 29,
            "z": 30,
            "an": 31,
            "le": 32,
            "th": 33,
            "si": 34,
            "on": 35,
            "and": 36,
            "el": 37,
            "is": 38,
            "ph": 39,
            "ab": 40,
            "in": 41,
            "ile": 42,
            "en": 43,
            "ma": 44,
            "ts": 45,
            "no": 46,
            "we": 47,
            "ani": 48,
            "lo": 49,
            "am": 50,
            "mb": 51,
            "la": 52,
            "ic": 53,
            "ka": 54,
            "ele": 55,
            "lu": 56,
            "thab": 57,
            "to": 58,
            "ko": 59,
            "um": 60,
            "ong": 61,
            "elo": 62,
            "hle": 63,
            "bo": 64,
            "wa": 65,
            "ha": 66,
            "es": 67,
            "ia": 68,
            "iso": 69,
            "pho": 70,
            "re": 71,
            "iwe": 72,
            "go": 73,
            "ind": 74,
            "te": 75,
            "the": 76,
            "ra": 77,
            "bu": 78,
            "jo": 79,
            "li": 80,
            "tsh": 81,
            "ang": 82,
            "zi": 83,
            "kh": 84,
            "us": 85,
            "themb": 86,
            "ng": 87,
            "thand": 88,
            "ol": 89,
            "thu": 90,
            "mo": 91,
            "di": 92,
            "lind": 93,
            "pa": 94,
            "ne": 95,
            "tso": 96,
            "mar": 97,
            "nom": 98,
            "na": 99,
            "tho": 100,
            "ce": 101,
            "se": 102,
            "er": 103,
            "joh": 104,
            "zo": 105,
            "tha": 106,
            "sa": 107,
            "il": 108,
            "vu": 109,
            "ke": 110,
            "ku": 111,
            "ie": 112,
            "har": 113,
            "tshe": 114,
            "tum": 115,
            "du": 116,
            "or": 117,
            "non": 118,
            "hla": 119,
            "isi": 120,
            "mon": 121,
            "nto": 122,
            "isa": 123,
            "da": 124,
            "ca": 125,
            "tshep": 126,
            "ch": 127,
            "iswa": 128,
            "sam": 129,
            "olo": 130,
            "lung": 131,
            "lan": 132,
            "abu": 133,
            "ric": 134,
            "un": 135,
            "ja": 136,
            "vuy": 137,
            "ine": 138,
            "eka": 139,
            "za": 140,
            "pat": 141,
            "ris": 142,
            "amo": 143,
            "id": 144,
            "hlan": 145,
            "hlanhla": 146,
            "lera": 147,
            "mic": 148,
            "thi": 149,
            "pe": 150,
            "siy": 151,
            "ter": 152,
            "abong": 153,
            "ren": 154,
            "ky": 155,
            "kosi": 156,
            "ule": 157,
            "ob": 158,
            "eng": 159,
            "char": 160,
            "as": 161,
            "ntomb": 162,
            "itum": 163,
            "pr": 164,
            "ge": 165,
            "bon": 166,
            "jac": 167,
            "tle": 168,
            "al": 169,
            "ly": 170,
            "nes": 171,
            "phum": 172,
            "xol": 173,
            "pum": 174,
            "gu": 175,
            "pre": 176,
            "nel": 177,
            "luc": 178,
            "vin": 179,
            "abonga": 180,
            "mand": 181,
            "ent": 182,
            "thob": 183,
            "noku": 184,
            "nthab": 185,
            "vid": 186,
            "eli": 187,
            "tin": 188,
            "qu": 189,
            "ho": 190,
            "ri": 191,
            "any": 192,
            "ela": 193,
            "abelo": 194,
            "ise": 195,
            "ran": 196,
            "sph": 197,
            "les": 198,
            "ort": 199,
            "zile": 200,
            "jan": 201,
            "abo": 202,
            "tse": 203,
            "illi": 204,
            "katle": 205,
            "ert": 206,
            "nic": 207,
            "dum": 208,
            "hael": 209,
            "ul": 210,
            "ona": 211,
            "uel": 212,
            "dwa": 213,
            "isiwe": 214,
            "khany": 215,
            "son": 216,
            "do": 217,
            "mba": 218,
            "cent": 219,
            "fiso": 220,
            "xo": 221,
            "be": 222,
            "siwe": 223,
            "de": 224,
            "fa": 225,
            "man": 226,
            "usa": 227,
            "iseng": 228,
            "gi": 229,
            "lese": 230,
            "kgo": 231,
            "ci": 232,
            "ous": 233,
            "preci": 234,
            "ty": 235,
            "prin": 236,
            "rabo": 237,
            "zin": 238,
            "ley": 239,
            "kile": 240,
            "ba": 241,
            "sim": 242,
            "sh": 243,
            "port": 244,
            "dy": 245,
            "fun": 246,
            "siph": 247,
            "pie": 248,
            "hard": 249,
            "fi": 250,
            "ven": 251,
            "ana": 252,
            "ice": 253,
            "lwa": 254,
            "eliz": 255,
            "eleng": 256,
            "kozo": 257,
            "ilwe": 258,
            "abe": 259,
            "sy": 260,
            "fundo": 261,
            "mpum": 262,
            "jam": 263,
            "tshi": 264,
            "motso": 265,
            "ry": 266,
            "thula": 267,
            "ale": 268,
            "ria": 269,
            "ro": 270,
            "ello": 271,
            "boitum": 272,
            "rol": 273,
            "khona": 274,
            "lon": 275,
            "ste": 276,
            "isile": 277,
            "ga": 278,
            "em": 279,
            "lou": 280,
            "kho": 281,
            "pp": 282,
            "ica": 283,
            "elelo": 284,
            "hen": 285,
            "kw": 286,
            "neo": 287,
            "fre": 288,
            "tsi": 289,
            "zu": 290,
            "sin": 291,
            "cy": 292,
            "ki": 293,
            "he": 294,
            "que": 295,
            "phind": 296,
            "dine": 297,
            "dumiso": 298,
            "om": 299,
            "orge": 300,
            "ses": 301,
            "bri": 302,
            "fu": 303,
            "elele": 304,
            "ess": 305,
            "ence": 306,
            "mas": 307,
            "rah": 308,
            "pu": 309,
            "sthemb": 310,
            "shar": 311,
            "ft": 312,
            "qob": 313,
            "jus": 314,
            "kag": 315,
            "uso": 316,
            "nomb": 317,
            "zwe": 318,
            "ike": 319,
            "sha": 320,
            "happ": 321,
            "yol": 322,
            "br": 323,
            "wethu": 324,
            "hleng": 325,
            "onolo": 326,
            "nt": 327,
            "kani": 328,
            "elizabe": 329,
            "au": 330,
            "rence": 331,
            "vic": 332,
            "tor": 333,
            "filwe": 334,
            "ane": 335,
            "ac": 336,
            "andla": 337,
            "amandla": 338,
            "inno": 339,
            "inkosi": 340,
            "xolo": 341,
            "tan": 342,
            "nie": 343,
            "bab": 344,
            "wen": 345,
            "kga": 346,
            "maka": 347,
            "dimaka": 348,
            "khu": 349,
            "felo": 350,
            "olofelo": 351,
            "isani": 352,
            "lem": 353,
            "nompum": 354,
            "sus": 355,
            "ve": 356,
            "mz": 357,
            "tas": 358,
            "natas": 359,
            "samk": 360,
            "nqob": 361,
            "pet": 362,
            "tty": 363,
            "sbon": 364,
            "ken": 365,
            "ando": 366,
            "mel": 367,
            "len": 368,
            "cind": 369,
            "rob": 370,
            "hlo": 371,
            "lindile": 372,
            "ud": 373,
            "pin": 374,
            "ze": 375,
            "lee": 376,
            "nth": 377,
            "cynth": 378,
            "antha": 379,
            "ulelo": 380,
            "yce": 381,
            "beko": 382,
            "jacqu": 383,
            "ta": 384,
            "co": 385,
            "pi": 386,
            "bhe": 387,
            "elisiwe": 388,
            "von": 389,
            "ti": 390,
            "bus": 391,
            "mahla": 392,
            "bule": 393,
            "ben": 394,
            "gra": 395,
            "pher": 396,
            "rai": 397,
            "eni": 398,
            "ton": 399,
            "tshid": 400,
            "dfre": 401,
            "godfre": 402,
            "me": 403,
            "lond": 404,
            "col": 405,
            "yi": 406,
            "mu": 407,
            "liz": 408,
            "wab": 409,
            "lile": 410,
            "bi": 411,
            "lehlo": 412,
            "fatso": 413,
            "jul": 414,
            "ekile": 415,
            "inda": 416,
            "lane": 417,
            "sen": 418,
            "gile": 419,
            "bogile": 420,
            "elani": 421,
            "mlung": 422,
            "hley": 423,
            "san": 424,
            "ant": 425,
            "chant": 426,
            "hu": 427,
            "joe": 428,
            "pilo": 429,
            "diswa": 430,
            "prom": 431,
            "nts": 432,
            "phi": 433,
            "pris": 434,
            "rra": 435,
            "lorra": 436,
            "ior": 437,
            "jun": 438,
            "nomvu": 439,
            "sbu": 440,
            "nokw": 441,
            "jes": 442,
            "sica": 443,
            "edwa": 444,
            "rd": 445,
            "kha": 446,
            "khay": 447,
            "pon": 448,
            "khile": 449,
            "ou": 450,
            "bles": 451,
            "sing": 452,
            "yne": 453,
            "ith": 454,
            "lv": 455,
            "sylv": 456,
            "philli": 457,
            "lw": 458,
            "wrence": 459,
            "mbu": 460,
            "khumbu": 461,
            "van": 462,
            "hi": 463,
            "futhi": 464,
            "mahle": 465,
            "ernes": 466,
            "celo": 467,
            "ver": 468,
            "onica": 469,
            "inton": 470,
            "dia": 471,
            "phen": 472,
            "ney": 473,
            "eke": 474,
            "pam": 475,
            "anth": 476,
            "ony": 477,
            "yiko": 478,
            "glo": 479,
            "elihle": 480,
            "dibon": 481,
            "kedibon": 482,
            "esthe": 483,
            "alwa": 484,
            "wil": 485,
            "pha": 486,
            "fort": 487,
            "sie": 488,
            "fortu": 489,
            "eu": 490,
            "gen": 491,
            "rach": 492,
            "ique": 493,
            "win": 494,
            "gonolo": 495,
            "wel": 496,
            "alfre": 497,
            "zisi": 498,
            "let": 499,
            "khe": 500,
            "ius": 501,
            "nhla": 502,
            "bza": 503,
            "ez": 504,
            "tre": 505,
            "vor": 506,
            "tice": 507,
            "cca": 508,
            "lvin": 509,
            "rik": 510,
            "prud": 511,
            "don": 512,
            "ald": 513,
            "fen": 514,
            "ofen": 515,
            "elwa": 516,
            "loe": 517,
            "refi": 518,
            "ir": 519,
            "zy": 520,
            "sol": 521,
            "eun": 522,
            "etse": 523,
            "las": 524,
            "holas": 525,
            "bel": 526,
            "crai": 527,
            "bre": 528,
            "aubre": 529,
            "zuk": 530,
            "mor": 531,
            "ar": 532,
            "pear": 533,
            "cil": 534,
            "priscil": 535,
            "nce": 536,
            "nolu": 537,
            "cand": 538,
            "solo": 539,
            "ag": 540,
            "gla": 541,
            "honolo": 542,
            "dys": 543,
            "vhu": 544,
            "mokga": 545,
            "vhuw": 546,
            "eilwe": 547,
            "yon": 548,
            "ena": 549,
            "tie": 550,
            "ure": 551,
            "maure": 552,
            "po": 553,
            "per": 554,
            "aba": 555,
            "thatso": 556,
            "anga": 557,
            "vis": 558,
            "bb": 559,
            "tia": 560,
            "unia": 561,
            "debb": 562,
            "udu": 563,
            "fhi": 564,
            "fhiwa": 565,
            "skhumbu": 566,
            "pus": 567,
            "eletso": 568,
            "phile": 569,
            "bra": 570,
            "dley": 571,
            "khele": 572,
            "ger": 573,
            "leka": 574,
            "ano": 575,
            "iseni": 576,
            "then": 577,
            "vuyile": 578,
            "nwab": 579,
            "mase": 580,
            "min": 581,
            "tswe": 582,
            "flo": 583,
            "mbalen": 584,
            "pase": 585,
            "zol": 586,
            "xole": 587,
            "eza": 588,
            "jie": 589,
            "tjie": 590,
            "ck": 591,
            "kanipho": 592,
            "gule": 593,
            "gugule": 594,
            "ak": 595,
            "obak": 596,
            "alo": 597,
            "babalo": 598,
            "dney": 599,
            "mole": 600,
            "mthob": 601,
            "tsho": 602,
            "ten": 603,
            "drik": 604,
            "rus": 605,
            "khule": 606,
            "kany": 607,
            "nkany": 608,
            "onde": 609,
            "wy": 610,
            "wyn": 611,
            "ina": 612,
            "onge": 613,
            "des": 614,
            "mam": 615,
            "moeke": 616,
            "keitum": 617,
            "xwel": 618,
            "maxwel": 619,
            "ity": 620,
            "nok": 621,
            "ron": 622,
            "qa": 623,
            "mapu": 624,
            "wazi": 625,
            "tte": 626,
            "nette": 627,
            "rren": 628,
            "waki": 629,
            "mdu": 630,
            "con": 631,
            "isang": 632,
            "vela": 633,
            "amu": 634,
            "od": 635,
            "good": 636,
            "lho": 637,
            "letlho": 638,
            "gran": 639,
            "idge": 640,
            "bridge": 641,
            "ru": 642,
            "ness": 643,
            "kie": 644,
            "hma": 645,
            "usi": 646,
            "ishma": 647,
            "uthu": 648,
            "ntuthu": 649,
            "ethu": 650,
            "iness": 651,
            "uti": 652,
            "vus": 653,
            "vusum": 654,
            "vo": 655,
            "masi": 656,
            "han": 657,
            "cli": 658,
            "cl": 659,
            "dise": 660,
            "sibon": 661,
            "phem": 662,
            "ako": 663,
            "thiwe": 664,
            "ande": 665,
            "moke": 666,
            "isetso": 667,
            "yam": 668,
            "gc": 669,
            "moja": 670,
            "os": 671,
            "zee": 672,
            "zel": 673,
            "lufu": 674,
            "gel": 675,
            "amogel": 676,
            "gon": 677,
            "hes": 678,
            "inric": 679,
            "heinric": 680,
            "men": 681,
            "pert": 682,
            "nonce": 683,
            "pab": 684,
            "nen": 685,
            "snen": 686,
            "helo": 687,
            "lic": 688,
            "mil": 689,
            "licent": 690,
            "siza": 691,
            "keabe": 692,
            "weli": 693,
            "ay": 694,
            "akani": 695,
            "ram": 696,
            "hau": 697,
            "ora": 698,
            "tile": 699,
            "eph": 700,
            "raim": 701,
            "aph": 702,
            "lesi": 703,
            "ppy": 704,
            "lisiwe": 705,
            "nka": 706,
            "velo": 707,
            "monge": 708,
            "wakhe": 709,
            "manqob": 710,
            "ndi": 711,
            "vhuwo": 712,
            "athen": 713,
            "ipon": 714,
            "livhuw": 715,
            "moipon": 716,
            "der": 717,
            "won": 718,
            "yiso": 719,
            "ad": 720,
            "dra": 721,
            "shadra": 722,
            "fez": 723,
            "anthe": 724,
            "ezile": 725,
            "yise": 726,
            "kayise": 727,
            "msi": 728,
            "tseng": 729,
            "dieke": 730,
            "mnce": 731,
            "disi": 732,
            "mp": 733,
            "sino": 734,
            "endu": 735,
            "mpendu": 736,
            "nko": 737,
            "pano": 738,
            "umusa": 739,
            "cum": 740,
            "ncum": 741,
            "sbo": 742,
            "gomole": 743,
            "ashe": 744,
            "tswa": 745,
            "tintswa": 746,
            "rud": 747,
            "sne": 748,
            "teba": 749,
            "loko": 750,
            "tlw": 751,
            "kutlw": 752,
            "dai": 753,
            "ase": 754,
            "iw": 755,
            "yand": 756,
            "nosiph": 757,
            "iwo": 758,
            "phney": 759,
            "kelani": 760,
            "hile": 761,
            "rele": 762,
            "bohile": 763,
            "iphile": 764,
            "iska": 765,
            "ngiphile": 766,
            "sba": 767,
            "mbal": 768,
            "com": 769,
            "mory": 770,
            "welcom": 771,
            "ann": 772,
            "liez": 773,
            "tta": 774,
            "cor": 775,
            "mm": 776,
            "abatho": 777,
            "kes": 778,
            "rhu": 779,
            "sithemb": 780,
            "phela": 781,
            "ik": 782,
            "nik": 783,
            "ror": 784,
            "mka": 785,
            "dzi": 786,
            "lidzi": 787,
            "jiwe": 788,
            "lly": 789,
            "etsi": 790,
            "hlon": 791,
            "onwyn": 792,
            "iseka": 793,
            "cel": 794,
            "itha": 795,
            "mkh": 796,
            "uzi": 797,
            "zimkh": 798,
            "cia": 799,
            "mer": 800,
            "luten": 801,
            "sabe": 802,
            "ld": 803,
            "mes": 804,
            "hack": 805,
            "mahlo": 806,
            "tsana": 807,
            "setsana": 808,
            "monwab": 809,
            "gh": 810,
            "brigh": 811,
            "malu": 812,
            "kiso": 813,
            "so": 814,
            "ihle": 815,
            "mhleng": 816,
            "loven": 817,
            "asa": 818,
            "ehi": 819,
            "kalo": 820,
            "modi": 821,
            "qin": 822,
            "nam": 823,
            "rpris": 824,
            "su": 825,
            "rprise": 826,
            "nku": 827,
            "zen": 828,
            "lefu": 829,
            "zand": 830,
            "it": 831,
            "wit": 832,
            "sonwab": 833,
            "neka": 834,
            "mthu": 835,
            "nzi": 836,
            "frik": 837,
            "keamo": 838,
            "getswe": 839,
            "twa": 840,
            "simam": 841,
            "hl": 842,
            "mzuk": 843,
            "nhl": 844,
            "wande": 845,
            "males": 846,
            "isie": 847,
            "amulo": 848,
            "kelisiwe": 849,
            "ukelisiwe": 850,
            "obisa": 851,
            "omphem": 852,
            "yiswa": 853,
            "aki": 854,
            "ntso": 855,
            "wie": 856,
            "isho": 857,
            "umo": 858,
            "tla": 859,
            "motla": 860,
            "seben": 861,
            "gomo": 862,
            "mogomo": 863,
            "ongwa": 864,
            "by": 865,
            "dile": 866,
            "sel": 867,
            "oxolo": 868,
            "yolo": 869,
            "sech": 870,
            "ize": 871,
            "annel": 872,
            "sli": 873,
            "masaba": 874,
            "mnqob": 875,
            "siyas": 876,
            "phumud": 877,
            "tando": 878,
            "mabong": 879,
            "andle": 880,
            "zane": 881,
            "alethu": 882,
            "songe": 883,
            "ongez": 884
        },
        "merges": [
            "a n",
            "l e",
            "t h",
            "s i",
            "o n",
            "an d",
            "e l",
            "i s",
            "p h",
            "a b",
            "i n",
            "i le",
            "e n",
            "m a",
            "t s",
            "n o",
            "w e",
            "an i",
            "l o",
            "a m",
            "m b",
            "l a",
            "i c",
            "k a",
            "e le",
            "l u",
            "th ab",
            "t o",
            "k o",
            "u m",
            "on g",
            "el o",
            "h le",
            "b o",
            "w a",
            "h a",
            "e s",
            "i a",
            "is o",
            "ph o",
            "r e",
            "i we",
            "g o",
            "in d",
            "t e",
            "th e",
            "r a",
            "b u",
            "j o",
            "l i",
            "ts h",
            "an g",
            "z i",
            "k h",
            "u s",
            "the mb",
            "n g",
            "th and",
            "o l",
            "th u",
            "m o",
            "d i",
            "l ind",
            "p a",
            "n e",
            "ts o",
            "ma r",
            "no m",
            "n a",
            "th o",
            "c e",
            "s e",
            "e r",
            "jo h",
            "z o",
            "th a",
            "s a",
            "i l",
            "v u",
            "k e",
            "k u",
            "i e",
            "ha r",
            "tsh e",
            "t um",
            "d u",
            "o r",
            "n on",
            "h la",
            "i si",
            "m on",
            "n to",
            "is a",
            "d a",
            "c a",
            "tshe p",
            "c h",
            "is wa",
            "s am",
            "o lo",
            "lu ng",
            "l an",
            "ab u",
            "r ic",
            "u n",
            "j a",
            "vu y",
            "in e",
            "e ka",
            "z a",
            "pa t",
            "r is",
            "am o",
            "i d",
            "h lan",
            "hlan hla",
            "le ra",
            "m ic",
            "th i",
            "p e",
            "si y",
            "te r",
            "ab ong",
            "r en",
            "k y",
            "ko si",
            "u le",
            "o b",
            "en g",
            "c har",
            "a s",
            "nto mb",
            "i tum",
            "p r",
            "g e",
            "b on",
            "ja c",
            "t le",
            "a l",
            "l y",
            "n es",
            "ph um",
            "x ol",
            "p um",
            "g u",
            "p re",
            "n el",
            "lu c",
            "v in",
            "abong a",
            "m and",
            "en t",
            "tho b",
            "no ku",
            "n thab",
            "v id",
            "el i",
            "t in",
            "q u",
            "h o",
            "r i",
            "an y",
            "el a",
            "ab elo",
            "is e",
            "r an",
            "s ph",
            "le s",
            "or t",
            "z ile",
            "j an",
            "ab o",
            "ts e",
            "il li",
            "ka tle",
            "er t",
            "n ic",
            "d um",
            "ha el",
            "u l",
            "on a",
            "u el",
            "d wa",
            "isi we",
            "kh any",
            "s on",
            "d o",
            "mb a",
            "c ent",
            "f iso",
            "x o",
            "b e",
            "si we",
            "d e",
            "f a",
            "m an",
            "us a",
            "is eng",
            "g i",
            "le se",
            "k go",
            "c i",
            "o us",
            "pre ci",
            "t y",
            "pr in",
            "r abo",
            "z in",
            "le y",
            "k ile",
            "b a",
            "si m",
            "s h",
            "p ort",
            "d y",
            "f un",
            "si ph",
            "p ie",
            "har d",
            "f i",
            "v en",
            "an a",
            "ic e",
            "l wa",
            "eli z",
            "ele ng",
            "ko zo",
            "il we",
            "ab e",
            "s y",
            "fun do",
            "m pum",
            "j am",
            "tsh i",
            "mo tso",
            "r y",
            "thu la",
            "a le",
            "r ia",
            "r o",
            "el lo",
            "bo itum",
            "r ol",
            "kh ona",
            "l on",
            "s te",
            "isi le",
            "g a",
            "e m",
            "lo u",
            "kh o",
            "p p",
            "ic a",
            "ele lo",
            "h en",
            "k w",
            "ne o",
            "f re",
            "t si",
            "z u",
            "si n",
            "c y",
            "k i",
            "h e",
            "qu e",
            "ph ind",
            "d ine",
            "dum iso",
            "o m",
            "or ge",
            "s es",
            "b ri",
            "f u",
            "ele le",
            "es s",
            "en ce",
            "ma s",
            "ra h",
            "p u",
            "s themb",
            "s har",
            "f t",
            "q ob",
            "j us",
            "ka g",
            "us o",
            "no mb",
            "z we",
            "i ke",
            "s ha",
            "ha pp",
            "y ol",
            "b r",
            "we thu",
            "hle ng",
            "on olo",
            "n t",
            "k ani",
            "eliz abe",
            "a u",
            "ren ce",
            "v ic",
            "to r",
            "f ilwe",
            "an e",
            "a c",
            "and la",
            "am andla",
            "in no",
            "in kosi",
            "x olo",
            "t an",
            "n ie",
            "b ab",
            "w en",
            "k ga",
            "ma ka",
            "di maka",
            "kh u",
            "f elo",
            "olo felo",
            "is ani",
            "le m",
            "nom pum",
            "s us",
            "v e",
            "m z",
            "t as",
            "na tas",
            "sam k",
            "n qob",
            "pe t",
            "t ty",
            "s bon",
            "k en",
            "and o",
            "m el",
            "le n",
            "c ind",
            "r ob",
            "h lo",
            "lind ile",
            "u d",
            "p in",
            "z e",
            "le e",
            "n th",
            "cy nth",
            "an tha",
            "ule lo",
            "y ce",
            "be ko",
            "jac qu",
            "t a",
            "c o",
            "p i",
            "b he",
            "el isiwe",
            "v on",
            "t i",
            "bu s",
            "ma hla",
            "bu le",
            "b en",
            "g ra",
            "ph er",
            "ra i",
            "en i",
            "t on",
            "tsh id",
            "d fre",
            "go dfre",
            "m e",
            "lon d",
            "c ol",
            "y i",
            "m u",
            "li z",
            "w ab",
            "l ile",
            "b i",
            "le hlo",
            "fa tso",
            "j ul",
            "e kile",
            "ind a",
            "lan e",
            "s en",
            "g ile",
            "bo gile",
            "el ani",
            "m lung",
            "hle y",
            "s an",
            "an t",
            "ch ant",
            "h u",
            "jo e",
            "pi lo",
            "d iswa",
            "pr om",
            "n ts",
            "ph i",
            "p ris",
            "r ra",
            "lo rra",
            "i or",
            "j un",
            "nom vu",
            "s bu",
            "no kw",
            "j es",
            "si ca",
            "e dwa",
            "r d",
            "k ha",
            "kha y",
            "p on",
            "kh ile",
            "o u",
            "b les",
            "si ng",
            "y ne",
            "i th",
            "l v",
            "sy lv",
            "ph illi",
            "l w",
            "w rence",
            "mb u",
            "khu mbu",
            "v an",
            "h i",
            "fu thi",
            "ma hle",
            "er nes",
            "c elo",
            "v er",
            "on ica",
            "in ton",
            "d ia",
            "ph en",
            "ne y",
            "e ke",
            "p am",
            "an th",
            "on y",
            "yi ko",
            "g lo",
            "eli hle",
            "di bon",
            "ke dibon",
            "es the",
            "al wa",
            "w il",
            "ph a",
            "f ort",
            "si e",
            "fort u",
            "e u",
            "g en",
            "ra ch",
            "i que",
            "w in",
            "g onolo",
            "w el",
            "al fre",
            "zi si",
            "le t",
            "kh e",
            "i us",
            "n hla",
            "b za",
            "e z",
            "t re",
            "v or",
            "t ice",
            "c ca",
            "l vin",
            "ri k",
            "pr ud",
            "d on",
            "al d",
            "f en",
            "o fen",
            "el wa",
            "lo e",
            "re fi",
            "i r",
            "z y",
            "s ol",
            "e un",
            "e tse",
            "la s",
            "ho las",
            "b el",
            "c rai",
            "b re",
            "au bre",
            "zu k",
            "mo r",
            "a r",
            "pe ar",
            "c il",
            "pris cil",
            "n ce",
            "no lu",
            "c and",
            "s olo",
            "a g",
            "g la",
            "h onolo",
            "dy s",
            "v hu",
            "mo kga",
            "vhu w",
            "e ilwe",
            "y on",
            "en a",
            "t ie",
            "u re",
            "ma ure",
            "p o",
            "p er",
            "ab a",
            "tha tso",
            "ang a",
            "v is",
            "b b",
            "t ia",
            "un ia",
            "de bb",
            "u du",
            "f hi",
            "fhi wa",
            "s khumbu",
            "p us",
            "ele tso",
            "ph ile",
            "b ra",
            "d ley",
            "kh ele",
            "g er",
            "le ka",
            "an o",
            "is eni",
            "th en",
            "vuy ile",
            "n wab",
            "ma se",
            "m in",
            "ts we",
            "f lo",
            "mba len",
            "pa se",
            "z ol",
            "xo le",
            "e za",
            "j ie",
            "t jie",
            "c k",
            "kani pho",
            "g ule",
            "gu gule",
            "a k",
            "ob ak",
            "a lo",
            "bab alo",
            "d ney",
            "mo le",
            "m thob",
            "tsh o",
            "t en",
            "d rik",
            "r us",
            "kh ule",
            "k any",
            "n kany",
            "on de",
            "w y",
            "wy n",
            "in a",
            "ong e",
            "d es",
            "ma m",
            "mo eke",
            "ke itum",
            "x wel",
            "ma xwel",
            "i ty",
            "no k",
            "r on",
            "q a",
            "ma pu",
            "wa zi",
            "t te",
            "ne tte",
            "r ren",
            "wa ki",
            "m du",
            "c on",
            "is ang",
            "v ela",
            "am u",
            "o d",
            "go od",
            "l ho",
            "let lho",
            "g ran",
            "id ge",
            "br idge",
            "r u",
            "nes s",
            "k ie",
            "h ma",
            "u si",
            "is hma",
            "u thu",
            "nt uthu",
            "e thu",
            "in ess",
            "u ti",
            "v us",
            "vus um",
            "v o",
            "ma si",
            "h an",
            "c li",
            "c l",
            "d ise",
            "si bon",
            "ph em",
            "a ko",
            "th iwe",
            "and e",
            "mo ke",
            "ise tso",
            "y am",
            "g c",
            "mo ja",
            "o s",
            "ze e",
            "z el",
            "lu fu",
            "g el",
            "amo gel",
            "g on",
            "h es",
            "in ric",
            "he inric",
            "m en",
            "p ert",
            "non ce",
            "p ab",
            "n en",
            "s nen",
            "h elo",
            "l ic",
            "m il",
            "lic ent",
            "si za",
            "ke abe",
            "w eli",
            "a y",
            "a kani",
            "r am",
            "ha u",
            "o ra",
            "t ile",
            "e ph",
            "rai m",
            "a ph",
            "le si",
            "pp y",
            "li siwe",
            "n ka",
            "v elo",
            "m onge",
            "wa khe",
            "man qob",
            "n di",
            "vhuw o",
            "a then",
            "i pon",
            "li vhuw",
            "mo ipon",
            "d er",
            "w on",
            "y iso",
            "a d",
            "d ra",
            "sha dra",
            "f ez",
            "an the",
            "e zile",
            "y ise",
            "ka yise",
            "m si",
            "ts eng",
            "di eke",
            "m nce",
            "di si",
            "m p",
            "si no",
            "en du",
            "mp endu",
            "n ko",
            "p ano",
            "um usa",
            "c um",
            "n cum",
            "s bo",
            "go mole",
            "as he",
            "ts wa",
            "tin tswa",
            "r ud",
            "s ne",
            "te ba",
            "lo ko",
            "t lw",
            "ku tlw",
            "da i",
            "a se",
            "i w",
            "y and",
            "no siph",
            "iw o",
            "ph ney",
            "k elani",
            "h ile",
            "r ele",
            "bo hile",
            "i phile",
            "is ka",
            "ng iphile",
            "s ba",
            "mb al",
            "c om",
            "mo ry",
            "wel com",
            "an n",
            "li ez",
            "t ta",
            "c or",
            "m m",
            "aba tho",
            "k es",
            "r hu",
            "si themb",
            "ph ela",
            "i k",
            "n ik",
            "r or",
            "m ka",
            "d zi",
            "li dzi",
            "j iwe",
            "l ly",
            "e tsi",
            "h lon",
            "on wyn",
            "is eka",
            "c el",
            "i tha",
            "m kh",
            "u zi",
            "zi mkh",
            "c ia",
            "m er",
            "lu ten",
            "s abe",
            "l d",
            "m es",
            "ha ck",
            "ma hlo",
            "ts ana",
            "se tsana",
            "mon wab",
            "g h",
            "bri gh",
            "ma lu",
            "k iso",
            "s o",
            "i hle",
            "m hleng",
            "lo ven",
            "a sa",
            "e hi",
            "ka lo",
            "mo di",
            "q in",
            "n am",
            "r pris",
            "s u",
            "rpris e",
            "n ku",
            "z en",
            "le fu",
            "z and",
            "i t",
            "w it",
            "son wab",
            "ne ka",
            "m thu",
            "n zi",
            "f rik",
            "ke amo",
            "ge tswe",
            "t wa",
            "si mam",
            "h l",
            "m zuk",
            "n hl",
            "w ande",
            "ma les",
            "isi e",
            "amu lo",
            "k elisiwe",
            "u kelisiwe",
            "ob isa",
            "om phem",
            "y iswa",
            "a ki",
            "n tso",
            "w ie",
            "is ho",
            "um o",
            "t la",
            "mo tla",
            "se ben",
            "go mo",
            "mo gomo",
            "ong wa",
            "b y",
            "d ile",
            "s el",
            "o xolo",
            "y olo",
            "se ch",
            "i ze",
            "an nel",
            "s li",
            "mas aba",
            "m nqob",
            "siy as",
            "phum ud",
            "t ando",
            "m abong",
            "and le",
            "z ane",
            "ale thu",
            "s onge",
            "ong ez"
        ]
    }
}