{
  "version": "1.0",
  "truncation": null,
  "padding": null,
  "added_tokens": [
    {
      "id": 0,
      "content": "[UNK]",
      "single_word": false,
      "lstrip": false,
      "rstrip": false,
      "normalized": false,
      "special": true
    },
    {
      "id": 1,
      "content": "[CLS]",
      "single_word": false,
      "lstrip": false,
      "rstrip": false,
      "normalized": false,
      "special": true
    },
    {
      "id": 2,
      "content": "[SEP]",
      "single_word": false,
      "lstrip": false,
      "rstrip": false,
      "normalized": false,
      "special": true
    },
    {
      "id": 3,
      "content": "[PAD]",
      "single_word": false,
      "lstrip": false,
      "rstrip": false,
      "normalized": false,
      "special": true
    },
    {
      "id": 4,
      "content": "[MASK]",
      "single_word": false,
      "lstrip": false,
      "rstrip": false,
      "normalized": false,
      "special": true
    }
  ],
  "normalizer": null,
  "pre_tokenizer": {
    "type": "Whitespace"
  },
  "post_processor": null,
  "decoder": null,
  "model": {
    "type": "BPE",
    "dropout": null,
    "unk_token": "[UNK]",
    "continuing_subword_prefix": null,
    "end_of_word_suffix": null,
    "fuse_unk": false,
    "vocab": {
      "[UNK]": 0,
      "[CLS]": 1,
      "[SEP]": 2,
      "[PAD]": 3,
      "[MASK]": 4,
      "-": 5,
      "a": 6,
      "b": 7,
      "c": 8,
      "d": 9,
      "e": 10,
      "f": 11,
      "g": 12,
      "h": 13,
      "i": 14,
      "j": 15,
      "k": 16,
      "l": 17,
      "m": 18,
      "n": 19,
      "o": 20,
      "p": 21,
      "q": 22,
      "r": 23,
      "s": 24,
      "t": 25,
      "u": 26,
      "v": 27,
      "w": 28,
      "x": 29,
      "y": 30,
      "z": 31,
      "an": 32,
      "ar": 33,
      "el": 34,
      "ia": 35,
      "io": 36,
      "na": 37,
      "mar": 38,
      "co": 39,
      "al": 40,
      "ri": 41,
      "to": 42,
      "ro": 43,
      "es": 44,
      "gi": 45,
      "la": 46,
      "ca": 47,
      "en": 48,
      "er": 49,
      "and": 50,
      "ni": 51,
      "lu": 52,
      "ma": 53,
      "lo": 54,
      "ele": 55,
      "fr": 56,
      "fran": 57,
      "si": 58,
      "mi": 59,
      "ra": 60,
      "ti": 61,
      "re": 62,
      "mo": 63,
      "giu": 64,
      "gio": 65,
      "ta": 66,
      "sa": 67,
      "anto": 68,
      "ces": 69,
      "anna": 70,
      "frances": 71,
      "vi": 72,
      "ano": 73,
      "pa": 74,
      "do": 75,
      "ela": 76,
      "ales": 77,
      "aless": 78,
      "te": 79,
      "anton": 80,
      "pp": 81,
      "ch": 82,
      "maria": 83,
      "ella": 84,
      "car": 85,
      "ana": 86,
      "se": 87,
      "li": 88,
      "de": 89,
      "ber": 90,
      "simo": 91,
      "ab": 92,
      "no": 93,
      "enz": 94,
      "ara": 95,
      "giuse": 96,
      "ppe": 97,
      "francesco": 98,
      "tina": 99,
      "giuseppe": 100,
      "andre": 101,
      "et": 102,
      "ani": 103,
      "marco": 104,
      "alessand": 105,
      "enzo": 106,
      "andrea": 107,
      "antonio": 108,
      "pao": 109,
      "lau": 110,
      "dani": 111,
      "luca": 112,
      "berto": 113,
      "ang": 114,
      "giov": 115,
      "anni": 116,
      "zia": 117,
      "ste": 118,
      "stef": 119,
      "da": 120,
      "mari": 121,
      "pi": 122,
      "mich": 123,
      "fab": 124,
      "mas": 125,
      "lui": 126,
      "alessandro": 127,
      "ris": 128,
      "val": 129,
      "man": 130,
      "zio": 131,
      "ros": 132,
      "mat": 133,
      "giovanni": 134,
      "manu": 135,
      "nico": 136,
      "ede": 137,
      "luc": 138,
      "paolo": 139,
      "francesca": 140,
      "sal": 141,
      "mau": 142,
      "gian": 143,
      "eli": 144,
      "lv": 145,
      "salv": 146,
      "roberto": 147,
      "clau": 148,
      "claud": 149,
      "le": 150,
      "nc": 151,
      "cris": 152,
      "lia": 153,
      "ne": 154,
      "rizio": 155,
      "stefano": 156,
      "fede": 157,
      "silv": 158,
      "tore": 159,
      "luigi": 160,
      "federi": 161,
      "elo": 162,
      "gia": 163,
      "davi": 164,
      "michele": 165,
      "ale": 166,
      "salva": 167,
      "salvatore": 168,
      "etta": 169,
      "fabio": 170,
      "vinc": 171,
      "teo": 172,
      "lor": 173,
      "davide": 174,
      "matteo": 175,
      "men": 176,
      "mario": 177,
      "gab": 178,
      "sara": 179,
      "angela": 180,
      "vincenzo": 181,
      "chi": 182,
      "gabri": 183,
      "massimo": 184,
      "gior": 185,
      "sab": 186,
      "carlo": 187,
      "on": 188,
      "angelo": 189,
      "laura": 190,
      "simone": 191,
      "daniele": 192,
      "fa": 193,
      "nicola": 194,
      "tri": 195,
      "valen": 196,
      "nica": 197,
      "franco": 198,
      "chiara": 199,
      "ter": 200,
      "antonella": 201,
      "elena": 202,
      "rina": 203,
      "giulia": 204,
      "ania": 205,
      "ci": 206,
      "daniela": 207,
      "ero": 208,
      "emanu": 209,
      "ser": 210,
      "paola": 211,
      "zi": 212,
      "tia": 213,
      "di": 214,
      "valentina": 215,
      "lorenzo": 216,
      "gra": 217,
      "rita": 218,
      "silvia": 219,
      "meni": 220,
      "aria": 221,
      "raf": 222,
      "domeni": 223,
      "ga": 224,
      "cristina": 225,
      "claudio": 226,
      "raffa": 227,
      "maurizio": 228,
      "ardo": 229,
      "patri": 230,
      "domenico": 231,
      "mir": 232,
      "tian": 233,
      "lucia": 234,
      "ce": 235,
      "rober": 236,
      "alessandra": 237,
      "ka": 238,
      "ali": 239,
      "federica": 240,
      "martina": 241,
      "stefania": 242,
      "patrizia": 243,
      "il": 244,
      "alberto": 245,
      "ccar": 246,
      "riccar": 247,
      "riccardo": 248,
      "fi": 249,
      "roberta": 250,
      "liano": 251,
      "giovanna": 252,
      "alessia": 253,
      "etro": 254,
      "pietro": 255,
      "valer": 256,
      "go": 257,
      "elisa": 258,
      "mauro": 259,
      "alessio": 260,
      "carm": 261,
      "bar": 262,
      "rosa": 263,
      "ario": 264,
      "federico": 265,
      "simona": 266,
      "gabriele": 267,
      "ru": 268,
      "enri": 269,
      "monica": 270,
      "claudia": 271,
      "ello": 272,
      "qu": 273,
      "squ": 274,
      "pasqu": 275,
      "esa": 276,
      "teresa": 277,
      "giorgio": 278,
      "gianluca": 279,
      "bara": 280,
      "barbara": 281,
      "emi": 282,
      "luci": 283,
      "nzia": 284,
      "ad": 285,
      "antoni": 286,
      "ha": 287,
      "iv": 288,
      "me": 289,
      "ppo": 290,
      "gianni": 291,
      "pasquale": 292,
      "fabrizio": 293,
      "rena": 294,
      "lio": 295,
      "enrico": 296,
      "mattia": 297,
      "tizi": 298,
      "grazia": 299,
      "emanuele": 300,
      "raffaele": 301,
      "fili": 302,
      "ari": 303,
      "michela": 304,
      "tor": 305,
      "sergio": 306,
      "gen": 307,
      "filippo": 308,
      "us": 309,
      "bru": 310,
      "so": 311,
      "adri": 312,
      "dia": 313,
      "nat": 314,
      "vit": 315,
      "lisa": 316,
      "tta": 317,
      "giaco": 318,
      "sand": 319,
      "ross": 320,
      "alex": 321,
      "giacomo": 322,
      "luisa": 323,
      "as": 324,
      "ilaria": 325,
      "sabrina": 326,
      "vittor": 327,
      "pier": 328,
      "valeria": 329,
      "nu": 330,
      "ando": 331,
      "piero": 332,
      "cristian": 333,
      "cinzia": 334,
      "edo": 335,
      "giorgia": 336,
      "luciano": 337,
      "gius": 338,
      "massi": 339,
      "leon": 340,
      "leonardo": 341,
      "tiziana": 342,
      "vio": 343,
      "marc": 344,
      "gaet": 345,
      "ono": 346,
      "enza": 347,
      "miliano": 348,
      "massimiliano": 349,
      "giusy": 350,
      "tino": 351,
      "carmela": 352,
      "eri": 353,
      "ko": 354,
      "gaetano": 355,
      "mma": 356,
      "ora": 357,
      "eleono": 358,
      "eleonora": 359,
      "be": 360,
      "son": 361,
      "sonia": 362,
      "vero": 363,
      "veronica": 364,
      "marina": 365,
      "liana": 366,
      "aro": 367,
      "cate": 368,
      "caterina": 369,
      "bruno": 370,
      "lore": 371,
      "lina": 372,
      "dario": 373,
      "ego": 374,
      "diego": 375,
      "au": 376,
      "emanuela": 377,
      "ren": 378,
      "ina": 379,
      "carla": 380,
      "grazi": 381,
      "dana": 382,
      "or": 383,
      "ena": 384,
      "serena": 385,
      "vito": 386,
      "manuela": 387,
      "cco": 388,
      "nadia": 389,
      "tom": 390,
      "mu": 391,
      "elisab": 392,
      "elisabetta": 393,
      "lena": 394,
      "antonietta": 395,
      "nia": 396,
      "mirko": 397,
      "chris": 398,
      "christian": 399,
      "ivan": 400,
      "gh": 401,
      "marta": 402,
      "rosaria": 403,
      "mine": 404,
      "carmine": 405,
      "essi": 406,
      "gabriella": 407,
      "essica": 408,
      "manuel": 409,
      "st": 410,
      "genn": 411,
      "med": 412,
      "samu": 413,
      "loredana": 414,
      "fla": 415,
      "maso": 416,
      "tommaso": 417,
      "bora": 418,
      "debora": 419,
      "ciro": 420,
      "annamaria": 421,
      "alice": 422,
      "silvana": 423,
      "nella": 424,
      "giancarlo": 425,
      "ghe": 426,
      "nino": 427,
      "carmen": 428,
      "tiano": 429,
      "rossella": 430,
      "den": 431,
      "rosanna": 432,
      "fer": 433,
      "katia": 434,
      "marcello": 435,
      "jessica": 436,
      "pina": 437,
      "mara": 438,
      "aldo": 439,
      "franca": 440,
      "alf": 441,
      "vittorio": 442,
      "arianna": 443,
      "annalisa": 444,
      "danilo": 445,
      "giada": 446,
      "iren": 447,
      "irene": 448,
      "cia": 449,
      "rosario": 450,
      "valerio": 451,
      "giulio": 452,
      "fia": 453,
      "raffaella": 454,
      "gennaro": 455,
      "am": 456,
      "gu": 457,
      "rocco": 458,
      "carmelo": 459,
      "deni": 460,
      "marianna": 461,
      "antonino": 462,
      "marghe": 463,
      "margherita": 464,
      "ben": 465,
      "sofia": 466,
      "gianfranco": 467,
      "sandro": 468,
      "ba": 469,
      "conc": 470,
      "lara": 471,
      "alia": 472,
      "mary": 473,
      "elia": 474,
      "adriana": 475,
      "salvo": 476,
      "renato": 477,
      "trice": 478,
      "donat": 479,
      "nes": 480,
      "atrice": 481,
      "beatrice": 482,
      "letta": 483,
      "mina": 484,
      "erika": 485,
      "samuele": 486,
      "mberto": 487,
      "ppina": 488,
      "giuseppina": 489,
      "donatella": 490,
      "concetta": 491,
      "sandra": 492,
      "seb": 493,
      "nando": 494,
      "edoardo": 495,
      "daniel": 496,
      "pe": 497,
      "graziella": 498,
      "rora": 499,
      "aurora": 500,
      "ny": 501,
      "ger": 502,
      "su": 503,
      "umberto": 504,
      "pino": 505,
      "po": 506,
      "marisa": 507,
      "moha": 508,
      "ja": 509,
      "ver": 510,
      "alfr": 511,
      "alfredo": 512,
      "alfon": 513,
      "mmo": 514,
      "mimmo": 515,
      "mena": 516,
      "alba": 517,
      "luciana": 518,
      "nato": 519,
      "alina": 520,
      "nicoletta": 521,
      "giuliano": 522,
      "adriano": 523,
      "nunzia": 524,
      "sebas": 525,
      "alfonso": 526,
      "van": 527,
      "essa": 528,
      "vanessa": 529,
      "wal": 530,
      "are": 531,
      "walter": 532,
      "via": 533,
      "enia": 534,
      "nicolo": 535,
      "isab": 536,
      "san": 537,
      "isabella": 538,
      "noemi": 539,
      "tiana": 540,
      "giuliana": 541,
      "eu": 542,
      "eugen": 543,
      "peppe": 544,
      "benede": 545,
      "gino": 546,
      "mariella": 547,
      "cami": 548,
      "camil": 549,
      "ido": 550,
      "guido": 551,
      "sus": 552,
      "flavio": 553,
      "fio": 554,
      "flo": 555,
      "th": 556,
      "riana": 557,
      "va": 558,
      "copo": 559,
      "gaia": 560,
      "rra": 561,
      "tizia": 562,
      "letizia": 563,
      "angeli": 564,
      "jo": 565,
      "pia": 566,
      "usto": 567,
      "mohamed": 568,
      "marika": 569,
      "vittoria": 570,
      "giam": 571,
      "iam": 572,
      "miriam": 573,
      "cosimo": 574,
      "donato": 575,
      "sebastiano": 576,
      "tony": 577,
      "stella": 578,
      "liliana": 579,
      "rosy": 580,
      "marilena": 581,
      "nta": 582,
      "assu": 583,
      "assunta": 584,
      "jacopo": 585,
      "mando": 586,
      "armando": 587,
      "feli": 588,
      "fabi": 589,
      "luana": 590,
      "ael": 591,
      "michael": 592,
      "fior": 593,
      "nicole": 594,
      "david": 595,
      "caro": 596,
      "ke": 597,
      "lorena": 598,
      "emilio": 599,
      "milena": 600,
      "camilla": 601,
      "elio": 602,
      "nda": 603,
      "linda": 604,
      "glor": 605,
      "tu": 606,
      "gloria": 607,
      "gre": 608,
      "emma": 609,
      "silvio": 610,
      "miano": 611,
      "damiano": 612,
      "lomena": 613,
      "filomena": 614,
      "omar": 615,
      "ornella": 616,
      "lino": 617,
      "ivana": 618,
      "ty": 619,
      "mirella": 620,
      "corra": 621,
      "antonello": 622,
      "corrado": 623,
      "cesare": 624,
      "lidia": 625,
      "simon": 626,
      "tania": 627,
      "rosalba": 628,
      "dino": 629,
      "saver": 630,
      "saverio": 631,
      "tti": 632,
      "angelica": 633,
      "ah": 634,
      "mariangela": 635,
      "mad": 636,
      "rossana": 637,
      "stan": 638,
      "cristiano": 639,
      "gerardo": 640,
      "marzia": 641,
      "tiziano": 642,
      "romina": 643,
      "cc": 644,
      "benedetta": 645,
      "ccio": 646,
      "bia": 647,
      "eugenio": 648,
      "ago": 649,
      "agos": 650,
      "miha": 651,
      "lga": 652,
      "olga": 653,
      "max": 654,
      "tas": 655,
      "rgi": 656,
      "virgi": 657,
      "imma": 658,
      "ssa": 659,
      "saman": 660,
      "meli": 661,
      "viana": 662,
      "omas": 663,
      "thomas": 664,
      "emilia": 665,
      "leo": 666,
      "lucio": 667,
      "gina": 668,
      "diana": 669,
      "ilenia": 670,
      "marcella": 671,
      "fabiana": 672,
      "flavia": 673,
      "felice": 674,
      "mirco": 675,
      "denis": 676,
      "dan": 677,
      "ludo": 678,
      "ludovi": 679,
      "biagio": 680,
      "giusi": 681,
      "agostino": 682,
      "antonia": 683,
      "loris": 684,
      "cilia": 685,
      "cecilia": 686,
      "ada": 687,
      "fu": 688,
      "fulv": 689,
      "alo": 690,
      "anca": 691,
      "arita": 692,
      "dale": 693,
      "pat": 694,
      "maddale": 695,
      "maddalena": 696,
      "mano": 697,
      "denise": 698,
      "clara": 699,
      "deborah": 700,
      "susanna": 701,
      "mela": 702,
      "pamela": 703,
      "emiliano": 704,
      "viviana": 705,
      "tin": 706,
      "erica": 707,
      "carolina": 708,
      "graziano": 709,
      "tatiana": 710,
      "silvano": 711,
      "pierluigi": 712,
      "gianna": 713,
      "cca": 714,
      "gigi": 715,
      "os": 716,
      "fausto": 717,
      "ahmed": 718,
      "mariana": 719,
      "vin": 720,
      "kevin": 721,
      "ann": 722,
      "jen": 723,
      "virginia": 724,
      "renzo": 725,
      "anda": 726,
      "mariagrazia": 727,
      "gero": 728,
      "rino": 729,
      "simonetta": 730,
      "piera": 731,
      "greta": 732,
      "gor": 733,
      "tonino": 734,
      "natalia": 735,
      "nzio": 736,
      "nunzio": 737,
      "bruna": 738,
      "carlotta": 739,
      "adele": 740,
      "eva": 741,
      "costan": 742,
      "valentino": 743,
      "bi": 744,
      "bianca": 745,
      "enrica": 746,
      "ernes": 747,
      "alexand": 748,
      "ernesto": 749,
      "cy": 750,
      "gna": 751,
      "igna": 752,
      "etty": 753,
      "ivano": 754,
      "annarita": 755,
      "morena": 756,
      "fiorella": 757,
      "ida": 758,
      "mimma": 759,
      "rebe": 760,
      "rebecca": 761,
      "ag": 762,
      "nese": 763,
      "agnese": 764,
      "rezia": 765,
      "lucrezia": 766,
      "melissa": 767,
      "mariaro": 768,
      "ion": 769,
      "fernando": 770,
      "catia": 771,
      "michel": 772,
      "du": 773,
      "elvi": 774,
      "elvira": 775,
      "ugo": 776,
      "ignazio": 777,
      "gianmarco": 778,
      "moren": 779,
      "moreno": 780,
      "ry": 781,
      "fabiola": 782,
      "ettore": 783,
      "marinella": 784,
      "renata": 785,
      "mariano": 786,
      "gabriel": 787,
      "mer": 788,
      "mery": 789,
      "nina": 790,
      "anita": 791,
      "sabina": 792,
      "fulvio": 793,
      "ludovica": 794,
      "monia": 795,
      "rin": 796,
      "aga": 797,
      "nio": 798,
      "rach": 799,
      "rachele": 800,
      "lde": 801,
      "mati": 802,
      "asia": 803,
      "matilde": 804,
      "rosi": 805,
      "setta": 806,
      "aur": 807,
      "ck": 808,
      "dinando": 809,
      "ferdinando": 810,
      "valter": 811,
      "vincenza": 812,
      "tha": 813,
      "con": 814,
      "samantha": 815,
      "orazio": 816,
      "tamara": 817,
      "dina": 818,
      "irina": 819,
      "santo": 820,
      "ezio": 821,
      "za": 822,
      "lorenza": 823,
      "mihaela": 824,
      "iu": 825,
      "luis": 826,
      "samuel": 827,
      "ge": 828,
      "cristiana": 829,
      "alfio": 830,
      "mel": 831,
      "melania": 832,
      "ctor": 833,
      "victor": 834,
      "domenica": 835,
      "patrizio": 836,
      "agata": 837,
      "pippo": 838,
      "natas": 839,
      "nicco": 840,
      "ramo": 841,
      "niccolo": 842,
      "vera": 843,
      "vasi": 844,
      "fo": 845,
      "lfo": 846,
      "dolfo": 847,
      "giampiero": 848,
      "oscar": 849,
      "rosetta": 850,
      "pierpaolo": 851,
      "calo": 852,
      "calogero": 853,
      "rosalia": 854,
      "maura": 855,
      "lorella": 856,
      "jose": 857,
      "atti": 858,
      "gil": 859,
      "attilio": 860,
      "by": 861,
      "roby": 862,
      "marino": 863,
      "mik": 864,
      "dora": 865,
      "sarah": 866,
      "amb": 867,
      "nicolas": 868,
      "tonia": 869,
      "vale": 870,
      "edeo": 871,
      "ciccio": 872,
      "amedeo": 873,
      "alexandra": 874,
      "uri": 875,
      "nello": 876,
      "gabriela": 877,
      "lenia": 878,
      "ylenia": 879,
      "ea": 880,
      "wil": 881,
      "liam": 882,
      "susy": 883,
      "ramona": 884,
      "william": 885,
      "ola": 886,
      "este": 887,
      "ester": 888,
      "nich": 889,
      "olas": 890,
      "nicholas": 891,
      "ccia": 892,
      "for": 893,
      "fortu": 894,
      "cl": 895,
      "lana": 896,
      "adrian": 897,
      "meo": 898,
      "beppe": 899,
      "florin": 900,
      "cat": 901,
      "igor": 902,
      "gianluigi": 903,
      "flora": 904,
      "genny": 905,
      "andrei": 906,
      "vasile": 907,
      "it": 908,
      "sp": 909,
      "artu": 910,
      "arturo": 911,
      "des": 912,
      "gusto": 913,
      "augusto": 914,
      "martino": 915,
      "loretta": 916,
      "mino": 917,
      "natale": 918,
      "dio": 919,
      "santina": 920,
      "yo": 921,
      "gli": 922,
      "elmo": 923,
      "gugli": 924,
      "guglielmo": 925,
      "dano": 926,
      "giordano": 927,
      "giampaolo": 928,
      "id": 929,
      "ionu": 930,
      "toni": 931,
      "said": 932,
      "ionut": 933,
      "lello": 934,
      "saria": 935,
      "zz": 936,
      "nifer": 937,
      "tima": 938,
      "fatima": 939,
      "robert": 940,
      "jennifer": 941,
      "mariarosaria": 942,
      "livio": 943,
      "viola": 944,
      "eugenia": 945,
      "elina": 946,
      "har": 947,
      "shar": 948,
      "sharon": 949,
      "alin": 950,
      "rug": 951,
      "ambra": 952,
      "tto": 953,
      "benedetto": 954,
      "livia": 955,
      "stas": 956,
      "anastas": 957,
      "anastasia": 958,
      "aniello": 959,
      "floriana": 960,
      "mariateresa": 961,
      "manuele": 962,
      "amalia": 963,
      "ino": 964,
      "pet": 965,
      "marius": 966,
      "jenny": 967,
      "michelangelo": 968,
      "eliana": 969,
      "dany": 970,
      "marica": 971,
      "nan": 972,
      "rosella": 973,
      "mihai": 974,
      "nancy": 975,
      "anth": 976,
      "marian": 977,
      "ony": 978,
      "gasp": 979,
      "anthony": 980,
      "gaspare": 981,
      "lella": 982,
      "patrick": 983,
      "costantino": 984,
      "aurelio": 985,
      "sv": 986,
      "lory": 987,
      "rosita": 988,
      "nuccia": 989,
      "romano": 990,
      "ppa": 991,
      "raffaela": 992,
      "han": 993,
      "francy": 994,
      "nathan": 995,
      "jonathan": 996,
      "md": 997,
      "yuri": 998,
      "kh": 999,
      "stefan": 1000,
      "rodolfo": 1001,
      "landa": 1002,
      "ori": 1003,
      "iolanda": 1004,
      "miriana": 1005,
      "andreea": 1006,
      "italo": 1007,
      "orietta": 1008,
      "samanta": 1009,
      "edu": 1010,
      "rizia": 1011,
      "romeo": 1012,
      "vita": 1013,
      "eduardo": 1014,
      "ly": 1015,
      "otta": 1016,
      "gianpaolo": 1017,
      "terry": 1018,
      "rachi": 1019,
      "rachid": 1020,
      "egi": 1021,
      "sta": 1022,
      "egidio": 1023,
      "nata": 1024,
      "remo": 1025,
      "llo": 1026,
      "vra": 1027,
      "gine": 1028,
      "ginevra": 1029,
      "ire": 1030,
      "ssan": 1031,
      "ennio": 1032,
      "ermi": 1033,
      "hassan": 1034,
      "desire": 1035,
      "desiree": 1036,
      "ldo": 1037,
      "mmed": 1038,
      "luigina": 1039,
      "mohammed": 1040,
      "eros": 1041,
      "hn": 1042,
      "gioia": 1043,
      "john": 1044,
      "kari": 1045,
      "karim": 1046,
      "costanza": 1047,
      "vino": 1048,
      "patty": 1049,
      "daria": 1050,
      "usta": 1051,
      "kek": 1052,
      "gregor": 1053,
      "natascia": 1054,
      "gregorio": 1055,
      "gemma": 1056,
      "ndo": 1057,
      "caela": 1058,
      "micaela": 1059,
      "mondo": 1060,
      "etlana": 1061,
      "svetlana": 1062,
      "cet": 1063,
      "col": 1064,
      "cettina": 1065,
      "dali": 1066,
      "ketty": 1067,
      "martin": 1068,
      "dalila": 1069,
      "ks": 1070,
      "oks": 1071,
      "doriana": 1072,
      "oksana": 1073,
      "ac": 1074,
      "gioac": 1075,
      "luigia": 1076,
      "chino": 1077,
      "amelia": 1078,
      "michelle": 1079,
      "gioacchino": 1080,
      "nis": 1081,
      "carlos": 1082,
      "dennis": 1083,
      "titti": 1084,
      "delia": 1085,
      "oli": 1086,
      "emanuel": 1087,
      "nicoleta": 1088,
      "ines": 1089,
      "vania": 1090,
      "ivo": 1091,
      "sef": 1092,
      "ussef": 1093,
      "youssef": 1094,
      "ul": 1095,
      "paul": 1096,
      "afi": 1097,
      "lando": 1098,
      "nanda": 1099,
      "sella": 1100,
      "arc": 1101,
      "gisella": 1102,
      "erman": 1103,
      "mariapia": 1104,
      "serafi": 1105,
      "orlando": 1106,
      "fernanda": 1107,
      "mariarosa": 1108,
      "ermanno": 1109,
      "nic": 1110,
      "cle": 1111,
      "dante": 1112,
      "clemen": 1113,
      "azi": 1114,
      "orge": 1115,
      "carola": 1116,
      "george": 1117,
      "aziz": 1118,
      "gianpiero": 1119,
      "angelina": 1120,
      "mirela": 1121,
      "betty": 1122,
      "licia": 1123,
      "oriana": 1124,
      "alino": 1125,
      "valdo": 1126,
      "osvaldo": 1127,
      "dou": 1128,
      "pio": 1129,
      "carmelina": 1130,
      "victoria": 1131,
      "gilda": 1132,
      "azz": 1133,
      "cel": 1134,
      "isa": 1135,
      "pal": 1136,
      "urra": 1137,
      "ludovico": 1138,
      "gilberto": 1139,
      "azzurra": 1140,
      "celeste": 1141,
      "frank": 1142,
      "giuseppa": 1143,
      "danila": 1144,
      "santino": 1145,
      "ruggero": 1146,
      "peter": 1147,
      "elsa": 1148,
      "tolo": 1149,
      "marialuisa": 1150,
      "lucy": 1151,
      "bartolo": 1152,
      "luisella": 1153,
      "gessica": 1154,
      "ju": 1155,
      "julia": 1156,
      "imondo": 1157,
      "niko": 1158,
      "raimondo": 1159,
      "felicia": 1160,
      "ioana": 1161,
      "rodi": 1162,
      "suelo": 1163,
      "consuelo": 1164,
      "rodica": 1165,
      "rossano": 1166,
      "fortunato": 1167,
      "pri": 1168,
      "stefy": 1169,
      "ub": 1170,
      "saba": 1171,
      "lavi": 1172,
      "lavinia": 1173,
      "pasqualina": 1174,
      "ira": 1175,
      "my": 1176,
      "moira": 1177,
      "diletta": 1178,
      "erik": 1179,
      "tommy": 1180,
      "camillo": 1181,
      "adam": 1182,
      "aurelia": 1183,
      "ile": 1184,
      "liu": 1185,
      "lillo": 1186,
      "sebastian": 1187,
      "stantin": 1188,
      "alexandru": 1189,
      "constantin": 1190,
      "natasha": 1191,
      "ileana": 1192,
      "tius": 1193,
      "katius": 1194,
      "katiuscia": 1195,
      "achi": 1196,
      "lle": 1197,
      "arissa": 1198,
      "clarissa": 1199,
      "ottavio": 1200,
      "achille": 1201,
      "andro": 1202,
      "leandro": 1203,
      "jack": 1204,
      "fulvia": 1205,
      "clelia": 1206,
      "catalin": 1207,
      "rica": 1208,
      "viorica": 1209,
      "fabiano": 1210,
      "melina": 1211,
      "lma": 1212,
      "vilma": 1213,
      "antonina": 1214,
      "nuccio": 1215,
      "bo": 1216,
      "gdan": 1217,
      "bogdan": 1218,
      "cola": 1219,
      "immacola": 1220,
      "immacolata": 1221,
      "patricia": 1222,
      "brunella": 1223,
      "pierangelo": 1224,
      "ito": 1225,
      "gioele": 1226,
      "gabry": 1227,
      "emily": 1228,
      "graziana": 1229,
      "benito": 1230,
      "ph": 1231,
      "joseph": 1232,
      "toto": 1233,
      "fiorenzo": 1234,
      "arcangelo": 1235,
      "nika": 1236,
      "monika": 1237,
      "oreste": 1238,
      "vanna": 1239,
      "alid": 1240,
      "santa": 1241,
      "khalid": 1242,
      "hi": 1243,
      "ir": 1244,
      "dorina": 1245,
      "cham": 1246,
      "sabino": 1247,
      "ilario": 1248,
      "miki": 1249,
      "hicham": 1250,
      "irma": 1251,
      "iris": 1252,
      "lele": 1253,
      "mpia": 1254,
      "germano": 1255,
      "kekko": 1256,
      "olimpia": 1257,
      "cost": 1258,
      "fra": 1259,
      "gerar": 1260,
      "erminia": 1261,
      "costel": 1262,
      "ngh": 1263,
      "xana": 1264,
      "roxana": 1265,
      "singh": 1266,
      "lilia": 1267,
      "adolfo": 1268,
      "savino": 1269,
      "fiore": 1270,
      "uro": 1271,
      "sauro": 1272,
      "miky": 1273,
      "gda": 1274,
      "magda": 1275,
      "che": 1276,
      "seby": 1277,
      "orghe": 1278,
      "gheorghe": 1279,
      "palma": 1280,
      "fabrizia": 1281,
      "fiorenza": 1282,
      "icol": 1283,
      "lari": 1284,
      "rola": 1285,
      "girola": 1286,
      "maicol": 1287,
      "piergiorgio": 1288,
      "larisa": 1289,
      "girolamo": 1290,
      "mza": 1291,
      "enella": 1292,
      "serenella": 1293,
      "hamza": 1294,
      "mid": 1295,
      "donata": 1296,
      "leta": 1297,
      "valentin": 1298,
      "hamid": 1299,
      "violeta": 1300,
      "galina": 1301,
      "mana": 1302,
      "sel": 1303,
      "ene": 1304,
      "salah": 1305,
      "hamma": 1306,
      "muhamma": 1307,
      "germana": 1308,
      "selene": 1309,
      "muhammad": 1310,
      "vanni": 1311,
      "tonio": 1312,
      "rosangela": 1313,
      "lian": 1314,
      "iulian": 1315,
      "anti": 1316,
      "rinaldo": 1317,
      "batti": 1318,
      "antimo": 1319,
      "battista": 1320,
      "erino": 1321,
      "iole": 1322,
      "cristi": 1323,
      "ruccio": 1324,
      "ferruccio": 1325,
      "ionela": 1326,
      "sabatino": 1327,
      "frio": 1328,
      "silia": 1329,
      "abdo": 1330,
      "mariia": 1331,
      "pinuccia": 1332,
      "onofrio": 1333,
      "vanda": 1334,
      "ppino": 1335,
      "peppino": 1336,
      "rel": 1337,
      "natalina": 1338,
      "viorel": 1339,
      "bri": 1340,
      "bre": 1341,
      "glio": 1342,
      "mbre": 1343,
      "ombre": 1344,
      "gida": 1345,
      "giglio": 1346,
      "brigida": 1347,
      "ombretta": 1348,
      "gigliola": 1349,
      "llio": 1350,
      "tullio": 1351,
      "ionel": 1352,
      "musta": 1353,
      "pha": 1354,
      "sorin": 1355,
      "mustapha": 1356,
      "andreina": 1357,
      "sante": 1358,
      "svit": 1359,
      "ioan": 1360,
      "svitlana": 1361,
      "ed": 1362,
      "ide": 1363,
      "met": 1364,
      "rio": 1365,
      "elaide": 1366,
      "demet": 1367,
      "pasqualino": 1368,
      "adelaide": 1369,
      "demetrio": 1370,
      "zo": 1371,
      "elda": 1372,
      "doina": 1373,
      "luigino": 1374,
      "ciao": 1375,
      "giudi": 1376,
      "manola": 1377,
      "giuditta": 1378,
      "nto": 1379,
      "aren": 1380,
      "nazz": 1381,
      "radu": 1382,
      "mosta": 1383,
      "angy": 1384,
      "giaci": 1385,
      "gaetana": 1386,
      "areno": 1387,
      "nazzareno": 1388,
      "mostafa": 1389,
      "giacinto": 1390,
      "kha": 1391,
      "smi": 1392,
      "cosmi": 1393,
      "mariachiara": 1394,
      "dija": 1395,
      "khadija": 1396,
      "cosmin": 1397,
      "cetty": 1398,
      "juri": 1399,
      "enea": 1400,
      "fortuna": 1401,
      "clemente": 1402,
      "ria": 1403,
      "siria": 1404,
      "michelina": 1405,
      "rosamaria": 1406,
      "serafino": 1407,
      "giero": 1408,
      "mariarita": 1409,
      "fausta": 1410,
      "ruggiero": 1411,
      "dmi": 1412,
      "arna": 1413,
      "giosu": 1414,
      "cipri": 1415,
      "virgilio": 1416,
      "nicu": 1417,
      "liudmi": 1418,
      "arnaldo": 1419,
      "giosue": 1420,
      "ciprian": 1421,
      "liudmila": 1422,
      "maurizia": 1423,
      "nicolae": 1424,
      "nna": 1425,
      "pari": 1426,
      "iamino": 1427,
      "nonna": 1428,
      "beniamino": 1429,
      "iulia": 1430,
      "nicla": 1431,
      "paride": 1432,
      "ayo": 1433,
      "yas": 1434,
      "sine": 1435,
      "lucil": 1436,
      "gianmaria": 1437,
      "sola": 1438,
      "orsola": 1439,
      "serafina": 1440,
      "ayoub": 1441,
      "yassine": 1442,
      "lucilla": 1443,
      "modou": 1444,
      "emiliana": 1445,
      "manolo": 1446,
      "oana": 1447,
      "vis": 1448,
      "devis": 1449,
      "marzio": 1450,
      "clementina": 1451,
      "tru": 1452,
      "mitru": 1453,
      "vina": 1454,
      "maristella": 1455,
      "salvina": 1456,
      "cira": 1457,
      "sergiu": 1458,
      "dumitru": 1459,
      "bartolomeo": 1460,
      "romo": 1461,
      "mama": 1462,
      "romolo": 1463,
      "mamadou": 1464,
      "saro": 1465,
      "denisa": 1466,
      "madalina": 1467,
      "ikh": 1468,
      "pierfrancesco": 1469,
      "petru": 1470,
      "cheikh": 1471,
      "iuliana": 1472,
      "cataldo": 1473,
      "arben": 1474,
      "raffaello": 1475,
      "leone": 1476,
      "desy": 1477,
      "ili": 1478,
      "iacopo": 1479,
      "ersilia": 1480,
      "mariantonietta": 1481,
      "claudiu": 1482,
      "ilir": 1483,
      "nita": 1484,
      "lumi": 1485,
      "pierino": 1486,
      "erminio": 1487,
      "luminita": 1488,
      "chicca": 1489,
      "giampietro": 1490,
      "cri": 1491,
      "annunzia": 1492,
      "marilisa": 1493,
      "samuela": 1494,
      "annunziata": 1495,
      "len": 1496,
      "uta": 1497,
      "uccia": 1498,
      "micol": 1499,
      "annachiara": 1500,
      "mariuccia": 1501,
      "adamo": 1502,
      "italia": 1503,
      "lenuta": 1504,
      "efi": 1505,
      "sio": 1506,
      "tro": 1507,
      "estro": 1508,
      "silvestro": 1509,
      "natalino": 1510,
      "efisio": 1511,
      "nicolina": 1512,
      "gavino": 1513,
      "ubaldo": 1514,
      "nel": 1515,
      "cole": 1516,
      "riano": 1517,
      "rogio": 1518,
      "ercole": 1519,
      "giuly": 1520,
      "doriano": 1521,
      "ambrogio": 1522,
      "nelu": 1523,
      "fed": 1524,
      "glia": 1525,
      "siglia": 1526,
      "gianmario": 1527,
      "sabry": 1528,
      "consiglia": 1529,
      "primo": 1530,
      "gerardina": 1531,
      "fedele": 1532,
      "sina": 1533,
      "paolino": 1534,
      "manlio": 1535,
      "giancarla": 1536,
      "pasqua": 1537,
      "alfonsina": 1538,
      "mikele": 1539,
      "catello": 1540,
      "altin": 1541,
      "chicco": 1542,
      "mes": 1543,
      "ermes": 1544,
      "savio": 1545,
      "sso": 1546,
      "ves": 1547,
      "nives": 1548,
      "russo": 1549,
      "filippa": 1550,
      "kekka": 1551,
      "erina": 1552,
      "lamberto": 1553,
      "mariacristina": 1554,
      "pierina": 1555,
      "gianpietro": 1556,
      "giordana": 1557,
      "emidio": 1558,
      "donatello": 1559,
      "liuba": 1560,
      "gerarda": 1561,
      "bero": 1562,
      "libero": 1563,
      "giovy": 1564,
      "gianvito": 1565,
      "ottavia": 1566,
      "lal": 1567,
      "nzo": 1568,
      "oro": 1569,
      "mariolina": 1570,
      "lalla": 1571,
      "oronzo": 1572,
      "em": 1573,
      "fy": 1574,
      "giuli": 1575,
      "liviana": 1576,
      "raffy": 1577,
      "emmanuele": 1578,
      "giulietta": 1579,
      "cr": 1580,
      "cenzo": 1581,
      "escenzo": 1582,
      "giando": 1583,
      "lica": 1584,
      "menico": 1585,
      "vasilica": 1586,
      "crescenzo": 1587,
      "giandomenico": 1588,
      "mm": 1589,
      "arca": 1590,
      "titta": 1591,
      "liber": 1592,
      "etto": 1593,
      "mariarca": 1594,
      "elide": 1595,
      "fiamm": 1596,
      "concetto": 1597,
      "libera": 1598,
      "fiammetta": 1599,
      "lollo": 1600,
      "nco": 1601,
      "milv": 1602,
      "viero": 1603,
      "pinco": 1604,
      "oliviero": 1605,
      "milva": 1606,
      "minia": 1607,
      "mariagiovanna": 1608,
      "arosa": 1609,
      "flaminia": 1610,
      "giammarco": 1611,
      "annarosa": 1612,
      "tobia": 1613,
      "pierangela": 1614,
      "agostina": 1615,
      "mani": 1616,
      "lupo": 1617,
      "mascia": 1618,
      "genni": 1619,
      "giambattista": 1620,
      "manila": 1621,
      "nni": 1622,
      "tt": 1623,
      "cosetta": 1624,
      "espo": 1625,
      "ninni": 1626,
      "elett": 1627,
      "sito": 1628,
      "fortunata": 1629,
      "esposito": 1630,
      "elettra": 1631,
      "cesari": 1632,
      "marici": 1633,
      "sabato": 1634,
      "cesarina": 1635,
      "maricica": 1636,
      "betta": 1637,
      "gel": 1638,
      "anza": 1639,
      "alti": 1640,
      "eranza": 1641,
      "mis": 1642,
      "demis": 1643,
      "somina": 1644,
      "giustina": 1645,
      "gualti": 1646,
      "agatino": 1647,
      "speranza": 1648,
      "checco": 1649,
      "gelsomina": 1650,
      "gualtiero": 1651,
      "nicolino": 1652,
      "ame": 1653,
      "ky": 1654,
      "mpe": 1655,
      "renza": 1656,
      "rigo": 1657,
      "paky": 1658,
      "marialaura": 1659,
      "giacoma": 1660,
      "concy": 1661,
      "pompe": 1662,
      "amerigo": 1663,
      "pompeo": 1664,
      "alvi": 1665,
      "gionata": 1666,
      "pinuccio": 1667,
      "jole": 1668,
      "palmina": 1669,
      "alvise": 1670,
      "bale": 1671,
      "ot": 1672,
      "ary": 1673,
      "annibale": 1674,
      "ilary": 1675,
      "otello": 1676,
      "grino": 1677,
      "pel": 1678,
      "lapo": 1679,
      "legrino": 1680,
      "costanzo": 1681,
      "ignazia": 1682,
      "duccio": 1683,
      "arcangela": 1684,
      "pellegrino": 1685,
      "annalaura": 1686,
      "abramo": 1687,
      "sveva": 1688,
      "edi": 1689,
      "mba": 1690,
      "sse": 1691,
      "uli": 1692,
      "colo": 1693,
      "fredi": 1694,
      "enzina": 1695,
      "manfredi": 1696,
      "salvatrice": 1697,
      "vincenzina": 1698,
      "giustino": 1699,
      "ulisse": 1700,
      "colomba": 1701,
      "lan": 1702,
      "guerino": 1703,
      "lanfranco": 1704,
      "ezia": 1705,
      "vella": 1706,
      "rico": 1707,
      "errico": 1708,
      "novella": 1709,
      "vitale": 1710,
      "mariafrancesca": 1711,
      "gianfranca": 1712,
      "ausilia": 1713,
      "edmondo": 1714
    },
    "merges": [
      "a n",
      "a r",
      "e l",
      "i a",
      "i o",
      "n a",
      "m ar",
      "c o",
      "a l",
      "r i",
      "t o",
      "r o",
      "e s",
      "g i",
      "l a",
      "c a",
      "e n",
      "e r",
      "an d",
      "n i",
      "l u",
      "m a",
      "l o",
      "el e",
      "f r",
      "fr an",
      "s i",
      "m i",
      "r a",
      "t i",
      "r e",
      "m o",
      "gi u",
      "g io",
      "t a",
      "s a",
      "an to",
      "c es",
      "an na",
      "fran ces",
      "v i",
      "an o",
      "p a",
      "d o",
      "el a",
      "al es",
      "ales s",
      "t e",
      "anto n",
      "p p",
      "c h",
      "mar ia",
      "el la",
      "c ar",
      "an a",
      "s e",
      "l i",
      "d e",
      "b er",
      "si mo",
      "a b",
      "n o",
      "en z",
      "ar a",
      "giu se",
      "pp e",
      "frances co",
      "ti na",
      "giuse ppe",
      "and re",
      "e t",
      "an i",
      "mar co",
      "aless and",
      "enz o",
      "andre a",
      "anton io",
      "pa o",
      "la u",
      "d ani",
      "lu ca",
      "ber to",
      "an g",
      "gio v",
      "an ni",
      "z ia",
      "s te",
      "ste f",
      "d a",
      "mar i",
      "p i",
      "mi ch",
      "f ab",
      "ma s",
      "lu i",
      "alessand ro",
      "ri s",
      "v al",
      "m an",
      "z io",
      "ro s",
      "ma t",
      "giov anni",
      "man u",
      "ni co",
      "e de",
      "lu c",
      "pao lo",
      "frances ca",
      "s al",
      "ma u",
      "gi an",
      "el i",
      "l v",
      "sal v",
      "ro berto",
      "c lau",
      "clau d",
      "l e",
      "n c",
      "c ris",
      "l ia",
      "n e",
      "ri zio",
      "stef ano",
      "f ede",
      "si lv",
      "to re",
      "lui gi",
      "fede ri",
      "el o",
      "g ia",
      "da vi",
      "mich ele",
      "al e",
      "salv a",
      "salva tore",
      "et ta",
      "fab io",
      "vi nc",
      "te o",
      "lo r",
      "davi de",
      "mat teo",
      "m en",
      "mar io",
      "g ab",
      "s ara",
      "ang ela",
      "vinc enzo",
      "ch i",
      "gab ri",
      "mas simo",
      "gio r",
      "sa b",
      "car lo",
      "o n",
      "ang elo",
      "lau ra",
      "simo ne",
      "dani ele",
      "f a",
      "nico la",
      "t ri",
      "val en",
      "ni ca",
      "fran co",
      "chi ara",
      "t er",
      "anton ella",
      "ele na",
      "ri na",
      "giu lia",
      "an ia",
      "c i",
      "dani ela",
      "e ro",
      "e manu",
      "s er",
      "pao la",
      "z i",
      "t ia",
      "d i",
      "valen tina",
      "lor enzo",
      "g ra",
      "ri ta",
      "silv ia",
      "men i",
      "ar ia",
      "ra f",
      "do meni",
      "g a",
      "cris tina",
      "claud io",
      "raf fa",
      "mau rizio",
      "ar do",
      "pa tri",
      "domeni co",
      "mi r",
      "ti an",
      "luc ia",
      "c e",
      "ro ber",
      "alessand ra",
      "k a",
      "al i",
      "federi ca",
      "mar tina",
      "stef ania",
      "patri zia",
      "i l",
      "al berto",
      "c car",
      "ri ccar",
      "riccar do",
      "f i",
      "rober ta",
      "li ano",
      "giov anna",
      "aless ia",
      "et ro",
      "pi etro",
      "val er",
      "g o",
      "eli sa",
      "mau ro",
      "aless io",
      "car m",
      "b ar",
      "ro sa",
      "ar io",
      "federi co",
      "simo na",
      "gabri ele",
      "r u",
      "en ri",
      "mo nica",
      "claud ia",
      "el lo",
      "q u",
      "s qu",
      "pa squ",
      "es a",
      "ter esa",
      "gior gio",
      "gian luca",
      "b ara",
      "bar bara",
      "e mi",
      "luc i",
      "n zia",
      "a d",
      "anto ni",
      "h a",
      "i v",
      "m e",
      "pp o",
      "gi anni",
      "pasqu ale",
      "fab rizio",
      "re na",
      "l io",
      "enri co",
      "mat tia",
      "ti zi",
      "gra zia",
      "emanu ele",
      "raffa ele",
      "fi li",
      "ar i",
      "mich ela",
      "to r",
      "ser gio",
      "g en",
      "fili ppo",
      "u s",
      "b ru",
      "s o",
      "ad ri",
      "d ia",
      "na t",
      "vi t",
      "li sa",
      "t ta",
      "gia co",
      "s and",
      "ros s",
      "ale x",
      "giaco mo",
      "lui sa",
      "a s",
      "il aria",
      "sab rina",
      "vit tor",
      "pi er",
      "valer ia",
      "n u",
      "and o",
      "pi ero",
      "cris tian",
      "ci nzia",
      "e do",
      "gior gia",
      "luci ano",
      "giu s",
      "mas si",
      "le on",
      "leon ardo",
      "tizi ana",
      "v io",
      "mar c",
      "ga et",
      "o no",
      "enz a",
      "mi liano",
      "massi miliano",
      "gius y",
      "ti no",
      "carm ela",
      "e ri",
      "k o",
      "gaet ano",
      "m ma",
      "o ra",
      "ele ono",
      "eleono ra",
      "b e",
      "s on",
      "son ia",
      "v ero",
      "vero nica",
      "mari na",
      "li ana",
      "ar o",
      "ca te",
      "cate rina",
      "bru no",
      "lo re",
      "li na",
      "d ario",
      "e go",
      "di ego",
      "a u",
      "emanu ela",
      "r en",
      "i na",
      "car la",
      "gra zi",
      "d ana",
      "o r",
      "e na",
      "ser ena",
      "vi to",
      "manu ela",
      "c co",
      "na dia",
      "to m",
      "m u",
      "eli sab",
      "elisab etta",
      "le na",
      "antoni etta",
      "n ia",
      "mir ko",
      "ch ris",
      "chris tian",
      "iv an",
      "g h",
      "mar ta",
      "ros aria",
      "mi ne",
      "car mine",
      "es si",
      "gabri ella",
      "essi ca",
      "manu el",
      "s t",
      "gen n",
      "me d",
      "sa mu",
      "lore dana",
      "f la",
      "mas o",
      "tom maso",
      "b ora",
      "de bora",
      "ci ro",
      "anna maria",
      "ali ce",
      "silv ana",
      "n ella",
      "gian carlo",
      "gh e",
      "ni no",
      "car men",
      "ti ano",
      "ross ella",
      "d en",
      "ros anna",
      "f er",
      "ka tia",
      "marc ello",
      "j essica",
      "pi na",
      "mar a",
      "al do",
      "fran ca",
      "al f",
      "vittor io",
      "ari anna",
      "anna lisa",
      "dani lo",
      "gia da",
      "i ren",
      "iren e",
      "c ia",
      "ros ario",
      "valer io",
      "giu lio",
      "f ia",
      "raffa ella",
      "genn aro",
      "a m",
      "g u",
      "ro cco",
      "carm elo",
      "den i",
      "mari anna",
      "antoni no",
      "mar ghe",
      "marghe rita",
      "b en",
      "so fia",
      "gian franco",
      "sand ro",
      "b a",
      "co nc",
      "l ara",
      "al ia",
      "mar y",
      "el ia",
      "adri ana",
      "salv o",
      "rena to",
      "tri ce",
      "do nat",
      "n es",
      "a trice",
      "be atrice",
      "l etta",
      "mi na",
      "eri ka",
      "samu ele",
      "m berto",
      "pp ina",
      "giuse ppina",
      "donat ella",
      "conc etta",
      "sand ra",
      "se b",
      "n ando",
      "edo ardo",
      "dani el",
      "p e",
      "grazi ella",
      "ro ra",
      "au rora",
      "n y",
      "g er",
      "s u",
      "u mberto",
      "pi no",
      "p o",
      "mari sa",
      "mo ha",
      "j a",
      "v er",
      "al fr",
      "alfr edo",
      "alf on",
      "m mo",
      "mi mmo",
      "me na",
      "al ba",
      "luci ana",
      "na to",
      "ali na",
      "nico letta",
      "giu liano",
      "adri ano",
      "nu nzia",
      "seb as",
      "alfon so",
      "v an",
      "es sa",
      "van essa",
      "w al",
      "ar e",
      "wal ter",
      "v ia",
      "en ia",
      "nico lo",
      "i sab",
      "s an",
      "isab ella",
      "no emi",
      "ti ana",
      "giu liana",
      "e u",
      "eu gen",
      "pe ppe",
      "ben ede",
      "gi no",
      "mari ella",
      "ca mi",
      "cami l",
      "i do",
      "gu ido",
      "s us",
      "fla vio",
      "f io",
      "f lo",
      "t h",
      "ri ana",
      "v a",
      "co po",
      "ga ia",
      "r ra",
      "ti zia",
      "le tizia",
      "ang eli",
      "j o",
      "p ia",
      "us to",
      "moha med",
      "mari ka",
      "vittor ia",
      "gia m",
      "ia m",
      "mir iam",
      "co simo",
      "do nato",
      "sebas tiano",
      "to ny",
      "st ella",
      "li liana",
      "ros y",
      "mari lena",
      "n ta",
      "as su",
      "assu nta",
      "ja copo",
      "m ando",
      "ar mando",
      "f eli",
      "fab i",
      "lu ana",
      "a el",
      "mich ael",
      "fio r",
      "nico le",
      "davi d",
      "car o",
      "k e",
      "lo rena",
      "emi lio",
      "mi lena",
      "camil la",
      "el io",
      "n da",
      "li nda",
      "g lor",
      "t u",
      "glor ia",
      "g re",
      "e mma",
      "silv io",
      "mi ano",
      "da miano",
      "lo mena",
      "fi lomena",
      "o mar",
      "or nella",
      "li no",
      "iv ana",
      "t y",
      "mir ella",
      "co rra",
      "anton ello",
      "corra do",
      "ces are",
      "li dia",
      "simo n",
      "t ania",
      "ros alba",
      "di no",
      "sa ver",
      "saver io",
      "t ti",
      "angeli ca",
      "a h",
      "mari angela",
      "ma d",
      "ross ana",
      "st an",
      "cris tiano",
      "ger ardo",
      "mar zia",
      "tizi ano",
      "ro mina",
      "c c",
      "benede tta",
      "cc io",
      "b ia",
      "eugen io",
      "a go",
      "ago s",
      "mi ha",
      "l ga",
      "o lga",
      "ma x",
      "ta s",
      "r gi",
      "vi rgi",
      "i mma",
      "s sa",
      "sa man",
      "m eli",
      "vi ana",
      "o mas",
      "th omas",
      "emi lia",
      "le o",
      "luc io",
      "gi na",
      "di ana",
      "il enia",
      "marc ella",
      "fabi ana",
      "fla via",
      "feli ce",
      "mir co",
      "deni s",
      "d an",
      "lu do",
      "ludo vi",
      "bia gio",
      "giu si",
      "agos tino",
      "anton ia",
      "lo ris",
      "ci lia",
      "ce cilia",
      "a da",
      "f u",
      "fu lv",
      "al o",
      "an ca",
      "ari ta",
      "d ale",
      "pa t",
      "mad dale",
      "maddale na",
      "m ano",
      "deni se",
      "c lara",
      "debora h",
      "sus anna",
      "m ela",
      "pa mela",
      "emi liano",
      "vi viana",
      "ti n",
      "eri ca",
      "caro lina",
      "grazi ano",
      "ta tiana",
      "silv ano",
      "pier luigi",
      "gi anna",
      "c ca",
      "gi gi",
      "o s",
      "fa usto",
      "ah med",
      "mari ana",
      "vi n",
      "ke vin",
      "an n",
      "j en",
      "virgi nia",
      "r enzo",
      "and a",
      "maria grazia",
      "g ero",
      "ri no",
      "simon etta",
      "pier a",
      "gre ta",
      "go r",
      "to nino",
      "nat alia",
      "n zio",
      "nu nzio",
      "bru na",
      "carlo tta",
      "ad ele",
      "e va",
      "co stan",
      "valen tino",
      "b i",
      "bi anca",
      "enri ca",
      "er nes",
      "alex and",
      "ernes to",
      "c y",
      "g na",
      "i gna",
      "et ty",
      "iv ano",
      "ann arita",
      "mo rena",
      "fior ella",
      "i da",
      "mi mma",
      "re be",
      "rebe cca",
      "a g",
      "nes e",
      "ag nese",
      "re zia",
      "luc rezia",
      "meli ssa",
      "mari aro",
      "io n",
      "fer nando",
      "ca tia",
      "mich el",
      "d u",
      "el vi",
      "elvi ra",
      "u go",
      "igna zio",
      "gian marco",
      "mo ren",
      "moren o",
      "r y",
      "fabio la",
      "et tore",
      "mari nella",
      "rena ta",
      "mari ano",
      "gabri el",
      "m er",
      "mer y",
      "ni na",
      "ani ta",
      "sab ina",
      "fulv io",
      "ludovi ca",
      "mo nia",
      "ri n",
      "a ga",
      "n io",
      "ra ch",
      "rach ele",
      "l de",
      "ma ti",
      "as ia",
      "mati lde",
      "ro si",
      "se tta",
      "au r",
      "c k",
      "di nando",
      "fer dinando",
      "val ter",
      "vinc enza",
      "t ha",
      "co n",
      "saman tha",
      "ora zio",
      "ta mara",
      "di na",
      "i rina",
      "s anto",
      "e zio",
      "z a",
      "lor enza",
      "miha ela",
      "i u",
      "lui s",
      "samu el",
      "g e",
      "cris tiana",
      "alf io",
      "m el",
      "mel ania",
      "c tor",
      "vi ctor",
      "domeni ca",
      "pat rizio",
      "aga ta",
      "pi ppo",
      "na tas",
      "ni cco",
      "ra mo",
      "nicco lo",
      "ver a",
      "va si",
      "f o",
      "l fo",
      "do lfo",
      "giam piero",
      "os car",
      "ro setta",
      "pier paolo",
      "c alo",
      "calo gero",
      "ros alia",
      "mau ra",
      "lor ella",
      "jo se",
      "a tti",
      "gi l",
      "atti lio",
      "b y",
      "ro by",
      "mari no",
      "mi k",
      "do ra",
      "sara h",
      "am b",
      "nicola s",
      "to nia",
      "val e",
      "ede o",
      "ci ccio",
      "am edeo",
      "alexand ra",
      "u ri",
      "n ello",
      "gabri ela",
      "l enia",
      "y lenia",
      "e a",
      "w il",
      "lia m",
      "sus y",
      "ramo na",
      "wil liam",
      "o la",
      "es te",
      "es ter",
      "ni ch",
      "ola s",
      "nich olas",
      "c cia",
      "f or",
      "for tu",
      "c l",
      "l ana",
      "adri an",
      "me o",
      "be ppe",
      "flo rin",
      "ca t",
      "i gor",
      "gian luigi",
      "flo ra",
      "genn y",
      "andre i",
      "vasi le",
      "i t",
      "s p",
      "ar tu",
      "artu ro",
      "d es",
      "g usto",
      "au gusto",
      "mar tino",
      "lore tta",
      "mi no",
      "nat ale",
      "d io",
      "san tina",
      "y o",
      "g li",
      "el mo",
      "gu gli",
      "gugli elmo",
      "d ano",
      "gior dano",
      "giam paolo",
      "i d",
      "io nu",
      "to ni",
      "sa id",
      "ionu t",
      "l ello",
      "s aria",
      "z z",
      "ni fer",
      "ti ma",
      "fa tima",
      "rober t",
      "jen nifer",
      "mariaro saria",
      "li vio",
      "vio la",
      "eugen ia",
      "eli na",
      "h ar",
      "s har",
      "shar on",
      "ali n",
      "ru g",
      "amb ra",
      "t to",
      "benede tto",
      "li via",
      "s tas",
      "ana stas",
      "anastas ia",
      "ani ello",
      "flo riana",
      "maria teresa",
      "manu ele",
      "am alia",
      "i no",
      "p et",
      "mari us",
      "jen ny",
      "michel angelo",
      "eli ana",
      "dan y",
      "mari ca",
      "n an",
      "ros ella",
      "miha i",
      "nan cy",
      "an th",
      "mari an",
      "on y",
      "ga sp",
      "anth ony",
      "gasp are",
      "l ella",
      "patri ck",
      "costan tino",
      "aur elio",
      "s v",
      "lor y",
      "rosi ta",
      "nu ccia",
      "ro mano",
      "p pa",
      "raffa ela",
      "h an",
      "fran cy",
      "nat han",
      "jo nathan",
      "m d",
      "y uri",
      "k h",
      "stef an",
      "ro dolfo",
      "l anda",
      "o ri",
      "io landa",
      "mi riana",
      "andre ea",
      "it alo",
      "ori etta",
      "saman ta",
      "e du",
      "ri zia",
      "ro meo",
      "vi ta",
      "edu ardo",
      "l y",
      "o tta",
      "gian paolo",
      "ter ry",
      "ra chi",
      "rachi d",
      "e gi",
      "s ta",
      "egi dio",
      "na ta",
      "re mo",
      "l lo",
      "v ra",
      "gi ne",
      "gine vra",
      "i re",
      "s san",
      "en nio",
      "er mi",
      "ha ssan",
      "des ire",
      "desire e",
      "l do",
      "m med",
      "luigi na",
      "moha mmed",
      "e ros",
      "h n",
      "gio ia",
      "jo hn",
      "k ari",
      "kari m",
      "costan za",
      "vi no",
      "pat ty",
      "d aria",
      "us ta",
      "ke k",
      "gre gor",
      "natas cia",
      "gregor io",
      "g emma",
      "n do",
      "ca ela",
      "mi caela",
      "mo ndo",
      "et lana",
      "sv etlana",
      "c et",
      "co l",
      "cet tina",
      "d ali",
      "k etty",
      "mar tin",
      "dali la",
      "k s",
      "o ks",
      "do riana",
      "oks ana",
      "a c",
      "gio ac",
      "lui gia",
      "chi no",
      "am elia",
      "michel le",
      "gioac chino",
      "ni s",
      "carlo s",
      "den nis",
      "ti tti",
      "d elia",
      "o li",
      "emanu el",
      "nicole ta",
      "i nes",
      "v ania",
      "iv o",
      "se f",
      "us sef",
      "yo ussef",
      "u l",
      "pa ul",
      "a fi",
      "l ando",
      "n anda",
      "s ella",
      "ar c",
      "gi sella",
      "er man",
      "maria pia",
      "ser afi",
      "or lando",
      "fer nanda",
      "mariaro sa",
      "erman no",
      "ni c",
      "c le",
      "dan te",
      "cle men",
      "a zi",
      "or ge",
      "caro la",
      "ge orge",
      "azi z",
      "gian piero",
      "angeli na",
      "mir ela",
      "b etty",
      "li cia",
      "o riana",
      "ali no",
      "val do",
      "os valdo",
      "do u",
      "p io",
      "carm elina",
      "victor ia",
      "gil da",
      "a zz",
      "c el",
      "i sa",
      "p al",
      "u rra",
      "ludovi co",
      "gil berto",
      "azz urra",
      "cel este",
      "fran k",
      "giuse ppa",
      "dani la",
      "san tino",
      "rug gero",
      "pet er",
      "el sa",
      "to lo",
      "maria luisa",
      "luc y",
      "bar tolo",
      "luis ella",
      "g essica",
      "j u",
      "ju lia",
      "i mondo",
      "ni ko",
      "ra imondo",
      "feli cia",
      "io ana",
      "ro di",
      "su elo",
      "con suelo",
      "rodi ca",
      "ross ano",
      "fortu nato",
      "p ri",
      "stef y",
      "u b",
      "sab a",
      "la vi",
      "lavi nia",
      "pasqu alina",
      "i ra",
      "m y",
      "mo ira",
      "di letta",
      "eri k",
      "tom my",
      "camil lo",
      "ada m",
      "aur elia",
      "i le",
      "li u",
      "li llo",
      "sebas tian",
      "stan tin",
      "alexand ru",
      "con stantin",
      "natas ha",
      "ile ana",
      "ti us",
      "ka tius",
      "katius cia",
      "a chi",
      "l le",
      "ari ssa",
      "cl arissa",
      "otta vio",
      "achi lle",
      "and ro",
      "le andro",
      "ja ck",
      "fulv ia",
      "cl elia",
      "cat alin",
      "ri ca",
      "vio rica",
      "fabi ano",
      "meli na",
      "l ma",
      "vi lma",
      "antoni na",
      "nu ccio",
      "b o",
      "g dan",
      "bo gdan",
      "co la",
      "imma cola",
      "immacola ta",
      "patri cia",
      "bru nella",
      "pier angelo",
      "i to",
      "gio ele",
      "gab ry",
      "emi ly",
      "grazi ana",
      "ben ito",
      "p h",
      "jose ph",
      "to to",
      "fior enzo",
      "arc angelo",
      "ni ka",
      "mo nika",
      "or este",
      "v anna",
      "ali d",
      "san ta",
      "kh alid",
      "h i",
      "i r",
      "do rina",
      "ch am",
      "sab ino",
      "il ario",
      "mik i",
      "hi cham",
      "ir ma",
      "i ris",
      "l ele",
      "m pia",
      "ger mano",
      "kek ko",
      "oli mpia",
      "co st",
      "fr a",
      "ger ar",
      "ermi nia",
      "cost el",
      "n gh",
      "x ana",
      "ro xana",
      "si ngh",
      "li lia",
      "a dolfo",
      "sa vino",
      "fio re",
      "u ro",
      "sa uro",
      "mik y",
      "g da",
      "ma gda",
      "ch e",
      "seb y",
      "or ghe",
      "ghe orghe",
      "pal ma",
      "fab rizia",
      "fior enza",
      "i col",
      "l ari",
      "ro la",
      "gi rola",
      "ma icol",
      "pier giorgio",
      "lari sa",
      "girola mo",
      "m za",
      "en ella",
      "ser enella",
      "ha mza",
      "mi d",
      "do nata",
      "le ta",
      "valen tin",
      "ha mid",
      "vio leta",
      "g alina",
      "m ana",
      "s el",
      "en e",
      "sal ah",
      "ha mma",
      "mu hamma",
      "ger mana",
      "sel ene",
      "muhamma d",
      "v anni",
      "to nio",
      "ros angela",
      "li an",
      "iu lian",
      "an ti",
      "rina ldo",
      "ba tti",
      "anti mo",
      "batti sta",
      "eri no",
      "io le",
      "cris ti",
      "ru ccio",
      "fer ruccio",
      "ion ela",
      "saba tino",
      "fr io",
      "si lia",
      "ab do",
      "mari ia",
      "pi nuccia",
      "ono frio",
      "v anda",
      "pp ino",
      "pe ppino",
      "r el",
      "nat alina",
      "vio rel",
      "b ri",
      "b re",
      "g lio",
      "m bre",
      "o mbre",
      "gi da",
      "gi glio",
      "bri gida",
      "ombre tta",
      "giglio la",
      "l lio",
      "tu llio",
      "ion el",
      "m usta",
      "p ha",
      "so rin",
      "musta pha",
      "andre ina",
      "san te",
      "s vit",
      "io an",
      "svit lana",
      "e d",
      "i de",
      "m et",
      "r io",
      "ela ide",
      "de met",
      "pasqu alino",
      "ad elaide",
      "demet rio",
      "z o",
      "el da",
      "do ina",
      "luigi no",
      "cia o",
      "giu di",
      "mano la",
      "giudi tta",
      "n to",
      "ar en",
      "na zz",
      "ra du",
      "mo sta",
      "ang y",
      "gia ci",
      "gaet ana",
      "aren o",
      "nazz areno",
      "mosta fa",
      "giaci nto",
      "k ha",
      "s mi",
      "co smi",
      "maria chiara",
      "di ja",
      "kha dija",
      "cosmi n",
      "c etty",
      "j uri",
      "en ea",
      "fortu na",
      "clemen te",
      "r ia",
      "si ria",
      "mich elina",
      "rosa maria",
      "serafi no",
      "gi ero",
      "mari arita",
      "fa usta",
      "rug giero",
      "d mi",
      "ar na",
      "gio su",
      "ci pri",
      "virgi lio",
      "nic u",
      "liu dmi",
      "arna ldo",
      "giosu e",
      "cipri an",
      "liudmi la",
      "mau rizia",
      "nicola e",
      "n na",
      "p ari",
      "ia mino",
      "no nna",
      "ben iamino",
      "iu lia",
      "nic la",
      "pari de",
      "a yo",
      "y as",
      "si ne",
      "luc il",
      "gian maria",
      "so la",
      "or sola",
      "serafi na",
      "ayo ub",
      "yas sine",
      "lucil la",
      "mo dou",
      "emi liana",
      "mano lo",
      "o ana",
      "vi s",
      "de vis",
      "mar zio",
      "clemen tina",
      "t ru",
      "mi tru",
      "vi na",
      "mari stella",
      "sal vina",
      "ci ra",
      "ser giu",
      "du mitru",
      "bartolo meo",
      "ro mo",
      "ma ma",
      "romo lo",
      "mama dou",
      "s aro",
      "deni sa",
      "mad alina",
      "i kh",
      "pier francesco",
      "pet ru",
      "che ikh",
      "iu liana",
      "cat aldo",
      "ar ben",
      "raffa ello",
      "leo ne",
      "des y",
      "i li",
      "ia copo",
      "er silia",
      "mari antonietta",
      "claud iu",
      "ili r",
      "ni ta",
      "lu mi",
      "pi erino",
      "ermi nio",
      "lumi nita",
      "chi cca",
      "giam pietro",
      "c ri",
      "an nunzia",
      "mari lisa",
      "samu ela",
      "annunzia ta",
      "l en",
      "u ta",
      "u ccia",
      "mi col",
      "anna chiara",
      "mari uccia",
      "ada mo",
      "it alia",
      "len uta",
      "e fi",
      "s io",
      "t ro",
      "es tro",
      "silv estro",
      "nat alino",
      "efi sio",
      "nico lina",
      "ga vino",
      "ub aldo",
      "n el",
      "co le",
      "ri ano",
      "ro gio",
      "er cole",
      "giu ly",
      "do riano",
      "amb rogio",
      "nel u",
      "f ed",
      "g lia",
      "si glia",
      "gian mario",
      "sab ry",
      "con siglia",
      "pri mo",
      "gerar dina",
      "fed ele",
      "si na",
      "pao lino",
      "man lio",
      "gian carla",
      "pasqu a",
      "alfon sina",
      "mik ele",
      "cat ello",
      "al tin",
      "chi cco",
      "m es",
      "er mes",
      "sa vio",
      "s so",
      "v es",
      "ni ves",
      "ru sso",
      "fili ppa",
      "kek ka",
      "e rina",
      "la mberto",
      "maria cristina",
      "pi erina",
      "gian pietro",
      "gior dana",
      "emi dio",
      "donat ello",
      "liu ba",
      "gerar da",
      "b ero",
      "li bero",
      "giov y",
      "gian vito",
      "otta via",
      "l al",
      "n zo",
      "o ro",
      "mario lina",
      "lal la",
      "oro nzo",
      "e m",
      "f y",
      "giu li",
      "li viana",
      "raf fy",
      "em manuele",
      "giuli etta",
      "c r",
      "c enzo",
      "es cenzo",
      "gi ando",
      "li ca",
      "meni co",
      "vasi lica",
      "cr escenzo",
      "giando menico",
      "m m",
      "ar ca",
      "ti tta",
      "li ber",
      "et to",
      "mari arca",
      "eli de",
      "fia mm",
      "conc etto",
      "liber a",
      "fiamm etta",
      "lo llo",
      "n co",
      "mi lv",
      "vi ero",
      "pi nco",
      "oli viero",
      "milv a",
      "mi nia",
      "maria giovanna",
      "aro sa",
      "fla minia",
      "giam marco",
      "ann arosa",
      "to bia",
      "pier angela",
      "agos tina",
      "m ani",
      "lu po",
      "mas cia",
      "gen ni",
      "giam battista",
      "mani la",
      "n ni",
      "t t",
      "co setta",
      "es po",
      "ni nni",
      "ele tt",
      "si to",
      "fortu nata",
      "espo sito",
      "elett ra",
      "ces ari",
      "mari ci",
      "saba to",
      "cesari na",
      "marici ca",
      "b etta",
      "g el",
      "an za",
      "al ti",
      "er anza",
      "mi s",
      "de mis",
      "so mina",
      "gius tina",
      "gu alti",
      "aga tino",
      "sp eranza",
      "che cco",
      "gel somina",
      "gualti ero",
      "nico lino",
      "a me",
      "k y",
      "m pe",
      "r enza",
      "ri go",
      "pa ky",
      "maria laura",
      "giaco ma",
      "conc y",
      "po mpe",
      "ame rigo",
      "pompe o",
      "al vi",
      "gio nata",
      "pi nuccio",
      "jo le",
      "pal mina",
      "alvi se",
      "b ale",
      "o t",
      "ar y",
      "anni bale",
      "il ary",
      "ot ello",
      "g rino",
      "p el",
      "la po",
      "le grino",
      "costan zo",
      "igna zia",
      "du ccio",
      "arc angela",
      "pel legrino",
      "anna laura",
      "ab ramo",
      "sv eva",
      "e di",
      "m ba",
      "s se",
      "u li",
      "co lo",
      "fr edi",
      "enz ina",
      "man fredi",
      "salva trice",
      "vinc enzina",
      "gius tino",
      "uli sse",
      "colo mba",
      "l an",
      "gu erino",
      "lan franco",
      "e zia",
      "v ella",
      "ri co",
      "er rico",
      "no vella",
      "vit ale",
      "maria francesca",
      "gian franca",
      "au silia",
      "ed mondo"
    ]
  }
}