{
  "version": "1.0",
  "truncation": null,
  "padding": null,
  "added_tokens": [
    {
      "id": 0,
      "content": "[UNK]",
      "single_word": false,
      "lstrip": false,
      "rstrip": false,
      "normalized": false,
      "special": true
    },
    {
      "id": 1,
      "content": "[CLS]",
      "single_word": false,
      "lstrip": false,
      "rstrip": false,
      "normalized": false,
      "special": true
    },
    {
      "id": 2,
      "content": "[SEP]",
      "single_word": false,
      "lstrip": false,
      "rstrip": false,
      "normalized": false,
      "special": true
    },
    {
      "id": 3,
      "content": "[PAD]",
      "single_word": false,
      "lstrip": false,
      "rstrip": false,
      "normalized": false,
      "special": true
    },
    {
      "id": 4,
      "content": "[MASK]",
      "single_word": false,
      "lstrip": false,
      "rstrip": false,
      "normalized": false,
      "special": true
    }
  ],
  "normalizer": null,
  "pre_tokenizer": {
    "type": "Whitespace"
  },
  "post_processor": null,
  "decoder": null,
  "model": {
    "type": "BPE",
    "dropout": null,
    "unk_token": "[UNK]",
    "continuing_subword_prefix": null,
    "end_of_word_suffix": null,
    "fuse_unk": false,
    "vocab": {
      "[UNK]": 0,
      "[CLS]": 1,
      "[SEP]": 2,
      "[PAD]": 3,
      "[MASK]": 4,
      "-": 5,
      "a": 6,
      "b": 7,
      "c": 8,
      "d": 9,
      "e": 10,
      "f": 11,
      "g": 12,
      "h": 13,
      "i": 14,
      "j": 15,
      "k": 16,
      "l": 17,
      "m": 18,
      "n": 19,
      "o": 20,
      "p": 21,
      "q": 22,
      "r": 23,
      "s": 24,
      "t": 25,
      "u": 26,
      "v": 27,
      "w": 28,
      "x": 29,
      "y": 30,
      "z": 31,
      "an": 32,
      "ar": 33,
      "er": 34,
      "en": 35,
      "el": 36,
      "mar": 37,
      "in": 38,
      "ri": 39,
      "jo": 40,
      "ie": 41,
      "on": 42,
      "ke": 43,
      "ann": 44,
      "le": 45,
      "et": 46,
      "ch": 47,
      "mi": 48,
      "ro": 49,
      "st": 50,
      "ma": 51,
      "da": 52,
      "ja": 53,
      "anne": 54,
      "il": 55,
      "co": 56,
      "jan": 57,
      "ra": 58,
      "im": 59,
      "is": 60,
      "th": 61,
      "es": 62,
      "re": 63,
      "ia": 64,
      "and": 65,
      "ij": 66,
      "al": 67,
      "ert": 68,
      "ck": 69,
      "as": 70,
      "ine": 71,
      "han": 72,
      "rob": 73,
      "enn": 74,
      "pa": 75,
      "pet": 76,
      "wil": 77,
      "ni": 78,
      "ger": 79,
      "qu": 80,
      "te": 81,
      "la": 82,
      "je": 83,
      "hen": 84,
      "ran": 85,
      "lo": 86,
      "ren": 87,
      "di": 88,
      "peter": 89,
      "sa": 90,
      "mart": 91,
      "mich": 92,
      "ard": 93,
      "mari": 94,
      "ani": 95,
      "mon": 96,
      "ed": 97,
      "se": 98,
      "ul": 99,
      "dy": 100,
      "ijn": 101,
      "fran": 102,
      "art": 103,
      "que": 104,
      "elle": 105,
      "rick": 106,
      "marc": 107,
      "eri": 108,
      "onn": 109,
      "oen": 110,
      "henk": 111,
      "iet": 112,
      "ry": 113,
      "ell": 114,
      "ou": 115,
      "hans": 116,
      "joh": 117,
      "sand": 118,
      "ris": 119,
      "ique": 120,
      "car": 121,
      "ste": 122,
      "ru": 123,
      "jer": 124,
      "to": 125,
      "am": 126,
      "bert": 127,
      "pat": 128,
      "na": 129,
      "us": 130,
      "vin": 131,
      "john": 132,
      "rene": 133,
      "ge": 134,
      "ca": 135,
      "ron": 136,
      "dani": 137,
      "jeroen": 138,
      "har": 139,
      "piet": 140,
      "kar": 141,
      "ce": 142,
      "paul": 143,
      "lan": 144,
      "cor": 145,
      "ben": 146,
      "her": 147,
      "rit": 148,
      "ieke": 149,
      "wille": 150,
      "fre": 151,
      "lau": 152,
      "ijs": 153,
      "els": 154,
      "win": 155,
      "mark": 156,
      "denn": 157,
      "dennis": 158,
      "the": 159,
      "ian": 160,
      "id": 161,
      "ju": 162,
      "anneke": 163,
      "rid": 164,
      "marcel": 165,
      "ette": 166,
      "man": 167,
      "monique": 168,
      "johan": 169,
      "patrick": 170,
      "eline": 171,
      "lin": 172,
      "frank": 173,
      "tim": 174,
      "lex": 175,
      "ies": 176,
      "jor": 177,
      "ol": 178,
      "anny": 179,
      "willem": 180,
      "em": 181,
      "yv": 182,
      "ina": 183,
      "kim": 184,
      "wim": 185,
      "ta": 186,
      "erik": 187,
      "mo": 188,
      "bart": 189,
      "lis": 190,
      "rich": 191,
      "richard": 192,
      "rie": 193,
      "de": 194,
      "onne": 195,
      "ton": 196,
      "bas": 197,
      "marco": 198,
      "ka": 199,
      "dav": 200,
      "nico": 201,
      "robert": 202,
      "lu": 203,
      "sandra": 204,
      "stef": 205,
      "joo": 206,
      "alex": 207,
      "landa": 208,
      "martijn": 209,
      "ria": 210,
      "jos": 211,
      "linda": 212,
      "ineke": 213,
      "ev": 214,
      "ah": 215,
      "annie": 216,
      "nick": 217,
      "ien": 218,
      "rist": 219,
      "martin": 220,
      "ad": 221,
      "andre": 222,
      "tte": 223,
      "gel": 224,
      "angel": 225,
      "tom": 226,
      "yvonne": 227,
      "ley": 228,
      "est": 229,
      "karin": 230,
      "ham": 231,
      "petra": 232,
      "thijs": 233,
      "jolanda": 234,
      "sander": 235,
      "elly": 236,
      "per": 237,
      "ald": 238,
      "ronald": 239,
      "jac": 240,
      "kees": 241,
      "fa": 242,
      "ph": 243,
      "tho": 244,
      "ast": 245,
      "robin": 246,
      "kevin": 247,
      "jes": 248,
      "mas": 249,
      "anja": 250,
      "mel": 251,
      "maart": 252,
      "gerard": 253,
      "esther": 254,
      "ric": 255,
      "ud": 256,
      "moham": 257,
      "marg": 258,
      "stefan": 259,
      "ber": 260,
      "bo": 261,
      "no": 262,
      "henn": 263,
      "mike": 264,
      "michel": 265,
      "christ": 266,
      "ly": 267,
      "frans": 268,
      "bra": 269,
      "wou": 270,
      "ter": 271,
      "my": 272,
      "anita": 273,
      "ael": 274,
      "michael": 275,
      "niels": 276,
      "os": 277,
      "jaa": 278,
      "roy": 279,
      "sanne": 280,
      "bian": 281,
      "marjo": 282,
      "bar": 283,
      "danny": 284,
      "ali": 285,
      "theo": 286,
      "joke": 287,
      "marij": 288,
      "grid": 289,
      "ingrid": 290,
      "dia": 291,
      "pieter": 292,
      "jacqu": 293,
      "sim": 294,
      "simon": 295,
      "jas": 296,
      "ise": 297,
      "lar": 298,
      "laura": 299,
      "leon": 300,
      "jam": 301,
      "thomas": 302,
      "me": 303,
      "chris": 304,
      "or": 305,
      "ty": 306,
      "daan": 307,
      "anna": 308,
      "daniel": 309,
      "ellen": 310,
      "lotte": 311,
      "hu": 312,
      "roel": 313,
      "be": 314,
      "ven": 315,
      "maarten": 316,
      "jose": 317,
      "lies": 318,
      "ruud": 319,
      "edwin": 320,
      "alie": 321,
      "marianne": 322,
      "eric": 323,
      "fred": 324,
      "lisa": 325,
      "gert": 326,
      "mir": 327,
      "max": 328,
      "ant": 329,
      "mieke": 330,
      "jef": 331,
      "bianca": 332,
      "ir": 333,
      "wen": 334,
      "wendy": 335,
      "bram": 336,
      "wilma": 337,
      "jacqueline": 338,
      "danielle": 339,
      "iek": 340,
      "via": 341,
      "mau": 342,
      "jul": 343,
      "hel": 344,
      "iel": 345,
      "loes": 346,
      "rem": 347,
      "maria": 348,
      "dith": 349,
      "wouter": 350,
      "wes": 351,
      "joe": 352,
      "onny": 353,
      "ana": 354,
      "joost": 355,
      "chant": 356,
      "chantal": 357,
      "sas": 358,
      "nicole": 359,
      "inge": 360,
      "riet": 361,
      "andy": 362,
      "ent": 363,
      "jaap": 364,
      "miran": 365,
      "miranda": 366,
      "su": 367,
      "uk": 368,
      "marieke": 369,
      "frey": 370,
      "jeffrey": 371,
      "gerrit": 372,
      "patric": 373,
      "patricia": 374,
      "harry": 375,
      "arjan": 376,
      "issa": 377,
      "med": 378,
      "mer": 379,
      "carla": 380,
      "bet": 381,
      "rk": 382,
      "dirk": 383,
      "david": 384,
      "cy": 385,
      "ica": 386,
      "ouk": 387,
      "remco": 388,
      "erwin": 389,
      "sar": 390,
      "diana": 391,
      "phan": 392,
      "stephan": 393,
      "iaan": 394,
      "cas": 395,
      "ne": 396,
      "rik": 397,
      "rens": 398,
      "iris": 399,
      "astrid": 400,
      "kia": 401,
      "saskia": 402,
      "jenn": 403,
      "cent": 404,
      "vincent": 405,
      "lou": 406,
      "yce": 407,
      "joyce": 408,
      "suz": 409,
      "mohamed": 410,
      "leo": 411,
      "leen": 412,
      "geert": 413,
      "gerda": 414,
      "jasper": 415,
      "marian": 416,
      "lars": 417,
      "gi": 418,
      "nath": 419,
      "koen": 420,
      "ab": 421,
      "marijke": 422,
      "herman": 423,
      "bri": 424,
      "sy": 425,
      "syl": 426,
      "ur": 427,
      "ruben": 428,
      "marie": 429,
      "lia": 430,
      "flo": 431,
      "ike": 432,
      "judith": 433,
      "anouk": 434,
      "tru": 435,
      "carol": 436,
      "joop": 437,
      "michelle": 438,
      "wesley": 439,
      "tes": 440,
      "dave": 441,
      "cob": 442,
      "sab": 443,
      "sam": 444,
      "mirjam": 445,
      "iny": 446,
      "angelique": 447,
      "iska": 448,
      "dick": 449,
      "gu": 450,
      "eva": 451,
      "clau": 452,
      "claudia": 453,
      "henny": 454,
      "ymon": 455,
      "raymon": 456,
      "simone": 457,
      "mu": 458,
      "sylvia": 459,
      "tje": 460,
      "albert": 461,
      "ilse": 462,
      "cha": 463,
      "annemarie": 464,
      "cal": 465,
      "pas": 466,
      "tineke": 467,
      "pascal": 468,
      "fer": 469,
      "annette": 470,
      "angela": 471,
      "alexand": 472,
      "tas": 473,
      "natas": 474,
      "marion": 475,
      "jack": 476,
      "hennie": 477,
      "jelle": 478,
      "arno": 479,
      "sjo": 480,
      "cees": 481,
      "reet": 482,
      "marja": 483,
      "sica": 484,
      "jessica": 485,
      "indy": 486,
      "erd": 487,
      "michiel": 488,
      "jorn": 489,
      "jur": 490,
      "nel": 491,
      "ans": 492,
      "aike": 493,
      "maaike": 494,
      "lein": 495,
      "old": 496,
      "marjolein": 497,
      "bob": 498,
      "so": 499,
      "rice": 500,
      "maurice": 501,
      "jordy": 502,
      "met": 503,
      "gijs": 504,
      "men": 505,
      "kla": 506,
      "klaas": 507,
      "sus": 508,
      "thea": 509,
      "arie": 510,
      "suzanne": 511,
      "manon": 512,
      "raymond": 513,
      "mariska": 514,
      "melissa": 515,
      "fat": 516,
      "ver": 517,
      "henri": 518,
      "corrie": 519,
      "joey": 520,
      "jen": 521,
      "jesse": 522,
      "fem": 523,
      "femke": 524,
      "shar": 525,
      "sharon": 526,
      "tha": 527,
      "sven": 528,
      "wan": 529,
      "char": 530,
      "den": 531,
      "denise": 532,
      "vi": 533,
      "nathalie": 534,
      "tessa": 535,
      "ki": 536,
      "willy": 537,
      "bast": 538,
      "bastiaan": 539,
      "do": 540,
      "rien": 541,
      "jim": 542,
      "tch": 543,
      "mitch": 544,
      "annel": 545,
      "marleen": 546,
      "mat": 547,
      "julia": 548,
      "mara": 549,
      "tamara": 550,
      "omi": 551,
      "naomi": 552,
      "luuk": 553,
      "lijn": 554,
      "son": 555,
      "sonja": 556,
      "mandy": 557,
      "janneke": 558,
      "has": 559,
      "lenn": 560,
      "rits": 561,
      "ek": 562,
      "onnie": 563,
      "irene": 564,
      "kelly": 565,
      "cindy": 566,
      "roos": 567,
      "ryan": 568,
      "rach": 569,
      "sjoerd": 570,
      "mad": 571,
      "jannie": 572,
      "romy": 573,
      "marjan": 574,
      "dylan": 575,
      "steven": 576,
      "nina": 577,
      "pim": 578,
      "rol": 579,
      "janny": 580,
      "amber": 581,
      "arn": 582,
      "ilon": 583,
      "bb": 584,
      "debb": 585,
      "ag": 586,
      "agn": 587,
      "phie": 588,
      "sophie": 589,
      "hil": 590,
      "ada": 591,
      "ardo": 592,
      "ricardo": 593,
      "you": 594,
      "charlotte": 595,
      "annelies": 596,
      "ire": 597,
      "anie": 598,
      "melanie": 599,
      "bjorn": 600,
      "rianne": 601,
      "joris": 602,
      "enno": 603,
      "liesbet": 604,
      "liesbeth": 605,
      "fle": 606,
      "fleur": 607,
      "hanneke": 608,
      "ahmed": 609,
      "vera": 610,
      "afa": 611,
      "stafa": 612,
      "daph": 613,
      "jean": 614,
      "mustafa": 615,
      "daphne": 616,
      "jn": 617,
      "caroline": 618,
      "stin": 619,
      "justin": 620,
      "emma": 621,
      "marloes": 622,
      "nan": 623,
      "nancy": 624,
      "marielle": 625,
      "stijn": 626,
      "matthijs": 627,
      "mee": 628,
      "ny": 629,
      "kimber": 630,
      "sara": 631,
      "alexander": 632,
      "niek": 633,
      "rina": 634,
      "ha": 635,
      "sabine": 636,
      "zo": 637,
      "ko": 638,
      "bara": 639,
      "barbara": 640,
      "len": 641,
      "brian": 642,
      "ilona": 643,
      "demi": 644,
      "enke": 645,
      "inus": 646,
      "nienke": 647,
      "ola": 648,
      "stephanie": 649,
      "truus": 650,
      "anton": 651,
      "sarah": 652,
      "floor": 653,
      "ula": 654,
      "paula": 655,
      "luc": 656,
      "mohammed": 657,
      "fati": 658,
      "menno": 659,
      "rita": 660,
      "carlo": 661,
      "un": 662,
      "he": 663,
      "leonie": 664,
      "merel": 665,
      "jenny": 666,
      "lisette": 667,
      "martine": 668,
      "sil": 669,
      "ramon": 670,
      "esmee": 671,
      "natasja": 672,
      "iv": 673,
      "saman": 674,
      "samantha": 675,
      "pi": 676,
      "gertjan": 677,
      "ifer": 678,
      "annet": 679,
      "annem": 680,
      "jennifer": 681,
      "lisanne": 682,
      "bea": 683,
      "min": 684,
      "brit": 685,
      "britt": 686,
      "kas": 687,
      "etty": 688,
      "guus": 689,
      "sebastiaan": 690,
      "ate": 691,
      "renate": 692,
      "ot": 693,
      "eg": 694,
      "joep": 695,
      "toon": 696,
      "quin": 697,
      "lucas": 698,
      "elien": 699,
      "evelien": 700,
      "marga": 701,
      "anni": 702,
      "lieke": 703,
      "ukje": 704,
      "mario": 705,
      "irma": 706,
      "stan": 707,
      "willia": 708,
      "william": 709,
      "li": 710,
      "arnold": 711,
      "go": 712,
      "mian": 713,
      "damian": 714,
      "tiny": 715,
      "rz": 716,
      "gerrie": 717,
      "harm": 718,
      "ik": 719,
      "maik": 720,
      "maikel": 721,
      "frits": 722,
      "hmet": 723,
      "mehmet": 724,
      "annemieke": 725,
      "emi": 726,
      "end": 727,
      "ga": 728,
      "gitte": 729,
      "brigitte": 730,
      "marlies": 731,
      "kir": 732,
      "sten": 733,
      "floris": 734,
      "susan": 735,
      "kirsten": 736,
      "bren": 737,
      "brenda": 738,
      "rein": 739,
      "margriet": 740,
      "greet": 741,
      "ske": 742,
      "agnes": 743,
      "mariet": 744,
      "teun": 745,
      "jeannette": 746,
      "karel": 747,
      "roland": 748,
      "arjen": 749,
      "laurens": 750,
      "helen": 751,
      "des": 752,
      "iree": 753,
      "desiree": 754,
      "pie": 755,
      "isab": 756,
      "andrea": 757,
      "sjaa": 758,
      "sjaak": 759,
      "erre": 760,
      "sel": 761,
      "sem": 762,
      "maartje": 763,
      "bep": 764,
      "mijn": 765,
      "ido": 766,
      "guido": 767,
      "riam": 768,
      "miriam": 769,
      "mary": 770,
      "ivo": 771,
      "timo": 772,
      "domin": 773,
      "koos": 774,
      "dominique": 775,
      "tanja": 776,
      "franc": 777,
      "coen": 778,
      "marije": 779,
      "silvia": 780,
      "jacob": 781,
      "renee": 782,
      "julian": 783,
      "carmen": 784,
      "melvin": 785,
      "hugo": 786,
      "marijn": 787,
      "annemiek": 788,
      "del": 789,
      "johnny": 790,
      "gen": 791,
      "jurgen": 792,
      "maud": 793,
      "eddy": 794,
      "tger": 795,
      "anke": 796,
      "rutger": 797,
      "twan": 798,
      "harrie": 799,
      "adrie": 800,
      "conny": 801,
      "arth": 802,
      "arthur": 803,
      "wilco": 804,
      "christian": 805,
      "evert": 806,
      "ub": 807,
      "ellie": 808,
      "huub": 809,
      "louis": 810,
      "job": 811,
      "adam": 812,
      "drik": 813,
      "hendrik": 814,
      "omar": 815,
      "noor": 816,
      "margreet": 817,
      "fatima": 818,
      "cil": 819,
      "pris": 820,
      "tonny": 821,
      "barry": 822,
      "cilla": 823,
      "priscilla": 824,
      "annes": 825,
      "een": 826,
      "heleen": 827,
      "nth": 828,
      "yo": 829,
      "christiaan": 830,
      "cynth": 831,
      "cynthia": 832,
      "him": 833,
      "ibra": 834,
      "ibrahim": 835,
      "geor": 836,
      "nicky": 837,
      "george": 838,
      "san": 839,
      "marina": 840,
      "hassan": 841,
      "henry": 842,
      "henriette": 843,
      "tty": 844,
      "kitty": 845,
      "milan": 846,
      "rachel": 847,
      "elise": 848,
      "ip": 849,
      "gerben": 850,
      "robbert": 851,
      "lianne": 852,
      "aad": 853,
      "freek": 854,
      "carolien": 855,
      "glenn": 856,
      "jordi": 857,
      "kki": 858,
      "mien": 859,
      "nikki": 860,
      "casper": 861,
      "ferry": 862,
      "sabrina": 863,
      "wout": 864,
      "wal": 865,
      "corry": 866,
      "walter": 867,
      "trudy": 868,
      "ef": 869,
      "lph": 870,
      "ralph": 871,
      "marius": 872,
      "coby": 873,
      "mitchell": 874,
      "tony": 875,
      "alice": 876,
      "susanne": 877,
      "dais": 878,
      "enne": 879,
      "marit": 880,
      "nadia": 881,
      "daisy": 882,
      "gea": 883,
      "jimmy": 884,
      "diny": 885,
      "bryan": 886,
      "said": 887,
      "harold": 888,
      "ahmet": 889,
      "jacco": 890,
      "lenie": 891,
      "janine": 892,
      "ahmad": 893,
      "hetty": 894,
      "natascha": 895,
      "cto": 896,
      "dew": 897,
      "victo": 898,
      "victor": 899,
      "les": 900,
      "hir": 901,
      "shir": 902,
      "amy": 903,
      "shirley": 904,
      "hannie": 905,
      "thom": 906,
      "debby": 907,
      "lie": 908,
      "johanna": 909,
      "danique": 910,
      "louise": 911,
      "hasan": 912,
      "roger": 913,
      "rogi": 914,
      "rogier": 915,
      "lydia": 916,
      "uke": 917,
      "pauline": 918,
      "betty": 919,
      "eveline": 920,
      "lil": 921,
      "dion": 922,
      "corne": 923,
      "debbie": 924,
      "lilian": 925,
      "joch": 926,
      "jochem": 927,
      "berry": 928,
      "wessel": 929,
      "erna": 930,
      "kat": 931,
      "emiel": 932,
      "jel": 933,
      "enna": 934,
      "mathijs": 935,
      "karen": 936,
      "robb": 937,
      "kimberley": 938,
      "helma": 939,
      "zoe": 940,
      "jeanne": 941,
      "rachid": 942,
      "yvette": 943,
      "isa": 944,
      "sie": 945,
      "edith": 946,
      "anda": 947,
      "amanda": 948,
      "mia": 949,
      "tonnie": 950,
      "carola": 951,
      "pe": 952,
      "toos": 953,
      "yle": 954,
      "kayle": 955,
      "karim": 956,
      "christel": 957,
      "benjam": 958,
      "benjamin": 959,
      "jonath": 960,
      "fabian": 961,
      "jonathan": 962,
      "jason": 963,
      "sey": 964,
      "riaan": 965,
      "rietje": 966,
      "johannes": 967,
      "christa": 968,
      "marjon": 969,
      "monica": 970,
      "olga": 971,
      "inie": 972,
      "jamie": 973,
      "ijmen": 974,
      "rat": 975,
      "murat": 976,
      "nelly": 977,
      "ank": 978,
      "cca": 979,
      "rosa": 980,
      "rebe": 981,
      "youri": 982,
      "rebecca": 983,
      "joel": 984,
      "jarno": 985,
      "marcin": 986,
      "benn": 987,
      "noah": 988,
      "bennie": 989,
      "jerry": 990,
      "kimberly": 991,
      "celine": 992,
      "ika": 993,
      "of": 994,
      "monika": 995,
      "roelof": 996,
      "suzan": 997,
      "idi": 998,
      "heidi": 999,
      "za": 1000,
      "dine": 1001,
      "nadine": 1002,
      "oscar": 1003,
      "corine": 1004,
      "corina": 1005,
      "alexandra": 1006,
      "ries": 1007,
      "ronnie": 1008,
      "marvin": 1009,
      "loren": 1010,
      "lorenzo": 1011,
      "ey": 1012,
      "jerem": 1013,
      "jeremy": 1014,
      "oud": 1015,
      "hley": 1016,
      "rthe": 1017,
      "rinus": 1018,
      "ashley": 1019,
      "myrthe": 1020,
      "eef": 1021,
      "renske": 1022,
      "hilde": 1023,
      "janet": 1024,
      "anth": 1025,
      "ony": 1026,
      "anthony": 1027,
      "jay": 1028,
      "christine": 1029,
      "dorien": 1030,
      "luca": 1031,
      "pierre": 1032,
      "ward": 1033,
      "edward": 1034,
      "francis": 1035,
      "larissa": 1036,
      "fatma": 1037,
      "rico": 1038,
      "reen": 1039,
      "erica": 1040,
      "maureen": 1041,
      "hein": 1042,
      "piot": 1043,
      "piotr": 1044,
      "angelo": 1045,
      "abdel": 1046,
      "jil": 1047,
      "samir": 1048,
      "jill": 1049,
      "auke": 1050,
      "rah": 1051,
      "willie": 1052,
      "debo": 1053,
      "joshu": 1054,
      "deborah": 1055,
      "joshua": 1056,
      "ov": 1057,
      "sjor": 1058,
      "mail": 1059,
      "ismail": 1060,
      "giov": 1061,
      "sjors": 1062,
      "giovanni": 1063,
      "wel": 1064,
      "milou": 1065,
      "pawel": 1066,
      "jacques": 1067,
      "noa": 1068,
      "mick": 1069,
      "olaf": 1070,
      "mariette": 1071,
      "jol": 1072,
      "willeke": 1073,
      "jelmer": 1074,
      "hanny": 1075,
      "jeanette": 1076,
      "bertus": 1077,
      "lara": 1078,
      "lukas": 1079,
      "lukasz": 1080,
      "gerry": 1081,
      "margot": 1082,
      "ay": 1083,
      "jet": 1084,
      "martha": 1085,
      "mira": 1086,
      "samira": 1087,
      "ayse": 1088,
      "cora": 1089,
      "siet": 1090,
      "yanni": 1091,
      "adri": 1092,
      "yannick": 1093,
      "ilip": 1094,
      "philip": 1095,
      "janwillem": 1096,
      "carlos": 1097,
      "rudy": 1098,
      "jesper": 1099,
      "hilda": 1100,
      "chiel": 1101,
      "isabel": 1102,
      "yolanda": 1103,
      "aukje": 1104,
      "ler": 1105,
      "oy": 1106,
      "adriaan": 1107,
      "maurits": 1108,
      "leroy": 1109,
      "gin": 1110,
      "gino": 1111,
      "bil": 1112,
      "bilal": 1113,
      "gab": 1114,
      "gaby": 1115,
      "hal": 1116,
      "khal": 1117,
      "sse": 1118,
      "jens": 1119,
      "yousse": 1120,
      "khalid": 1121,
      "youssef": 1122,
      "grietje": 1123,
      "anto": 1124,
      "inette": 1125,
      "stefanie": 1126,
      "antoinette": 1127,
      "ap": 1128,
      "ronny": 1129,
      "randy": 1130,
      "appie": 1131,
      "leny": 1132,
      "nn": 1133,
      "pijn": 1134,
      "lynn": 1135,
      "pepijn": 1136,
      "die": 1137,
      "teus": 1138,
      "rolf": 1139,
      "joeri": 1140,
      "jaim": 1141,
      "jaimy": 1142,
      "bou": 1143,
      "paulien": 1144,
      "margo": 1145,
      "mitchel": 1146,
      "ier": 1147,
      "ten": 1148,
      "quinten": 1149,
      "reinier": 1150,
      "remy": 1151,
      "nelle": 1152,
      "martien": 1153,
      "jasmijn": 1154,
      "nelleke": 1155,
      "mees": 1156,
      "dou": 1157,
      "we": 1158,
      "mal": 1159,
      "jamal": 1160,
      "hamza": 1161,
      "douwe": 1162,
      "geertje": 1163,
      "hm": 1164,
      "mhm": 1165,
      "uel": 1166,
      "levi": 1167,
      "manuel": 1168,
      "mhmd": 1169,
      "manuela": 1170,
      "tess": 1171,
      "karlijn": 1172,
      "carin": 1173,
      "michal": 1174,
      "willemijn": 1175,
      "uf": 1176,
      "yus": 1177,
      "yusuf": 1178,
      "cla": 1179,
      "krz": 1180,
      "sz": 1181,
      "ysz": 1182,
      "tof": 1183,
      "claire": 1184,
      "krzysz": 1185,
      "krzysztof": 1186,
      "berend": 1187,
      "der": 1188,
      "mire": 1189,
      "ille": 1190,
      "mireille": 1191,
      "aart": 1192,
      "tomas": 1193,
      "tomasz": 1194,
      "emmy": 1195,
      "isabelle": 1196,
      "jeanine": 1197,
      "ivi": 1198,
      "zka": 1199,
      "ieszka": 1200,
      "olivi": 1201,
      "agnieszka": 1202,
      "olivier": 1203,
      "wiet": 1204,
      "wilfred": 1205,
      "moniek": 1206,
      "lonne": 1207,
      "lonneke": 1208,
      "bi": 1209,
      "nellie": 1210,
      "fabi": 1211,
      "fabienne": 1212,
      "davy": 1213,
      "gy": 1214,
      "nke": 1215,
      "peg": 1216,
      "nynke": 1217,
      "peggy": 1218,
      "colin": 1219,
      "hest": 1220,
      "rijn": 1221,
      "hester": 1222,
      "mid": 1223,
      "hamid": 1224,
      "xand": 1225,
      "mohammad": 1226,
      "xander": 1227,
      "trist": 1228,
      "marinus": 1229,
      "riek": 1230,
      "tristan": 1231,
      "ime": 1232,
      "maxime": 1233,
      "omer": 1234,
      "salie": 1235,
      "rosalie": 1236,
      "dert": 1237,
      "arend": 1238,
      "rowan": 1239,
      "loek": 1240,
      "andries": 1241,
      "emre": 1242,
      "mil": 1243,
      "marten": 1244,
      "kamil": 1245,
      "robbie": 1246,
      "husey": 1247,
      "huseyin": 1248,
      "hid": 1249,
      "nst": 1250,
      "ernst": 1251,
      "hidde": 1252,
      "katja": 1253,
      "eke": 1254,
      "senna": 1255,
      "lennart": 1256,
      "rian": 1257,
      "marjolijn": 1258,
      "gerwin": 1259,
      "iwan": 1260,
      "pu": 1261,
      "herma": 1262,
      "boy": 1263,
      "helga": 1264,
      "puck": 1265,
      "remon": 1266,
      "jules": 1267,
      "perry": 1268,
      "noortje": 1269,
      "tre": 1270,
      "onique": 1271,
      "wilbert": 1272,
      "carlijn": 1273,
      "veronique": 1274,
      "arnoud": 1275,
      "trees": 1276,
      "fie": 1277,
      "iette": 1278,
      "juliette": 1279,
      "sofie": 1280,
      "sterre": 1281,
      "jeanet": 1282,
      "helene": 1283,
      "fon": 1284,
      "rg": 1285,
      "joelle": 1286,
      "onno": 1287,
      "borg": 1288,
      "ingeborg": 1289,
      "ankie": 1290,
      "fons": 1291,
      "beau": 1292,
      "greetje": 1293,
      "it": 1294,
      "jit": 1295,
      "marni": 1296,
      "jitske": 1297,
      "marnix": 1298,
      "sacha": 1299,
      "remko": 1300,
      "egbert": 1301,
      "ice": 1302,
      "tice": 1303,
      "hatice": 1304,
      "rosanne": 1305,
      "jaco": 1306,
      "meike": 1307,
      "mariusz": 1308,
      "lesley": 1309,
      "oul": 1310,
      "raoul": 1311,
      "cornel": 1312,
      "jorrit": 1313,
      "cornelis": 1314,
      "eel": 1315,
      "fal": 1316,
      "netty": 1317,
      "rafal": 1318,
      "eelco": 1319,
      "krist": 1320,
      "pien": 1321,
      "kristel": 1322,
      "bente": 1323,
      "davey": 1324,
      "quincy": 1325,
      "ky": 1326,
      "kaylee": 1327,
      "kyra": 1328,
      "dianne": 1329,
      "chey": 1330,
      "cheyenne": 1331,
      "tjeerd": 1332,
      "francien": 1333,
      "tijmen": 1334,
      "elon": 1335,
      "madelon": 1336,
      "emile": 1337,
      "nicolette": 1338,
      "donny": 1339,
      "sjef": 1340,
      "mateus": 1341,
      "ellis": 1342,
      "roelie": 1343,
      "mateusz": 1344,
      "eer": 1345,
      "veer": 1346,
      "veerle": 1347,
      "ano": 1348,
      "toine": 1349,
      "delano": 1350,
      "ib": 1351,
      "huib": 1352,
      "dinie": 1353,
      "fatih": 1354,
      "dineke": 1355,
      "emine": 1356,
      "kan": 1357,
      "marek": 1358,
      "hakan": 1359,
      "fro": 1360,
      "tijn": 1361,
      "froukje": 1362,
      "gh": 1363,
      "igh": 1364,
      "sascha": 1365,
      "kayleigh": 1366,
      "hi": 1367,
      "ties": 1368,
      "cham": 1369,
      "yvon": 1370,
      "jolien": 1371,
      "hicham": 1372,
      "ayou": 1373,
      "jar": 1374,
      "ayoub": 1375,
      "jari": 1376,
      "yna": 1377,
      "zyna": 1378,
      "arzyna": 1379,
      "dewi": 1380,
      "katarzyna": 1381,
      "elke": 1382,
      "grz": 1383,
      "willemien": 1384,
      "juul": 1385,
      "orz": 1386,
      "egorz": 1387,
      "derk": 1388,
      "grzegorz": 1389,
      "fenna": 1390,
      "giel": 1391,
      "jip": 1392,
      "dewijn": 1393,
      "boudewijn": 1394,
      "ej": 1395,
      "ew": 1396,
      "thijmen": 1397,
      "andrz": 1398,
      "alwin": 1399,
      "ewa": 1400,
      "andrzej": 1401,
      "derik": 1402,
      "wie": 1403,
      "diederik": 1404,
      "wiebe": 1405,
      "wid": 1406,
      "dawid": 1407,
      "ilia": 1408,
      "suus": 1409,
      "ilias": 1410,
      "wies": 1411,
      "jopie": 1412,
      "christien": 1413,
      "kasia": 1414,
      "kasper": 1415,
      "sine": 1416,
      "yas": 1417,
      "erique": 1418,
      "frederique": 1419,
      "yassine": 1420,
      "robbin": 1421,
      "mats": 1422,
      "bab": 1423,
      "gre": 1424,
      "vana": 1425,
      "aniek": 1426,
      "sylvana": 1427,
      "babette": 1428,
      "trijn": 1429,
      "gonnie": 1430,
      "jantje": 1431,
      "ciska": 1432,
      "scha": 1433,
      "mischa": 1434,
      "mariejose": 1435,
      "elles": 1436,
      "sietske": 1437,
      "merijn": 1438,
      "marlou": 1439,
      "imke": 1440,
      "harmen": 1441,
      "mascha": 1442,
      "cobie": 1443,
      "fin": 1444,
      "antoon": 1445,
      "quinty": 1446,
      "finn": 1447,
      "leendert": 1448,
      "ho": 1449,
      "zey": 1450,
      "jop": 1451,
      "nep": 1452,
      "eefje": 1453,
      "hoi": 1454,
      "zeynep": 1455,
      "lidy": 1456,
      "sietse": 1457,
      "jurjen": 1458,
      "dsey": 1459,
      "geke": 1460,
      "lindsey": 1461,
      "silke": 1462,
      "betsie": 1463,
      "sjoukje": 1464,
      "riny": 1465,
      "tine": 1466,
      "elou": 1467,
      "jantine": 1468,
      "marielou": 1469,
      "marielouise": 1470,
      "wijn": 1471,
      "wijnand": 1472,
      "til": 1473,
      "hermien": 1474,
      "antje": 1475,
      "siem": 1476,
      "tilly": 1477,
      "dirkjan": 1478,
      "annemie": 1479,
      "wietske": 1480,
      "otje": 1481,
      "mootje": 1482,
      "frie": 1483,
      "gonny": 1484,
      "ilja": 1485,
      "frieda": 1486,
      "jurre": 1487,
      "hes": 1488,
      "mie": 1489,
      "charissa": 1490,
      "hessel": 1491,
      "miep": 1492,
      "sharona": 1493,
      "lennard": 1494,
      "cho": 1495,
      "tycho": 1496,
      "ande": 1497,
      "jolande": 1498,
      "ivar": 1499,
      "benno": 1500,
      "bauke": 1501,
      "dionne": 1502,
      "wiel": 1503,
      "jeannet": 1504,
      "pietje": 1505,
      "mirthe": 1506,
      "lard": 1507,
      "allard": 1508,
      "roeland": 1509,
      "noud": 1510,
      "linde": 1511,
      "ilonka": 1512,
      "tinus": 1513,
      "carel": 1514,
      "anniek": 1515,
      "baukje": 1516,
      "steef": 1517,
      "minke": 1518,
      "dol": 1519,
      "fien": 1520,
      "sja": 1521,
      "tjitske": 1522,
      "dolf": 1523,
      "sjaan": 1524,
      "net": 1525,
      "tie": 1526,
      "henkjan": 1527,
      "nettie": 1528,
      "aa": 1529,
      "dries": 1530,
      "fke": 1531,
      "jannes": 1532,
      "tjer": 1533,
      "wietse": 1534,
      "aafke": 1535,
      "tjerk": 1536,
      "jort": 1537,
      "pascalle": 1538,
      "manouk": 1539,
      "tijs": 1540,
      "trudie": 1541,
      "gr": 1542,
      "etha": 1543,
      "colinda": 1544,
      "gretha": 1545,
      "joran": 1546,
      "jorien": 1547,
      "gertie": 1548,
      "cis": 1549,
      "melle": 1550,
      "cisca": 1551,
      "dik": 1552,
      "ple": 1553,
      "val": 1554,
      "jolijn": 1555,
      "entijn": 1556,
      "pleun": 1557,
      "valentijn": 1558,
      "ewout": 1559,
      "yorick": 1560,
      "siebe": 1561,
      "floortje": 1562,
      "bouke": 1563,
      "fris": 1564,
      "fol": 1565,
      "kert": 1566,
      "oes": 1567,
      "gerdi": 1568,
      "barend": 1569,
      "anneloes": 1570,
      "beppie": 1571,
      "peet": 1572,
      "friso": 1573,
      "folkert": 1574,
      "gerdien": 1575,
      "miel": 1576,
      "camiel": 1577,
      "hillie": 1578,
      "mm": 1579,
      "lamm": 1580,
      "lammert": 1581,
      "geertjan": 1582,
      "riekie": 1583,
      "tygo": 1584,
      "marlo": 1585,
      "josje": 1586,
      "marlous": 1587,
      "mirte": 1588,
      "hilly": 1589,
      "jouke": 1590,
      "machiel": 1591,
      "robertjan": 1592,
      "josien": 1593,
      "tinie": 1594,
      "merlijn": 1595,
      "jelte": 1596,
      "gerjan": 1597,
      "yke": 1598,
      "romee": 1599,
      "mayke": 1600,
      "hub": 1601,
      "elske": 1602,
      "bre": 1603,
      "gje": 1604,
      "harma": 1605,
      "bregje": 1606,
      "eltje": 1607,
      "neeltje": 1608,
      "bets": 1609,
      "yoeri": 1610,
      "indert": 1611,
      "meindert": 1612,
      "rinie": 1613,
      "cock": 1614,
      "dylano": 1615,
      "cobi": 1616,
      "reinder": 1617,
      "marietje": 1618,
      "esje": 1619,
      "geesje": 1620,
      "jurriaan": 1621,
      "trijntje": 1622,
      "guusje": 1623,
      "krijn": 1624,
      "math": 1625,
      "fo": 1626,
      "kke": 1627,
      "henkie": 1628,
      "fokke": 1629,
      "corien": 1630,
      "thir": 1631,
      "ortje": 1632,
      "doortje": 1633,
      "thirza": 1634,
      "lien": 1635,
      "wieke": 1636,
      "lieneke": 1637,
      "ewou": 1638,
      "tel": 1639,
      "chtel": 1640,
      "machtel": 1641,
      "ijk": 1642,
      "lodew": 1643,
      "ewoud": 1644,
      "machteld": 1645,
      "lodewijk": 1646,
      "lineke": 1647,
      "trijnie": 1648,
      "aal": 1649,
      "jenneke": 1650,
      "aaltje": 1651,
      "wol": 1652,
      "mient": 1653,
      "gerco": 1654,
      "wolter": 1655,
      "mientje": 1656,
      "rin": 1657,
      "rinske": 1658,
      "sjon": 1659,
      "gijsbert": 1660,
      "lenneke": 1661,
      "bouk": 1662,
      "sjan": 1663,
      "boukje": 1664,
      "marrit": 1665,
      "jurrien": 1666,
      "kl": 1667,
      "aske": 1668,
      "klaske": 1669
    },
    "merges": [
      "a n",
      "a r",
      "e r",
      "e n",
      "e l",
      "m ar",
      "i n",
      "r i",
      "j o",
      "i e",
      "o n",
      "k e",
      "an n",
      "l e",
      "e t",
      "c h",
      "m i",
      "r o",
      "s t",
      "m a",
      "d a",
      "j a",
      "ann e",
      "i l",
      "c o",
      "j an",
      "r a",
      "i m",
      "i s",
      "t h",
      "e s",
      "r e",
      "i a",
      "an d",
      "i j",
      "a l",
      "er t",
      "c k",
      "a s",
      "in e",
      "h an",
      "ro b",
      "en n",
      "p a",
      "p et",
      "w il",
      "n i",
      "g er",
      "q u",
      "t e",
      "l a",
      "j e",
      "h en",
      "r an",
      "l o",
      "r en",
      "d i",
      "pet er",
      "s a",
      "mar t",
      "mi ch",
      "ar d",
      "mar i",
      "an i",
      "m on",
      "e d",
      "s e",
      "u l",
      "d y",
      "ij n",
      "f ran",
      "ar t",
      "qu e",
      "el le",
      "ri ck",
      "mar c",
      "er i",
      "on n",
      "o en",
      "hen k",
      "ie t",
      "r y",
      "el l",
      "o u",
      "han s",
      "jo h",
      "s and",
      "ri s",
      "i que",
      "c ar",
      "st e",
      "r u",
      "j er",
      "t o",
      "a m",
      "b ert",
      "pa t",
      "n a",
      "u s",
      "v in",
      "joh n",
      "ren e",
      "g e",
      "c a",
      "r on",
      "d ani",
      "jer oen",
      "h ar",
      "p iet",
      "k ar",
      "c e",
      "pa ul",
      "l an",
      "co r",
      "b en",
      "h er",
      "ri t",
      "ie ke",
      "wil le",
      "f re",
      "la u",
      "ij s",
      "el s",
      "w in",
      "mar k",
      "d enn",
      "denn is",
      "th e",
      "i an",
      "i d",
      "j u",
      "anne ke",
      "ri d",
      "marc el",
      "et te",
      "m an",
      "mon ique",
      "jo han",
      "pat rick",
      "el ine",
      "l in",
      "fran k",
      "t im",
      "le x",
      "ie s",
      "jo r",
      "o l",
      "ann y",
      "wille m",
      "e m",
      "y v",
      "in a",
      "k im",
      "w im",
      "t a",
      "eri k",
      "m o",
      "b art",
      "l is",
      "ri ch",
      "rich ard",
      "ri e",
      "d e",
      "onn e",
      "t on",
      "b as",
      "mar co",
      "k a",
      "da v",
      "ni co",
      "rob ert",
      "l u",
      "sand ra",
      "ste f",
      "jo o",
      "a lex",
      "lan da",
      "mart ijn",
      "ri a",
      "jo s",
      "lin da",
      "ine ke",
      "e v",
      "a h",
      "ann ie",
      "ni ck",
      "i en",
      "ri st",
      "mart in",
      "a d",
      "and re",
      "t te",
      "g el",
      "an gel",
      "to m",
      "yv onne",
      "le y",
      "e st",
      "kar in",
      "h am",
      "pet ra",
      "th ijs",
      "jo landa",
      "sand er",
      "ell y",
      "p er",
      "al d",
      "ron ald",
      "ja c",
      "ke es",
      "f a",
      "p h",
      "th o",
      "a st",
      "rob in",
      "ke vin",
      "j es",
      "ma s",
      "an ja",
      "m el",
      "ma art",
      "ger ard",
      "est her",
      "ri c",
      "u d",
      "mo ham",
      "mar g",
      "stef an",
      "b er",
      "b o",
      "n o",
      "h enn",
      "mi ke",
      "mich el",
      "ch rist",
      "l y",
      "fran s",
      "b ra",
      "w ou",
      "t er",
      "m y",
      "ani ta",
      "a el",
      "mich ael",
      "ni els",
      "o s",
      "ja a",
      "ro y",
      "s anne",
      "b ian",
      "mar jo",
      "b ar",
      "d anny",
      "al i",
      "the o",
      "jo ke",
      "mar ij",
      "g rid",
      "in grid",
      "d ia",
      "piet er",
      "jac qu",
      "s im",
      "sim on",
      "ja s",
      "is e",
      "l ar",
      "lau ra",
      "le on",
      "ja m",
      "tho mas",
      "m e",
      "ch ris",
      "o r",
      "t y",
      "da an",
      "ann a",
      "dani el",
      "ell en",
      "lo tte",
      "h u",
      "ro el",
      "b e",
      "v en",
      "maart en",
      "jo se",
      "l ies",
      "ru ud",
      "ed win",
      "al ie",
      "mari anne",
      "eri c",
      "fre d",
      "lis a",
      "g ert",
      "mi r",
      "ma x",
      "an t",
      "m ieke",
      "je f",
      "bian ca",
      "i r",
      "w en",
      "wen dy",
      "bra m",
      "wil ma",
      "jacqu eline",
      "dani elle",
      "ie k",
      "v ia",
      "ma u",
      "j ul",
      "h el",
      "i el",
      "lo es",
      "re m",
      "mar ia",
      "di th",
      "wou ter",
      "w es",
      "jo e",
      "onn y",
      "an a",
      "joo st",
      "ch ant",
      "chant al",
      "s as",
      "nico le",
      "in ge",
      "ri et",
      "and y",
      "en t",
      "jaa p",
      "mi ran",
      "miran da",
      "s u",
      "u k",
      "mar ieke",
      "fre y",
      "jef frey",
      "ger rit",
      "pat ric",
      "patric ia",
      "har ry",
      "ar jan",
      "is sa",
      "m ed",
      "m er",
      "car la",
      "b et",
      "r k",
      "di rk",
      "dav id",
      "c y",
      "i ca",
      "ou k",
      "rem co",
      "er win",
      "s ar",
      "di ana",
      "p han",
      "ste phan",
      "ia an",
      "c as",
      "n e",
      "ri k",
      "ren s",
      "i ris",
      "ast rid",
      "k ia",
      "sas kia",
      "j enn",
      "c ent",
      "vin cent",
      "lo u",
      "y ce",
      "jo yce",
      "su z",
      "moham ed",
      "le o",
      "le en",
      "ge ert",
      "ger da",
      "jas per",
      "mari an",
      "lar s",
      "g i",
      "na th",
      "k oen",
      "a b",
      "marij ke",
      "her man",
      "b ri",
      "s y",
      "sy l",
      "u r",
      "ru ben",
      "mar ie",
      "l ia",
      "f lo",
      "i ke",
      "ju dith",
      "an ouk",
      "t ru",
      "car ol",
      "joo p",
      "mich elle",
      "wes ley",
      "t es",
      "dav e",
      "co b",
      "sa b",
      "sa m",
      "mir jam",
      "in y",
      "angel ique",
      "is ka",
      "di ck",
      "g u",
      "ev a",
      "c lau",
      "clau dia",
      "henn y",
      "y mon",
      "ra ymon",
      "simon e",
      "m u",
      "syl via",
      "t je",
      "al bert",
      "il se",
      "ch a",
      "anne marie",
      "c al",
      "p as",
      "t ineke",
      "pas cal",
      "f er",
      "ann ette",
      "angel a",
      "alex and",
      "t as",
      "na tas",
      "mari on",
      "ja ck",
      "henn ie",
      "j elle",
      "ar no",
      "s jo",
      "ce es",
      "re et",
      "mar ja",
      "s ica",
      "jes sica",
      "in dy",
      "er d",
      "mich iel",
      "jor n",
      "ju r",
      "n el",
      "an s",
      "a ike",
      "ma aike",
      "le in",
      "ol d",
      "marjo lein",
      "bo b",
      "s o",
      "ri ce",
      "mau rice",
      "jor dy",
      "m et",
      "g ijs",
      "m en",
      "k la",
      "kla as",
      "s us",
      "the a",
      "ar ie",
      "suz anne",
      "man on",
      "raymon d",
      "mar iska",
      "mel issa",
      "fa t",
      "v er",
      "hen ri",
      "cor rie",
      "joe y",
      "j en",
      "jes se",
      "f em",
      "fem ke",
      "s har",
      "shar on",
      "th a",
      "s ven",
      "w an",
      "ch ar",
      "d en",
      "den ise",
      "v i",
      "nath alie",
      "tes sa",
      "k i",
      "wil ly",
      "b ast",
      "bast iaan",
      "d o",
      "ri en",
      "j im",
      "t ch",
      "mi tch",
      "ann el",
      "mar leen",
      "ma t",
      "jul ia",
      "mar a",
      "ta mara",
      "o mi",
      "na omi",
      "lu uk",
      "l ijn",
      "s on",
      "son ja",
      "m andy",
      "j anneke",
      "h as",
      "l enn",
      "rit s",
      "e k",
      "onn ie",
      "i rene",
      "k elly",
      "c indy",
      "ro os",
      "ry an",
      "ra ch",
      "sjo erd",
      "ma d",
      "j annie",
      "ro my",
      "mar jan",
      "dy lan",
      "ste ven",
      "n ina",
      "p im",
      "ro l",
      "j anny",
      "am ber",
      "ar n",
      "il on",
      "b b",
      "de bb",
      "a g",
      "ag n",
      "ph ie",
      "so phie",
      "h il",
      "a da",
      "ard o",
      "ric ardo",
      "y ou",
      "char lotte",
      "annel ies",
      "i re",
      "an ie",
      "mel anie",
      "b jorn",
      "ri anne",
      "jo ris",
      "enn o",
      "lies bet",
      "liesbet h",
      "f le",
      "fle ur",
      "h anneke",
      "ah med",
      "ver a",
      "a fa",
      "st afa",
      "da ph",
      "je an",
      "mu stafa",
      "daph ne",
      "j n",
      "carol ine",
      "st in",
      "ju stin",
      "em ma",
      "mar loes",
      "n an",
      "nan cy",
      "mari elle",
      "st ijn",
      "mat thijs",
      "me e",
      "n y",
      "kim ber",
      "sar a",
      "alexand er",
      "n iek",
      "r ina",
      "h a",
      "sab ine",
      "z o",
      "k o",
      "bar a",
      "bar bara",
      "l en",
      "bri an",
      "ilon a",
      "de mi",
      "en ke",
      "in us",
      "ni enke",
      "o la",
      "stephan ie",
      "tru us",
      "an ton",
      "sar ah",
      "flo or",
      "u la",
      "pa ula",
      "lu c",
      "moham med",
      "fat i",
      "m enno",
      "rit a",
      "car lo",
      "u n",
      "h e",
      "leon ie",
      "mer el",
      "jenn y",
      "lis ette",
      "mart ine",
      "s il",
      "ra mon",
      "es mee",
      "natas ja",
      "i v",
      "sa man",
      "saman tha",
      "p i",
      "gert jan",
      "i fer",
      "ann et",
      "anne m",
      "jenn ifer",
      "lis anne",
      "be a",
      "m in",
      "b rit",
      "brit t",
      "k as",
      "et ty",
      "gu us",
      "se bastiaan",
      "a te",
      "ren ate",
      "o t",
      "e g",
      "joe p",
      "to on",
      "qu in",
      "lu cas",
      "el ien",
      "ev elien",
      "marg a",
      "ann i",
      "l ieke",
      "uk je",
      "mari o",
      "ir ma",
      "st an",
      "wil lia",
      "willia m",
      "l i",
      "arn old",
      "g o",
      "mi an",
      "da mian",
      "t iny",
      "r z",
      "ger rie",
      "har m",
      "i k",
      "ma ik",
      "maik el",
      "f rits",
      "h met",
      "me hmet",
      "anne mieke",
      "e mi",
      "en d",
      "g a",
      "gi tte",
      "bri gitte",
      "mar lies",
      "k ir",
      "st en",
      "flo ris",
      "sus an",
      "kir sten",
      "b ren",
      "bren da",
      "re in",
      "marg riet",
      "g reet",
      "s ke",
      "agn es",
      "mar iet",
      "te un",
      "je annette",
      "kar el",
      "rol and",
      "ar jen",
      "lau rens",
      "hel en",
      "d es",
      "ire e",
      "des iree",
      "p ie",
      "is ab",
      "andre a",
      "s jaa",
      "sjaa k",
      "er re",
      "s el",
      "se m",
      "maart je",
      "be p",
      "mi jn",
      "id o",
      "gu ido",
      "ri am",
      "mi riam",
      "mar y",
      "iv o",
      "tim o",
      "do min",
      "ko os",
      "domin ique",
      "t anja",
      "fran c",
      "co en",
      "marij e",
      "sil via",
      "ja cob",
      "rene e",
      "jul ian",
      "car men",
      "mel vin",
      "hu go",
      "mar ijn",
      "annem iek",
      "d el",
      "john ny",
      "g en",
      "jur gen",
      "ma ud",
      "ed dy",
      "t ger",
      "an ke",
      "ru tger",
      "t wan",
      "har rie",
      "ad rie",
      "c onny",
      "ar th",
      "arth ur",
      "wil co",
      "christ ian",
      "ev ert",
      "u b",
      "ell ie",
      "hu ub",
      "lou is",
      "jo b",
      "ada m",
      "d rik",
      "hen drik",
      "o mar",
      "no or",
      "marg reet",
      "fati ma",
      "c il",
      "p ris",
      "t onny",
      "bar ry",
      "cil la",
      "pris cilla",
      "anne s",
      "e en",
      "hel een",
      "n th",
      "y o",
      "christ iaan",
      "cy nth",
      "cynth ia",
      "h im",
      "i bra",
      "ibra him",
      "ge or",
      "nick y",
      "geor ge",
      "s an",
      "mar ina",
      "has san",
      "hen ry",
      "henri ette",
      "t ty",
      "ki tty",
      "mi lan",
      "rach el",
      "el ise",
      "i p",
      "ger ben",
      "rob bert",
      "li anne",
      "a ad",
      "fre ek",
      "carol ien",
      "g lenn",
      "jor di",
      "k ki",
      "mi en",
      "ni kki",
      "cas per",
      "fer ry",
      "sab rina",
      "wou t",
      "w al",
      "cor ry",
      "wal ter",
      "tru dy",
      "e f",
      "l ph",
      "ra lph",
      "mari us",
      "cob y",
      "mitch ell",
      "ton y",
      "ali ce",
      "sus anne",
      "da is",
      "enn e",
      "mari t",
      "na dia",
      "dais y",
      "ge a",
      "jim my",
      "d iny",
      "b ryan",
      "sa id",
      "har old",
      "ah met",
      "jac co",
      "len ie",
      "jan ine",
      "ah mad",
      "h etty",
      "natas cha",
      "c to",
      "de w",
      "vi cto",
      "victo r",
      "le s",
      "h ir",
      "s hir",
      "am y",
      "shir ley",
      "h annie",
      "tho m",
      "debb y",
      "l ie",
      "joh anna",
      "dani que",
      "lou ise",
      "has an",
      "ro ger",
      "ro gi",
      "rogi er",
      "ly dia",
      "u ke",
      "paul ine",
      "bet ty",
      "ev eline",
      "l il",
      "di on",
      "cor ne",
      "debb ie",
      "lil ian",
      "jo ch",
      "joch em",
      "ber ry",
      "wes sel",
      "er na",
      "ka t",
      "emi el",
      "j el",
      "enn a",
      "ma thijs",
      "kar en",
      "rob b",
      "kimber ley",
      "hel ma",
      "zo e",
      "je anne",
      "rach id",
      "yv ette",
      "is a",
      "s ie",
      "e dith",
      "an da",
      "am anda",
      "mi a",
      "t onnie",
      "car ola",
      "p e",
      "to os",
      "y le",
      "ka yle",
      "kar im",
      "christ el",
      "ben jam",
      "benjam in",
      "jo nath",
      "fa bian",
      "jonath an",
      "jas on",
      "se y",
      "ria an",
      "riet je",
      "joh annes",
      "christ a",
      "marjo n",
      "mon ica",
      "ol ga",
      "in ie",
      "jam ie",
      "ij men",
      "ra t",
      "mu rat",
      "n elly",
      "an k",
      "c ca",
      "ro sa",
      "re be",
      "you ri",
      "rebe cca",
      "jo el",
      "j arno",
      "marc in",
      "b enn",
      "no ah",
      "benn ie",
      "jer ry",
      "kimber ly",
      "c eline",
      "i ka",
      "o f",
      "mon ika",
      "roel of",
      "suz an",
      "i di",
      "he idi",
      "z a",
      "d ine",
      "na dine",
      "os car",
      "cor ine",
      "cor ina",
      "alexand ra",
      "ri es",
      "r onnie",
      "mar vin",
      "lo ren",
      "loren zo",
      "e y",
      "jer em",
      "jerem y",
      "ou d",
      "h ley",
      "r the",
      "r inus",
      "as hley",
      "my rthe",
      "e ef",
      "rens ke",
      "hil de",
      "jan et",
      "an th",
      "on y",
      "anth ony",
      "ja y",
      "christ ine",
      "do rien",
      "lu ca",
      "pi erre",
      "w ard",
      "ed ward",
      "franc is",
      "lar issa",
      "fat ma",
      "ri co",
      "re en",
      "eri ca",
      "mau reen",
      "he in",
      "pi ot",
      "piot r",
      "angel o",
      "ab del",
      "j il",
      "sa mir",
      "jil l",
      "a uke",
      "ra h",
      "wil lie",
      "de bo",
      "jos hu",
      "debo rah",
      "joshu a",
      "o v",
      "s jor",
      "ma il",
      "is mail",
      "gi ov",
      "sjor s",
      "giov anni",
      "w el",
      "mi lou",
      "pa wel",
      "jacqu es",
      "no a",
      "mi ck",
      "ola f",
      "mariet te",
      "jo l",
      "wille ke",
      "jel mer",
      "h anny",
      "jean ette",
      "bert us",
      "lar a",
      "lu kas",
      "lukas z",
      "ger ry",
      "marg ot",
      "a y",
      "j et",
      "mar tha",
      "mi ra",
      "sa mira",
      "ay se",
      "co ra",
      "s iet",
      "y anni",
      "ad ri",
      "yanni ck",
      "il ip",
      "ph ilip",
      "jan willem",
      "carlo s",
      "ru dy",
      "jes per",
      "hil da",
      "ch iel",
      "isab el",
      "yo landa",
      "a ukje",
      "l er",
      "o y",
      "ad riaan",
      "mau rits",
      "ler oy",
      "g in",
      "gin o",
      "b il",
      "bil al",
      "g ab",
      "gab y",
      "h al",
      "k hal",
      "s se",
      "jen s",
      "you sse",
      "khal id",
      "yousse f",
      "g rietje",
      "an to",
      "in ette",
      "stefan ie",
      "anto inette",
      "a p",
      "r onny",
      "r andy",
      "ap pie",
      "len y",
      "n n",
      "p ijn",
      "ly nn",
      "pe pijn",
      "d ie",
      "te us",
      "rol f",
      "jo eri",
      "ja im",
      "jaim y",
      "b ou",
      "paul ien",
      "marg o",
      "mitch el",
      "i er",
      "t en",
      "quin ten",
      "rein ier",
      "re my",
      "n elle",
      "mart ien",
      "jas mijn",
      "nelle ke",
      "me es",
      "d ou",
      "w e",
      "ma l",
      "ja mal",
      "ham za",
      "dou we",
      "geert je",
      "h m",
      "m hm",
      "u el",
      "le vi",
      "man uel",
      "mhm d",
      "manuel a",
      "tes s",
      "kar lijn",
      "car in",
      "mich al",
      "wille mijn",
      "u f",
      "y us",
      "yus uf",
      "c la",
      "k rz",
      "s z",
      "y sz",
      "to f",
      "cla ire",
      "krz ysz",
      "krzysz tof",
      "ber end",
      "d er",
      "mi re",
      "il le",
      "mire ille",
      "a art",
      "to mas",
      "tomas z",
      "em my",
      "isab elle",
      "jean ine",
      "i vi",
      "z ka",
      "ies zka",
      "ol ivi",
      "agn ieszka",
      "olivi er",
      "w iet",
      "wil fred",
      "mon iek",
      "l onne",
      "lonne ke",
      "b i",
      "n ellie",
      "fa bi",
      "fabi enne",
      "dav y",
      "g y",
      "n ke",
      "p eg",
      "ny nke",
      "peg gy",
      "co lin",
      "h est",
      "ri jn",
      "hest er",
      "mi d",
      "ha mid",
      "x and",
      "moham mad",
      "xand er",
      "t rist",
      "mar inus",
      "rie k",
      "trist an",
      "im e",
      "max ime",
      "o mer",
      "s alie",
      "ro salie",
      "d ert",
      "ar end",
      "ro wan",
      "lo ek",
      "and ries",
      "em re",
      "mi l",
      "mart en",
      "ka mil",
      "robb ie",
      "hu sey",
      "husey in",
      "h id",
      "n st",
      "er nst",
      "hid de",
      "kat ja",
      "e ke",
      "s enna",
      "lenn art",
      "ri an",
      "marjo lijn",
      "ger win",
      "i wan",
      "p u",
      "her ma",
      "bo y",
      "hel ga",
      "pu ck",
      "re mon",
      "ju les",
      "per ry",
      "noor tje",
      "t re",
      "on ique",
      "wil bert",
      "car lijn",
      "ver onique",
      "arn oud",
      "tre es",
      "f ie",
      "iet te",
      "jul iette",
      "so fie",
      "st erre",
      "jean et",
      "helen e",
      "f on",
      "r g",
      "jo elle",
      "onn o",
      "bo rg",
      "inge borg",
      "ank ie",
      "fon s",
      "bea u",
      "greet je",
      "i t",
      "j it",
      "mar ni",
      "jit ske",
      "marni x",
      "sa cha",
      "rem ko",
      "eg bert",
      "i ce",
      "t ice",
      "ha tice",
      "ro sanne",
      "ja co",
      "me ike",
      "marius z",
      "les ley",
      "o ul",
      "ra oul",
      "cor nel",
      "jor rit",
      "cornel is",
      "e el",
      "f al",
      "n etty",
      "ra fal",
      "eel co",
      "k rist",
      "p ien",
      "krist el",
      "ben te",
      "dave y",
      "quin cy",
      "k y",
      "kayle e",
      "ky ra",
      "di anne",
      "ch ey",
      "chey enne",
      "tje erd",
      "franc ien",
      "t ijmen",
      "el on",
      "mad elon",
      "emi le",
      "nicole tte",
      "d onny",
      "s jef",
      "ma teus",
      "ell is",
      "roel ie",
      "mateus z",
      "e er",
      "v eer",
      "veer le",
      "an o",
      "to ine",
      "del ano",
      "i b",
      "hu ib",
      "d inie",
      "fati h",
      "d ineke",
      "em ine",
      "k an",
      "mar ek",
      "ha kan",
      "f ro",
      "t ijn",
      "fro ukje",
      "g h",
      "i gh",
      "sas cha",
      "kayle igh",
      "h i",
      "t ies",
      "ch am",
      "yv on",
      "jol ien",
      "hi cham",
      "a you",
      "j ar",
      "ayou b",
      "jar i",
      "y na",
      "z yna",
      "ar zyna",
      "dew i",
      "kat arzyna",
      "el ke",
      "g rz",
      "wille mien",
      "ju ul",
      "or z",
      "eg orz",
      "der k",
      "grz egorz",
      "f enna",
      "g iel",
      "j ip",
      "dew ijn",
      "bou dewijn",
      "e j",
      "e w",
      "th ijmen",
      "and rz",
      "al win",
      "ew a",
      "andrz ej",
      "d erik",
      "w ie",
      "die derik",
      "wie be",
      "w id",
      "da wid",
      "il ia",
      "su us",
      "ilia s",
      "w ies",
      "jo pie",
      "christ ien",
      "kas ia",
      "kas per",
      "s ine",
      "y as",
      "eri que",
      "fred erique",
      "yas sine",
      "robb in",
      "mat s",
      "b ab",
      "g re",
      "v ana",
      "an iek",
      "syl vana",
      "bab ette",
      "t rijn",
      "g onnie",
      "jan tje",
      "c iska",
      "s cha",
      "mi scha",
      "marie jose",
      "elle s",
      "siet ske",
      "mer ijn",
      "mar lou",
      "im ke",
      "har men",
      "mas cha",
      "cob ie",
      "f in",
      "an toon",
      "quin ty",
      "fin n",
      "leen dert",
      "h o",
      "z ey",
      "jo p",
      "ne p",
      "eef je",
      "ho i",
      "zey nep",
      "li dy",
      "siet se",
      "jur jen",
      "d sey",
      "ge ke",
      "lin dsey",
      "sil ke",
      "bet sie",
      "sjo ukje",
      "r iny",
      "t ine",
      "el ou",
      "jan tine",
      "mari elou",
      "marielou ise",
      "w ijn",
      "wijn and",
      "t il",
      "her mien",
      "ant je",
      "sie m",
      "til ly",
      "dirk jan",
      "annem ie",
      "wiet ske",
      "o tje",
      "mo otje",
      "f rie",
      "g onny",
      "il ja",
      "frie da",
      "jur re",
      "h es",
      "m ie",
      "char issa",
      "hes sel",
      "mie p",
      "sharon a",
      "lenn ard",
      "ch o",
      "ty cho",
      "and e",
      "jol ande",
      "iv ar",
      "b enno",
      "b auke",
      "di onne",
      "w iel",
      "je annet",
      "piet je",
      "mir the",
      "l ard",
      "al lard",
      "roel and",
      "n oud",
      "lin de",
      "ilon ka",
      "t inus",
      "car el",
      "annie k",
      "b aukje",
      "ste ef",
      "min ke",
      "d ol",
      "f ien",
      "s ja",
      "t jitske",
      "dol f",
      "sja an",
      "n et",
      "t ie",
      "henk jan",
      "net tie",
      "a a",
      "d ries",
      "f ke",
      "j annes",
      "t jer",
      "wiet se",
      "aa fke",
      "tjer k",
      "jor t",
      "pascal le",
      "man ouk",
      "t ijs",
      "tru die",
      "g r",
      "et ha",
      "co linda",
      "gr etha",
      "jo ran",
      "jo rien",
      "gert ie",
      "c is",
      "m elle",
      "cis ca",
      "di k",
      "p le",
      "v al",
      "jo lijn",
      "ent ijn",
      "ple un",
      "val entijn",
      "e wout",
      "yo rick",
      "sie be",
      "floor tje",
      "bou ke",
      "f ris",
      "f ol",
      "k ert",
      "o es",
      "ger di",
      "bar end",
      "annel oes",
      "bep pie",
      "pe et",
      "fris o",
      "fol kert",
      "gerdi en",
      "mi el",
      "ca miel",
      "hil lie",
      "m m",
      "la mm",
      "lamm ert",
      "geert jan",
      "riek ie",
      "ty go",
      "mar lo",
      "jos je",
      "marlo us",
      "mir te",
      "hil ly",
      "jo uke",
      "ma chiel",
      "robert jan",
      "jos ien",
      "t inie",
      "mer lijn",
      "jel te",
      "ger jan",
      "y ke",
      "ro mee",
      "ma yke",
      "hu b",
      "els ke",
      "b re",
      "g je",
      "har ma",
      "bre gje",
      "el tje",
      "ne eltje",
      "bet s",
      "yo eri",
      "in dert",
      "me indert",
      "r inie",
      "co ck",
      "dylan o",
      "cob i",
      "rein der",
      "mariet je",
      "es je",
      "ge esje",
      "jur riaan",
      "trijn tje",
      "guus je",
      "k rijn",
      "ma th",
      "f o",
      "k ke",
      "henk ie",
      "fo kke",
      "co rien",
      "th ir",
      "or tje",
      "do ortje",
      "thir za",
      "l ien",
      "w ieke",
      "lien eke",
      "e wou",
      "t el",
      "ch tel",
      "ma chtel",
      "ij k",
      "lo dew",
      "ewou d",
      "machtel d",
      "lodew ijk",
      "l ineke",
      "trijn ie",
      "a al",
      "jenn eke",
      "aal tje",
      "w ol",
      "mi ent",
      "ger co",
      "wol ter",
      "mient je",
      "r in",
      "rin ske",
      "sjo n",
      "gijs bert",
      "lenn eke",
      "b ouk",
      "s jan",
      "bouk je",
      "mar rit",
      "jur rien",
      "k l",
      "as ke",
      "kl aske"
    ]
  }
}