{
  "version": "1.0",
  "truncation": null,
  "padding": null,
  "added_tokens": [
    {
      "id": 0,
      "content": "[UNK]",
      "single_word": false,
      "lstrip": false,
      "rstrip": false,
      "normalized": false,
      "special": true
    },
    {
      "id": 1,
      "content": "[CLS]",
      "single_word": false,
      "lstrip": false,
      "rstrip": false,
      "normalized": false,
      "special": true
    },
    {
      "id": 2,
      "content": "[SEP]",
      "single_word": false,
      "lstrip": false,
      "rstrip": false,
      "normalized": false,
      "special": true
    },
    {
      "id": 3,
      "content": "[PAD]",
      "single_word": false,
      "lstrip": false,
      "rstrip": false,
      "normalized": false,
      "special": true
    },
    {
      "id": 4,
      "content": "[MASK]",
      "single_word": false,
      "lstrip": false,
      "rstrip": false,
      "normalized": false,
      "special": true
    }
  ],
  "normalizer": null,
  "pre_tokenizer": {
    "type": "Whitespace"
  },
  "post_processor": null,
  "decoder": null,
  "model": {
    "type": "BPE",
    "dropout": null,
    "unk_token": "[UNK]",
    "continuing_subword_prefix": null,
    "end_of_word_suffix": null,
    "fuse_unk": false,
    "vocab": {
      "[UNK]": 0,
      "[CLS]": 1,
      "[SEP]": 2,
      "[PAD]": 3,
      "[MASK]": 4,
      "-": 5,
      "a": 6,
      "b": 7,
      "c": 8,
      "d": 9,
      "e": 10,
      "f": 11,
      "g": 12,
      "h": 13,
      "i": 14,
      "j": 15,
      "k": 16,
      "l": 17,
      "m": 18,
      "n": 19,
      "o": 20,
      "p": 21,
      "q": 22,
      "r": 23,
      "s": 24,
      "t": 25,
      "u": 26,
      "v": 27,
      "w": 28,
      "x": 29,
      "y": 30,
      "z": 31,
      "an": 32,
      "ar": 33,
      "el": 34,
      "in": 35,
      "en": 36,
      "mar": 37,
      "jo": 38,
      "er": 39,
      "ic": 40,
      "on": 41,
      "al": 42,
      "ie": 43,
      "is": 44,
      "ro": 45,
      "es": 46,
      "th": 47,
      "ja": 48,
      "ch": 49,
      "il": 50,
      "le": 51,
      "yn": 52,
      "ra": 53,
      "re": 54,
      "ann": 55,
      "ris": 56,
      "ma": 57,
      "ia": 58,
      "ine": 59,
      "lo": 60,
      "ju": 61,
      "sh": 62,
      "ich": 63,
      "se": 64,
      "ce": 65,
      "ang": 66,
      "rist": 67,
      "ian": 68,
      "da": 69,
      "angel": 70,
      "vin": 71,
      "ph": 72,
      "ry": 73,
      "ess": 74,
      "ed": 75,
      "enn": 76,
      "hn": 77,
      "john": 78,
      "and": 79,
      "mich": 80,
      "mel": 81,
      "jan": 82,
      "mark": 83,
      "ber": 84,
      "jay": 85,
      "na": 86,
      "it": 87,
      "mary": 88,
      "pa": 89,
      "elle": 90,
      "arl": 91,
      "son": 92,
      "ica": 93,
      "je": 94,
      "ard": 95,
      "ina": 96,
      "christ": 97,
      "im": 98,
      "iz": 99,
      "ren": 100,
      "ald": 101,
      "ka": 102,
      "ael": 103,
      "em": 104,
      "iel": 105,
      "jose": 106,
      "ab": 107,
      "sa": 108,
      "elyn": 109,
      "ron": 110,
      "bert": 111,
      "ick": 112,
      "jam": 113,
      "ke": 114,
      "joy": 115,
      "rose": 116,
      "ol": 117,
      "michael": 118,
      "jer": 119,
      "uel": 120,
      "eth": 121,
      "ex": 122,
      "te": 123,
      "pr": 124,
      "jenn": 125,
      "jane": 126,
      "anne": 127,
      "or": 128,
      "iv": 129,
      "la": 130,
      "dan": 131,
      "ca": 132,
      "car": 133,
      "joseph": 134,
      "rey": 135,
      "gra": 136,
      "grace": 137,
      "win": 138,
      "jess": 139,
      "alex": 140,
      "mi": 141,
      "my": 142,
      "jh": 143,
      "lie": 144,
      "ryan": 145,
      "james": 146,
      "man": 147,
      "ter": 148,
      "fer": 149,
      "io": 150,
      "tr": 151,
      "ly": 152,
      "anna": 153,
      "len": 154,
      "us": 155,
      "iza": 156,
      "ena": 157,
      "lyn": 158,
      "ev": 159,
      "jef": 160,
      "pau": 161,
      "prin": 162,
      "alyn": 163,
      "jun": 164,
      "ico": 165,
      "maria": 166,
      "anc": 167,
      "mon": 168,
      "ony": 169,
      "ger": 170,
      "kim": 171,
      "maric": 172,
      "marie": 173,
      "lan": 174,
      "lor": 175,
      "ve": 176,
      "nel": 177,
      "ita": 178,
      "mil": 179,
      "vi": 180,
      "michelle": 181,
      "jeff": 182,
      "paul": 183,
      "rich": 184,
      "ben": 185,
      "tin": 186,
      "ros": 187,
      "red": 188,
      "than": 189,
      "nathan": 190,
      "me": 191,
      "co": 192,
      "carlo": 193,
      "ene": 194,
      "fr": 195,
      "christian": 196,
      "ther": 197,
      "mer": 198,
      "richard": 199,
      "ea": 200,
      "don": 201,
      "dy": 202,
      "josh": 203,
      "andre": 204,
      "inda": 205,
      "no": 206,
      "patr": 207,
      "anth": 208,
      "anthony": 209,
      "crist": 210,
      "robert": 211,
      "ah": 212,
      "maril": 213,
      "ice": 214,
      "cess": 215,
      "joel": 216,
      "ey": 217,
      "ail": 218,
      "jenny": 219,
      "ru": 220,
      "ky": 221,
      "princess": 222,
      "ancis": 223,
      "francis": 224,
      "ai": 225,
      "wil": 226,
      "julie": 227,
      "rod": 228,
      "rene": 229,
      "mari": 230,
      "by": 231,
      "lu": 232,
      "ing": 233,
      "ifer": 234,
      "mae": 235,
      "jennifer": 236,
      "gina": 237,
      "rol": 238,
      "ray": 239,
      "gie": 240,
      "nico": 241,
      "mike": 242,
      "andy": 243,
      "nie": 244,
      "row": 245,
      "joc": 246,
      "jon": 247,
      "therine": 248,
      "vic": 249,
      "de": 250,
      "ronald": 251,
      "charl": 252,
      "jean": 253,
      "oph": 254,
      "ou": 255,
      "ella": 256,
      "sam": 257,
      "jen": 258,
      "jus": 259,
      "ha": 260,
      "ardo": 261,
      "cher": 262,
      "aren": 263,
      "rh": 264,
      "tor": 265,
      "alvin": 266,
      "rian": 267,
      "un": 268,
      "jonathan": 269,
      "christine": 270,
      "zel": 271,
      "jas": 272,
      "jocelyn": 273,
      "yl": 274,
      "ge": 275,
      "erwin": 276,
      "nes": 277,
      "denn": 278,
      "dennis": 279,
      "jayson": 280,
      "ua": 281,
      "joshua": 282,
      "lou": 283,
      "ito": 284,
      "angelo": 285,
      "een": 286,
      "old": 287,
      "emma": 288,
      "anie": 289,
      "joan": 290,
      "issa": 291,
      "hel": 292,
      "icky": 293,
      "marvin": 294,
      "ely": 295,
      "cy": 296,
      "she": 297,
      "beth": 298,
      "jeffrey": 299,
      "evelyn": 300,
      "maricel": 301,
      "di": 302,
      "allan": 303,
      "gerald": 304,
      "ley": 305,
      "eric": 306,
      "pe": 307,
      "karen": 308,
      "ni": 309,
      "fred": 310,
      "gil": 311,
      "mj": 312,
      "may": 313,
      "noel": 314,
      "ent": 315,
      "lon": 316,
      "marlon": 317,
      "jason": 318,
      "manuel": 319,
      "nicole": 320,
      "rowena": 321,
      "ton": 322,
      "anton": 323,
      "carl": 324,
      "cristina": 325,
      "hen": 326,
      "sar": 327,
      "sarah": 328,
      "arlene": 329,
      "josephine": 330,
      "mig": 331,
      "bo": 332,
      "patrick": 333,
      "chris": 334,
      "bryan": 335,
      "fe": 336,
      "teres": 337,
      "liza": 338,
      "lov": 339,
      "irene": 340,
      "kevin": 341,
      "daniel": 342,
      "marit": 343,
      "jul": 344,
      "catherine": 345,
      "apr": 346,
      "april": 347,
      "jim": 348,
      "ay": 349,
      "ck": 350,
      "jack": 351,
      "ste": 352,
      "steph": 353,
      "ome": 354,
      "jerome": 355,
      "jasm": 356,
      "albert": 357,
      "ana": 358,
      "har": 359,
      "angelica": 360,
      "ad": 361,
      "edwin": 362,
      "arnel": 363,
      "love": 364,
      "victor": 365,
      "jm": 366,
      "eliz": 367,
      "abeth": 368,
      "elizabeth": 369,
      "cherry": 370,
      "jessica": 371,
      "chelle": 372,
      "joyce": 373,
      "lil": 374,
      "joey": 375,
      "roland": 376,
      "christoph": 377,
      "christopher": 378,
      "dian": 379,
      "lovely": 380,
      "hanna": 381,
      "kenn": 382,
      "kenneth": 383,
      "jake": 384,
      "mond": 385,
      "tha": 386,
      "jojo": 387,
      "leo": 388,
      "aron": 389,
      "gar": 390,
      "marilyn": 391,
      "linda": 392,
      "aby": 393,
      "icia": 394,
      "ir": 395,
      "vir": 396,
      "randy": 397,
      "sus": 398,
      "susan": 399,
      "raf": 400,
      "char": 401,
      "nold": 402,
      "arnold": 403,
      "reyn": 404,
      "jerry": 405,
      "angela": 406,
      "krist": 407,
      "kristine": 408,
      "at": 409,
      "cent": 410,
      "vincent": 411,
      "davi": 412,
      "david": 413,
      "cil": 414,
      "cecil": 415,
      "jos": 416,
      "anny": 417,
      "aj": 418,
      "ariel": 419,
      "ilo": 420,
      "marites": 421,
      "andrea": 422,
      "jessa": 423,
      "rom": 424,
      "ila": 425,
      "cris": 426,
      "ny": 427,
      "les": 428,
      "chel": 429,
      "marilou": 430,
      "ricky": 431,
      "baby": 432,
      "adrian": 433,
      "raymond": 434,
      "ken": 435,
      "tte": 436,
      "ag": 437,
      "janice": 438,
      "rosal": 439,
      "hazel": 440,
      "erick": 441,
      "alma": 442,
      "tess": 443,
      "ong": 444,
      "rome": 445,
      "helen": 446,
      "romeo": 447,
      "ven": 448,
      "ane": 449,
      "jc": 450,
      "nik": 451,
      "gab": 452,
      "iam": 453,
      "gel": 454,
      "louie": 455,
      "prince": 456,
      "miguel": 457,
      "jessie": 458,
      "peter": 459,
      "chie": 460,
      "dave": 461,
      "che": 462,
      "cora": 463,
      "reg": 464,
      "nor": 465,
      "lea": 466,
      "mario": 467,
      "rosemarie": 468,
      "rommel": 469,
      "isy": 470,
      "daisy": 471,
      "oliv": 472,
      "aileen": 473,
      "kate": 474,
      "dar": 475,
      "ye": 476,
      "mariv": 477,
      "marivic": 478,
      "patricia": 479,
      "ius": 480,
      "julius": 481,
      "melanie": 482,
      "angeline": 483,
      "quel": 484,
      "saman": 485,
      "antonio": 486,
      "samantha": 487,
      "rj": 488,
      "tine": 489,
      "analyn": 490,
      "angie": 491,
      "justine": 492,
      "sheila": 493,
      "lar": 494,
      "am": 495,
      "ward": 496,
      "edward": 497,
      "mo": 498,
      "alfred": 499,
      "ander": 500,
      "alexander": 501,
      "ruby": 502,
      "cath": 503,
      "bel": 504,
      "lorna": 505,
      "reynald": 506,
      "gilbert": 507,
      "gl": 508,
      "jade": 509,
      "andrew": 510,
      "glenn": 511,
      "sal": 512,
      "of": 513,
      "rodel": 514,
      "rhea": 515,
      "nanc": 516,
      "nancy": 517,
      "edna": 518,
      "ur": 519,
      "justin": 520,
      "ix": 521,
      "mit": 522,
      "lee": 523,
      "mitch": 524,
      "cj": 525,
      "hannah": 526,
      "ash": 527,
      "del": 528,
      "leah": 529,
      "ashley": 530,
      "henry": 531,
      "orge": 532,
      "george": 533,
      "glen": 534,
      "ronnie": 535,
      "roy": 536,
      "glor": 537,
      "teresita": 538,
      "gloria": 539,
      "nikk": 540,
      "shane": 541,
      "van": 542,
      "essa": 543,
      "danilo": 544,
      "juliet": 545,
      "vanessa": 546,
      "kath": 547,
      "ivy": 548,
      "kyle": 549,
      "annie": 550,
      "janet": 551,
      "mela": 552,
      "jimmy": 553,
      "rna": 554,
      "elmer": 555,
      "myrna": 556,
      "ruth": 557,
      "olo": 558,
      "ple": 559,
      "paolo": 560,
      "shiel": 561,
      "shiela": 562,
      "camil": 563,
      "camille": 564,
      "flor": 565,
      "luis": 566,
      "aine": 567,
      "joe": 568,
      "ime": 569,
      "charles": 570,
      "edgar": 571,
      "ig": 572,
      "marissa": 573,
      "gemma": 574,
      "eng": 575,
      "rachel": 576,
      "liam": 577,
      "william": 578,
      "jov": 579,
      "berna": 580,
      "bong": 581,
      "ivan": 582,
      "bea": 583,
      "renz": 584,
      "lita": 585,
      "mac": 586,
      "reynaldo": 587,
      "thea": 588,
      "maine": 589,
      "ida": 590,
      "luz": 591,
      "ace": 592,
      "vince": 593,
      "raquel": 594,
      "jhay": 595,
      "juan": 596,
      "imel": 597,
      "imelda": 598,
      "eryl": 599,
      "ily": 600,
      "sheryl": 601,
      "emily": 602,
      "cla": 603,
      "ire": 604,
      "josie": 605,
      "claire": 606,
      "mal": 607,
      "malou": 608,
      "pre": 609,
      "inky": 610,
      "ver": 611,
      "roger": 612,
      "melvin": 613,
      "ap": 614,
      "riel": 615,
      "gabriel": 616,
      "dex": 617,
      "dexter": 618,
      "ferd": 619,
      "rish": 620,
      "emmanuel": 621,
      "hon": 622,
      "oliver": 623,
      "honey": 624,
      "jomar": 625,
      "gin": 626,
      "jie": 627,
      "ramon": 628,
      "rolando": 629,
      "stephanie": 630,
      "brian": 631,
      "diana": 632,
      "rafael": 633,
      "qu": 634,
      "carlos": 635,
      "queen": 636,
      "elma": 637,
      "nelson": 638,
      "shir": 639,
      "shirley": 640,
      "jasmine": 641,
      "donna": 642,
      "mercy": 643,
      "marco": 644,
      "katr": 645,
      "katrina": 646,
      "eil": 647,
      "mia": 648,
      "neil": 649,
      "uardo": 650,
      "eduardo": 651,
      "agnes": 652,
      "cyn": 653,
      "thia": 654,
      "sherwin": 655,
      "cynthia": 656,
      "nick": 657,
      "marc": 658,
      "kris": 659,
      "ruel": 660,
      "des": 661,
      "rdes": 662,
      "myra": 663,
      "lourdes": 664,
      "ram": 665,
      "aaron": 666,
      "belle": 667,
      "cathy": 668,
      "amy": 669,
      "rie": 670,
      "marjo": 671,
      "marjorie": 672,
      "ip": 673,
      "arvin": 674,
      "ilip": 675,
      "philip": 676,
      "jhon": 677,
      "berly": 678,
      "kimberly": 679,
      "ral": 680,
      "maricar": 681,
      "ralph": 682,
      "nina": 683,
      "charlie": 684,
      "eva": 685,
      "ika": 686,
      "kaye": 687,
      "dianne": 688,
      "rico": 689,
      "judi": 690,
      "jhun": 691,
      "judith": 692,
      "ces": 693,
      "judy": 694,
      "evangeline": 695,
      "carla": 696,
      "nard": 697,
      "tony": 698,
      "bernard": 699,
      "rosalie": 700,
      "rin": 701,
      "aldrin": 702,
      "mariel": 703,
      "jasmin": 704,
      "men": 705,
      "cin": 706,
      "sally": 707,
      "cindy": 708,
      "marian": 709,
      "erlinda": 710,
      "mylen": 711,
      "jho": 712,
      "stephen": 713,
      "mylene": 714,
      "fat": 715,
      "ima": 716,
      "fatima": 717,
      "ellen": 718,
      "jaime": 719,
      "maribel": 720,
      "apple": 721,
      "danny": 722,
      "roberto": 723,
      "martin": 724,
      "joanna": 725,
      "margie": 726,
      "rus": 727,
      "tina": 728,
      "vil": 729,
      "alice": 730,
      "dette": 731,
      "bernadette": 732,
      "vilma": 733,
      "gla": 734,
      "yol": 735,
      "abby": 736,
      "do": 737,
      "zon": 738,
      "corazon": 739,
      "he": 740,
      "rex": 741,
      "larry": 742,
      "esa": 743,
      "theresa": 744,
      "lester": 745,
      "melissa": 746,
      "geraldine": 747,
      "victoria": 748,
      "viv": 749,
      "ona": 750,
      "romel": 751,
      "vivian": 752,
      "fai": 753,
      "faith": 754,
      "benjie": 755,
      "aliza": 756,
      "elena": 757,
      "ody": 758,
      "melody": 759,
      "allen": 760,
      "darwin": 761,
      "sof": 762,
      "sonny": 763,
      "sofia": 764,
      "eu": 765,
      "gene": 766,
      "eugene": 767,
      "carol": 768,
      "bella": 769,
      "ric": 770,
      "vie": 771,
      "ricardo": 772,
      "soph": 773,
      "sophia": 774,
      "lito": 775,
      "be": 776,
      "cca": 777,
      "rebe": 778,
      "janine": 779,
      "virgin": 780,
      "rebecca": 781,
      "virginia": 782,
      "jhen": 783,
      "nen": 784,
      "riza": 785,
      "ramil": 786,
      "jp": 787,
      "sharon": 788,
      "bian": 789,
      "lanie": 790,
      "lance": 791,
      "nikki": 792,
      "bianca": 793,
      "joanne": 794,
      "aida": 795,
      "diane": 796,
      "vicky": 797,
      "teresa": 798,
      "bby": 799,
      "aira": 800,
      "bobby": 801,
      "norma": 802,
      "irish": 803,
      "jonalyn": 804,
      "jackie": 805,
      "inand": 806,
      "ferdinand": 807,
      "elaine": 808,
      "rain": 809,
      "alexis": 810,
      "to": 811,
      "ernes": 812,
      "gerry": 813,
      "ernesto": 814,
      "rochelle": 815,
      "danica": 816,
      "karl": 817,
      "renat": 818,
      "dante": 819,
      "monica": 820,
      "renato": 821,
      "roselyn": 822,
      "manny": 823,
      "johnny": 824,
      "glenda": 825,
      "bing": 826,
      "archie": 827,
      "sean": 828,
      "jamin": 829,
      "benjamin": 830,
      "cheryl": 831,
      "jing": 832,
      "nora": 833,
      "wilma": 834,
      "kat": 835,
      "elsa": 836,
      "wilson": 837,
      "rolly": 838,
      "katherine": 839,
      "nand": 840,
      "marlyn": 841,
      "fernand": 842,
      "harold": 843,
      "fernando": 844,
      "cio": 845,
      "leslie": 846,
      "precio": 847,
      "precious": 848,
      "erica": 849,
      "lily": 850,
      "cesar": 851,
      "eden": 852,
      "aiza": 853,
      "ej": 854,
      "shine": 855,
      "boy": 856,
      "nestor": 857,
      "eun": 858,
      "francisco": 859,
      "eunice": 860,
      "arth": 861,
      "ferson": 862,
      "jefferson": 863,
      "arthur": 864,
      "elvie": 865,
      "onica": 866,
      "regina": 867,
      "veronica": 868,
      "ante": 869,
      "tris": 870,
      "pamela": 871,
      "cristy": 872,
      "trisha": 873,
      "mica": 874,
      "rachelle": 875,
      "reen": 876,
      "cha": 877,
      "rona": 878,
      "cecilia": 879,
      "fy": 880,
      "raffy": 881,
      "delia": 882,
      "melita": 883,
      "paulo": 884,
      "mila": 885,
      "samuel": 886,
      "art": 887,
      "heart": 888,
      "rogel": 889,
      "maricris": 890,
      "momo": 891,
      "rogelio": 892,
      "ette": 893,
      "zena": 894,
      "liezel": 895,
      "zenaida": 896,
      "abig": 897,
      "abigail": 898,
      "die": 899,
      "erika": 900,
      "eddie": 901,
      "arlyn": 902,
      "jayr": 903,
      "lucy": 904,
      "gian": 905,
      "ruben": 906,
      "jb": 907,
      "rica": 908,
      "althea": 909,
      "julia": 910,
      "mau": 911,
      "ilyn": 912,
      "fo": 913,
      "wren": 914,
      "annab": 915,
      "olfo": 916,
      "lawren": 917,
      "rodolfo": 918,
      "norman": 919,
      "annabelle": 920,
      "lawrence": 921,
      "cecille": 922,
      "alan": 923,
      "leen": 924,
      "alfredo": 925,
      "kathleen": 926,
      "kc": 927,
      "weng": 928,
      "jr": 929,
      "vy": 930,
      "juvy": 931,
      "con": 932,
      "ssa": 933,
      "yssa": 934,
      "alyssa": 935,
      "chlo": 936,
      "connie": 937,
      "chloe": 938,
      "roel": 939,
      "loren": 940,
      "lorena": 941,
      "gen": 942,
      "sand": 943,
      "arjay": 944,
      "sonia": 945,
      "sandra": 946,
      "ibeth": 947,
      "lilibeth": 948,
      "dys": 949,
      "gary": 950,
      "gladys": 951,
      "per": 952,
      "jasper": 953,
      "sheena": 954,
      "charmaine": 955,
      "jaco": 956,
      "jacob": 957,
      "ria": 958,
      "ef": 959,
      "nin": 960,
      "efren": 961,
      "nino": 962,
      "den": 963,
      "ul": 964,
      "raul": 965,
      "lyka": 966,
      "kur": 967,
      "emy": 968,
      "jeremy": 969,
      "carmen": 970,
      "nenita": 971,
      "kurt": 972,
      "jj": 973,
      "dong": 974,
      "harry": 975,
      "bh": 976,
      "ew": 977,
      "tth": 978,
      "analiza": 979,
      "matth": 980,
      "marife": 981,
      "matthew": 982,
      "fel": 983,
      "anda": 984,
      "andrei": 985,
      "rosalinda": 986,
      "yolanda": 987,
      "felix": 988,
      "tch": 989,
      "miles": 990,
      "alexa": 991,
      "gardo": 992,
      "edgardo": 993,
      "christina": 994,
      "pauline": 995,
      "cristine": 996,
      "dia": 997,
      "ko": 998,
      "lis": 999,
      "elito": 1000,
      "lydia": 1001,
      "joselito": 1002,
      "lisa": 1003,
      "pia": 1004,
      "oy": 1005,
      "jona": 1006,
      "mai": 1007,
      "june": 1008,
      "kent": 1009,
      "rowel": 1010,
      "lei": 1011,
      "fay": 1012,
      "maica": 1013,
      "faye": 1014,
      "mun": 1015,
      "sel": 1016,
      "raymun": 1017,
      "charlene": 1018,
      "rho": 1019,
      "russel": 1020,
      "raymund": 1021,
      "nica": 1022,
      "greg": 1023,
      "xanne": 1024,
      "roxanne": 1025,
      "jinky": 1026,
      "jeric": 1027,
      "venus": 1028,
      "pinky": 1029,
      "tessie": 1030,
      "daryl": 1031,
      "bev": 1032,
      "erly": 1033,
      "beverly": 1034,
      "ith": 1035,
      "sie": 1036,
      "elsie": 1037,
      "keith": 1038,
      "jovelyn": 1039,
      "fely": 1040,
      "lilia": 1041,
      "liz": 1042,
      "anz": 1043,
      "carmela": 1044,
      "nathaniel": 1045,
      "franz": 1046,
      "pj": 1047,
      "marianne": 1048,
      "mc": 1049,
      "jayar": 1050,
      "ath": 1051,
      "llo": 1052,
      "yd": 1053,
      "arie": 1054,
      "regine": 1055,
      "athena": 1056,
      "lloyd": 1057,
      "aries": 1058,
      "lolita": 1059,
      "nida": 1060,
      "elvi": 1061,
      "chona": 1062,
      "elvira": 1063,
      "lj": 1064,
      "mhel": 1065,
      "riz": 1066,
      "za": 1067,
      "rizza": 1068,
      "thelma": 1069,
      "jude": 1070,
      "trix": 1071,
      "jenelyn": 1072,
      "trixie": 1073,
      "ailyn": 1074,
      "luisa": 1075,
      "nelia": 1076,
      "earl": 1077,
      "gir": 1078,
      "arman": 1079,
      "girlie": 1080,
      "ario": 1081,
      "rosario": 1082,
      "wilfred": 1083,
      "virgie": 1084,
      "wilfredo": 1085,
      "junjun": 1086,
      "eg": 1087,
      "mariz": 1088,
      "abeg": 1089,
      "frederick": 1090,
      "abegail": 1091,
      "amor": 1092,
      "ching": 1093,
      "bernie": 1094,
      "manilyn": 1095,
      "macky": 1096,
      "dred": 1097,
      "emi": 1098,
      "mildred": 1099,
      "noemi": 1100,
      "vangie": 1101,
      "loida": 1102,
      "janeth": 1103,
      "itha": 1104,
      "angelita": 1105,
      "editha": 1106,
      "clar": 1107,
      "elia": 1108,
      "vina": 1109,
      "divina": 1110,
      "ofelia": 1111,
      "clark": 1112,
      "jed": 1113,
      "trist": 1114,
      "maureen": 1115,
      "tristan": 1116,
      "zl": 1117,
      "liezl": 1118,
      "ronel": 1119,
      "merly": 1120,
      "war": 1121,
      "warren": 1122,
      "jaype": 1123,
      "jaypee": 1124,
      "myla": 1125,
      "inday": 1126,
      "boye": 1127,
      "boyet": 1128,
      "regie": 1129,
      "maryjane": 1130,
      "nikko": 1131,
      "carmelita": 1132,
      "mha": 1133,
      "gilio": 1134,
      "virgilio": 1135,
      "lal": 1136,
      "lalaine": 1137,
      "ernie": 1138,
      "gh": 1139,
      "jem": 1140,
      "ronnel": 1141,
      "ghie": 1142,
      "nilo": 1143,
      "marielle": 1144,
      "belen": 1145,
      "yan": 1146,
      "ict": 1147,
      "edict": 1148,
      "jerwin": 1149,
      "benedict": 1150,
      "roderick": 1151,
      "jonel": 1152,
      "tintin": 1153,
      "icho": 1154,
      "jericho": 1155,
      "pearl": 1156,
      "her": 1157,
      "yen": 1158,
      "ronalyn": 1159,
      "merlyn": 1160,
      "sun": 1161,
      "angelito": 1162,
      "vey": 1163,
      "richelle": 1164,
      "harvey": 1165,
      "sunshine": 1166,
      "mart": 1167,
      "jerald": 1168,
      "cel": 1169,
      "lorie": 1170,
      "zen": 1171,
      "eska": 1172,
      "cheska": 1173,
      "zeny": 1174,
      "jerico": 1175,
      "div": 1176,
      "marj": 1177,
      "leny": 1178,
      "maritess": 1179,
      "divine": 1180,
      "au": 1181,
      "brey": 1182,
      "queenie": 1183,
      "aubrey": 1184,
      "joann": 1185,
      "jet": 1186,
      "gem": 1187,
      "rea": 1188,
      "milag": 1189,
      "charito": 1190,
      "jovy": 1191,
      "milagros": 1192,
      "lhen": 1193,
      "jamaica": 1194,
      "tricia": 1195,
      "kyla": 1196,
      "ner": 1197,
      "zald": 1198,
      "chad": 1199,
      "jayve": 1200,
      "nerissa": 1201,
      "zaldy": 1202,
      "jayvee": 1203,
      "jv": 1204,
      "precy": 1205,
      "wel": 1206,
      "chor": 1207,
      "melchor": 1208,
      "jewel": 1209,
      "ronie": 1210,
      "rosalyn": 1211,
      "alona": 1212,
      "muel": 1213,
      "joven": 1214,
      "lemuel": 1215,
      "angelie": 1216,
      "lani": 1217,
      "maribeth": 1218,
      "reggie": 1219,
      "niel": 1220,
      "raven": 1221,
      "deliza": 1222,
      "flordeliza": 1223,
      "miko": 1224,
      "cecile": 1225,
      "olive": 1226,
      "emman": 1227,
      "jerson": 1228,
      "jerick": 1229,
      "roselle": 1230,
      "dondon": 1231,
      "amie": 1232,
      "thess": 1233,
      "yam": 1234,
      "meriam": 1235,
      "jhoy": 1236,
      "cyrus": 1237,
      "kram": 1238,
      "vim": 1239,
      "nash": 1240,
      "gelo": 1241,
      "luzvim": 1242,
      "luzviminda": 1243,
      "nol": 1244,
      "par": 1245,
      "noli": 1246,
      "park": 1247,
      "med": 1248,
      "remed": 1249,
      "annalyn": 1250,
      "ios": 1251,
      "remedios": 1252,
      "cl": 1253,
      "minda": 1254,
      "arence": 1255,
      "clarence": 1256,
      "kit": 1257,
      "fie": 1258,
      "hyn": 1259,
      "lhyn": 1260,
      "non": 1261,
      "alfie": 1262,
      "maryann": 1263,
      "nonoy": 1264,
      "lig": 1265,
      "roldan": 1266,
      "aya": 1267,
      "menchie": 1268,
      "ligaya": 1269,
      "von": 1270,
      "renante": 1271,
      "rhoda": 1272,
      "ianne": 1273,
      "arianne": 1274,
      "tet": 1275,
      "bu": 1276,
      "mico": 1277,
      "armaine": 1278,
      "sheng": 1279,
      "sharmaine": 1280,
      "butch": 1281,
      "rc": 1282,
      "when": 1283,
      "mikee": 1284,
      "micah": 1285,
      "wheng": 1286,
      "edz": 1287,
      "jayjay": 1288,
      "yolly": 1289,
      "dim": 1290,
      "emz": 1291,
      "charm": 1292,
      "dimple": 1293,
      "marky": 1294,
      "antonette": 1295,
      "ikaw": 1296,
      "ging": 1297,
      "argie": 1298,
      "maan": 1299,
      "onila": 1300,
      "leonila": 1301,
      "jhing": 1302,
      "ferdie": 1303,
      "arni": 1304,
      "laarni": 1305,
      "isse": 1306,
      "chito": 1307,
      "janelle": 1308,
      "jenalyn": 1309,
      "charisse": 1310,
      "shaira": 1311,
      "imee": 1312,
      "glaiza": 1313,
      "rowell": 1314,
      "gre": 1315,
      "trish": 1316,
      "xian": 1317,
      "tchen": 1318,
      "gretchen": 1319,
      "annaliza": 1320,
      "shin": 1321,
      "joemar": 1322,
      "reymond": 1323,
      "jhane": 1324,
      "cheche": 1325,
      "dang": 1326,
      "him": 1327,
      "khim": 1328,
      "yna": 1329,
      "dodong": 1330,
      "cquel": 1331,
      "racquel": 1332,
      "ericson": 1333,
      "marich": 1334,
      "edmar": 1335,
      "renalyn": 1336,
      "emie": 1337,
      "marichu": 1338,
      "beng": 1339,
      "jong": 1340,
      "nikka": 1341,
      "shella": 1342,
      "deth": 1343,
      "madel": 1344,
      "venice": 1345,
      "bernadeth": 1346,
      "marygrace": 1347,
      "emelita": 1348,
      "poy": 1349,
      "jepoy": 1350,
      "gy": 1351,
      "lorenz": 1352,
      "miggy": 1353,
      "migs": 1354,
      "denver": 1355,
      "ac": 1356,
      "ion": 1357,
      "vac": 1358,
      "anj": 1359,
      "lyndon": 1360,
      "salvac": 1361,
      "jovie": 1362,
      "dora": 1363,
      "rhodora": 1364,
      "salvacion": 1365,
      "emel": 1366,
      "ems": 1367,
      "jennelyn": 1368,
      "reymark": 1369,
      "mhay": 1370,
      "emelyn": 1371,
      "fa": 1372,
      "nim": 1373,
      "genalyn": 1374,
      "nimfa": 1375,
      "kko": 1376,
      "mhar": 1377,
      "res": 1378,
      "sol": 1379,
      "ty": 1380,
      "jobert": 1381,
      "rasol": 1382,
      "mikko": 1383,
      "mirasol": 1384,
      "ailene": 1385,
      "aireen": 1386,
      "ginalyn": 1387,
      "resty": 1388,
      "cardo": 1389,
      "maryrose": 1390,
      "jhe": 1391,
      "jennylyn": 1392,
      "ellaine": 1393,
      "mie": 1394,
      "lenie": 1395,
      "neneng": 1396,
      "hermie": 1397,
      "din": 1398,
      "gerlie": 1399,
      "reynante": 1400,
      "bhing": 1401,
      "dindo": 1402,
      "bhe": 1403,
      "jomari": 1404,
      "thir": 1405,
      "aldwin": 1406,
      "romnick": 1407,
      "thirdy": 1408,
      "ding": 1409,
      "iy": 1410,
      "iya": 1411,
      "cee": 1412,
      "jaycee": 1413,
      "jelyn": 1414,
      "br": 1415,
      "ier": 1416,
      "jomel": 1417,
      "jhong": 1418,
      "rainier": 1419,
      "yanyan": 1420,
      "brix": 1421,
      "raymart": 1422,
      "bhaby": 1423,
      "malyn": 1424,
      "oly": 1425,
      "violy": 1426,
      "lovelyn": 1427,
      "johnrey": 1428,
      "monette": 1429,
      "aljon": 1430,
      "babylyn": 1431,
      "mhae": 1432,
      "hal": 1433,
      "nhel": 1434,
      "mahal": 1435,
      "angelyn": 1436,
      "maryjoy": 1437,
      "lyra": 1438,
      "jonard": 1439,
      "rhen": 1440,
      "jimboy": 1441,
      "anal": 1442,
      "reymart": 1443,
      "lynlyn": 1444,
      "rhey": 1445,
      "analie": 1446,
      "neth": 1447,
      "anjo": 1448,
      "jonjon": 1449,
      "rhon": 1450,
      "cz": 1451,
      "arina": 1452,
      "czarina": 1453,
      "chard": 1454,
      "reig": 1455,
      "rhian": 1456,
      "maui": 1457,
      "reign": 1458,
      "dhel": 1459,
      "khen": 1460,
      "oj": 1461,
      "yoj": 1462,
      "jojie": 1463,
      "jobelle": 1464,
      "shey": 1465,
      "eds": 1466,
      "maricor": 1467,
      "jocel": 1468,
      "denden": 1469,
      "hershey": 1470,
      "rjay": 1471,
      "ani": 1472,
      "isag": 1473,
      "romar": 1474,
      "mavic": 1475,
      "isagani": 1476,
      "rodelyn": 1477,
      "dor": 1478,
      "mina": 1479,
      "joie": 1480,
      "jennilyn": 1481,
      "domina": 1482,
      "bhong": 1483,
      "dominador": 1484,
      "razel": 1485,
      "maricon": 1486,
      "merlita": 1487,
      "mayette": 1488,
      "amiel": 1489,
      "nyl": 1490,
      "junel": 1491,
      "jomarie": 1492,
      "rit": 1493,
      "matet": 1494,
      "emem": 1495,
      "sheryll": 1496,
      "ritchel": 1497,
      "janjan": 1498,
      "boboy": 1499,
      "charie": 1500,
      "jaymar": 1501,
      "jemar": 1502,
      "edelyn": 1503,
      "meann": 1504,
      "nit": 1505,
      "reden": 1506,
      "migz": 1507,
      "florante": 1508,
      "apol": 1509,
      "nitz": 1510,
      "reynan": 1511,
      "romelyn": 1512,
      "realyn": 1513,
      "salve": 1514,
      "vergel": 1515,
      "mean": 1516,
      "jhayr": 1517,
      "jolo": 1518,
      "rechelle": 1519,
      "jhayar": 1520,
      "arvie": 1521,
      "elie": 1522,
      "lorelie": 1523
    },
    "merges": [
      "a n",
      "a r",
      "e l",
      "i n",
      "e n",
      "m ar",
      "j o",
      "e r",
      "i c",
      "o n",
      "a l",
      "i e",
      "i s",
      "r o",
      "e s",
      "t h",
      "j a",
      "c h",
      "i l",
      "l e",
      "y n",
      "r a",
      "r e",
      "an n",
      "r is",
      "m a",
      "i a",
      "in e",
      "l o",
      "j u",
      "s h",
      "ic h",
      "s e",
      "c e",
      "an g",
      "ris t",
      "i an",
      "d a",
      "ang el",
      "v in",
      "p h",
      "r y",
      "es s",
      "e d",
      "en n",
      "h n",
      "jo hn",
      "an d",
      "m ich",
      "m el",
      "j an",
      "mar k",
      "b er",
      "ja y",
      "n a",
      "i t",
      "mar y",
      "p a",
      "el le",
      "ar l",
      "s on",
      "ic a",
      "j e",
      "ar d",
      "in a",
      "ch rist",
      "i m",
      "i z",
      "r en",
      "al d",
      "k a",
      "a el",
      "e m",
      "i el",
      "jo se",
      "a b",
      "s a",
      "el yn",
      "r on",
      "ber t",
      "ic k",
      "ja m",
      "k e",
      "jo y",
      "ro se",
      "o l",
      "mich ael",
      "j er",
      "u el",
      "e th",
      "e x",
      "t e",
      "p r",
      "j enn",
      "jan e",
      "ann e",
      "o r",
      "i v",
      "l a",
      "d an",
      "c a",
      "c ar",
      "jose ph",
      "re y",
      "g ra",
      "gra ce",
      "w in",
      "j ess",
      "al ex",
      "m i",
      "m y",
      "j h",
      "l ie",
      "ry an",
      "jam es",
      "m an",
      "t er",
      "f er",
      "i o",
      "t r",
      "l y",
      "ann a",
      "l en",
      "u s",
      "iz a",
      "en a",
      "l yn",
      "e v",
      "je f",
      "pa u",
      "pr in",
      "al yn",
      "ju n",
      "ic o",
      "mar ia",
      "an c",
      "m on",
      "on y",
      "g er",
      "k im",
      "mar ic",
      "mar ie",
      "l an",
      "lo r",
      "v e",
      "n el",
      "it a",
      "m il",
      "v i",
      "mich elle",
      "jef f",
      "pau l",
      "r ich",
      "b en",
      "t in",
      "ro s",
      "re d",
      "th an",
      "na than",
      "m e",
      "c o",
      "car lo",
      "en e",
      "f r",
      "christ ian",
      "th er",
      "m er",
      "rich ard",
      "e a",
      "d on",
      "d y",
      "jo sh",
      "and re",
      "in da",
      "n o",
      "pa tr",
      "an th",
      "anth ony",
      "c rist",
      "ro bert",
      "a h",
      "mar il",
      "ic e",
      "c ess",
      "jo el",
      "e y",
      "a il",
      "jenn y",
      "r u",
      "k y",
      "prin cess",
      "anc is",
      "fr ancis",
      "a i",
      "w il",
      "ju lie",
      "ro d",
      "ren e",
      "mar i",
      "b y",
      "l u",
      "in g",
      "i fer",
      "ma e",
      "jenn ifer",
      "g ina",
      "ro l",
      "ra y",
      "g ie",
      "n ico",
      "mi ke",
      "and y",
      "n ie",
      "ro w",
      "jo c",
      "jo n",
      "ther ine",
      "v ic",
      "d e",
      "ron ald",
      "ch arl",
      "je an",
      "o ph",
      "o u",
      "el la",
      "sa m",
      "j en",
      "ju s",
      "h a",
      "ard o",
      "ch er",
      "ar en",
      "r h",
      "t or",
      "al vin",
      "r ian",
      "u n",
      "jo nathan",
      "christ ine",
      "z el",
      "ja s",
      "joc elyn",
      "y l",
      "g e",
      "er win",
      "n es",
      "d enn",
      "denn is",
      "jay son",
      "u a",
      "josh ua",
      "lo u",
      "it o",
      "angel o",
      "e en",
      "ol d",
      "em ma",
      "an ie",
      "jo an",
      "is sa",
      "h el",
      "ick y",
      "mar vin",
      "el y",
      "c y",
      "sh e",
      "b eth",
      "jeff rey",
      "ev elyn",
      "maric el",
      "d i",
      "al lan",
      "ger ald",
      "le y",
      "er ic",
      "p e",
      "k aren",
      "n i",
      "f red",
      "g il",
      "m j",
      "ma y",
      "no el",
      "en t",
      "l on",
      "mar lon",
      "ja son",
      "man uel",
      "nico le",
      "row ena",
      "t on",
      "an ton",
      "c arl",
      "crist ina",
      "h en",
      "s ar",
      "sar ah",
      "arl ene",
      "joseph ine",
      "mi g",
      "b o",
      "patr ick",
      "ch ris",
      "b ryan",
      "f e",
      "ter es",
      "l iza",
      "lo v",
      "i rene",
      "ke vin",
      "dan iel",
      "mar it",
      "ju l",
      "ca therine",
      "a pr",
      "apr il",
      "j im",
      "a y",
      "c k",
      "ja ck",
      "s te",
      "ste ph",
      "o me",
      "jer ome",
      "jas m",
      "al bert",
      "an a",
      "h ar",
      "angel ica",
      "a d",
      "ed win",
      "ar nel",
      "lo ve",
      "vic tor",
      "j m",
      "el iz",
      "ab eth",
      "eliz abeth",
      "cher ry",
      "jess ica",
      "ch elle",
      "joy ce",
      "l il",
      "jo ey",
      "rol and",
      "christ oph",
      "christoph er",
      "d ian",
      "lov ely",
      "h anna",
      "k enn",
      "kenn eth",
      "ja ke",
      "mon d",
      "th a",
      "jo jo",
      "le o",
      "ar on",
      "g ar",
      "maril yn",
      "l inda",
      "ab y",
      "ic ia",
      "i r",
      "vi r",
      "r andy",
      "s us",
      "sus an",
      "ra f",
      "ch ar",
      "n old",
      "ar nold",
      "re yn",
      "jer ry",
      "angel a",
      "k rist",
      "krist ine",
      "a t",
      "c ent",
      "vin cent",
      "da vi",
      "davi d",
      "c il",
      "ce cil",
      "jo s",
      "ann y",
      "a j",
      "ar iel",
      "il o",
      "marit es",
      "andre a",
      "jess a",
      "ro m",
      "il a",
      "c ris",
      "n y",
      "l es",
      "ch el",
      "maril ou",
      "r icky",
      "b aby",
      "ad rian",
      "ray mond",
      "k en",
      "t te",
      "a g",
      "jan ice",
      "ros al",
      "ha zel",
      "er ick",
      "al ma",
      "t ess",
      "on g",
      "ro me",
      "hel en",
      "rome o",
      "v en",
      "an e",
      "j c",
      "ni k",
      "g ab",
      "ia m",
      "g el",
      "lou ie",
      "prin ce",
      "mig uel",
      "jess ie",
      "pe ter",
      "ch ie",
      "da ve",
      "ch e",
      "co ra",
      "re g",
      "n or",
      "le a",
      "mar io",
      "rose marie",
      "rom mel",
      "is y",
      "da isy",
      "ol iv",
      "ail een",
      "ka te",
      "d ar",
      "y e",
      "mar iv",
      "mariv ic",
      "patr icia",
      "i us",
      "jul ius",
      "mel anie",
      "angel ine",
      "q uel",
      "sa man",
      "anton io",
      "saman tha",
      "r j",
      "t ine",
      "an alyn",
      "ang ie",
      "jus tine",
      "she ila",
      "l ar",
      "a m",
      "w ard",
      "ed ward",
      "m o",
      "al fred",
      "and er",
      "alex ander",
      "ru by",
      "ca th",
      "b el",
      "lor na",
      "reyn ald",
      "gil bert",
      "g l",
      "ja de",
      "andre w",
      "gl enn",
      "s al",
      "o f",
      "rod el",
      "rh ea",
      "n anc",
      "nanc y",
      "ed na",
      "u r",
      "jus tin",
      "i x",
      "m it",
      "le e",
      "mit ch",
      "c j",
      "hanna h",
      "a sh",
      "d el",
      "le ah",
      "ash ley",
      "hen ry",
      "or ge",
      "ge orge",
      "g len",
      "ron nie",
      "ro y",
      "g lor",
      "teres ita",
      "glor ia",
      "nik k",
      "sh ane",
      "v an",
      "ess a",
      "dan ilo",
      "julie t",
      "van essa",
      "ka th",
      "iv y",
      "ky le",
      "ann ie",
      "jane t",
      "mel a",
      "jim my",
      "r na",
      "el mer",
      "my rna",
      "ru th",
      "o lo",
      "p le",
      "pa olo",
      "sh iel",
      "shiel a",
      "ca mil",
      "camil le",
      "f lor",
      "lu is",
      "a ine",
      "jo e",
      "im e",
      "charl es",
      "ed gar",
      "i g",
      "mar issa",
      "g emma",
      "en g",
      "ra chel",
      "l iam",
      "wil liam",
      "jo v",
      "ber na",
      "b ong",
      "iv an",
      "b ea",
      "ren z",
      "l ita",
      "ma c",
      "reynald o",
      "th ea",
      "ma ine",
      "i da",
      "lu z",
      "a ce",
      "vin ce",
      "ra quel",
      "jh ay",
      "ju an",
      "i mel",
      "imel da",
      "er yl",
      "il y",
      "sh eryl",
      "em ily",
      "c la",
      "i re",
      "jos ie",
      "cla ire",
      "m al",
      "mal ou",
      "p re",
      "in ky",
      "v er",
      "ro ger",
      "mel vin",
      "a p",
      "r iel",
      "gab riel",
      "d ex",
      "dex ter",
      "fer d",
      "ris h",
      "em manuel",
      "h on",
      "oliv er",
      "hon ey",
      "jo mar",
      "g in",
      "j ie",
      "ra mon",
      "roland o",
      "steph anie",
      "b rian",
      "dian a",
      "raf ael",
      "q u",
      "carlo s",
      "qu een",
      "el ma",
      "nel son",
      "sh ir",
      "shir ley",
      "jasm ine",
      "don na",
      "mer cy",
      "mar co",
      "ka tr",
      "katr ina",
      "e il",
      "m ia",
      "n eil",
      "u ardo",
      "ed uardo",
      "ag nes",
      "c yn",
      "th ia",
      "sh erwin",
      "cyn thia",
      "n ick",
      "mar c",
      "k ris",
      "r uel",
      "d es",
      "r des",
      "my ra",
      "lou rdes",
      "ra m",
      "a aron",
      "b elle",
      "cath y",
      "a my",
      "r ie",
      "mar jo",
      "marjo rie",
      "i p",
      "ar vin",
      "il ip",
      "ph ilip",
      "jh on",
      "ber ly",
      "kim berly",
      "r al",
      "maric ar",
      "ral ph",
      "n ina",
      "charl ie",
      "ev a",
      "i ka",
      "ka ye",
      "di anne",
      "r ico",
      "ju di",
      "jh un",
      "judi th",
      "c es",
      "ju dy",
      "ev angeline",
      "carl a",
      "n ard",
      "t ony",
      "ber nard",
      "rosal ie",
      "r in",
      "ald rin",
      "mar iel",
      "jasm in",
      "m en",
      "c in",
      "sal ly",
      "cin dy",
      "mar ian",
      "er linda",
      "my len",
      "jh o",
      "steph en",
      "mylen e",
      "f at",
      "i ma",
      "fat ima",
      "el len",
      "ja ime",
      "mari bel",
      "ap ple",
      "d anny",
      "robert o",
      "mar tin",
      "jo anna",
      "mar gie",
      "r us",
      "t ina",
      "v il",
      "al ice",
      "de tte",
      "berna dette",
      "vil ma",
      "g la",
      "y ol",
      "ab by",
      "d o",
      "z on",
      "cora zon",
      "h e",
      "re x",
      "lar ry",
      "es a",
      "ther esa",
      "les ter",
      "mel issa",
      "gerald ine",
      "victor ia",
      "v iv",
      "on a",
      "ro mel",
      "viv ian",
      "f ai",
      "fai th",
      "ben jie",
      "al iza",
      "el ena",
      "o dy",
      "mel ody",
      "al len",
      "dar win",
      "s of",
      "son ny",
      "sof ia",
      "e u",
      "g ene",
      "eu gene",
      "car ol",
      "b ella",
      "r ic",
      "v ie",
      "ric ardo",
      "s oph",
      "soph ia",
      "l ito",
      "b e",
      "c ca",
      "re be",
      "jan ine",
      "vir gin",
      "rebe cca",
      "virgin ia",
      "jh en",
      "n en",
      "r iza",
      "ra mil",
      "j p",
      "sh aron",
      "b ian",
      "lan ie",
      "lan ce",
      "nikk i",
      "bian ca",
      "jo anne",
      "ai da",
      "dian e",
      "v icky",
      "teres a",
      "b by",
      "ai ra",
      "bo bby",
      "nor ma",
      "i rish",
      "jon alyn",
      "jack ie",
      "in and",
      "ferd inand",
      "el aine",
      "ra in",
      "alex is",
      "t o",
      "er nes",
      "ger ry",
      "ernes to",
      "ro chelle",
      "dan ica",
      "k arl",
      "ren at",
      "dan te",
      "mon ica",
      "renat o",
      "ros elyn",
      "m anny",
      "john ny",
      "glen da",
      "b ing",
      "ar chie",
      "se an",
      "jam in",
      "ben jamin",
      "cher yl",
      "j ing",
      "no ra",
      "wil ma",
      "ka t",
      "el sa",
      "wil son",
      "rol ly",
      "ka therine",
      "n and",
      "mar lyn",
      "fer nand",
      "har old",
      "fernand o",
      "c io",
      "les lie",
      "pre cio",
      "precio us",
      "er ica",
      "lil y",
      "ces ar",
      "ed en",
      "a iza",
      "e j",
      "sh ine",
      "bo y",
      "nes tor",
      "e un",
      "francis co",
      "eun ice",
      "ar th",
      "fer son",
      "jef ferson",
      "arth ur",
      "el vie",
      "on ica",
      "re gina",
      "ver onica",
      "an te",
      "t ris",
      "pa mela",
      "crist y",
      "tris ha",
      "m ica",
      "ra chelle",
      "re en",
      "ch a",
      "ron a",
      "cecil ia",
      "f y",
      "raf fy",
      "del ia",
      "mel ita",
      "pau lo",
      "mil a",
      "sam uel",
      "ar t",
      "he art",
      "ro gel",
      "maric ris",
      "mo mo",
      "rogel io",
      "e tte",
      "z ena",
      "lie zel",
      "zena ida",
      "ab ig",
      "abig ail",
      "d ie",
      "er ika",
      "ed die",
      "arl yn",
      "jay r",
      "lu cy",
      "g ian",
      "ru ben",
      "j b",
      "r ica",
      "al thea",
      "jul ia",
      "ma u",
      "il yn",
      "f o",
      "w ren",
      "ann ab",
      "ol fo",
      "la wren",
      "rod olfo",
      "nor man",
      "annab elle",
      "lawren ce",
      "cecil le",
      "al an",
      "le en",
      "alfred o",
      "kath leen",
      "k c",
      "w eng",
      "j r",
      "v y",
      "ju vy",
      "c on",
      "s sa",
      "y ssa",
      "al yssa",
      "ch lo",
      "con nie",
      "chlo e",
      "ro el",
      "lo ren",
      "loren a",
      "g en",
      "s and",
      "ar jay",
      "son ia",
      "sand ra",
      "i beth",
      "lil ibeth",
      "dy s",
      "gar y",
      "gla dys",
      "p er",
      "jas per",
      "she ena",
      "char maine",
      "ja co",
      "jaco b",
      "r ia",
      "e f",
      "n in",
      "ef ren",
      "nin o",
      "d en",
      "u l",
      "ra ul",
      "ly ka",
      "k ur",
      "em y",
      "jer emy",
      "car men",
      "nen ita",
      "kur t",
      "j j",
      "don g",
      "har ry",
      "b h",
      "e w",
      "t th",
      "an aliza",
      "ma tth",
      "mari fe",
      "matth ew",
      "f el",
      "an da",
      "andre i",
      "rosal inda",
      "yol anda",
      "fel ix",
      "t ch",
      "mil es",
      "alex a",
      "g ardo",
      "ed gardo",
      "christ ina",
      "paul ine",
      "crist ine",
      "d ia",
      "k o",
      "l is",
      "el ito",
      "ly dia",
      "jos elito",
      "lis a",
      "p ia",
      "o y",
      "jo na",
      "ma i",
      "jun e",
      "k ent",
      "row el",
      "le i",
      "f ay",
      "ma ica",
      "fay e",
      "m un",
      "s el",
      "ray mun",
      "charl ene",
      "rh o",
      "rus sel",
      "raymun d",
      "n ica",
      "g reg",
      "x anne",
      "ro xanne",
      "j inky",
      "jer ic",
      "ven us",
      "p inky",
      "tess ie",
      "dar yl",
      "b ev",
      "er ly",
      "bev erly",
      "i th",
      "s ie",
      "el sie",
      "ke ith",
      "jov elyn",
      "f ely",
      "lil ia",
      "l iz",
      "an z",
      "car mela",
      "nathan iel",
      "fr anz",
      "p j",
      "mari anne",
      "m c",
      "jay ar",
      "a th",
      "l lo",
      "y d",
      "ar ie",
      "reg ine",
      "ath ena",
      "llo yd",
      "arie s",
      "lo lita",
      "ni da",
      "el vi",
      "ch ona",
      "elvi ra",
      "l j",
      "m hel",
      "r iz",
      "z a",
      "riz za",
      "th elma",
      "ju de",
      "tr ix",
      "jen elyn",
      "trix ie",
      "ail yn",
      "luis a",
      "nel ia",
      "e arl",
      "g ir",
      "ar man",
      "gir lie",
      "ar io",
      "ros ario",
      "wil fred",
      "vir gie",
      "wilfred o",
      "jun jun",
      "e g",
      "mar iz",
      "ab eg",
      "fred erick",
      "abeg ail",
      "am or",
      "ch ing",
      "ber nie",
      "man ilyn",
      "mac ky",
      "d red",
      "em i",
      "mil dred",
      "no emi",
      "v angie",
      "lo ida",
      "jan eth",
      "i tha",
      "angel ita",
      "ed itha",
      "c lar",
      "el ia",
      "vin a",
      "di vina",
      "of elia",
      "clar k",
      "j ed",
      "t rist",
      "mau reen",
      "trist an",
      "z l",
      "lie zl",
      "ron el",
      "mer ly",
      "w ar",
      "war ren",
      "jay pe",
      "jaype e",
      "my la",
      "inda y",
      "bo ye",
      "boye t",
      "re gie",
      "mary jane",
      "nikk o",
      "car melita",
      "m ha",
      "gil io",
      "vir gilio",
      "l al",
      "lal aine",
      "er nie",
      "g h",
      "je m",
      "ron nel",
      "gh ie",
      "n ilo",
      "mari elle",
      "bel en",
      "y an",
      "ic t",
      "ed ict",
      "jer win",
      "ben edict",
      "rod erick",
      "jo nel",
      "tin tin",
      "ich o",
      "jer icho",
      "pe arl",
      "h er",
      "y en",
      "ron alyn",
      "mer lyn",
      "s un",
      "angel ito",
      "ve y",
      "rich elle",
      "har vey",
      "sun shine",
      "mar t",
      "jer ald",
      "c el",
      "lor ie",
      "z en",
      "es ka",
      "ch eska",
      "zen y",
      "jer ico",
      "d iv",
      "mar j",
      "len y",
      "marit ess",
      "div ine",
      "a u",
      "b rey",
      "queen ie",
      "au brey",
      "jo ann",
      "je t",
      "g em",
      "re a",
      "mil ag",
      "char ito",
      "jov y",
      "milag ros",
      "l hen",
      "ja maica",
      "tr icia",
      "ky la",
      "n er",
      "z ald",
      "ch ad",
      "jay ve",
      "ner issa",
      "zald y",
      "jayve e",
      "j v",
      "pre cy",
      "w el",
      "ch or",
      "mel chor",
      "je wel",
      "ron ie",
      "ros alyn",
      "al ona",
      "m uel",
      "jo ven",
      "le muel",
      "angel ie",
      "lan i",
      "mari beth",
      "reg gie",
      "n iel",
      "ra ven",
      "del iza",
      "flor deliza",
      "mi ko",
      "cecil e",
      "oliv e",
      "em man",
      "jer son",
      "jer ick",
      "ros elle",
      "don don",
      "am ie",
      "th ess",
      "y am",
      "mer iam",
      "jho y",
      "cy rus",
      "k ram",
      "v im",
      "na sh",
      "gel o",
      "luz vim",
      "luzvim inda",
      "n ol",
      "p ar",
      "nol i",
      "par k",
      "m ed",
      "re med",
      "ann alyn",
      "io s",
      "remed ios",
      "c l",
      "m inda",
      "aren ce",
      "cl arence",
      "k it",
      "f ie",
      "h yn",
      "l hyn",
      "n on",
      "al fie",
      "mary ann",
      "non oy",
      "l ig",
      "rol dan",
      "ay a",
      "men chie",
      "lig aya",
      "v on",
      "ren ante",
      "rho da",
      "i anne",
      "ar ianne",
      "te t",
      "b u",
      "m ico",
      "ar maine",
      "sh eng",
      "sh armaine",
      "bu tch",
      "r c",
      "w hen",
      "mike e",
      "mica h",
      "when g",
      "ed z",
      "jay jay",
      "yol ly",
      "d im",
      "em z",
      "char m",
      "dim ple",
      "mark y",
      "anton ette",
      "ika w",
      "g ing",
      "ar gie",
      "ma an",
      "on ila",
      "le onila",
      "jh ing",
      "ferd ie",
      "ar ni",
      "la arni",
      "is se",
      "ch ito",
      "jan elle",
      "jen alyn",
      "char isse",
      "sh aira",
      "ime e",
      "gla iza",
      "rowel l",
      "g re",
      "t rish",
      "x ian",
      "tch en",
      "gre tchen",
      "ann aliza",
      "sh in",
      "joe mar",
      "rey mond",
      "jh ane",
      "che che",
      "d ang",
      "h im",
      "k him",
      "yn a",
      "do dong",
      "c quel",
      "ra cquel",
      "eric son",
      "mar ich",
      "ed mar",
      "ren alyn",
      "em ie",
      "marich u",
      "ben g",
      "jon g",
      "nik ka",
      "sh ella",
      "d eth",
      "ma del",
      "ven ice",
      "berna deth",
      "mary grace",
      "e melita",
      "p oy",
      "je poy",
      "g y",
      "lo renz",
      "mig gy",
      "mig s",
      "den ver",
      "a c",
      "i on",
      "v ac",
      "an j",
      "lyn don",
      "sal vac",
      "jov ie",
      "do ra",
      "rho dora",
      "salvac ion",
      "e mel",
      "em s",
      "jenn elyn",
      "rey mark",
      "mha y",
      "emel yn",
      "f a",
      "n im",
      "gen alyn",
      "nim fa",
      "k ko",
      "m har",
      "r es",
      "s ol",
      "t y",
      "jo bert",
      "ra sol",
      "mi kko",
      "mi rasol",
      "ail ene",
      "ai reen",
      "gin alyn",
      "res ty",
      "c ardo",
      "mary rose",
      "jh e",
      "jenny lyn",
      "ella ine",
      "m ie",
      "len ie",
      "nen eng",
      "her mie",
      "d in",
      "ger lie",
      "reyn ante",
      "bh ing",
      "din do",
      "b he",
      "jo mari",
      "th ir",
      "ald win",
      "rom nick",
      "thir dy",
      "d ing",
      "i y",
      "iy a",
      "ce e",
      "jay cee",
      "j elyn",
      "b r",
      "i er",
      "jo mel",
      "jh ong",
      "rain ier",
      "yan yan",
      "br ix",
      "ray mart",
      "bh aby",
      "m alyn",
      "ol y",
      "vi oly",
      "lov elyn",
      "john rey",
      "mon ette",
      "al jon",
      "baby lyn",
      "mha e",
      "h al",
      "n hel",
      "ma hal",
      "angel yn",
      "mary joy",
      "ly ra",
      "jon ard",
      "rh en",
      "jim boy",
      "an al",
      "rey mart",
      "lyn lyn",
      "rh ey",
      "anal ie",
      "n eth",
      "an jo",
      "jon jon",
      "rh on",
      "c z",
      "ar ina",
      "cz arina",
      "ch ard",
      "re ig",
      "rh ian",
      "mau i",
      "reig n",
      "d hel",
      "k hen",
      "o j",
      "y oj",
      "jo jie",
      "jo belle",
      "sh ey",
      "ed s",
      "maric or",
      "joc el",
      "den den",
      "her shey",
      "r jay",
      "an i",
      "is ag",
      "ro mar",
      "ma vic",
      "isag ani",
      "rod elyn",
      "d or",
      "m ina",
      "jo ie",
      "jenn ilyn",
      "do mina",
      "bh ong",
      "domina dor",
      "ra zel",
      "maric on",
      "mer lita",
      "may ette",
      "am iel",
      "n yl",
      "jun el",
      "jo marie",
      "r it",
      "ma tet",
      "em em",
      "sheryl l",
      "rit chel",
      "jan jan",
      "bo boy",
      "char ie",
      "jay mar",
      "je mar",
      "ed elyn",
      "me ann",
      "n it",
      "red en",
      "mig z",
      "flor ante",
      "ap ol",
      "nit z",
      "reyn an",
      "romel yn",
      "re alyn",
      "sal ve",
      "ver gel",
      "me an",
      "jhay r",
      "jo lo",
      "re chelle",
      "jhay ar",
      "ar vie",
      "el ie",
      "lor elie"
    ]
  }
}