{
    "version": "1.0",
    "truncation": null,
    "padding": null,
    "added_tokens": [
        {
            "id": 0,
            "content": "[UNK]",
            "single_word": false,
            "lstrip": false,
            "rstrip": false,
            "normalized": false,
            "special": true
        },
        {
            "id": 1,
            "content": "[CLS]",
            "single_word": false,
            "lstrip": false,
            "rstrip": false,
            "normalized": false,
            "special": true
        },
        {
            "id": 2,
            "content": "[SEP]",
            "single_word": false,
            "lstrip": false,
            "rstrip": false,
            "normalized": false,
            "special": true
        },
        {
            "id": 3,
            "content": "[PAD]",
            "single_word": false,
            "lstrip": false,
            "rstrip": false,
            "normalized": false,
            "special": true
        },
        {
            "id": 4,
            "content": "[MASK]",
            "single_word": false,
            "lstrip": false,
            "rstrip": false,
            "normalized": false,
            "special": true
        }
    ],
    "normalizer": null,
    "pre_tokenizer": {
        "type": "Whitespace"
    },
    "post_processor": null,
    "decoder": null,
    "model": {
        "type": "BPE",
        "dropout": null,
        "unk_token": "[UNK]",
        "continuing_subword_prefix": null,
        "end_of_word_suffix": null,
        "fuse_unk": false,
        "vocab": {
            "[UNK]": 0,
            "[CLS]": 1,
            "[SEP]": 2,
            "[PAD]": 3,
            "[MASK]": 4,
            "-": 5,
            "a": 6,
            "b": 7,
            "c": 8,
            "d": 9,
            "e": 10,
            "f": 11,
            "g": 12,
            "h": 13,
            "i": 14,
            "j": 15,
            "k": 16,
            "l": 17,
            "m": 18,
            "n": 19,
            "o": 20,
            "p": 21,
            "q": 22,
            "r": 23,
            "s": 24,
            "t": 25,
            "u": 26,
            "v": 27,
            "w": 28,
            "x": 29,
            "y": 30,
            "z": 31,
            "ha": 32,
            "ma": 33,
            "an": 34,
            "ah": 35,
            "in": 36,
            "ul": 37,
            "mo": 38,
            "mad": 39,
            "hd": 40,
            "ur": 41,
            "ri": 42,
            "mu": 43,
            "am": 44,
            "nur": 45,
            "al": 46,
            "ham": 47,
            "ng": 48,
            "ai": 49,
            "az": 50,
            "ir": 51,
            "no": 52,
            "hammad": 53,
            "ti": 54,
            "ch": 55,
            "li": 56,
            "si": 57,
            "ra": 58,
            "en": 59,
            "ong": 60,
            "fa": 61,
            "ro": 62,
            "mi": 63,
            "ni": 64,
            "md": 65,
            "da": 66,
            "sy": 67,
            "ab": 68,
            "nor": 69,
            "wan": 70,
            "za": 71,
            "fi": 72,
            "le": 73,
            "sha": 74,
            "man": 75,
            "il": 76,
            "el": 77,
            "na": 78,
            "tan": 79,
            "ja": 80,
            "ina": 81,
            "te": 82,
            "ani": 83,
            "irul": 84,
            "rah": 85,
            "ali": 86,
            "ya": 87,
            "ros": 88,
            "ka": 89,
            "abd": 90,
            "on": 91,
            "oh": 92,
            "sh": 93,
            "kha": 94,
            "di": 95,
            "ck": 96,
            "im": 97,
            "iz": 98,
            "lee": 99,
            "lim": 100,
            "cha": 101,
            "ana": 102,
            "rul": 103,
            "us": 104,
            "ik": 105,
            "pu": 106,
            "mah": 107,
            "zul": 108,
            "sa": 109,
            "mar": 110,
            "su": 111,
            "zi": 112,
            "fai": 113,
            "or": 114,
            "vin": 115,
            "ang": 116,
            "din": 117,
            "es": 118,
            "fiq": 119,
            "che": 120,
            "dah": 121,
            "ain": 122,
            "wa": 123,
            "dy": 124,
            "jo": 125,
            "mal": 126,
            "ia": 127,
            "lan": 128,
            "zal": 129,
            "vi": 130,
            "oo": 131,
            "ly": 132,
            "mat": 133,
            "hafi": 134,
            "rif": 135,
            "ew": 136,
            "sya": 137,
            "ris": 138,
            "is": 139,
            "ad": 140,
            "ny": 141,
            "th": 142,
            "lin": 143,
            "sal": 144,
            "has": 145,
            "un": 146,
            "as": 147,
            "tin": 148,
            "cik": 149,
            "ed": 150,
            "put": 151,
            "ce": 152,
            "ee": 153,
            "er": 154,
            "son": 155,
            "ki": 156,
            "ta": 157,
            "sam": 158,
            "ak": 159,
            "ram": 160,
            "ida": 161,
            "zam": 162,
            "zai": 163,
            "yan": 164,
            "ku": 165,
            "naz": 166,
            "ful": 167,
            "joh": 168,
            "kel": 169,
            "nie": 170,
            "mas": 171,
            "la": 172,
            "mon": 173,
            "ie": 174,
            "ex": 175,
            "fari": 176,
            "jam": 177,
            "sur": 178,
            "ca": 179,
            "joe": 180,
            "yu": 181,
            "aiful": 182,
            "ow": 183,
            "ar": 184,
            "ilah": 185,
            "adi": 186,
            "fir": 187,
            "pute": 188,
            "nik": 189,
            "ei": 190,
            "fau": 191,
            "maz": 192,
            "uan": 193,
            "mail": 194,
            "ok": 195,
            "nah": 196,
            "lah": 197,
            "amy": 198,
            "eng": 199,
            "ila": 200,
            "esh": 201,
            "yus": 202,
            "har": 203,
            "ent": 204,
            "suha": 205,
            "sul": 206,
            "jun": 207,
            "lai": 208,
            "abu": 209,
            "mie": 210,
            "chu": 211,
            "far": 212,
            "han": 213,
            "zur": 214,
            "may": 215,
            "ef": 216,
            "yap": 217,
            "ib": 218,
            "gan": 219,
            "kim": 220,
            "wil": 221,
            "eri": 222,
            "rifah": 223,
            "ann": 224,
            "iv": 225,
            "kar": 226,
            "ton": 227,
            "oon": 228,
            "ct": 229,
            "nab": 230,
            "ste": 231,
            "ven": 232,
            "ther": 233,
            "dan": 234,
            "yah": 235,
            "ron": 236,
            "kri": 237,
            "win": 238,
            "ete": 239,
            "ung": 240,
            "ran": 241,
            "tri": 242,
            "ril": 243,
            "dz": 244,
            "kh": 245,
            "id": 246,
            "my": 247,
            "wen": 248,
            "ati": 249,
            "zat": 250,
            "ddin": 251,
            "uddin": 252,
            "ap": 253,
            "nadi": 254,
            "cent": 255,
            "sk": 256,
            "nas": 257,
            "ira": 258,
            "min": 259,
            "goh": 260,
            "cho": 261,
            "raz": 262,
            "ag": 263,
            "war": 264,
            "low": 265,
            "ke": 266,
            "bal": 267,
            "sue": 268,
            "fah": 269,
            "jul": 270,
            "pa": 271,
            "eh": 272,
            "rin": 273,
            "um": 274,
            "uar": 275,
            "jim": 276,
            "fli": 277,
            "zulki": 278,
            "imi": 279,
            "dar": 280,
            "raf": 281,
            "ho": 282,
            "ura": 283,
            "hel": 284,
            "ayu": 285,
            "hazi": 286,
            "ooi": 287,
            "fan": 288,
            "jef": 289,
            "hida": 290,
            "ken": 291,
            "pak": 292,
            "lu": 293,
            "wei": 294,
            "of": 295,
            "kak": 296,
            "naj": 297,
            "zah": 298,
            "sab": 299,
            "haz": 300,
            "ko": 301,
            "yee": 302,
            "ep": 303,
            "ye": 304,
            "em": 305,
            "iq": 306,
            "iao": 307,
            "roy": 308,
            "lau": 309,
            "dra": 310,
            "dil": 311,
            "dr": 312,
            "andr": 313,
            "ry": 314,
            "haik": 315,
            "va": 316,
            "zan": 317,
            "jan": 318,
            "elain": 319,
            "gra": 320,
            "loh": 321,
            "teh": 322,
            "are": 323,
            "hen": 324,
            "ivy": 325,
            "irle": 326,
            "shirle": 327,
            "kiah": 328,
            "mai": 329,
            "xi": 330,
            "moham": 331,
            "bo": 332,
            "sri": 333,
            "boy": 334,
            "cin": 335,
            "ben": 336,
            "umi": 337,
            "vian": 338,
            "yin": 339,
            "ey": 340,
            "rd": 341,
            "rash": 342,
            "mei": 343,
            "sep": 344,
            "ria": 345,
            "zu": 346,
            "qman": 347,
            "von": 348,
            "fadz": 349,
            "raj": 350,
            "las": 351,
            "nicho": 352,
            "ine": 353,
            "cather": 354,
            "jay": 355,
            "asy": 356,
            "at": 357,
            "aq": 358,
            "omas": 359,
            "ukri": 360,
            "ari": 361,
            "nes": 362,
            "tee": 363,
            "ces": 364,
            "kah": 365,
            "prin": 366,
            "kan": 367,
            "iskan": 368,
            "ikin": 369,
            "me": 370,
            "jes": 371,
            "sica": 372,
            "hu": 373,
            "hui": 374,
            "san": 375,
            "fer": 376,
            "jen": 377,
            "nifer": 378,
            "sim": 379,
            "hah": 380,
            "sky": 381,
            "ber": 382,
            "alber": 383,
            "qas": 384,
            "afi": 385,
            "ji": 386,
            "ay": 387,
            "mia": 388,
            "mur": 389,
            "sus": 390,
            "abe": 391,
            "dh": 392,
            "koh": 393,
            "co": 394,
            "trick": 395,
            "jia": 396,
            "kok": 397,
            "gu": 398,
            "iana": 399,
            "yi": 400,
            "khair": 401,
            "ridz": 402,
            "emi": 403,
            "teo": 404,
            "ju": 405,
            "aa": 406,
            "pok": 407,
            "des": 408,
            "mak": 409,
            "fair": 410,
            "aya": 411,
            "bad": 412,
            "mun": 413,
            "fen": 414,
            "jah": 415,
            "kin": 416,
            "wai": 417,
            "foo": 418,
            "nan": 419,
            "ady": 420,
            "yce": 421,
            "qis": 422,
            "tau": 423,
            "nai": 424,
            "kc": 425,
            "it": 426,
            "yen": 427,
            "loo": 428,
            "hi": 429,
            "ne": 430,
            "oth": 431,
            "xii": 432,
            "mhd": 433,
            "tura": 434,
            "con": 435,
            "tul": 436,
            "eha": 437,
            "dew": 438,
            "wak": 439,
            "hali": 440,
            "sabari": 441,
            "hab": 442,
            "tay": 443,
            "ple": 444,
            "hmd": 445,
            "lo": 446,
            "nn": 447,
            "ve": 448,
            "his": 449,
            "jai": 450,
            "hus": 451,
            "iah": 452,
            "ika": 453,
            "lam": 454,
            "ima": 455,
            "gat": 456,
            "isha": 457,
            "rad": 458,
            "soo": 459,
            "uha": 460,
            "uhada": 461,
            "ren": 462,
            "wee": 463,
            "ba": 464,
            "hash": 465,
            "bee": 466,
            "mus": 467,
            "tha": 468,
            "law": 469,
            "rimah": 470,
            "sudin": 471,
            "tok": 472,
            "qah": 473,
            "hwan": 474,
            "tun": 475,
            "hayu": 476,
            "ash": 477,
            "kya": 478,
            "aw": 479,
            "izz": 480,
            "wah": 481,
            "fae": 482,
            "jue": 483,
            "van": 484,
            "fad": 485,
            "ehh": 486,
            "zuan": 487,
            "ks": 488,
            "uz": 489,
            "bro": 490,
            "fie": 491,
            "tifah": 492,
            "oke": 493,
            "ol": 494,
            "ath": 495,
            "leh": 496,
            "harah": 497,
            "kal": 498,
            "pra": 499,
            "kash": 500,
            "poh": 501,
            "xin": 502,
            "pr": 503,
            "sidah": 504,
            "yew": 505,
            "iani": 506,
            "see": 507,
            "norli": 508,
            "kee": 509,
            "khadi": 510,
            "fakh": 511,
            "pei": 512,
            "iful": 513,
            "bia": 514,
            "saw": 515,
            "ibah": 516,
            "yeo": 517,
            "sin": 518,
            "normal": 519,
            "zaw": 520,
            "nu": 521,
            "tam": 522,
            "ugan": 523,
            "biah": 524,
            "toh": 525,
            "soh": 526,
            "nain": 527,
            "zulkar": 528,
            "dam": 529,
            "sakin": 530,
            "saadi": 531,
            "fo": 532,
            "bun": 533,
            "esan": 534,
            "faz": 535,
            "fik": 536,
            "yaz": 537,
            "ihah": 538,
            "kman": 539,
            "mok": 540,
            "ea": 541,
            "sof": 542,
            "cy": 543,
            "zta": 544,
            "munah": 545,
            "rus": 546,
            "aikha": 547,
            "iri": 548,
            "red": 549,
            "sor": 550,
            "haiq": 551,
            "sih": 552,
            "aidi": 553,
            "zie": 554,
            "bat": 555,
            "ebat": 556,
            "ghaz": 557,
            "pha": 558,
            "muth": 559,
            "zhi": 560,
            "zue": 561,
            "wal": 562,
            "tijah": 563,
            "lew": 564,
            "kir": 565,
            "au": 566,
            "sel": 567,
            "vam": 568,
            "hil": 569,
            "zulhil": 570,
            "how": 571,
            "ian": 572,
            "marzu": 573,
            "kef": 574,
            "zulkef": 575,
            "yc": 576,
            "bul": 577,
            "mazi": 578,
            "hasbul": 579,
            "mel": 580,
            "tah": 581,
            "masi": 582,
            "een": 583,
            "iew": 584,
            "hoo": 585,
            "if": 586,
            "ayah": 587,
            "gayah": 588,
            "fadh": 589,
            "arju": 590,
            "myo": 591,
            "saz": 592,
            "woo": 593,
            "beh": 594,
            "norle": 595,
            "sah": 596,
            "nitha": 597,
            "yip": 598,
            "eez": 599,
            "ili": 600,
            "haim": 601,
            "muhaim": 602,
            "bra": 603,
            "nadh": 604,
            "hee": 605,
            "pel": 606,
            "ela": 607,
            "fuan": 608,
            "ien": 609,
            "hew": 610,
            "haida": 611,
            "yie": 612
        },
        "merges": [
            "h a",
            "m a",
            "a n",
            "a h",
            "i n",
            "u l",
            "m o",
            "ma d",
            "h d",
            "u r",
            "r i",
            "m u",
            "a m",
            "n ur",
            "a l",
            "ha m",
            "n g",
            "a i",
            "a z",
            "i r",
            "n o",
            "ham mad",
            "t i",
            "c h",
            "l i",
            "s i",
            "r a",
            "e n",
            "o ng",
            "f a",
            "r o",
            "m i",
            "n i",
            "m d",
            "d a",
            "s y",
            "a b",
            "no r",
            "w an",
            "z a",
            "f i",
            "l e",
            "s ha",
            "ma n",
            "i l",
            "e l",
            "n a",
            "t an",
            "j a",
            "in a",
            "t e",
            "an i",
            "ir ul",
            "r ah",
            "al i",
            "y a",
            "ro s",
            "k a",
            "ab d",
            "o n",
            "o h",
            "s h",
            "k ha",
            "d i",
            "c k",
            "i m",
            "i z",
            "le e",
            "li m",
            "c ha",
            "an a",
            "r ul",
            "u s",
            "i k",
            "p u",
            "ma h",
            "z ul",
            "s a",
            "ma r",
            "s u",
            "z i",
            "f ai",
            "o r",
            "v in",
            "an g",
            "d in",
            "e s",
            "fi q",
            "ch e",
            "d ah",
            "a in",
            "w a",
            "d y",
            "j o",
            "ma l",
            "i a",
            "l an",
            "z al",
            "v i",
            "o o",
            "l y",
            "ma t",
            "ha fi",
            "ri f",
            "e w",
            "sy a",
            "ri s",
            "i s",
            "a d",
            "n y",
            "t h",
            "l in",
            "s al",
            "ha s",
            "u n",
            "a s",
            "t in",
            "c ik",
            "e d",
            "pu t",
            "c e",
            "e e",
            "e r",
            "s on",
            "k i",
            "t a",
            "s am",
            "a k",
            "r am",
            "i da",
            "z am",
            "z ai",
            "y an",
            "k u",
            "n az",
            "f ul",
            "j oh",
            "k el",
            "ni e",
            "ma s",
            "l a",
            "mo n",
            "i e",
            "e x",
            "fa ri",
            "j am",
            "s ur",
            "c a",
            "jo e",
            "y u",
            "ai ful",
            "o w",
            "a r",
            "il ah",
            "a di",
            "f ir",
            "pu te",
            "ni k",
            "e i",
            "fa u",
            "ma z",
            "u an",
            "ma il",
            "o k",
            "n ah",
            "l ah",
            "am y",
            "e ng",
            "il a",
            "e sh",
            "y us",
            "ha r",
            "en t",
            "su ha",
            "s ul",
            "j un",
            "l ai",
            "ab u",
            "mi e",
            "ch u",
            "fa r",
            "ha n",
            "z ur",
            "ma y",
            "e f",
            "ya p",
            "i b",
            "g an",
            "k im",
            "w il",
            "e ri",
            "rif ah",
            "an n",
            "i v",
            "ka r",
            "t on",
            "o on",
            "c t",
            "n ab",
            "s te",
            "v en",
            "th er",
            "d an",
            "y ah",
            "ro n",
            "k ri",
            "w in",
            "e te",
            "u ng",
            "r an",
            "t ri",
            "ri l",
            "d z",
            "k h",
            "i d",
            "m y",
            "w en",
            "a ti",
            "za t",
            "d din",
            "u ddin",
            "a p",
            "na di",
            "c ent",
            "s k",
            "na s",
            "ir a",
            "m in",
            "g oh",
            "ch o",
            "r az",
            "a g",
            "wa r",
            "l ow",
            "k e",
            "b al",
            "su e",
            "f ah",
            "j ul",
            "p a",
            "e h",
            "r in",
            "u m",
            "u ar",
            "j im",
            "f li",
            "zul ki",
            "i mi",
            "da r",
            "ra f",
            "h o",
            "ur a",
            "h el",
            "a yu",
            "ha zi",
            "oo i",
            "f an",
            "j ef",
            "h ida",
            "k en",
            "p ak",
            "l u",
            "w ei",
            "o f",
            "ka k",
            "na j",
            "z ah",
            "s ab",
            "ha z",
            "k o",
            "y ee",
            "e p",
            "y e",
            "e m",
            "i q",
            "ia o",
            "ro y",
            "la u",
            "d ra",
            "d il",
            "d r",
            "an dr",
            "r y",
            "ha ik",
            "v a",
            "z an",
            "j an",
            "el ain",
            "g ra",
            "l oh",
            "te h",
            "ar e",
            "h en",
            "iv y",
            "ir le",
            "sh irle",
            "ki ah",
            "ma i",
            "x i",
            "mo ham",
            "b o",
            "s ri",
            "bo y",
            "c in",
            "b en",
            "u mi",
            "vi an",
            "y in",
            "e y",
            "r d",
            "ra sh",
            "m ei",
            "s ep",
            "ri a",
            "z u",
            "q man",
            "v on",
            "fa dz",
            "ra j",
            "l as",
            "ni cho",
            "in e",
            "ca ther",
            "ja y",
            "a sy",
            "a t",
            "a q",
            "o mas",
            "u kri",
            "a ri",
            "n es",
            "te e",
            "c es",
            "k ah",
            "p rin",
            "k an",
            "is kan",
            "ik in",
            "m e",
            "j es",
            "si ca",
            "h u",
            "hu i",
            "s an",
            "f er",
            "j en",
            "ni fer",
            "si m",
            "ha h",
            "sk y",
            "b er",
            "al ber",
            "q as",
            "a fi",
            "j i",
            "a y",
            "mi a",
            "m ur",
            "s us",
            "ab e",
            "d h",
            "k oh",
            "c o",
            "tri ck",
            "j ia",
            "k ok",
            "g u",
            "i ana",
            "y i",
            "kha ir",
            "ri dz",
            "e mi",
            "te o",
            "j u",
            "a a",
            "p ok",
            "d es",
            "ma k",
            "fai r",
            "a ya",
            "b ad",
            "mu n",
            "f en",
            "j ah",
            "k in",
            "w ai",
            "f oo",
            "n an",
            "a dy",
            "y ce",
            "q is",
            "ta u",
            "n ai",
            "k c",
            "i t",
            "y en",
            "l oo",
            "h i",
            "n e",
            "o th",
            "xi i",
            "m hd",
            "t ura",
            "c on",
            "t ul",
            "e ha",
            "d ew",
            "wa k",
            "ha li",
            "sab ari",
            "ha b",
            "ta y",
            "p le",
            "h md",
            "l o",
            "n n",
            "v e",
            "h is",
            "j ai",
            "h us",
            "i ah",
            "i ka",
            "l am",
            "i ma",
            "g at",
            "i sha",
            "ra d",
            "s oo",
            "u ha",
            "uha da",
            "r en",
            "w ee",
            "b a",
            "ha sh",
            "b ee",
            "mu s",
            "t ha",
            "la w",
            "ri mah",
            "su din",
            "t ok",
            "q ah",
            "h wan",
            "t un",
            "ha yu",
            "a sh",
            "k ya",
            "a w",
            "iz z",
            "w ah",
            "fa e",
            "ju e",
            "v an",
            "fa d",
            "eh h",
            "z uan",
            "k s",
            "u z",
            "b ro",
            "fi e",
            "ti fah",
            "ok e",
            "o l",
            "a th",
            "le h",
            "ha rah",
            "k al",
            "p ra",
            "ka sh",
            "p oh",
            "x in",
            "p r",
            "si dah",
            "y ew",
            "i ani",
            "s ee",
            "nor li",
            "k ee",
            "kha di",
            "fa kh",
            "p ei",
            "i ful",
            "b ia",
            "sa w",
            "ib ah",
            "ye o",
            "s in",
            "nor mal",
            "za w",
            "n u",
            "t am",
            "u gan",
            "b iah",
            "t oh",
            "s oh",
            "na in",
            "zul kar",
            "d am",
            "sa kin",
            "sa adi",
            "f o",
            "b un",
            "es an",
            "f az",
            "fi k",
            "y az",
            "i hah",
            "k man",
            "mo k",
            "e a",
            "s of",
            "c y",
            "z ta",
            "mu nah",
            "r us",
            "ai kha",
            "i ri",
            "r ed",
            "s or",
            "ha iq",
            "si h",
            "ai di",
            "zi e",
            "b at",
            "e bat",
            "g haz",
            "p ha",
            "mu th",
            "z hi",
            "zu e",
            "w al",
            "ti jah",
            "le w",
            "k ir",
            "a u",
            "s el",
            "v am",
            "h il",
            "zul hil",
            "h ow",
            "i an",
            "mar zu",
            "k ef",
            "zul kef",
            "y c",
            "b ul",
            "ma zi",
            "has bul",
            "m el",
            "t ah",
            "ma si",
            "e en",
            "i ew",
            "h oo",
            "i f",
            "a yah",
            "g ayah",
            "fa dh",
            "ar ju",
            "my o",
            "s az",
            "w oo",
            "b eh",
            "nor le",
            "s ah",
            "ni tha",
            "yi p",
            "ee z",
            "i li",
            "ha im",
            "mu haim",
            "b ra",
            "na dh",
            "h ee",
            "p el",
            "el a",
            "f uan",
            "i en",
            "h ew",
            "ha ida",
            "y ie"
        ]
    }
}