{
  "version": "1.0",
  "truncation": null,
  "padding": null,
  "added_tokens": [
    {
      "id": 0,
      "content": "[UNK]",
      "single_word": false,
      "lstrip": false,
      "rstrip": false,
      "normalized": false,
      "special": true
    },
    {
      "id": 1,
      "content": "[CLS]",
      "single_word": false,
      "lstrip": false,
      "rstrip": false,
      "normalized": false,
      "special": true
    },
    {
      "id": 2,
      "content": "[SEP]",
      "single_word": false,
      "lstrip": false,
      "rstrip": false,
      "normalized": false,
      "special": true
    },
    {
      "id": 3,
      "content": "[PAD]",
      "single_word": false,
      "lstrip": false,
      "rstrip": false,
      "normalized": false,
      "special": true
    },
    {
      "id": 4,
      "content": "[MASK]",
      "single_word": false,
      "lstrip": false,
      "rstrip": false,
      "normalized": false,
      "special": true
    }
  ],
  "normalizer": null,
  "pre_tokenizer": {
    "type": "Whitespace"
  },
  "post_processor": null,
  "decoder": null,
  "model": {
    "type": "BPE",
    "dropout": null,
    "unk_token": "[UNK]",
    "continuing_subword_prefix": null,
    "end_of_word_suffix": null,
    "fuse_unk": false,
    "vocab": {
      "[UNK]": 0,
      "[CLS]": 1,
      "[SEP]": 2,
      "[PAD]": 3,
      "[MASK]": 4,
      "-": 5,
      "a": 6,
      "b": 7,
      "c": 8,
      "d": 9,
      "e": 10,
      "f": 11,
      "g": 12,
      "h": 13,
      "i": 14,
      "j": 15,
      "k": 16,
      "l": 17,
      "m": 18,
      "n": 19,
      "o": 20,
      "p": 21,
      "q": 22,
      "r": 23,
      "s": 24,
      "t": 25,
      "u": 26,
      "v": 27,
      "w": 28,
      "x": 29,
      "y": 30,
      "z": 31,
      "an": 32,
      "ar": 33,
      "el": 34,
      "ia": 35,
      "jo": 36,
      "is": 37,
      "ana": 38,
      "in": 39,
      "mar": 40,
      "dr": 41,
      "er": 42,
      "io": 43,
      "ic": 44,
      "on": 45,
      "al": 46,
      "sh": 47,
      "at": 48,
      "au": 49,
      "joa": 50,
      "il": 51,
      "uel": 52,
      "do": 53,
      "lo": 54,
      "en": 55,
      "go": 56,
      "joao": 57,
      "andr": 58,
      "car": 59,
      "pe": 60,
      "ina": 61,
      "ra": 62,
      "ru": 63,
      "maria": 64,
      "es": 65,
      "da": 66,
      "lu": 67,
      "se": 68,
      "vi": 69,
      "pau": 70,
      "jose": 71,
      "no": 72,
      "dro": 73,
      "pedro": 74,
      "ab": 75,
      "ma": 76,
      "ta": 77,
      "ric": 78,
      "ri": 79,
      "la": 80,
      "iana": 81,
      "man": 82,
      "luis": 83,
      "andre": 84,
      "ardo": 85,
      "ish": 86,
      "co": 87,
      "to": 88,
      "ton": 89,
      "mi": 90,
      "carlo": 91,
      "anton": 92,
      "carlos": 93,
      "antonio": 94,
      "manuel": 95,
      "paulo": 96,
      "ela": 97,
      "ani": 98,
      "sa": 99,
      "ern": 100,
      "ro": 101,
      "ris": 102,
      "te": 103,
      "fil": 104,
      "guel": 105,
      "miguel": 106,
      "rui": 107,
      "le": 108,
      "ash": 109,
      "ricardo": 110,
      "fr": 111,
      "ara": 112,
      "nu": 113,
      "fili": 114,
      "tia": 115,
      "bru": 116,
      "cat": 117,
      "nuno": 118,
      "tiago": 119,
      "fern": 120,
      "fernan": 121,
      "so": 122,
      "ena": 123,
      "ge": 124,
      "isab": 125,
      "dio": 126,
      "joana": 127,
      "rist": 128,
      "esh": 129,
      "dani": 130,
      "fran": 131,
      "bruno": 132,
      "jor": 133,
      "andra": 134,
      "jorge": 135,
      "na": 136,
      "hel": 137,
      "rita": 138,
      "am": 139,
      "de": 140,
      "cis": 141,
      "francis": 142,
      "diogo": 143,
      "lau": 144,
      "isabel": 145,
      "crist": 146,
      "paula": 147,
      "ica": 148,
      "ines": 149,
      "qu": 150,
      "son": 151,
      "ale": 152,
      "arina": 153,
      "catarina": 154,
      "alex": 155,
      "us": 156,
      "tor": 157,
      "im": 158,
      "ja": 159,
      "pat": 160,
      "patric": 161,
      "vin": 162,
      "francisco": 163,
      "fernando": 164,
      "onc": 165,
      "ima": 166,
      "sara": 167,
      "ol": 168,
      "hu": 169,
      "carla": 170,
      "fia": 171,
      "sofia": 172,
      "filipe": 173,
      "pa": 174,
      "ed": 175,
      "sandra": 176,
      "ie": 177,
      "dia": 178,
      "clau": 179,
      "cristina": 180,
      "vitor": 181,
      "ida": 182,
      "mariana": 183,
      "patricia": 184,
      "daniel": 185,
      "van": 186,
      "ter": 187,
      "atima": 188,
      "gar": 189,
      "fatima": 190,
      "hugo": 191,
      "alo": 192,
      "esa": 193,
      "teresa": 194,
      "sha": 195,
      "ju": 196,
      "fab": 197,
      "be": 198,
      "rin": 199,
      "vid": 200,
      "sus": 201,
      "susana": 202,
      "marta": 203,
      "gonc": 204,
      "goncalo": 205,
      "re": 206,
      "margar": 207,
      "margarida": 208,
      "raj": 209,
      "ser": 210,
      "david": 211,
      "ca": 212,
      "ni": 213,
      "ha": 214,
      "filipa": 215,
      "gio": 216,
      "sergio": 217,
      "marco": 218,
      "helena": 219,
      "me": 220,
      "claudia": 221,
      "joaqu": 222,
      "atri": 223,
      "beatri": 224,
      "beatriz": 225,
      "dri": 226,
      "mario": 227,
      "ang": 228,
      "sonia": 229,
      "andreia": 230,
      "fa": 231,
      "vish": 232,
      "ess": 233,
      "jul": 234,
      "mad": 235,
      "fabio": 236,
      "joaquim": 237,
      "nat": 238,
      "ya": 239,
      "quel": 240,
      "ce": 241,
      "ph": 242,
      "san": 243,
      "ch": 244,
      "cel": 245,
      "rafa": 246,
      "daniela": 247,
      "diana": 248,
      "ber": 249,
      "iv": 250,
      "raquel": 251,
      "carol": 252,
      "carolina": 253,
      "ben": 254,
      "em": 255,
      "tan": 256,
      "ine": 257,
      "ka": 258,
      "manuela": 259,
      "je": 260,
      "ver": 261,
      "fernanda": 262,
      "edu": 263,
      "ke": 264,
      "as": 265,
      "alexandre": 266,
      "or": 267,
      "luisa": 268,
      "rosa": 269,
      "jay": 270,
      "bela": 271,
      "ne": 272,
      "prin": 273,
      "cia": 274,
      "rodri": 275,
      "rodrigo": 276,
      "berto": 277,
      "ren": 278,
      "ruben": 279,
      "catia": 280,
      "onica": 281,
      "ilia": 282,
      "ste": 283,
      "der": 284,
      "leon": 285,
      "rafael": 286,
      "tania": 287,
      "ico": 288,
      "inda": 289,
      "que": 290,
      "anabela": 291,
      "via": 292,
      "helder": 293,
      "isa": 294,
      "gu": 295,
      "vic": 296,
      "han": 297,
      "eduardo": 298,
      "ad": 299,
      "alda": 300,
      "lil": 301,
      "liliana": 302,
      "ley": 303,
      "ak": 304,
      "alexandra": 305,
      "jean": 306,
      "di": 307,
      "mo": 308,
      "ini": 309,
      "nel": 310,
      "nelson": 311,
      "essa": 312,
      "vanessa": 313,
      "angel": 314,
      "ze": 315,
      "yan": 316,
      "monica": 317,
      "ano": 318,
      "vera": 319,
      "kevin": 320,
      "rish": 321,
      "des": 322,
      "sil": 323,
      "silvia": 324,
      "ete": 325,
      "du": 326,
      "kesh": 327,
      "vina": 328,
      "isha": 329,
      "lara": 330,
      "su": 331,
      "var": 332,
      "gab": 333,
      "gabri": 334,
      "jess": 335,
      "arte": 336,
      "bern": 337,
      "sam": 338,
      "hen": 339,
      "rdes": 340,
      "lurdes": 341,
      "steph": 342,
      "ve": 343,
      "elle": 344,
      "md": 345,
      "her": 346,
      "dy": 347,
      "ti": 348,
      "ila": 349,
      "vas": 350,
      "vasco": 351,
      "elisab": 352,
      "elisabete": 353,
      "ham": 354,
      "hammad": 355,
      "yash": 356,
      "falda": 357,
      "mafalda": 358,
      "bar": 359,
      "guil": 360,
      "kar": 361,
      "af": 362,
      "gus": 363,
      "jessica": 364,
      "mas": 365,
      "tomas": 366,
      "cess": 367,
      "princess": 368,
      "bara": 369,
      "rique": 370,
      "henrique": 371,
      "barbara": 372,
      "marie": 373,
      "conc": 374,
      "eica": 375,
      "conceica": 376,
      "conceicao": 377,
      "lan": 378,
      "alena": 379,
      "madalena": 380,
      "leonor": 381,
      "ger": 382,
      "vik": 383,
      "she": 384,
      "bernardo": 385,
      "gra": 386,
      "onso": 387,
      "afonso": 388,
      "ir": 389,
      "mel": 390,
      "mat": 391,
      "angela": 392,
      "chris": 393,
      "renat": 394,
      "herme": 395,
      "guilherme": 396,
      "mic": 397,
      "ino": 398,
      "andro": 399,
      "ur": 400,
      "po": 401,
      "mal": 402,
      "ane": 403,
      "anie": 404,
      "alia": 405,
      "ram": 406,
      "marisa": 407,
      "celia": 408,
      "duarte": 409,
      "pre": 410,
      "ice": 411,
      "alice": 412,
      "tel": 413,
      "christ": 414,
      "vishal": 415,
      "erico": 416,
      "pra": 417,
      "ard": 418,
      "elsa": 419,
      "un": 420,
      "laura": 421,
      "alberto": 422,
      "bruna": 423,
      "gos": 424,
      "elia": 425,
      "carina": 426,
      "marcia": 427,
      "nit": 428,
      "lucia": 429,
      "adr": 430,
      "adriana": 431,
      "resh": 432,
      "dom": 433,
      "yo": 434,
      "arm": 435,
      "francisca": 436,
      "samuel": 437,
      "eta": 438,
      "cio": 439,
      "joel": 440,
      "ev": 441,
      "val": 442,
      "pri": 443,
      "gil": 444,
      "li": 445,
      "fla": 446,
      "ush": 447,
      "rute": 448,
      "arman": 449,
      "vania": 450,
      "emilia": 451,
      "kavi": 452,
      "rosh": 453,
      "he": 454,
      "graca": 455,
      "shay": 456,
      "akshay": 457,
      "ilesh": 458,
      "asha": 459,
      "cristiana": 460,
      "claudio": 461,
      "juliana": 462,
      "ven": 463,
      "prince": 464,
      "fred": 465,
      "hans": 466,
      "gabriel": 467,
      "krish": 468,
      "adri": 469,
      "ho": 470,
      "jen": 471,
      "nico": 472,
      "tur": 473,
      "artur": 474,
      "emanuel": 475,
      "tat": 476,
      "tatiana": 477,
      "ga": 478,
      "ario": 479,
      "om": 480,
      "victor": 481,
      "len": 482,
      "augus": 483,
      "dee": 484,
      "mart": 485,
      "renato": 486,
      "clara": 487,
      "ryan": 488,
      "armando": 489,
      "marina": 490,
      "hael": 491,
      "michael": 492,
      "luc": 493,
      "kam": 494,
      "ilde": 495,
      "matilde": 496,
      "leandro": 497,
      "toph": 498,
      "christoph": 499,
      "av": 500,
      "filom": 501,
      "filomena": 502,
      "usha": 503,
      "natalia": 504,
      "and": 505,
      "priya": 506,
      "marcio": 507,
      "julio": 508,
      "bi": 509,
      "cois": 510,
      "francois": 511,
      "vick": 512,
      "ces": 513,
      "cesar": 514,
      "sanjay": 515,
      "dina": 516,
      "atish": 517,
      "dan": 518,
      "ivo": 519,
      "stephanie": 520,
      "id": 521,
      "patrick": 522,
      "sal": 523,
      "vier": 524,
      "mu": 525,
      "julia": 526,
      "muhammad": 527,
      "tina": 528,
      "od": 529,
      "ry": 530,
      "marcel": 531,
      "vikash": 532,
      "marcelo": 533,
      "mohammad": 534,
      "et": 535,
      "ravi": 536,
      "gabriela": 537,
      "ashley": 538,
      "hi": 539,
      "akash": 540,
      "marlen": 541,
      "marlene": 542,
      "alvar": 543,
      "alvaro": 544,
      "reshma": 545,
      "frederico": 546,
      "vesh": 547,
      "jer": 548,
      "vir": 549,
      "oja": 550,
      "pooja": 551,
      "az": 552,
      "din": 553,
      "lou": 554,
      "avina": 555,
      "avinash": 556,
      "ashvin": 557,
      "far": 558,
      "vicky": 559,
      "jonat": 560,
      "roger": 561,
      "jonathan": 562,
      "rogerio": 563,
      "sima": 564,
      "simao": 565,
      "rakesh": 566,
      "ick": 567,
      "roshan": 568,
      "fer": 569,
      "gina": 570,
      "naz": 571,
      "rajesh": 572,
      "olga": 573,
      "neha": 574,
      "ingos": 575,
      "domingos": 576,
      "lor": 577,
      "augusto": 578,
      "ajay": 579,
      "edo": 580,
      "cas": 581,
      "amelia": 582,
      "jason": 583,
      "jac": 584,
      "mica": 585,
      "ny": 586,
      "vio": 587,
      "flavio": 588,
      "rinda": 589,
      "arsh": 590,
      "raia": 591,
      "soraia": 592,
      "keshav": 593,
      "telmo": 594,
      "eric": 595,
      "ali": 596,
      "mila": 597,
      "nish": 598,
      "nadia": 599,
      "inho": 600,
      "ly": 601,
      "nitish": 602,
      "nick": 603,
      "auro": 604,
      "hn": 605,
      "john": 606,
      "dine": 607,
      "deepa": 608,
      "iano": 609,
      "linda": 610,
      "cristiano": 611,
      "rishi": 612,
      "rafaela": 613,
      "bo": 614,
      "anna": 615,
      "geeta": 616,
      "tii": 617,
      "rine": 618,
      "adriano": 619,
      "cha": 620,
      "arvin": 621,
      "sarah": 622,
      "ilda": 623,
      "lina": 624,
      "leonardo": 625,
      "olinda": 626,
      "cal": 627,
      "scal": 628,
      "pascal": 629,
      "rajiv": 630,
      "vo": 631,
      "tavo": 632,
      "gustavo": 633,
      "sario": 634,
      "rosario": 635,
      "tesh": 636,
      "ime": 637,
      "jaime": 638,
      "sun": 639,
      "telma": 640,
      "ashish": 641,
      "lucas": 642,
      "ira": 643,
      "ide": 644,
      "elaide": 645,
      "adelaide": 646,
      "za": 647,
      "carmo": 648,
      "onam": 649,
      "anita": 650,
      "poonam": 651,
      "sheila": 652,
      "eu": 653,
      "marcos": 654,
      "krishna": 655,
      "devi": 656,
      "angelo": 657,
      "indo": 658,
      "gin": 659,
      "virgin": 660,
      "preet": 661,
      "preety": 662,
      "bas": 663,
      "gi": 664,
      "sebas": 665,
      "iren": 666,
      "irene": 667,
      "lidia": 668,
      "carm": 669,
      "manisha": 670,
      "arda": 671,
      "eduarda": 672,
      "vinay": 673,
      "bal": 674,
      "lce": 675,
      "dulce": 676,
      "elisa": 677,
      "dric": 678,
      "este": 679,
      "cedric": 680,
      "celeste": 681,
      "rina": 682,
      "sab": 683,
      "dier": 684,
      "didier": 685,
      "sabrina": 686,
      "ili": 687,
      "ceu": 688,
      "ivier": 689,
      "olivier": 690,
      "eva": 691,
      "alfr": 692,
      "alfredo": 693,
      "hal": 694,
      "nathal": 695,
      "nathalie": 696,
      "avi": 697,
      "kavita": 698,
      "rau": 699,
      "raul": 700,
      "edgar": 701,
      "martim": 702,
      "adarsh": 703,
      "las": 704,
      "dylan": 705,
      "nicolas": 706,
      "sandr": 707,
      "noor": 708,
      "sao": 709,
      "rice": 710,
      "fabrice": 711,
      "meer": 712,
      "ashw": 713,
      "orlan": 714,
      "orlando": 715,
      "roberto": 716,
      "elino": 717,
      "varsha": 718,
      "kun": 719,
      "kunal": 720,
      "oni": 721,
      "ishma": 722,
      "karishma": 723,
      "acha": 724,
      "hil": 725,
      "natacha": 726,
      "veena": 727,
      "ita": 728,
      "war": 729,
      "nita": 730,
      "sunita": 731,
      "nifer": 732,
      "jennifer": 733,
      "agos": 734,
      "pam": 735,
      "tinho": 736,
      "agostinho": 737,
      "pamela": 738,
      "bha": 739,
      "ik": 740,
      "anil": 741,
      "rose": 742,
      "mary": 743,
      "cilia": 744,
      "cecilia": 745,
      "glor": 746,
      "americo": 747,
      "gloria": 748,
      "avish": 749,
      "christopher": 750,
      "reena": 751,
      "melanie": 752,
      "ushal": 753,
      "debo": 754,
      "debora": 755,
      "arn": 756,
      "steven": 757,
      "emmanuel": 758,
      "sunil": 759,
      "artee": 760,
      "carmen": 761,
      "issa": 762,
      "melissa": 763,
      "one": 764,
      "yannick": 765,
      "louis": 766,
      "sanj": 767,
      "nicole": 768,
      "una": 769,
      "inique": 770,
      "dominique": 771,
      "tony": 772,
      "jordan": 773,
      "veer": 774,
      "pravesh": 775,
      "kash": 776,
      "alini": 777,
      "leena": 778,
      "prakash": 779,
      "cin": 780,
      "cindy": 781,
      "ek": 782,
      "ain": 783,
      "alain": 784,
      "dora": 785,
      "dev": 786,
      "suraj": 787,
      "rel": 788,
      "sandro": 789,
      "thi": 790,
      "erry": 791,
      "aurel": 792,
      "thierry": 793,
      "aurelie": 794,
      "jam": 795,
      "michel": 796,
      "james": 797,
      "anish": 798,
      "vijay": 799,
      "paul": 800,
      "manel": 801,
      "mike": 802,
      "hema": 803,
      "ivan": 804,
      "kir": 805,
      "stephane": 806,
      "kiran": 807,
      "oliv": 808,
      "dinis": 809,
      "cid": 810,
      "renata": 811,
      "cidalia": 812,
      "cris": 813,
      "ritesh": 814,
      "christine": 815,
      "brinda": 816,
      "dovic": 817,
      "ludovic": 818,
      "isabelle": 819,
      "let": 820,
      "sley": 821,
      "dh": 822,
      "mara": 823,
      "rohan": 824,
      "mer": 825,
      "manish": 826,
      "natasha": 827,
      "christophe": 828,
      "oj": 829,
      "manoj": 830,
      "alb": 831,
      "regina": 832,
      "mala": 833,
      "anca": 834,
      "jenny": 835,
      "vimal": 836,
      "veronica": 837,
      "flavia": 838,
      "div": 839,
      "kavish": 840,
      "navin": 841,
      "veroni": 842,
      "veronique": 843,
      "vanda": 844,
      "valter": 845,
      "ian": 846,
      "igo": 847,
      "christian": 848,
      "igor": 849,
      "ien": 850,
      "elod": 851,
      "julien": 852,
      "elodie": 853,
      "va": 854,
      "naw": 855,
      "bryan": 856,
      "kushal": 857,
      "andy": 858,
      "carlota": 859,
      "leonel": 860,
      "isma": 861,
      "marilia": 862,
      "ilio": 863,
      "abilio": 864,
      "micael": 865,
      "ismael": 866,
      "sanje": 867,
      "sanjeev": 868,
      "yam": 869,
      "ashna": 870,
      "gen": 871,
      "deepak": 872,
      "eugen": 873,
      "eugenia": 874,
      "dany": 875,
      "amrita": 876,
      "deolinda": 877,
      "gerard": 878,
      "anju": 879,
      "sandrine": 880,
      "dario": 881,
      "andrea": 882,
      "rajen": 883,
      "ushka": 884,
      "ok": 885,
      "vikram": 886,
      "salim": 887,
      "ved": 888,
      "rahu": 889,
      "adrien": 890,
      "rahul": 891,
      "hard": 892,
      "kish": 893,
      "nisha": 894,
      "xana": 895,
      "richard": 896,
      "kishan": 897,
      "ksha": 898,
      "shir": 899,
      "shirley": 900,
      "heen": 901,
      "sw": 902,
      "shad": 903,
      "arminda": 904,
      "aj": 905,
      "mberto": 906,
      "humberto": 907,
      "nilesh": 908,
      "ami": 909,
      "cil": 910,
      "pris": 911,
      "anusha": 912,
      "cilla": 913,
      "priscilla": 914,
      "erica": 915,
      "christelle": 916,
      "arvind": 917,
      "den": 918,
      "gesh": 919,
      "yogesh": 920,
      "denis": 921,
      "gia": 922,
      "ligia": 923,
      "ite": 924,
      "pal": 925,
      "malini": 926,
      "tish": 927,
      "gda": 928,
      "magda": 929,
      "bernard": 930,
      "mira": 931,
      "sailesh": 932,
      "nadine": 933,
      "per": 934,
      "abelle": 935,
      "luciana": 936,
      "ashwin": 937,
      "perrine": 938,
      "ode": 939,
      "karuna": 940,
      "odete": 941,
      "tien": 942,
      "grac": 943,
      "sebastien": 944,
      "mauro": 945,
      "karen": 946,
      "ally": 947,
      "abel": 948,
      "sheik": 949,
      "cand": 950,
      "ud": 951,
      "erie": 952,
      "valerie": 953,
      "candida": 954,
      "kel": 955,
      "sameer": 956,
      "kelly": 957,
      "anne": 958,
      "luana": 959,
      "girish": 960,
      "har": 961,
      "lena": 962,
      "nan": 963,
      "aurora": 964,
      "nanda": 965,
      "jal": 966,
      "kajal": 967,
      "adelino": 968,
      "olivia": 969,
      "claude": 970,
      "armindo": 971,
      "dami": 972,
      "tee": 973,
      "dinesh": 974,
      "damien": 975,
      "sanjana": 976,
      "aldine": 977,
      "ilie": 978,
      "emilie": 979,
      "geraldine": 980,
      "varun": 981,
      "si": 982,
      "ravin": 983,
      "sandh": 984,
      "micaela": 985,
      "sandhya": 986,
      "bab": 987,
      "babita": 988,
      "iq": 989,
      "os": 990,
      "iqbal": 991,
      "oscar": 992,
      "anand": 993,
      "sach": 994,
      "sachin": 995,
      "hish": 996,
      "abhish": 997,
      "bianca": 998,
      "virginia": 999,
      "warren": 1000,
      "abhishek": 1001,
      "shi": 1002,
      "ivone": 1003,
      "emy": 1004,
      "jeremy": 1005,
      "aida": 1006,
      "icia": 1007,
      "ashok": 1008,
      "cather": 1009,
      "leticia": 1010,
      "catherine": 1011,
      "soph": 1012,
      "sophie": 1013,
      "bia": 1014,
      "hie": 1015,
      "vinesh": 1016,
      "mathie": 1017,
      "mathieu": 1018,
      "anais": 1019,
      "fabiana": 1020,
      "reza": 1021,
      "julie": 1022,
      "hansley": 1023,
      "chel": 1024,
      "sel": 1025,
      "rachel": 1026,
      "indi": 1027,
      "begu": 1028,
      "indira": 1029,
      "jim": 1030,
      "my": 1031,
      "lucinda": 1032,
      "jimmy": 1033,
      "ome": 1034,
      "jerome": 1035,
      "aisha": 1036,
      "joelle": 1037,
      "loic": 1038,
      "mimi": 1039,
      "faan": 1040,
      "irfaan": 1041,
      "antonia": 1042,
      "francoise": 1043,
      "cen": 1044,
      "shane": 1045,
      "aud": 1046,
      "vincen": 1047,
      "arnaud": 1048,
      "vincent": 1049,
      "ken": 1050,
      "eliana": 1051,
      "mant": 1052,
      "roshni": 1053,
      "kenny": 1054,
      "vena": 1055,
      "lovena": 1056,
      "wen": 1057,
      "diya": 1058,
      "wendy": 1059,
      "mla": 1060,
      "vimla": 1061,
      "lesh": 1062,
      "renco": 1063,
      "kamlesh": 1064,
      "lourenco": 1065,
      "devina": 1066,
      "stephan": 1067,
      "queline": 1068,
      "jacqueline": 1069,
      "dor": 1070,
      "bibi": 1071,
      "salva": 1072,
      "salvador": 1073,
      "noel": 1074,
      "avier": 1075,
      "xavier": 1076,
      "helio": 1077,
      "nitin": 1078,
      "meu": 1079,
      "sangeeta": 1080,
      "satish": 1081,
      "lucilia": 1082,
      "zira": 1083,
      "alzira": 1084,
      "solan": 1085,
      "laurinda": 1086,
      "pravin": 1087,
      "solange": 1088,
      "ppe": 1089,
      "mevin": 1090,
      "phili": 1091,
      "virginie": 1092,
      "sweta": 1093,
      "philippe": 1094,
      "alina": 1095,
      "idalina": 1096,
      "bhavish": 1097,
      "eve": 1098,
      "vitoria": 1099,
      "bert": 1100,
      "steeve": 1101,
      "gilbert": 1102,
      "wes": 1103,
      "amit": 1104,
      "wesley": 1105,
      "shab": 1106,
      "sahil": 1107,
      "ques": 1108,
      "danielle": 1109,
      "premila": 1110,
      "jacques": 1111,
      "divya": 1112,
      "anu": 1113,
      "adelia": 1114,
      "lis": 1115,
      "salo": 1116,
      "salome": 1117,
      "vive": 1118,
      "elam": 1119,
      "neelam": 1120,
      "diksha": 1121,
      "augusta": 1122,
      "martine": 1123,
      "vivek": 1124,
      "gre": 1125,
      "lindo": 1126,
      "arlindo": 1127,
      "gory": 1128,
      "vikesh": 1129,
      "gregory": 1130,
      "esmer": 1131,
      "esmeralda": 1132,
      "yud": 1133,
      "zelia": 1134,
      "yudish": 1135,
      "kha": 1136,
      "khil": 1137,
      "lino": 1138,
      "sim": 1139,
      "rekha": 1140,
      "nikhil": 1141,
      "simla": 1142,
      "vinod": 1143,
      "ay": 1144,
      "sharm": 1145,
      "anibal": 1146,
      "patrice": 1147,
      "shaheen": 1148,
      "ayush": 1149,
      "sharmila": 1150,
      "anisha": 1151,
      "edite": 1152,
      "albino": 1153,
      "corin": 1154,
      "anoushka": 1155,
      "corinne": 1156,
      "bri": 1157,
      "tte": 1158,
      "gitte": 1159,
      "brigitte": 1160,
      "ire": 1161,
      "alc": 1162,
      "shyam": 1163,
      "celso": 1164,
      "guida": 1165,
      "desire": 1166,
      "anee": 1167,
      "armen": 1168,
      "con": 1169,
      "dana": 1170,
      "stan": 1171,
      "antish": 1172,
      "vandana": 1173,
      "constan": 1174,
      "constanca": 1175,
      "gilberto": 1176,
      "nabelle": 1177,
      "annabelle": 1178,
      "preeta": 1179,
      "preetam": 1180,
      "gis": 1181,
      "pr": 1182,
      "haan": 1183,
      "farhaan": 1184,
      "gisela": 1185,
      "pratima": 1186,
      "fo": 1187,
      "lfo": 1188,
      "dolfo": 1189,
      "rodolfo": 1190,
      "tiao": 1191,
      "sebastiao": 1192,
      "vna": 1193,
      "arshad": 1194,
      "shalini": 1195,
      "mahen": 1196,
      "kamal": 1197,
      "bhavna": 1198,
      "isau": 1199,
      "nishta": 1200,
      "isaura": 1201,
      "flor": 1202,
      "nade": 1203,
      "frederic": 1204,
      "florbela": 1205,
      "nadeem": 1206,
      "zu": 1207,
      "nalini": 1208,
      "anj": 1209,
      "laume": 1210,
      "guillaume": 1211,
      "nee": 1212,
      "yesh": 1213,
      "may": 1214,
      "prema": 1215,
      "laval": 1216,
      "ker": 1217,
      "judi": 1218,
      "akilesh": 1219,
      "ramesh": 1220,
      "kersley": 1221,
      "judite": 1222,
      "dha": 1223,
      "radha": 1224,
      "ou": 1225,
      "ku": 1226,
      "ilash": 1227,
      "kailash": 1228,
      "neel": 1229,
      "kamla": 1230,
      "azhar": 1231,
      "palmira": 1232,
      "kumar": 1233,
      "josi": 1234,
      "alber": 1235,
      "sheela": 1236,
      "josiane": 1237,
      "albertina": 1238,
      "esha": 1239,
      "deen": 1240,
      "vanisha": 1241,
      "fardeen": 1242,
      "sandee": 1243,
      "devika": 1244,
      "gracinda": 1245,
      "sandeep": 1246,
      "hvi": 1247,
      "shar": 1248,
      "madhvi": 1249,
      "vashish": 1250,
      "cl": 1251,
      "eem": 1252,
      "arel": 1253,
      "sham": 1254,
      "joaquina": 1255,
      "clarel": 1256,
      "shameem": 1257,
      "jaya": 1258,
      "eev": 1259,
      "anwar": 1260,
      "javed": 1261,
      "rajeev": 1262,
      "kaviraj": 1263,
      "sar": 1264,
      "shre": 1265,
      "begue": 1266,
      "sarvesh": 1267,
      "shree": 1268,
      "ot": 1269,
      "anas": 1270,
      "abhi": 1271,
      "rico": 1272,
      "karine": 1273,
      "avelino": 1274,
      "eurico": 1275,
      "otilia": 1276,
      "uza": 1277,
      "neuza": 1278,
      "jessen": 1279,
      "iara": 1280,
      "shake": 1281,
      "shakeel": 1282,
      "toze": 1283,
      "meera": 1284,
      "cli": 1285,
      "ff": 1286,
      "lvi": 1287,
      "sy": 1288,
      "ord": 1289,
      "cliff": 1290,
      "lvie": 1291,
      "sylvie": 1292,
      "clifford": 1293,
      "hern": 1294,
      "annick": 1295,
      "vidya": 1296,
      "hernani": 1297,
      "dool": 1298,
      "abdool": 1299,
      "karan": 1300,
      "rberto": 1301,
      "norberto": 1302,
      "aldo": 1303,
      "yanish": 1304,
      "arnaldo": 1305,
      "shiv": 1306,
      "visham": 1307,
      "shivam": 1308,
      "gilio": 1309,
      "virgilio": 1310,
      "zam": 1311,
      "nizam": 1312,
      "dav": 1313,
      "seraf": 1314,
      "nitesh": 1315,
      "yadav": 1316,
      "yanka": 1317,
      "priyanka": 1318,
      "serafim": 1319,
      "noem": 1320,
      "noemia": 1321,
      "eus": 1322,
      "gini": 1323,
      "ragini": 1324,
      "demar": 1325,
      "mateus": 1326,
      "valdemar": 1327,
      "yashna": 1328,
      "kamini": 1329,
      "ama": 1330,
      "lam": 1331,
      "deu": 1332,
      "aslam": 1333,
      "amadeu": 1334,
      "inee": 1335,
      "uf": 1336,
      "uso": 1337,
      "zab": 1338,
      "reaz": 1339,
      "youso": 1340,
      "yousouf": 1341,
      "uard": 1342,
      "nitisha": 1343,
      "armanda": 1344,
      "edouard": 1345,
      "emi": 1346,
      "jeremi": 1347,
      "jeremie": 1348,
      "gore": 1349,
      "ilidio": 1350,
      "ajmal": 1351,
      "selven": 1352,
      "goreti": 1353,
      "bood": 1354,
      "it": 1355,
      "oit": 1356,
      "benoit": 1357,
      "anishta": 1358,
      "sneha": 1359,
      "racio": 1360,
      "hoo": 1361,
      "horacio": 1362,
      "aartee": 1363,
      "ilcar": 1364,
      "amilcar": 1365,
      "reshad": 1366,
      "martinho": 1367,
      "nishal": 1368,
      "albano": 1369,
      "into": 1370,
      "sanju": 1371,
      "jacinto": 1372,
      "armenio": 1373,
      "isilda": 1374,
      "shena": 1375,
      "anike": 1376,
      "beta": 1377,
      "anousha": 1378,
      "mervin": 1379,
      "shenaz": 1380,
      "aniket": 1381,
      "quim": 1382,
      "iolan": 1383,
      "sandrina": 1384,
      "iolanda": 1385,
      "nand": 1386,
      "ermel": 1387,
      "adesh": 1388,
      "shabnee": 1389,
      "nandini": 1390,
      "ermelinda": 1391,
      "shabneez": 1392,
      "aman": 1393,
      "kshi": 1394,
      "ercia": 1395,
      "enakshi": 1396,
      "meenakshi": 1397,
      "natercia": 1398,
      "nawaz": 1399,
      "amandio": 1400,
      "harsh": 1401,
      "viraj": 1402,
      "stephano": 1403,
      "hemant": 1404,
      "corine": 1405,
      "deven": 1406,
      "mee": 1407,
      "yoan": 1408,
      "belle": 1409,
      "anabelle": 1410,
      "gane": 1411,
      "khu": 1412,
      "yne": 1413,
      "jocel": 1414,
      "megane": 1415,
      "khushi": 1416,
      "jocelyne": 1417,
      "etan": 1418,
      "mz": 1419,
      "mamz": 1420,
      "romeu": 1421,
      "vishnu": 1422,
      "gaetan": 1423,
      "nishi": 1424,
      "avishek": 1425,
      "mamzel": 1426,
      "zia": 1427,
      "razia": 1428,
      "sanjiv": 1429,
      "yeshna": 1430,
      "anjali": 1431,
      "dar": 1432,
      "dhi": 1433,
      "sat": 1434,
      "andrina": 1435,
      "vimi": 1436,
      "alexandrina": 1437,
      "sheet": 1438,
      "divesh": 1439,
      "daren": 1440,
      "dhiraj": 1441,
      "satyam": 1442,
      "sheetal": 1443,
      "hilesh": 1444,
      "ravina": 1445,
      "akhilesh": 1446,
      "cila": 1447,
      "mun": 1448,
      "dorine": 1449,
      "sheen": 1450,
      "nawsheen": 1451,
      "smi": 1452,
      "alcina": 1453,
      "smita": 1454,
      "sre": 1455,
      "nasre": 1456,
      "nazia": 1457,
      "nasreen": 1458,
      "cla": 1459,
      "anaelle": 1460,
      "ravish": 1461,
      "clair": 1462,
      "by": 1463,
      "eby": 1464,
      "liseby": 1465,
      "diamant": 1466,
      "diamantino": 1467,
      "del": 1468,
      "fim": 1469,
      "lavi": 1470,
      "pallavi": 1471,
      "delfim": 1472,
      "nau": 1473,
      "par": 1474,
      "iete": 1475,
      "vez": 1476,
      "nazima": 1477,
      "graciete": 1478,
      "naushad": 1479,
      "parvez": 1480,
      "lmira": 1481,
      "mana": 1482,
      "madvi": 1483,
      "jevin": 1484,
      "selvina": 1485,
      "zulmira": 1486,
      "manav": 1487,
      "eur": 1488,
      "line": 1489,
      "lico": 1490,
      "anushka": 1491,
      "jolico": 1492,
      "marc": 1493,
      "aldina": 1494,
      "reira": 1495,
      "cao": 1496,
      "nier": 1497,
      "assun": 1498,
      "jayshree": 1499,
      "jeanclaude": 1500,
      "ferreira": 1501,
      "maryline": 1502,
      "meunier": 1503,
      "lisete": 1504,
      "jolicoeur": 1505,
      "assuncao": 1506,
      "ag": 1507,
      "ada": 1508,
      "spe": 1509,
      "vil": 1510,
      "athe": 1511,
      "riya": 1512,
      "agathe": 1513,
      "adao": 1514,
      "spevil": 1515,
      "speville": 1516,
      "eraj": 1517,
      "neeraj": 1518,
      "ouma": 1519,
      "shya": 1520,
      "ashil": 1521,
      "shyama": 1522,
      "kin": 1523,
      "varuna": 1524,
      "chaya": 1525,
      "kinsley": 1526,
      "pie": 1527,
      "vash": 1528,
      "dade": 1529,
      "tova": 1530,
      "urvash": 1531,
      "gaelle": 1532,
      "cristova": 1533,
      "piedade": 1534,
      "urvashi": 1535,
      "cristovao": 1536,
      "aar": 1537,
      "imi": 1538,
      "llet": 1539,
      "are": 1540,
      "collet": 1541,
      "niven": 1542,
      "vickram": 1543,
      "nazare": 1544,
      "casimi": 1545,
      "rosemay": 1546,
      "aarti": 1547,
      "casimir": 1548,
      "dm": 1549,
      "desh": 1550,
      "noelle": 1551,
      "eshan": 1552,
      "padm": 1553,
      "sudesh": 1554,
      "padmini": 1555,
      "edita": 1556,
      "benedita": 1557,
      "emili": 1558,
      "saloni": 1559,
      "emilien": 1560,
      "uja": 1561,
      "onne": 1562,
      "tanuja": 1563,
      "farheen": 1564,
      "sharonne": 1565,
      "aca": 1566,
      "cy": 1567,
      "clen": 1568,
      "med": 1569,
      "nivesh": 1570,
      "yashveer": 1571,
      "nazma": 1572,
      "acacio": 1573,
      "clency": 1574,
      "medha": 1575,
      "ader": 1576,
      "ehar": 1577,
      "ito": 1578,
      "prita": 1579,
      "beehar": 1580,
      "rajini": 1581,
      "pascaline": 1582,
      "aderito": 1583,
      "pritam": 1584,
      "beeharry": 1585,
      "eira": 1586,
      "yoven": 1587,
      "ashwini": 1588,
      "oliveira": 1589,
      "aq": 1590,
      "dna": 1591,
      "izab": 1592,
      "jna": 1593,
      "elizab": 1594,
      "sadna": 1595,
      "teaz": 1596,
      "ashfa": 1597,
      "imteaz": 1598,
      "yajna": 1599,
      "mayur": 1600,
      "elizabete": 1601,
      "ashfaaq": 1602,
      "iya": 1603,
      "lic": 1604,
      "uben": 1605,
      "ziya": 1606,
      "inio": 1607,
      "sadh": 1608,
      "rouben": 1609,
      "christabelle": 1610,
      "licinio": 1611,
      "ziyaad": 1612,
      "sadhna": 1613,
      "br": 1614,
      "raksha": 1615,
      "ritish": 1616,
      "alcino": 1617,
      "branca": 1618,
      "bil": 1619,
      "kis": 1620,
      "annaelle": 1621,
      "bilkis": 1622,
      "bilkiss": 1623,
      "ty": 1624,
      "sety": 1625,
      "rous": 1626,
      "roussety": 1627,
      "fel": 1628,
      "yr": 1629,
      "zar": 1630,
      "icite": 1631,
      "hayr": 1632,
      "milazar": 1633,
      "noorani": 1634,
      "zuhayr": 1635,
      "felicite": 1636,
      "alinee": 1637,
      "shalinee": 1638,
      "yashvin": 1639,
      "sharone": 1640,
      "mis": 1641,
      "mesh": 1642,
      "suis": 1643,
      "azie": 1644,
      "sier": 1645,
      "oumesh": 1646,
      "missier": 1647,
      "ksh": 1648,
      "laksh": 1649,
      "vitorino": 1650,
      "deeya": 1651,
      "oza": 1652,
      "jeannoel": 1653,
      "feroza": 1654,
      "carminda": 1655,
      "gan": 1656,
      "ko": 1657,
      "wanee": 1658,
      "zin": 1659,
      "vishwanee": 1660,
      "essen": 1661,
      "zezin": 1662,
      "begum": 1663,
      "ganessen": 1664,
      "koushal": 1665,
      "zezinha": 1666,
      "joom": 1667,
      "luz": 1668,
      "astee": 1669,
      "samy": 1670,
      "ramsamy": 1671,
      "swastee": 1672,
      "joomun": 1673,
      "sale": 1674,
      "siv": 1675,
      "shaad": 1676,
      "vishesh": 1677,
      "irshaad": 1678,
      "irah": 1679,
      "amiirah": 1680,
      "salete": 1681,
      "siven": 1682,
      "gopaul": 1683,
      "nush": 1684,
      "dex": 1685,
      "judex": 1686,
      "dya": 1687,
      "lin": 1688,
      "tch": 1689,
      "lutch": 1690,
      "jahan": 1691,
      "yaas": 1692,
      "sandya": 1693,
      "noorjahan": 1694,
      "linley": 1695,
      "lutchmee": 1696,
      "yaasir": 1697,
      "ap": 1698,
      "chu": 1699,
      "rn": 1700,
      "doo": 1701,
      "hun": 1702,
      "padoo": 1703,
      "jeet": 1704,
      "ramen": 1705,
      "ramchu": 1706,
      "yovan": 1707,
      "jenita": 1708,
      "boodhoo": 1709,
      "boodhun": 1710,
      "appadoo": 1711,
      "jeetun": 1712,
      "ramchurn": 1713,
      "bun": 1714,
      "dhoo": 1715,
      "devan": 1716,
      "bundhoo": 1717,
      "devanand": 1718,
      "flo": 1719,
      "hla": 1720,
      "vani": 1721,
      "shik": 1722,
      "rikesh": 1723,
      "anielle": 1724,
      "rise": 1725,
      "soud": 1726,
      "vishan": 1727,
      "ikhla": 1728,
      "anjanee": 1729,
      "florise": 1730,
      "vanida": 1731,
      "shiksha": 1732,
      "soudesh": 1733,
      "ikhlaas": 1734,
      "darmen": 1735,
      "fi": 1736,
      "ika": 1737,
      "jyo": 1738,
      "dou": 1739,
      "ishika": 1740,
      "fidou": 1741,
      "jyotee": 1742,
      "ansley": 1743,
      "barlen": 1744,
      "kresh": 1745,
      "vanesha": 1746,
      "rajshree": 1747,
      "ashwinee": 1748,
      "neelesh": 1749,
      "kreshan": 1750,
      "ema": 1751,
      "anjo": 1752,
      "veema": 1753,
      "anjoo": 1754,
      "bbe": 1755,
      "ii": 1756,
      "uii": 1757,
      "mantee": 1758,
      "gur": 1759,
      "pritee": 1760,
      "mungur": 1761,
      "bbeuii": 1762,
      "cu": 1763,
      "nen": 1764,
      "ogu": 1765,
      "pid": 1766,
      "ansu": 1767,
      "armo": 1768,
      "videsh": 1769,
      "krishnen": 1770,
      "devianee": 1771,
      "cupid": 1772,
      "ogum": 1773,
      "ansuya": 1774,
      "armoogum": 1775,
      "cupidon": 1776,
      "dick": 1777,
      "sid": 1778,
      "pravish": 1779,
      "reshmee": 1780,
      "roshnee": 1781,
      "akshaye": 1782,
      "siddick": 1783,
      "een": 1784,
      "oreza": 1785,
      "sana": 1786,
      "sen": 1787,
      "vines": 1788,
      "davish": 1789,
      "luch": 1790,
      "nooreza": 1791,
      "rook": 1792,
      "salone": 1793,
      "veeraj": 1794,
      "zabeen": 1795,
      "vinessen": 1796,
      "luchmun": 1797,
      "rooksana": 1798,
      "salonee": 1799
    },
    "merges": [
      "a n",
      "a r",
      "e l",
      "i a",
      "j o",
      "i s",
      "an a",
      "i n",
      "m ar",
      "d r",
      "e r",
      "i o",
      "i c",
      "o n",
      "a l",
      "s h",
      "a t",
      "a u",
      "jo a",
      "i l",
      "u el",
      "d o",
      "l o",
      "e n",
      "g o",
      "joa o",
      "an dr",
      "c ar",
      "p e",
      "in a",
      "r a",
      "r u",
      "mar ia",
      "e s",
      "d a",
      "l u",
      "s e",
      "v i",
      "p au",
      "jo se",
      "n o",
      "dr o",
      "pe dro",
      "a b",
      "m a",
      "t a",
      "r ic",
      "r i",
      "l a",
      "i ana",
      "m an",
      "lu is",
      "andr e",
      "ar do",
      "is h",
      "c o",
      "t o",
      "t on",
      "m i",
      "car lo",
      "an ton",
      "carlo s",
      "anton io",
      "man uel",
      "pau lo",
      "el a",
      "an i",
      "s a",
      "er n",
      "r o",
      "r is",
      "t e",
      "f il",
      "g uel",
      "mi guel",
      "ru i",
      "l e",
      "a sh",
      "ric ardo",
      "f r",
      "ar a",
      "n u",
      "fil i",
      "t ia",
      "b ru",
      "c at",
      "nu no",
      "tia go",
      "f ern",
      "fern an",
      "s o",
      "en a",
      "g e",
      "is ab",
      "d io",
      "jo ana",
      "ris t",
      "e sh",
      "d ani",
      "fr an",
      "bru no",
      "jo r",
      "andr a",
      "jor ge",
      "n a",
      "h el",
      "ri ta",
      "a m",
      "d e",
      "c is",
      "fran cis",
      "dio go",
      "l au",
      "isab el",
      "c rist",
      "pau la",
      "ic a",
      "in es",
      "q u",
      "s on",
      "al e",
      "ar ina",
      "cat arina",
      "ale x",
      "u s",
      "to r",
      "i m",
      "j a",
      "p at",
      "pat ric",
      "v in",
      "francis co",
      "fernan do",
      "on c",
      "i ma",
      "s ara",
      "o l",
      "h u",
      "car la",
      "f ia",
      "so fia",
      "fili pe",
      "p a",
      "e d",
      "s andra",
      "i e",
      "d ia",
      "c lau",
      "crist ina",
      "vi tor",
      "i da",
      "mar iana",
      "patric ia",
      "dani el",
      "v an",
      "t er",
      "at ima",
      "g ar",
      "f atima",
      "hu go",
      "al o",
      "es a",
      "ter esa",
      "sh a",
      "j u",
      "f ab",
      "b e",
      "r in",
      "vi d",
      "s us",
      "sus ana",
      "mar ta",
      "g onc",
      "gonc alo",
      "r e",
      "mar gar",
      "margar ida",
      "ra j",
      "s er",
      "da vid",
      "c a",
      "n i",
      "h a",
      "fili pa",
      "g io",
      "ser gio",
      "mar co",
      "hel ena",
      "m e",
      "clau dia",
      "joa qu",
      "at ri",
      "be atri",
      "beatri z",
      "dr i",
      "mar io",
      "an g",
      "son ia",
      "andre ia",
      "f a",
      "v ish",
      "es s",
      "ju l",
      "ma d",
      "fab io",
      "joaqu im",
      "n at",
      "y a",
      "q uel",
      "c e",
      "p h",
      "s an",
      "c h",
      "c el",
      "ra fa",
      "dani ela",
      "d iana",
      "b er",
      "i v",
      "ra quel",
      "car ol",
      "carol ina",
      "b en",
      "e m",
      "t an",
      "in e",
      "k a",
      "manuel a",
      "j e",
      "v er",
      "fernan da",
      "ed u",
      "k e",
      "a s",
      "alex andre",
      "o r",
      "luis a",
      "ro sa",
      "ja y",
      "b ela",
      "n e",
      "p rin",
      "c ia",
      "ro dri",
      "rodri go",
      "ber to",
      "r en",
      "ru ben",
      "cat ia",
      "on ica",
      "il ia",
      "s te",
      "d er",
      "le on",
      "rafa el",
      "tan ia",
      "ic o",
      "in da",
      "qu e",
      "ana bela",
      "v ia",
      "hel der",
      "is a",
      "g u",
      "v ic",
      "h an",
      "edu ardo",
      "a d",
      "al da",
      "l il",
      "lil iana",
      "le y",
      "a k",
      "alex andra",
      "je an",
      "d i",
      "m o",
      "in i",
      "n el",
      "nel son",
      "es sa",
      "van essa",
      "ang el",
      "z e",
      "y an",
      "m onica",
      "an o",
      "ver a",
      "ke vin",
      "r ish",
      "d es",
      "s il",
      "sil via",
      "e te",
      "d u",
      "k esh",
      "v ina",
      "ish a",
      "l ara",
      "s u",
      "v ar",
      "g ab",
      "gab ri",
      "j ess",
      "ar te",
      "b ern",
      "sa m",
      "h en",
      "r des",
      "lu rdes",
      "ste ph",
      "v e",
      "el le",
      "m d",
      "h er",
      "d y",
      "t i",
      "il a",
      "v as",
      "vas co",
      "el isab",
      "elisab ete",
      "h am",
      "ham mad",
      "y ash",
      "f alda",
      "ma falda",
      "b ar",
      "gu il",
      "k ar",
      "a f",
      "g us",
      "jess ica",
      "ma s",
      "to mas",
      "c ess",
      "prin cess",
      "b ara",
      "ri que",
      "hen rique",
      "bar bara",
      "mar ie",
      "c onc",
      "e ica",
      "conc eica",
      "conceica o",
      "l an",
      "al ena",
      "mad alena",
      "leon or",
      "g er",
      "vi k",
      "sh e",
      "bern ardo",
      "g ra",
      "on so",
      "af onso",
      "i r",
      "m el",
      "m at",
      "ang ela",
      "ch ris",
      "ren at",
      "her me",
      "guil herme",
      "m ic",
      "in o",
      "andr o",
      "u r",
      "p o",
      "m al",
      "an e",
      "ani e",
      "al ia",
      "ra m",
      "mar isa",
      "cel ia",
      "du arte",
      "p re",
      "ic e",
      "al ice",
      "t el",
      "ch rist",
      "vish al",
      "er ico",
      "p ra",
      "ar d",
      "el sa",
      "u n",
      "lau ra",
      "al berto",
      "bru na",
      "go s",
      "el ia",
      "car ina",
      "mar cia",
      "ni t",
      "lu cia",
      "a dr",
      "adr iana",
      "r esh",
      "do m",
      "y o",
      "ar m",
      "francis ca",
      "sam uel",
      "e ta",
      "c io",
      "jo el",
      "e v",
      "v al",
      "p ri",
      "g il",
      "l i",
      "f la",
      "u sh",
      "ru te",
      "ar man",
      "van ia",
      "em ilia",
      "ka vi",
      "ro sh",
      "h e",
      "gra ca",
      "sha y",
      "ak shay",
      "il esh",
      "ash a",
      "crist iana",
      "clau dio",
      "jul iana",
      "v en",
      "prin ce",
      "fr ed",
      "han s",
      "gabri el",
      "k rish",
      "a dri",
      "h o",
      "j en",
      "n ico",
      "t ur",
      "ar tur",
      "e manuel",
      "t at",
      "tat iana",
      "g a",
      "ar io",
      "o m",
      "vic tor",
      "l en",
      "au gus",
      "de e",
      "mar t",
      "renat o",
      "c lara",
      "r yan",
      "arman do",
      "mar ina",
      "ha el",
      "mic hael",
      "lu c",
      "k am",
      "il de",
      "mat ilde",
      "le andro",
      "to ph",
      "chris toph",
      "a v",
      "fil om",
      "filom ena",
      "u sha",
      "nat alia",
      "an d",
      "pri ya",
      "mar cio",
      "jul io",
      "b i",
      "co is",
      "fran cois",
      "vic k",
      "c es",
      "ces ar",
      "san jay",
      "d ina",
      "at ish",
      "d an",
      "iv o",
      "steph anie",
      "i d",
      "patric k",
      "s al",
      "vi er",
      "m u",
      "jul ia",
      "mu hammad",
      "t ina",
      "o d",
      "r y",
      "mar cel",
      "vik ash",
      "marcel o",
      "mo hammad",
      "e t",
      "ra vi",
      "gabri ela",
      "ash ley",
      "h i",
      "ak ash",
      "mar len",
      "marlen e",
      "al var",
      "alvar o",
      "resh ma",
      "fred erico",
      "v esh",
      "j er",
      "vi r",
      "o ja",
      "po oja",
      "a z",
      "d in",
      "lo u",
      "a vina",
      "avina sh",
      "ash vin",
      "f ar",
      "vick y",
      "jo nat",
      "ro ger",
      "jonat han",
      "roger io",
      "s ima",
      "sima o",
      "ra kesh",
      "ic k",
      "rosh an",
      "f er",
      "g ina",
      "na z",
      "raj esh",
      "ol ga",
      "ne ha",
      "in gos",
      "dom ingos",
      "lo r",
      "augus to",
      "a jay",
      "e do",
      "ca s",
      "am elia",
      "ja son",
      "ja c",
      "m ica",
      "n y",
      "v io",
      "fla vio",
      "rin da",
      "ar sh",
      "ra ia",
      "so raia",
      "kesh av",
      "tel mo",
      "er ic",
      "al i",
      "m ila",
      "n ish",
      "na dia",
      "in ho",
      "l y",
      "nit ish",
      "n ick",
      "au ro",
      "h n",
      "jo hn",
      "d ine",
      "dee pa",
      "i ano",
      "l inda",
      "crist iano",
      "rish i",
      "rafa ela",
      "b o",
      "an na",
      "ge eta",
      "ti i",
      "rin e",
      "adri ano",
      "c ha",
      "ar vin",
      "sara h",
      "il da",
      "l ina",
      "leon ardo",
      "ol inda",
      "c al",
      "s cal",
      "pa scal",
      "raj iv",
      "v o",
      "ta vo",
      "gus tavo",
      "s ario",
      "ro sario",
      "te sh",
      "im e",
      "ja ime",
      "su n",
      "tel ma",
      "ash ish",
      "lu cas",
      "i ra",
      "i de",
      "ela ide",
      "ad elaide",
      "z a",
      "car mo",
      "on am",
      "ani ta",
      "po onam",
      "she ila",
      "e u",
      "marco s",
      "krish na",
      "de vi",
      "angel o",
      "in do",
      "g in",
      "vir gin",
      "pre et",
      "preet y",
      "b as",
      "g i",
      "se bas",
      "i ren",
      "iren e",
      "li dia",
      "car m",
      "man isha",
      "ar da",
      "edu arda",
      "vina y",
      "b al",
      "l ce",
      "du lce",
      "el isa",
      "dr ic",
      "es te",
      "ce dric",
      "cel este",
      "r ina",
      "s ab",
      "di er",
      "di dier",
      "sab rina",
      "il i",
      "ce u",
      "i vier",
      "ol ivier",
      "ev a",
      "al fr",
      "alfr edo",
      "h al",
      "nat hal",
      "nathal ie",
      "a vi",
      "kavi ta",
      "r au",
      "rau l",
      "ed gar",
      "mart im",
      "ad arsh",
      "la s",
      "dy lan",
      "nico las",
      "s andr",
      "no or",
      "sa o",
      "ric e",
      "fab rice",
      "me er",
      "ash w",
      "or lan",
      "orlan do",
      "ro berto",
      "el ino",
      "var sha",
      "k un",
      "kun al",
      "on i",
      "ish ma",
      "kar ishma",
      "a cha",
      "h il",
      "nat acha",
      "ve ena",
      "i ta",
      "w ar",
      "ni ta",
      "su nita",
      "ni fer",
      "jen nifer",
      "a gos",
      "p am",
      "t inho",
      "agos tinho",
      "pam ela",
      "b ha",
      "i k",
      "an il",
      "ro se",
      "mar y",
      "c ilia",
      "ce cilia",
      "g lor",
      "am erico",
      "glor ia",
      "a vish",
      "christoph er",
      "re ena",
      "mel anie",
      "ush al",
      "de bo",
      "debo ra",
      "ar n",
      "ste ven",
      "em manuel",
      "sun il",
      "arte e",
      "carm en",
      "is sa",
      "mel issa",
      "on e",
      "yan nick",
      "lou is",
      "san j",
      "nico le",
      "u na",
      "ini que",
      "dom inique",
      "ton y",
      "jor dan",
      "ve er",
      "pra vesh",
      "k ash",
      "al ini",
      "le ena",
      "pra kash",
      "c in",
      "cin dy",
      "e k",
      "a in",
      "al ain",
      "do ra",
      "de v",
      "su raj",
      "r el",
      "s andro",
      "t hi",
      "er ry",
      "au rel",
      "thi erry",
      "aurel ie",
      "j am",
      "mic hel",
      "jam es",
      "an ish",
      "vi jay",
      "pau l",
      "man el",
      "mi ke",
      "he ma",
      "i van",
      "k ir",
      "steph ane",
      "kir an",
      "ol iv",
      "din is",
      "c id",
      "renat a",
      "cid alia",
      "c ris",
      "ri tesh",
      "christ ine",
      "b rinda",
      "do vic",
      "lu dovic",
      "isabel le",
      "le t",
      "s ley",
      "d h",
      "mar a",
      "ro han",
      "m er",
      "man ish",
      "nat asha",
      "christoph e",
      "o j",
      "man oj",
      "al b",
      "re gina",
      "mal a",
      "an ca",
      "jen ny",
      "vi mal",
      "ver onica",
      "fla via",
      "d iv",
      "ka vish",
      "na vin",
      "ver oni",
      "veroni que",
      "van da",
      "val ter",
      "i an",
      "i go",
      "christ ian",
      "igo r",
      "i en",
      "el od",
      "jul ien",
      "elod ie",
      "v a",
      "na w",
      "b ryan",
      "k ushal",
      "an dy",
      "carlo ta",
      "leon el",
      "is ma",
      "mar ilia",
      "il io",
      "ab ilio",
      "mica el",
      "isma el",
      "san je",
      "sanje ev",
      "y am",
      "ash na",
      "g en",
      "deepa k",
      "eu gen",
      "eugen ia",
      "dan y",
      "am rita",
      "de olinda",
      "ger ard",
      "an ju",
      "sandr ine",
      "d ario",
      "andre a",
      "raj en",
      "ush ka",
      "o k",
      "vik ram",
      "sal im",
      "v ed",
      "ra hu",
      "adri en",
      "rahu l",
      "h ard",
      "k ish",
      "n isha",
      "x ana",
      "ric hard",
      "kish an",
      "k sha",
      "sh ir",
      "shir ley",
      "he en",
      "s w",
      "sha d",
      "arm inda",
      "a j",
      "m berto",
      "hu mberto",
      "n ilesh",
      "a mi",
      "c il",
      "p ris",
      "an usha",
      "cil la",
      "pris cilla",
      "er ica",
      "christ elle",
      "arvin d",
      "d en",
      "ge sh",
      "yo gesh",
      "den is",
      "g ia",
      "li gia",
      "i te",
      "p al",
      "mal ini",
      "t ish",
      "g da",
      "ma gda",
      "bern ard",
      "mi ra",
      "sa ilesh",
      "na dine",
      "p er",
      "ab elle",
      "luc iana",
      "ashw in",
      "per rine",
      "o de",
      "kar una",
      "ode te",
      "ti en",
      "gra c",
      "sebas tien",
      "m auro",
      "kar en",
      "al ly",
      "ab el",
      "she ik",
      "c and",
      "u d",
      "er ie",
      "val erie",
      "cand ida",
      "k el",
      "sa meer",
      "kel ly",
      "an ne",
      "lu ana",
      "gi rish",
      "h ar",
      "l ena",
      "n an",
      "auro ra",
      "nan da",
      "j al",
      "ka jal",
      "ad elino",
      "oliv ia",
      "clau de",
      "arm indo",
      "da mi",
      "te e",
      "din esh",
      "dami en",
      "sanj ana",
      "al dine",
      "il ie",
      "em ilie",
      "ger aldine",
      "var un",
      "s i",
      "ra vin",
      "san dh",
      "mica ela",
      "sandh ya",
      "b ab",
      "bab ita",
      "i q",
      "o s",
      "iq bal",
      "os car",
      "an and",
      "sa ch",
      "sach in",
      "h ish",
      "ab hish",
      "bi anca",
      "virgin ia",
      "war ren",
      "abhish ek",
      "sh i",
      "iv one",
      "em y",
      "jer emy",
      "a ida",
      "ic ia",
      "ash ok",
      "cat her",
      "let icia",
      "cather ine",
      "so ph",
      "soph ie",
      "b ia",
      "h ie",
      "vin esh",
      "mat hie",
      "mathie u",
      "ana is",
      "fab iana",
      "re za",
      "jul ie",
      "hans ley",
      "c hel",
      "s el",
      "ra chel",
      "in di",
      "be gu",
      "indi ra",
      "j im",
      "m y",
      "luc inda",
      "jim my",
      "o me",
      "jer ome",
      "a isha",
      "jo elle",
      "lo ic",
      "mi mi",
      "fa an",
      "ir faan",
      "anton ia",
      "francois e",
      "c en",
      "sh ane",
      "au d",
      "vin cen",
      "arn aud",
      "vincen t",
      "k en",
      "el iana",
      "man t",
      "rosh ni",
      "ken ny",
      "v ena",
      "lo vena",
      "w en",
      "di ya",
      "wen dy",
      "m la",
      "vi mla",
      "le sh",
      "ren co",
      "kam lesh",
      "lou renco",
      "de vina",
      "steph an",
      "quel ine",
      "jac queline",
      "do r",
      "bi bi",
      "sal va",
      "salva dor",
      "no el",
      "a vier",
      "x avier",
      "hel io",
      "nit in",
      "me u",
      "san geeta",
      "s atish",
      "luc ilia",
      "z ira",
      "al zira",
      "so lan",
      "lau rinda",
      "pra vin",
      "solan ge",
      "p pe",
      "me vin",
      "ph ili",
      "virgin ie",
      "sw eta",
      "phili ppe",
      "al ina",
      "id alina",
      "bha vish",
      "e ve",
      "vitor ia",
      "ber t",
      "ste eve",
      "gil bert",
      "w es",
      "ami t",
      "wes ley",
      "sh ab",
      "sa hil",
      "qu es",
      "daniel le",
      "pre mila",
      "jac ques",
      "div ya",
      "an u",
      "ad elia",
      "l is",
      "s alo",
      "salo me",
      "vi ve",
      "ela m",
      "ne elam",
      "di ksha",
      "augus ta",
      "mart ine",
      "vive k",
      "g re",
      "l indo",
      "ar lindo",
      "go ry",
      "vi kesh",
      "gre gory",
      "es mer",
      "esmer alda",
      "y ud",
      "z elia",
      "yud ish",
      "k ha",
      "k hil",
      "l ino",
      "s im",
      "re kha",
      "ni khil",
      "sim la",
      "vin od",
      "a y",
      "sh arm",
      "ani bal",
      "patric e",
      "sha heen",
      "ay ush",
      "sharm ila",
      "an isha",
      "ed ite",
      "alb ino",
      "co rin",
      "ano ushka",
      "corin ne",
      "b ri",
      "t te",
      "gi tte",
      "bri gitte",
      "i re",
      "al c",
      "sh yam",
      "cel so",
      "gu ida",
      "des ire",
      "ane e",
      "arm en",
      "c on",
      "d ana",
      "s tan",
      "an tish",
      "van dana",
      "con stan",
      "constan ca",
      "gil berto",
      "n abelle",
      "an nabelle",
      "pre eta",
      "preeta m",
      "g is",
      "p r",
      "ha an",
      "far haan",
      "gis ela",
      "pr atima",
      "f o",
      "l fo",
      "do lfo",
      "ro dolfo",
      "tia o",
      "sebas tiao",
      "v na",
      "ar shad",
      "sh alini",
      "ma hen",
      "kam al",
      "bha vna",
      "is au",
      "nish ta",
      "isau ra",
      "f lor",
      "na de",
      "fred eric",
      "flor bela",
      "nade em",
      "z u",
      "n alini",
      "an j",
      "lau me",
      "guil laume",
      "ne e",
      "y esh",
      "ma y",
      "pre ma",
      "la val",
      "k er",
      "ju di",
      "ak ilesh",
      "ram esh",
      "ker sley",
      "judi te",
      "d ha",
      "ra dha",
      "o u",
      "k u",
      "il ash",
      "ka ilash",
      "ne el",
      "kam la",
      "az har",
      "pal mira",
      "ku mar",
      "jo si",
      "al ber",
      "she ela",
      "josi ane",
      "alber tina",
      "esh a",
      "de en",
      "van isha",
      "far deen",
      "san dee",
      "devi ka",
      "grac inda",
      "sandee p",
      "h vi",
      "sh ar",
      "mad hvi",
      "v ashish",
      "c l",
      "e em",
      "ar el",
      "sh am",
      "joaqu ina",
      "cl arel",
      "sham eem",
      "ja ya",
      "e ev",
      "an war",
      "ja ved",
      "raj eev",
      "kavi raj",
      "s ar",
      "sh re",
      "begu e",
      "sar vesh",
      "shre e",
      "o t",
      "ana s",
      "ab hi",
      "ric o",
      "kar ine",
      "av elino",
      "eu rico",
      "ot ilia",
      "u za",
      "ne uza",
      "jess en",
      "i ara",
      "sha ke",
      "shake el",
      "to ze",
      "meer a",
      "c li",
      "f f",
      "l vi",
      "s y",
      "or d",
      "cli ff",
      "lvi e",
      "sy lvie",
      "cliff ord",
      "h ern",
      "an nick",
      "vid ya",
      "hern ani",
      "do ol",
      "ab dool",
      "kar an",
      "r berto",
      "no rberto",
      "al do",
      "yan ish",
      "arn aldo",
      "sh iv",
      "vish am",
      "shiv am",
      "gil io",
      "vir gilio",
      "z am",
      "ni zam",
      "da v",
      "ser af",
      "ni tesh",
      "ya dav",
      "yan ka",
      "pri yanka",
      "seraf im",
      "no em",
      "noem ia",
      "e us",
      "g ini",
      "ra gini",
      "de mar",
      "mat eus",
      "val demar",
      "yash na",
      "kam ini",
      "a ma",
      "la m",
      "de u",
      "as lam",
      "ama deu",
      "ine e",
      "u f",
      "u so",
      "z ab",
      "re az",
      "yo uso",
      "youso uf",
      "u ard",
      "nit isha",
      "arman da",
      "edo uard",
      "e mi",
      "jer emi",
      "jeremi e",
      "go re",
      "ili dio",
      "aj mal",
      "sel ven",
      "gore ti",
      "bo od",
      "i t",
      "o it",
      "ben oit",
      "anish ta",
      "s neha",
      "ra cio",
      "ho o",
      "ho racio",
      "a artee",
      "il car",
      "am ilcar",
      "resh ad",
      "mart inho",
      "nish al",
      "alb ano",
      "in to",
      "san ju",
      "jac into",
      "armen io",
      "is ilda",
      "sh ena",
      "ani ke",
      "be ta",
      "ano usha",
      "mer vin",
      "shena z",
      "anike t",
      "qu im",
      "io lan",
      "sandr ina",
      "iolan da",
      "n and",
      "er mel",
      "ad esh",
      "shab nee",
      "nand ini",
      "ermel inda",
      "shabnee z",
      "a man",
      "k shi",
      "er cia",
      "ena kshi",
      "me enakshi",
      "nat ercia",
      "naw az",
      "aman dio",
      "h arsh",
      "vi raj",
      "steph ano",
      "he mant",
      "co rine",
      "de ven",
      "me e",
      "yo an",
      "b elle",
      "ana belle",
      "g ane",
      "k hu",
      "y ne",
      "jo cel",
      "me gane",
      "khu shi",
      "jocel yne",
      "e tan",
      "m z",
      "ma mz",
      "ro meu",
      "vish nu",
      "ga etan",
      "nish i",
      "avish ek",
      "mamz el",
      "z ia",
      "ra zia",
      "sanj iv",
      "yesh na",
      "anj ali",
      "d ar",
      "d hi",
      "s at",
      "andr ina",
      "vi mi",
      "alex andrina",
      "she et",
      "div esh",
      "dar en",
      "dhi raj",
      "sat yam",
      "sheet al",
      "h ilesh",
      "ra vina",
      "ak hilesh",
      "c ila",
      "m un",
      "do rine",
      "she en",
      "naw sheen",
      "s mi",
      "alc ina",
      "smi ta",
      "s re",
      "na sre",
      "naz ia",
      "nasre en",
      "c la",
      "ana elle",
      "ra vish",
      "cla ir",
      "b y",
      "e by",
      "lis eby",
      "dia mant",
      "diamant ino",
      "d el",
      "f im",
      "la vi",
      "pal lavi",
      "del fim",
      "n au",
      "p ar",
      "ie te",
      "ve z",
      "naz ima",
      "grac iete",
      "nau shad",
      "par vez",
      "l mira",
      "m ana",
      "mad vi",
      "je vin",
      "sel vina",
      "zu lmira",
      "mana v",
      "e ur",
      "l ine",
      "l ico",
      "an ushka",
      "jo lico",
      "mar c",
      "al dina",
      "re ira",
      "ca o",
      "ni er",
      "as sun",
      "jay shree",
      "jean claude",
      "fer reira",
      "mary line",
      "meu nier",
      "lis ete",
      "jolico eur",
      "assun cao",
      "a g",
      "a da",
      "s pe",
      "v il",
      "at he",
      "ri ya",
      "ag athe",
      "ada o",
      "spe vil",
      "spevil le",
      "er aj",
      "ne eraj",
      "ou ma",
      "sh ya",
      "ash il",
      "shya ma",
      "k in",
      "var una",
      "cha ya",
      "kin sley",
      "p ie",
      "v ash",
      "da de",
      "to va",
      "ur vash",
      "ga elle",
      "cris tova",
      "pie dade",
      "urvash i",
      "cristova o",
      "a ar",
      "i mi",
      "l let",
      "ar e",
      "co llet",
      "ni ven",
      "vick ram",
      "naz are",
      "cas imi",
      "rose may",
      "aar ti",
      "casimi r",
      "d m",
      "d esh",
      "no elle",
      "esh an",
      "pa dm",
      "su desh",
      "padm ini",
      "ed ita",
      "ben edita",
      "em ili",
      "sal oni",
      "emili en",
      "u ja",
      "on ne",
      "tan uja",
      "far heen",
      "shar onne",
      "a ca",
      "c y",
      "c len",
      "m ed",
      "ni vesh",
      "yash veer",
      "naz ma",
      "aca cio",
      "clen cy",
      "med ha",
      "a der",
      "e har",
      "i to",
      "p rita",
      "be ehar",
      "raj ini",
      "pascal ine",
      "ader ito",
      "prita m",
      "beehar ry",
      "e ira",
      "yo ven",
      "ashw ini",
      "oliv eira",
      "a q",
      "d na",
      "i zab",
      "j na",
      "el izab",
      "sa dna",
      "te az",
      "ash fa",
      "im teaz",
      "ya jna",
      "may ur",
      "elizab ete",
      "ashfa aq",
      "i ya",
      "l ic",
      "u ben",
      "z iya",
      "in io",
      "sa dh",
      "ro uben",
      "christ abelle",
      "lic inio",
      "ziya ad",
      "sadh na",
      "b r",
      "ra ksha",
      "ri tish",
      "alc ino",
      "br anca",
      "b il",
      "k is",
      "anna elle",
      "bil kis",
      "bilkis s",
      "t y",
      "se ty",
      "ro us",
      "rous sety",
      "f el",
      "y r",
      "z ar",
      "ic ite",
      "ha yr",
      "mila zar",
      "noor ani",
      "zu hayr",
      "fel icite",
      "al inee",
      "sh alinee",
      "yash vin",
      "shar one",
      "m is",
      "m esh",
      "su is",
      "az ie",
      "si er",
      "ou mesh",
      "mis sier",
      "k sh",
      "la ksh",
      "vitor ino",
      "dee ya",
      "o za",
      "jean noel",
      "fer oza",
      "carm inda",
      "g an",
      "k o",
      "w anee",
      "z in",
      "vish wanee",
      "ess en",
      "ze zin",
      "begu m",
      "gan essen",
      "ko ushal",
      "zezin ha",
      "jo om",
      "lu z",
      "as tee",
      "sam y",
      "ram samy",
      "sw astee",
      "joom un",
      "s ale",
      "s iv",
      "sha ad",
      "vish esh",
      "ir shaad",
      "ira h",
      "ami irah",
      "sale te",
      "siv en",
      "go paul",
      "nu sh",
      "de x",
      "ju dex",
      "d ya",
      "l in",
      "t ch",
      "lu tch",
      "ja han",
      "ya as",
      "san dya",
      "noor jahan",
      "lin ley",
      "lutch mee",
      "yaas ir",
      "a p",
      "c hu",
      "r n",
      "do o",
      "hu n",
      "pa doo",
      "je et",
      "ram en",
      "ram chu",
      "yo van",
      "jen ita",
      "bood hoo",
      "bood hun",
      "ap padoo",
      "jeet un",
      "ramchu rn",
      "b un",
      "d hoo",
      "de van",
      "bun dhoo",
      "devan and",
      "f lo",
      "h la",
      "v ani",
      "sh ik",
      "ri kesh",
      "ani elle",
      "ris e",
      "so ud",
      "vish an",
      "ik hla",
      "anj anee",
      "flo rise",
      "vani da",
      "shik sha",
      "soud esh",
      "ikhla as",
      "d armen",
      "f i",
      "i ka",
      "j yo",
      "do u",
      "ish ika",
      "fi dou",
      "jyo tee",
      "an sley",
      "bar len",
      "k resh",
      "van esha",
      "raj shree",
      "ashw inee",
      "neel esh",
      "kresh an",
      "e ma",
      "an jo",
      "ve ema",
      "anjo o",
      "b be",
      "i i",
      "u ii",
      "man tee",
      "gu r",
      "pri tee",
      "mun gur",
      "bbe uii",
      "c u",
      "n en",
      "o gu",
      "p id",
      "an su",
      "ar mo",
      "vid esh",
      "krish nen",
      "devi anee",
      "cu pid",
      "ogu m",
      "ansu ya",
      "armo ogum",
      "cupid on",
      "d ick",
      "s id",
      "pra vish",
      "resh mee",
      "rosh nee",
      "akshay e",
      "sid dick",
      "e en",
      "o reza",
      "s ana",
      "s en",
      "v ines",
      "da vish",
      "lu ch",
      "no oreza",
      "ro ok",
      "sal one",
      "veer aj",
      "zab een",
      "vines sen",
      "luch mun",
      "rook sana",
      "salone e"
    ]
  }
}