{
    "version": "1.0",
    "truncation": null,
    "padding": null,
    "added_tokens": [
        {
            "id": 0,
            "content": "[UNK]",
            "single_word": false,
            "lstrip": false,
            "rstrip": false,
            "normalized": false,
            "special": true
        },
        {
            "id": 1,
            "content": "[CLS]",
            "single_word": false,
            "lstrip": false,
            "rstrip": false,
            "normalized": false,
            "special": true
        },
        {
            "id": 2,
            "content": "[SEP]",
            "single_word": false,
            "lstrip": false,
            "rstrip": false,
            "normalized": false,
            "special": true
        },
        {
            "id": 3,
            "content": "[PAD]",
            "single_word": false,
            "lstrip": false,
            "rstrip": false,
            "normalized": false,
            "special": true
        },
        {
            "id": 4,
            "content": "[MASK]",
            "single_word": false,
            "lstrip": false,
            "rstrip": false,
            "normalized": false,
            "special": true
        }
    ],
    "normalizer": null,
    "pre_tokenizer": {
        "type": "Whitespace"
    },
    "post_processor": null,
    "decoder": null,
    "model": {
        "type": "BPE",
        "dropout": null,
        "unk_token": "[UNK]",
        "continuing_subword_prefix": null,
        "end_of_word_suffix": null,
        "fuse_unk": false,
        "vocab": {
            "[UNK]": 0,
            "[CLS]": 1,
            "[SEP]": 2,
            "[PAD]": 3,
            "[MASK]": 4,
            "-": 5,
            "a": 6,
            "b": 7,
            "c": 8,
            "d": 9,
            "e": 10,
            "f": 11,
            "g": 12,
            "h": 13,
            "i": 14,
            "j": 15,
            "k": 16,
            "l": 17,
            "m": 18,
            "n": 19,
            "o": 20,
            "p": 21,
            "q": 22,
            "r": 23,
            "s": 24,
            "t": 25,
            "u": 26,
            "v": 27,
            "w": 28,
            "x": 29,
            "y": 30,
            "z": 31,
            "an": 32,
            "in": 33,
            "en": 34,
            "on": 35,
            "ar": 36,
            "ch": 37,
            "am": 38,
            "el": 39,
            "al": 40,
            "er": 41,
            "th": 42,
            "sh": 43,
            "ra": 44,
            "li": 45,
            "oh": 46,
            "ri": 47,
            "le": 48,
            "md": 49,
            "ma": 50,
            "ja": 51,
            "ong": 52,
            "ang": 53,
            "jo": 54,
            "ic": 55,
            "es": 56,
            "ul": 57,
            "ine": 58,
            "mu": 59,
            "and": 60,
            "st": 61,
            "ie": 62,
            "vi": 63,
            "tan": 64,
            "vin": 65,
            "un": 66,
            "mar": 67,
            "re": 68,
            "ah": 69,
            "ann": 70,
            "sa": 71,
            "ir": 72,
            "im": 73,
            "enn": 74,
            "ly": 75,
            "ani": 76,
            "da": 77,
            "mi": 78,
            "ry": 79,
            "su": 80,
            "lim": 81,
            "ph": 82,
            "ia": 83,
            "se": 84,
            "ce": 85,
            "ck": 86,
            "il": 87,
            "lee": 88,
            "ab": 89,
            "ed": 90,
            "moh": 91,
            "la": 92,
            "son": 93,
            "ur": 94,
            "ing": 95,
            "ene": 96,
            "ng": 97,
            "muh": 98,
            "eng": 99,
            "ya": 100,
            "iv": 101,
            "lo": 102,
            "ei": 103,
            "ro": 104,
            "is": 105,
            "mad": 106,
            "nur": 107,
            "kar": 108,
            "eo": 109,
            "et": 110,
            "ev": 111,
            "dy": 112,
            "sam": 113,
            "jam": 114,
            "joh": 115,
            "ram": 116,
            "lin": 117,
            "na": 118,
            "raj": 119,
            "if": 120,
            "mon": 121,
            "ka": 122,
            "ammad": 123,
            "pa": 124,
            "ran": 125,
            "ho": 126,
            "ice": 127,
            "ua": 128,
            "esh": 129,
            "ard": 130,
            "thi": 131,
            "my": 132,
            "san": 133,
            "jan": 134,
            "ti": 135,
            "ha": 136,
            "vid": 137,
            "sar": 138,
            "kel": 139,
            "ew": 140,
            "ina": 141,
            "ther": 142,
            "ad": 143,
            "ren": 144,
            "ee": 145,
            "tri": 146,
            "ku": 147,
            "ess": 148,
            "ai": 149,
            "ru": 150,
            "ben": 151,
            "oo": 152,
            "je": 153,
            "ju": 154,
            "win": 155,
            "si": 156,
            "stev": 157,
            "ent": 158,
            "ay": 159,
            "wil": 160,
            "ian": 161,
            "ke": 162,
            "lyn": 163,
            "ex": 164,
            "sel": 165,
            "sim": 166,
            "joy": 167,
            "ley": 168,
            "ber": 169,
            "cy": 170,
            "ael": 171,
            "yl": 172,
            "may": 173,
            "cho": 174,
            "gan": 175,
            "wen": 176,
            "ala": 177,
            "sal": 178,
            "abd": 179,
            "goh": 180,
            "ony": 181,
            "thu": 182,
            "moham": 183,
            "ray": 184,
            "jas": 185,
            "yu": 186,
            "ca": 187,
            "iva": 188,
            "pet": 189,
            "ve": 190,
            "jay": 191,
            "cent": 192,
            "hu": 193,
            "fi": 194,
            "joe": 195,
            "ely": 196,
            "dar": 197,
            "cin": 198,
            "selv": 199,
            "jer": 200,
            "ff": 201,
            "jun": 202,
            "ona": 203,
            "to": 204,
            "ung": 205,
            "anth": 206,
            "nan": 207,
            "koh": 208,
            "van": 209,
            "zh": 210,
            "onn": 211,
            "gra": 212,
            "pra": 213,
            "teo": 214,
            "ris": 215,
            "gar": 216,
            "sha": 217,
            "eth": 218,
            "ny": 219,
            "nic": 220,
            "mine": 221,
            "ni": 222,
            "kh": 223,
            "therine": 224,
            "us": 225,
            "tho": 226,
            "rah": 227,
            "rey": 228,
            "yan": 229,
            "lu": 230,
            "elyn": 231,
            "do": 232,
            "soh": 233,
            "ib": 234,
            "sk": 235,
            "rence": 236,
            "wei": 237,
            "cher": 238,
            "vic": 239,
            "ica": 240,
            "yeo": 241,
            "jim": 242,
            "sun": 243,
            "sen": 244,
            "thil": 245,
            "amy": 246,
            "ken": 247,
            "ger": 248,
            "tay": 249,
            "ali": 250,
            "ifer": 251,
            "mas": 252,
            "ser": 253,
            "abu": 254,
            "ko": 255,
            "bo": 256,
            "ivy": 257,
            "las": 258,
            "cholas": 259,
            "hel": 260,
            "char": 261,
            "low": 262,
            "hen": 263,
            "lan": 264,
            "des": 265,
            "mel": 266,
            "eph": 267,
            "ald": 268,
            "ili": 269,
            "esan": 270,
            "icia": 271,
            "ag": 272,
            "ter": 273,
            "kim": 274,
            "cis": 275,
            "kam": 276,
            "lai": 277,
            "wn": 278,
            "ash": 279,
            "so": 280,
            "za": 281,
            "lam": 282,
            "roy": 283,
            "har": 284,
            "cus": 285,
            "jamin": 286,
            "pu": 287,
            "law": 288,
            "vonn": 289,
            "yvonn": 290,
            "br": 291,
            "yap": 292,
            "toh": 293,
            "stin": 294,
            "emy": 295,
            "der": 296,
            "oth": 297,
            "ole": 298,
            "man": 299,
            "eu": 300,
            "pal": 301,
            "ence": 302,
            "prab": 303,
            "fan": 304,
            "yi": 305,
            "no": 306,
            "ek": 307,
            "te": 308,
            "han": 309,
            "rin": 310,
            "shua": 311,
            "loh": 312,
            "emi": 313,
            "tor": 314,
            "les": 315,
            "gg": 316,
            "bern": 317,
            "ap": 318,
            "uel": 319,
            "sri": 320,
            "min": 321,
            "qu": 322,
            "kri": 323,
            "rub": 324,
            "dan": 325,
            "oor": 326,
            "nes": 327,
            "denn": 328,
            "wee": 329,
            "ara": 330,
            "xu": 331,
            "pand": 332,
            "gu": 333,
            "ssa": 334,
            "hossa": 335,
            "kann": 336,
            "sathi": 337,
            "mo": 338,
            "mat": 339,
            "tom": 340,
            "kash": 341,
            "far": 342,
            "amand": 343,
            "kya": 344,
            "yen": 345,
            "war": 346,
            "ga": 347,
            "mah": 348,
            "vier": 349,
            "dann": 350,
            "wan": 351,
            "cia": 352,
            "nie": 353,
            "sak": 354,
            "eva": 355,
            "ta": 356,
            "pe": 357,
            "id": 358,
            "neo": 359,
            "leo": 360,
            "onnie": 361,
            "tin": 362,
            "rob": 363,
            "hui": 364,
            "masu": 365,
            "be": 366,
            "fiq": 367,
            "ne": 368,
            "car": 369,
            "ol": 370,
            "mei": 371,
            "chlo": 372,
            "liu": 373,
            "oph": 374,
            "iz": 375,
            "ven": 376,
            "andra": 377,
            "kat": 378,
            "kha": 379,
            "sie": 380,
            "cl": 381,
            "xia": 382,
            "phili": 383,
            "au": 384,
            "gam": 385,
            "mugam": 386,
            "prin": 387,
            "naz": 388,
            "ye": 389,
            "flo": 390,
            "bob": 391,
            "nd": 392,
            "mund": 393,
            "anie": 394,
            "per": 395,
            "celyn": 396,
            "thew": 397,
            "xin": 398,
            "poh": 399,
            "rul": 400,
            "sky": 401,
            "che": 402,
            "nth": 403,
            "cynth": 404,
            "die": 405,
            "tam": 406,
            "den": 407,
            "lau": 408,
            "uis": 409,
            "go": 410,
            "samanth": 411,
            "thir": 412,
            "foo": 413,
            "ge": 414,
            "geo": 415,
            "rge": 416,
            "vel": 417,
            "fel": 418,
            "jia": 419,
            "eun": 420,
            "ji": 421,
            "ba": 422,
            "max": 423,
            "az": 424,
            "kei": 425,
            "gab": 426,
            "riel": 427,
            "haz": 428,
            "jah": 429,
            "it": 430,
            "drey": 431,
            "nat": 432,
            "kai": 433,
            "jon": 434,
            "tra": 435,
            "mam": 436,
            "cry": 437,
            "stal": 438,
            "kho": 439,
            "bu": 440,
            "eliz": 441,
            "abeth": 442,
            "mail": 443,
            "zal": 444,
            "lian": 445,
            "era": 446,
            "cca": 447,
            "uyen": 448,
            "margar": 449,
            "ky": 450,
            "anley": 451,
            "magg": 452,
            "ok": 453,
            "hao": 454,
            "val": 455,
            "erie": 456,
            "cqu": 457,
            "jacqu": 458,
            "tim": 459,
            "wu": 460,
            "othy": 461,
            "dew": 462,
            "fai": 463,
            "kal": 464,
            "don": 465,
            "me": 466,
            "sy": 467,
            "avier": 468,
            "ty": 469,
            "amim": 470,
            "zaw": 471,
            "dam": 472,
            "wai": 473,
            "bal": 474,
            "ac": 475,
            "isa": 476,
            "jie": 477,
            "dine": 478,
            "sub": 479,
            "vely": 480,
            "cas": 481,
            "myo": 482,
            "ati": 483,
            "ston": 484,
            "yee": 485,
            "med": 486,
            "ple": 487,
            "zul": 488,
            "nor": 489,
            "jin": 490,
            "irul": 491,
            "ver": 492,
            "onica": 493,
            "aye": 494,
            "ind": 495,
            "ton": 496,
            "cil": 497,
            "pris": 498,
            "hab": 499,
            "moe": 500,
            "nel": 501,
            "ana": 502,
            "yun": 503,
            "kc": 504,
            "du": 505,
            "rai": 506,
            "sabr": 507,
            "fiqul": 508,
            "clai": 509,
            "saw": 510,
            "ron": 511,
            "pri": 512,
            "uk": 513,
            "ggy": 514,
            "fre": 515,
            "alfre": 516,
            "dia": 517,
            "umugam": 518,
            "way": 519,
            "shoh": 520,
            "soe": 521,
            "hua": 522,
            "iq": 523,
            "tif": 524,
            "iah": 525,
            "dran": 526,
            "zan": 527,
            "tee": 528,
            "gun": 529,
            "see": 530,
            "ril": 531,
            "moor": 532,
            "pan": 533,
            "co": 534,
            "daph": 535,
            "kok": 536,
            "phia": 537,
            "mul": 538,
            "esa": 539,
            "sai": 540,
            "rdan": 541,
            "andan": 542,
            "ayu": 543,
            "bet": 544,
            "gel": 545,
            "sir": 546,
            "jen": 547,
            "naw": 548,
            "bun": 549,
            "cle": 550,
            "iang": 551,
            "ment": 552,
            "pon": 553,
            "chu": 554,
            "angir": 555,
            "sue": 556,
            "mai": 557,
            "ise": 558,
            "oy": 559,
            "aloy": 560,
            "sius": 561,
            "hann": 562,
            "syl": 563,
            "via": 564,
            "ros": 565,
            "loo": 566,
            "ome": 567,
            "lie": 568,
            "ki": 569,
            "ivel": 570,
            "arence": 571,
            "nay": 572,
            "by": 573,
            "ey": 574,
            "hon": 575,
            "shi": 576,
            "kie": 577,
            "yin": 578,
            "lei": 579,
            "shei": 580,
            "bee": 581,
            "kab": 582,
            "ow": 583,
            "ramani": 584,
            "teh": 585,
            "gl": 586,
            "ks": 587,
            "ict": 588,
            "edict": 589,
            "zhi": 590,
            "zai": 591,
            "gir": 592,
            "hafi": 593,
            "jew": 594,
            "we": 595,
            "zho": 596,
            "nagar": 597,
            "nagara": 598,
            "rali": 599,
            "oon": 600,
            "zin": 601,
            "pre": 602,
            "pei": 603,
            "kw": 604,
            "jai": 605,
            "guo": 606,
            "ien": 607,
            "jib": 608,
            "santho": 609,
            "thy": 610,
            "srin": 611,
            "up": 612,
            "karup": 613,
            "peh": 614,
            "xue": 615,
            "qi": 616,
            "thic": 617,
            "karthic": 618,
            "tun": 619,
            "soo": 620,
            "amad": 621,
            "fei": 622,
            "gn": 623,
            "vign": 624,
            "ebe": 625,
            "oebe": 626,
            "endran": 627,
            "sin": 628,
            "cai": 629,
            "ein": 630,
            "yue": 631,
            "boy": 632,
            "veen": 633,
            "kee": 634,
            "mal": 635,
            "umal": 636,
            "ooi": 637,
            "lon": 638,
            "rya": 639,
            "zi": 640,
            "pi": 641,
            "din": 642,
            "yo": 643,
            "fu": 644,
            "int": 645,
            "yip": 646,
            "fir": 647,
            "kir": 648,
            "shu": 649,
            "ddam": 650,
            "yew": 651,
            "bil": 652,
            "kib": 653,
            "lal": 654,
            "vive": 655,
            "de": 656,
            "thya": 657,
            "rowen": 658,
            "aw": 659,
            "selvara": 660,
            "inul": 661,
            "woo": 662,
            "ette": 663,
            "thivel": 664,
            "sg": 665,
            "rosal": 666,
            "ryl": 667,
            "ais": 668,
            "yah": 669,
            "lis": 670,
            "phyl": 671,
            "yao": 672,
            "jes": 673,
            "uz": 674,
            "dw": 675,
            "mya": 676,
            "skar": 677,
            "abub": 678,
            "dwi": 679,
            "owar": 680,
            "umi": 681,
            "lay": 682,
            "ct": 683,
            "ham": 684,
            "sya": 685,
            "eka": 686,
            "ranji": 687,
            "athi": 688,
            "bhar": 689,
            "tha": 690,
            "hn": 691,
            "aya": 692,
            "cah": 693,
            "zhu": 694,
            "dal": 695,
            "gdal": 696,
            "magdal": 697,
            "sc": 698,
            "sng": 699,
            "dha": 700,
            "hed": 701,
            "mok": 702,
            "mehed": 703,
            "arajan": 704,
            "vet": 705,
            "iul": 706,
            "ini": 707,
            "iya": 708,
            "kand": 709,
            "piah": 710,
            "iskand": 711,
            "periya": 712,
            "ksh": 713,
            "ery": 714,
            "manan": 715,
            "inal": 716,
            "ful": 717,
            "raful": 718,
            "xie": 719,
            "dhar": 720,
            "koo": 721,
            "asu": 722,
            "ht": 723,
            "ickam": 724,
            "lew": 725,
            "hul": 726,
            "wsar": 727,
            "tey": 728,
            "ada": 729,
            "ilah": 730,
            "sago": 731,
            "keyan": 732,
            "wah": 733,
            "imi": 734,
            "suha": 735,
            "qin": 736,
            "shai": 737,
            "gao": 738,
            "ayyap": 739,
            "daw": 740,
            "ivasan": 741,
            "how": 742,
            "nyi": 743,
            "fau": 744,
            "ziah": 745,
            "bi": 746,
            "plo": 747,
            "biplo": 748,
            "tty": 749,
            "elang": 750,
            "pala": 751,
            "lum": 752,
            "thang": 753,
            "hoo": 754,
            "fo": 755,
            "vad": 756,
            "roh": 757,
            "ore": 758,
            "sing": 759,
            "apore": 760,
            "dil": 761,
            "kif": 762,
            "aling": 763,
            "ramaling": 764,
            "zulkif": 765,
            "try": 766,
            "hri": 767,
            "lye": 768,
            "hoe": 769,
            "doy": 770,
            "luo": 771,
            "tok": 772,
            "yc": 773,
            "ariv": 774,
            "hla": 775,
            "leh": 776,
            "mdm": 777,
            "paiah": 778,
            "kyi": 779,
            "nwe": 780
        },
        "merges": [
            "a n",
            "i n",
            "e n",
            "o n",
            "a r",
            "c h",
            "a m",
            "e l",
            "a l",
            "e r",
            "t h",
            "s h",
            "r a",
            "l i",
            "o h",
            "r i",
            "l e",
            "m d",
            "m a",
            "j a",
            "on g",
            "an g",
            "j o",
            "i c",
            "e s",
            "u l",
            "in e",
            "m u",
            "an d",
            "s t",
            "i e",
            "v i",
            "t an",
            "v in",
            "u n",
            "m ar",
            "r e",
            "a h",
            "an n",
            "s a",
            "i r",
            "i m",
            "en n",
            "l y",
            "an i",
            "d a",
            "m i",
            "r y",
            "s u",
            "li m",
            "p h",
            "i a",
            "s e",
            "c e",
            "c k",
            "i l",
            "le e",
            "a b",
            "e d",
            "m oh",
            "l a",
            "s on",
            "u r",
            "in g",
            "en e",
            "n g",
            "mu h",
            "en g",
            "y a",
            "i v",
            "l o",
            "e i",
            "r o",
            "i s",
            "ma d",
            "n ur",
            "k ar",
            "e o",
            "e t",
            "e v",
            "d y",
            "s am",
            "j am",
            "j oh",
            "r am",
            "l in",
            "n a",
            "ra j",
            "i f",
            "m on",
            "k a",
            "am mad",
            "p a",
            "r an",
            "h o",
            "ic e",
            "u a",
            "e sh",
            "ar d",
            "th i",
            "m y",
            "s an",
            "j an",
            "t i",
            "h a",
            "vi d",
            "s ar",
            "k el",
            "e w",
            "in a",
            "th er",
            "a d",
            "r en",
            "e e",
            "t ri",
            "k u",
            "es s",
            "a i",
            "r u",
            "b en",
            "o o",
            "j e",
            "j u",
            "w in",
            "s i",
            "st ev",
            "en t",
            "a y",
            "w il",
            "i an",
            "k e",
            "ly n",
            "e x",
            "s el",
            "s im",
            "jo y",
            "le y",
            "b er",
            "c y",
            "a el",
            "y l",
            "ma y",
            "ch o",
            "g an",
            "w en",
            "al a",
            "s al",
            "ab d",
            "g oh",
            "on y",
            "th u",
            "moh am",
            "ra y",
            "ja s",
            "y u",
            "c a",
            "iv a",
            "p et",
            "v e",
            "ja y",
            "c ent",
            "h u",
            "f i",
            "jo e",
            "el y",
            "d ar",
            "c in",
            "sel v",
            "j er",
            "f f",
            "j un",
            "on a",
            "t o",
            "un g",
            "an th",
            "n an",
            "k oh",
            "v an",
            "z h",
            "on n",
            "g ra",
            "p ra",
            "t eo",
            "ri s",
            "g ar",
            "sh a",
            "e th",
            "n y",
            "n ic",
            "m ine",
            "n i",
            "k h",
            "ther ine",
            "u s",
            "th o",
            "ra h",
            "re y",
            "y an",
            "l u",
            "ely n",
            "d o",
            "s oh",
            "i b",
            "s k",
            "ren ce",
            "w ei",
            "ch er",
            "v ic",
            "ic a",
            "y eo",
            "j im",
            "s un",
            "s en",
            "th il",
            "am y",
            "k en",
            "g er",
            "t ay",
            "al i",
            "if er",
            "ma s",
            "s er",
            "ab u",
            "k o",
            "b o",
            "iv y",
            "la s",
            "cho las",
            "h el",
            "ch ar",
            "lo w",
            "h en",
            "l an",
            "d es",
            "m el",
            "e ph",
            "al d",
            "i li",
            "es an",
            "ic ia",
            "a g",
            "t er",
            "k im",
            "c is",
            "k am",
            "la i",
            "w n",
            "a sh",
            "s o",
            "z a",
            "l am",
            "ro y",
            "h ar",
            "c us",
            "jam in",
            "p u",
            "la w",
            "v onn",
            "y vonn",
            "b r",
            "ya p",
            "t oh",
            "st in",
            "e my",
            "d er",
            "o th",
            "o le",
            "m an",
            "e u",
            "p al",
            "en ce",
            "pra b",
            "f an",
            "y i",
            "n o",
            "e k",
            "t e",
            "h an",
            "r in",
            "sh ua",
            "l oh",
            "e mi",
            "to r",
            "le s",
            "g g",
            "ber n",
            "a p",
            "u el",
            "s ri",
            "m in",
            "q u",
            "k ri",
            "ru b",
            "d an",
            "oo r",
            "n es",
            "d enn",
            "w ee",
            "ar a",
            "x u",
            "p and",
            "g u",
            "s sa",
            "ho ssa",
            "k ann",
            "sa thi",
            "m o",
            "ma t",
            "to m",
            "ka sh",
            "f ar",
            "am and",
            "k ya",
            "y en",
            "w ar",
            "g a",
            "ma h",
            "vi er",
            "d ann",
            "w an",
            "c ia",
            "n ie",
            "sa k",
            "ev a",
            "t a",
            "p e",
            "i d",
            "n eo",
            "le o",
            "onn ie",
            "t in",
            "ro b",
            "hu i",
            "ma su",
            "b e",
            "fi q",
            "n e",
            "c ar",
            "o l",
            "m ei",
            "ch lo",
            "li u",
            "o ph",
            "i z",
            "v en",
            "and ra",
            "ka t",
            "k ha",
            "s ie",
            "c l",
            "x ia",
            "ph ili",
            "a u",
            "g am",
            "mu gam",
            "p rin",
            "na z",
            "y e",
            "f lo",
            "bo b",
            "n d",
            "mu nd",
            "an ie",
            "p er",
            "c elyn",
            "th ew",
            "x in",
            "p oh",
            "r ul",
            "sk y",
            "ch e",
            "n th",
            "cy nth",
            "d ie",
            "t am",
            "d en",
            "la u",
            "u is",
            "g o",
            "sam anth",
            "th ir",
            "f oo",
            "g e",
            "g eo",
            "r ge",
            "v el",
            "f el",
            "j ia",
            "e un",
            "j i",
            "b a",
            "ma x",
            "a z",
            "k ei",
            "g ab",
            "ri el",
            "ha z",
            "ja h",
            "i t",
            "d rey",
            "na t",
            "ka i",
            "j on",
            "t ra",
            "m am",
            "c ry",
            "st al",
            "k ho",
            "b u",
            "el iz",
            "ab eth",
            "ma il",
            "z al",
            "li an",
            "er a",
            "c ca",
            "u yen",
            "mar gar",
            "k y",
            "an ley",
            "ma gg",
            "o k",
            "ha o",
            "v al",
            "er ie",
            "c qu",
            "ja cqu",
            "t im",
            "w u",
            "oth y",
            "d ew",
            "f ai",
            "k al",
            "d on",
            "m e",
            "s y",
            "a vier",
            "t y",
            "am im",
            "za w",
            "d am",
            "w ai",
            "b al",
            "a c",
            "i sa",
            "j ie",
            "d ine",
            "su b",
            "v ely",
            "ca s",
            "my o",
            "a ti",
            "st on",
            "y ee",
            "m ed",
            "p le",
            "z ul",
            "no r",
            "j in",
            "ir ul",
            "v er",
            "on ica",
            "ay e",
            "in d",
            "t on",
            "c il",
            "p ris",
            "h ab",
            "mo e",
            "n el",
            "an a",
            "y un",
            "k c",
            "d u",
            "ra i",
            "sa br",
            "fiq ul",
            "c lai",
            "sa w",
            "r on",
            "p ri",
            "u k",
            "gg y",
            "f re",
            "al fre",
            "d ia",
            "u mugam",
            "w ay",
            "sh oh",
            "so e",
            "h ua",
            "i q",
            "t if",
            "i ah",
            "d ran",
            "z an",
            "t ee",
            "g un",
            "se e",
            "ri l",
            "m oor",
            "p an",
            "c o",
            "da ph",
            "ko k",
            "ph ia",
            "m ul",
            "es a",
            "sa i",
            "r dan",
            "and an",
            "ay u",
            "b et",
            "g el",
            "s ir",
            "j en",
            "na w",
            "b un",
            "c le",
            "i ang",
            "m ent",
            "p on",
            "ch u",
            "ang ir",
            "su e",
            "ma i",
            "i se",
            "o y",
            "al oy",
            "si us",
            "h ann",
            "s yl",
            "vi a",
            "ro s",
            "lo o",
            "o me",
            "li e",
            "k i",
            "iv el",
            "ar ence",
            "na y",
            "b y",
            "e y",
            "h on",
            "sh i",
            "k ie",
            "y in",
            "le i",
            "sh ei",
            "b ee",
            "k ab",
            "o w",
            "ram ani",
            "te h",
            "g l",
            "k s",
            "ic t",
            "ed ict",
            "zh i",
            "z ai",
            "g ir",
            "ha fi",
            "j ew",
            "w e",
            "z ho",
            "na gar",
            "nagar a",
            "r ali",
            "o on",
            "z in",
            "p re",
            "p ei",
            "k w",
            "ja i",
            "gu o",
            "i en",
            "j ib",
            "san tho",
            "th y",
            "s rin",
            "u p",
            "kar up",
            "pe h",
            "xu e",
            "q i",
            "th ic",
            "kar thic",
            "t un",
            "s oo",
            "am ad",
            "f ei",
            "g n",
            "vi gn",
            "e be",
            "o ebe",
            "en dran",
            "s in",
            "c ai",
            "e in",
            "yu e",
            "bo y",
            "ve en",
            "k ee",
            "m al",
            "u mal",
            "oo i",
            "l on",
            "ry a",
            "z i",
            "p i",
            "d in",
            "y o",
            "f u",
            "in t",
            "yi p",
            "f ir",
            "k ir",
            "sh u",
            "d dam",
            "y ew",
            "b il",
            "k ib",
            "l al",
            "vi ve",
            "d e",
            "th ya",
            "ro wen",
            "a w",
            "selv ara",
            "in ul",
            "w oo",
            "et te",
            "th ivel",
            "s g",
            "ro sal",
            "ry l",
            "a is",
            "y ah",
            "li s",
            "ph yl",
            "ya o",
            "j es",
            "u z",
            "d w",
            "m ya",
            "s kar",
            "abu b",
            "dw i",
            "o war",
            "u mi",
            "la y",
            "c t",
            "h am",
            "s ya",
            "e ka",
            "ran ji",
            "a thi",
            "b har",
            "th a",
            "h n",
            "a ya",
            "c ah",
            "z hu",
            "d al",
            "g dal",
            "ma gdal",
            "s c",
            "s ng",
            "d ha",
            "h ed",
            "mo k",
            "me hed",
            "ara jan",
            "v et",
            "i ul",
            "in i",
            "i ya",
            "k and",
            "p iah",
            "is kand",
            "per iya",
            "k sh",
            "er y",
            "man an",
            "in al",
            "f ul",
            "ra ful",
            "x ie",
            "d har",
            "k oo",
            "a su",
            "h t",
            "ic kam",
            "le w",
            "h ul",
            "w sar",
            "te y",
            "a da",
            "il ah",
            "sa go",
            "ke yan",
            "w ah",
            "im i",
            "su ha",
            "q in",
            "sh ai",
            "ga o",
            "ay yap",
            "da w",
            "iva san",
            "ho w",
            "ny i",
            "f au",
            "z iah",
            "b i",
            "p lo",
            "bi plo",
            "t ty",
            "el ang",
            "p ala",
            "lu m",
            "th ang",
            "ho o",
            "f o",
            "v ad",
            "r oh",
            "o re",
            "s ing",
            "ap ore",
            "d il",
            "k if",
            "al ing",
            "ram aling",
            "zul kif",
            "t ry",
            "h ri",
            "ly e",
            "ho e",
            "do y",
            "lu o",
            "to k",
            "y c",
            "ar iv",
            "h la",
            "le h",
            "md m",
            "pa iah",
            "k yi",
            "n we"
        ]
    }
}