{
  "version": "1.0",
  "truncation": null,
  "padding": null,
  "added_tokens": [
    {
      "id": 0,
      "content": "[UNK]",
      "single_word": false,
      "lstrip": false,
      "rstrip": false,
      "normalized": false,
      "special": true
    },
    {
      "id": 1,
      "content": "[CLS]",
      "single_word": false,
      "lstrip": false,
      "rstrip": false,
      "normalized": false,
      "special": true
    },
    {
      "id": 2,
      "content": "[SEP]",
      "single_word": false,
      "lstrip": false,
      "rstrip": false,
      "normalized": false,
      "special": true
    },
    {
      "id": 3,
      "content": "[PAD]",
      "single_word": false,
      "lstrip": false,
      "rstrip": false,
      "normalized": false,
      "special": true
    },
    {
      "id": 4,
      "content": "[MASK]",
      "single_word": false,
      "lstrip": false,
      "rstrip": false,
      "normalized": false,
      "special": true
    }
  ],
  "normalizer": null,
  "pre_tokenizer": {
    "type": "Whitespace"
  },
  "post_processor": null,
  "decoder": null,
  "model": {
    "type": "BPE",
    "dropout": null,
    "unk_token": "[UNK]",
    "continuing_subword_prefix": null,
    "end_of_word_suffix": null,
    "fuse_unk": false,
    "vocab": {
      "[UNK]": 0,
      "[CLS]": 1,
      "[SEP]": 2,
      "[PAD]": 3,
      "[MASK]": 4,
      "-": 5,
      "a": 6,
      "b": 7,
      "c": 8,
      "d": 9,
      "e": 10,
      "f": 11,
      "g": 12,
      "h": 13,
      "i": 14,
      "j": 15,
      "k": 16,
      "l": 17,
      "m": 18,
      "n": 19,
      "o": 20,
      "p": 21,
      "q": 22,
      "r": 23,
      "s": 24,
      "t": 25,
      "u": 26,
      "v": 27,
      "w": 28,
      "x": 29,
      "y": 30,
      "z": 31,
      "an": 32,
      "ar": 33,
      "el": 34,
      "ia": 35,
      "in": 36,
      "mar": 37,
      "er": 38,
      "is": 39,
      "en": 40,
      "io": 41,
      "al": 42,
      "ic": 43,
      "on": 44,
      "jo": 45,
      "es": 46,
      "dr": 47,
      "la": 48,
      "at": 49,
      "lo": 50,
      "ana": 51,
      "il": 52,
      "se": 53,
      "car": 54,
      "lu": 55,
      "andr": 56,
      "co": 57,
      "maria": 58,
      "ie": 59,
      "ma": 60,
      "ra": 61,
      "ro": 62,
      "uel": 63,
      "do": 64,
      "ina": 65,
      "ant": 66,
      "ab": 67,
      "fr": 68,
      "jose": 69,
      "vi": 70,
      "to": 71,
      "pa": 72,
      "pe": 73,
      "da": 74,
      "fran": 75,
      "anton": 76,
      "ine": 77,
      "ri": 78,
      "man": 79,
      "te": 80,
      "ann": 81,
      "le": 82,
      "lau": 83,
      "ju": 84,
      "ta": 85,
      "mi": 86,
      "ris": 87,
      "franc": 88,
      "go": 89,
      "gi": 90,
      "ch": 91,
      "antonio": 92,
      "ric": 93,
      "manuel": 94,
      "ed": 95,
      "andre": 96,
      "im": 97,
      "ani": 98,
      "ara": 99,
      "sa": 100,
      "ber": 101,
      "rist": 102,
      "ca": 103,
      "ru": 104,
      "ian": 105,
      "re": 106,
      "ale": 107,
      "ela": 108,
      "joa": 109,
      "luis": 110,
      "dani": 111,
      "gio": 112,
      "ang": 113,
      "carlo": 114,
      "qu": 115,
      "us": 116,
      "ph": 117,
      "no": 118,
      "sandr": 119,
      "pau": 120,
      "iana": 121,
      "ren": 122,
      "ja": 123,
      "men": 124,
      "joao": 125,
      "ica": 126,
      "ico": 127,
      "dro": 128,
      "pedro": 129,
      "carlos": 130,
      "so": 131,
      "vid": 132,
      "david": 133,
      "isab": 134,
      "hel": 135,
      "th": 136,
      "alex": 137,
      "ardo": 138,
      "ol": 139,
      "mig": 140,
      "miguel": 141,
      "ena": 142,
      "anna": 143,
      "crist": 144,
      "rg": 145,
      "juan": 146,
      "mic": 147,
      "berto": 148,
      "pat": 149,
      "giu": 150,
      "angel": 151,
      "ili": 152,
      "francis": 153,
      "mo": 154,
      "ste": 155,
      "frances": 156,
      "clau": 157,
      "claud": 158,
      "ath": 159,
      "daniel": 160,
      "marco": 161,
      "na": 162,
      "jul": 163,
      "em": 164,
      "ppe": 165,
      "ce": 166,
      "isabel": 167,
      "sim": 168,
      "fab": 169,
      "ien": 170,
      "ales": 171,
      "luc": 172,
      "ier": 173,
      "sara": 174,
      "nico": 175,
      "ael": 176,
      "je": 177,
      "tor": 178,
      "fer": 179,
      "mon": 180,
      "am": 181,
      "francisco": 182,
      "riz": 183,
      "as": 184,
      "au": 185,
      "val": 186,
      "ser": 187,
      "patric": 188,
      "vier": 189,
      "jean": 190,
      "carmen": 191,
      "nan": 192,
      "sandra": 193,
      "van": 194,
      "ella": 195,
      "mas": 196,
      "vin": 197,
      "andrea": 198,
      "isa": 199,
      "cristina": 200,
      "ter": 201,
      "luca": 202,
      "laura": 203,
      "bru": 204,
      "jes": 205,
      "tia": 206,
      "zo": 207,
      "mari": 208,
      "nu": 209,
      "be": 210,
      "michel": 211,
      "fernan": 212,
      "que": 213,
      "son": 214,
      "me": 215,
      "ent": 216,
      "vic": 217,
      "mario": 218,
      "giuse": 219,
      "mat": 220,
      "ben": 221,
      "raf": 222,
      "de": 223,
      "cat": 224,
      "ros": 225,
      "cel": 226,
      "alv": 227,
      "sil": 228,
      "francesco": 229,
      "bruno": 230,
      "giuseppe": 231,
      "paulo": 232,
      "christ": 233,
      "rge": 234,
      "fili": 235,
      "ver": 236,
      "marie": 237,
      "jorge": 238,
      "gu": 239,
      "pao": 240,
      "silv": 241,
      "ino": 242,
      "esa": 243,
      "rosa": 244,
      "ricardo": 245,
      "nicola": 246,
      "iano": 247,
      "pier": 248,
      "sergio": 249,
      "eder": 250,
      "fan": 251,
      "et": 252,
      "marta": 253,
      "giov": 254,
      "teresa": 255,
      "franco": 256,
      "id": 257,
      "fernando": 258,
      "gab": 259,
      "patricia": 260,
      "yl": 261,
      "ane": 262,
      "rui": 263,
      "loren": 264,
      "anni": 265,
      "sandro": 266,
      "adr": 267,
      "paula": 268,
      "simon": 269,
      "ines": 270,
      "sonia": 271,
      "javier": 272,
      "rita": 273,
      "gabri": 274,
      "stefan": 275,
      "roberto": 276,
      "mart": 277,
      "nuno": 278,
      "ique": 279,
      "carla": 280,
      "ria": 281,
      "min": 282,
      "fabio": 283,
      "tiago": 284,
      "alberto": 285,
      "jesus": 286,
      "beat": 287,
      "elena": 288,
      "ato": 289,
      "mau": 290,
      "silvia": 291,
      "claudia": 292,
      "ima": 293,
      "vinc": 294,
      "joana": 295,
      "dio": 296,
      "sof": 297,
      "salv": 298,
      "alessandro": 299,
      "die": 300,
      "cal": 301,
      "hu": 302,
      "sus": 303,
      "enzo": 304,
      "va": 305,
      "daniela": 306,
      "carol": 307,
      "quel": 308,
      "ari": 309,
      "ham": 310,
      "marg": 311,
      "aro": 312,
      "steph": 313,
      "rd": 314,
      "sofia": 315,
      "victor": 316,
      "del": 317,
      "marc": 318,
      "angela": 319,
      "fat": 320,
      "monica": 321,
      "emil": 322,
      "lucia": 323,
      "ger": 324,
      "pas": 325,
      "mel": 326,
      "tte": 327,
      "ne": 328,
      "valent": 329,
      "diogo": 330,
      "seb": 331,
      "giovanni": 332,
      "ilar": 333,
      "ton": 334,
      "michele": 335,
      "guil": 336,
      "hugo": 337,
      "arina": 338,
      "susana": 339,
      "ast": 340,
      "paolo": 341,
      "giul": 342,
      "syl": 343,
      "manuela": 344,
      "elle": 345,
      "nicolas": 346,
      "chris": 347,
      "zia": 348,
      "francesca": 349,
      "gian": 350,
      "gon": 351,
      "lou": 352,
      "fatima": 353,
      "luisa": 354,
      "sam": 355,
      "pierre": 356,
      "con": 357,
      "catarina": 358,
      "beatriz": 359,
      "cio": 360,
      "ul": 361,
      "massim": 362,
      "ry": 363,
      "ard": 364,
      "jer": 365,
      "valer": 366,
      "alexandre": 367,
      "lui": 368,
      "raquel": 369,
      "mariana": 370,
      "chi": 371,
      "ga": 372,
      "ti": 373,
      "alic": 374,
      "ise": 375,
      "gabriel": 376,
      "feder": 377,
      "rizio": 378,
      "edu": 379,
      "lauren": 380,
      "stefano": 381,
      "veron": 382,
      "rafael": 383,
      "ke": 384,
      "ene": 385,
      "nat": 386,
      "nath": 387,
      "oli": 388,
      "teo": 389,
      "sebast": 390,
      "aless": 391,
      "alie": 392,
      "eva": 393,
      "moham": 394,
      "toph": 395,
      "christoph": 396,
      "flo": 397,
      "christian": 398,
      "gra": 399,
      "luigi": 400,
      "filipe": 401,
      "ruben": 402,
      "paul": 403,
      "math": 404,
      "ivan": 405,
      "alia": 406,
      "or": 407,
      "andra": 408,
      "bar": 409,
      "atore": 410,
      "salvatore": 411,
      "lara": 412,
      "matteo": 413,
      "ali": 414,
      "ime": 415,
      "ario": 416,
      "max": 417,
      "ba": 418,
      "leon": 419,
      "anie": 420,
      "ge": 421,
      "phili": 422,
      "davide": 423,
      "joaqu": 424,
      "margari": 425,
      "mer": 426,
      "sab": 427,
      "ha": 428,
      "carolina": 429,
      "philippe": 430,
      "angelo": 431,
      "bara": 432,
      "barbara": 433,
      "jess": 434,
      "igo": 435,
      "andro": 436,
      "marina": 437,
      "nad": 438,
      "julien": 439,
      "rel": 440,
      "za": 441,
      "pilar": 442,
      "diego": 443,
      "omas": 444,
      "thomas": 445,
      "christophe": 446,
      "di": 447,
      "simone": 448,
      "elisab": 449,
      "her": 450,
      "daniele": 451,
      "vie": 452,
      "claudio": 453,
      "essa": 454,
      "vanessa": 455,
      "vincenzo": 456,
      "nel": 457,
      "tta": 458,
      "elisa": 459,
      "bel": 460,
      "mohamed": 461,
      "aurel": 462,
      "kevin": 463,
      "calo": 464,
      "rice": 465,
      "vitor": 466,
      "lil": 467,
      "tan": 468,
      "massimo": 469,
      "jac": 470,
      "rina": 471,
      "kar": 472,
      "ka": 473,
      "rene": 474,
      "domin": 475,
      "rober": 476,
      "mil": 477,
      "ora": 478,
      "jessica": 479,
      "nathalie": 480,
      "enri": 481,
      "alej": 482,
      "os": 483,
      "alexandra": 484,
      "lorenzo": 485,
      "goncalo": 486,
      "ain": 487,
      "freder": 488,
      "eduardo": 489,
      "onso": 490,
      "anne": 491,
      "gia": 492,
      "paola": 493,
      "virg": 494,
      "diana": 495,
      "enn": 496,
      "mich": 497,
      "margarida": 498,
      "elia": 499,
      "helena": 500,
      "eric": 501,
      "sebastien": 502,
      "valentina": 503,
      "chiara": 504,
      "antonella": 505,
      "julie": 506,
      "li": 507,
      "fonso": 508,
      "lor": 509,
      "sylvie": 510,
      "pab": 511,
      "pablo": 512,
      "giulia": 513,
      "char": 514,
      "cath": 515,
      "andreia": 516,
      "isabelle": 517,
      "samuel": 518,
      "virgin": 519,
      "stephane": 520,
      "tania": 521,
      "enrique": 522,
      "yo": 523,
      "gus": 524,
      "laurent": 525,
      "rodr": 526,
      "st": 527,
      "raul": 528,
      "patrick": 529,
      "cor": 530,
      "filipa": 531,
      "bern": 532,
      "riam": 533,
      "alejandro": 534,
      "cle": 535,
      "elo": 536,
      "ilde": 537,
      "jon": 538,
      "irene": 539,
      "phie": 540,
      "rodrigo": 541,
      "cil": 542,
      "oscar": 543,
      "eli": 544,
      "veronica": 545,
      "jord": 546,
      "claude": 547,
      "and": 548,
      "ly": 549,
      "vio": 550,
      "nadia": 551,
      "ieu": 552,
      "domen": 553,
      "sant": 554,
      "edo": 555,
      "alice": 556,
      "les": 557,
      "raff": 558,
      "ramon": 559,
      "christine": 560,
      "alvaro": 561,
      "cristian": 562,
      "sabrina": 563,
      "rdes": 564,
      "clemen": 565,
      "marisa": 566,
      "pp": 567,
      "alain": 568,
      "med": 569,
      "olivier": 570,
      "ome": 571,
      "anth": 572,
      "mary": 573,
      "antonia": 574,
      "nicole": 575,
      "laume": 576,
      "guillaume": 577,
      "cin": 578,
      "sophie": 579,
      "cecil": 580,
      "maurizio": 581,
      "sandrine": 582,
      "xa": 583,
      "camil": 584,
      "clara": 585,
      "main": 586,
      "thier": 587,
      "rian": 588,
      "raffael": 589,
      "emanuel": 590,
      "domenico": 591,
      "elisabe": 592,
      "ony": 593,
      "anthony": 594,
      "carm": 595,
      "celine": 596,
      "martina": 597,
      "romain": 598,
      "pascal": 599,
      "mauro": 600,
      "julia": 601,
      "liliana": 602,
      "francois": 603,
      "my": 604,
      "stephanie": 605,
      "mir": 606,
      "pie": 607,
      "alessandra": 608,
      "rizia": 609,
      "vincent": 610,
      "ire": 611,
      "anto": 612,
      "natalia": 613,
      "lucas": 614,
      "dominique": 615,
      "sarah": 616,
      "eu": 617,
      "frederic": 618,
      "maxime": 619,
      "gil": 620,
      "fernanda": 621,
      "thierry": 622,
      "marcel": 623,
      "ele": 624,
      "joaquim": 625,
      "valerie": 626,
      "adrian": 627,
      "inda": 628,
      "jerem": 629,
      "catia": 630,
      "federica": 631,
      "cy": 632,
      "rosario": 633,
      "eo": 634,
      "ve": 635,
      "toni": 636,
      "federico": 637,
      "ur": 638,
      "stefania": 639,
      "patrizia": 640,
      "enric": 641,
      "cardo": 642,
      "tomas": 643,
      "bert": 644,
      "bela": 645,
      "dal": 646,
      "jerome": 647,
      "riccardo": 648,
      "antoine": 649,
      "tro": 650,
      "ze": 651,
      "roberta": 652,
      "giovanna": 653,
      "rocio": 654,
      "gre": 655,
      "alessia": 656,
      "fa": 657,
      "emma": 658,
      "den": 659,
      "dami": 660,
      "der": 661,
      "auro": 662,
      "ud": 663,
      "pietro": 664,
      "erine": 665,
      "catherine": 666,
      "nes": 667,
      "celia": 668,
      "fla": 669,
      "adriana": 670,
      "ther": 671,
      "ano": 672,
      "dy": 673,
      "joh": 674,
      "alba": 675,
      "ey": 676,
      "alessio": 677,
      "fabien": 678,
      "mara": 679,
      "conce": 680,
      "vicen": 681,
      "martine": 682,
      "anda": 683,
      "tony": 684,
      "rafa": 685,
      "iane": 686,
      "simona": 687,
      "gabriele": 688,
      "athan": 689,
      "jonathan": 690,
      "ces": 691,
      "ves": 692,
      "qui": 693,
      "floren": 694,
      "lola": 695,
      "pasqu": 696,
      "it": 697,
      "leonardo": 698,
      "yann": 699,
      "ib": 700,
      "angeles": 701,
      "andres": 702,
      "rgio": 703,
      "giorgio": 704,
      "camille": 705,
      "gianluca": 706,
      "olga": 707,
      "clement": 708,
      "ah": 709,
      "yol": 710,
      "mag": 711,
      "franck": 712,
      "ludo": 713,
      "dolor": 714,
      "paco": 715,
      "cesar": 716,
      "ass": 717,
      "alicia": 718,
      "mont": 719,
      "nuria": 720,
      "vera": 721,
      "benja": 722,
      "gaet": 723,
      "etta": 724,
      "jeremy": 725,
      "francoise": 726,
      "gen": 727,
      "eugen": 728,
      "este": 729,
      "tom": 730,
      "anabela": 731,
      "alda": 732,
      "idia": 733,
      "alfonso": 734,
      "dric": 735,
      "cedric": 736,
      "aurelie": 737,
      "benjamin": 738,
      "kael": 739,
      "paqui": 740,
      "ya": 741,
      "feli": 742,
      "alexis": 743,
      "miriam": 744,
      "ppo": 745,
      "adel": 746,
      "gianni": 747,
      "bora": 748,
      "debora": 749,
      "pasquale": 750,
      "dalena": 751,
      "inma": 752,
      "jordi": 753,
      "veronique": 754,
      "vicente": 755,
      "joel": 756,
      "belen": 757,
      "mathieu": 758,
      "jenn": 759,
      "ced": 760,
      "fabrizio": 761,
      "zi": 762,
      "julio": 763,
      "emilie": 764,
      "ad": 765,
      "lea": 766,
      "yolanda": 767,
      "tat": 768,
      "tatiana": 769,
      "elodie": 770,
      "est": 771,
      "glo": 772,
      "lina": 773,
      "gloria": 774,
      "quent": 775,
      "virginie": 776,
      "quentin": 777,
      "via": 778,
      "enrico": 779,
      "lidia": 780,
      "arman": 781,
      "mattia": 782,
      "dolores": 783,
      "fredo": 784,
      "nelson": 785,
      "marcos": 786,
      "javi": 787,
      "tiz": 788,
      "uri": 789,
      "arna": 790,
      "grazia": 791,
      "emanuele": 792,
      "merced": 793,
      "mercedes": 794,
      "kat": 795,
      "tin": 796,
      "louis": 797,
      "florian": 798,
      "jaime": 799,
      "helder": 800,
      "aria": 801,
      "gius": 802,
      "ag": 803,
      "manon": 804,
      "un": 805,
      "vo": 806,
      "esther": 807,
      "lorena": 808,
      "did": 809,
      "xavier": 810,
      "lene": 811,
      "issa": 812,
      "valentin": 813,
      "raffaele": 814,
      "ko": 815,
      "ida": 816,
      "drey": 817,
      "audrey": 818,
      "mickael": 819,
      "michael": 820,
      "alfredo": 821,
      "marine": 822,
      "emilio": 823,
      "beatrice": 824,
      "laet": 825,
      "laeti": 826,
      "gerard": 827,
      "ho": 828,
      "rach": 829,
      "ques": 830,
      "vas": 831,
      "elsa": 832,
      "valeria": 833,
      "michela": 834,
      "didier": 835,
      "alo": 836,
      "luciano": 837,
      "yne": 838,
      "filippo": 839,
      "loli": 840,
      "ki": 841,
      "dine": 842,
      "ahmed": 843,
      "leo": 844,
      "dario": 845,
      "lan": 846,
      "emmanuel": 847,
      "jacques": 848,
      "ril": 849,
      "caroline": 850,
      "cla": 851,
      "claire": 852,
      "victoria": 853,
      "christelle": 854,
      "lia": 855,
      "damien": 856,
      "bernard": 857,
      "amel": 858,
      "laetitia": 859,
      "bri": 860,
      "brigi": 861,
      "wil": 862,
      "manu": 863,
      "marion": 864,
      "helene": 865,
      "martin": 866,
      "melanie": 867,
      "ado": 868,
      "leonor": 869,
      "vit": 870,
      "aman": 871,
      "pauline": 872,
      "eri": 873,
      "arnaud": 874,
      "mena": 875,
      "renato": 876,
      "laurence": 877,
      "ick": 878,
      "katia": 879,
      "grego": 880,
      "marian": 881,
      "cyril": 882,
      "emilia": 883,
      "alina": 884,
      "inne": 885,
      "lurdes": 886,
      "corinne": 887,
      "fi": 888,
      "antal": 889,
      "chantal": 890,
      "phine": 891,
      "giaco": 892,
      "mael": 893,
      "aurora": 894,
      "ita": 895,
      "bruna": 896,
      "francisca": 897,
      "encar": 898,
      "cha": 899,
      "guilher": 900,
      "montse": 901,
      "ross": 902,
      "loe": 903,
      "anais": 904,
      "giacomo": 905,
      "brigitte": 906,
      "sylva": 907,
      "ilaria": 908,
      "don": 909,
      "ci": 910,
      "caro": 911,
      "armando": 912,
      "ig": 913,
      "vittor": 914,
      "du": 915,
      "elisabete": 916,
      "ou": 917,
      "art": 918,
      "joaquin": 919,
      "noe": 920,
      "morg": 921,
      "theo": 922,
      "guilherme": 923,
      "adrien": 924,
      "sylvain": 925,
      "geo": 926,
      "matilde": 927,
      "tina": 928,
      "lisa": 929,
      "mila": 930,
      "igna": 931,
      "cecilia": 932,
      "eleon": 933,
      "mano": 934,
      "karim": 935,
      "denis": 936,
      "iago": 937,
      "tis": 938,
      "piero": 939,
      "cinzia": 940,
      "cris": 941,
      "giorg": 942,
      "carmela": 943,
      "giorgia": 944,
      "pepe": 945,
      "ile": 946,
      "henrique": 947,
      "tiziana": 948,
      "bernardo": 949,
      "karine": 950,
      "conchi": 951,
      "john": 952,
      "roger": 953,
      "chloe": 954,
      "per": 955,
      "pep": 956,
      "noelia": 957,
      "iliano": 958,
      "massimiliano": 959,
      "giusy": 960,
      "delphine": 961,
      "virginia": 962,
      "fred": 963,
      "mina": 964,
      "ptis": 965,
      "baptis": 966,
      "baptiste": 967,
      "he": 968,
      "omar": 969,
      "fabrice": 970,
      "oit": 971,
      "benoit": 972,
      "cecile": 973,
      "afonso": 974,
      "thib": 975,
      "thibau": 976,
      "aldo": 977,
      "falda": 978,
      "mafalda": 979,
      "florence": 980,
      "melissa": 981,
      "lucie": 982,
      "loic": 983,
      "gaetano": 984,
      "ietta": 985,
      "eleonora": 986,
      "sora": 987,
      "ada": 988,
      "ifer": 989,
      "jennifer": 990,
      "dou": 991,
      "monique": 992,
      "melo": 993,
      "gis": 994,
      "lomena": 995,
      "filomena": 996,
      "yves": 997,
      "ludovic": 998,
      "mathilde": 999,
      "ite": 1000,
      "lourdes": 1001,
      "arte": 1002,
      "vasco": 1003,
      "anny": 1004,
      "gabriela": 1005,
      "erina": 1006,
      "lotte": 1007,
      "caterina": 1008,
      "charlotte": 1009,
      "albert": 1010,
      "joan": 1011,
      "flavio": 1012,
      "duarte": 1013,
      "zio": 1014,
      "annie": 1015,
      "gusta": 1016,
      "icao": 1017,
      "santiago": 1018,
      "conceicao": 1019,
      "mire": 1020,
      "maril": 1021,
      "enza": 1022,
      "maribel": 1023,
      "fina": 1024,
      "kel": 1025,
      "emanuela": 1026,
      "madalena": 1027,
      "robert": 1028,
      "gilles": 1029,
      "linda": 1030,
      "dyl": 1031,
      "dylan": 1032,
      "elisabeth": 1033,
      "sal": 1034,
      "ismael": 1035,
      "serena": 1036,
      "marcia": 1037,
      "vito": 1038,
      "matth": 1039,
      "rosaria": 1040,
      "fanny": 1041,
      "dan": 1042,
      "silvana": 1043,
      "flor": 1044,
      "erika": 1045,
      "amandine": 1046,
      "paro": 1047,
      "amparo": 1048,
      "ata": 1049,
      "gina": 1050,
      "carole": 1051,
      "pasc": 1052,
      "elisabetta": 1053,
      "myriam": 1054,
      "vania": 1055,
      "ea": 1056,
      "su": 1057,
      "carmelo": 1058,
      "raph": 1059,
      "carina": 1060,
      "noemi": 1061,
      "just": 1062,
      "agnes": 1063,
      "tel": 1064,
      "antonietta": 1065,
      "domingo": 1066,
      "mirko": 1067,
      "salvado": 1068,
      "salvador": 1069,
      "genn": 1070,
      "nina": 1071,
      "meh": 1072,
      "agus": 1073,
      "nadine": 1074,
      "herve": 1075,
      "carmine": 1076,
      "gabriella": 1077,
      "cristiana": 1078,
      "gael": 1079,
      "said": 1080,
      "adriano": 1081,
      "justine": 1082,
      "maite": 1083,
      "angelique": 1084,
      "ax": 1085,
      "manolo": 1086,
      "mim": 1087,
      "raphael": 1088,
      "rute": 1089,
      "edana": 1090,
      "loredana": 1091,
      "josep": 1092,
      "mberto": 1093,
      "maso": 1094,
      "tommaso": 1095,
      "dina": 1096,
      "vivi": 1097,
      "sever": 1098,
      "severine": 1099,
      "serge": 1100,
      "aurelien": 1101,
      "oce": 1102,
      "rachid": 1103,
      "oceane": 1104,
      "leandro": 1105,
      "ignacio": 1106,
      "ciro": 1107,
      "annamaria": 1108,
      "jordan": 1109,
      "charles": 1110,
      "nade": 1111,
      "lio": 1112,
      "anita": 1113,
      "giancarlo": 1114,
      "fio": 1115,
      "hard": 1116,
      "richard": 1117,
      "bened": 1118,
      "patrice": 1119,
      "morgane": 1120,
      "matthieu": 1121,
      "pepi": 1122,
      "muri": 1123,
      "felix": 1124,
      "adela": 1125,
      "danilo": 1126,
      "laure": 1127,
      "elyne": 1128,
      "eugenia": 1129,
      "ila": 1130,
      "tamara": 1131,
      "amelia": 1132,
      "rossella": 1133,
      "liam": 1134,
      "william": 1135,
      "rosanna": 1136,
      "marcello": 1137,
      "cristiano": 1138,
      "graca": 1139,
      "marlene": 1140,
      "lette": 1141,
      "pina": 1142,
      "guy": 1143,
      "rah": 1144,
      "remi": 1145,
      "cons": 1146,
      "wal": 1147,
      "amelie": 1148,
      "franca": 1149,
      "luciana": 1150,
      "annal": 1151,
      "encarna": 1152,
      "nun": 1153,
      "ray": 1154,
      "laur": 1155,
      "ky": 1156,
      "cion": 1157,
      "icia": 1158,
      "vittorio": 1159,
      "gustavo": 1160,
      "josefa": 1161,
      "fabienne": 1162,
      "yannick": 1163,
      "arianna": 1164,
      "juani": 1165,
      "annalisa": 1166,
      "juana": 1167,
      "ello": 1168,
      "cathy": 1169,
      "ner": 1170,
      "giada": 1171,
      "gregory": 1172,
      "ban": 1173,
      "gema": 1174,
      "pascale": 1175,
      "valerio": 1176,
      "julian": 1177,
      "simo": 1178,
      "rebe": 1179,
      "cindy": 1180,
      "eugenio": 1181,
      "fo": 1182,
      "lfo": 1183,
      "ange": 1184,
      "giulio": 1185,
      "judi": 1186,
      "denise": 1187,
      "augus": 1188,
      "mehdi": 1189,
      "ev": 1190,
      "line": 1191,
      "cco": 1192,
      "ler": 1193,
      "guiller": 1194,
      "guillermo": 1195,
      "mariano": 1196,
      "aline": 1197,
      "luana": 1198,
      "abdel": 1199,
      "elvi": 1200,
      "elvira": 1201,
      "nerea": 1202,
      "arth": 1203,
      "arthur": 1204,
      "cia": 1205,
      "nie": 1206,
      "nieves": 1207,
      "raffaella": 1208,
      "gennaro": 1209,
      "estelle": 1210,
      "marcelo": 1211,
      "begon": 1212,
      "begona": 1213,
      "rocco": 1214,
      "queline": 1215,
      "ago": 1216,
      "agost": 1217,
      "ido": 1218,
      "marianna": 1219,
      "zalo": 1220,
      "antonino": 1221,
      "che": 1222,
      "gonzalo": 1223,
      "gar": 1224,
      "ille": 1225,
      "evelyne": 1226,
      "rahim": 1227,
      "maric": 1228,
      "ernes": 1229,
      "ernesto": 1230,
      "margher": 1231,
      "margherita": 1232,
      "ai": 1233,
      "manoli": 1234,
      "pili": 1235,
      "artur": 1236,
      "christiane": 1237,
      "dia": 1238,
      "gh": 1239,
      "lionel": 1240,
      "axel": 1241,
      "gw": 1242,
      "nic": 1243,
      "gianfranco": 1244,
      "madou": 1245,
      "bea": 1246,
      "agustin": 1247,
      "ivo": 1248,
      "cho": 1249,
      "nacho": 1250,
      "aurore": 1251,
      "florent": 1252,
      "felipe": 1253,
      "fel": 1254,
      "salvo": 1255,
      "claudine": 1256,
      "igor": 1257,
      "ni": 1258,
      "rand": 1259,
      "noem": 1260,
      "armen": 1261,
      "ty": 1262,
      "yous": 1263,
      "jacqueline": 1264,
      "edgar": 1265,
      "donat": 1266,
      "pino": 1267,
      "marcio": 1268,
      "dany": 1269,
      "angelica": 1270,
      "ryan": 1271,
      "margarita": 1272,
      "rafaela": 1273,
      "bo": 1274,
      "bia": 1275,
      "deborah": 1276,
      "ette": 1277,
      "magali": 1278,
      "erica": 1279,
      "lena": 1280,
      "iv": 1281,
      "luz": 1282,
      "flavia": 1283,
      "geral": 1284,
      "tere": 1285,
      "samuele": 1286,
      "coren": 1287,
      "corentin": 1288,
      "kh": 1289,
      "rob": 1290,
      "grazi": 1291,
      "augusto": 1292,
      "giusepp": 1293,
      "mohammed": 1294,
      "giuseppina": 1295,
      "bal": 1296,
      "donatella": 1297,
      "mariang": 1298,
      "adam": 1299,
      "uro": 1300,
      "concetta": 1301,
      "can": 1302,
      "may": 1303,
      "vanesa": 1304,
      "juliette": 1305,
      "miha": 1306,
      "edoardo": 1307,
      "blan": 1308,
      "blanca": 1309,
      "sol": 1310,
      "gerardo": 1311,
      "ilio": 1312,
      "nella": 1313,
      "graziella": 1314,
      "ias": 1315,
      "hass": 1316,
      "anis": 1317,
      "nathan": 1318,
      "hassan": 1319,
      "cu": 1320,
      "mica": 1321,
      "din": 1322,
      "rose": 1323,
      "aitor": 1324,
      "gemma": 1325,
      "ctor": 1326,
      "pha": 1327,
      "hector": 1328,
      "enia": 1329,
      "sef": 1330,
      "youssef": 1331,
      "michelle": 1332,
      "umberto": 1333,
      "dad": 1334,
      "rella": 1335,
      "maris": 1336,
      "you": 1337,
      "usta": 1338,
      "soraia": 1339,
      "ilia": 1340,
      "elise": 1341,
      "dul": 1342,
      "dulce": 1343,
      "remy": 1344,
      "ticia": 1345,
      "leticia": 1346,
      "bast": 1347,
      "ion": 1348,
      "bastien": 1349,
      "muriel": 1350,
      "khal": 1351,
      "gaelle": 1352,
      "rin": 1353,
      "jos": 1354,
      "jeanpierre": 1355,
      "sebastian": 1356,
      "renata": 1357,
      "fabiana": 1358,
      "mimmo": 1359,
      "danielle": 1360,
      "juliana": 1361,
      "emmanuelle": 1362,
      "irina": 1363,
      "lt": 1364,
      "annick": 1365,
      "peran": 1366,
      "thibault": 1367,
      "maricarmen": 1368,
      "gino": 1369,
      "aux": 1370,
      "abel": 1371,
      "bor": 1372,
      "borja": 1373,
      "joelle": 1374,
      "po": 1375,
      "rat": 1376,
      "charo": 1377,
      "ester": 1378,
      "dora": 1379,
      "jaco": 1380,
      "coralie": 1381,
      "elie": 1382,
      "riane": 1383,
      "gaetan": 1384,
      "rid": 1385,
      "lar": 1386,
      "imo": 1387,
      "yoh": 1388,
      "gine": 1389,
      "juanjo": 1390,
      "ay": 1391,
      "palo": 1392,
      "maeva": 1393,
      "paloma": 1394,
      "georg": 1395,
      "ide": 1396,
      "lada": 1397,
      "manel": 1398,
      "nicoletta": 1399,
      "inmacu": 1400,
      "inmaculada": 1401,
      "giuliano": 1402,
      "sabine": 1403,
      "mane": 1404,
      "arturo": 1405,
      "lili": 1406,
      "abe": 1407,
      "samant": 1408,
      "esperan": 1409,
      "marisol": 1410,
      "nino": 1411,
      "pepa": 1412,
      "mireille": 1413,
      "musta": 1414,
      "ac": 1415,
      "sami": 1416,
      "momo": 1417,
      "cristo": 1418,
      "rodo": 1419,
      "land": 1420,
      "esteban": 1421,
      "noemie": 1422,
      "jenny": 1423,
      "walter": 1424,
      "celeste": 1425,
      "nata": 1426,
      "nicolo": 1427,
      "valter": 1428,
      "santi": 1429,
      "silvio": 1430,
      "jim": 1431,
      "isabella": 1432,
      "des": 1433,
      "moren": 1434,
      "faus": 1435,
      "pia": 1436,
      "margaux": 1437,
      "giuliana": 1438,
      "ira": 1439,
      "peppe": 1440,
      "mu": 1441,
      "ven": 1442,
      "steven": 1443,
      "jocel": 1444,
      "ussa": 1445,
      "mariella": 1446,
      "jocelyne": 1447,
      "alejandra": 1448,
      "hic": 1449,
      "assun": 1450,
      "sole": 1451,
      "lino": 1452,
      "yass": 1453,
      "candi": 1454,
      "guido": 1455,
      "rogerio": 1456,
      "nunzia": 1457,
      "azi": 1458,
      "aziz": 1459,
      "adeline": 1460,
      "vanda": 1461,
      "esperanza": 1462,
      "sima": 1463,
      "tri": 1464,
      "simao": 1465,
      "mali": 1466,
      "georges": 1467,
      "isla": 1468,
      "soraya": 1469,
      "ama": 1470,
      "aida": 1471,
      "mamadou": 1472,
      "riana": 1473,
      "france": 1474,
      "yoann": 1475,
      "clemence": 1476,
      "elio": 1477,
      "fania": 1478,
      "estefania": 1479,
      "mad": 1480,
      "gaia": 1481,
      "rebeca": 1482,
      "arda": 1483,
      "amalia": 1484,
      "louise": 1485,
      "leti": 1486,
      "letizia": 1487,
      "ainho": 1488,
      "lydia": 1489,
      "ainhoa": 1490,
      "joseph": 1491,
      "carlota": 1492,
      "ienne": 1493,
      "inha": 1494,
      "domingos": 1495,
      "iol": 1496,
      "telma": 1497,
      "aron": 1498,
      "natacha": 1499,
      "zabe": 1500,
      "elizabe": 1501,
      "bertrand": 1502,
      "martim": 1503,
      "milena": 1504,
      "felic": 1505,
      "olivia": 1506,
      "adelaide": 1507,
      "hamza": 1508,
      "frederico": 1509,
      "bian": 1510,
      "carine": 1511,
      "bianca": 1512,
      "amine": 1513,
      "bryan": 1514,
      "magda": 1515,
      "ander": 1516,
      "marika": 1517,
      "vittoria": 1518,
      "giam": 1519,
      "inho": 1520,
      "iris": 1521,
      "vero": 1522,
      "orlan": 1523,
      "orlando": 1524,
      "cosimo": 1525,
      "jimmy": 1526,
      "donato": 1527,
      "ises": 1528,
      "carmo": 1529,
      "moises": 1530,
      "jeanne": 1531,
      "sebastiano": 1532,
      "nadege": 1533,
      "imma": 1534,
      "marius": 1535,
      "dino": 1536,
      "sergi": 1537,
      "ffr": 1538,
      "mud": 1539,
      "almud": 1540,
      "ffrey": 1541,
      "almudena": 1542,
      "ese": 1543,
      "therese": 1544,
      "encarni": 1545,
      "lolo": 1546,
      "samir": 1547,
      "rosy": 1548,
      "eduarda": 1549,
      "marilena": 1550,
      "assunta": 1551,
      "ilda": 1552,
      "ito": 1553,
      "rosi": 1554,
      "josiane": 1555,
      "uelo": 1556,
      "consuelo": 1557,
      "jacopo": 1558,
      "yanis": 1559,
      "asun": 1560,
      "jeanluc": 1561,
      "xana": 1562,
      "rosalia": 1563,
      "serrat": 1564,
      "montserrat": 1565,
      "telmo": 1566,
      "lydie": 1567,
      "xavi": 1568,
      "christopher": 1569,
      "mayte": 1570,
      "clar": 1571,
      "leila": 1572,
      "mitri": 1573,
      "dimitri": 1574,
      "rio": 1575,
      "ume": 1576,
      "yas": 1577,
      "mid": 1578,
      "jaume": 1579,
      "hamid": 1580,
      "maryse": 1581,
      "viviana": 1582,
      "loris": 1583,
      "isaac": 1584,
      "moussa": 1585,
      "jeanclaude": 1586,
      "marga": 1587,
      "andy": 1588,
      "rado": 1589,
      "ceu": 1590,
      "samantha": 1591,
      "bil": 1592,
      "gwen": 1593,
      "verio": 1594,
      "ode": 1595,
      "camilla": 1596,
      "ghisla": 1597,
      "yes": 1598,
      "khalid": 1599,
      "jules": 1600,
      "etienne": 1601,
      "adele": 1602,
      "lucio": 1603,
      "cine": 1604,
      "far": 1605,
      "nelly": 1606,
      "henri": 1607,
      "oph": 1608,
      "hicham": 1609,
      "ophelie": 1610,
      "mery": 1611,
      "armin": 1612,
      "erw": 1613,
      "olinda": 1614,
      "maryl": 1615,
      "kelly": 1616,
      "stella": 1617,
      "robin": 1618,
      "grid": 1619,
      "ingrid": 1620,
      "solange": 1621,
      "emiliano": 1622,
      "damiano": 1623,
      "josefina": 1624,
      "bernade": 1625,
      "bernadette": 1626,
      "dorian": 1627,
      "cas": 1628,
      "gas": 1629,
      "sao": 1630,
      "graz": 1631,
      "etto": 1632,
      "ornella": 1633,
      "kim": 1634,
      "puri": 1635,
      "mireia": 1636,
      "od": 1637,
      "colette": 1638,
      "adolfo": 1639,
      "ivana": 1640,
      "vine": 1641,
      "ludi": 1642,
      "ludivine": 1643,
      "ence": 1644,
      "regis": 1645,
      "fati": 1646,
      "maxence": 1647,
      "thibaut": 1648,
      "cristobal": 1649,
      "jacin": 1650,
      "trin": 1651,
      "mirella": 1652,
      "alexia": 1653,
      "tty": 1654,
      "antonello": 1655,
      "corrado": 1656,
      "cesare": 1657,
      "jacky": 1658,
      "geraldine": 1659,
      "renzo": 1660,
      "nai": 1661,
      "las": 1662,
      "eliane": 1663,
      "aracel": 1664,
      "morgan": 1665,
      "araceli": 1666,
      "rosalba": 1667,
      "mikel": 1668,
      "juanma": 1669,
      "saverio": 1670,
      "amb": 1671,
      "fabiola": 1672,
      "estela": 1673,
      "gene": 1674,
      "yv": 1675,
      "vieve": 1676,
      "genevieve": 1677,
      "fausto": 1678,
      "trist": 1679,
      "eline": 1680,
      "tristan": 1681,
      "laurie": 1682,
      "mariangela": 1683,
      "rossana": 1684,
      "dali": 1685,
      "dalila": 1686,
      "aurelio": 1687,
      "mustapha": 1688,
      "gros": 1689,
      "ruth": 1690,
      "milagros": 1691,
      "mathis": 1692,
      "merche": 1693,
      "cid": 1694,
      "are": 1695,
      "marzia": 1696,
      "jam": 1697,
      "ludov": 1698,
      "nora": 1699,
      "jeanmarc": 1700,
      "sofiane": 1701,
      "tiziano": 1702,
      "elizabeth": 1703,
      "isi": 1704,
      "romina": 1705,
      "gregorio": 1706,
      "nati": 1707,
      "moha": 1708,
      "rachel": 1709,
      "greg": 1710,
      "merce": 1711,
      "benedetta": 1712,
      "german": 1713,
      "brahim": 1714,
      "inaki": 1715,
      "jeanfrancois": 1716,
      "josu": 1717,
      "mihaela": 1718,
      "jade": 1719,
      "liliane": 1720,
      "ugo": 1721,
      "rodolfo": 1722,
      "anabel": 1723,
      "frederique": 1724,
      "charlene": 1725,
      "geoffrey": 1726,
      "florin": 1727,
      "mike": 1728,
      "micaela": 1729,
      "margo": 1730,
      "margot": 1731,
      "gasp": 1732,
      "ik": 1733,
      "odile": 1734,
      "iker": 1735,
      "brice": 1736,
      "kamel": 1737,
      "coco": 1738,
      "erwan": 1739,
      "melina": 1740,
      "viviane": 1741,
      "ilenia": 1742,
      "marcella": 1743,
      "arant": 1744,
      "eliana": 1745,
      "yassine": 1746,
      "felice": 1747,
      "mirco": 1748,
      "judith": 1749,
      "dinis": 1750,
      "guille": 1751,
      "ramona": 1752,
      "stant": 1753,
      "kil": 1754,
      "salome": 1755,
      "sta": 1756,
      "vasile": 1757,
      "biagio": 1758,
      "miquel": 1759,
      "gero": 1760,
      "flora": 1761,
      "giusi": 1762,
      "pere": 1763,
      "agostino": 1764,
      "soledad": 1765,
      "esmer": 1766,
      "andrei": 1767,
      "maud": 1768,
      "jack": 1769,
      "raymon": 1770,
      "esmeralda": 1771,
      "betty": 1772,
      "ful": 1773,
      "jason": 1774,
      "the": 1775,
      "lise": 1776,
      "isse": 1777,
      "mauric": 1778,
      "arita": 1779,
      "gilbert": 1780,
      "josette": 1781,
      "steve": 1782,
      "maddalena": 1783,
      "estrella": 1784,
      "aaron": 1785,
      "gore": 1786,
      "jeanmichel": 1787,
      "constan": 1788,
      "karen": 1789,
      "ghislaine": 1790,
      "sou": 1791,
      "susanna": 1792,
      "mela": 1793,
      "pamela": 1794,
      "alb": 1795,
      "rine": 1796,
      "kader": 1797,
      "eve": 1798,
      "johan": 1799,
      "kha": 1800,
      "edi": 1801,
      "dija": 1802,
      "agostinho": 1803,
      "khadija": 1804,
      "mou": 1805,
      "graziano": 1806,
      "athe": 1807,
      "nando": 1808,
      "agathe": 1809,
      "farid": 1810,
      "amina": 1811,
      "emeline": 1812,
      "vano": 1813,
      "silvano": 1814,
      "pierluigi": 1815,
      "gianna": 1816,
      "aude": 1817,
      "miro": 1818,
      "lore": 1819,
      "francine": 1820,
      "cidalia": 1821,
      "gigi": 1822,
      "isra": 1823,
      "peter": 1824,
      "amer": 1825,
      "rayan": 1826,
      "israel": 1827,
      "she": 1828,
      "berta": 1829,
      "jeremie": 1830,
      "clarisse": 1831,
      "sheila": 1832,
      "ayou": 1833,
      "ayoub": 1834,
      "si": 1835,
      "sera": 1836,
      "ure": 1837,
      "elaure": 1838,
      "benito": 1839,
      "marianne": 1840,
      "sebas": 1841,
      "magdalena": 1842,
      "gisele": 1843,
      "odete": 1844,
      "mariagrazia": 1845,
      "regina": 1846,
      "rino": 1847,
      "malika": 1848,
      "nab": 1849,
      "nancy": 1850,
      "amanda": 1851,
      "maryline": 1852,
      "nabil": 1853,
      "pol": 1854,
      "simonetta": 1855,
      "hugu": 1856,
      "ddy": 1857,
      "teddy": 1858,
      "roland": 1859,
      "eddy": 1860,
      "lian": 1861,
      "mamen": 1862,
      "piera": 1863,
      "maurice": 1864,
      "greta": 1865,
      "iro": 1866,
      "idad": 1867,
      "marilia": 1868,
      "uc": 1869,
      "camila": 1870,
      "minia": 1871,
      "cyrille": 1872,
      "tonino": 1873,
      "rie": 1874,
      "marjo": 1875,
      "met": 1876,
      "annemarie": 1877,
      "yohan": 1878,
      "marjorie": 1879,
      "laia": 1880,
      "mathias": 1881,
      "nunzio": 1882,
      "iree": 1883,
      "desiree": 1884,
      "ibrahim": 1885,
      "suz": 1886,
      "az": 1887,
      "tito": 1888,
      "carlotta": 1889,
      "solene": 1890,
      "johanna": 1891,
      "gisela": 1892,
      "uard": 1893,
      "eles": 1894,
      "carles": 1895,
      "rosana": 1896,
      "edouard": 1897,
      "paz": 1898,
      "mateo": 1899,
      "valentino": 1900,
      "mine": 1901,
      "stef": 1902,
      "regine": 1903,
      "ligia": 1904,
      "ny": 1905,
      "enrica": 1906,
      "johnny": 1907,
      "americo": 1908,
      "bilal": 1909,
      "adil": 1910,
      "jamel": 1911,
      "candida": 1912,
      "abdou": 1913,
      "ivano": 1914,
      "ran": 1915,
      "chari": 1916,
      "salva": 1917,
      "walid": 1918,
      "annarita": 1919,
      "carme": 1920,
      "romane": 1921,
      "morena": 1922,
      "vicky": 1923,
      "fiorella": 1924,
      "thee": 1925,
      "aurelia": 1926,
      "james": 1927,
      "isidro": 1928,
      "lana": 1929,
      "aic": 1930,
      "pi": 1931,
      "ys": 1932,
      "yohann": 1933,
      "aicha": 1934,
      "nth": 1935,
      "mira": 1936,
      "gilberto": 1937,
      "cynth": 1938,
      "cynthia": 1939,
      "inigo": 1940,
      "mimma": 1941,
      "cca": 1942,
      "ionu": 1943,
      "jeanlouis": 1944,
      "rebecca": 1945,
      "ionut": 1946,
      "sandy": 1947,
      "viane": 1948,
      "sylviane": 1949,
      "agnese": 1950,
      "murielle": 1951,
      "ff": 1952,
      "mariam": 1953,
      "rad": 1954,
      "rezia": 1955,
      "lucrezia": 1956,
      "mourad": 1957,
      "alexandr": 1958,
      "mariaro": 1959,
      "ruz": 1960,
      "naima": 1961,
      "icte": 1962,
      "concha": 1963,
      "kiko": 1964,
      "benedicte": 1965,
      "valentine": 1966,
      "leonel": 1967,
      "gau": 1968,
      "iz": 1969,
      "naz": 1970,
      "ort": 1971,
      "carena": 1972,
      "macarena": 1973,
      "yvette": 1974,
      "arantxa": 1975,
      "neu": 1976,
      "mihai": 1977,
      "lluis": 1978,
      "xe": 1979,
      "alan": 1980,
      "jeanpaul": 1981,
      "kike": 1982,
      "cen": 1983,
      "angelina": 1984,
      "iolanda": 1985,
      "samy": 1986,
      "ignazio": 1987,
      "fato": 1988,
      "francesc": 1989,
      "gianmarco": 1990,
      "charly": 1991,
      "fatou": 1992,
      "laurine": 1993,
      "moreno": 1994,
      "chelo": 1995,
      "asier": 1996,
      "gerald": 1997,
      "seraf": 1998,
      "emi": 1999,
      "myl": 2000,
      "reme": 2001,
      "deolinda": 2002,
      "mariangeles": 2003,
      "mylene": 2004,
      "ir": 2005,
      "lucile": 2006,
      "delia": 2007,
      "inella": 2008,
      "marinella": 2009,
      "ettore": 2010,
      "fed": 2011,
      "res": 2012,
      "iss": 2013,
      "titi": 2014,
      "magalie": 2015,
      "jp": 2016,
      "one": 2017,
      "ivone": 2018,
      "jacinto": 2019,
      "augusta": 2020,
      "humberto": 2021,
      "joaquina": 2022,
      "hakim": 2023,
      "karina": 2024,
      "susy": 2025,
      "reyes": 2026,
      "jeanmarie": 2027,
      "edith": 2028,
      "allan": 2029,
      "sabina": 2030,
      "lilou": 2031,
      "fulvio": 2032,
      "mino": 2033,
      "mauricio": 2034,
      "pal": 2035,
      "frank": 2036,
      "ludovica": 2037,
      "anibal": 2038,
      "monia": 2039,
      "catalina": 2040,
      "aroa": 2041,
      "sana": 2042,
      "renau": 2043,
      "jeanbaptiste": 2044,
      "renaud": 2045,
      "salah": 2046,
      "tang": 2047,
      "uy": 2048,
      "lot": 2049,
      "tanguy": 2050,
      "eus": 2051,
      "abra": 2052,
      "soso": 2053,
      "rachele": 2054,
      "salim": 2055,
      "samira": 2056,
      "paquita": 2057,
      "cassandra": 2058,
      "rudy": 2059,
      "asuncion": 2060,
      "asia": 2061,
      "santos": 2062,
      "micael": 2063,
      "killian": 2064,
      "sacha": 2065,
      "lucien": 2066,
      "cand": 2067,
      "jojo": 2068,
      "patri": 2069,
      "jeann": 2070,
      "raymond": 2071,
      "nas": 2072,
      "ando": 2073,
      "colo": 2074,
      "ferdin": 2075,
      "matheo": 2076,
      "ferdinando": 2077,
      "pcion": 2078,
      "concepcion": 2079,
      "yasmina": 2080,
      "abilio": 2081,
      "zoe": 2082,
      "vincenza": 2083,
      "jessy": 2084,
      "vitoria": 2085,
      "phaine": 2086,
      "isma": 2087,
      "rome": 2088,
      "charline": 2089,
      "orazio": 2090,
      "george": 2091,
      "trini": 2092,
      "nor": 2093,
      "eloy": 2094,
      "viola": 2095,
      "stan": 2096,
      "oriol": 2097,
      "andreea": 2098,
      "noel": 2099,
      "toto": 2100,
      "saray": 2101,
      "samia": 2102,
      "bou": 2103,
      "bland": 2104,
      "doro": 2105,
      "leta": 2106,
      "violeta": 2107,
      "blandine": 2108,
      "ylenia": 2109,
      "alin": 2110,
      "adelino": 2111,
      "judit": 2112,
      "meric": 2113,
      "erik": 2114,
      "aymeric": 2115,
      "ilien": 2116,
      "cati": 2117,
      "karima": 2118,
      "nanou": 2119,
      "santo": 2120,
      "ezio": 2121,
      "renco": 2122,
      "jeanphilippe": 2123,
      "lourenco": 2124,
      "clementine": 2125,
      "yuri": 2126,
      "lorenza": 2127,
      "yacine": 2128,
      "arminda": 2129,
      "nour": 2130,
      "guida": 2131,
      "gregoire": 2132,
      "cruz": 2133,
      "gwena": 2134,
      "saul": 2135,
      "helio": 2136,
      "lilian": 2137,
      "ramiro": 2138,
      "adri": 2139,
      "abraham": 2140,
      "gilda": 2141,
      "tino": 2142,
      "elmo": 2143,
      "alfio": 2144,
      "ania": 2145,
      "melania": 2146,
      "ophie": 2147,
      "esophie": 2148,
      "annesophie": 2149,
      "noelle": 2150,
      "patrizio": 2151,
      "domenica": 2152,
      "agata": 2153,
      "josue": 2154,
      "pippo": 2155,
      "natas": 2156,
      "ferran": 2157,
      "niccolo": 2158,
      "fede": 2159,
      "lulu": 2160,
      "lucilia": 2161,
      "ison": 2162,
      "alison": 2163,
      "perrine": 2164,
      "martia": 2165,
      "axelle": 2166,
      "martial": 2167,
      "giampiero": 2168,
      "driss": 2169,
      "pierpaolo": 2170,
      "rosetta": 2171,
      "dna": 2172,
      "ariadna": 2173,
      "malik": 2174,
      "tit": 2175,
      "calogero": 2176,
      "valdo": 2177,
      "maura": 2178,
      "osvaldo": 2179,
      "lorella": 2180,
      "cinda": 2181,
      "sia": 2182,
      "willy": 2183,
      "adal": 2184,
      "kyl": 2185,
      "upe": 2186,
      "alban": 2187,
      "guadal": 2188,
      "neus": 2189,
      "yoan": 2190,
      "yasmine": 2191,
      "guadalupe": 2192,
      "tilio": 2193,
      "ual": 2194,
      "attilio": 2195,
      "tolo": 2196,
      "tha": 2197,
      "hubert": 2198,
      "bartolo": 2199,
      "lilia": 2200,
      "pascual": 2201,
      "suzanne": 2202,
      "unai": 2203,
      "marino": 2204,
      "paule": 2205,
      "mariechristine": 2206,
      "constant": 2207,
      "roby": 2208,
      "ffan": 2209,
      "tiffan": 2210,
      "tiffany": 2211,
      "isio": 2212,
      "christel": 2213,
      "nicoleta": 2214,
      "giord": 2215,
      "alexander": 2216,
      "idalina": 2217,
      "chema": 2218,
      "gane": 2219,
      "megane": 2220,
      "brand": 2221,
      "lucinda": 2222,
      "dolors": 2223,
      "armindo": 2224,
      "brandon": 2225,
      "sylvia": 2226,
      "wilfr": 2227,
      "floriane": 2228,
      "eunic": 2229,
      "eunice": 2230,
      "diane": 2231,
      "arlette": 2232,
      "victo": 2233,
      "sv": 2234,
      "damian": 2235,
      "jonat": 2236,
      "jeanjacques": 2237,
      "anissa": 2238,
      "ascen": 2239,
      "vinia": 2240,
      "judite": 2241,
      "zelia": 2242,
      "susi": 2243,
      "tonia": 2244,
      "ambre": 2245,
      "sebastia": 2246,
      "cic": 2247,
      "vale": 2248,
      "mikael": 2249,
      "edeo": 2250,
      "amedeo": 2251,
      "ciccio": 2252,
      "ald": 2253,
      "romu": 2254,
      "gabi": 2255,
      "virgilio": 2256,
      "elias": 2257,
      "romuald": 2258,
      "micheline": 2259,
      "arnau": 2260,
      "marcela": 2261,
      "eloise": 2262,
      "cila": 2263,
      "freddy": 2264,
      "amaia": 2265,
      "naldo": 2266,
      "arnaldo": 2267,
      "mika": 2268,
      "aura": 2269,
      "nello": 2270,
      "jeff": 2271,
      "xab": 2272,
      "yoli": 2273,
      "herminia": 2274,
      "johann": 2275,
      "neuza": 2276,
      "kenza": 2277,
      "itzi": 2278,
      "maelle": 2279,
      "celso": 2280,
      "holas": 2281,
      "nicholas": 2282,
      "jan": 2283,
      "armel": 2284,
      "adria": 2285,
      "tiphaine": 2286,
      "elisabet": 2287,
      "constanca": 2288,
      "armelle": 2289,
      "loly": 2290,
      "ande": 2291,
      "roxana": 2292,
      "chus": 2293,
      "matias": 2294,
      "stel": 2295,
      "yolande": 2296,
      "florbela": 2297,
      "fort": 2298,
      "iza": 2299,
      "yaiza": 2300,
      "lph": 2301,
      "antonin": 2302,
      "rick": 2303,
      "pierrick": 2304,
      "boris": 2305,
      "rodolph": 2306,
      "rodolphe": 2307,
      "ksana": 2308,
      "oksana": 2309,
      "pris": 2310,
      "yer": 2311,
      "alc": 2312,
      "gue": 2313,
      "younes": 2314,
      "fatiha": 2315,
      "yeray": 2316,
      "ios": 2317,
      "remed": 2318,
      "jairo": 2319,
      "fermin": 2320,
      "matt": 2321,
      "remedios": 2322,
      "eine": 2323,
      "madel": 2324,
      "andree": 2325,
      "beppe": 2326,
      "madeleine": 2327,
      "rka": 2328,
      "doline": 2329,
      "gorka": 2330,
      "gwendoline": 2331,
      "yvan": 2332,
      "joris": 2333,
      "edite": 2334,
      "gianluigi": 2335,
      "wilson": 2336,
      "amar": 2337,
      "ioana": 2338,
      "leire": 2339,
      "mehmet": 2340,
      "jonatan": 2341,
      "alix": 2342,
      "adelia": 2343,
      "genny": 2344,
      "cta": 2345,
      "octa": 2346,
      "gabrielle": 2347,
      "jeannine": 2348,
      "octavio": 2349,
      "quim": 2350,
      "coline": 2351,
      "josephine": 2352,
      "jeanyves": 2353,
      "guillem": 2354,
      "aran": 2355,
      "alzi": 2356,
      "lah": 2357,
      "vino": 2358,
      "khaled": 2359,
      "alzira": 2360,
      "antony": 2361,
      "candido": 2362,
      "roman": 2363,
      "nelia": 2364,
      "gg": 2365,
      "pegg": 2366,
      "juju": 2367,
      "lucy": 2368,
      "etlana": 2369,
      "svetlana": 2370,
      "peggy": 2371,
      "djamel": 2372,
      "iul": 2373,
      "angele": 2374,
      "marilo": 2375,
      "encarnacion": 2376,
      "iara": 2377,
      "lie": 2378,
      "moun": 2379,
      "marielaure": 2380,
      "martino": 2381,
      "leslie": 2382,
      "mustafa": 2383,
      "nassim": 2384,
      "mounir": 2385,
      "timo": 2386,
      "onimo": 2387,
      "loulou": 2388,
      "jeronimo": 2389,
      "loretta": 2390,
      "abelle": 2391,
      "annabelle": 2392,
      "mariefrance": 2393,
      "sica": 2394,
      "dori": 2395,
      "lila": 2396,
      "cillia": 2397,
      "trinidad": 2398,
      "alexandru": 2399,
      "marvin": 2400,
      "antoni": 2401,
      "claudie": 2402,
      "fou": 2403,
      "ainara": 2404,
      "gauthier": 2405,
      "ika": 2406,
      "isaura": 2407,
      "natale": 2408,
      "vicenta": 2409,
      "nativi": 2410,
      "dorothee": 2411,
      "hem": 2412,
      "lady": 2413,
      "santina": 2414,
      "pepita": 2415,
      "laurinda": 2416,
      "hugues": 2417,
      "constantin": 2418,
      "ladys": 2419,
      "hammad": 2420,
      "muhammad": 2421,
      "della": 2422,
      "lin": 2423,
      "arlin": 2424,
      "abdella": 2425,
      "kiki": 2426,
      "arlindo": 2427,
      "abdellah": 2428,
      "dem": 2429,
      "gli": 2430,
      "pin": 2431,
      "martha": 2432,
      "gugli": 2433,
      "guglielmo": 2434,
      "joe": 2435,
      "ucena": 2436,
      "azucena": 2437,
      "eze": 2438,
      "sebio": 2439,
      "eduard": 2440,
      "lily": 2441,
      "eusebio": 2442,
      "quiel": 2443,
      "giordano": 2444,
      "ezequiel": 2445,
      "ema": 2446,
      "clem": 2447,
      "giampaolo": 2448,
      "helo": 2449,
      "marcelino": 2450,
      "lello": 2451,
      "saria": 2452,
      "marieclaude": 2453,
      "renee": 2454,
      "thibaud": 2455,
      "mariarosaria": 2456,
      "cristi": 2457,
      "bego": 2458,
      "catalin": 2459,
      "astrid": 2460,
      "livio": 2461,
      "armand": 2462,
      "bob": 2463,
      "evan": 2464,
      "ige": 2465,
      "wige": 2466,
      "luna": 2467,
      "edwige": 2468,
      "ginette": 2469,
      "sebastiao": 2470,
      "haron": 2471,
      "jc": 2472,
      "nana": 2473,
      "sharon": 2474,
      "uz": 2475,
      "alonso": 2476,
      "reda": 2477,
      "phil": 2478,
      "mariluz": 2479,
      "rug": 2480,
      "ccio": 2481,
      "gdan": 2482,
      "maya": 2483,
      "roser": 2484,
      "chry": 2485,
      "silva": 2486,
      "bogdan": 2487,
      "pierrette": 2488,
      "ambra": 2489,
      "ariana": 2490,
      "marivi": 2491,
      "mateus": 2492,
      "benedetto": 2493,
      "gwenaelle": 2494,
      "bartolome": 2495,
      "livia": 2496,
      "ismail": 2497,
      "clot": 2498,
      "anasta": 2499,
      "gaspar": 2500,
      "itziar": 2501,
      "clotilde": 2502,
      "anastasia": 2503,
      "aniello": 2504,
      "jeanchristophe": 2505,
      "floriana": 2506,
      "ius": 2507,
      "pu": 2508,
      "xane": 2509,
      "ioan": 2510,
      "mariateresa": 2511,
      "roxane": 2512,
      "toze": 2513,
      "fabian": 2514,
      "conchita": 2515,
      "ot": 2516,
      "albertina": 2517,
      "otilia": 2518,
      "michelangelo": 2519,
      "yaya": 2520,
      "arc": 2521,
      "rghe": 2522,
      "rafi": 2523,
      "oliver": 2524,
      "eorghe": 2525,
      "gheorghe": 2526,
      "marica": 2527,
      "patricio": 2528,
      "eul": 2529,
      "rosella": 2530,
      "jacinta": 2531,
      "eulalia": 2532,
      "dom": 2533,
      "ricard": 2534,
      "gaspare": 2535,
      "jb": 2536,
      "lella": 2537,
      "sion": 2538,
      "emilien": 2539,
      "gracinda": 2540,
      "ascension": 2541,
      "blas": 2542,
      "costan": 2543,
      "vien": 2544,
      "nord": 2545,
      "vane": 2546,
      "santa": 2547,
      "piedad": 2548,
      "flavien": 2549,
      "fiona": 2550,
      "constance": 2551,
      "nordine": 2552,
      "costant": 2553,
      "tono": 2554,
      "bilel": 2555,
      "palmira": 2556,
      "costantino": 2557,
      "gines": 2558,
      "paulette": 2559,
      "jeanine": 2560,
      "janine": 2561,
      "fatma": 2562,
      "ait": 2563,
      "dade": 2564,
      "angelines": 2565,
      "beta": 2566,
      "roselyne": 2567,
      "ilario": 2568,
      "julieta": 2569,
      "rodri": 2570,
      "yannis": 2571,
      "aitana": 2572,
      "lory": 2573,
      "mariajose": 2574,
      "rosita": 2575,
      "nestor": 2576,
      "matthias": 2577,
      "av": 2578,
      "ron": 2579,
      "elino": 2580,
      "mam": 2581,
      "angels": 2582,
      "vicent": 2583,
      "corine": 2584,
      "kylian": 2585,
      "avelino": 2586,
      "ronan": 2587,
      "tru": 2588,
      "ied": 2589,
      "romano": 2590,
      "abdo": 2591,
      "andreu": 2592,
      "steeve": 2593,
      "huguette": 2594,
      "wilfried": 2595,
      "cloe": 2596,
      "han": 2597,
      "ppa": 2598,
      "maru": 2599,
      "annelaure": 2600,
      "hanane": 2601,
      "aela": 2602,
      "rico": 2603,
      "gui": 2604,
      "luiz": 2605,
      "raffaela": 2606,
      "noemia": 2607,
      "albino": 2608,
      "francy": 2609,
      "armanda": 2610,
      "melodie": 2611,
      "souf": 2612,
      "amau": 2613,
      "aure": 2614,
      "nanda": 2615,
      "emile": 2616,
      "amaury": 2617,
      "md": 2618,
      "yara": 2619,
      "carmina": 2620,
      "naiara": 2621,
      "souad": 2622,
      "gan": 2623,
      "logan": 2624,
      "afr": 2625,
      "ix": 2626,
      "aleix": 2627,
      "julen": 2628,
      "kika": 2629,
      "arancha": 2630,
      "africa": 2631,
      "lauriane": 2632,
      "irat": 2633,
      "sin": 2634,
      "celina": 2635,
      "singh": 2636,
      "hab": 2637,
      "imane": 2638,
      "costel": 2639,
      "joseba": 2640,
      "juli": 2641,
      "heloise": 2642,
      "habib": 2643,
      "mcarmen": 2644,
      "pio": 2645,
      "raim": 2646,
      "quique": 2647,
      "marielle": 2648,
      "adelina": 2649,
      "felisa": 2650,
      "miriana": 2651,
      "vince": 2652,
      "orietta": 2653,
      "italo": 2654,
      "norberto": 2655,
      "impia": 2656,
      "olimpia": 2657,
      "samanta": 2658,
      "lic": 2659,
      "ice": 2660,
      "vita": 2661,
      "fabiano": 2662,
      "mariehelene": 2663,
      "candice": 2664,
      "romeo": 2665,
      "licin": 2666,
      "lw": 2667,
      "otta": 2668,
      "tz": 2669,
      "mabel": 2670,
      "nolw": 2671,
      "sorin": 2672,
      "terry": 2673,
      "marimar": 2674,
      "gianpaolo": 2675,
      "oum": 2676,
      "goreti": 2677,
      "nolwenn": 2678,
      "tier": 2679,
      "mosta": 2680,
      "mariepierre": 2681,
      "mostafa": 2682,
      "egi": 2683,
      "ilcar": 2684,
      "amilcar": 2685,
      "marti": 2686,
      "antho": 2687,
      "zita": 2688,
      "egidio": 2689,
      "abou": 2690,
      "remo": 2691,
      "orl": 2692,
      "rachi": 2693,
      "viorel": 2694,
      "rachida": 2695,
      "nio": 2696,
      "sel": 2697,
      "vra": 2698,
      "junio": 2699,
      "natalina": 2700,
      "abdelkader": 2701,
      "ginevra": 2702,
      "junior": 2703,
      "nani": 2704,
      "anaelle": 2705,
      "hernani": 2706,
      "ennio": 2707,
      "assia": 2708,
      "ionela": 2709,
      "natividad": 2710,
      "gr": 2711,
      "ercia": 2712,
      "sagr": 2713,
      "luigina": 2714,
      "natercia": 2715,
      "sagrario": 2716,
      "fco": 2717,
      "flavie": 2718,
      "adama": 2719,
      "jacobo": 2720,
      "xabier": 2721,
      "fle": 2722,
      "ero": 2723,
      "eros": 2724,
      "mirian": 2725,
      "gioia": 2726,
      "ilidio": 2727,
      "fleur": 2728,
      "clemente": 2729,
      "yvon": 2730,
      "vy": 2731,
      "davy": 2732,
      "eugenie": 2733,
      "edna": 2734,
      "rosangela": 2735,
      "germano": 2736,
      "costanza": 2737,
      "aina": 2738,
      "ore": 2739,
      "ye": 2740,
      "laye": 2741,
      "patty": 2742,
      "mati": 2743,
      "eleonore": 2744,
      "abdoulaye": 2745,
      "daria": 2746,
      "hora": 2747,
      "kek": 2748,
      "ahmet": 2749,
      "florine": 2750,
      "natascia": 2751,
      "horacio": 2752,
      "amadou": 2753,
      "cus": 2754,
      "sto": 2755,
      "justo": 2756,
      "maelys": 2757,
      "rayane": 2758,
      "odette": 2759,
      "custo": 2760,
      "ttina": 2761,
      "icol": 2762,
      "cettina": 2763,
      "loud": 2764,
      "agustina": 2765,
      "fouad": 2766,
      "ket": 2767,
      "tome": 2768,
      "cef": 2769,
      "valde": 2770,
      "deu": 2771,
      "rosalina": 2772,
      "marieclaire": 2773,
      "martinho": 2774,
      "youcef": 2775,
      "amadeu": 2776,
      "ketty": 2777,
      "valdemar": 2778,
      "ionel": 2779,
      "doriana": 2780,
      "nicolae": 2781,
      "eurico": 2782,
      "augustin": 2783,
      "lupe": 2784,
      "chino": 2785,
      "manuele": 2786,
      "gioac": 2787,
      "luigia": 2788,
      "gioacchino": 2789,
      "denn": 2790,
      "fari": 2791,
      "von": 2792,
      "rakel": 2793,
      "maryvon": 2794,
      "dennis": 2795,
      "farida": 2796,
      "maryvonne": 2797,
      "brian": 2798,
      "titti": 2799,
      "txe": 2800,
      "oni": 2801,
      "thiago": 2802,
      "alize": 2803,
      "zakar": 2804,
      "andoni": 2805,
      "alizee": 2806,
      "zakaria": 2807,
      "claudette": 2808,
      "mariola": 2809,
      "suse": 2810,
      "marylene": 2811,
      "hra": 2812,
      "nidia": 2813,
      "zohra": 2814,
      "vao": 2815,
      "tita": 2816,
      "aymen": 2817,
      "serafim": 2818,
      "timothee": 2819,
      "fid": 2820,
      "nisio": 2821,
      "ue": 2822,
      "doriane": 2823,
      "dionisio": 2824,
      "brigida": 2825,
      "uccia": 2826,
      "fidel": 2827,
      "ola": 2828,
      "zinha": 2829,
      "erman": 2830,
      "ermel": 2831,
      "mariapia": 2832,
      "mata": 2833,
      "graci": 2834,
      "gisella": 2835,
      "mariarosa": 2836,
      "fatoumata": 2837,
      "ermanno": 2838,
      "ermelinda": 2839,
      "graciela": 2840,
      "jeancharles": 2841,
      "coral": 2842,
      "dant": 2843,
      "inata": 2844,
      "aminata": 2845,
      "dante": 2846,
      "luzia": 2847,
      "dor": 2848,
      "sandrina": 2849,
      "minda": 2850,
      "carola": 2851,
      "amador": 2852,
      "elizabete": 2853,
      "isilda": 2854,
      "ilyes": 2855,
      "doun": 2856,
      "gianpiero": 2857,
      "flore": 2858,
      "katy": 2859,
      "lisete": 2860,
      "alcina": 2861,
      "dounia": 2862,
      "gladys": 2863,
      "iman": 2864,
      "tare": 2865,
      "louna": 2866,
      "milene": 2867,
      "mirela": 2868,
      "kilian": 2869,
      "candela": 2870,
      "imanol": 2871,
      "tarek": 2872,
      "licia": 2873,
      "aret": 2874,
      "margu": 2875,
      "reira": 2876,
      "erite": 2877,
      "oumar": 2878,
      "vivien": 2879,
      "idoia": 2880,
      "nazaret": 2881,
      "marguerite": 2882,
      "xis": 2883,
      "abdal": 2884,
      "samba": 2885,
      "paulino": 2886,
      "amandio": 2887,
      "abdallah": 2888,
      "oriana": 2889,
      "isido": 2890,
      "alino": 2891,
      "eneko": 2892,
      "felis": 2893,
      "isidoro": 2894,
      "mant": 2895,
      "capu": 2896,
      "diamant": 2897,
      "raymonde": 2898,
      "capucine": 2899,
      "diamantino": 2900,
      "svit": 2901,
      "angie": 2902,
      "stelle": 2903,
      "ibrah": 2904,
      "jamal": 2905,
      "chrystelle": 2906,
      "svitlana": 2907,
      "ibrahima": 2908,
      "rielle": 2909,
      "marcelle": 2910,
      "cyrielle": 2911,
      "alexandrina": 2912,
      "nazare": 2913,
      "nela": 2914,
      "uis": 2915,
      "xel": 2916,
      "eluis": 2917,
      "lati": 2918,
      "carmelina": 2919,
      "rien": 2920,
      "minio": 2921,
      "merit": 2922,
      "joseluis": 2923,
      "hichem": 2924,
      "emidio": 2925,
      "romeu": 2926,
      "xell": 2927,
      "latifa": 2928,
      "meritxell": 2929,
      "zur": 2930,
      "renza": 2931,
      "ludovico": 2932,
      "azzur": 2933,
      "victoire": 2934,
      "azzurra": 2935,
      "danila": 2936,
      "giuseppa": 2937,
      "santino": 2938,
      "pascaline": 2939,
      "gautier": 2940,
      "ruggero": 2941,
      "ous": 2942,
      "marialuisa": 2943,
      "luisella": 2944,
      "fares": 2945,
      "ousmane": 2946,
      "cur": 2947,
      "ges": 2948,
      "ona": 2949,
      "ilona": 2950,
      "norma": 2951,
      "curro": 2952,
      "gessica": 2953,
      "tari": 2954,
      "ondo": 2955,
      "davinia": 2956,
      "felicia": 2957,
      "niko": 2958,
      "raimondo": 2959,
      "tarik": 2960,
      "ague": 2961,
      "dica": 2962,
      "xi": 2963,
      "arno": 2964,
      "rodica": 2965,
      "patxi": 2966,
      "siham": 2967,
      "izan": 2968,
      "agueda": 2969,
      "dalia": 2970,
      "unato": 2971,
      "hocine": 2972,
      "rossano": 2973,
      "salima": 2974,
      "fortunato": 2975,
      "joffrey": 2976,
      "espe": 2977,
      "beto": 2978,
      "leonie": 2979,
      "ghislain": 2980,
      "stefy": 2981,
      "ole": 2982,
      "wel": 2983,
      "nolan": 2984,
      "nawel": 2985,
      "emeric": 2986,
      "mariela": 2987,
      "laurene": 2988,
      "armenio": 2989,
      "bra": 2990,
      "cie": 2991,
      "lavinia": 2992,
      "atino": 2993,
      "gracie": 2994,
      "graciete": 2995,
      "len": 2996,
      "pasqualina": 2997,
      "dil": 2998,
      "mur": 2999,
      "milo": 3000,
      "camilo": 3001,
      "moira": 3002,
      "camillo": 3003,
      "tommy": 3004,
      "mireya": 3005,
      "florinda": 3006,
      "diletta": 3007,
      "murat": 3008,
      "yamina": 3009,
      "micka": 3010,
      "delfina": 3011,
      "gracia": 3012,
      "lillo": 3013,
      "ileana": 3014,
      "natasha": 3015,
      "priscillia": 3016,
      "iria": 3017,
      "iuri": 3018,
      "issam": 3019,
      "violette": 3020,
      "fafa": 3021,
      "katius": 3022,
      "amaya": 3023,
      "katiuscia": 3024,
      "ach": 3025,
      "dana": 3026,
      "petit": 3027,
      "clarissa": 3028,
      "suzana": 3029,
      "ottavio": 3030,
      "achille": 3031,
      "cl": 3032,
      "fica": 3033,
      "iem": 3034,
      "marietherese": 3035,
      "meriem": 3036,
      "purifica": 3037,
      "fulvia": 3038,
      "clelia": 3039,
      "purificacion": 3040,
      "rica": 3041,
      "viorica": 3042,
      "clementina": 3043,
      "mamie": 3044,
      "mes": 3045,
      "rne": 3046,
      "vil": 3047,
      "ieta": 3048,
      "antonina": 3049,
      "antonieta": 3050,
      "helia": 3051,
      "christele": 3052,
      "etano": 3053,
      "edurne": 3054,
      "adem": 3055,
      "lotfi": 3056,
      "vilma": 3057,
      "nil": 3058,
      "oussa": 3059,
      "luce": 3060,
      "mariona": 3061,
      "gabin": 3062,
      "milton": 3063,
      "mauricette": 3064,
      "serafin": 3065,
      "oussama": 3066,
      "lucette": 3067,
      "lata": 3068,
      "colata": 3069,
      "usou": 3070,
      "sousou": 3071,
      "zaira": 3072,
      "marilyne": 3073,
      "immacolata": 3074,
      "priscila": 3075,
      "bali": 3076,
      "mia": 3077,
      "tra": 3078,
      "esti": 3079,
      "raba": 3080,
      "edson": 3081,
      "brunella": 3082,
      "pierangelo": 3083,
      "matheus": 3084,
      "nelio": 3085,
      "coraline": 3086,
      "baliz": 3087,
      "estibaliz": 3088,
      "rabah": 3089,
      "gioele": 3090,
      "patou": 3091,
      "beni": 3092,
      "gabry": 3093,
      "emily": 3094,
      "graziana": 3095,
      "arle": 3096,
      "luci": 3097,
      "eloisa": 3098,
      "arantza": 3099,
      "fortu": 3100,
      "arlete": 3101,
      "dja": 3102,
      "gelio": 3103,
      "rogelio": 3104,
      "eddine": 3105,
      "undo": 3106,
      "fiorenzo": 3107,
      "noureddine": 3108,
      "arcangelo": 3109,
      "djamila": 3110,
      "ader": 3111,
      "lali": 3112,
      "yani": 3113,
      "chic": 3114,
      "monika": 3115,
      "oreste": 3116,
      "gege": 3117,
      "gorete": 3118,
      "albano": 3119,
      "aderito": 3120,
      "yanira": 3121,
      "aca": 3122,
      "aino": 3123,
      "oriane": 3124,
      "vanna": 3125,
      "zul": 3126,
      "lamine": 3127,
      "dores": 3128,
      "alves": 3129,
      "islas": 3130,
      "stanislas": 3131,
      "acacio": 3132,
      "ainoa": 3133,
      "zulmira": 3134,
      "aza": 3135,
      "hara": 3136,
      "ikel": 3137,
      "sandre": 3138,
      "aldina": 3139,
      "maikel": 3140,
      "dorina": 3141,
      "miki": 3142,
      "uss": 3143,
      "mouss": 3144,
      "sabino": 3145,
      "francky": 3146,
      "raphaelle": 3147,
      "cassandre": 3148,
      "irma": 3149,
      "rodrigue": 3150,
      "azahara": 3151,
      "hort": 3152,
      "cao": 3153,
      "sola": 3154,
      "juanjose": 3155,
      "fernand": 3156,
      "horten": 3157,
      "roy": 3158,
      "miren": 3159,
      "mathys": 3160,
      "piedade": 3161,
      "geoff": 3162,
      "juanito": 3163,
      "susete": 3164,
      "geoffroy": 3165,
      "lele": 3166,
      "maximo": 3167,
      "mayra": 3168,
      "yassin": 3169,
      "dj": 3170,
      "nines": 3171,
      "tine": 3172,
      "uan": 3173,
      "ximo": 3174,
      "maika": 3175,
      "chra": 3176,
      "ibril": 3177,
      "manue": 3178,
      "mayka": 3179,
      "faustine": 3180,
      "titouan": 3181,
      "bouchra": 3182,
      "kekko": 3183,
      "djibril": 3184,
      "djo": 3185,
      "manuella": 3186,
      "bernat": 3187,
      "fim": 3188,
      "yre": 3189,
      "leyre": 3190,
      "migue": 3191,
      "silvina": 3192,
      "sofian": 3193,
      "delfim": 3194,
      "cintia": 3195,
      "adan": 3196,
      "cristovao": 3197,
      "orlane": 3198,
      "fra": 3199,
      "erminia": 3200,
      "enger": 3201,
      "berenger": 3202,
      "angelita": 3203,
      "marieange": 3204,
      "suso": 3205,
      "benedita": 3206,
      "berengere": 3207,
      "danny": 3208,
      "kenzo": 3209,
      "ufi": 3210,
      "toufi": 3211,
      "valou": 3212,
      "pepito": 3213,
      "toufik": 3214,
      "kun": 3215,
      "livan": 3216,
      "sul": 3217,
      "maha": 3218,
      "mimi": 3219,
      "imilien": 3220,
      "savino": 3221,
      "lucille": 3222,
      "askun": 3223,
      "marijose": 3224,
      "caty": 3225,
      "maximilien": 3226,
      "fiore": 3227,
      "izaskun": 3228,
      "sullivan": 3229,
      "mahamadou": 3230,
      "caridad": 3231,
      "miky": 3232,
      "sauro": 3233,
      "ferreira": 3234,
      "germain": 3235,
      "seby": 3236,
      "neusa": 3237,
      "was": 3238,
      "yin": 3239,
      "seyin": 3240,
      "redou": 3241,
      "huseyin": 3242,
      "pierreyves": 3243,
      "jonas": 3244,
      "yago": 3245,
      "palma": 3246,
      "wassim": 3247,
      "redouane": 3248,
      "hedi": 3249,
      "pres": 3250,
      "zine": 3251,
      "fabrizia": 3252,
      "fiorenza": 3253,
      "iratxe": 3254,
      "prescillia": 3255,
      "zineb": 3256,
      "babe": 3257,
      "oelle": 3258,
      "marien": 3259,
      "lamo": 3260,
      "los": 3261,
      "maicol": 3262,
      "rolamo": 3263,
      "girolamo": 3264,
      "nayara": 3265,
      "piergiorgio": 3266,
      "aritz": 3267,
      "larisa": 3268,
      "alcino": 3269,
      "demba": 3270,
      "babeth": 3271,
      "marienoelle": 3272,
      "ccia": 3273,
      "fe": 3274,
      "ycal": 3275,
      "enella": 3276,
      "ilys": 3277,
      "mailys": 3278,
      "serenella": 3279,
      "nuccia": 3280,
      "fanfan": 3281,
      "faycal": 3282,
      "petri": 3283,
      "boubou": 3284,
      "licinio": 3285,
      "carminda": 3286,
      "delaria": 3287,
      "donata": 3288,
      "candelaria": 3289,
      "anderson": 3290,
      "galina": 3291,
      "mana": 3292,
      "erva": 3293,
      "rot": 3294,
      "dorine": 3295,
      "eladio": 3296,
      "modes": 3297,
      "pierrot": 3298,
      "minerva": 3299,
      "germana": 3300,
      "bakar": 3301,
      "kais": 3302,
      "liber": 3303,
      "selene": 3304,
      "modesto": 3305,
      "bakary": 3306,
      "cric": 3307,
      "vanni": 3308,
      "tonio": 3309,
      "flori": 3310,
      "violaine": 3311,
      "maruja": 3312,
      "cricri": 3313,
      "uria": 3314,
      "cheri": 3315,
      "imen": 3316,
      "lucienne": 3317,
      "adilia": 3318,
      "houria": 3319,
      "adao": 3320,
      "soufiane": 3321,
      "cherif": 3322,
      "aissa": 3323,
      "sale": 3324,
      "loles": 3325,
      "mariejose": 3326,
      "zezinha": 3327,
      "florencio": 3328,
      "iulian": 3329,
      "salete": 3330,
      "bat": 3331,
      "mjose": 3332,
      "alla": 3333,
      "antimo": 3334,
      "jeje": 3335,
      "zeza": 3336,
      "iban": 3337,
      "tista": 3338,
      "rinaldo": 3339,
      "yessica": 3340,
      "loreto": 3341,
      "lahcen": 3342,
      "battista": 3343,
      "har": 3344,
      "ux": 3345,
      "maguy": 3346,
      "tahar": 3347,
      "luismi": 3348,
      "olive": 3349,
      "cinta": 3350,
      "bernardino": 3351,
      "ignasi": 3352,
      "cheila": 3353,
      "faustino": 3354,
      "oliveira": 3355,
      "bran": 3356,
      "uren": 3357,
      "yuren": 3358,
      "iole": 3359,
      "inacio": 3360,
      "miloud": 3361,
      "ruccio": 3362,
      "ferruccio": 3363,
      "sabatino": 3364,
      "youssouf": 3365,
      "jimena": 3366,
      "txema": 3367,
      "branca": 3368,
      "yurena": 3369,
      "ofr": 3370,
      "elis": 3371,
      "onofr": 3372,
      "antero": 3373,
      "mariia": 3374,
      "zaida": 3375,
      "pinuccia": 3376,
      "onofrio": 3377,
      "rela": 3378,
      "siane": 3379,
      "pepp": 3380,
      "patry": 3381,
      "marieline": 3382,
      "lysiane": 3383,
      "estrela": 3384,
      "peppino": 3385,
      "yetano": 3386,
      "alcid": 3387,
      "cayetano": 3388,
      "juanmi": 3389,
      "mariepaule": 3390,
      "zeca": 3391,
      "marcial": 3392,
      "alcides": 3393,
      "bre": 3394,
      "glio": 3395,
      "mbre": 3396,
      "ombre": 3397,
      "inaldo": 3398,
      "giglio": 3399,
      "reinaldo": 3400,
      "valle": 3401,
      "salud": 3402,
      "nass": 3403,
      "gwenael": 3404,
      "xabi": 3405,
      "custodio": 3406,
      "ombretta": 3407,
      "gigliola": 3408,
      "apol": 3409,
      "cer": 3410,
      "tul": 3411,
      "goyo": 3412,
      "nacer": 3413,
      "maripaz": 3414,
      "nuccio": 3415,
      "fatinha": 3416,
      "guilhermina": 3417,
      "brais": 3418,
      "apolline": 3419,
      "tullio": 3420,
      "ndo": 3421,
      "segu": 3422,
      "costa": 3423,
      "maid": 3424,
      "celest": 3425,
      "gual": 3426,
      "guilhem": 3427,
      "pereira": 3428,
      "kyllian": 3429,
      "segundo": 3430,
      "maider": 3431,
      "celestino": 3432,
      "xo": 3433,
      "laine": 3434,
      "sev": 3435,
      "andreina": 3436,
      "nagore": 3437,
      "karla": 3438,
      "sante": 3439,
      "guylaine": 3440,
      "erwann": 3441,
      "malo": 3442,
      "dac": 3443,
      "didac": 3444,
      "martinha": 3445,
      "assuncao": 3446,
      "lassana": 3447,
      "bi": 3448,
      "almu": 3449,
      "tore": 3450,
      "juancarlos": 3451,
      "etrio": 3452,
      "hernan": 3453,
      "pasqualino": 3454,
      "chaima": 3455,
      "demetrio": 3456,
      "biel": 3457,
      "fu": 3458,
      "elda": 3459,
      "ensanta": 3460,
      "doina": 3461,
      "mariefrancoise": 3462,
      "luigino": 3463,
      "teodoro": 3464,
      "ciao": 3465,
      "fuensanta": 3466,
      "oel": 3467,
      "giudi": 3468,
      "manola": 3469,
      "adilson": 3470,
      "jeannoel": 3471,
      "giuditta": 3472,
      "fin": 3473,
      "iba": 3474,
      "ms": 3475,
      "sand": 3476,
      "dams": 3477,
      "gaspard": 3478,
      "fini": 3479,
      "ibai": 3480,
      "fam": 3481,
      "hadrien": 3482,
      "vette": 3483,
      "zar": 3484,
      "eno": 3485,
      "icius": 3486,
      "jota": 3487,
      "radu": 3488,
      "petra": 3489,
      "angy": 3490,
      "sarai": 3491,
      "vinicius": 3492,
      "sylvette": 3493,
      "luiza": 3494,
      "nelo": 3495,
      "giacin": 3496,
      "gaetana": 3497,
      "martins": 3498,
      "aires": 3499,
      "gwladys": 3500,
      "nazzar": 3501,
      "timothe": 3502,
      "familia": 3503,
      "giacinto": 3504,
      "nazzareno": 3505,
      "hilario": 3506,
      "prien": 3507,
      "smin": 3508,
      "tt": 3509,
      "cosmin": 3510,
      "mariachiara": 3511,
      "chico": 3512,
      "gues": 3513,
      "virgile": 3514,
      "cyprien": 3515,
      "eliott": 3516,
      "wilfrid": 3517,
      "rodrigues": 3518,
      "irati": 3519,
      "ere": 3520,
      "enora": 3521,
      "leandra": 3522,
      "juri": 3523,
      "imene": 3524,
      "berang": 3525,
      "cetty": 3526,
      "mariejo": 3527,
      "dioni": 3528,
      "gerson": 3529,
      "enea": 3530,
      "oleg": 3531,
      "fortuna": 3532,
      "berangere": 3533,
      "bas": 3534,
      "paky": 3535,
      "michelina": 3536,
      "rosamaria": 3537,
      "gaby": 3538,
      "paulinho": 3539,
      "milu": 3540,
      "siria": 3541,
      "serafino": 3542,
      "gildas": 3543,
      "licinia": 3544,
      "basile": 3545,
      "nita": 3546,
      "giero": 3547,
      "phile": 3548,
      "mariarita": 3549,
      "neide": 3550,
      "herminio": 3551,
      "fausta": 3552,
      "encarnita": 3553,
      "theophile": 3554,
      "adelaida": 3555,
      "sousa": 3556,
      "ruggiero": 3557,
      "prian": 3558,
      "giosu": 3559,
      "liud": 3560,
      "lyes": 3561,
      "ciprian": 3562,
      "nicu": 3563,
      "larissa": 3564,
      "georgina": 3565,
      "mumu": 3566,
      "felicidad": 3567,
      "nair": 3568,
      "aurea": 3569,
      "giosue": 3570,
      "liudmila": 3571,
      "hina": 3572,
      "kane": 3573,
      "tti": 3574,
      "maurizia": 3575,
      "nekane": 3576,
      "kahina": 3577,
      "didine": 3578,
      "gwendal": 3579,
      "goretti": 3580,
      "olatz": 3581,
      "non": 3582,
      "pari": 3583,
      "iamino": 3584,
      "macu": 3585,
      "romaric": 3586,
      "abder": 3587,
      "josemaria": 3588,
      "isabela": 3589,
      "beniamino": 3590,
      "silvino": 3591,
      "merchi": 3592,
      "ildefonso": 3593,
      "nicla": 3594,
      "albane": 3595,
      "iulia": 3596,
      "selma": 3597,
      "custodia": 3598,
      "nonna": 3599,
      "paride": 3600,
      "abderrahim": 3601,
      "lis": 3602,
      "illa": 3603,
      "josemanuel": 3604,
      "lucilla": 3605,
      "gianmaria": 3606,
      "orsola": 3607,
      "enriqueta": 3608,
      "cristiane": 3609,
      "sylvaine": 3610,
      "solenn": 3611,
      "auxi": 3612,
      "serafina": 3613,
      "lisandra": 3614,
      "mundo": 3615,
      "pes": 3616,
      "almer": 3617,
      "lopes": 3618,
      "edmundo": 3619,
      "same": 3620,
      "juanfran": 3621,
      "modou": 3622,
      "emiliana": 3623,
      "jero": 3624,
      "jonay": 3625,
      "agusti": 3626,
      "xisco": 3627,
      "xisca": 3628,
      "almerinda": 3629,
      "sameiro": 3630,
      "jane": 3631,
      "oana": 3632,
      "rt": 3633,
      "sli": 3634,
      "selmo": 3635,
      "vis": 3636,
      "anselmo": 3637,
      "virt": 3638,
      "soles": 3639,
      "sonsoles": 3640,
      "devis": 3641,
      "yoana": 3642,
      "udes": 3643,
      "chrystel": 3644,
      "tomeu": 3645,
      "hortensia": 3646,
      "janete": 3647,
      "slimane": 3648,
      "virtudes": 3649,
      "marzio": 3650,
      "sego": 3651,
      "meline": 3652,
      "riano": 3653,
      "victoriano": 3654,
      "segolene": 3655,
      "hi": 3656,
      "imiro": 3657,
      "tella": 3658,
      "ialen": 3659,
      "cova": 3660,
      "maica": 3661,
      "maialen": 3662,
      "paca": 3663,
      "mitru": 3664,
      "gomes": 3665,
      "sergiu": 3666,
      "salvina": 3667,
      "philipp": 3668,
      "domingas": 3669,
      "medhi": 3670,
      "donga": 3671,
      "cira": 3672,
      "dumitru": 3673,
      "maricruz": 3674,
      "maristella": 3675,
      "casimiro": 3676,
      "mouloud": 3677,
      "bartolomeo": 3678,
      "covadonga": 3679,
      "philippine": 3680,
      "hen": 3681,
      "khe": 3682,
      "romo": 3683,
      "jaqueline": 3684,
      "tibo": 3685,
      "belmiro": 3686,
      "albina": 3687,
      "mams": 3688,
      "henar": 3689,
      "kheira": 3690,
      "romolo": 3691,
      "bina": 3692,
      "saro": 3693,
      "arde": 3694,
      "madal": 3695,
      "rubina": 3696,
      "helga": 3697,
      "paulinha": 3698,
      "bernarde": 3699,
      "mymy": 3700,
      "denisa": 3701,
      "madalina": 3702,
      "bernardete": 3703,
      "ikh": 3704,
      "vina": 3705,
      "elvina": 3706,
      "esinha": 3707,
      "petru": 3708,
      "phanie": 3709,
      "auriane": 3710,
      "teresinha": 3711,
      "pierfrancesco": 3712,
      "etelvina": 3713,
      "tiphanie": 3714,
      "eloi": 3715,
      "xav": 3716,
      "cheikh": 3717,
      "foued": 3718,
      "felisbela": 3719,
      "kol": 3720,
      "yra": 3721,
      "anca": 3722,
      "arinho": 3723,
      "mait": 3724,
      "juanan": 3725,
      "ilies": 3726,
      "nayra": 3727,
      "decio": 3728,
      "cataldo": 3729,
      "rosarinho": 3730,
      "gaiz": 3731,
      "belinha": 3732,
      "ibon": 3733,
      "iuliana": 3734,
      "koldo": 3735,
      "maitane": 3736,
      "gaizka": 3737,
      "arben": 3738,
      "elisio": 3739,
      "enne": 3740,
      "josema": 3741,
      "juanlu": 3742,
      "rafel": 3743,
      "louane": 3744,
      "leone": 3745,
      "raffaello": 3746,
      "idade": 3747,
      "typhaine": 3748,
      "solenne": 3749,
      "desy": 3750,
      "felicidade": 3751,
      "pura": 3752,
      "orlanda": 3753,
      "geli": 3754,
      "iu": 3755,
      "iva": 3756,
      "iaco": 3757,
      "ersil": 3758,
      "ilir": 3759,
      "claudiu": 3760,
      "mariantonietta": 3761,
      "perico": 3762,
      "iacopo": 3763,
      "ersilia": 3764,
      "pela": 3765,
      "erminio": 3766,
      "lumin": 3767,
      "josemi": 3768,
      "joseantonio": 3769,
      "tof": 3770,
      "bento": 3771,
      "pierino": 3772,
      "pierrel": 3773,
      "valentim": 3774,
      "belmira": 3775,
      "duda": 3776,
      "ouis": 3777,
      "pelayo": 3778,
      "luminita": 3779,
      "pierrelouis": 3780,
      "marques": 3781,
      "vinda": 3782,
      "benvinda": 3783,
      "uliss": 3784,
      "natali": 3785,
      "mertxe": 3786,
      "esperanca": 3787,
      "giampietro": 3788,
      "odilia": 3789,
      "nilza": 3790,
      "chicca": 3791,
      "ulisses": 3792,
      "nataliya": 3793,
      "cri": 3794,
      "felia": 3795,
      "ofelia": 3796,
      "annun": 3797,
      "chu": 3798,
      "menchu": 3799,
      "fernandes": 3800,
      "celio": 3801,
      "ziata": 3802,
      "samuela": 3803,
      "paquito": 3804,
      "marilisa": 3805,
      "sirine": 3806,
      "annunziata": 3807,
      "mal": 3808,
      "micol": 3809,
      "oier": 3810,
      "uta": 3811,
      "ance": 3812,
      "iomar": 3813,
      "antia": 3814,
      "ritin": 3815,
      "laury": 3816,
      "soiz": 3817,
      "annachiara": 3818,
      "mariuccia": 3819,
      "guiomar": 3820,
      "italia": 3821,
      "adamo": 3822,
      "justino": 3823,
      "garance": 3824,
      "cande": 3825,
      "victorien": 3826,
      "amaro": 3827,
      "lenuta": 3828,
      "nilton": 3829,
      "mallaury": 3830,
      "ritinha": 3831,
      "soizic": 3832,
      "ef": 3833,
      "fali": 3834,
      "lloren": 3835,
      "lluisa": 3836,
      "estro": 3837,
      "mariajo": 3838,
      "ricio": 3839,
      "fabricio": 3840,
      "massi": 3841,
      "silvestro": 3842,
      "idalia": 3843,
      "natalino": 3844,
      "efisio": 3845,
      "llorenc": 3846,
      "baldo": 3847,
      "ubaldo": 3848,
      "visi": 3849,
      "ioa": 3850,
      "joca": 3851,
      "saioa": 3852,
      "nicolina": 3853,
      "marife": 3854,
      "gavino": 3855,
      "vitorino": 3856,
      "benjamim": 3857,
      "esteve": 3858,
      "cre": 3859,
      "calves": 3860,
      "rmino": 3861,
      "erco": 3862,
      "rogio": 3863,
      "caio": 3864,
      "giuly": 3865,
      "goncalves": 3866,
      "louanne": 3867,
      "nelu": 3868,
      "milde": 3869,
      "firmino": 3870,
      "doriano": 3871,
      "ambrogio": 3872,
      "xevi": 3873,
      "cremilde": 3874,
      "ercole": 3875,
      "pri": 3876,
      "markel": 3877,
      "gianmario": 3878,
      "sabry": 3879,
      "gerardina": 3880,
      "iglia": 3881,
      "salvi": 3882,
      "consiglia": 3883,
      "fedele": 3884,
      "natividade": 3885,
      "primo": 3886,
      "fon": 3887,
      "iry": 3888,
      "kin": 3889,
      "kele": 3890,
      "sina": 3891,
      "anjos": 3892,
      "endi": 3893,
      "alfon": 3894,
      "jokin": 3895,
      "dos": 3896,
      "paol": 3897,
      "manlio": 3898,
      "mikele": 3899,
      "ruy": 3900,
      "catello": 3901,
      "gertru": 3902,
      "giancarla": 3903,
      "pasqua": 3904,
      "albertino": 3905,
      "evandro": 3906,
      "aimar": 3907,
      "iryna": 3908,
      "endika": 3909,
      "alfonsina": 3910,
      "paolino": 3911,
      "gertrudes": 3912,
      "dje": 3913,
      "iy": 3914,
      "jani": 3915,
      "zu": 3916,
      "arka": 3917,
      "altin": 3918,
      "andriy": 3919,
      "mama": 3920,
      "racion": 3921,
      "zazu": 3922,
      "itz": 3923,
      "adoracion": 3924,
      "thais": 3925,
      "aranzazu": 3926,
      "chicco": 3927,
      "janire": 3928,
      "arkaitz": 3929,
      "mamadu": 3930,
      "hane": 3931,
      "ihane": 3932,
      "oihane": 3933,
      "xico": 3934,
      "ermes": 3935,
      "savio": 3936,
      "juande": 3937,
      "paty": 3938,
      "leonilde": 3939,
      "gilson": 3940,
      "vicenc": 3941,
      "josune": 3942,
      "ksandr": 3943,
      "narc": 3944,
      "sso": 3945,
      "wag": 3946,
      "iso": 3947,
      "altina": 3948,
      "chin": 3949,
      "russo": 3950,
      "filippa": 3951,
      "conchin": 3952,
      "zete": 3953,
      "cesaltina": 3954,
      "aday": 3955,
      "suzete": 3956,
      "rayco": 3957,
      "nives": 3958,
      "clarinda": 3959,
      "pinto": 3960,
      "kekka": 3961,
      "oleksandr": 3962,
      "narciso": 3963,
      "wagner": 3964,
      "uba": 3965,
      "lamberto": 3966,
      "mariacristina": 3967,
      "camino": 3968,
      "benilde": 3969,
      "silverio": 3970,
      "pierina": 3971,
      "gerarda": 3972,
      "gianpietro": 3973,
      "liuba": 3974,
      "donatello": 3975,
      "giordana": 3976,
      "alme": 3977,
      "mariajesus": 3978,
      "inacia": 3979,
      "mendes": 3980,
      "nicolau": 3981,
      "silvest": 3982,
      "giovy": 3983,
      "gianvito": 3984,
      "constantino": 3985,
      "ottavia": 3986,
      "libero": 3987,
      "uxia": 3988,
      "almeida": 3989,
      "silvestre": 3990,
      "lalla": 3991,
      "anxo": 3992,
      "onzo": 3993,
      "mapi": 3994,
      "ribe": 3995,
      "mariolina": 3996,
      "oronzo": 3997,
      "ribeiro": 3998,
      "dgero": 3999,
      "prado": 4000,
      "ludgero": 4001,
      "viana": 4002,
      "benat": 4003,
      "giulietta": 4004,
      "liviana": 4005,
      "raffy": 4006,
      "tininha": 4007,
      "emmanuele": 4008,
      "agostinha": 4009,
      "gualter": 4010,
      "aitzi": 4011,
      "cenzo": 4012,
      "cres": 4013,
      "itor": 4014,
      "lenia": 4015,
      "xita": 4016,
      "enda": 4017,
      "ondina": 4018,
      "lody": 4019,
      "ilica": 4020,
      "giandomenico": 4021,
      "conxita": 4022,
      "myr": 4023,
      "volody": 4024,
      "vasilica": 4025,
      "heitor": 4026,
      "eliseu": 4027,
      "elisenda": 4028,
      "aitziber": 4029,
      "crescenzo": 4030,
      "volodymyr": 4031,
      "fia": 4032,
      "ixe": 4033,
      "mme": 4034,
      "sid": 4035,
      "sito": 4036,
      "tto": 4037,
      "arca": 4038,
      "onio": 4039,
      "teixe": 4040,
      "mariarca": 4041,
      "titta": 4042,
      "elide": 4043,
      "concetto": 4044,
      "libera": 4045,
      "fiamme": 4046,
      "sidonio": 4047,
      "teixeira": 4048,
      "fiammetta": 4049,
      "geles": 4050,
      "dolo": 4051,
      "mangeles": 4052,
      "angus": 4053,
      "tias": 4054,
      "xaso": 4055,
      "itxaso": 4056,
      "feliciano": 4057,
      "angustias": 4058,
      "iar": 4059,
      "llo": 4060,
      "alcinda": 4061,
      "iciar": 4062,
      "lollo": 4063,
      "carval": 4064,
      "carmin": 4065,
      "kepa": 4066,
      "dinarte": 4067,
      "ludovina": 4068,
      "raimundo": 4069,
      "olaya": 4070,
      "carvalho": 4071,
      "carminho": 4072,
      "cul": 4073,
      "olalla": 4074,
      "hercul": 4075,
      "milva": 4076,
      "oliviero": 4077,
      "dias": 4078,
      "pinco": 4079,
      "herculano": 4080,
      "ayo": 4081,
      "iru": 4082,
      "naroa": 4083,
      "suel": 4084,
      "fabia": 4085,
      "estevao": 4086,
      "joaninha": 4087,
      "yuriy": 4088,
      "elisangela": 4089,
      "ayoze": 4090,
      "irune": 4091,
      "sueli": 4092,
      "mariagiovanna": 4093,
      "manela": 4094,
      "annaro": 4095,
      "rosinda": 4096,
      "flaminia": 4097,
      "giammarco": 4098,
      "braima": 4099,
      "hortense": 4100,
      "fefi": 4101,
      "uxue": 4102,
      "annarosa": 4103,
      "elina": 4104,
      "alaz": 4105,
      "tobia": 4106,
      "teiro": 4107,
      "francelina": 4108,
      "juanvi": 4109,
      "monteiro": 4110,
      "pierangela": 4111,
      "sabela": 4112,
      "vasyl": 4113,
      "agostina": 4114,
      "robson": 4115,
      "alazne": 4116,
      "biana": 4117,
      "pra": 4118,
      "pre": 4119,
      "zer": 4120,
      "ione": 4121,
      "lupo": 4122,
      "manila": 4123,
      "jaione": 4124,
      "moreira": 4125,
      "mascia": 4126,
      "bebiana": 4127,
      "consola": 4128,
      "ciosa": 4129,
      "alipio": 4130,
      "genni": 4131,
      "giambattista": 4132,
      "felismina": 4133,
      "prazer": 4134,
      "preciosa": 4135,
      "consolacion": 4136,
      "prazeres": 4137,
      "nin": 4138,
      "pos": 4139,
      "tx": 4140,
      "elet": 4141,
      "espos": 4142,
      "setta": 4143,
      "cosetta": 4144,
      "margali": 4145,
      "fortunata": 4146,
      "ninni": 4147,
      "txus": 4148,
      "elettra": 4149,
      "esposito": 4150,
      "margalida": 4151,
      "bete": 4152,
      "sabato": 4153,
      "urko": 4154,
      "cesarina": 4155,
      "maricica": 4156,
      "elisete": 4157,
      "heloisa": 4158,
      "gel": 4159,
      "jana": 4160,
      "speran": 4161,
      "marinho": 4162,
      "cacil": 4163,
      "somina": 4164,
      "betta": 4165,
      "dea": 4166,
      "orqui": 4167,
      "liban": 4168,
      "giustina": 4169,
      "agatino": 4170,
      "checco": 4171,
      "mayca": 4172,
      "demis": 4173,
      "tiero": 4174,
      "gualtiero": 4175,
      "gelsomina": 4176,
      "janaina": 4177,
      "speranza": 4178,
      "cacilda": 4179,
      "orquidea": 4180,
      "libania": 4181,
      "ive": 4182,
      "iosu": 4183,
      "mize": 4184,
      "edmil": 4185,
      "nicolino": 4186,
      "vieira": 4187,
      "cesario": 4188,
      "ivete": 4189,
      "edmilson": 4190,
      "dilia": 4191,
      "mpe": 4192,
      "anaisa": 4193,
      "marialaura": 4194,
      "rocha": 4195,
      "reia": 4196,
      "rosinha": 4197,
      "concy": 4198,
      "tila": 4199,
      "natxo": 4200,
      "correia": 4201,
      "giacoma": 4202,
      "pompe": 4203,
      "amerigo": 4204,
      "ricardina": 4205,
      "felisberto": 4206,
      "pompeo": 4207,
      "jole": 4208,
      "gionata": 4209,
      "alvise": 4210,
      "guga": 4211,
      "mele": 4212,
      "karmele": 4213,
      "uccio": 4214,
      "palmina": 4215,
      "pinuccio": 4216,
      "bale": 4217,
      "otel": 4218,
      "ares": 4219,
      "sandrinha": 4220,
      "soares": 4221,
      "annibale": 4222,
      "neves": 4223,
      "ilary": 4224,
      "armandina": 4225,
      "henriqueta": 4226,
      "pipa": 4227,
      "otello": 4228,
      "grino": 4229,
      "pelle": 4230,
      "zilia": 4231,
      "lapo": 4232,
      "viria": 4233,
      "caetano": 4234,
      "donzilia": 4235,
      "duccio": 4236,
      "ignazia": 4237,
      "arcangela": 4238,
      "costanzo": 4239,
      "pellegrino": 4240,
      "viriato": 4241,
      "ap": 4242,
      "cida": 4243,
      "kas": 4244,
      "ilidia": 4245,
      "cleide": 4246,
      "kikas": 4247,
      "annalaura": 4248,
      "graziela": 4249,
      "arecida": 4250,
      "abramo": 4251,
      "sveva": 4252,
      "aparecida": 4253,
      "mba": 4254,
      "zina": 4255,
      "enzina": 4256,
      "atrice": 4257,
      "manfred": 4258,
      "vincenzina": 4259,
      "salvatrice": 4260,
      "ulisse": 4261,
      "dira": 4262,
      "cardoso": 4263,
      "giustino": 4264,
      "luciene": 4265,
      "colomba": 4266,
      "jandira": 4267,
      "manfredi": 4268,
      "zilda": 4269,
      "erino": 4270,
      "mao": 4271,
      "romao": 4272,
      "ruca": 4273,
      "nunes": 4274,
      "guerino": 4275,
      "belita": 4276,
      "frederica": 4277,
      "lanfranco": 4278,
      "olavo": 4279,
      "ezia": 4280,
      "has": 4281,
      "vella": 4282,
      "anin": 4283,
      "errico": 4284,
      "lais": 4285,
      "novella": 4286,
      "vitale": 4287,
      "aninhas": 4288,
      "mariafrancesca": 4289,
      "leopol": 4290,
      "encarnacao": 4291,
      "leopoldina": 4292,
      "aus": 4293,
      "edmon": 4294,
      "isaque": 4295,
      "gianfranca": 4296,
      "liseta": 4297,
      "ausilia": 4298,
      "edmondo": 4299,
      "uario": 4300,
      "altino": 4301,
      "das": 4302,
      "herland": 4303,
      "terezinha": 4304,
      "januario": 4305,
      "herlander": 4306,
      "damia": 4307,
      "silda": 4308,
      "toninho": 4309,
      "merces": 4310,
      "cassilda": 4311,
      "damiao": 4312,
      "tixa": 4313,
      "micas": 4314,
      "soledade": 4315,
      "sinda": 4316,
      "tu": 4317,
      "verinha": 4318,
      "laurentina": 4319,
      "adosinda": 4320,
      "jonatas": 4321,
      "tuxa": 4322,
      "becas": 4323
    },
    "merges": [
      "a n",
      "a r",
      "e l",
      "i a",
      "i n",
      "m ar",
      "e r",
      "i s",
      "e n",
      "i o",
      "a l",
      "i c",
      "o n",
      "j o",
      "e s",
      "d r",
      "l a",
      "a t",
      "l o",
      "an a",
      "i l",
      "s e",
      "c ar",
      "l u",
      "an dr",
      "c o",
      "mar ia",
      "i e",
      "m a",
      "r a",
      "r o",
      "u el",
      "d o",
      "in a",
      "an t",
      "a b",
      "f r",
      "jo se",
      "v i",
      "t o",
      "p a",
      "p e",
      "d a",
      "fr an",
      "ant on",
      "in e",
      "r i",
      "m an",
      "t e",
      "an n",
      "l e",
      "la u",
      "j u",
      "t a",
      "m i",
      "r is",
      "fran c",
      "g o",
      "g i",
      "c h",
      "anton io",
      "r ic",
      "man uel",
      "e d",
      "andr e",
      "i m",
      "an i",
      "ar a",
      "s a",
      "b er",
      "ris t",
      "c a",
      "r u",
      "i an",
      "r e",
      "al e",
      "el a",
      "jo a",
      "lu is",
      "d ani",
      "g io",
      "an g",
      "car lo",
      "q u",
      "u s",
      "p h",
      "n o",
      "s andr",
      "pa u",
      "i ana",
      "r en",
      "j a",
      "m en",
      "joa o",
      "ic a",
      "ic o",
      "dr o",
      "pe dro",
      "carlo s",
      "s o",
      "vi d",
      "da vid",
      "is ab",
      "h el",
      "t h",
      "ale x",
      "ar do",
      "o l",
      "mi g",
      "mig uel",
      "en a",
      "ann a",
      "c rist",
      "r g",
      "ju an",
      "m ic",
      "ber to",
      "p at",
      "gi u",
      "ang el",
      "il i",
      "franc is",
      "m o",
      "s te",
      "franc es",
      "c lau",
      "clau d",
      "at h",
      "dani el",
      "mar co",
      "n a",
      "ju l",
      "e m",
      "p pe",
      "c e",
      "isab el",
      "s im",
      "f ab",
      "i en",
      "al es",
      "lu c",
      "i er",
      "s ara",
      "n ico",
      "a el",
      "j e",
      "to r",
      "f er",
      "m on",
      "a m",
      "francis co",
      "ri z",
      "a s",
      "a u",
      "v al",
      "s er",
      "pat ric",
      "vi er",
      "je an",
      "car men",
      "n an",
      "sandr a",
      "v an",
      "el la",
      "ma s",
      "v in",
      "andre a",
      "is a",
      "crist ina",
      "t er",
      "lu ca",
      "lau ra",
      "b ru",
      "j es",
      "t ia",
      "z o",
      "mar i",
      "n u",
      "b e",
      "mic hel",
      "fer nan",
      "qu e",
      "s on",
      "m e",
      "en t",
      "v ic",
      "mar io",
      "giu se",
      "m at",
      "b en",
      "ra f",
      "d e",
      "c at",
      "ro s",
      "c el",
      "al v",
      "s il",
      "frances co",
      "bru no",
      "giuse ppe",
      "pau lo",
      "ch rist",
      "rg e",
      "f ili",
      "v er",
      "mar ie",
      "jo rge",
      "g u",
      "pa o",
      "sil v",
      "in o",
      "es a",
      "ro sa",
      "ric ardo",
      "nico la",
      "ian o",
      "p ier",
      "ser gio",
      "ed er",
      "f an",
      "e t",
      "mar ta",
      "gio v",
      "ter esa",
      "fran co",
      "i d",
      "fernan do",
      "g ab",
      "patric ia",
      "y l",
      "an e",
      "ru i",
      "lo ren",
      "ann i",
      "sandr o",
      "a dr",
      "pau la",
      "sim on",
      "in es",
      "son ia",
      "ja vier",
      "ri ta",
      "gab ri",
      "ste fan",
      "ro berto",
      "mar t",
      "nu no",
      "i que",
      "car la",
      "r ia",
      "m in",
      "fab io",
      "tia go",
      "al berto",
      "jes us",
      "be at",
      "el ena",
      "at o",
      "ma u",
      "silv ia",
      "claud ia",
      "i ma",
      "vin c",
      "jo ana",
      "d io",
      "so f",
      "s alv",
      "ales sandro",
      "d ie",
      "c al",
      "h u",
      "s us",
      "en zo",
      "v a",
      "dani ela",
      "car ol",
      "q uel",
      "ar i",
      "h am",
      "mar g",
      "ar o",
      "ste ph",
      "r d",
      "sof ia",
      "vic tor",
      "d el",
      "mar c",
      "ang ela",
      "f at",
      "mon ica",
      "em il",
      "luc ia",
      "g er",
      "pa s",
      "m el",
      "t te",
      "n e",
      "val ent",
      "dio go",
      "se b",
      "giov anni",
      "il ar",
      "t on",
      "michel e",
      "gu il",
      "hu go",
      "ar ina",
      "sus ana",
      "as t",
      "pao lo",
      "giu l",
      "s yl",
      "manuel a",
      "el le",
      "nicola s",
      "ch ris",
      "z ia",
      "frances ca",
      "gi an",
      "g on",
      "lo u",
      "fat ima",
      "luis a",
      "sa m",
      "pier re",
      "c on",
      "cat arina",
      "beat riz",
      "c io",
      "u l",
      "mas sim",
      "r y",
      "ar d",
      "j er",
      "val er",
      "alex andre",
      "lu i",
      "ra quel",
      "mar iana",
      "ch i",
      "g a",
      "t i",
      "al ic",
      "is e",
      "gabri el",
      "f eder",
      "riz io",
      "ed u",
      "lau ren",
      "stefan o",
      "ver on",
      "raf ael",
      "k e",
      "en e",
      "n at",
      "n ath",
      "ol i",
      "te o",
      "seb ast",
      "ales s",
      "al ie",
      "e va",
      "mo ham",
      "to ph",
      "chris toph",
      "f lo",
      "christ ian",
      "g ra",
      "lui gi",
      "fili pe",
      "ru ben",
      "pau l",
      "m ath",
      "i van",
      "al ia",
      "o r",
      "andr a",
      "b ar",
      "ato re",
      "salv atore",
      "l ara",
      "mat teo",
      "al i",
      "im e",
      "ar io",
      "ma x",
      "b a",
      "le on",
      "an ie",
      "g e",
      "ph ili",
      "david e",
      "joa qu",
      "marg ari",
      "m er",
      "s ab",
      "h a",
      "carol ina",
      "phili ppe",
      "angel o",
      "b ara",
      "bar bara",
      "jes s",
      "i go",
      "andr o",
      "mar ina",
      "na d",
      "jul ien",
      "r el",
      "z a",
      "p ilar",
      "die go",
      "o mas",
      "th omas",
      "christoph e",
      "d i",
      "simon e",
      "el isab",
      "h er",
      "daniel e",
      "v ie",
      "claud io",
      "es sa",
      "van essa",
      "vinc enzo",
      "n el",
      "t ta",
      "el isa",
      "b el",
      "moham ed",
      "au rel",
      "ke vin",
      "cal o",
      "ric e",
      "vi tor",
      "l il",
      "t an",
      "massim o",
      "ja c",
      "r ina",
      "k ar",
      "k a",
      "ren e",
      "do min",
      "ro ber",
      "m il",
      "o ra",
      "jess ica",
      "nath alie",
      "en ri",
      "ale j",
      "o s",
      "alex andra",
      "loren zo",
      "gon calo",
      "a in",
      "fr eder",
      "edu ardo",
      "on so",
      "ann e",
      "g ia",
      "pao la",
      "vi rg",
      "d iana",
      "en n",
      "mic h",
      "margari da",
      "el ia",
      "hel ena",
      "er ic",
      "sebast ien",
      "valent ina",
      "chi ara",
      "anton ella",
      "jul ie",
      "l i",
      "f onso",
      "lo r",
      "syl vie",
      "p ab",
      "pab lo",
      "giul ia",
      "ch ar",
      "c ath",
      "andre ia",
      "isabel le",
      "sam uel",
      "virg in",
      "steph ane",
      "tan ia",
      "enri que",
      "y o",
      "g us",
      "lauren t",
      "ro dr",
      "s t",
      "ra ul",
      "patric k",
      "co r",
      "fili pa",
      "ber n",
      "ria m",
      "alej andro",
      "c le",
      "el o",
      "il de",
      "j on",
      "i rene",
      "ph ie",
      "rodr igo",
      "c il",
      "os car",
      "el i",
      "veron ica",
      "jo rd",
      "claud e",
      "an d",
      "l y",
      "v io",
      "nad ia",
      "ie u",
      "do men",
      "s ant",
      "e do",
      "alic e",
      "l es",
      "raf f",
      "ra mon",
      "christ ine",
      "alv aro",
      "crist ian",
      "sab rina",
      "rd es",
      "cle men",
      "mar isa",
      "p p",
      "al ain",
      "m ed",
      "oli vier",
      "o me",
      "ant h",
      "mar y",
      "anton ia",
      "nico le",
      "lau me",
      "guil laume",
      "c in",
      "so phie",
      "ce cil",
      "mau rizio",
      "sandr ine",
      "x a",
      "ca mil",
      "c lara",
      "ma in",
      "th ier",
      "ri an",
      "raff ael",
      "e manuel",
      "domen ico",
      "elisab e",
      "on y",
      "anth ony",
      "car m",
      "cel ine",
      "mart ina",
      "ro main",
      "pas cal",
      "mau ro",
      "jul ia",
      "lil iana",
      "franco is",
      "m y",
      "steph anie",
      "mi r",
      "p ie",
      "ales sandra",
      "riz ia",
      "vinc ent",
      "i re",
      "ant o",
      "nat alia",
      "luca s",
      "domin ique",
      "sara h",
      "e u",
      "freder ic",
      "max ime",
      "g il",
      "fernan da",
      "thier ry",
      "mar cel",
      "el e",
      "joaqu im",
      "valer ie",
      "adr ian",
      "in da",
      "jer em",
      "cat ia",
      "feder ica",
      "c y",
      "ros ario",
      "e o",
      "v e",
      "ton i",
      "feder ico",
      "u r",
      "stefan ia",
      "pat rizia",
      "en ric",
      "car do",
      "to mas",
      "ber t",
      "b ela",
      "d al",
      "jer ome",
      "ric cardo",
      "anto ine",
      "t ro",
      "z e",
      "rober ta",
      "giov anna",
      "ro cio",
      "g re",
      "aless ia",
      "f a",
      "em ma",
      "d en",
      "da mi",
      "d er",
      "au ro",
      "u d",
      "pie tro",
      "er ine",
      "cath erine",
      "n es",
      "cel ia",
      "f la",
      "adr iana",
      "th er",
      "an o",
      "d y",
      "jo h",
      "al ba",
      "e y",
      "aless io",
      "fab ien",
      "mar a",
      "con ce",
      "vic en",
      "mart ine",
      "an da",
      "ton y",
      "raf a",
      "ian e",
      "simon a",
      "gabriel e",
      "ath an",
      "jon athan",
      "c es",
      "v es",
      "qu i",
      "f loren",
      "lo la",
      "pas qu",
      "i t",
      "leon ardo",
      "y ann",
      "i b",
      "angel es",
      "andr es",
      "r gio",
      "gio rgio",
      "camil le",
      "gian luca",
      "ol ga",
      "clemen t",
      "a h",
      "y ol",
      "ma g",
      "franc k",
      "lu do",
      "do lor",
      "pa co",
      "ces ar",
      "as s",
      "alic ia",
      "mon t",
      "nu ria",
      "ver a",
      "ben ja",
      "ga et",
      "et ta",
      "jerem y",
      "franco ise",
      "g en",
      "eu gen",
      "es te",
      "to m",
      "ana bela",
      "al da",
      "id ia",
      "al fonso",
      "dr ic",
      "ce dric",
      "aurel ie",
      "benja min",
      "k ael",
      "pa qui",
      "y a",
      "f eli",
      "alex is",
      "mi riam",
      "pp o",
      "a del",
      "gi anni",
      "b ora",
      "de bora",
      "pasqu ale",
      "dal ena",
      "in ma",
      "jord i",
      "veron ique",
      "vicen te",
      "jo el",
      "bel en",
      "math ieu",
      "j enn",
      "c ed",
      "fab rizio",
      "z i",
      "jul io",
      "emil ie",
      "a d",
      "le a",
      "yol anda",
      "t at",
      "tat iana",
      "elo die",
      "es t",
      "g lo",
      "l ina",
      "glo ria",
      "qu ent",
      "virgin ie",
      "quent in",
      "v ia",
      "enric o",
      "l idia",
      "ar man",
      "mat tia",
      "dolor es",
      "fr edo",
      "nel son",
      "marco s",
      "ja vi",
      "ti z",
      "u ri",
      "ar na",
      "gra zia",
      "emanuel e",
      "mer ced",
      "merced es",
      "k at",
      "t in",
      "lou is",
      "flo rian",
      "ja ime",
      "hel der",
      "ar ia",
      "gi us",
      "a g",
      "man on",
      "u n",
      "v o",
      "es ther",
      "loren a",
      "d id",
      "xa vier",
      "l ene",
      "is sa",
      "valent in",
      "raffael e",
      "k o",
      "i da",
      "dr ey",
      "au drey",
      "mic kael",
      "mich ael",
      "al fredo",
      "mar ine",
      "emil io",
      "beat rice",
      "la et",
      "laet i",
      "ger ard",
      "h o",
      "ra ch",
      "qu es",
      "v as",
      "el sa",
      "valer ia",
      "mich ela",
      "did ier",
      "al o",
      "luc iano",
      "y ne",
      "fili ppo",
      "lo li",
      "k i",
      "d ine",
      "ah med",
      "le o",
      "d ario",
      "l an",
      "em manuel",
      "jac ques",
      "r il",
      "carol ine",
      "c la",
      "cla ire",
      "victor ia",
      "christ elle",
      "l ia",
      "dami en",
      "bern ard",
      "am el",
      "laeti tia",
      "b ri",
      "bri gi",
      "w il",
      "man u",
      "mario n",
      "hel ene",
      "mart in",
      "mel anie",
      "a do",
      "leon or",
      "vi t",
      "a man",
      "paul ine",
      "er i",
      "arna ud",
      "men a",
      "ren ato",
      "lauren ce",
      "ic k",
      "kat ia",
      "gre go",
      "mar ian",
      "cy ril",
      "emil ia",
      "al ina",
      "in ne",
      "lu rdes",
      "cor inne",
      "f i",
      "ant al",
      "ch antal",
      "ph ine",
      "gia co",
      "ma el",
      "auro ra",
      "i ta",
      "bru na",
      "francis ca",
      "en car",
      "ch a",
      "guil her",
      "mont se",
      "ros s",
      "lo e",
      "ana is",
      "giaco mo",
      "brigi tte",
      "syl va",
      "ilar ia",
      "d on",
      "c i",
      "car o",
      "arman do",
      "i g",
      "vit tor",
      "d u",
      "elisabe te",
      "o u",
      "ar t",
      "joaqu in",
      "no e",
      "mo rg",
      "th eo",
      "guilher me",
      "adr ien",
      "sylva in",
      "ge o",
      "mat ilde",
      "t ina",
      "l isa",
      "mi la",
      "ig na",
      "cecil ia",
      "ele on",
      "man o",
      "kar im",
      "den is",
      "ia go",
      "t is",
      "pier o",
      "cin zia",
      "c ris",
      "gio rg",
      "carm ela",
      "giorg ia",
      "pe pe",
      "il e",
      "h enrique",
      "tiz iana",
      "bern ardo",
      "kar ine",
      "con chi",
      "joh n",
      "ro ger",
      "ch loe",
      "p er",
      "pe p",
      "no elia",
      "il iano",
      "massim iliano",
      "gius y",
      "del phine",
      "virgin ia",
      "fr ed",
      "m ina",
      "p tis",
      "ba ptis",
      "baptis te",
      "h e",
      "o mar",
      "fab rice",
      "o it",
      "ben oit",
      "cecil e",
      "a fonso",
      "th ib",
      "thib au",
      "al do",
      "f alda",
      "ma falda",
      "floren ce",
      "mel issa",
      "luc ie",
      "lo ic",
      "gaet ano",
      "ie tta",
      "eleon ora",
      "so ra",
      "a da",
      "i fer",
      "jenn ifer",
      "do u",
      "mon ique",
      "mel o",
      "g is",
      "lo mena",
      "fi lomena",
      "y ves",
      "ludo vic",
      "math ilde",
      "i te",
      "lou rdes",
      "ar te",
      "vas co",
      "ann y",
      "gabri ela",
      "er ina",
      "lo tte",
      "cat erina",
      "char lotte",
      "al bert",
      "jo an",
      "fla vio",
      "du arte",
      "z io",
      "ann ie",
      "gus ta",
      "ica o",
      "sant iago",
      "conce icao",
      "mi re",
      "mar il",
      "en za",
      "mari bel",
      "f ina",
      "k el",
      "e manuela",
      "ma dalena",
      "rober t",
      "gil les",
      "l inda",
      "d yl",
      "dyl an",
      "elisabe th",
      "s al",
      "is mael",
      "ser ena",
      "marc ia",
      "vi to",
      "mat th",
      "ros aria",
      "f anny",
      "d an",
      "silv ana",
      "flo r",
      "eri ka",
      "aman dine",
      "p aro",
      "am paro",
      "at a",
      "g ina",
      "caro le",
      "pas c",
      "elisab etta",
      "my riam",
      "van ia",
      "e a",
      "s u",
      "car melo",
      "ra ph",
      "car ina",
      "noe mi",
      "ju st",
      "ag nes",
      "t el",
      "anton ietta",
      "domin go",
      "mir ko",
      "salv ado",
      "salvado r",
      "g enn",
      "n ina",
      "me h",
      "a gus",
      "nad ine",
      "her ve",
      "carm ine",
      "gabri ella",
      "crist iana",
      "g ael",
      "sa id",
      "adr iano",
      "just ine",
      "ma ite",
      "angel ique",
      "a x",
      "mano lo",
      "mi m",
      "raph ael",
      "ru te",
      "ed ana",
      "lor edana",
      "jose p",
      "m berto",
      "ma so",
      "tom maso",
      "d ina",
      "vi vi",
      "se ver",
      "sever ine",
      "ser ge",
      "aurel ien",
      "o ce",
      "rach id",
      "oce ane",
      "le andro",
      "igna cio",
      "ci ro",
      "anna maria",
      "jord an",
      "char les",
      "na de",
      "l io",
      "ani ta",
      "gian carlo",
      "f io",
      "h ard",
      "ric hard",
      "ben ed",
      "patric e",
      "morg ane",
      "matth ieu",
      "pep i",
      "m uri",
      "feli x",
      "ad ela",
      "dani lo",
      "lau re",
      "el yne",
      "eugen ia",
      "i la",
      "ta mara",
      "am elia",
      "ross ella",
      "lia m",
      "wil liam",
      "ros anna",
      "marcel lo",
      "crist iano",
      "gra ca",
      "mar lene",
      "le tte",
      "p ina",
      "gu y",
      "ra h",
      "re mi",
      "con s",
      "w al",
      "amel ie",
      "franc a",
      "luc iana",
      "ann al",
      "encar na",
      "nu n",
      "ra y",
      "lau r",
      "k y",
      "cio n",
      "ic ia",
      "vittor io",
      "gusta vo",
      "jose fa",
      "fabien ne",
      "yann ick",
      "ari anna",
      "ju ani",
      "annal isa",
      "ju ana",
      "el lo",
      "cath y",
      "n er",
      "gia da",
      "grego ry",
      "b an",
      "ge ma",
      "pasc ale",
      "valer io",
      "jul ian",
      "sim o",
      "re be",
      "cin dy",
      "eugen io",
      "f o",
      "l fo",
      "ang e",
      "giul io",
      "ju di",
      "den ise",
      "au gus",
      "meh di",
      "e v",
      "l ine",
      "c co",
      "l er",
      "guil ler",
      "guiller mo",
      "mar iano",
      "al ine",
      "lu ana",
      "ab del",
      "el vi",
      "elvi ra",
      "ner ea",
      "ar th",
      "arth ur",
      "c ia",
      "n ie",
      "nie ves",
      "raffael la",
      "genn aro",
      "est elle",
      "marcel o",
      "be gon",
      "begon a",
      "ro cco",
      "quel ine",
      "a go",
      "ago st",
      "i do",
      "mari anna",
      "z alo",
      "anton ino",
      "ch e",
      "gon zalo",
      "g ar",
      "il le",
      "ev elyne",
      "rah im",
      "mar ic",
      "er nes",
      "ernes to",
      "marg her",
      "margher ita",
      "a i",
      "man oli",
      "p ili",
      "art ur",
      "christian e",
      "d ia",
      "g h",
      "lio nel",
      "ax el",
      "g w",
      "n ic",
      "gian franco",
      "ma dou",
      "be a",
      "agus tin",
      "i vo",
      "ch o",
      "na cho",
      "auro re",
      "floren t",
      "feli pe",
      "f el",
      "salv o",
      "claud ine",
      "igo r",
      "n i",
      "r and",
      "no em",
      "ar men",
      "t y",
      "yo us",
      "jac queline",
      "ed gar",
      "don at",
      "p ino",
      "marc io",
      "dan y",
      "angel ica",
      "ry an",
      "margari ta",
      "rafa ela",
      "b o",
      "b ia",
      "debora h",
      "et te",
      "mag ali",
      "er ica",
      "l ena",
      "i v",
      "lu z",
      "fla via",
      "ger al",
      "ter e",
      "samuel e",
      "co ren",
      "coren tin",
      "k h",
      "ro b",
      "gra zi",
      "augus to",
      "giuse pp",
      "moham med",
      "giusepp ina",
      "b al",
      "donat ella",
      "marian g",
      "ada m",
      "u ro",
      "conce tta",
      "c an",
      "ma y",
      "van esa",
      "julie tte",
      "mi ha",
      "edo ardo",
      "b lan",
      "blan ca",
      "so l",
      "ger ardo",
      "il io",
      "n ella",
      "grazi ella",
      "ia s",
      "h ass",
      "an is",
      "nath an",
      "hass an",
      "c u",
      "m ica",
      "d in",
      "ro se",
      "ai tor",
      "g emma",
      "c tor",
      "ph a",
      "he ctor",
      "en ia",
      "se f",
      "yous sef",
      "michel le",
      "u mberto",
      "da d",
      "r ella",
      "mar is",
      "yo u",
      "us ta",
      "sora ia",
      "il ia",
      "el ise",
      "d ul",
      "dul ce",
      "re my",
      "t icia",
      "le ticia",
      "b ast",
      "io n",
      "bast ien",
      "muri el",
      "kh al",
      "gael le",
      "r in",
      "jo s",
      "jean pierre",
      "sebast ian",
      "ren ata",
      "fab iana",
      "mim mo",
      "daniel le",
      "jul iana",
      "emmanuel le",
      "i rina",
      "l t",
      "ann ick",
      "per an",
      "thibau lt",
      "maric armen",
      "g ino",
      "au x",
      "ab el",
      "b or",
      "bor ja",
      "jo elle",
      "p o",
      "r at",
      "ch aro",
      "es ter",
      "do ra",
      "ja co",
      "cor alie",
      "el ie",
      "ri ane",
      "gaet an",
      "ri d",
      "l ar",
      "im o",
      "yo h",
      "g ine",
      "juan jo",
      "a y",
      "p alo",
      "ma eva",
      "palo ma",
      "geo rg",
      "i de",
      "la da",
      "man el",
      "nicole tta",
      "inma cu",
      "inmacu lada",
      "giul iano",
      "sab ine",
      "man e",
      "art uro",
      "l ili",
      "ab e",
      "sam ant",
      "es peran",
      "maris ol",
      "n ino",
      "pe pa",
      "mire ille",
      "m usta",
      "a c",
      "sa mi",
      "mo mo",
      "cris to",
      "ro do",
      "l and",
      "este ban",
      "noem ie",
      "jenn y",
      "wal ter",
      "cel este",
      "nat a",
      "nico lo",
      "val ter",
      "sant i",
      "silv io",
      "j im",
      "isabel la",
      "d es",
      "mo ren",
      "fa us",
      "p ia",
      "marg aux",
      "giul iana",
      "i ra",
      "pe ppe",
      "m u",
      "v en",
      "ste ven",
      "jo cel",
      "us sa",
      "mari ella",
      "jocel yne",
      "alej andra",
      "h ic",
      "ass un",
      "so le",
      "l ino",
      "y ass",
      "can di",
      "gu ido",
      "roger io",
      "nun zia",
      "a zi",
      "azi z",
      "adel ine",
      "van da",
      "esperan za",
      "s ima",
      "t ri",
      "sima o",
      "m ali",
      "georg es",
      "is la",
      "sora ya",
      "a ma",
      "a ida",
      "ma madou",
      "ri ana",
      "franc e",
      "yo ann",
      "clemen ce",
      "el io",
      "fan ia",
      "este fania",
      "ma d",
      "ga ia",
      "rebe ca",
      "ar da",
      "am alia",
      "lou ise",
      "le ti",
      "leti zia",
      "ain ho",
      "ly dia",
      "ainho a",
      "jose ph",
      "carlo ta",
      "ien ne",
      "in ha",
      "domingo s",
      "io l",
      "tel ma",
      "ar on",
      "nata cha",
      "z abe",
      "eli zabe",
      "bert rand",
      "mart im",
      "mil ena",
      "fel ic",
      "oli via",
      "adela ide",
      "ham za",
      "freder ico",
      "b ian",
      "car ine",
      "bian ca",
      "am ine",
      "b ryan",
      "mag da",
      "and er",
      "mari ka",
      "vittor ia",
      "gia m",
      "in ho",
      "i ris",
      "ver o",
      "or lan",
      "orlan do",
      "co simo",
      "jim my",
      "don ato",
      "is es",
      "car mo",
      "mo ises",
      "je anne",
      "sebast iano",
      "nade ge",
      "im ma",
      "mari us",
      "d ino",
      "ser gi",
      "f fr",
      "m ud",
      "al mud",
      "ffr ey",
      "almud ena",
      "es e",
      "ther ese",
      "encar ni",
      "lo lo",
      "sa mir",
      "ros y",
      "edu arda",
      "maril ena",
      "assun ta",
      "il da",
      "i to",
      "ros i",
      "jos iane",
      "uel o",
      "cons uelo",
      "jaco po",
      "y anis",
      "as un",
      "jean luc",
      "x ana",
      "ros alia",
      "ser rat",
      "mont serrat",
      "tel mo",
      "ly die",
      "xa vi",
      "christoph er",
      "may te",
      "c lar",
      "le ila",
      "mi tri",
      "di mitri",
      "r io",
      "u me",
      "y as",
      "mi d",
      "ja ume",
      "ha mid",
      "mary se",
      "vivi ana",
      "lo ris",
      "isa ac",
      "mo ussa",
      "jean claude",
      "marg a",
      "and y",
      "ra do",
      "ce u",
      "samant ha",
      "b il",
      "gw en",
      "ver io",
      "o de",
      "camil la",
      "gh isla",
      "y es",
      "khal id",
      "jul es",
      "et ienne",
      "adel e",
      "luc io",
      "c ine",
      "f ar",
      "nel ly",
      "h enri",
      "o ph",
      "hic ham",
      "oph elie",
      "mer y",
      "ar min",
      "er w",
      "ol inda",
      "mar yl",
      "kel ly",
      "st ella",
      "rob in",
      "g rid",
      "in grid",
      "sol ange",
      "emil iano",
      "dami ano",
      "jose fina",
      "ber nade",
      "bernade tte",
      "do rian",
      "ca s",
      "g as",
      "sa o",
      "gra z",
      "et to",
      "or nella",
      "k im",
      "p uri",
      "mire ia",
      "o d",
      "co lette",
      "ado lfo",
      "iv ana",
      "v ine",
      "lu di",
      "ludi vine",
      "en ce",
      "re gis",
      "fat i",
      "max ence",
      "thibau t",
      "cristo bal",
      "jac in",
      "t rin",
      "mir ella",
      "alex ia",
      "t ty",
      "anton ello",
      "cor rado",
      "cesar e",
      "jac ky",
      "geral dine",
      "ren zo",
      "na i",
      "la s",
      "el iane",
      "ara cel",
      "morg an",
      "aracel i",
      "ros alba",
      "mi kel",
      "juan ma",
      "sa verio",
      "am b",
      "fabio la",
      "est ela",
      "g ene",
      "y v",
      "vie ve",
      "gene vieve",
      "faus to",
      "t rist",
      "el ine",
      "trist an",
      "laur ie",
      "mariang ela",
      "ross ana",
      "d ali",
      "dali la",
      "aurel io",
      "musta pha",
      "g ros",
      "ru th",
      "mila gros",
      "math is",
      "mer che",
      "c id",
      "ar e",
      "mar zia",
      "ja m",
      "ludo v",
      "no ra",
      "jean marc",
      "sof iane",
      "tiz iano",
      "elizabe th",
      "is i",
      "ro mina",
      "grego rio",
      "nat i",
      "mo ha",
      "rach el",
      "gre g",
      "mer ce",
      "bened etta",
      "ger man",
      "b rahim",
      "ina ki",
      "jean francois",
      "jo su",
      "miha ela",
      "ja de",
      "lil iane",
      "u go",
      "rodo lfo",
      "ana bel",
      "freder ique",
      "char lene",
      "geo ffrey",
      "flor in",
      "mi ke",
      "mica ela",
      "mar go",
      "margo t",
      "gas p",
      "i k",
      "od ile",
      "ik er",
      "b rice",
      "k amel",
      "co co",
      "erw an",
      "mel ina",
      "vivi ane",
      "il enia",
      "marc ella",
      "ar ant",
      "el iana",
      "yass ine",
      "felic e",
      "mir co",
      "judi th",
      "din is",
      "guil le",
      "ramon a",
      "st ant",
      "k il",
      "sal ome",
      "s ta",
      "vas ile",
      "bia gio",
      "mi quel",
      "ger o",
      "flo ra",
      "gius i",
      "per e",
      "agost ino",
      "sole dad",
      "es mer",
      "andre i",
      "mau d",
      "jac k",
      "ray mon",
      "esmer alda",
      "be tty",
      "f ul",
      "ja son",
      "th e",
      "l ise",
      "is se",
      "mau ric",
      "ari ta",
      "gil bert",
      "jose tte",
      "ste ve",
      "mad dalena",
      "est rella",
      "a aron",
      "go re",
      "jean michel",
      "cons tan",
      "kar en",
      "ghisla ine",
      "so u",
      "sus anna",
      "m ela",
      "pa mela",
      "al b",
      "r ine",
      "ka der",
      "e ve",
      "joh an",
      "k ha",
      "ed i",
      "di ja",
      "agost inho",
      "kha dija",
      "mo u",
      "graz iano",
      "ath e",
      "nan do",
      "ag athe",
      "far id",
      "am ina",
      "em eline",
      "van o",
      "sil vano",
      "pier luigi",
      "gi anna",
      "au de",
      "mi ro",
      "lo re",
      "franc ine",
      "cid alia",
      "gi gi",
      "is ra",
      "pe ter",
      "am er",
      "ray an",
      "isra el",
      "s he",
      "ber ta",
      "jerem ie",
      "clar isse",
      "she ila",
      "a you",
      "ayou b",
      "s i",
      "ser a",
      "u re",
      "ela ure",
      "ben ito",
      "mari anne",
      "seb as",
      "mag dalena",
      "gis ele",
      "ode te",
      "maria grazia",
      "re gina",
      "r ino",
      "mali ka",
      "n ab",
      "nan cy",
      "aman da",
      "maryl ine",
      "nab il",
      "p ol",
      "simon etta",
      "hu gu",
      "d dy",
      "te ddy",
      "ro land",
      "ed dy",
      "l ian",
      "ma men",
      "pier a",
      "mau rice",
      "gre ta",
      "i ro",
      "ida d",
      "maril ia",
      "u c",
      "ca mila",
      "min ia",
      "cyril le",
      "ton ino",
      "r ie",
      "mar jo",
      "me t",
      "anne marie",
      "yoh an",
      "marjo rie",
      "la ia",
      "math ias",
      "nun zio",
      "ire e",
      "des iree",
      "ib rahim",
      "su z",
      "a z",
      "ti to",
      "carlo tta",
      "so lene",
      "joh anna",
      "gis ela",
      "u ard",
      "el es",
      "car les",
      "ros ana",
      "edo uard",
      "pa z",
      "mat eo",
      "valent ino",
      "m ine",
      "ste f",
      "re gine",
      "li gia",
      "n y",
      "enric a",
      "john ny",
      "amer ico",
      "bil al",
      "ad il",
      "ja mel",
      "candi da",
      "ab dou",
      "ivan o",
      "r an",
      "ch ari",
      "salv a",
      "wal id",
      "ann arita",
      "car me",
      "ro mane",
      "moren a",
      "vic ky",
      "fio rella",
      "the e",
      "aurel ia",
      "jam es",
      "isi dro",
      "l ana",
      "a ic",
      "p i",
      "y s",
      "yoh ann",
      "aic ha",
      "n th",
      "mi ra",
      "gil berto",
      "cy nth",
      "cynth ia",
      "in igo",
      "mim ma",
      "c ca",
      "io nu",
      "jean louis",
      "rebe cca",
      "ionu t",
      "s andy",
      "vi ane",
      "syl viane",
      "agnes e",
      "muri elle",
      "f f",
      "maria m",
      "ra d",
      "re zia",
      "luc rezia",
      "mou rad",
      "alex andr",
      "mari aro",
      "ru z",
      "na ima",
      "ic te",
      "con cha",
      "ki ko",
      "bened icte",
      "valent ine",
      "leon el",
      "g au",
      "i z",
      "na z",
      "or t",
      "car ena",
      "ma carena",
      "yv ette",
      "arant xa",
      "ne u",
      "miha i",
      "l luis",
      "x e",
      "al an",
      "jean paul",
      "ki ke",
      "c en",
      "angel ina",
      "iol anda",
      "sam y",
      "igna zio",
      "f ato",
      "frances c",
      "gian marco",
      "char ly",
      "fato u",
      "laur ine",
      "moren o",
      "ch elo",
      "as ier",
      "geral d",
      "sera f",
      "e mi",
      "m yl",
      "re me",
      "de olinda",
      "mariang eles",
      "myl ene",
      "i r",
      "luc ile",
      "del ia",
      "in ella",
      "mar inella",
      "etto re",
      "f ed",
      "r es",
      "is s",
      "ti ti",
      "mag alie",
      "j p",
      "on e",
      "iv one",
      "jacin to",
      "au gusta",
      "hu mberto",
      "joaqu ina",
      "ha kim",
      "k arina",
      "sus y",
      "re yes",
      "jean marie",
      "edi th",
      "al lan",
      "sab ina",
      "li lou",
      "ful vio",
      "m ino",
      "mauric io",
      "p al",
      "fran k",
      "ludov ica",
      "ani bal",
      "mon ia",
      "cat alina",
      "aro a",
      "s ana",
      "ren au",
      "jean baptiste",
      "renau d",
      "sal ah",
      "t ang",
      "u y",
      "lo t",
      "tang uy",
      "e us",
      "ab ra",
      "so so",
      "rach ele",
      "sal im",
      "sami ra",
      "paqui ta",
      "cas sandra",
      "ru dy",
      "asun cion",
      "as ia",
      "sant os",
      "mica el",
      "kil lian",
      "sa cha",
      "luc ien",
      "c and",
      "jo jo",
      "pat ri",
      "je ann",
      "raymon d",
      "na s",
      "an do",
      "co lo",
      "fer din",
      "math eo",
      "ferdin ando",
      "p cion",
      "conce pcion",
      "yas mina",
      "ab ilio",
      "zo e",
      "vinc enza",
      "jess y",
      "vitor ia",
      "pha ine",
      "is ma",
      "ro me",
      "char line",
      "ora zio",
      "geo rge",
      "trin i",
      "no r",
      "elo y",
      "vio la",
      "s tan",
      "or iol",
      "andre ea",
      "no el",
      "to to",
      "sara y",
      "sam ia",
      "b ou",
      "b land",
      "do ro",
      "le ta",
      "vio leta",
      "bland ine",
      "yl enia",
      "al in",
      "adel ino",
      "judi t",
      "mer ic",
      "eri k",
      "ay meric",
      "ili en",
      "cat i",
      "kar ima",
      "nan ou",
      "sant o",
      "e zio",
      "ren co",
      "jean philippe",
      "lou renco",
      "clement ine",
      "y uri",
      "loren za",
      "ya cine",
      "armin da",
      "no ur",
      "gu ida",
      "grego ire",
      "c ruz",
      "gw ena",
      "sa ul",
      "hel io",
      "lil ian",
      "ra miro",
      "adr i",
      "abra ham",
      "gil da",
      "t ino",
      "el mo",
      "al fio",
      "an ia",
      "mel ania",
      "o phie",
      "es ophie",
      "ann esophie",
      "no elle",
      "pat rizio",
      "domen ica",
      "ag ata",
      "josu e",
      "pi ppo",
      "nat as",
      "fer ran",
      "nic colo",
      "fed e",
      "lu lu",
      "luc ilia",
      "is on",
      "al ison",
      "per rine",
      "mar tia",
      "ax elle",
      "martia l",
      "giam piero",
      "dr iss",
      "pier paolo",
      "rose tta",
      "d na",
      "aria dna",
      "mali k",
      "ti t",
      "calo gero",
      "val do",
      "mau ra",
      "os valdo",
      "lor ella",
      "cin da",
      "s ia",
      "wil ly",
      "a dal",
      "k yl",
      "u pe",
      "al ban",
      "gu adal",
      "ne us",
      "yo an",
      "yas mine",
      "guadal upe",
      "t ilio",
      "u al",
      "at tilio",
      "to lo",
      "th a",
      "hu bert",
      "bar tolo",
      "lil ia",
      "pasc ual",
      "suz anne",
      "u nai",
      "mar ino",
      "pau le",
      "marie christine",
      "con stant",
      "rob y",
      "f fan",
      "ti ffan",
      "tiffan y",
      "is io",
      "christ el",
      "nicole ta",
      "gio rd",
      "alex ander",
      "id alina",
      "che ma",
      "g ane",
      "me gane",
      "b rand",
      "luc inda",
      "dolor s",
      "armin do",
      "brand on",
      "syl via",
      "wil fr",
      "flo riane",
      "eu nic",
      "eunic e",
      "d iane",
      "ar lette",
      "vic to",
      "s v",
      "dami an",
      "jon at",
      "jean jacques",
      "an issa",
      "as cen",
      "vin ia",
      "judi te",
      "z elia",
      "sus i",
      "ton ia",
      "amb re",
      "sebas tia",
      "c ic",
      "v ale",
      "mi kael",
      "ed eo",
      "am edeo",
      "cic cio",
      "al d",
      "ro mu",
      "gab i",
      "virg ilio",
      "elia s",
      "romu ald",
      "michel ine",
      "arna u",
      "marc ela",
      "elo ise",
      "ci la",
      "fred dy",
      "ama ia",
      "n aldo",
      "ar naldo",
      "mi ka",
      "au ra",
      "nel lo",
      "je ff",
      "x ab",
      "y oli",
      "her minia",
      "joh ann",
      "neu za",
      "k enza",
      "it zi",
      "ma elle",
      "cel so",
      "ho las",
      "nic holas",
      "j an",
      "ar mel",
      "adr ia",
      "ti phaine",
      "elisab et",
      "constan ca",
      "armel le",
      "lo ly",
      "an de",
      "ro xana",
      "ch us",
      "mat ias",
      "st el",
      "yol ande",
      "flor bela",
      "f ort",
      "i za",
      "ya iza",
      "l ph",
      "anton in",
      "ric k",
      "pier rick",
      "bo ris",
      "rodo lph",
      "rodolph e",
      "k sana",
      "o ksana",
      "p ris",
      "y er",
      "al c",
      "gu e",
      "you nes",
      "fati ha",
      "yer ay",
      "io s",
      "re med",
      "ja iro",
      "fer min",
      "mat t",
      "remed ios",
      "e ine",
      "ma del",
      "andre e",
      "be ppe",
      "madel eine",
      "r ka",
      "do line",
      "go rka",
      "gwen doline",
      "y van",
      "jo ris",
      "ed ite",
      "gian luigi",
      "wil son",
      "a mar",
      "io ana",
      "le ire",
      "meh met",
      "jonat an",
      "ali x",
      "adel ia",
      "genn y",
      "c ta",
      "o cta",
      "gabri elle",
      "jeann ine",
      "octa vio",
      "qu im",
      "co line",
      "jose phine",
      "jean yves",
      "guille m",
      "ar an",
      "al zi",
      "la h",
      "vin o",
      "khal ed",
      "alzi ra",
      "anton y",
      "candi do",
      "ro man",
      "nel ia",
      "g g",
      "pe gg",
      "ju ju",
      "luc y",
      "et lana",
      "sv etlana",
      "pegg y",
      "d jamel",
      "i ul",
      "angel e",
      "mari lo",
      "encarna cion",
      "i ara",
      "l ie",
      "mo un",
      "mari elaure",
      "mart ino",
      "les lie",
      "musta fa",
      "nas sim",
      "moun ir",
      "t imo",
      "on imo",
      "lou lou",
      "jer onimo",
      "lore tta",
      "ab elle",
      "ann abelle",
      "marie france",
      "s ica",
      "do ri",
      "li la",
      "cil lia",
      "trin idad",
      "alexandr u",
      "mar vin",
      "anton i",
      "claud ie",
      "f ou",
      "ain ara",
      "gau thier",
      "i ka",
      "is aura",
      "nat ale",
      "vicen ta",
      "nati vi",
      "doro thee",
      "h em",
      "la dy",
      "sant ina",
      "pep ita",
      "laur inda",
      "hugu es",
      "constant in",
      "lady s",
      "ham mad",
      "mu hammad",
      "d ella",
      "l in",
      "ar lin",
      "ab della",
      "ki ki",
      "arlin do",
      "abdella h",
      "d em",
      "g li",
      "p in",
      "mar tha",
      "gu gli",
      "gugli elmo",
      "jo e",
      "uc ena",
      "az ucena",
      "e ze",
      "seb io",
      "edu ard",
      "lil y",
      "eu sebio",
      "qui el",
      "giord ano",
      "eze quiel",
      "e ma",
      "cle m",
      "giam paolo",
      "hel o",
      "marcel ino",
      "l ello",
      "s aria",
      "marie claude",
      "rene e",
      "thibau d",
      "mariaro saria",
      "crist i",
      "be go",
      "cat alin",
      "ast rid",
      "li vio",
      "arman d",
      "bo b",
      "e van",
      "i ge",
      "w ige",
      "lu na",
      "ed wige",
      "gine tte",
      "sebastia o",
      "h aron",
      "j c",
      "n ana",
      "s haron",
      "u z",
      "al onso",
      "re da",
      "ph il",
      "maril uz",
      "ru g",
      "c cio",
      "g dan",
      "ma ya",
      "ro ser",
      "ch ry",
      "silv a",
      "bo gdan",
      "pierre tte",
      "amb ra",
      "ar iana",
      "mari vi",
      "mat eus",
      "bened etto",
      "gwena elle",
      "bartolo me",
      "li via",
      "isma il",
      "c lot",
      "ana sta",
      "gasp ar",
      "itzi ar",
      "clot ilde",
      "anasta sia",
      "ani ello",
      "jean christophe",
      "flo riana",
      "i us",
      "p u",
      "x ane",
      "io an",
      "maria teresa",
      "ro xane",
      "to ze",
      "fab ian",
      "conchi ta",
      "o t",
      "albert ina",
      "ot ilia",
      "michel angelo",
      "ya ya",
      "ar c",
      "rg he",
      "raf i",
      "oli ver",
      "eo rghe",
      "gh eorghe",
      "mar ica",
      "patric io",
      "e ul",
      "ros ella",
      "jacin ta",
      "eul alia",
      "do m",
      "ric ard",
      "gasp are",
      "j b",
      "l ella",
      "s ion",
      "em ilien",
      "gra cinda",
      "ascen sion",
      "b las",
      "co stan",
      "vi en",
      "no rd",
      "van e",
      "sant a",
      "pie dad",
      "fla vien",
      "fio na",
      "constan ce",
      "nord ine",
      "co stant",
      "ton o",
      "bil el",
      "pal mira",
      "costant ino",
      "g ines",
      "pau lette",
      "jean ine",
      "jan ine",
      "fat ma",
      "a it",
      "da de",
      "angel ines",
      "be ta",
      "ros elyne",
      "ilar io",
      "julie ta",
      "rodr i",
      "yann is",
      "ait ana",
      "lo ry",
      "maria jose",
      "ros ita",
      "nes tor",
      "matth ias",
      "a v",
      "r on",
      "el ino",
      "ma m",
      "angel s",
      "vic ent",
      "cor ine",
      "kyl ian",
      "av elino",
      "ron an",
      "t ru",
      "ie d",
      "ro mano",
      "ab do",
      "andre u",
      "ste eve",
      "hugu ette",
      "wilfr ied",
      "c loe",
      "h an",
      "p pa",
      "mar u",
      "ann elaure",
      "han ane",
      "a ela",
      "ric o",
      "gu i",
      "lui z",
      "raff aela",
      "noem ia",
      "alb ino",
      "franc y",
      "arman da",
      "melo die",
      "sou f",
      "a mau",
      "au re",
      "nan da",
      "emil e",
      "amau ry",
      "m d",
      "y ara",
      "carm ina",
      "nai ara",
      "sou ad",
      "g an",
      "lo gan",
      "a fr",
      "i x",
      "ale ix",
      "jul en",
      "ki ka",
      "aran cha",
      "afr ica",
      "lau riane",
      "i rat",
      "s in",
      "cel ina",
      "sin gh",
      "h ab",
      "i mane",
      "co stel",
      "jose ba",
      "jul i",
      "helo ise",
      "hab ib",
      "m carmen",
      "p io",
      "ra im",
      "qu ique",
      "mari elle",
      "adel ina",
      "f elisa",
      "mi riana",
      "vin ce",
      "or ietta",
      "it alo",
      "nor berto",
      "im pia",
      "ol impia",
      "samant a",
      "l ic",
      "ic e",
      "vi ta",
      "fab iano",
      "marie helene",
      "cand ice",
      "rome o",
      "lic in",
      "l w",
      "o tta",
      "t z",
      "ma bel",
      "no lw",
      "so rin",
      "ter ry",
      "mari mar",
      "gian paolo",
      "ou m",
      "gore ti",
      "nolw enn",
      "t ier",
      "mo sta",
      "marie pierre",
      "mosta fa",
      "e gi",
      "il car",
      "am ilcar",
      "mart i",
      "anth o",
      "zi ta",
      "egi dio",
      "ab ou",
      "re mo",
      "or l",
      "ra chi",
      "vio rel",
      "rachi da",
      "n io",
      "s el",
      "v ra",
      "ju nio",
      "nat alina",
      "abdel kader",
      "gine vra",
      "junio r",
      "n ani",
      "ana elle",
      "her nani",
      "enn io",
      "ass ia",
      "ion ela",
      "nativi dad",
      "g r",
      "er cia",
      "sa gr",
      "lui gina",
      "nat ercia",
      "sagr ario",
      "f co",
      "fla vie",
      "ada ma",
      "jaco bo",
      "xab ier",
      "f le",
      "er o",
      "er os",
      "mi rian",
      "gio ia",
      "ili dio",
      "fle ur",
      "clemen te",
      "yv on",
      "v y",
      "da vy",
      "eugen ie",
      "ed na",
      "ros angela",
      "ger mano",
      "costan za",
      "a ina",
      "o re",
      "y e",
      "la ye",
      "pat ty",
      "mat i",
      "eleon ore",
      "abdou laye",
      "d aria",
      "h ora",
      "ke k",
      "ah met",
      "flor ine",
      "natas cia",
      "hora cio",
      "a madou",
      "c us",
      "s to",
      "ju sto",
      "mael ys",
      "ray ane",
      "ode tte",
      "cus to",
      "t tina",
      "ico l",
      "ce ttina",
      "lou d",
      "agus tina",
      "fou ad",
      "k et",
      "to me",
      "ce f",
      "val de",
      "de u",
      "ros alina",
      "marie claire",
      "martin ho",
      "you cef",
      "ama deu",
      "ket ty",
      "valde mar",
      "io nel",
      "do riana",
      "nicola e",
      "eu rico",
      "augus tin",
      "lu pe",
      "ch ino",
      "manuel e",
      "gio ac",
      "lui gia",
      "gioac chino",
      "d enn",
      "f ari",
      "v on",
      "ra kel",
      "mary von",
      "denn is",
      "fari da",
      "maryvon ne",
      "b rian",
      "tit ti",
      "t xe",
      "on i",
      "th iago",
      "ali ze",
      "za kar",
      "and oni",
      "alize e",
      "zakar ia",
      "claud ette",
      "mario la",
      "su se",
      "maryl ene",
      "h ra",
      "n idia",
      "zo hra",
      "va o",
      "ti ta",
      "ay men",
      "seraf im",
      "timo thee",
      "f id",
      "n isio",
      "u e",
      "do riane",
      "dio nisio",
      "brigi da",
      "uc cia",
      "fid el",
      "o la",
      "z inha",
      "er man",
      "er mel",
      "maria pia",
      "mat a",
      "gra ci",
      "gis ella",
      "mariaro sa",
      "fatou mata",
      "erman no",
      "ermel inda",
      "graci ela",
      "jean charles",
      "cor al",
      "d ant",
      "in ata",
      "am inata",
      "dant e",
      "lu zia",
      "do r",
      "sandr ina",
      "min da",
      "caro la",
      "ama dor",
      "elizabe te",
      "is ilda",
      "il yes",
      "do un",
      "gian piero",
      "flo re",
      "kat y",
      "lise te",
      "alc ina",
      "doun ia",
      "g ladys",
      "i man",
      "t are",
      "lou na",
      "mil ene",
      "mir ela",
      "kil ian",
      "cand ela",
      "iman ol",
      "tare k",
      "l icia",
      "ar et",
      "mar gu",
      "re ira",
      "eri te",
      "ou mar",
      "vivi en",
      "ido ia",
      "naz aret",
      "margu erite",
      "x is",
      "ab dal",
      "sam ba",
      "paul ino",
      "aman dio",
      "abdal lah",
      "o riana",
      "is ido",
      "al ino",
      "ene ko",
      "fel is",
      "isido ro",
      "m ant",
      "ca pu",
      "dia mant",
      "raymon de",
      "capu cine",
      "diamant ino",
      "s vit",
      "ang ie",
      "st elle",
      "ib rah",
      "jam al",
      "chry stelle",
      "svit lana",
      "ibrah ima",
      "ri elle",
      "marcel le",
      "cy rielle",
      "alexandr ina",
      "naz are",
      "n ela",
      "u is",
      "x el",
      "el uis",
      "la ti",
      "car melina",
      "ri en",
      "min io",
      "mer it",
      "jos eluis",
      "hic hem",
      "emi dio",
      "rome u",
      "xel l",
      "lati fa",
      "merit xell",
      "z ur",
      "ren za",
      "ludov ico",
      "az zur",
      "victo ire",
      "azzur ra",
      "dani la",
      "giuse ppa",
      "sant ino",
      "pascal ine",
      "gau tier",
      "rug gero",
      "o us",
      "maria luisa",
      "luis ella",
      "far es",
      "ous mane",
      "c ur",
      "g es",
      "on a",
      "il ona",
      "nor ma",
      "cur ro",
      "ges sica",
      "t ari",
      "on do",
      "da vinia",
      "fel icia",
      "ni ko",
      "raim ondo",
      "tari k",
      "a gue",
      "d ica",
      "x i",
      "ar no",
      "ro dica",
      "pat xi",
      "si ham",
      "iz an",
      "ague da",
      "d alia",
      "un ato",
      "ho cine",
      "ross ano",
      "sal ima",
      "fort unato",
      "jo ffrey",
      "es pe",
      "be to",
      "leon ie",
      "ghisla in",
      "stef y",
      "o le",
      "w el",
      "no lan",
      "na wel",
      "em eric",
      "mari ela",
      "lauren e",
      "armen io",
      "b ra",
      "c ie",
      "la vinia",
      "at ino",
      "gra cie",
      "gracie te",
      "l en",
      "pasqu alina",
      "d il",
      "m ur",
      "mi lo",
      "ca milo",
      "mo ira",
      "camil lo",
      "tom my",
      "mire ya",
      "flor inda",
      "dil etta",
      "mur at",
      "y amina",
      "mic ka",
      "del fina",
      "gra cia",
      "lil lo",
      "ile ana",
      "natas ha",
      "pris cillia",
      "i ria",
      "i uri",
      "is sam",
      "vio lette",
      "fa fa",
      "kat ius",
      "ama ya",
      "katius cia",
      "a ch",
      "d ana",
      "pe tit",
      "clar issa",
      "suz ana",
      "otta vio",
      "ach ille",
      "c l",
      "f ica",
      "ie m",
      "marie therese",
      "mer iem",
      "puri fica",
      "ful via",
      "cl elia",
      "purifica cion",
      "ric a",
      "vio rica",
      "clement ina",
      "mam ie",
      "m es",
      "r ne",
      "v il",
      "ie ta",
      "anton ina",
      "anton ieta",
      "hel ia",
      "christ ele",
      "et ano",
      "edu rne",
      "ad em",
      "lot fi",
      "vil ma",
      "n il",
      "o ussa",
      "lu ce",
      "mario na",
      "gab in",
      "mil ton",
      "mauric ette",
      "seraf in",
      "oussa ma",
      "luce tte",
      "la ta",
      "co lata",
      "us ou",
      "so usou",
      "za ira",
      "maril yne",
      "imma colata",
      "pris cila",
      "b ali",
      "m ia",
      "t ra",
      "es ti",
      "ra ba",
      "ed son",
      "bru nella",
      "pier angelo",
      "math eus",
      "nel io",
      "cor aline",
      "bali z",
      "esti baliz",
      "raba h",
      "gio ele",
      "pat ou",
      "ben i",
      "gab ry",
      "emil y",
      "graz iana",
      "ar le",
      "luc i",
      "elo isa",
      "arant za",
      "fort u",
      "arle te",
      "d ja",
      "g elio",
      "ro gelio",
      "ed dine",
      "un do",
      "fio renzo",
      "nour eddine",
      "arc angelo",
      "dja mila",
      "a der",
      "l ali",
      "y ani",
      "ch ic",
      "mon ika",
      "or este",
      "ge ge",
      "gore te",
      "alb ano",
      "ader ito",
      "yani ra",
      "a ca",
      "a ino",
      "o riane",
      "v anna",
      "z ul",
      "la mine",
      "do res",
      "alv es",
      "isla s",
      "stan islas",
      "aca cio",
      "aino a",
      "zul mira",
      "a za",
      "h ara",
      "i kel",
      "s andre",
      "al dina",
      "ma ikel",
      "do rina",
      "mi ki",
      "us s",
      "mo uss",
      "sab ino",
      "franck y",
      "raphael le",
      "cas sandre",
      "ir ma",
      "rodri gue",
      "aza hara",
      "h ort",
      "ca o",
      "so la",
      "juan jose",
      "fernan d",
      "hort en",
      "ro y",
      "mi ren",
      "math ys",
      "pie dade",
      "geo ff",
      "juani to",
      "suse te",
      "geoff roy",
      "l ele",
      "max imo",
      "may ra",
      "yass in",
      "d j",
      "n ines",
      "t ine",
      "u an",
      "x imo",
      "ma ika",
      "ch ra",
      "ib ril",
      "manu e",
      "may ka",
      "faus tine",
      "tito uan",
      "bou chra",
      "kek ko",
      "dj ibril",
      "d jo",
      "manuel la",
      "ber nat",
      "f im",
      "y re",
      "le yre",
      "mig ue",
      "silv ina",
      "sof ian",
      "del fim",
      "cin tia",
      "ad an",
      "cristo vao",
      "orl ane",
      "f ra",
      "er minia",
      "en ger",
      "ber enger",
      "angel ita",
      "marie ange",
      "sus o",
      "bened ita",
      "berenger e",
      "d anny",
      "k enzo",
      "u fi",
      "to ufi",
      "val ou",
      "pepi to",
      "toufi k",
      "k un",
      "l ivan",
      "s ul",
      "ma ha",
      "mi mi",
      "im ilien",
      "sa vino",
      "luc ille",
      "as kun",
      "mari jose",
      "cat y",
      "max imilien",
      "fio re",
      "iz askun",
      "sul livan",
      "maha madou",
      "car idad",
      "mi ky",
      "sa uro",
      "fer reira",
      "ger main",
      "seb y",
      "neu sa",
      "w as",
      "y in",
      "se yin",
      "re dou",
      "hu seyin",
      "pierre yves",
      "jon as",
      "ya go",
      "pal ma",
      "was sim",
      "redou ane",
      "h edi",
      "p res",
      "z ine",
      "fab rizia",
      "fio renza",
      "irat xe",
      "pres cillia",
      "zine b",
      "b abe",
      "o elle",
      "mar ien",
      "la mo",
      "lo s",
      "ma icol",
      "ro lamo",
      "gi rolamo",
      "na yara",
      "pier giorgio",
      "ari tz",
      "lar isa",
      "alc ino",
      "dem ba",
      "babe th",
      "marien oelle",
      "c cia",
      "f e",
      "y cal",
      "en ella",
      "il ys",
      "ma ilys",
      "ser enella",
      "nu ccia",
      "fan fan",
      "fa ycal",
      "pe tri",
      "bou bou",
      "licin io",
      "car minda",
      "del aria",
      "don ata",
      "can delaria",
      "ander son",
      "g alina",
      "m ana",
      "er va",
      "ro t",
      "do rine",
      "ela dio",
      "mo des",
      "pier rot",
      "min erva",
      "ger mana",
      "ba kar",
      "ka is",
      "li ber",
      "sel ene",
      "modes to",
      "bakar y",
      "c ric",
      "v anni",
      "ton io",
      "flo ri",
      "viola ine",
      "maru ja",
      "cric ri",
      "u ria",
      "ch eri",
      "im en",
      "luc ienne",
      "ad ilia",
      "ho uria",
      "ada o",
      "souf iane",
      "cheri f",
      "a issa",
      "s ale",
      "lo les",
      "marie jose",
      "ze zinha",
      "floren cio",
      "iul ian",
      "sale te",
      "b at",
      "m jose",
      "al la",
      "ant imo",
      "je je",
      "ze za",
      "ib an",
      "tis ta",
      "rin aldo",
      "yes sica",
      "lore to",
      "lah cen",
      "bat tista",
      "h ar",
      "u x",
      "ma guy",
      "ta har",
      "luis mi",
      "oli ve",
      "cin ta",
      "bernard ino",
      "igna si",
      "che ila",
      "faus tino",
      "olive ira",
      "b ran",
      "u ren",
      "y uren",
      "io le",
      "ina cio",
      "mi loud",
      "ru ccio",
      "fer ruccio",
      "sab atino",
      "yous souf",
      "jim ena",
      "txe ma",
      "bran ca",
      "yuren a",
      "o fr",
      "el is",
      "on ofr",
      "ant ero",
      "mari ia",
      "za ida",
      "pin uccia",
      "onofr io",
      "r ela",
      "s iane",
      "pe pp",
      "pat ry",
      "mari eline",
      "ly siane",
      "est rela",
      "pepp ino",
      "y etano",
      "al cid",
      "ca yetano",
      "juan mi",
      "marie paule",
      "ze ca",
      "marcia l",
      "alcid es",
      "b re",
      "g lio",
      "m bre",
      "o mbre",
      "in aldo",
      "gi glio",
      "re inaldo",
      "val le",
      "sal ud",
      "nas s",
      "gwena el",
      "xab i",
      "custo dio",
      "ombre tta",
      "giglio la",
      "a pol",
      "c er",
      "t ul",
      "go yo",
      "na cer",
      "mari paz",
      "nu ccio",
      "fat inha",
      "guilher mina",
      "bra is",
      "apol line",
      "tul lio",
      "n do",
      "se gu",
      "co sta",
      "ma id",
      "cel est",
      "gu al",
      "guil hem",
      "pere ira",
      "kyl lian",
      "segu ndo",
      "maid er",
      "celest ino",
      "x o",
      "la ine",
      "se v",
      "andre ina",
      "na gore",
      "kar la",
      "sant e",
      "guy laine",
      "erw ann",
      "m alo",
      "da c",
      "di dac",
      "martin ha",
      "assun cao",
      "las sana",
      "b i",
      "al mu",
      "to re",
      "juan carlos",
      "et rio",
      "her nan",
      "pasqu alino",
      "cha ima",
      "dem etrio",
      "bi el",
      "f u",
      "el da",
      "en santa",
      "do ina",
      "marie francoise",
      "lui gino",
      "teo doro",
      "cia o",
      "fu ensanta",
      "o el",
      "giu di",
      "mano la",
      "adil son",
      "jeann oel",
      "giudi tta",
      "f in",
      "i ba",
      "m s",
      "s and",
      "da ms",
      "gasp ard",
      "fin i",
      "iba i",
      "f am",
      "h adrien",
      "v ette",
      "z ar",
      "en o",
      "ic ius",
      "jo ta",
      "ra du",
      "pe tra",
      "ang y",
      "sara i",
      "vin icius",
      "syl vette",
      "lui za",
      "nel o",
      "gia cin",
      "gaet ana",
      "martin s",
      "ai res",
      "gw ladys",
      "naz zar",
      "timo the",
      "fam ilia",
      "giacin to",
      "nazzar eno",
      "h ilario",
      "p rien",
      "s min",
      "t t",
      "co smin",
      "maria chiara",
      "ch ico",
      "gu es",
      "virg ile",
      "cy prien",
      "elio tt",
      "wilfr id",
      "rodri gues",
      "irat i",
      "er e",
      "en ora",
      "le andra",
      "ju ri",
      "im ene",
      "ber ang",
      "ce tty",
      "marie jo",
      "dio ni",
      "ger son",
      "ene a",
      "ole g",
      "fortu na",
      "berang ere",
      "b as",
      "pa ky",
      "michel ina",
      "rosa maria",
      "gab y",
      "paul inho",
      "mil u",
      "si ria",
      "seraf ino",
      "gilda s",
      "licin ia",
      "bas ile",
      "n ita",
      "gi ero",
      "ph ile",
      "mari arita",
      "ne ide",
      "her minio",
      "fa usta",
      "encar nita",
      "theo phile",
      "adela ida",
      "sou sa",
      "rug giero",
      "p rian",
      "gio su",
      "li ud",
      "ly es",
      "ci prian",
      "nic u",
      "lar issa",
      "georg ina",
      "mu mu",
      "felic idad",
      "nai r",
      "aure a",
      "giosu e",
      "liud mila",
      "h ina",
      "k ane",
      "t ti",
      "mau rizia",
      "ne kane",
      "ka hina",
      "did ine",
      "gwen dal",
      "gore tti",
      "ola tz",
      "n on",
      "p ari",
      "ia mino",
      "ma cu",
      "ro maric",
      "ab der",
      "jose maria",
      "isab ela",
      "ben iamino",
      "sil vino",
      "mer chi",
      "ilde fonso",
      "nic la",
      "alb ane",
      "iul ia",
      "sel ma",
      "custo dia",
      "non na",
      "pari de",
      "abder rahim",
      "l is",
      "il la",
      "jose manuel",
      "luc illa",
      "gian maria",
      "or sola",
      "enrique ta",
      "cristian e",
      "sylva ine",
      "sol enn",
      "aux i",
      "sera fina",
      "lis andra",
      "m undo",
      "p es",
      "al mer",
      "lo pes",
      "ed mundo",
      "sa me",
      "juan fran",
      "mo dou",
      "emil iana",
      "jer o",
      "jon ay",
      "agus ti",
      "xis co",
      "xis ca",
      "almer inda",
      "same iro",
      "j ane",
      "o ana",
      "r t",
      "s li",
      "s elmo",
      "v is",
      "an selmo",
      "vi rt",
      "so les",
      "son soles",
      "de vis",
      "yo ana",
      "ud es",
      "chry stel",
      "tome u",
      "horten sia",
      "jane te",
      "sli mane",
      "virt udes",
      "mar zio",
      "se go",
      "mel ine",
      "rian o",
      "victo riano",
      "sego lene",
      "h i",
      "i miro",
      "t ella",
      "ia len",
      "co va",
      "ma ica",
      "ma ialen",
      "pa ca",
      "mi tru",
      "go mes",
      "ser giu",
      "salv ina",
      "phili pp",
      "domin gas",
      "med hi",
      "don ga",
      "ci ra",
      "du mitru",
      "maric ruz",
      "maris tella",
      "cas imiro",
      "mou loud",
      "bartolome o",
      "cova donga",
      "philipp ine",
      "h en",
      "k he",
      "ro mo",
      "ja queline",
      "ti bo",
      "bel miro",
      "alb ina",
      "mam s",
      "hen ar",
      "khe ira",
      "romo lo",
      "b ina",
      "s aro",
      "ar de",
      "ma dal",
      "ru bina",
      "hel ga",
      "paul inha",
      "bern arde",
      "my my",
      "den isa",
      "madal ina",
      "bernarde te",
      "i kh",
      "v ina",
      "el vina",
      "es inha",
      "pe tru",
      "ph anie",
      "au riane",
      "ter esinha",
      "pier francesco",
      "et elvina",
      "ti phanie",
      "elo i",
      "xa v",
      "che ikh",
      "fou ed",
      "felis bela",
      "k ol",
      "y ra",
      "an ca",
      "ar inho",
      "ma it",
      "juan an",
      "ili es",
      "na yra",
      "de cio",
      "cat aldo",
      "ros arinho",
      "ga iz",
      "bel inha",
      "ib on",
      "iul iana",
      "kol do",
      "mait ane",
      "gaiz ka",
      "ar ben",
      "el isio",
      "en ne",
      "jose ma",
      "juan lu",
      "raf el",
      "lou ane",
      "leon e",
      "raffael lo",
      "ida de",
      "ty phaine",
      "sol enne",
      "des y",
      "felic idade",
      "pu ra",
      "orl anda",
      "g eli",
      "i u",
      "i va",
      "ia co",
      "er sil",
      "ili r",
      "claud iu",
      "mari antonietta",
      "per ico",
      "iaco po",
      "ersil ia",
      "p ela",
      "er minio",
      "lu min",
      "jose mi",
      "jose antonio",
      "to f",
      "ben to",
      "pier ino",
      "pier rel",
      "valent im",
      "bel mira",
      "du da",
      "ou is",
      "pela yo",
      "lumin ita",
      "pierrel ouis",
      "mar ques",
      "vin da",
      "ben vinda",
      "ul iss",
      "nat ali",
      "mer txe",
      "esperan ca",
      "giam pietro",
      "od ilia",
      "nil za",
      "chic ca",
      "uliss es",
      "natali ya",
      "c ri",
      "f elia",
      "o felia",
      "ann un",
      "ch u",
      "men chu",
      "fernan des",
      "cel io",
      "zia ta",
      "samuel a",
      "paqui to",
      "maril isa",
      "si rine",
      "annun ziata",
      "m al",
      "m icol",
      "o ier",
      "u ta",
      "an ce",
      "io mar",
      "ant ia",
      "ri tin",
      "lau ry",
      "so iz",
      "anna chiara",
      "mari uccia",
      "gu iomar",
      "it alia",
      "ada mo",
      "just ino",
      "gar ance",
      "can de",
      "victo rien",
      "amar o",
      "len uta",
      "nil ton",
      "mal laury",
      "ritin ha",
      "soiz ic",
      "e f",
      "f ali",
      "l loren",
      "l luisa",
      "es tro",
      "maria jo",
      "ric io",
      "fab ricio",
      "mas si",
      "silv estro",
      "id alia",
      "nat alino",
      "ef isio",
      "lloren c",
      "b aldo",
      "u baldo",
      "v isi",
      "io a",
      "jo ca",
      "sa ioa",
      "nico lina",
      "mari fe",
      "ga vino",
      "vitor ino",
      "benja mim",
      "este ve",
      "c re",
      "c alves",
      "r mino",
      "er co",
      "ro gio",
      "ca io",
      "giul y",
      "gon calves",
      "lou anne",
      "nel u",
      "mil de",
      "fi rmino",
      "dorian o",
      "amb rogio",
      "xe vi",
      "cre milde",
      "erco le",
      "p ri",
      "mar kel",
      "gian mario",
      "sab ry",
      "gerard ina",
      "ig lia",
      "sal vi",
      "cons iglia",
      "fed ele",
      "nativi dade",
      "pri mo",
      "f on",
      "i ry",
      "k in",
      "k ele",
      "s ina",
      "an jos",
      "en di",
      "al fon",
      "jo kin",
      "do s",
      "pa ol",
      "man lio",
      "mi kele",
      "ru y",
      "cat ello",
      "ger tru",
      "gian carla",
      "pasqu a",
      "albert ino",
      "ev andro",
      "ai mar",
      "iry na",
      "endi ka",
      "alfon sina",
      "paol ino",
      "gertru des",
      "d je",
      "i y",
      "j ani",
      "z u",
      "ar ka",
      "al tin",
      "andr iy",
      "ma ma",
      "ra cion",
      "za zu",
      "it z",
      "ado racion",
      "tha is",
      "aran zazu",
      "chic co",
      "jani re",
      "arka itz",
      "mama du",
      "h ane",
      "i hane",
      "o ihane",
      "x ico",
      "er mes",
      "sa vio",
      "juan de",
      "pat y",
      "leon ilde",
      "gil son",
      "vicen c",
      "josu ne",
      "k sandr",
      "n arc",
      "s so",
      "w ag",
      "is o",
      "al tina",
      "ch in",
      "ru sso",
      "fili ppa",
      "con chin",
      "ze te",
      "ces altina",
      "ada y",
      "su zete",
      "ray co",
      "ni ves",
      "clar inda",
      "pin to",
      "kek ka",
      "ole ksandr",
      "narc iso",
      "wag ner",
      "u ba",
      "la mberto",
      "maria cristina",
      "ca mino",
      "ben ilde",
      "sil verio",
      "pier ina",
      "ger arda",
      "gian pietro",
      "li uba",
      "donat ello",
      "giord ana",
      "al me",
      "maria jesus",
      "ina cia",
      "men des",
      "nico lau",
      "silv est",
      "giov y",
      "gian vito",
      "constant ino",
      "otta via",
      "liber o",
      "ux ia",
      "alme ida",
      "silvest re",
      "l alla",
      "an xo",
      "on zo",
      "ma pi",
      "ri be",
      "mario lina",
      "or onzo",
      "ribe iro",
      "d gero",
      "p rado",
      "lu dgero",
      "vi ana",
      "ben at",
      "giul ietta",
      "li viana",
      "raff y",
      "tin inha",
      "emmanuel e",
      "agost inha",
      "gual ter",
      "a itzi",
      "c enzo",
      "c res",
      "i tor",
      "l enia",
      "x ita",
      "en da",
      "on dina",
      "lo dy",
      "il ica",
      "gian domenico",
      "con xita",
      "my r",
      "vo lody",
      "vas ilica",
      "he itor",
      "elise u",
      "elis enda",
      "aitzi ber",
      "cres cenzo",
      "volody myr",
      "f ia",
      "i xe",
      "m me",
      "s id",
      "s ito",
      "t to",
      "ar ca",
      "on io",
      "te ixe",
      "mari arca",
      "ti tta",
      "eli de",
      "conce tto",
      "liber a",
      "fia mme",
      "sid onio",
      "teixe ira",
      "fiamme tta",
      "g eles",
      "do lo",
      "man geles",
      "ang us",
      "tia s",
      "xa so",
      "it xaso",
      "felic iano",
      "angus tias",
      "i ar",
      "l lo",
      "al cinda",
      "ic iar",
      "lo llo",
      "car val",
      "car min",
      "ke pa",
      "din arte",
      "ludov ina",
      "raim undo",
      "ola ya",
      "carval ho",
      "carmin ho",
      "c ul",
      "ol alla",
      "her cul",
      "mil va",
      "olivier o",
      "dia s",
      "pin co",
      "hercul ano",
      "a yo",
      "i ru",
      "n aroa",
      "s uel",
      "fab ia",
      "este vao",
      "joan inha",
      "yuri y",
      "elis angela",
      "ayo ze",
      "iru ne",
      "suel i",
      "maria giovanna",
      "man ela",
      "ann aro",
      "ros inda",
      "fla minia",
      "giam marco",
      "bra ima",
      "horten se",
      "fe fi",
      "ux ue",
      "annaro sa",
      "el ina",
      "al az",
      "to bia",
      "te iro",
      "franc elina",
      "juan vi",
      "mon teiro",
      "pier angela",
      "sab ela",
      "vas yl",
      "agost ina",
      "rob son",
      "alaz ne",
      "b iana",
      "p ra",
      "p re",
      "z er",
      "io ne",
      "lu po",
      "man ila",
      "ja ione",
      "mo reira",
      "mas cia",
      "be biana",
      "con sola",
      "cio sa",
      "ali pio",
      "genn i",
      "giam battista",
      "felis mina",
      "pra zer",
      "pre ciosa",
      "consola cion",
      "prazer es",
      "n in",
      "p os",
      "t x",
      "el et",
      "es pos",
      "se tta",
      "co setta",
      "marg ali",
      "fortu nata",
      "nin ni",
      "tx us",
      "elet tra",
      "espos ito",
      "margali da",
      "be te",
      "sab ato",
      "ur ko",
      "ces arina",
      "maric ica",
      "elise te",
      "helo isa",
      "g el",
      "j ana",
      "s peran",
      "mar inho",
      "ca cil",
      "so mina",
      "be tta",
      "de a",
      "or qui",
      "li ban",
      "gius tina",
      "ag atino",
      "che cco",
      "may ca",
      "dem is",
      "tier o",
      "gual tiero",
      "gel somina",
      "jana ina",
      "speran za",
      "cacil da",
      "orqui dea",
      "liban ia",
      "i ve",
      "io su",
      "mi ze",
      "ed mil",
      "nico lino",
      "vie ira",
      "ces ario",
      "ive te",
      "edmil son",
      "d ilia",
      "m pe",
      "ana isa",
      "maria laura",
      "ro cha",
      "re ia",
      "ros inha",
      "con cy",
      "ti la",
      "nat xo",
      "cor reia",
      "giaco ma",
      "po mpe",
      "amer igo",
      "ricard ina",
      "felis berto",
      "pompe o",
      "jo le",
      "gio nata",
      "alv ise",
      "gu ga",
      "mel e",
      "kar mele",
      "uc cio",
      "pal mina",
      "pin uccio",
      "b ale",
      "o tel",
      "ar es",
      "sandr inha",
      "so ares",
      "anni bale",
      "ne ves",
      "ilar y",
      "arman dina",
      "henrique ta",
      "pi pa",
      "otel lo",
      "g rino",
      "p elle",
      "z ilia",
      "la po",
      "vi ria",
      "ca etano",
      "don zilia",
      "du ccio",
      "igna zia",
      "arc angela",
      "costan zo",
      "pelle grino",
      "viria to",
      "a p",
      "c ida",
      "k as",
      "ili dia",
      "cle ide",
      "ki kas",
      "annal aura",
      "grazi ela",
      "are cida",
      "abra mo",
      "sv eva",
      "ap arecida",
      "m ba",
      "z ina",
      "en zina",
      "at rice",
      "man fred",
      "vinc enzina",
      "salv atrice",
      "ul isse",
      "di ra",
      "cardo so",
      "gius tino",
      "lucien e",
      "colo mba",
      "jan dira",
      "manfred i",
      "z ilda",
      "er ino",
      "ma o",
      "ro mao",
      "ru ca",
      "nu nes",
      "gu erino",
      "bel ita",
      "freder ica",
      "lan franco",
      "ola vo",
      "e zia",
      "h as",
      "v ella",
      "an in",
      "er rico",
      "la is",
      "no vella",
      "vit ale",
      "anin has",
      "maria francesca",
      "leo pol",
      "encarna cao",
      "leopol dina",
      "a us",
      "ed mon",
      "isa que",
      "gian franca",
      "lise ta",
      "aus ilia",
      "edmon do",
      "u ario",
      "al tino",
      "da s",
      "her land",
      "tere zinha",
      "jan uario",
      "herland er",
      "da mia",
      "sil da",
      "ton inho",
      "mer ces",
      "cas silda",
      "damia o",
      "ti xa",
      "mica s",
      "sole dade",
      "s inda",
      "t u",
      "ver inha",
      "laurent ina",
      "ado sinda",
      "jonat as",
      "tu xa",
      "be cas"
    ]
  }
}