{
  "version": "1.0",
  "truncation": null,
  "padding": null,
  "added_tokens": [
    {
      "id": 0,
      "content": "[UNK]",
      "single_word": false,
      "lstrip": false,
      "rstrip": false,
      "normalized": false,
      "special": true
    },
    {
      "id": 1,
      "content": "[CLS]",
      "single_word": false,
      "lstrip": false,
      "rstrip": false,
      "normalized": false,
      "special": true
    },
    {
      "id": 2,
      "content": "[SEP]",
      "single_word": false,
      "lstrip": false,
      "rstrip": false,
      "normalized": false,
      "special": true
    },
    {
      "id": 3,
      "content": "[PAD]",
      "single_word": false,
      "lstrip": false,
      "rstrip": false,
      "normalized": false,
      "special": true
    },
    {
      "id": 4,
      "content": "[MASK]",
      "single_word": false,
      "lstrip": false,
      "rstrip": false,
      "normalized": false,
      "special": true
    }
  ],
  "normalizer": null,
  "pre_tokenizer": {
    "type": "Whitespace"
  },
  "post_processor": null,
  "decoder": null,
  "model": {
    "type": "BPE",
    "dropout": null,
    "unk_token": "[UNK]",
    "continuing_subword_prefix": null,
    "end_of_word_suffix": null,
    "fuse_unk": false,
    "vocab": {
      "[UNK]": 0,
      "[CLS]": 1,
      "[SEP]": 2,
      "[PAD]": 3,
      "[MASK]": 4,
      "-": 5,
      "a": 6,
      "b": 7,
      "c": 8,
      "d": 9,
      "e": 10,
      "f": 11,
      "g": 12,
      "h": 13,
      "i": 14,
      "j": 15,
      "k": 16,
      "l": 17,
      "m": 18,
      "n": 19,
      "o": 20,
      "p": 21,
      "q": 22,
      "r": 23,
      "s": 24,
      "t": 25,
      "u": 26,
      "v": 27,
      "w": 28,
      "x": 29,
      "y": 30,
      "z": 31,
      "an": 32,
      "in": 33,
      "ar": 34,
      "el": 35,
      "er": 36,
      "st": 37,
      "en": 38,
      "ri": 39,
      "ch": 40,
      "mar": 41,
      "as": 42,
      "and": 43,
      "al": 44,
      "at": 45,
      "re": 46,
      "on": 47,
      "ol": 48,
      "ian": 49,
      "mi": 50,
      "et": 51,
      "ina": 52,
      "chri": 53,
      "ik": 54,
      "th": 55,
      "ra": 56,
      "christ": 57,
      "ann": 58,
      "us": 59,
      "ste": 60,
      "ia": 61,
      "or": 62,
      "ani": 63,
      "cha": 64,
      "sa": 65,
      "om": 66,
      "andre": 67,
      "ja": 68,
      "ni": 69,
      "micha": 70,
      "ine": 71,
      "michael": 72,
      "ul": 73,
      "stef": 74,
      "il": 75,
      "ph": 76,
      "ke": 77,
      "ma": 78,
      "marc": 79,
      "im": 80,
      "la": 81,
      "omas": 82,
      "pet": 83,
      "thomas": 84,
      "ber": 85,
      "dani": 86,
      "di": 87,
      "christian": 88,
      "ale": 89,
      "daniel": 90,
      "fr": 91,
      "fran": 92,
      "ias": 93,
      "andreas": 94,
      "kat": 95,
      "he": 96,
      "alex": 97,
      "sab": 98,
      "se": 99,
      "nic": 100,
      "jo": 101,
      "man": 102,
      "mart": 103,
      "mari": 104,
      "jan": 105,
      "es": 106,
      "ur": 107,
      "har": 108,
      "ud": 109,
      "anie": 110,
      "ric": 111,
      "mark": 112,
      "sten": 113,
      "jen": 114,
      "ang": 115,
      "stefan": 116,
      "le": 117,
      "andra": 118,
      "peter": 119,
      "ika": 120,
      "ab": 121,
      "gi": 122,
      "ast": 123,
      "anja": 124,
      "ro": 125,
      "bert": 126,
      "frank": 127,
      "ger": 128,
      "da": 129,
      "ori": 130,
      "ven": 131,
      "jul": 132,
      "ut": 133,
      "ara": 134,
      "car": 135,
      "uel": 136,
      "kar": 137,
      "markus": 138,
      "mat": 139,
      "nicol": 140,
      "den": 141,
      "bast": 142,
      "martin": 143,
      "mon": 144,
      "ka": 145,
      "gen": 146,
      "olf": 147,
      "sandra": 148,
      "bastian": 149,
      "vi": 150,
      "anne": 151,
      "nicole": 152,
      "ver": 153,
      "heik": 154,
      "pat": 155,
      "sven": 156,
      "li": 157,
      "ad": 158,
      "ca": 159,
      "ta": 160,
      "ren": 161,
      "to": 162,
      "stin": 163,
      "anna": 164,
      "jor": 165,
      "cla": 166,
      "mel": 167,
      "patric": 168,
      "ed": 169,
      "ny": 170,
      "oph": 171,
      "si": 172,
      "sebastian": 173,
      "git": 174,
      "han": 175,
      "ander": 176,
      "alexander": 177,
      "ena": 178,
      "manuel": 179,
      "ker": 180,
      "vin": 181,
      "sabine": 182,
      "is": 183,
      "tob": 184,
      "udia": 185,
      "andrea": 186,
      "sus": 187,
      "min": 188,
      "rk": 189,
      "petra": 190,
      "ir": 191,
      "claudia": 192,
      "thias": 193,
      "matthias": 194,
      "marcel": 195,
      "jur": 196,
      "jurgen": 197,
      "sil": 198,
      "lu": 199,
      "steff": 200,
      "rin": 201,
      "alf": 202,
      "bern": 203,
      "te": 204,
      "patrick": 205,
      "tim": 206,
      "orsten": 207,
      "max": 208,
      "ali": 209,
      "fl": 210,
      "steph": 211,
      "tobias": 212,
      "kla": 213,
      "jens": 214,
      "sim": 215,
      "simon": 216,
      "ben": 217,
      "un": 218,
      "ing": 219,
      "angel": 220,
      "marco": 221,
      "rene": 222,
      "gab": 223,
      "uw": 224,
      "uwe": 225,
      "nad": 226,
      "klaus": 227,
      "julia": 228,
      "ne": 229,
      "sas": 230,
      "wolf": 231,
      "dirk": 232,
      "christoph": 233,
      "hard": 234,
      "hm": 235,
      "ralf": 236,
      "orian": 237,
      "florian": 238,
      "joh": 239,
      "sara": 240,
      "oli": 241,
      "tina": 242,
      "melanie": 243,
      "gang": 244,
      "wolfgang": 245,
      "phil": 246,
      "jorg": 247,
      "ant": 248,
      "oliver": 249,
      "robert": 250,
      "hel": 251,
      "diet": 252,
      "ha": 253,
      "eli": 254,
      "nis": 255,
      "dennis": 256,
      "bernd": 257,
      "heike": 258,
      "andy": 259,
      "kerstin": 260,
      "red": 261,
      "hans": 262,
      "dom": 263,
      "nadine": 264,
      "tanja": 265,
      "kevin": 266,
      "davi": 267,
      "david": 268,
      "monika": 269,
      "mario": 270,
      "daniela": 271,
      "susanne": 272,
      "maria": 273,
      "be": 274,
      "franz": 275,
      "sascha": 276,
      "pp": 277,
      "lisa": 278,
      "via": 279,
      "sarah": 280,
      "ola": 281,
      "phili": 282,
      "iner": 283,
      "bir": 284,
      "stefanie": 285,
      "domin": 286,
      "manuela": 287,
      "martina": 288,
      "jana": 289,
      "ald": 290,
      "fred": 291,
      "birgit": 292,
      "kath": 293,
      "rina": 294,
      "sabrina": 295,
      "jes": 296,
      "hein": 297,
      "stephan": 298,
      "bar": 299,
      "fab": 300,
      "mich": 301,
      "ter": 302,
      "ate": 303,
      "ura": 304,
      "maik": 305,
      "steffen": 306,
      "rich": 307,
      "von": 308,
      "vonne": 309,
      "do": 310,
      "van": 311,
      "dieter": 312,
      "fri": 313,
      "chris": 314,
      "hol": 315,
      "bri": 316,
      "jessi": 317,
      "onny": 318,
      "philipp": 319,
      "ju": 320,
      "lar": 321,
      "mad": 322,
      "rid": 323,
      "ach": 324,
      "achim": 325,
      "karin": 326,
      "barb": 327,
      "pa": 328,
      "johann": 329,
      "katrin": 330,
      "nico": 331,
      "simone": 332,
      "hmet": 333,
      "marion": 334,
      "ele": 335,
      "mo": 336,
      "laura": 337,
      "michaela": 338,
      "yvonne": 339,
      "torsten": 340,
      "katja": 341,
      "manfred": 342,
      "jessica": 343,
      "cor": 344,
      "ern": 345,
      "son": 346,
      "paul": 347,
      "nat": 348,
      "ic": 349,
      "gun": 350,
      "dominik": 351,
      "yl": 352,
      "christine": 353,
      "kai": 354,
      "tom": 355,
      "heinz": 356,
      "mut": 357,
      "heiko": 358,
      "holger": 359,
      "fried": 360,
      "ge": 361,
      "sel": 362,
      "ham": 363,
      "silke": 364,
      "christina": 365,
      "gabri": 366,
      "kathar": 367,
      "katharina": 368,
      "kas": 369,
      "lukas": 370,
      "mike": 371,
      "alexandra": 372,
      "thorsten": 373,
      "julian": 374,
      "oni": 375,
      "jas": 376,
      "rainer": 377,
      "lars": 378,
      "fabian": 379,
      "bian": 380,
      "me": 381,
      "nor": 382,
      "kathrin": 383,
      "elke": 384,
      "sonja": 385,
      "annet": 386,
      "feli": 387,
      "felix": 388,
      "ev": 389,
      "hen": 390,
      "dian": 391,
      "diana": 392,
      "lena": 393,
      "karl": 394,
      "marcus": 395,
      "vol": 396,
      "jenny": 397,
      "essa": 398,
      "vanessa": 399,
      "eg": 400,
      "jenni": 401,
      "jamin": 402,
      "benjamin": 403,
      "angelika": 404,
      "fer": 405,
      "mona": 406,
      "steffi": 407,
      "hei": 408,
      "wern": 409,
      "werner": 410,
      "her": 411,
      "carsten": 412,
      "ga": 413,
      "nik": 414,
      "marie": 415,
      "michel": 416,
      "johannes": 417,
      "jorn": 418,
      "jasmin": 419,
      "je": 420,
      "em": 421,
      "nina": 422,
      "bianca": 423,
      "barbara": 424,
      "ute": 425,
      "syl": 426,
      "jennifer": 427,
      "ru": 428,
      "joachim": 429,
      "silvia": 430,
      "reg": 431,
      "mu": 432,
      "rico": 433,
      "jon": 434,
      "ay": 435,
      "timo": 436,
      "ronny": 437,
      "volker": 438,
      "men": 439,
      "rol": 440,
      "roland": 441,
      "moham": 442,
      "cal": 443,
      "pas": 444,
      "pascal": 445,
      "gitte": 446,
      "brigitte": 447,
      "ard": 448,
      "mandy": 449,
      "fa": 450,
      "norbert": 451,
      "stephanie": 452,
      "rike": 453,
      "eva": 454,
      "oris": 455,
      "deni": 456,
      "maxi": 457,
      "kan": 458,
      "bet": 459,
      "bettina": 460,
      "anke": 461,
      "ulrike": 462,
      "geor": 463,
      "isab": 464,
      "wil": 465,
      "isabel": 466,
      "gabriele": 467,
      "olaf": 468,
      "harald": 469,
      "bjorn": 470,
      "ingo": 471,
      "mehmet": 472,
      "iska": 473,
      "franziska": 474,
      "marina": 475,
      "ramona": 476,
      "helmut": 477,
      "sylvia": 478,
      "las": 479,
      "ie": 480,
      "lo": 481,
      "kri": 482,
      "jonas": 483,
      "angela": 484,
      "beate": 485,
      "lian": 486,
      "ze": 487,
      "carmen": 488,
      "afa": 489,
      "stafa": 490,
      "mustafa": 491,
      "na": 492,
      "christiane": 493,
      "hias": 494,
      "mathias": 495,
      "renate": 496,
      "len": 497,
      "gunter": 498,
      "annette": 499,
      "georg": 500,
      "det": 501,
      "has": 502,
      "detle": 503,
      "jac": 504,
      "carol": 505,
      "quel": 506,
      "ikt": 507,
      "queline": 508,
      "michelle": 509,
      "ax": 510,
      "axel": 511,
      "gerhard": 512,
      "nel": 513,
      "nelia": 514,
      "karsten": 515,
      "run": 516,
      "sef": 517,
      "josef": 518,
      "ines": 519,
      "lin": 520,
      "hor": 521,
      "horst": 522,
      "leon": 523,
      "wal": 524,
      "soph": 525,
      "ana": 526,
      "ser": 527,
      "alie": 528,
      "ula": 529,
      "ike": 530,
      "gabi": 531,
      "marvin": 532,
      "rolf": 533,
      "mir": 534,
      "rik": 535,
      "udo": 536,
      "gu": 537,
      "heidi": 538,
      "de": 539,
      "tz": 540,
      "janine": 541,
      "use": 542,
      "doris": 543,
      "gerd": 544,
      "ls": 545,
      "nils": 546,
      "rein": 547,
      "ther": 548,
      "christopher": 549,
      "ah": 550,
      "jut": 551,
      "jutta": 552,
      "antje": 553,
      "detlef": 554,
      "regina": 555,
      "bin": 556,
      "enrico": 557,
      "robin": 558,
      "iri": 559,
      "iris": 560,
      "milian": 561,
      "maximilian": 562,
      "can": 563,
      "niklas": 564,
      "rom": 565,
      "rudi": 566,
      "jacqueline": 567,
      "ingrid": 568,
      "cornelia": 569,
      "denise": 570,
      "nan": 571,
      "anton": 572,
      "bernhard": 573,
      "chen": 574,
      "jochen": 575,
      "ulrich": 576,
      "steven": 577,
      "ona": 578,
      "no": 579,
      "verena": 580,
      "sula": 581,
      "ursula": 582,
      "ry": 583,
      "karlheinz": 584,
      "anita": 585,
      "justin": 586,
      "isa": 587,
      "issa": 588,
      "wi": 589,
      "ahmet": 590,
      "reen": 591,
      "doreen": 592,
      "elena": 593,
      "marius": 594,
      "lea": 595,
      "walter": 596,
      "ve": 597,
      "erik": 598,
      "astrid": 599,
      "hasan": 600,
      "denis": 601,
      "toni": 602,
      "vikt": 603,
      "fat": 604,
      "hann": 605,
      "tin": 606,
      "tta": 607,
      "britta": 608,
      "ib": 609,
      "dith": 610,
      "ahmad": 611,
      "kir": 612,
      "alena": 613,
      "alina": 614,
      "rah": 615,
      "conny": 616,
      "mur": 617,
      "murat": 618,
      "eric": 619,
      "gmar": 620,
      "dagmar": 621,
      "ido": 622,
      "guido": 623,
      "herbert": 624,
      "mirk": 625,
      "mirko": 626,
      "linda": 627,
      "helga": 628,
      "cel": 629,
      "olga": 630,
      "dietmar": 631,
      "hanna": 632,
      "richard": 633,
      "mal": 634,
      "rita": 635,
      "ilona": 636,
      "marko": 637,
      "kia": 638,
      "saskia": 639,
      "marian": 640,
      "rian": 641,
      "adrian": 642,
      "carolin": 643,
      "os": 644,
      "patricia": 645,
      "mare": 646,
      "anet": 647,
      "annika": 648,
      "iq": 649,
      "ue": 650,
      "ique": 651,
      "eth": 652,
      "sabeth": 653,
      "elisabeth": 654,
      "dy": 655,
      "lut": 656,
      "indy": 657,
      "lutz": 658,
      "co": 659,
      "johanna": 660,
      "luca": 661,
      "natalie": 662,
      "inna": 663,
      "corinna": 664,
      "stina": 665,
      "inge": 666,
      "kristina": 667,
      "mori": 668,
      "moritz": 669,
      "reinhard": 670,
      "yas": 671,
      "hat": 672,
      "rice": 673,
      "sieg": 674,
      "sophie": 675,
      "am": 676,
      "riam": 677,
      "miriam": 678,
      "ibrah": 679,
      "ibrahim": 680,
      "esa": 681,
      "rebe": 682,
      "anni": 683,
      "dann": 684,
      "erika": 685,
      "danny": 686,
      "tat": 687,
      "tatjana": 688,
      "carina": 689,
      "hu": 690,
      "lara": 691,
      "roman": 692,
      "armin": 693,
      "kim": 694,
      "ko": 695,
      "christin": 696,
      "cy": 697,
      "ore": 698,
      "nancy": 699,
      "gisel": 700,
      "gisela": 701,
      "gaby": 702,
      "dor": 703,
      "onst": 704,
      "christa": 705,
      "met": 706,
      "ela": 707,
      "reiner": 708,
      "barbel": 709,
      "nadja": 710,
      "cen": 711,
      "ya": 712,
      "beat": 713,
      "svenja": 714,
      "steve": 715,
      "thar": 716,
      "lothar": 717,
      "pia": 718,
      "sig": 719,
      "cas": 720,
      "drik": 721,
      "lucas": 722,
      "hendrik": 723,
      "mer": 724,
      "ot": 725,
      "art": 726,
      "janina": 727,
      "carola": 728,
      "gor": 729,
      "huse": 730,
      "yin": 731,
      "tino": 732,
      "huseyin": 733,
      "pi": 734,
      "tobi": 735,
      "antoni": 736,
      "antonio": 737,
      "fabi": 738,
      "chi": 739,
      "irina": 740,
      "kirsten": 741,
      "oria": 742,
      "ron": 743,
      "ulla": 744,
      "annett": 745,
      "sina": 746,
      "willi": 747,
      "med": 748,
      "mann": 749,
      "win": 750,
      "nick": 751,
      "hermann": 752,
      "dam": 753,
      "rud": 754,
      "wald": 755,
      "cindy": 756,
      "sand": 757,
      "tmut": 758,
      "hartmut": 759,
      "sandro": 760,
      "the": 761,
      "john": 762,
      "mohamed": 763,
      "cca": 764,
      "rebecca": 765,
      "mohammad": 766,
      "kay": 767,
      "kristin": 768,
      "rudiger": 769,
      "siegfried": 770,
      "ascha": 771,
      "natascha": 772,
      "gud": 773,
      "gudrun": 774,
      "gy": 775,
      "peg": 776,
      "peggy": 777,
      "ral": 778,
      "franzi": 779,
      "ralph": 780,
      "jann": 781,
      "gunther": 782,
      "doro": 783,
      "mail": 784,
      "ismail": 785,
      "ahm": 786,
      "susi": 787,
      "ahmed": 788,
      "judith": 789,
      "mara": 790,
      "tamara": 791,
      "marianne": 792,
      "oz": 793,
      "oren": 794,
      "viktor": 795,
      "uf": 796,
      "onika": 797,
      "veronika": 798,
      "philip": 799,
      "anette": 800,
      "helm": 801,
      "maren": 802,
      "susann": 803,
      "val": 804,
      "valen": 805,
      "vera": 806,
      "maz": 807,
      "fatma": 808,
      "gul": 809,
      "kur": 810,
      "sandy": 811,
      "kurt": 812,
      "alfred": 813,
      "marg": 814,
      "sam": 815,
      "ergen": 816,
      "andi": 817,
      "karina": 818,
      "juergen": 819,
      "selina": 820,
      "urice": 821,
      "maurice": 822,
      "melissa": 823,
      "swi": 824,
      "tha": 825,
      "roswi": 826,
      "juliane": 827,
      "roswitha": 828,
      "deniz": 829,
      "ricar": 830,
      "ag": 831,
      "wilfried": 832,
      "hannes": 833,
      "dana": 834,
      "anika": 835,
      "hubert": 836,
      "giuse": 837,
      "ppe": 838,
      "giuseppe": 839,
      "ek": 840,
      "harry": 841,
      "vio": 842,
      "silvio": 843,
      "sigrid": 844,
      "maike": 845,
      "gd": 846,
      "bil": 847,
      "dominic": 848,
      "manu": 849,
      "fal": 850,
      "rit": 851,
      "luisa": 852,
      "henry": 853,
      "eu": 854,
      "khard": 855,
      "eugen": 856,
      "lina": 857,
      "leo": 858,
      "emar": 859,
      "uli": 860,
      "vincen": 861,
      "waldemar": 862,
      "hmd": 863,
      "theresa": 864,
      "hakan": 865,
      "ayse": 866,
      "flo": 867,
      "norman": 868,
      "sy": 869,
      "yn": 870,
      "rudolf": 871,
      "sophia": 872,
      "yus": 873,
      "claus": 874,
      "yusuf": 875,
      "ning": 876,
      "henning": 877,
      "margit": 878,
      "caroline": 879,
      "antin": 880,
      "onstantin": 881,
      "lud": 882,
      "erg": 883,
      "joerg": 884,
      "artur": 885,
      "isabell": 886,
      "irene": 887,
      "erre": 888,
      "benny": 889,
      "pierre": 890,
      "ronald": 891,
      "tra": 892,
      "traud": 893,
      "orben": 894,
      "caro": 895,
      "mahm": 896,
      "yann": 897,
      "jako": 898,
      "jakob": 899,
      "emin": 900,
      "leoni": 901,
      "leonie": 902,
      "dia": 903,
      "ly": 904,
      "leen": 905,
      "kathleen": 906,
      "larissa": 907,
      "lydia": 908,
      "ivan": 909,
      "ce": 910,
      "marli": 911,
      "ellen": 912,
      "mareike": 913,
      "hansjurgen": 914,
      "sev": 915,
      "heinrich": 916,
      "albert": 917,
      "monique": 918,
      "hil": 919,
      "adam": 920,
      "antonia": 921,
      "mohammed": 922,
      "halie": 923,
      "nathalie": 924,
      "celine": 925,
      "susan": 926,
      "uschi": 927,
      "til": 928,
      "marlen": 929,
      "hamad": 930,
      "mohamad": 931,
      "osman": 932,
      "christel": 933,
      "greg": 934,
      "gregor": 935,
      "basti": 936,
      "brun": 937,
      "omer": 938,
      "alia": 939,
      "natalia": 940,
      "uke": 941,
      "gej": 942,
      "sergej": 943,
      "malte": 944,
      "boris": 945,
      "erwin": 946,
      "emre": 947,
      "elore": 948,
      "sib": 949,
      "meike": 950,
      "hannelore": 951,
      "kati": 952,
      "angelina": 953,
      "linde": 954,
      "soren": 955,
      "ton": 956,
      "fritz": 957,
      "tony": 958,
      "nikola": 959,
      "jannik": 960,
      "gina": 961,
      "magd": 962,
      "michi": 963,
      "magdalena": 964,
      "edikt": 965,
      "benedikt": 966,
      "elyn": 967,
      "evelyn": 968,
      "ret": 969,
      "hannah": 970,
      "ich": 971,
      "san": 972,
      "erich": 973,
      "hassan": 974,
      "rosi": 975,
      "michele": 976,
      "gan": 977,
      "ivonne": 978,
      "ruth": 979,
      "dil": 980,
      "jule": 981,
      "iz": 982,
      "arne": 983,
      "ael": 984,
      "raph": 985,
      "raphael": 986,
      "kathi": 987,
      "gabriela": 988,
      "marita": 989,
      "ih": 990,
      "my": 991,
      "za": 992,
      "tommy": 993,
      "fatih": 994,
      "cem": 995,
      "roberto": 996,
      "paula": 997,
      "dulla": 998,
      "sw": 999,
      "abdulla": 1000,
      "abdullah": 1001,
      "lana": 1002,
      "omar": 1003,
      "zy": 1004,
      "etlana": 1005,
      "hold": 1006,
      "reinhold": 1007,
      "ok": 1008,
      "uk": 1009,
      "ice": 1010,
      "hatice": 1011,
      "annalena": 1012,
      "uard": 1013,
      "eduard": 1014,
      "celina": 1015,
      "ces": 1016,
      "gar": 1017,
      "frances": 1018,
      "angelo": 1019,
      "viktoria": 1020,
      "francesco": 1021,
      "dorothe": 1022,
      "heid": 1023,
      "marlies": 1024,
      "mary": 1025,
      "niko": 1026,
      "emine": 1027,
      "metin": 1028,
      "ricardo": 1029,
      "bruno": 1030,
      "gerald": 1031,
      "uta": 1032,
      "moni": 1033,
      "elvi": 1034,
      "elvira": 1035,
      "sal": 1036,
      "vat": 1037,
      "salvat": 1038,
      "salvatore": 1039,
      "wilhelm": 1040,
      "henrik": 1041,
      "ulf": 1042,
      "edith": 1043,
      "matze": 1044,
      "viola": 1045,
      "domen": 1046,
      "romy": 1047,
      "torben": 1048,
      "vien": 1049,
      "vivien": 1050,
      "helena": 1051,
      "mhmd": 1052,
      "denny": 1053,
      "ramaz": 1054,
      "hanspeter": 1055,
      "muham": 1056,
      "ramazan": 1057,
      "ram": 1058,
      "orhan": 1059,
      "wig": 1060,
      "ludwig": 1061,
      "chant": 1062,
      "chantal": 1063,
      "du": 1064,
      "gur": 1065,
      "dustin": 1066,
      "bur": 1067,
      "elisa": 1068,
      "burkhard": 1069,
      "thil": 1070,
      "bianka": 1071,
      "nicolas": 1072,
      "melina": 1073,
      "yasemin": 1074,
      "igor": 1075,
      "nicola": 1076,
      "waltraud": 1077,
      "mirco": 1078,
      "falk": 1079,
      "inga": 1080,
      "friedrich": 1081,
      "marek": 1082,
      "madele": 1083,
      "ernst": 1084,
      "valentina": 1085,
      "madeleine": 1086,
      "mit": 1087,
      "sami": 1088,
      "luis": 1089,
      "serkan": 1090,
      "ct": 1091,
      "semarie": 1092,
      "rosemarie": 1093,
      "vict": 1094,
      "victoria": 1095,
      "maja": 1096,
      "jeannette": 1097,
      "gert": 1098,
      "adnan": 1099,
      "amir": 1100,
      "konstantin": 1101,
      "ayl": 1102,
      "fabio": 1103,
      "aylin": 1104,
      "hal": 1105,
      "ilka": 1106,
      "otto": 1107,
      "halil": 1108,
      "cle": 1109,
      "joe": 1110,
      "gabriel": 1111,
      "mens": 1112,
      "clemens": 1113,
      "een": 1114,
      "eil": 1115,
      "joanna": 1116,
      "annemarie": 1117,
      "eileen": 1118,
      "teresa": 1119,
      "kemal": 1120,
      "silvan": 1121,
      "nora": 1122,
      "silvana": 1123,
      "ulli": 1124,
      "madlen": 1125,
      "elias": 1126,
      "athan": 1127,
      "carlo": 1128,
      "jason": 1129,
      "jonathan": 1130,
      "liane": 1131,
      "vincent": 1132,
      "carlos": 1133,
      "ius": 1134,
      "kon": 1135,
      "ov": 1136,
      "rad": 1137,
      "giov": 1138,
      "julius": 1139,
      "konrad": 1140,
      "giovanni": 1141,
      "tte": 1142,
      "arlo": 1143,
      "charlo": 1144,
      "dir": 1145,
      "kadir": 1146,
      "charlotte": 1147,
      "isabella": 1148,
      "yasin": 1149,
      "fra": 1150,
      "frauke": 1151,
      "grit": 1152,
      "anast": 1153,
      "asia": 1154,
      "anett": 1155,
      "bilal": 1156,
      "anastasia": 1157,
      "bo": 1158,
      "bodo": 1159,
      "sin": 1160,
      "sinan": 1161,
      "theo": 1162,
      "arno": 1163,
      "isabelle": 1164,
      "bura": 1165,
      "elif": 1166,
      "burak": 1167,
      "ick": 1168,
      "yannick": 1169,
      "hul": 1170,
      "anze": 1171,
      "hansjoachim": 1172,
      "onstanze": 1173,
      "hulya": 1174,
      "ise": 1175,
      "alice": 1176,
      "marlene": 1177,
      "heidrun": 1178,
      "nes": 1179,
      "oud": 1180,
      "erkan": 1181,
      "rafa": 1182,
      "lip": 1183,
      "phillip": 1184,
      "agnes": 1185,
      "mahmoud": 1186,
      "rafael": 1187,
      "bke": 1188,
      "est": 1189,
      "wie": 1190,
      "adem": 1191,
      "bea": 1192,
      "beatrice": 1193,
      "esther": 1194,
      "wiebke": 1195,
      "yne": 1196,
      "rosa": 1197,
      "zeyne": 1198,
      "zeynep": 1199,
      "zka": 1200,
      "nies": 1201,
      "edgar": 1202,
      "jessy": 1203,
      "ayhan": 1204,
      "agnies": 1205,
      "agnieszka": 1206,
      "old": 1207,
      "mia": 1208,
      "jeanette": 1209,
      "valentin": 1210,
      "samir": 1211,
      "mert": 1212,
      "hale": 1213,
      "khale": 1214,
      "olli": 1215,
      "samuel": 1216,
      "khaled": 1217,
      "dan": 1218,
      "of": 1219,
      "christof": 1220,
      "ken": 1221,
      "shu": 1222,
      "joshu": 1223,
      "kenan": 1224,
      "joshua": 1225,
      "yla": 1226,
      "leyla": 1227,
      "bul": 1228,
      "ent": 1229,
      "ole": 1230,
      "karola": 1231,
      "dominique": 1232,
      "bulent": 1233,
      "ti": 1234,
      "ew": 1235,
      "domenic": 1236,
      "ewa": 1237,
      "ci": 1238,
      "roger": 1239,
      "dula": 1240,
      "ky": 1241,
      "andrej": 1242,
      "jacky": 1243,
      "rix": 1244,
      "jaqueline": 1245,
      "beatrix": 1246,
      "nur": 1247,
      "janet": 1248,
      "gerlinde": 1249,
      "noah": 1250,
      "elli": 1251,
      "till": 1252,
      "thilo": 1253,
      "kor": 1254,
      "chiara": 1255,
      "winfried": 1256,
      "kornelia": 1257,
      "heiner": 1258,
      "der": 1259,
      "deg": 1260,
      "gok": 1261,
      "nar": 1262,
      "corina": 1263,
      "gunnar": 1264,
      "hildeg": 1265,
      "derya": 1266,
      "gokhan": 1267,
      "hildegard": 1268,
      "friedhelm": 1269,
      "yil": 1270,
      "enes": 1271,
      "selma": 1272,
      "yilmaz": 1273,
      "ercan": 1274,
      "milena": 1275,
      "angie": 1276,
      "gerda": 1277,
      "guen": 1278,
      "giz": 1279,
      "dogan": 1280,
      "cengiz": 1281,
      "niclas": 1282,
      "tay": 1283,
      "swen": 1284,
      "bille": 1285,
      "sybille": 1286,
      "muhammed": 1287,
      "eber": 1288,
      "sv": 1289,
      "erol": 1290,
      "lem": 1291,
      "helge": 1292,
      "ozlem": 1293,
      "eberhard": 1294,
      "svetlana": 1295,
      "vla": 1296,
      "dimir": 1297,
      "vladimir": 1298,
      "nart": 1299,
      "gerrit": 1300,
      "heide": 1301,
      "lennart": 1302,
      "damian": 1303,
      "ylle": 1304,
      "margret": 1305,
      "sibylle": 1306,
      "ssandro": 1307,
      "alessandro": 1308,
      "eike": 1309,
      "gard": 1310,
      "mgard": 1311,
      "sindy": 1312,
      "irmgard": 1313,
      "klaudia": 1314,
      "dilek": 1315,
      "fin": 1316,
      "patrik": 1317,
      "beata": 1318,
      "finn": 1319,
      "hus": 1320,
      "sali": 1321,
      "mira": 1322,
      "sein": 1323,
      "hussein": 1324,
      "salih": 1325,
      "onur": 1326,
      "hamza": 1327,
      "otr": 1328,
      "piotr": 1329,
      "evi": 1330,
      "zo": 1331,
      "yasar": 1332,
      "vincenzo": 1333,
      "manja": 1334,
      "esra": 1335,
      "benni": 1336,
      "jannis": 1337,
      "dorothea": 1338,
      "constanze": 1339,
      "ey": 1340,
      "sul": 1341,
      "eyman": 1342,
      "suleyman": 1343,
      "dar": 1344,
      "nele": 1345,
      "serdar": 1346,
      "hilde": 1347,
      "arian": 1348,
      "klausdieter": 1349,
      "detlev": 1350,
      "sibel": 1351,
      "ariane": 1352,
      "ba": 1353,
      "goran": 1354,
      "dal": 1355,
      "fil": 1356,
      "fun": 1357,
      "elmar": 1358,
      "erdal": 1359,
      "filiz": 1360,
      "frederik": 1361,
      "ronja": 1362,
      "mahmut": 1363,
      "erike": 1364,
      "friederike": 1365,
      "az": 1366,
      "din": 1367,
      "aydin": 1368,
      "aziz": 1369,
      "kal": 1370,
      "mus": 1371,
      "ugur": 1372,
      "kalle": 1373,
      "musa": 1374,
      "bw": 1375,
      "kr": 1376,
      "sz": 1377,
      "annkathrin": 1378,
      "tof": 1379,
      "zysz": 1380,
      "krzysz": 1381,
      "krzysztof": 1382,
      "simona": 1383,
      "tilo": 1384,
      "els": 1385,
      "niels": 1386,
      "falko": 1387,
      "bru": 1388,
      "ebru": 1389,
      "mil": 1390,
      "marcin": 1391,
      "kamil": 1392,
      "siggi": 1393,
      "yannik": 1394,
      "gin": 1395,
      "umit": 1396,
      "enne": 1397,
      "engin": 1398,
      "fabienne": 1399,
      "aline": 1400,
      "luise": 1401,
      "margot": 1402,
      "ricarda": 1403,
      "gret": 1404,
      "mes": 1405,
      "annegret": 1406,
      "melli": 1407,
      "mesut": 1408,
      "kn": 1409,
      "wel": 1410,
      "pawel": 1411,
      "knut": 1412,
      "arzy": 1413,
      "rece": 1414,
      "katarzy": 1415,
      "ferhat": 1416,
      "recep": 1417,
      "katarzyna": 1418,
      "kil": 1419,
      "kilian": 1420,
      "ckhard": 1421,
      "eckhard": 1422,
      "zia": 1423,
      "rizia": 1424,
      "patrizia": 1425,
      "dilara": 1426,
      "baris": 1427,
      "loren": 1428,
      "tine": 1429,
      "gios": 1430,
      "melek": 1431,
      "evamaria": 1432,
      "georgios": 1433,
      "lorenz": 1434,
      "cco": 1435,
      "oleg": 1436,
      "abo": 1437,
      "rocco": 1438,
      "lil": 1439,
      "nd": 1440,
      "arnd": 1441,
      "reza": 1442,
      "sylke": 1443,
      "lilli": 1444,
      "constantin": 1445,
      "zat": 1446,
      "wolfram": 1447,
      "chrissi": 1448,
      "malgor": 1449,
      "sieglinde": 1450,
      "zata": 1451,
      "malgorzata": 1452,
      "cordula": 1453,
      "selim": 1454,
      "yem": 1455,
      "meryem": 1456,
      "volkan": 1457,
      "regine": 1458,
      "dra": 1459,
      "ois": 1460,
      "tomas": 1461,
      "ene": 1462,
      "alois": 1463,
      "helene": 1464,
      "hagen": 1465,
      "merve": 1466,
      "dragan": 1467,
      "tomasz": 1468,
      "rze": 1469,
      "andrze": 1470,
      "angelique": 1471,
      "andrzej": 1472,
      "tolga": 1473,
      "gertrud": 1474,
      "maxim": 1475,
      "dat": 1476,
      "ksandra": 1477,
      "jam": 1478,
      "aleksandra": 1479,
      "sedat": 1480,
      "mirjam": 1481,
      "thold": 1482,
      "berthold": 1483,
      "sevgi": 1484,
      "amel": 1485,
      "bay": 1486,
      "ea": 1487,
      "tab": 1488,
      "uisa": 1489,
      "kaan": 1490,
      "ismet": 1491,
      "louisa": 1492,
      "amelie": 1493,
      "bayram": 1494,
      "tabea": 1495,
      "bine": 1496,
      "zor": 1497,
      "zoran": 1498,
      "umut": 1499,
      "nikolai": 1500,
      "guenter": 1501,
      "bor": 1502,
      "yun": 1503,
      "ingebor": 1504,
      "dorothee": 1505,
      "yunus": 1506,
      "ingeborg": 1507,
      "iw": 1508,
      "kka": 1509,
      "aret": 1510,
      "ilse": 1511,
      "rebekka": 1512,
      "margaret": 1513,
      "iwona": 1514,
      "margarete": 1515,
      "hin": 1516,
      "zu": 1517,
      "arzu": 1518,
      "eltraud": 1519,
      "sahin": 1520,
      "edeltraud": 1521,
      "birte": 1522,
      "ewald": 1523,
      "udi": 1524,
      "claudi": 1525,
      "sevda": 1526,
      "aa": 1527,
      "alaa": 1528,
      "egon": 1529,
      "swetlana": 1530,
      "bi": 1531,
      "ggi": 1532,
      "ibo": 1533,
      "biggi": 1534,
      "yuk": 1535,
      "ludger": 1536,
      "yuksel": 1537,
      "nici": 1538,
      "hansi": 1539,
      "ese": 1540,
      "tali": 1541,
      "anneli": 1542,
      "vitali": 1543,
      "anneliese": 1544,
      "christos": 1545,
      "marija": 1546,
      "aynur": 1547,
      "erhan": 1548,
      "kirstin": 1549,
      "domenico": 1550,
      "hra": 1551,
      "raim": 1552,
      "und": 1553,
      "michal": 1554,
      "aysel": 1555,
      "zehra": 1556,
      "raimund": 1557,
      "selin": 1558,
      "dorte": 1559,
      "cihan": 1560,
      "klauspeter": 1561,
      "ilhan": 1562,
      "serhat": 1563,
      "leven": 1564,
      "hauke": 1565,
      "lukasz": 1566,
      "levent": 1567,
      "fur": 1568,
      "jol": 1569,
      "anta": 1570,
      "songul": 1571,
      "canan": 1572,
      "mariusz": 1573,
      "ozcan": 1574,
      "furkan": 1575,
      "jolanta": 1576,
      "ki": 1577,
      "erhard": 1578,
      "juri": 1579,
      "zeki": 1580,
      "dorota": 1581,
      "ozgur": 1582,
      "meik": 1583,
      "cemal": 1584,
      "wia": 1585,
      "elfried": 1586,
      "ons": 1587,
      "thorben": 1588,
      "alfons": 1589,
      "heino": 1590,
      "sylwia": 1591,
      "sevim": 1592,
      "oktay": 1593,
      "elfriede": 1594,
      "rem": 1595,
      "sepp": 1596,
      "lisamarie": 1597,
      "ekrem": 1598,
      "hanne": 1599,
      "okan": 1600,
      "sonke": 1601,
      "emrah": 1602,
      "timm": 1603,
      "rios": 1604,
      "nihat": 1605,
      "dimit": 1606,
      "ingolf": 1607,
      "hansdieter": 1608,
      "dimitrios": 1609,
      "dawi": 1610,
      "lasse": 1611,
      "dawid": 1612,
      "imke": 1613,
      "dajana": 1614,
      "benno": 1615,
      "tun": 1616,
      "cay": 1617,
      "bekir": 1618,
      "tuncay": 1619,
      "fi": 1620,
      "elfi": 1621,
      "samet": 1622,
      "cuk": 1623,
      "jko": 1624,
      "mra": 1625,
      "nura": 1626,
      "zel": 1627,
      "annine": 1628,
      "semra": 1629,
      "selcuk": 1630,
      "jeannine": 1631,
      "josefine": 1632,
      "nuray": 1633,
      "zeljko": 1634,
      "dun": 1635,
      "eer": 1636,
      "peer": 1637,
      "dunja": 1638,
      "gba": 1639,
      "tu": 1640,
      "tul": 1641,
      "tugba": 1642,
      "tulay": 1643,
      "kmar": 1644,
      "hansjorg": 1645,
      "volkmar": 1646,
      "pil": 1647,
      "serpil": 1648,
      "gulay": 1649,
      "pin": 1650,
      "pinar": 1651,
      "birgitt": 1652,
      "gulcan": 1653,
      "uz": 1654,
      "vuz": 1655,
      "stus": 1656,
      "baran": 1657,
      "justus": 1658,
      "yavuz": 1659,
      "muhammet": 1660,
      "manni": 1661,
      "ogu": 1662,
      "sen": 1663,
      "zhan": 1664,
      "janin": 1665,
      "gdem": 1666,
      "cigdem": 1667,
      "oguzhan": 1668,
      "senol": 1669,
      "ku": 1670,
      "yaku": 1671,
      "yakup": 1672,
      "cat": 1673,
      "hrin": 1674,
      "tan": 1675,
      "cathrin": 1676,
      "taner": 1677,
      "ten": 1678,
      "katha": 1679,
      "ayten": 1680,
      "ved": 1681,
      "vedat": 1682,
      "bjo": 1683,
      "mze": 1684,
      "erdogan": 1685,
      "gamze": 1686,
      "mareen": 1687,
      "ufuk": 1688,
      "bjoern": 1689,
      "gerno": 1690,
      "gerold": 1691,
      "gitta": 1692,
      "meral": 1693,
      "gernot": 1694,
      "olde": 1695,
      "raik": 1696,
      "isolde": 1697,
      "margitta": 1698,
      "funda": 1699,
      "ozkan": 1700,
      "nurcan": 1701,
      "yna": 1702,
      "aleyna": 1703,
      "ap": 1704,
      "sgar": 1705,
      "ansgar": 1706,
      "dome": 1707,
      "serap": 1708,
      "celal": 1709,
      "marlis": 1710,
      "tayfun": 1711,
      "heidemarie": 1712,
      "hansgeorg": 1713,
      "franzjosef": 1714,
      "cet": 1715,
      "gon": 1716,
      "cetin": 1717,
      "gonul": 1718,
      "dietrich": 1719,
      "hanswerner": 1720,
      "kaiuwe": 1721,
      "hubertus": 1722,
      "domenik": 1723,
      "fyn": 1724,
      "uise": 1725,
      "elheid": 1726,
      "eluise": 1727,
      "marieluise": 1728,
      "adelheid": 1729,
      "fynn": 1730,
      "it": 1731,
      "hajo": 1732,
      "veit": 1733,
      "nikolaus": 1734,
      "arndt": 1735,
      "bre": 1736,
      "cht": 1737,
      "albre": 1738,
      "albrecht": 1739,
      "bel": 1740,
      "uven": 1741,
      "erbel": 1742,
      "chthil": 1743,
      "rouven": 1744,
      "mechthil": 1745,
      "baerbel": 1746,
      "mechthild": 1747,
      "suse": 1748,
      "gesa": 1749,
      "edi": 1750,
      "ruedi": 1751,
      "ruediger": 1752,
      "ibert": 1753,
      "annekathrin": 1754,
      "gundula": 1755,
      "heribert": 1756,
      "guenther": 1757,
      "brunhilde": 1758,
      "ej": 1759,
      "alexej": 1760,
      "bab": 1761,
      "konstanze": 1762,
      "roni": 1763,
      "vroni": 1764,
      "babsi": 1765,
      "ges": 1766,
      "gitti": 1767,
      "gesine": 1768
    },
    "merges": [
      "a n",
      "i n",
      "a r",
      "e l",
      "e r",
      "s t",
      "e n",
      "r i",
      "c h",
      "m ar",
      "a s",
      "an d",
      "a l",
      "a t",
      "r e",
      "o n",
      "o l",
      "i an",
      "m i",
      "e t",
      "in a",
      "ch ri",
      "i k",
      "t h",
      "r a",
      "chri st",
      "an n",
      "u s",
      "st e",
      "i a",
      "o r",
      "an i",
      "ch a",
      "s a",
      "o m",
      "and re",
      "j a",
      "n i",
      "mi cha",
      "in e",
      "micha el",
      "u l",
      "ste f",
      "i l",
      "p h",
      "k e",
      "m a",
      "mar c",
      "i m",
      "l a",
      "om as",
      "p et",
      "th omas",
      "b er",
      "d ani",
      "d i",
      "christ ian",
      "al e",
      "dani el",
      "f r",
      "fr an",
      "i as",
      "andre as",
      "k at",
      "h e",
      "ale x",
      "sa b",
      "s e",
      "ni c",
      "j o",
      "m an",
      "mar t",
      "mar i",
      "j an",
      "e s",
      "u r",
      "h ar",
      "u d",
      "ani e",
      "ri c",
      "mar k",
      "st en",
      "j en",
      "an g",
      "stef an",
      "l e",
      "and ra",
      "pet er",
      "ik a",
      "a b",
      "g i",
      "a st",
      "an ja",
      "r o",
      "ber t",
      "fran k",
      "g er",
      "d a",
      "o ri",
      "v en",
      "j ul",
      "u t",
      "ar a",
      "c ar",
      "u el",
      "k ar",
      "mark us",
      "m at",
      "nic ol",
      "d en",
      "b ast",
      "mart in",
      "m on",
      "k a",
      "g en",
      "ol f",
      "s andra",
      "bast ian",
      "v i",
      "ann e",
      "nicol e",
      "v er",
      "he ik",
      "p at",
      "s ven",
      "l i",
      "a d",
      "c a",
      "t a",
      "r en",
      "t o",
      "st in",
      "ann a",
      "j or",
      "c la",
      "m el",
      "pat ric",
      "e d",
      "n y",
      "o ph",
      "s i",
      "se bastian",
      "gi t",
      "h an",
      "and er",
      "alex ander",
      "en a",
      "man uel",
      "k er",
      "v in",
      "sab ine",
      "i s",
      "to b",
      "ud ia",
      "andre a",
      "s us",
      "m in",
      "r k",
      "pet ra",
      "i r",
      "cla udia",
      "th ias",
      "mat thias",
      "marc el",
      "j ur",
      "jur gen",
      "s il",
      "l u",
      "stef f",
      "r in",
      "al f",
      "ber n",
      "t e",
      "patric k",
      "t im",
      "or sten",
      "ma x",
      "al i",
      "f l",
      "ste ph",
      "tob ias",
      "k la",
      "jen s",
      "s im",
      "sim on",
      "b en",
      "u n",
      "in g",
      "ang el",
      "marc o",
      "ren e",
      "g ab",
      "u w",
      "uw e",
      "n ad",
      "kla us",
      "jul ia",
      "n e",
      "s as",
      "w olf",
      "di rk",
      "christ oph",
      "har d",
      "h m",
      "r alf",
      "ori an",
      "fl orian",
      "jo h",
      "s ara",
      "ol i",
      "t ina",
      "mel anie",
      "g ang",
      "wolf gang",
      "ph il",
      "jor g",
      "an t",
      "oli ver",
      "ro bert",
      "h el",
      "di et",
      "h a",
      "el i",
      "ni s",
      "den nis",
      "bern d",
      "heik e",
      "and y",
      "ker stin",
      "re d",
      "han s",
      "d om",
      "nad ine",
      "t anja",
      "ke vin",
      "da vi",
      "davi d",
      "mon ika",
      "mari o",
      "daniel a",
      "sus anne",
      "mar ia",
      "b e",
      "fran z",
      "sas cha",
      "p p",
      "li sa",
      "v ia",
      "sara h",
      "ol a",
      "phil i",
      "in er",
      "b ir",
      "stef anie",
      "dom in",
      "manuel a",
      "mart ina",
      "jan a",
      "al d",
      "f red",
      "bir git",
      "kat h",
      "r ina",
      "sab rina",
      "j es",
      "he in",
      "steph an",
      "b ar",
      "f ab",
      "mi ch",
      "t er",
      "at e",
      "u ra",
      "ma ik",
      "steff en",
      "ri ch",
      "v on",
      "von ne",
      "d o",
      "v an",
      "diet er",
      "f ri",
      "chri s",
      "h ol",
      "b ri",
      "jes si",
      "on ny",
      "phili pp",
      "j u",
      "l ar",
      "ma d",
      "ri d",
      "a ch",
      "ach im",
      "kar in",
      "bar b",
      "p a",
      "joh ann",
      "kat rin",
      "nic o",
      "simon e",
      "hm et",
      "mari on",
      "el e",
      "m o",
      "la ura",
      "michael a",
      "y vonne",
      "t orsten",
      "kat ja",
      "man fred",
      "jessi ca",
      "c or",
      "er n",
      "s on",
      "pa ul",
      "n at",
      "i c",
      "g un",
      "domin ik",
      "y l",
      "christ ine",
      "ka i",
      "t om",
      "hein z",
      "m ut",
      "heik o",
      "hol ger",
      "fri ed",
      "g e",
      "s el",
      "ha m",
      "sil ke",
      "christ ina",
      "gab ri",
      "kat har",
      "kathar ina",
      "k as",
      "lu kas",
      "mi ke",
      "alex andra",
      "th orsten",
      "jul ian",
      "on i",
      "j as",
      "ra iner",
      "lar s",
      "fab ian",
      "b ian",
      "m e",
      "n or",
      "kath rin",
      "el ke",
      "son ja",
      "ann et",
      "f eli",
      "feli x",
      "e v",
      "h en",
      "d ian",
      "dian a",
      "l ena",
      "kar l",
      "marc us",
      "v ol",
      "jen ny",
      "es sa",
      "van essa",
      "e g",
      "jen ni",
      "ja min",
      "ben jamin",
      "angel ika",
      "f er",
      "mon a",
      "steff i",
      "he i",
      "w ern",
      "wern er",
      "h er",
      "car sten",
      "g a",
      "n ik",
      "mari e",
      "mich el",
      "johann es",
      "jor n",
      "jas min",
      "j e",
      "e m",
      "n ina",
      "bian ca",
      "barb ara",
      "ut e",
      "s yl",
      "jenni fer",
      "r u",
      "jo achim",
      "sil via",
      "re g",
      "m u",
      "ric o",
      "j on",
      "a y",
      "tim o",
      "r onny",
      "vol ker",
      "m en",
      "r ol",
      "rol and",
      "mo ham",
      "c al",
      "p as",
      "pas cal",
      "git te",
      "bri gitte",
      "ar d",
      "m andy",
      "f a",
      "nor bert",
      "steph anie",
      "ri ke",
      "ev a",
      "ori s",
      "den i",
      "max i",
      "k an",
      "b et",
      "bet tina",
      "an ke",
      "ul rike",
      "ge or",
      "i sab",
      "w il",
      "isab el",
      "gabri ele",
      "ola f",
      "har ald",
      "b jorn",
      "ing o",
      "me hmet",
      "is ka",
      "franz iska",
      "mar ina",
      "ra mona",
      "hel mut",
      "syl via",
      "l as",
      "i e",
      "l o",
      "k ri",
      "jon as",
      "angel a",
      "be ate",
      "l ian",
      "z e",
      "car men",
      "a fa",
      "st afa",
      "mu stafa",
      "n a",
      "christian e",
      "h ias",
      "mat hias",
      "ren ate",
      "l en",
      "gun ter",
      "annet te",
      "geor g",
      "d et",
      "h as",
      "det le",
      "ja c",
      "car ol",
      "q uel",
      "ik t",
      "quel ine",
      "michel le",
      "a x",
      "ax el",
      "ger hard",
      "n el",
      "nel ia",
      "kar sten",
      "r un",
      "se f",
      "jo sef",
      "ine s",
      "l in",
      "h or",
      "hor st",
      "le on",
      "w al",
      "s oph",
      "an a",
      "s er",
      "ali e",
      "ul a",
      "ik e",
      "gab i",
      "mar vin",
      "r olf",
      "mi r",
      "ri k",
      "ud o",
      "g u",
      "hei di",
      "d e",
      "t z",
      "jan ine",
      "us e",
      "d oris",
      "ger d",
      "l s",
      "ni ls",
      "re in",
      "th er",
      "christoph er",
      "a h",
      "j ut",
      "jut ta",
      "ant je",
      "detle f",
      "reg ina",
      "b in",
      "en rico",
      "ro bin",
      "i ri",
      "iri s",
      "mi lian",
      "maxi milian",
      "c an",
      "nik las",
      "r om",
      "ru di",
      "jac queline",
      "ing rid",
      "cor nelia",
      "deni se",
      "n an",
      "ant on",
      "bern hard",
      "ch en",
      "jo chen",
      "ul rich",
      "ste ven",
      "on a",
      "n o",
      "ver ena",
      "s ula",
      "ur sula",
      "r y",
      "karl heinz",
      "ani ta",
      "ju stin",
      "i sa",
      "is sa",
      "w i",
      "a hmet",
      "re en",
      "do reen",
      "el ena",
      "mari us",
      "le a",
      "wal ter",
      "v e",
      "er ik",
      "ast rid",
      "has an",
      "den is",
      "t oni",
      "v ikt",
      "f at",
      "h ann",
      "t in",
      "t ta",
      "bri tta",
      "i b",
      "di th",
      "ah mad",
      "k ir",
      "al ena",
      "al ina",
      "ra h",
      "c onny",
      "m ur",
      "mur at",
      "er ic",
      "g mar",
      "da gmar",
      "i do",
      "gu ido",
      "her bert",
      "mi rk",
      "mirk o",
      "lin da",
      "hel ga",
      "c el",
      "ol ga",
      "diet mar",
      "h anna",
      "rich ard",
      "m al",
      "ri ta",
      "il ona",
      "mark o",
      "k ia",
      "sas kia",
      "mar ian",
      "ri an",
      "ad rian",
      "carol in",
      "o s",
      "patric ia",
      "mar e",
      "an et",
      "ann ika",
      "i q",
      "u e",
      "iq ue",
      "et h",
      "sab eth",
      "eli sabeth",
      "d y",
      "l ut",
      "in dy",
      "lut z",
      "c o",
      "joh anna",
      "lu ca",
      "nat alie",
      "in na",
      "cor inna",
      "st ina",
      "ing e",
      "kri stina",
      "m ori",
      "mori tz",
      "rein hard",
      "y as",
      "h at",
      "ric e",
      "si eg",
      "soph ie",
      "a m",
      "ri am",
      "mi riam",
      "ib rah",
      "ibrah im",
      "e sa",
      "re be",
      "ann i",
      "d ann",
      "er ika",
      "dann y",
      "t at",
      "tat jana",
      "car ina",
      "h u",
      "l ara",
      "rom an",
      "ar min",
      "k im",
      "k o",
      "christ in",
      "c y",
      "o re",
      "nan cy",
      "gi sel",
      "gisel a",
      "gab y",
      "d or",
      "on st",
      "christ a",
      "m et",
      "el a",
      "re iner",
      "barb el",
      "nad ja",
      "c en",
      "y a",
      "be at",
      "sven ja",
      "ste ve",
      "th ar",
      "lo thar",
      "p ia",
      "si g",
      "c as",
      "d rik",
      "lu cas",
      "hen drik",
      "m er",
      "o t",
      "ar t",
      "jan ina",
      "car ola",
      "g or",
      "h use",
      "y in",
      "tin o",
      "huse yin",
      "p i",
      "tob i",
      "ant oni",
      "antoni o",
      "fab i",
      "ch i",
      "ir ina",
      "kir sten",
      "ori a",
      "r on",
      "ul la",
      "annet t",
      "s ina",
      "wil li",
      "m ed",
      "m ann",
      "w in",
      "nic k",
      "her mann",
      "da m",
      "r ud",
      "w ald",
      "c indy",
      "s and",
      "t mut",
      "har tmut",
      "sand ro",
      "th e",
      "joh n",
      "moham ed",
      "c ca",
      "rebe cca",
      "moham mad",
      "ka y",
      "kri stin",
      "rudi ger",
      "sieg fried",
      "as cha",
      "nat ascha",
      "g ud",
      "gud run",
      "g y",
      "p eg",
      "peg gy",
      "r al",
      "franz i",
      "ral ph",
      "j ann",
      "gun ther",
      "dor o",
      "ma il",
      "is mail",
      "a hm",
      "sus i",
      "ahm ed",
      "ju dith",
      "mar a",
      "ta mara",
      "marian ne",
      "o z",
      "or en",
      "vikt or",
      "u f",
      "on ika",
      "ver onika",
      "phili p",
      "anet te",
      "hel m",
      "mar en",
      "sus ann",
      "v al",
      "val en",
      "ver a",
      "ma z",
      "fat ma",
      "g ul",
      "k ur",
      "s andy",
      "kur t",
      "alf red",
      "mar g",
      "sa m",
      "er gen",
      "and i",
      "kar ina",
      "ju ergen",
      "sel ina",
      "u rice",
      "ma urice",
      "mel issa",
      "s wi",
      "th a",
      "ro swi",
      "julian e",
      "roswi tha",
      "deni z",
      "ric ar",
      "a g",
      "wil fried",
      "hann es",
      "d ana",
      "an ika",
      "hu bert",
      "gi use",
      "pp e",
      "giuse ppe",
      "e k",
      "har ry",
      "vi o",
      "sil vio",
      "sig rid",
      "maik e",
      "g d",
      "b il",
      "domin ic",
      "man u",
      "f al",
      "ri t",
      "lu isa",
      "hen ry",
      "e u",
      "k hard",
      "eu gen",
      "l ina",
      "le o",
      "e mar",
      "ul i",
      "vin cen",
      "wald emar",
      "hm d",
      "ther esa",
      "ha kan",
      "ay se",
      "fl o",
      "nor man",
      "s y",
      "y n",
      "rud olf",
      "soph ia",
      "y us",
      "cla us",
      "yus uf",
      "n ing",
      "hen ning",
      "mar git",
      "carol ine",
      "ant in",
      "onst antin",
      "l ud",
      "er g",
      "jo erg",
      "art ur",
      "isabel l",
      "i rene",
      "er re",
      "ben ny",
      "pi erre",
      "ron ald",
      "t ra",
      "tra ud",
      "or ben",
      "car o",
      "ma hm",
      "y ann",
      "ja ko",
      "jako b",
      "e min",
      "le oni",
      "leoni e",
      "d ia",
      "l y",
      "le en",
      "kath leen",
      "lar issa",
      "ly dia",
      "i van",
      "c e",
      "mar li",
      "el len",
      "mare ike",
      "hans jurgen",
      "se v",
      "hein rich",
      "al bert",
      "mon ique",
      "h il",
      "a dam",
      "anton ia",
      "moham med",
      "h alie",
      "nat halie",
      "cel ine",
      "sus an",
      "us chi",
      "t il",
      "mar len",
      "ha mad",
      "mo hamad",
      "os man",
      "christ el",
      "g reg",
      "greg or",
      "bast i",
      "b run",
      "om er",
      "al ia",
      "nat alia",
      "u ke",
      "ge j",
      "ser gej",
      "mal te",
      "b oris",
      "er win",
      "em re",
      "el ore",
      "si b",
      "me ike",
      "hann elore",
      "kat i",
      "angel ina",
      "lin de",
      "s oren",
      "t on",
      "fri tz",
      "ton y",
      "nik ola",
      "jann ik",
      "g ina",
      "ma gd",
      "mich i",
      "magd alena",
      "ed ikt",
      "ben edikt",
      "el yn",
      "ev elyn",
      "re t",
      "hanna h",
      "i ch",
      "s an",
      "er ich",
      "has san",
      "ro si",
      "mich ele",
      "g an",
      "i vonne",
      "ru th",
      "d il",
      "jul e",
      "i z",
      "ar ne",
      "a el",
      "ra ph",
      "raph ael",
      "kath i",
      "gabri ela",
      "mari ta",
      "i h",
      "m y",
      "z a",
      "tom my",
      "fat ih",
      "c em",
      "robert o",
      "paul a",
      "d ulla",
      "s w",
      "ab dulla",
      "abdulla h",
      "l ana",
      "o mar",
      "z y",
      "et lana",
      "hol d",
      "rein hold",
      "o k",
      "u k",
      "ic e",
      "hat ice",
      "ann alena",
      "u ard",
      "ed uard",
      "cel ina",
      "c es",
      "g ar",
      "fran ces",
      "angel o",
      "vikt oria",
      "frances co",
      "doro the",
      "hei d",
      "marli es",
      "mar y",
      "nik o",
      "em ine",
      "met in",
      "ricar do",
      "brun o",
      "ger ald",
      "ut a",
      "mon i",
      "el vi",
      "elvi ra",
      "s al",
      "v at",
      "sal vat",
      "salvat ore",
      "wil helm",
      "hen rik",
      "ul f",
      "e dith",
      "mat ze",
      "vi ola",
      "dom en",
      "rom y",
      "t orben",
      "vi en",
      "vi vien",
      "hel ena",
      "m hmd",
      "den ny",
      "ra maz",
      "hans peter",
      "mu ham",
      "ramaz an",
      "ra m",
      "or han",
      "wi g",
      "lud wig",
      "ch ant",
      "chant al",
      "d u",
      "g ur",
      "du stin",
      "b ur",
      "eli sa",
      "bur khard",
      "th il",
      "bian ka",
      "nicol as",
      "mel ina",
      "yas emin",
      "i gor",
      "nicol a",
      "wal traud",
      "mir co",
      "fal k",
      "ing a",
      "fried rich",
      "mare k",
      "mad ele",
      "ern st",
      "valen tina",
      "madele ine",
      "mi t",
      "sa mi",
      "lu is",
      "ser kan",
      "c t",
      "se marie",
      "ro semarie",
      "vi ct",
      "vict oria",
      "ma ja",
      "je annette",
      "ger t",
      "ad nan",
      "a mir",
      "k onstantin",
      "a yl",
      "fabi o",
      "ayl in",
      "h al",
      "il ka",
      "ot to",
      "hal il",
      "c le",
      "jo e",
      "gabri el",
      "men s",
      "cle mens",
      "e en",
      "e il",
      "jo anna",
      "anne marie",
      "eil een",
      "ter esa",
      "ke mal",
      "sil van",
      "no ra",
      "silvan a",
      "ul li",
      "mad len",
      "el ias",
      "at han",
      "car lo",
      "jas on",
      "jon athan",
      "lian e",
      "vincen t",
      "carlo s",
      "i us",
      "k on",
      "o v",
      "ra d",
      "gi ov",
      "jul ius",
      "kon rad",
      "giov anni",
      "t te",
      "ar lo",
      "ch arlo",
      "di r",
      "ka dir",
      "charlo tte",
      "isabel la",
      "yas in",
      "f ra",
      "fra uke",
      "g rit",
      "an ast",
      "as ia",
      "anet t",
      "bil al",
      "anast asia",
      "b o",
      "bo do",
      "s in",
      "sin an",
      "the o",
      "ar no",
      "isabel le",
      "b ura",
      "eli f",
      "bura k",
      "ic k",
      "yann ick",
      "h ul",
      "an ze",
      "hans joachim",
      "onst anze",
      "hul ya",
      "i se",
      "ali ce",
      "marlen e",
      "heid run",
      "n es",
      "o ud",
      "er kan",
      "ra fa",
      "li p",
      "phil lip",
      "ag nes",
      "mahm oud",
      "rafa el",
      "b ke",
      "e st",
      "w ie",
      "ad em",
      "be a",
      "beat rice",
      "est her",
      "wie bke",
      "y ne",
      "ro sa",
      "ze yne",
      "zeyne p",
      "z ka",
      "ni es",
      "ed gar",
      "jes sy",
      "ay han",
      "ag nies",
      "agnies zka",
      "ol d",
      "mi a",
      "je anette",
      "valen tin",
      "sa mir",
      "mer t",
      "h ale",
      "k hale",
      "ol li",
      "sam uel",
      "khale d",
      "d an",
      "o f",
      "christ of",
      "k en",
      "s hu",
      "jo shu",
      "ken an",
      "joshu a",
      "y la",
      "le yla",
      "b ul",
      "en t",
      "ol e",
      "kar ola",
      "domin ique",
      "bul ent",
      "t i",
      "e w",
      "domen ic",
      "ew a",
      "c i",
      "ro ger",
      "d ula",
      "k y",
      "andre j",
      "jac ky",
      "ri x",
      "ja queline",
      "beat rix",
      "n ur",
      "jan et",
      "ger linde",
      "no ah",
      "el li",
      "til l",
      "thil o",
      "k or",
      "chi ara",
      "win fried",
      "kor nelia",
      "he iner",
      "d er",
      "d eg",
      "g ok",
      "n ar",
      "cor ina",
      "gun nar",
      "hil deg",
      "der ya",
      "gok han",
      "hildeg ard",
      "fried helm",
      "y il",
      "en es",
      "sel ma",
      "yil maz",
      "er can",
      "mi lena",
      "ang ie",
      "ger da",
      "gu en",
      "gi z",
      "do gan",
      "cen giz",
      "nic las",
      "ta y",
      "sw en",
      "bil le",
      "sy bille",
      "muham med",
      "e ber",
      "s v",
      "er ol",
      "le m",
      "hel ge",
      "oz lem",
      "eber hard",
      "sv etlana",
      "v la",
      "di mir",
      "vla dimir",
      "n art",
      "ger rit",
      "hei de",
      "len nart",
      "dam ian",
      "yl le",
      "marg ret",
      "sib ylle",
      "s sandro",
      "ale ssandro",
      "e ike",
      "g ard",
      "m gard",
      "s indy",
      "ir mgard",
      "kla udia",
      "dil ek",
      "f in",
      "pat rik",
      "beat a",
      "fin n",
      "h us",
      "s ali",
      "mi ra",
      "se in",
      "hus sein",
      "sali h",
      "on ur",
      "ham za",
      "ot r",
      "pi otr",
      "e vi",
      "z o",
      "yas ar",
      "vincen zo",
      "man ja",
      "es ra",
      "ben ni",
      "jann is",
      "dorothe a",
      "c onstanze",
      "e y",
      "s ul",
      "ey man",
      "sul eyman",
      "d ar",
      "n ele",
      "ser dar",
      "hil de",
      "ar ian",
      "klaus dieter",
      "detle v",
      "sib el",
      "arian e",
      "b a",
      "gor an",
      "d al",
      "f il",
      "f un",
      "el mar",
      "er dal",
      "fil iz",
      "fred erik",
      "ron ja",
      "mahm ut",
      "er ike",
      "fried erike",
      "a z",
      "d in",
      "ay din",
      "az iz",
      "k al",
      "m us",
      "u gur",
      "kal le",
      "mus a",
      "b w",
      "k r",
      "s z",
      "ann kathrin",
      "to f",
      "zy sz",
      "kr zysz",
      "krzysz tof",
      "simon a",
      "til o",
      "el s",
      "ni els",
      "fal ko",
      "b ru",
      "e bru",
      "mi l",
      "marc in",
      "ka mil",
      "sig gi",
      "yann ik",
      "g in",
      "u mit",
      "en ne",
      "en gin",
      "fabi enne",
      "al ine",
      "lu ise",
      "marg ot",
      "ricar da",
      "g ret",
      "m es",
      "anne gret",
      "mel li",
      "mes ut",
      "k n",
      "w el",
      "pa wel",
      "kn ut",
      "ar zy",
      "re ce",
      "kat arzy",
      "fer hat",
      "rece p",
      "katarzy na",
      "k il",
      "kil ian",
      "c khard",
      "e ckhard",
      "z ia",
      "ri zia",
      "pat rizia",
      "dil ara",
      "bar is",
      "l oren",
      "t ine",
      "gi os",
      "mel ek",
      "eva maria",
      "geor gios",
      "loren z",
      "c co",
      "ol eg",
      "ab o",
      "ro cco",
      "l il",
      "n d",
      "ar nd",
      "re za",
      "syl ke",
      "lil li",
      "c onstantin",
      "z at",
      "wolf ram",
      "chris si",
      "mal gor",
      "sieg linde",
      "zat a",
      "malgor zata",
      "cor dula",
      "sel im",
      "y em",
      "mer yem",
      "vol kan",
      "reg ine",
      "d ra",
      "o is",
      "t omas",
      "en e",
      "al ois",
      "hel ene",
      "ha gen",
      "mer ve",
      "dra gan",
      "tomas z",
      "r ze",
      "and rze",
      "angel ique",
      "andrze j",
      "t olga",
      "gert rud",
      "max im",
      "d at",
      "k sandra",
      "ja m",
      "ale ksandra",
      "se dat",
      "mir jam",
      "th old",
      "ber thold",
      "sev gi",
      "a mel",
      "b ay",
      "e a",
      "t ab",
      "u isa",
      "ka an",
      "is met",
      "lo uisa",
      "amel ie",
      "bay ram",
      "tab ea",
      "b ine",
      "z or",
      "zor an",
      "u mut",
      "nikola i",
      "guen ter",
      "b or",
      "y un",
      "inge bor",
      "dorothe e",
      "yun us",
      "ingebor g",
      "i w",
      "k ka",
      "ar et",
      "il se",
      "rebe kka",
      "marg aret",
      "iw ona",
      "margaret e",
      "h in",
      "z u",
      "ar zu",
      "el traud",
      "sa hin",
      "ed eltraud",
      "bir te",
      "e wald",
      "u di",
      "cla udi",
      "sev da",
      "a a",
      "al aa",
      "eg on",
      "sw etlana",
      "b i",
      "g gi",
      "ib o",
      "bi ggi",
      "y uk",
      "lud ger",
      "yuk sel",
      "nic i",
      "han si",
      "e se",
      "t ali",
      "ann eli",
      "vi tali",
      "anneli ese",
      "christ os",
      "mari ja",
      "ay nur",
      "er han",
      "kir stin",
      "domenic o",
      "h ra",
      "ra im",
      "un d",
      "mich al",
      "ay sel",
      "ze hra",
      "raim und",
      "sel in",
      "dor te",
      "ci han",
      "klaus peter",
      "il han",
      "ser hat",
      "le ven",
      "ha uke",
      "lukas z",
      "leven t",
      "f ur",
      "j ol",
      "an ta",
      "son gul",
      "can an",
      "marius z",
      "oz can",
      "fur kan",
      "jol anta",
      "k i",
      "er hard",
      "ju ri",
      "ze ki",
      "doro ta",
      "oz gur",
      "me ik",
      "cem al",
      "w ia",
      "el fried",
      "on s",
      "th orben",
      "alf ons",
      "hein o",
      "syl wia",
      "sev im",
      "ok tay",
      "elfried e",
      "re m",
      "se pp",
      "lisa marie",
      "ek rem",
      "h anne",
      "o kan",
      "son ke",
      "em rah",
      "tim m",
      "ri os",
      "ni hat",
      "di mit",
      "ing olf",
      "hans dieter",
      "dimit rios",
      "da wi",
      "las se",
      "dawi d",
      "im ke",
      "da jana",
      "ben no",
      "t un",
      "ca y",
      "be kir",
      "tun cay",
      "f i",
      "el fi",
      "sa met",
      "c uk",
      "j ko",
      "m ra",
      "n ura",
      "z el",
      "ann ine",
      "se mra",
      "sel cuk",
      "je annine",
      "josef ine",
      "nura y",
      "zel jko",
      "d un",
      "e er",
      "p eer",
      "dun ja",
      "g ba",
      "t u",
      "t ul",
      "tu gba",
      "tul ay",
      "k mar",
      "hans jorg",
      "vol kmar",
      "p il",
      "ser pil",
      "gul ay",
      "p in",
      "pin ar",
      "birgit t",
      "gul can",
      "u z",
      "v uz",
      "st us",
      "bar an",
      "ju stus",
      "ya vuz",
      "muham met",
      "m anni",
      "o gu",
      "s en",
      "z han",
      "jan in",
      "gd em",
      "ci gdem",
      "ogu zhan",
      "sen ol",
      "k u",
      "ya ku",
      "yaku p",
      "c at",
      "h rin",
      "t an",
      "cat hrin",
      "tan er",
      "t en",
      "kat ha",
      "ay ten",
      "v ed",
      "ved at",
      "b jo",
      "m ze",
      "er dogan",
      "ga mze",
      "mare en",
      "uf uk",
      "bjo ern",
      "ger no",
      "ger old",
      "git ta",
      "mer al",
      "gerno t",
      "ol de",
      "ra ik",
      "is olde",
      "margit ta",
      "fun da",
      "oz kan",
      "nur can",
      "y na",
      "ale yna",
      "a p",
      "s gar",
      "an sgar",
      "dom e",
      "ser ap",
      "cel al",
      "marli s",
      "tay fun",
      "heide marie",
      "hans georg",
      "franz josef",
      "c et",
      "g on",
      "cet in",
      "gon ul",
      "diet rich",
      "hans werner",
      "kai uwe",
      "hubert us",
      "domen ik",
      "f yn",
      "u ise",
      "el heid",
      "el uise",
      "mari eluise",
      "ad elheid",
      "fyn n",
      "i t",
      "ha jo",
      "ve it",
      "nikola us",
      "arnd t",
      "b re",
      "ch t",
      "al bre",
      "albre cht",
      "b el",
      "u ven",
      "er bel",
      "ch thil",
      "ro uven",
      "me chthil",
      "ba erbel",
      "mechthil d",
      "sus e",
      "ge sa",
      "e di",
      "ru edi",
      "ruedi ger",
      "i bert",
      "anne kathrin",
      "gun dula",
      "her ibert",
      "guen ther",
      "brun hilde",
      "e j",
      "alex ej",
      "b ab",
      "k onstanze",
      "r oni",
      "v roni",
      "bab si",
      "g es",
      "git ti",
      "ges ine"
    ]
  }
}