{
  "version": "1.0",
  "truncation": null,
  "padding": null,
  "added_tokens": [
    {
      "id": 0,
      "content": "[UNK]",
      "single_word": false,
      "lstrip": false,
      "rstrip": false,
      "normalized": false,
      "special": true
    },
    {
      "id": 1,
      "content": "[CLS]",
      "single_word": false,
      "lstrip": false,
      "rstrip": false,
      "normalized": false,
      "special": true
    },
    {
      "id": 2,
      "content": "[SEP]",
      "single_word": false,
      "lstrip": false,
      "rstrip": false,
      "normalized": false,
      "special": true
    },
    {
      "id": 3,
      "content": "[PAD]",
      "single_word": false,
      "lstrip": false,
      "rstrip": false,
      "normalized": false,
      "special": true
    },
    {
      "id": 4,
      "content": "[MASK]",
      "single_word": false,
      "lstrip": false,
      "rstrip": false,
      "normalized": false,
      "special": true
    }
  ],
  "normalizer": null,
  "pre_tokenizer": {
    "type": "Whitespace"
  },
  "post_processor": null,
  "decoder": null,
  "model": {
    "type": "BPE",
    "dropout": null,
    "unk_token": "[UNK]",
    "continuing_subword_prefix": null,
    "end_of_word_suffix": null,
    "fuse_unk": false,
    "vocab": {
      "[UNK]": 0,
      "[CLS]": 1,
      "[SEP]": 2,
      "[PAD]": 3,
      "[MASK]": 4,
      "a": 5,
      "b": 6,
      "c": 7,
      "d": 8,
      "e": 9,
      "f": 10,
      "g": 11,
      "h": 12,
      "i": 13,
      "j": 14,
      "k": 15,
      "l": 16,
      "m": 17,
      "n": 18,
      "o": 19,
      "p": 20,
      "r": 21,
      "s": 22,
      "t": 23,
      "u": 24,
      "v": 25,
      "w": 26,
      "x": 27,
      "y": 28,
      "z": 29,
      "an": 30,
      "ri": 31,
      "ma": 32,
      "na": 33,
      "li": 34,
      "er": 35,
      "el": 36,
      "jo": 37,
      "ar": 38,
      "st": 39,
      "en": 40,
      "as": 41,
      "ka": 42,
      "in": 43,
      "and": 44,
      "ni": 45,
      "han": 46,
      "mi": 47,
      "ne": 48,
      "mari": 49,
      "rik": 50,
      "le": 51,
      "tt": 52,
      "us": 53,
      "ca": 54,
      "re": 55,
      "lin": 56,
      "da": 57,
      "ch": 58,
      "to": 59,
      "la": 60,
      "mar": 61,
      "rist": 62,
      "sa": 63,
      "th": 64,
      "johan": 65,
      "anna": 66,
      "se": 67,
      "mo": 68,
      "vi": 69,
      "et": 70,
      "ro": 71,
      "ander": 72,
      "christ": 73,
      "eli": 74,
      "anne": 75,
      "am": 76,
      "lo": 77,
      "ina": 78,
      "lla": 79,
      "maria": 80,
      "ra": 81,
      "ani": 82,
      "pet": 83,
      "per": 84,
      "of": 85,
      "ia": 86,
      "ny": 87,
      "anders": 88,
      "ta": 89,
      "im": 90,
      "va": 91,
      "ara": 92,
      "gu": 93,
      "fre": 94,
      "fred": 95,
      "ing": 96,
      "rin": 97,
      "car": 98,
      "ak": 99,
      "em": 100,
      "ias": 101,
      "peter": 102,
      "si": 103,
      "dani": 104,
      "daniel": 105,
      "fredrik": 106,
      "jona": 107,
      "jen": 108,
      "andre": 109,
      "lena": 110,
      "be": 111,
      "pa": 112,
      "las": 113,
      "rina": 114,
      "mika": 115,
      "mas": 116,
      "mart": 117,
      "mag": 118,
      "eva": 119,
      "marie": 120,
      "sara": 121,
      "es": 122,
      "fan": 123,
      "mikael": 124,
      "or": 125,
      "jor": 126,
      "lia": 127,
      "hel": 128,
      "tta": 129,
      "sof": 130,
      "ian": 131,
      "tte": 132,
      "il": 133,
      "karin": 134,
      "andreas": 135,
      "nus": 136,
      "magnus": 137,
      "ale": 138,
      "ul": 139,
      "ja": 140,
      "mad": 141,
      "krist": 142,
      "lar": 143,
      "jonas": 144,
      "erik": 145,
      "ali": 146,
      "oli": 147,
      "malin": 148,
      "rob": 149,
      "ed": 150,
      "alex": 151,
      "martin": 152,
      "mat": 153,
      "ste": 154,
      "lars": 155,
      "ck": 156,
      "linda": 157,
      "ann": 158,
      "anni": 159,
      "stefan": 160,
      "hen": 161,
      "pat": 162,
      "emma": 163,
      "bri": 164,
      "andra": 165,
      "jes": 166,
      "ham": 167,
      "ir": 168,
      "bjor": 169,
      "bjorn": 170,
      "tor": 171,
      "ert": 172,
      "sus": 173,
      "johanna": 174,
      "jan": 175,
      "vid": 176,
      "henrik": 177,
      "nilla": 178,
      "ena": 179,
      "matt": 180,
      "sta": 181,
      "my": 182,
      "omas": 183,
      "thomas": 184,
      "hanna": 185,
      "ce": 186,
      "char": 187,
      "mattias": 188,
      "ine": 189,
      "on": 190,
      "jenny": 191,
      "os": 192,
      "rika": 193,
      "marc": 194,
      "david": 195,
      "sofia": 196,
      "jose": 197,
      "mats": 198,
      "gi": 199,
      "nica": 200,
      "marcus": 201,
      "klas": 202,
      "patrik": 203,
      "helena": 204,
      "ah": 205,
      "elin": 206,
      "bir": 207,
      "moham": 208,
      "asa": 209,
      "emi": 210,
      "caroli": 211,
      "annika": 212,
      "kar": 213,
      "birgi": 214,
      "mich": 215,
      "ci": 216,
      "beth": 217,
      "milla": 218,
      "camilla": 219,
      "robert": 220,
      "sandra": 221,
      "ker": 222,
      "lle": 223,
      "ie": 224,
      "susanne": 225,
      "ette": 226,
      "ene": 227,
      "josef": 228,
      "lotta": 229,
      "fer": 230,
      "ere": 231,
      "joak": 232,
      "niklas": 233,
      "joakim": 234,
      "nar": 235,
      "carina": 236,
      "elisa": 237,
      "anette": 238,
      "birgitta": 239,
      "ceci": 240,
      "cecilia": 241,
      "ph": 242,
      "gun": 243,
      "ili": 244,
      "ilip": 245,
      "lisa": 246,
      "ba": 247,
      "tom": 248,
      "ui": 249,
      "jessi": 250,
      "britt": 251,
      "isa": 252,
      "ael": 253,
      "erese": 254,
      "alexander": 255,
      "ben": 256,
      "kerst": 257,
      "hak": 258,
      "hakan": 259,
      "tob": 260,
      "tarina": 261,
      "jessica": 262,
      "michael": 263,
      "christina": 264,
      "kerstin": 265,
      "mon": 266,
      "simon": 267,
      "ger": 268,
      "len": 269,
      "uise": 270,
      "al": 271,
      "gor": 272,
      "ju": 273,
      "therese": 274,
      "ken": 275,
      "anneli": 276,
      "goran": 277,
      "caroline": 278,
      "monica": 279,
      "hans": 280,
      "tomas": 281,
      "med": 282,
      "christian": 283,
      "lina": 284,
      "elie": 285,
      "tobias": 286,
      "fri": 287,
      "frida": 288,
      "ida": 289,
      "ulrika": 290,
      "gne": 291,
      "gunilla": 292,
      "emil": 293,
      "rid": 294,
      "staf": 295,
      "kristina": 296,
      "christer": 297,
      "agne": 298,
      "ilda": 299,
      "ulf": 300,
      "elisabeth": 301,
      "ver": 302,
      "anto": 303,
      "ha": 304,
      "hn": 305,
      "john": 306,
      "ud": 307,
      "julia": 308,
      "emelie": 309,
      "vic": 310,
      "gar": 311,
      "di": 312,
      "bo": 313,
      "ulla": 314,
      "katarina": 315,
      "louise": 316,
      "offer": 317,
      "margar": 318,
      "anda": 319,
      "amanda": 320,
      "sofie": 321,
      "tommy": 322,
      "ric": 323,
      "ob": 324,
      "robin": 325,
      "vik": 326,
      "ard": 327,
      "mark": 328,
      "mu": 329,
      "ella": 330,
      "anton": 331,
      "nea": 332,
      "linnea": 333,
      "ve": 334,
      "jenni": 335,
      "ga": 336,
      "inger": 337,
      "madel": 338,
      "jim": 339,
      "lei": 340,
      "rebe": 341,
      "rebec": 342,
      "ada": 343,
      "adam": 344,
      "stian": 345,
      "seba": 346,
      "sebastian": 347,
      "ola": 348,
      "ela": 349,
      "pia": 350,
      "rick": 351,
      "elle": 352,
      "filip": 353,
      "carl": 354,
      "jesper": 355,
      "jonat": 356,
      "ingrid": 357,
      "beng": 358,
      "charlo": 359,
      "jorg": 360,
      "marianne": 361,
      "bengt": 362,
      "roger": 363,
      "math": 364,
      "nic": 365,
      "wil": 366,
      "pernilla": 367,
      "leif": 368,
      "charlotte": 369,
      "isab": 370,
      "oscar": 371,
      "nina": 372,
      "eta": 373,
      "margareta": 374,
      "nart": 375,
      "lennart": 376,
      "rol": 377,
      "za": 378,
      "jorgen": 379,
      "anita": 380,
      "agneta": 381,
      "gusta": 382,
      "gustav": 383,
      "ab": 384,
      "ell": 385,
      "sv": 386,
      "mia": 387,
      "has": 388,
      "markus": 389,
      "feli": 390,
      "lis": 391,
      "ke": 392,
      "ria": 393,
      "toria": 394,
      "linus": 395,
      "viktor": 396,
      "tha": 397,
      "asm": 398,
      "matilda": 399,
      "gabri": 400,
      "olo": 401,
      "ahmad": 402,
      "so": 403,
      "alexandra": 404,
      "je": 405,
      "jon": 406,
      "petra": 407,
      "eine": 408,
      "madeleine": 409,
      "cla": 410,
      "jimmy": 411,
      "oskar": 412,
      "tina": 413,
      "helen": 414,
      "cke": 415,
      "rickard": 416,
      "niclas": 417,
      "ad": 418,
      "ge": 419,
      "ahmed": 420,
      "liam": 421,
      "christoffer": 422,
      "jens": 423,
      "ur": 424,
      "helene": 425,
      "jonathan": 426,
      "mathias": 427,
      "den": 428,
      "elina": 429,
      "bar": 430,
      "barb": 431,
      "kj": 432,
      "pon": 433,
      "tus": 434,
      "pontus": 435,
      "nis": 436,
      "victor": 437,
      "nes": 438,
      "joel": 439,
      "stina": 440,
      "von": 441,
      "yvon": 442,
      "yvonne": 443,
      "gunnar": 444,
      "ang": 445,
      "annelie": 446,
      "ki": 447,
      "vero": 448,
      "cia": 449,
      "kenne": 450,
      "wa": 451,
      "erika": 452,
      "ingela": 453,
      "josefin": 454,
      "kjell": 455,
      "richar": 456,
      "richard": 457,
      "mir": 458,
      "olof": 459,
      "sanna": 460,
      "mohammed": 461,
      "kim": 462,
      "vin": 463,
      "rebecca": 464,
      "ig": 465,
      "no": 466,
      "josefine": 467,
      "jennie": 468,
      "olle": 469,
      "mohammad": 470,
      "mona": 471,
      "kenneth": 472,
      "ewa": 473,
      "dennis": 474,
      "tony": 475,
      "elias": 476,
      "claes": 477,
      "inge": 478,
      "kaj": 479,
      "mohamed": 480,
      "ron": 481,
      "william": 482,
      "elo": 483,
      "maja": 484,
      "sven": 485,
      "barbro": 486,
      "dan": 487,
      "lara": 488,
      "linn": 489,
      "jak": 490,
      "jakob": 491,
      "jeanette": 492,
      "philip": 493,
      "veronica": 494,
      "lie": 495,
      "rasm": 496,
      "rasmus": 497,
      "max": 498,
      "pe": 499,
      "mor": 500,
      "ax": 501,
      "axel": 502,
      "man": 503,
      "annica": 504,
      "nil": 505,
      "cob": 506,
      "jacob": 507,
      "lu": 508,
      "torbjorn": 509,
      "rica": 510,
      "at": 511,
      "sam": 512,
      "angeli": 513,
      "karl": 514,
      "ake": 515,
      "nils": 516,
      "nika": 517,
      "alb": 518,
      "yl": 519,
      "kent": 520,
      "rolf": 521,
      "go": 522,
      "par": 523,
      "via": 524,
      "victoria": 525,
      "eric": 526,
      "johannes": 527,
      "kalle": 528,
      "pau": 529,
      "ana": 530,
      "martina": 531,
      "eb": 532,
      "visa": 533,
      "lovisa": 534,
      "staffan": 535,
      "samu": 536,
      "samuel": 537,
      "rit": 538,
      "mah": 539,
      "jennifer": 540,
      "lud": 541,
      "kajsa": 542,
      "angelica": 543,
      "ebba": 544,
      "carin": 545,
      "annakarin": 546,
      "lasse": 547,
      "san": 548,
      "hassan": 549,
      "stafa": 550,
      "janne": 551,
      "felicia": 552,
      "moa": 553,
      "ib": 554,
      "kristin": 555,
      "micke": 556,
      "sarah": 557,
      "hm": 558,
      "kristoffer": 559,
      "cas": 560,
      "rah": 561,
      "ellen": 562,
      "soph": 563,
      "nick": 564,
      "nicklas": 565,
      "maj": 566,
      "carolina": 567,
      "mikaela": 568,
      "tter": 569,
      "petter": 570,
      "gabriel": 571,
      "monika": 572,
      "vig": 573,
      "van": 574,
      "trin": 575,
      "jam": 576,
      "brittmarie": 577,
      "arne": 578,
      "rebecka": 579,
      "omar": 580,
      "irene": 581,
      "albin": 582,
      "bert": 583,
      "olina": 584,
      "karolina": 585,
      "nel": 586,
      "nath": 587,
      "alie": 588,
      "nathalie": 589,
      "ll": 590,
      "pus": 591,
      "hampus": 592,
      "ylva": 593,
      "hu": 594,
      "christine": 595,
      "fanny": 596,
      "lisbeth": 597,
      "ev": 598,
      "kh": 599,
      "evelina": 600,
      "marina": 601,
      "olivia": 602,
      "pi": 603,
      "susanna": 604,
      "sami": 605,
      "gan": 606,
      "ry": 607,
      "patric": 608,
      "joa": 609,
      "kristian": 610,
      "berit": 611,
      "oliver": 612,
      "emilia": 613,
      "tharina": 614,
      "mal": 615,
      "felix": 616,
      "te": 617,
      "ban": 618,
      "marita": 619,
      "pelle": 620,
      "kevin": 621,
      "con": 622,
      "moha": 623,
      "conny": 624,
      "mohamad": 625,
      "bet": 626,
      "elisabet": 627,
      "har": 628,
      "roland": 629,
      "nad": 630,
      "rikard": 631,
      "gerd": 632,
      "alice": 633,
      "annette": 634,
      "ibrah": 635,
      "ibrahim": 636,
      "gabriella": 637,
      "nata": 638,
      "annalena": 639,
      "johnny": 640,
      "isabelle": 641,
      "andrea": 642,
      "anki": 643,
      "reza": 644,
      "dalena": 645,
      "magdalena": 646,
      "tove": 647,
      "ila": 648,
      "erre": 649,
      "pierre": 650,
      "hmd": 651,
      "kas": 652,
      "mustafa": 653,
      "geor": 654,
      "gustaf": 655,
      "tim": 656,
      "hugo": 657,
      "amir": 658,
      "calle": 659,
      "erica": 660,
      "sein": 661,
      "krister": 662,
      "klara": 663,
      "liselo": 664,
      "ru": 665,
      "bertil": 666,
      "dian": 667,
      "diana": 668,
      "sten": 669,
      "anja": 670,
      "fat": 671,
      "de": 672,
      "urban": 673,
      "bas": 674,
      "viktoria": 675,
      "mary": 676,
      "charlotta": 677,
      "catharina": 678,
      "annsofie": 679,
      "sab": 680,
      "paul": 681,
      "agnes": 682,
      "oph": 683,
      "ellin": 684,
      "christoph": 685,
      "ellinor": 686,
      "christopher": 687,
      "id": 688,
      "gunnel": 689,
      "ingemar": 690,
      "ludvig": 691,
      "patrick": 692,
      "cki": 693,
      "kicki": 694,
      "isabella": 695,
      "benny": 696,
      "ofer": 697,
      "hus": 698,
      "isak": 699,
      "ronny": 700,
      "jonatan": 701,
      "lucas": 702,
      "george": 703,
      "joseph": 704,
      "ei": 705,
      "stig": 706,
      "elsa": 707,
      "madelene": 708,
      "ya": 709,
      "jer": 710,
      "leo": 711,
      "catarina": 712,
      "the": 713,
      "lukas": 714,
      "mina": 715,
      "moud": 716,
      "mahmoud": 717,
      "ove": 718,
      "ingali": 719,
      "ingalill": 720,
      "mid": 721,
      "etha": 722,
      "margaretha": 723,
      "christin": 724,
      "jonny": 725,
      "morgan": 726,
      "marielo": 727,
      "marten": 728,
      "marielouise": 729,
      "annie": 730,
      "clara": 731,
      "hannah": 732,
      "laila": 733,
      "siv": 734,
      "benjam": 735,
      "benjamin": 736,
      "abdi": 737,
      "sophie": 738,
      "elena": 739,
      "jocke": 740,
      "urt": 741,
      "sabina": 742,
      "sol": 743,
      "carola": 744,
      "hussein": 745,
      "chim": 746,
      "joachim": 747,
      "ima": 748,
      "fatima": 749,
      "su": 750,
      "sor": 751,
      "katrin": 752,
      "soren": 753,
      "paula": 754,
      "rita": 755,
      "dulla": 756,
      "abdulla": 757,
      "abdullah": 758,
      "rian": 759,
      "mathilda": 760,
      "adrian": 761,
      "vor": 762,
      "yo": 763,
      "kari": 764,
      "bos": 765,
      "bosse": 766,
      "mhmd": 767,
      "jonna": 768,
      "rice": 769,
      "beat": 770,
      "michaela": 771,
      "beatrice": 772,
      "ast": 773,
      "marika": 774,
      "astrid": 775,
      "arvid": 776,
      "dil": 777,
      "var": 778,
      "aled": 779,
      "bodil": 780,
      "filippa": 781,
      "khaled": 782,
      "jasm": 783,
      "ulrica": 784,
      "me": 785,
      "hasse": 786,
      "patricia": 787,
      "natalie": 788,
      "maud": 789,
      "semarie": 790,
      "rosemarie": 791,
      "son": 792,
      "liselotte": 793,
      "sonja": 794,
      "mmi": 795,
      "mimmi": 796,
      "marta": 797,
      "fa": 798,
      "ped": 799,
      "peder": 800,
      "ivan": 801,
      "samir": 802,
      "ole": 803,
      "nicole": 804,
      "annmarie": 805,
      "joanna": 806,
      "ol": 807,
      "sofi": 808,
      "michelle": 809,
      "maryam": 810,
      "birgit": 811,
      "alid": 812,
      "alva": 813,
      "ingegerd": 814,
      "ala": 815,
      "alaa": 816,
      "inga": 817,
      "anncharlotte": 818,
      "sophia": 819,
      "hannes": 820,
      "bor": 821,
      "catrin": 822,
      "borje": 823,
      "nora": 824,
      "mica": 825,
      "theo": 826,
      "nadia": 827,
      "mans": 828,
      "paulina": 829,
      "crist": 830,
      "veig": 831,
      "solveig": 832,
      "gert": 833,
      "ber": 834,
      "bern": 835,
      "is": 836,
      "wilma": 837,
      "jerry": 838,
      "los": 839,
      "carlos": 840,
      "hamid": 841,
      "fab": 842,
      "sel": 843,
      "ris": 844,
      "chris": 845,
      "fabian": 846,
      "britta": 847,
      "hasan": 848,
      "lian": 849,
      "lilian": 850,
      "yous": 851,
      "josephine": 852,
      "lene": 853,
      "marlene": 854,
      "hadi": 855,
      "fadi": 856,
      "tja": 857,
      "katja": 858,
      "lille": 859,
      "ingmarie": 860,
      "lillemor": 861,
      "rine": 862,
      "mariam": 863,
      "annchristin": 864,
      "ted": 865,
      "cath": 866,
      "kristofer": 867,
      "kurt": 868,
      "dru": 869,
      "gudru": 870,
      "gudrun": 871,
      "serik": 872,
      "charlie": 873,
      "alicia": 874,
      "mie": 875,
      "nan": 876,
      "adnan": 877,
      "samira": 878,
      "said": 879,
      "zah": 880,
      "amin": 881,
      "rune": 882,
      "zahra": 883,
      "ante": 884,
      "svante": 885,
      "nour": 886,
      "orjan": 887,
      "alma": 888,
      "fr": 889,
      "ank": 890,
      "frank": 891,
      "uf": 892,
      "jack": 893,
      "annbritt": 894,
      "cor": 895,
      "nelia": 896,
      "olga": 897,
      "cornelia": 898,
      "ti": 899,
      "tu": 900,
      "nie": 901,
      "ronnie": 902,
      "amina": 903,
      "christel": 904,
      "jane": 905,
      "ingvar": 906,
      "evalena": 907,
      "maya": 908,
      "cim": 909,
      "ura": 910,
      "laura": 911,
      "joacim": 912,
      "isabel": 913,
      "saga": 914,
      "edvin": 915,
      "annemarie": 916,
      "hei": 917,
      "heidi": 918,
      "bi": 919,
      "uel": 920,
      "anuel": 921,
      "emanuel": 922,
      "udia": 923,
      "claudia": 924,
      "tanja": 925,
      "ot": 926,
      "vera": 927,
      "om": 928,
      "abo": 929,
      "phan": 930,
      "stephan": 931,
      "annlouise": 932,
      "alf": 933,
      "olov": 934,
      "angela": 935,
      "stephanie": 936,
      "sala": 937,
      "vil": 938,
      "natalia": 939,
      "tar": 940,
      "tilda": 941,
      "meli": 942,
      "olin": 943,
      "we": 944,
      "janerik": 945,
      "leila": 946,
      "noor": 947,
      "bernt": 948,
      "gre": 949,
      "glen": 950,
      "hed": 951,
      "terese": 952,
      "helm": 953,
      "samer": 954,
      "glenn": 955,
      "emmy": 956,
      "gunbritt": 957,
      "carljohan": 958,
      "amal": 959,
      "vive": 960,
      "daniela": 961,
      "rami": 962,
      "wig": 963,
      "ludwig": 964,
      "dick": 965,
      "larserik": 966,
      "zanne": 967,
      "suzanne": 968,
      "tobbe": 969,
      "hil": 970,
      "min": 971,
      "minna": 972,
      "karina": 973,
      "annacarin": 974,
      "riam": 975,
      "miriam": 976,
      "bella": 977,
      "sig": 978,
      "henric": 979,
      "nadja": 980,
      "die": 981,
      "eddie": 982,
      "mahdi": 983,
      "bw": 984,
      "elvi": 985,
      "susan": 986,
      "elvira": 987,
      "essa": 988,
      "vanessa": 989,
      "hi": 990,
      "nio": 991,
      "mike": 992,
      "sef": 993,
      "michel": 994,
      "antonio": 995,
      "christofer": 996,
      "james": 997,
      "fredric": 998,
      "sussi": 999,
      "barbara": 1000,
      "karim": 1001,
      "ttan": 1002,
      "mostafa": 1003,
      "inab": 1004,
      "jasmin": 1005,
      "osman": 1006,
      "juan": 1007,
      "abbas": 1008,
      "liselott": 1009,
      "lan": 1010,
      "eliza": 1011,
      "allan": 1012,
      "elizabeth": 1013,
      "alfred": 1014,
      "isabell": 1015,
      "micael": 1016,
      "rana": 1017,
      "anas": 1018,
      "kenth": 1019,
      "cathrine": 1020,
      "kka": 1021,
      "marko": 1022,
      "annchristine": 1023,
      "henry": 1024,
      "mario": 1025,
      "iman": 1026,
      "daniella": 1027,
      "marco": 1028,
      "ronja": 1029,
      "selma": 1030,
      "do": 1031,
      "glas": 1032,
      "hdi": 1033,
      "uglas": 1034,
      "mail": 1035,
      "ullabritt": 1036,
      "mehdi": 1037,
      "ismail": 1038,
      "douglas": 1039,
      "syl": 1040,
      "love": 1041,
      "sylvia": 1042,
      "alan": 1043,
      "az": 1044,
      "iz": 1045,
      "hani": 1046,
      "rag": 1047,
      "hamza": 1048,
      "emilie": 1049,
      "emily": 1050,
      "aziz": 1051,
      "dra": 1052,
      "hilda": 1053,
      "ase": 1054,
      "ammar": 1055,
      "ssa": 1056,
      "jamal": 1057,
      "alireza": 1058,
      "melissa": 1059,
      "cen": 1060,
      "ef": 1061,
      "toni": 1062,
      "vincen": 1063,
      "yousef": 1064,
      "vincent": 1065,
      "tord": 1066,
      "albert": 1067,
      "tore": 1068,
      "susann": 1069,
      "kenny": 1070,
      "sune": 1071,
      "ise": 1072,
      "tere": 1073,
      "mariana": 1074,
      "perolof": 1075,
      "denise": 1076,
      "teresa": 1077,
      "fia": 1078,
      "hmet": 1079,
      "mehmet": 1080,
      "amer": 1081,
      "siri": 1082,
      "jasmine": 1083,
      "fad": 1084,
      "nada": 1085,
      "annamaria": 1086,
      "isac": 1087,
      "nin": 1088,
      "liza": 1089,
      "nia": 1090,
      "sonia": 1091,
      "harry": 1092,
      "irina": 1093,
      "marit": 1094,
      "larsgoran": 1095,
      "khalid": 1096,
      "hanan": 1097,
      "fredrika": 1098,
      "torsten": 1099,
      "ze": 1100,
      "ree": 1101,
      "siree": 1102,
      "desiree": 1103,
      "jsa": 1104,
      "riet": 1105,
      "cajsa": 1106,
      "harriet": 1107,
      "leon": 1108,
      "annkristin": 1109,
      "jimmie": 1110,
      "noah": 1111,
      "jerker": 1112,
      "thor": 1113,
      "annsofi": 1114,
      "hara": 1115,
      "ld": 1116,
      "lui": 1117,
      "veronika": 1118,
      "harald": 1119,
      "luis": 1120,
      "bil": 1121,
      "pir": 1122,
      "nabil": 1123,
      "amelie": 1124,
      "abbe": 1125,
      "au": 1126,
      "ure": 1127,
      "sture": 1128,
      "dag": 1129,
      "gust": 1130,
      "nisse": 1131,
      "august": 1132,
      "jil": 1133,
      "ott": 1134,
      "jill": 1135,
      "otto": 1136,
      "jorge": 1137,
      "aida": 1138,
      "mila": 1139,
      "marielle": 1140,
      "sahar": 1141,
      "hammad": 1142,
      "muhammad": 1143,
      "vanja": 1144,
      "milad": 1145,
      "bila": 1146,
      "fara": 1147,
      "omid": 1148,
      "walid": 1149,
      "agnetha": 1150,
      "bilal": 1151,
      "farah": 1152,
      "gunvor": 1153,
      "yus": 1154,
      "cristian": 1155,
      "yusuf": 1156,
      "moll": 1157,
      "hala": 1158,
      "vilma": 1159,
      "molly": 1160,
      "til": 1161,
      "sigrid": 1162,
      "tilde": 1163,
      "hos": 1164,
      "rene": 1165,
      "liot": 1166,
      "elliot": 1167,
      "tti": 1168,
      "adel": 1169,
      "thea": 1170,
      "titti": 1171,
      "hossein": 1172,
      "renee": 1173,
      "josefina": 1174,
      "ata": 1175,
      "stell": 1176,
      "mira": 1177,
      "sake": 1178,
      "beata": 1179,
      "larsake": 1180,
      "cristina": 1181,
      "stellan": 1182,
      "ija": 1183,
      "clas": 1184,
      "line": 1185,
      "pauline": 1186,
      "eres": 1187,
      "wilhelm": 1188,
      "gosta": 1189,
      "maher": 1190,
      "casper": 1191,
      "pererik": 1192,
      "ay": 1193,
      "hs": 1194,
      "mohs": 1195,
      "ayman": 1196,
      "mohsen": 1197,
      "far": 1198,
      "siw": 1199,
      "had": 1200,
      "farhad": 1201,
      "matti": 1202,
      "elinor": 1203,
      "svenerik": 1204,
      "majid": 1205,
      "fatma": 1206,
      "bitte": 1207,
      "sela": 1208,
      "leena": 1209,
      "gisela": 1210,
      "greger": 1211,
      "carolin": 1212,
      "jari": 1213,
      "nellie": 1214,
      "alil": 1215,
      "rahman": 1216,
      "khalil": 1217,
      "eivor": 1218,
      "abdirahman": 1219,
      "nu": 1220,
      "osa": 1221,
      "umu": 1222,
      "zandra": 1223,
      "liv": 1224,
      "osama": 1225,
      "ek": 1226,
      "jessika": 1227,
      "tarek": 1228,
      "melina": 1229,
      "owe": 1230,
      "salah": 1231,
      "hedvig": 1232,
      "curt": 1233,
      "danne": 1234,
      "aras": 1235,
      "arash": 1236,
      "maha": 1237,
      "elise": 1238,
      "ulrik": 1239,
      "aya": 1240,
      "ly": 1241,
      "lott": 1242,
      "muna": 1243,
      "cassandra": 1244,
      "majbritt": 1245,
      "hr": 1246,
      "kamal": 1247,
      "hamed": 1248,
      "bashar": 1249,
      "dela": 1250,
      "ven": 1251,
      "annmari": 1252,
      "boel": 1253,
      "morte": 1254,
      "bassam": 1255,
      "vendela": 1256,
      "morteza": 1257,
      "emad": 1258,
      "tova": 1259,
      "maggan": 1260,
      "omer": 1261,
      "ksandra": 1262,
      "ser": 1263,
      "shadi": 1264,
      "naser": 1265,
      "peranders": 1266,
      "aleksandra": 1267,
      "brittinger": 1268,
      "kia": 1269,
      "rima": 1270,
      "ninni": 1271,
      "abdullahi": 1272,
      "viveka": 1273,
      "hild": 1274,
      "manal": 1275,
      "angelika": 1276,
      "huda": 1277,
      "jar": 1278,
      "marja": 1279,
      "dor": 1280,
      "ivar": 1281,
      "met": 1282,
      "rani": 1283,
      "samar": 1284,
      "ahmet": 1285,
      "kasper": 1286,
      "theodor": 1287,
      "rania": 1288,
      "mel": 1289,
      "katharina": 1290,
      "saad": 1291,
      "melker": 1292,
      "signe": 1293,
      "birger": 1294,
      "zia": 1295,
      "ville": 1296,
      "zainab": 1297,
      "ragnar": 1298,
      "ziad": 1299,
      "micaela": 1300,
      "gve": 1301,
      "ngve": 1302,
      "yngve": 1303,
      "rith": 1304,
      "carita": 1305,
      "berith": 1306,
      "malte": 1307,
      "ssi": 1308,
      "wael": 1309,
      "freja": 1310,
      "brita": 1311,
      "cissi": 1312,
      "wille": 1313,
      "pirjo": 1314,
      "eon": 1315,
      "fe": 1316,
      "eleon": 1317,
      "ttis": 1318,
      "uffe": 1319,
      "eleonor": 1320,
      "bib": 1321,
      "lana": 1322,
      "etlana": 1323,
      "svetlana": 1324,
      "youssef": 1325,
      "tiina": 1326,
      "bibbi": 1327,
      "gny": 1328,
      "ras": 1329,
      "torgny": 1330,
      "majlis": 1331,
      "sabah": 1332,
      "rasha": 1333,
      "reem": 1334,
      "madde": 1335,
      "janolof": 1336,
      "tommie": 1337,
      "salam": 1338,
      "viveca": 1339,
      "mariann": 1340,
      "hiba": 1341,
      "imad": 1342,
      "ula": 1343,
      "yas": 1344,
      "tuula": 1345,
      "yasin": 1346,
      "jelena": 1347,
      "mette": 1348,
      "maritha": 1349,
      "juha": 1350,
      "selam": 1351,
      "mala": 1352,
      "robban": 1353,
      "charlott": 1354,
      "tarja": 1355,
      "malak": 1356,
      "aza": 1357,
      "azad": 1358,
      "malena": 1359,
      "rat": 1360,
      "petri": 1361,
      "jaana": 1362,
      "murat": 1363,
      "nader": 1364,
      "hedda": 1365,
      "fir": 1366,
      "umo": 1367,
      "cilla": 1368,
      "fadumo": 1369,
      "firas": 1370,
      "ag": 1371,
      "zka": 1372,
      "nies": 1373,
      "margi": 1374,
      "vivi": 1375,
      "agnies": 1376,
      "margit": 1377,
      "vivianne": 1378,
      "agnieszka": 1379,
      "oud": 1380,
      "shi": 1381,
      "levi": 1382,
      "masoud": 1383,
      "haid": 1384,
      "georg": 1385,
      "hillevi": 1386,
      "shirin": 1387,
      "haidar": 1388,
      "bj": 1389,
      "bjarne": 1390,
      "evalotta": 1391,
      "thorbjorn": 1392,
      "ingbritt": 1393,
      "annkatrin": 1394,
      "karolin": 1395,
      "ritva": 1396,
      "yosef": 1397,
      "tuva": 1398,
      "sussie": 1399,
      "zen": 1400,
      "mazen": 1401,
      "perake": 1402,
      "perarne": 1403,
      "marwa": 1404,
      "gmor": 1405,
      "ivi": 1406,
      "rud": 1407,
      "trine": 1408,
      "wel": 1409,
      "rigmor": 1410,
      "catrine": 1411,
      "lova": 1412,
      "paivi": 1413,
      "pawel": 1414,
      "kennet": 1415,
      "gertrud": 1416,
      "sanne": 1417,
      "tin": 1418,
      "piot": 1419,
      "dragan": 1420,
      "tindra": 1421,
      "piotr": 1422,
      "mer": 1423,
      "melie": 1424,
      "emmelie": 1425,
      "mirja": 1426,
      "merja": 1427,
      "llo": 1428,
      "lollo": 1429,
      "peo": 1430,
      "pekka": 1431,
      "cathrin": 1432,
      "aram": 1433,
      "reine": 1434,
      "henke": 1435,
      "gittan": 1436,
      "majd": 1437,
      "evamarie": 1438,
      "larsolof": 1439,
      "mirjam": 1440,
      "hra": 1441,
      "rpa": 1442,
      "sahra": 1443,
      "sirpa": 1444,
      "basel": 1445,
      "gull": 1446,
      "madelen": 1447,
      "eija": 1448,
      "vilhelm": 1449,
      "rze": 1450,
      "zan": 1451,
      "andrze": 1452,
      "theres": 1453,
      "evabritt": 1454,
      "marcin": 1455,
      "majed": 1456,
      "yazan": 1457,
      "zeinab": 1458,
      "andrzej": 1459,
      "janake": 1460,
      "ning": 1461,
      "lerik": 1462,
      "henning": 1463,
      "karlerik": 1464,
      "viggo": 1465,
      "ramin": 1466,
      "matts": 1467,
      "karljohan": 1468,
      "ghassan": 1469,
      "itta": 1470,
      "riitta": 1471,
      "gha": 1472,
      "liisa": 1473,
      "raija": 1474,
      "hussam": 1475,
      "ghada": 1476,
      "kersti": 1477,
      "hanne": 1478,
      "uno": 1479,
      "petron": 1480,
      "petronella": 1481,
      "eina": 1482,
      "knu": 1483,
      "zhr": 1484,
      "einar": 1485,
      "knut": 1486,
      "fol": 1487,
      "nanna": 1488,
      "perola": 1489,
      "folke": 1490,
      "hja": 1491,
      "lmar": 1492,
      "vad": 1493,
      "javad": 1494,
      "larsgunnar": 1495,
      "enake": 1496,
      "ellake": 1497,
      "svenake": 1498,
      "kjellake": 1499,
      "hjalmar": 1500,
      "hanad": 1501,
      "mohanad": 1502,
      "fadia": 1503,
      "nhild": 1504,
      "matte": 1505,
      "nicke": 1506,
      "svenolof": 1507,
      "gote": 1508,
      "ragnhild": 1509,
      "jonte": 1510,
      "ludde": 1511,
      "bel": 1512,
      "dt": 1513,
      "sver": 1514,
      "vard": 1515,
      "kattis": 1516,
      "edvard": 1517,
      "charbel": 1518,
      "berndt": 1519,
      "thord": 1520,
      "sverker": 1521,
      "seija": 1522,
      "erlin": 1523,
      "tage": 1524,
      "lisen": 1525,
      "erling": 1526,
      "land": 1527,
      "erland": 1528,
      "perolov": 1529,
      "ingmar": 1530,
      "bbe": 1531,
      "manne": 1532,
      "kaisa": 1533,
      "sebbe": 1534,
      "jarmo": 1535,
      "ku": 1536,
      "brittmari": 1537,
      "gorel": 1538,
      "markku": 1539,
      "lotten": 1540,
      "arit": 1541,
      "ho": 1542,
      "maarit": 1543,
      "matz": 1544,
      "sigge": 1545,
      "lottie": 1546,
      "hodan": 1547,
      "carro": 1548,
      "ingabritt": 1549,
      "co": 1550,
      "ljen": 1551,
      "mco": 1552,
      "nimco": 1553,
      "miljen": 1554,
      "solwe": 1555,
      "familjen": 1556,
      "solweig": 1557,
      "cka": 1558,
      "teres": 1559,
      "annicka": 1560,
      "teresia": 1561,
      "jannica": 1562,
      "arja": 1563,
      "anncatrin": 1564,
      "vidar": 1565,
      "hannu": 1566,
      "nettan": 1567,
      "satu": 1568,
      "nilserik": 1569,
      "smarie": 1570,
      "rosmarie": 1571,
      "kimmo": 1572,
      "cina": 1573,
      "disa": 1574,
      "roine": 1575,
      "claesgoran": 1576,
      "kil": 1577,
      "kir": 1578,
      "ten": 1579,
      "xten": 1580,
      "sixten": 1581,
      "eskil": 1582,
      "kirsi": 1583,
      "ikka": 1584,
      "sin": 1585,
      "jarl": 1586,
      "sinikka": 1587,
      "bro": 1588,
      "janni": 1589,
      "po": 1590,
      "ppo": 1591,
      "seppo": 1592,
      "jorma": 1593,
      "bror": 1594,
      "jannike": 1595,
      "kk": 1596,
      "osten": 1597,
      "pas": 1598,
      "joar": 1599,
      "hannel": 1600,
      "totte": 1601,
      "modi": 1602,
      "bettan": 1603,
      "evakarin": 1604,
      "hamodi": 1605,
      "gard": 1606,
      "ingegard": 1607,
      "pirkk": 1608,
      "pasi": 1609,
      "hannele": 1610,
      "pirkko": 1611,
      "ctor": 1612,
      "ictor": 1613,
      "wictor": 1614,
      "majvor": 1615,
      "ninos": 1616,
      "emmeli": 1617,
      "brittlouise": 1618,
      "jus": 1619,
      "annagre": 1620,
      "take": 1621,
      "ingmari": 1622,
      "gunhild": 1623,
      "bengtake": 1624,
      "pehr": 1625,
      "ebbe": 1626,
      "jussi": 1627,
      "annagreta": 1628,
      "atarina": 1629,
      "chatarina": 1630,
      "jukka": 1631,
      "gunn": 1632,
      "mange": 1633,
      "cci": 1634,
      "hjor": 1635,
      "pu": 1636,
      "elen": 1637,
      "annastina": 1638,
      "ingvor": 1639,
      "anncharlott": 1640,
      "cicci": 1641,
      "dis": 1642,
      "carlfredrik": 1643,
      "gullbritt": 1644,
      "hjordis": 1645,
      "putte": 1646,
      "elenor": 1647,
      "ijo": 1648,
      "kel": 1649,
      "kki": 1650,
      "erkki": 1651,
      "reijo": 1652,
      "torkel": 1653,
      "kri": 1654,
      "caisa": 1655,
      "solbritt": 1656,
      "krille": 1657,
      "tui": 1658,
      "margre": 1659,
      "annmargre": 1660,
      "tuija": 1661,
      "annmargret": 1662,
      "drik": 1663,
      "didrik": 1664,
      "adde": 1665,
      "cattis": 1666,
      "gla": 1667,
      "engla": 1668,
      "towe": 1669,
      "janolov": 1670,
      "carlhenrik": 1671,
      "ibbe": 1672,
      "ingalena": 1673,
      "larsove": 1674,
      "gunmarie": 1675,
      "gullan": 1676,
      "esbjorn": 1677
    },
    "merges": [
      "a n",
      "r i",
      "m a",
      "n a",
      "l i",
      "e r",
      "e l",
      "j o",
      "a r",
      "s t",
      "e n",
      "a s",
      "k a",
      "i n",
      "an d",
      "n i",
      "h an",
      "m i",
      "n e",
      "ma ri",
      "ri k",
      "l e",
      "t t",
      "u s",
      "c a",
      "r e",
      "li n",
      "d a",
      "c h",
      "t o",
      "l a",
      "ma r",
      "ri st",
      "s a",
      "t h",
      "jo han",
      "an na",
      "s e",
      "m o",
      "v i",
      "e t",
      "r o",
      "and er",
      "ch rist",
      "e li",
      "an ne",
      "a m",
      "l o",
      "i na",
      "l la",
      "mari a",
      "r a",
      "an i",
      "p et",
      "p er",
      "o f",
      "i a",
      "n y",
      "ander s",
      "t a",
      "i m",
      "v a",
      "ar a",
      "g u",
      "f re",
      "fre d",
      "in g",
      "ri n",
      "c ar",
      "a k",
      "e m",
      "i as",
      "pet er",
      "s i",
      "d ani",
      "dani el",
      "fred rik",
      "jo na",
      "j en",
      "and re",
      "le na",
      "b e",
      "p a",
      "l as",
      "ri na",
      "mi ka",
      "ma s",
      "mar t",
      "ma g",
      "e va",
      "mari e",
      "s ara",
      "e s",
      "f an",
      "mika el",
      "o r",
      "jo r",
      "li a",
      "h el",
      "tt a",
      "s of",
      "i an",
      "tt e",
      "i l",
      "ka rin",
      "andre as",
      "n us",
      "mag nus",
      "a le",
      "u l",
      "j a",
      "ma d",
      "k rist",
      "l ar",
      "jona s",
      "e rik",
      "a li",
      "o li",
      "ma lin",
      "ro b",
      "e d",
      "ale x",
      "mart in",
      "ma t",
      "st e",
      "lar s",
      "c k",
      "lin da",
      "an n",
      "an ni",
      "ste fan",
      "h en",
      "pa t",
      "em ma",
      "b ri",
      "and ra",
      "j es",
      "h am",
      "i r",
      "b jor",
      "bjor n",
      "to r",
      "er t",
      "s us",
      "johan na",
      "j an",
      "vi d",
      "hen rik",
      "ni lla",
      "e na",
      "ma tt",
      "st a",
      "m y",
      "o mas",
      "th omas",
      "han na",
      "c e",
      "ch ar",
      "matt ias",
      "in e",
      "o n",
      "jen ny",
      "o s",
      "ri ka",
      "mar c",
      "da vid",
      "sof ia",
      "jo se",
      "mat s",
      "g i",
      "ni ca",
      "marc us",
      "k las",
      "pat rik",
      "hel ena",
      "a h",
      "e lin",
      "b ir",
      "mo ham",
      "as a",
      "e mi",
      "car oli",
      "anni ka",
      "k ar",
      "bir gi",
      "mi ch",
      "c i",
      "be th",
      "mi lla",
      "ca milla",
      "rob ert",
      "s andra",
      "k er",
      "l le",
      "i e",
      "sus anne",
      "e tte",
      "en e",
      "jose f",
      "lo tta",
      "f er",
      "er e",
      "jo ak",
      "ni klas",
      "joak im",
      "na r",
      "ca rina",
      "eli sa",
      "an ette",
      "birgi tta",
      "ce ci",
      "ceci lia",
      "p h",
      "gu n",
      "i li",
      "ili p",
      "li sa",
      "b a",
      "to m",
      "u i",
      "jes si",
      "bri tt",
      "i sa",
      "a el",
      "ere se",
      "alex ander",
      "b en",
      "ker st",
      "h ak",
      "hak an",
      "to b",
      "ta rina",
      "jessi ca",
      "mich ael",
      "christ ina",
      "kerst in",
      "mo n",
      "si mon",
      "g er",
      "l en",
      "ui se",
      "a l",
      "g or",
      "j u",
      "th erese",
      "k en",
      "anne li",
      "gor an",
      "caroli ne",
      "mo nica",
      "han s",
      "to mas",
      "m ed",
      "christ ian",
      "li na",
      "eli e",
      "tob ias",
      "f ri",
      "fri da",
      "i da",
      "ul rika",
      "g ne",
      "gu nilla",
      "emi l",
      "ri d",
      "sta f",
      "krist ina",
      "christ er",
      "a gne",
      "il da",
      "ul f",
      "elisa beth",
      "v er",
      "an to",
      "h a",
      "h n",
      "jo hn",
      "u d",
      "ju lia",
      "em elie",
      "vi c",
      "g ar",
      "d i",
      "b o",
      "u lla",
      "ka tarina",
      "lo uise",
      "of fer",
      "mar gar",
      "and a",
      "am anda",
      "sof ie",
      "tom my",
      "ri c",
      "o b",
      "rob in",
      "vi k",
      "ar d",
      "mar k",
      "m u",
      "el la",
      "anto n",
      "ne a",
      "lin nea",
      "v e",
      "jen ni",
      "g a",
      "ing er",
      "mad el",
      "j im",
      "le i",
      "re be",
      "rebe c",
      "a da",
      "ada m",
      "st ian",
      "se ba",
      "seba stian",
      "o la",
      "el a",
      "p ia",
      "ri ck",
      "el le",
      "f ilip",
      "car l",
      "jes per",
      "jona t",
      "ing rid",
      "ben g",
      "char lo",
      "jor g",
      "mari anne",
      "beng t",
      "ro ger",
      "ma th",
      "ni c",
      "w il",
      "per nilla",
      "lei f",
      "charlo tte",
      "isa b",
      "os car",
      "ni na",
      "et a",
      "margar eta",
      "nar t",
      "len nart",
      "ro l",
      "z a",
      "jorg en",
      "ani ta",
      "agne ta",
      "gu sta",
      "gusta v",
      "a b",
      "el l",
      "s v",
      "mi a",
      "h as",
      "mark us",
      "f eli",
      "li s",
      "k e",
      "ri a",
      "to ria",
      "lin us",
      "vik tor",
      "th a",
      "as m",
      "mat ilda",
      "ga bri",
      "o lo",
      "ah mad",
      "s o",
      "alex andra",
      "j e",
      "jo n",
      "pet ra",
      "e ine",
      "madel eine",
      "c la",
      "jim my",
      "os kar",
      "t ina",
      "hel en",
      "ck e",
      "rick ard",
      "nic las",
      "a d",
      "g e",
      "ah med",
      "li am",
      "christ offer",
      "jen s",
      "u r",
      "hel ene",
      "jonat han",
      "math ias",
      "d en",
      "eli na",
      "b ar",
      "bar b",
      "k j",
      "p on",
      "t us",
      "pon tus",
      "ni s",
      "vic tor",
      "ne s",
      "jo el",
      "st ina",
      "v on",
      "y von",
      "yvon ne",
      "gun nar",
      "an g",
      "anneli e",
      "k i",
      "ver o",
      "c ia",
      "ken ne",
      "w a",
      "e rika",
      "ing ela",
      "josef in",
      "kj ell",
      "ri char",
      "richar d",
      "mi r",
      "olo f",
      "s anna",
      "moham med",
      "k im",
      "v in",
      "rebec ca",
      "i g",
      "n o",
      "josef ine",
      "jenni e",
      "o lle",
      "moham mad",
      "mo na",
      "kenne th",
      "e wa",
      "den nis",
      "to ny",
      "eli as",
      "cla es",
      "ing e",
      "ka j",
      "moham ed",
      "ro n",
      "wil liam",
      "el o",
      "ma ja",
      "sv en",
      "barb ro",
      "d an",
      "l ara",
      "lin n",
      "j ak",
      "jak ob",
      "je anette",
      "ph ilip",
      "vero nica",
      "li e",
      "r asm",
      "rasm us",
      "ma x",
      "p e",
      "mo r",
      "a x",
      "ax el",
      "m an",
      "anni ca",
      "ni l",
      "c ob",
      "ja cob",
      "l u",
      "tor bjorn",
      "ri ca",
      "a t",
      "sa m",
      "ang eli",
      "kar l",
      "ak e",
      "nil s",
      "ni ka",
      "al b",
      "y l",
      "ken t",
      "rol f",
      "g o",
      "p ar",
      "vi a",
      "vic toria",
      "e ric",
      "johan nes",
      "ka lle",
      "pa u",
      "an a",
      "mart ina",
      "e b",
      "vi sa",
      "lo visa",
      "staf fan",
      "sa mu",
      "samu el",
      "ri t",
      "ma h",
      "jenni fer",
      "l ud",
      "kaj sa",
      "angeli ca",
      "eb ba",
      "ca rin",
      "anna karin",
      "las se",
      "s an",
      "has san",
      "staf a",
      "j anne",
      "feli cia",
      "mo a",
      "i b",
      "krist in",
      "mi cke",
      "sara h",
      "h m",
      "krist offer",
      "c as",
      "ra h",
      "el len",
      "so ph",
      "ni ck",
      "nick las",
      "ma j",
      "caroli na",
      "mikael a",
      "tt er",
      "pe tter",
      "gabri el",
      "mo nika",
      "vi g",
      "v an",
      "t rin",
      "j am",
      "britt marie",
      "ar ne",
      "rebec ka",
      "o mar",
      "ir ene",
      "alb in",
      "b ert",
      "oli na",
      "kar olina",
      "n el",
      "na th",
      "ali e",
      "nath alie",
      "l l",
      "p us",
      "ham pus",
      "yl va",
      "h u",
      "christ ine",
      "fan ny",
      "lis beth",
      "e v",
      "k h",
      "ev elina",
      "mari na",
      "oli via",
      "p i",
      "sus anna",
      "sa mi",
      "g an",
      "r y",
      "pat ric",
      "jo a",
      "krist ian",
      "be rit",
      "oli ver",
      "emi lia",
      "tha rina",
      "ma l",
      "feli x",
      "t e",
      "b an",
      "mari ta",
      "p elle",
      "ke vin",
      "c on",
      "mo ha",
      "con ny",
      "moha mad",
      "b et",
      "elisa bet",
      "h ar",
      "rol and",
      "na d",
      "rik ard",
      "ger d",
      "ali ce",
      "anne tte",
      "ib rah",
      "ibrah im",
      "gabri ella",
      "na ta",
      "anna lena",
      "john ny",
      "isab elle",
      "andre a",
      "an ki",
      "re za",
      "da lena",
      "mag dalena",
      "to ve",
      "i la",
      "er re",
      "pi erre",
      "hm d",
      "k as",
      "mu stafa",
      "ge or",
      "gu staf",
      "t im",
      "hu go",
      "a mir",
      "ca lle",
      "e rica",
      "se in",
      "krist er",
      "k lara",
      "lis elo",
      "r u",
      "bert il",
      "d ian",
      "dian a",
      "st en",
      "an ja",
      "f at",
      "d e",
      "ur ban",
      "b as",
      "vik toria",
      "mar y",
      "char lotta",
      "ca tharina",
      "ann sofie",
      "sa b",
      "pa ul",
      "agne s",
      "o ph",
      "el lin",
      "christ oph",
      "ellin or",
      "christoph er",
      "i d",
      "gun nel",
      "inge mar",
      "lud vig",
      "pat rick",
      "ck i",
      "ki cki",
      "isab ella",
      "ben ny",
      "of er",
      "h us",
      "isa k",
      "ron ny",
      "jonat an",
      "lu cas",
      "geor ge",
      "jose ph",
      "e i",
      "st ig",
      "el sa",
      "madel ene",
      "y a",
      "j er",
      "le o",
      "ca tarina",
      "th e",
      "lu kas",
      "mi na",
      "mo ud",
      "mah moud",
      "o ve",
      "ing ali",
      "ingali ll",
      "mi d",
      "e tha",
      "margar etha",
      "christ in",
      "jon ny",
      "mor gan",
      "mari elo",
      "mart en",
      "marielo uise",
      "anni e",
      "c lara",
      "hanna h",
      "la ila",
      "si v",
      "ben jam",
      "benjam in",
      "ab di",
      "soph ie",
      "el ena",
      "jo cke",
      "ur t",
      "sab ina",
      "so l",
      "car ola",
      "hus sein",
      "ch im",
      "joa chim",
      "i ma",
      "fat ima",
      "s u",
      "s or",
      "ka trin",
      "sor en",
      "pau la",
      "ri ta",
      "d ulla",
      "ab dulla",
      "abdulla h",
      "ri an",
      "math ilda",
      "ad rian",
      "v or",
      "y o",
      "ka ri",
      "b os",
      "bos se",
      "m hmd",
      "jon na",
      "ri ce",
      "be at",
      "michael a",
      "beat rice",
      "a st",
      "mari ka",
      "ast rid",
      "ar vid",
      "d il",
      "v ar",
      "ale d",
      "bo dil",
      "filip pa",
      "kh aled",
      "j asm",
      "ul rica",
      "m e",
      "has se",
      "patric ia",
      "nata lie",
      "ma ud",
      "se marie",
      "ro semarie",
      "s on",
      "liselo tte",
      "son ja",
      "m mi",
      "mi mmi",
      "mar ta",
      "f a",
      "p ed",
      "ped er",
      "i van",
      "sa mir",
      "o le",
      "nic ole",
      "ann marie",
      "jo anna",
      "o l",
      "sof i",
      "mich elle",
      "mary am",
      "birgi t",
      "ali d",
      "al va",
      "inge gerd",
      "a la",
      "ala a",
      "ing a",
      "ann charlotte",
      "soph ia",
      "han nes",
      "b or",
      "ca trin",
      "bor je",
      "no ra",
      "mi ca",
      "the o",
      "nad ia",
      "man s",
      "pau lina",
      "c rist",
      "ve ig",
      "sol veig",
      "g ert",
      "b er",
      "ber n",
      "i s",
      "wil ma",
      "jer ry",
      "lo s",
      "car los",
      "ha mid",
      "f ab",
      "s el",
      "ri s",
      "ch ris",
      "fab ian",
      "bri tta",
      "has an",
      "li an",
      "li lian",
      "yo us",
      "joseph ine",
      "l ene",
      "mar lene",
      "ha di",
      "fa di",
      "t ja",
      "ka tja",
      "li lle",
      "ing marie",
      "lille mor",
      "ri ne",
      "mari am",
      "ann christin",
      "t ed",
      "ca th",
      "krist ofer",
      "k urt",
      "d ru",
      "gu dru",
      "gudru n",
      "se rik",
      "char lie",
      "ali cia",
      "mi e",
      "n an",
      "ad nan",
      "sami ra",
      "sa id",
      "z ah",
      "am in",
      "ru ne",
      "zah ra",
      "an te",
      "sv ante",
      "no ur",
      "or jan",
      "al ma",
      "f r",
      "an k",
      "fr ank",
      "u f",
      "ja ck",
      "ann britt",
      "c or",
      "ne lia",
      "ol ga",
      "cor nelia",
      "t i",
      "t u",
      "ni e",
      "ron nie",
      "a mina",
      "christ el",
      "jan e",
      "ing var",
      "eva lena",
      "ma ya",
      "c im",
      "u ra",
      "la ura",
      "joa cim",
      "isab el",
      "sa ga",
      "ed vin",
      "anne marie",
      "h ei",
      "hei di",
      "b i",
      "u el",
      "an uel",
      "em anuel",
      "ud ia",
      "cla udia",
      "t anja",
      "o t",
      "ver a",
      "o m",
      "a bo",
      "p han",
      "ste phan",
      "ann louise",
      "al f",
      "olo v",
      "ang ela",
      "stephan ie",
      "sa la",
      "vi l",
      "nata lia",
      "t ar",
      "t ilda",
      "m eli",
      "o lin",
      "w e",
      "jan erik",
      "lei la",
      "no or",
      "bern t",
      "g re",
      "g len",
      "h ed",
      "t erese",
      "hel m",
      "sam er",
      "glen n",
      "em my",
      "gun britt",
      "carl johan",
      "a mal",
      "vi ve",
      "daniel a",
      "ra mi",
      "w ig",
      "lud wig",
      "di ck",
      "lar serik",
      "z anne",
      "su zanne",
      "tob be",
      "h il",
      "m in",
      "min na",
      "ka rina",
      "anna carin",
      "ri am",
      "mi riam",
      "b ella",
      "si g",
      "hen ric",
      "nad ja",
      "d ie",
      "ed die",
      "mah di",
      "b w",
      "el vi",
      "sus an",
      "elvi ra",
      "es sa",
      "van essa",
      "h i",
      "ni o",
      "mi ke",
      "se f",
      "mich el",
      "anto nio",
      "christ ofer",
      "jam es",
      "fred ric",
      "sus si",
      "barb ara",
      "kari m",
      "tt an",
      "mo stafa",
      "ina b",
      "jasm in",
      "os man",
      "ju an",
      "ab bas",
      "liselo tt",
      "l an",
      "eli za",
      "al lan",
      "eliza beth",
      "al fred",
      "isab ell",
      "mica el",
      "r ana",
      "an as",
      "ken th",
      "cath rine",
      "k ka",
      "mark o",
      "ann christine",
      "hen ry",
      "mari o",
      "im an",
      "daniel la",
      "marc o",
      "ron ja",
      "sel ma",
      "d o",
      "g las",
      "h di",
      "u glas",
      "ma il",
      "ulla britt",
      "me hdi",
      "is mail",
      "do uglas",
      "s yl",
      "lo ve",
      "syl via",
      "al an",
      "a z",
      "i z",
      "han i",
      "ra g",
      "ham za",
      "emi lie",
      "emil y",
      "az iz",
      "d ra",
      "h ilda",
      "as e",
      "am mar",
      "s sa",
      "ja mal",
      "ali reza",
      "meli ssa",
      "c en",
      "e f",
      "to ni",
      "vin cen",
      "yous ef",
      "vincen t",
      "tor d",
      "alb ert",
      "to re",
      "sus ann",
      "ken ny",
      "su ne",
      "i se",
      "t ere",
      "mari ana",
      "per olof",
      "den ise",
      "tere sa",
      "f ia",
      "hm et",
      "me hmet",
      "am er",
      "si ri",
      "jasm ine",
      "f ad",
      "na da",
      "anna maria",
      "isa c",
      "n in",
      "li za",
      "ni a",
      "so nia",
      "har ry",
      "i rina",
      "mari t",
      "lars goran",
      "kh alid",
      "han an",
      "fred rika",
      "tor sten",
      "z e",
      "re e",
      "si ree",
      "de siree",
      "j sa",
      "ri et",
      "ca jsa",
      "har riet",
      "le on",
      "ann kristin",
      "jim mie",
      "no ah",
      "jer ker",
      "th or",
      "ann sofi",
      "h ara",
      "l d",
      "l ui",
      "vero nika",
      "hara ld",
      "lui s",
      "b il",
      "p ir",
      "na bil",
      "am elie",
      "ab be",
      "a u",
      "u re",
      "st ure",
      "da g",
      "gu st",
      "nis se",
      "au gust",
      "j il",
      "o tt",
      "jil l",
      "ott o",
      "jorg e",
      "a ida",
      "mi la",
      "mari elle",
      "sa har",
      "ham mad",
      "mu hammad",
      "van ja",
      "mila d",
      "b ila",
      "f ara",
      "o mid",
      "w alid",
      "agne tha",
      "bila l",
      "fara h",
      "gun vor",
      "y us",
      "crist ian",
      "yus uf",
      "mo ll",
      "ha la",
      "vil ma",
      "moll y",
      "t il",
      "sig rid",
      "til de",
      "h os",
      "r ene",
      "li ot",
      "el liot",
      "tt i",
      "ad el",
      "the a",
      "ti tti",
      "hos sein",
      "rene e",
      "josef ina",
      "a ta",
      "st ell",
      "mi ra",
      "sa ke",
      "be ata",
      "lar sake",
      "crist ina",
      "stell an",
      "i ja",
      "c las",
      "li ne",
      "pau line",
      "er es",
      "wil helm",
      "go sta",
      "mah er",
      "cas per",
      "per erik",
      "a y",
      "h s",
      "mo hs",
      "ay man",
      "mohs en",
      "f ar",
      "si w",
      "ha d",
      "far had",
      "matt i",
      "elin or",
      "sven erik",
      "maj id",
      "fat ma",
      "bi tte",
      "s ela",
      "le ena",
      "gi sela",
      "gre ger",
      "car olin",
      "ja ri",
      "nel lie",
      "ali l",
      "rah man",
      "kh alil",
      "ei vor",
      "abdi rahman",
      "n u",
      "o sa",
      "u mu",
      "z andra",
      "li v",
      "osa ma",
      "e k",
      "jessi ka",
      "tar ek",
      "m elina",
      "o we",
      "sala h",
      "hed vig",
      "c urt",
      "d anne",
      "ar as",
      "aras h",
      "ma ha",
      "eli se",
      "ul rik",
      "a ya",
      "l y",
      "lo tt",
      "mu na",
      "cas sandra",
      "maj britt",
      "h r",
      "ka mal",
      "ham ed",
      "bas har",
      "d ela",
      "v en",
      "ann mari",
      "bo el",
      "mor te",
      "bas sam",
      "ven dela",
      "morte za",
      "e mad",
      "to va",
      "mag gan",
      "om er",
      "k sandra",
      "s er",
      "s hadi",
      "na ser",
      "per anders",
      "ale ksandra",
      "britt inger",
      "k ia",
      "ri ma",
      "nin ni",
      "abdullah i",
      "vive ka",
      "hil d",
      "man al",
      "angeli ka",
      "hu da",
      "j ar",
      "mar ja",
      "d or",
      "i var",
      "m et",
      "r ani",
      "sa mar",
      "ah met",
      "kas per",
      "theo dor",
      "rani a",
      "m el",
      "ka tharina",
      "sa ad",
      "mel ker",
      "si gne",
      "bir ger",
      "z ia",
      "vi lle",
      "za inab",
      "rag nar",
      "zia d",
      "mica ela",
      "g ve",
      "n gve",
      "y ngve",
      "ri th",
      "ca rita",
      "be rith",
      "mal te",
      "s si",
      "w ael",
      "fre ja",
      "bri ta",
      "ci ssi",
      "wil le",
      "pir jo",
      "e on",
      "f e",
      "el eon",
      "tt is",
      "uf fe",
      "eleon or",
      "b ib",
      "l ana",
      "et lana",
      "sv etlana",
      "yous sef",
      "ti ina",
      "bib bi",
      "g ny",
      "r as",
      "tor gny",
      "maj lis",
      "sab ah",
      "ras ha",
      "re em",
      "mad de",
      "jan olof",
      "tom mie",
      "sala m",
      "vive ca",
      "mari ann",
      "hi ba",
      "i mad",
      "u la",
      "y as",
      "tu ula",
      "yas in",
      "j elena",
      "m ette",
      "mari tha",
      "ju ha",
      "sel am",
      "ma la",
      "rob ban",
      "charlo tt",
      "tar ja",
      "mala k",
      "a za",
      "aza d",
      "ma lena",
      "ra t",
      "pet ri",
      "ja ana",
      "mu rat",
      "nad er",
      "hed da",
      "f ir",
      "u mo",
      "ci lla",
      "fad umo",
      "fir as",
      "a g",
      "z ka",
      "ni es",
      "mar gi",
      "vi vi",
      "ag nies",
      "margi t",
      "vivi anne",
      "agnies zka",
      "o ud",
      "s hi",
      "le vi",
      "mas oud",
      "ha id",
      "geor g",
      "hil levi",
      "shi rin",
      "haid ar",
      "b j",
      "bj arne",
      "eva lotta",
      "thor bjorn",
      "ing britt",
      "ann katrin",
      "kar olin",
      "rit va",
      "yo sef",
      "tu va",
      "sussi e",
      "z en",
      "ma zen",
      "per ake",
      "per arne",
      "mar wa",
      "g mor",
      "i vi",
      "r ud",
      "t rine",
      "w el",
      "ri gmor",
      "ca trine",
      "lo va",
      "pa ivi",
      "pa wel",
      "kenne t",
      "gert rud",
      "s anne",
      "t in",
      "pi ot",
      "dra gan",
      "tin dra",
      "piot r",
      "m er",
      "m elie",
      "em melie",
      "mir ja",
      "mer ja",
      "l lo",
      "lo llo",
      "pe o",
      "pe kka",
      "cath rin",
      "ar am",
      "re ine",
      "hen ke",
      "gi ttan",
      "maj d",
      "eva marie",
      "lars olof",
      "mir jam",
      "h ra",
      "r pa",
      "sa hra",
      "si rpa",
      "bas el",
      "gu ll",
      "madel en",
      "ei ja",
      "vil helm",
      "r ze",
      "z an",
      "and rze",
      "th eres",
      "eva britt",
      "marc in",
      "maj ed",
      "ya zan",
      "ze inab",
      "andrze j",
      "jan ake",
      "n ing",
      "le rik",
      "hen ning",
      "kar lerik",
      "vig go",
      "r amin",
      "matt s",
      "karl johan",
      "g hassan",
      "i tta",
      "ri itta",
      "g ha",
      "li isa",
      "ra ija",
      "hus sam",
      "gha da",
      "kerst i",
      "han ne",
      "u no",
      "pet ron",
      "petron ella",
      "e ina",
      "k nu",
      "z hr",
      "eina r",
      "knu t",
      "f ol",
      "n anna",
      "per ola",
      "fol ke",
      "h ja",
      "l mar",
      "va d",
      "ja vad",
      "lars gunnar",
      "ena ke",
      "ella ke",
      "sv enake",
      "kj ellake",
      "hja lmar",
      "han ad",
      "mo hanad",
      "fad ia",
      "n hild",
      "ma tte",
      "ni cke",
      "sven olof",
      "go te",
      "rag nhild",
      "jon te",
      "lud de",
      "b el",
      "d t",
      "s ver",
      "v ard",
      "ka ttis",
      "ed vard",
      "char bel",
      "bern dt",
      "thor d",
      "sver ker",
      "se ija",
      "er lin",
      "ta ge",
      "lis en",
      "erlin g",
      "l and",
      "er land",
      "per olov",
      "ing mar",
      "b be",
      "m anne",
      "ka isa",
      "se bbe",
      "jar mo",
      "k u",
      "britt mari",
      "gor el",
      "mark ku",
      "lott en",
      "a rit",
      "h o",
      "ma arit",
      "mat z",
      "sig ge",
      "lott ie",
      "ho dan",
      "car ro",
      "inga britt",
      "c o",
      "l jen",
      "m co",
      "ni mco",
      "mi ljen",
      "sol we",
      "fa miljen",
      "solwe ig",
      "c ka",
      "t eres",
      "anni cka",
      "teres ia",
      "j annica",
      "ar ja",
      "ann catrin",
      "vid ar",
      "han nu",
      "ne ttan",
      "sa tu",
      "nil serik",
      "s marie",
      "ro smarie",
      "kim mo",
      "c ina",
      "d isa",
      "ro ine",
      "claes goran",
      "k il",
      "k ir",
      "t en",
      "x ten",
      "si xten",
      "es kil",
      "kir si",
      "i kka",
      "s in",
      "jar l",
      "sin ikka",
      "b ro",
      "j anni",
      "p o",
      "p po",
      "se ppo",
      "jor ma",
      "bro r",
      "janni ke",
      "k k",
      "o sten",
      "p as",
      "jo ar",
      "han nel",
      "to tte",
      "mo di",
      "be ttan",
      "eva karin",
      "ha modi",
      "gar d",
      "inge gard",
      "pir kk",
      "pas i",
      "hannel e",
      "pirkk o",
      "c tor",
      "i ctor",
      "w ictor",
      "maj vor",
      "nin os",
      "em meli",
      "britt louise",
      "j us",
      "anna gre",
      "ta ke",
      "ing mari",
      "gun hild",
      "beng take",
      "pe hr",
      "eb be",
      "jus si",
      "annagre ta",
      "a tarina",
      "ch atarina",
      "ju kka",
      "gun n",
      "man ge",
      "c ci",
      "h jor",
      "p u",
      "el en",
      "anna stina",
      "ing vor",
      "ann charlott",
      "ci cci",
      "di s",
      "carl fredrik",
      "gull britt",
      "hjor dis",
      "pu tte",
      "elen or",
      "i jo",
      "k el",
      "k ki",
      "er kki",
      "re ijo",
      "tor kel",
      "k ri",
      "ca isa",
      "sol britt",
      "kri lle",
      "t ui",
      "mar gre",
      "ann margre",
      "tui ja",
      "annmargre t",
      "d rik",
      "di drik",
      "ad de",
      "ca ttis",
      "g la",
      "en gla",
      "to we",
      "jan olov",
      "carl henrik",
      "ib be",
      "inga lena",
      "lars ove",
      "gun marie",
      "gull an",
      "es bjorn"
    ]
  }
}