{
  "version": "1.0",
  "truncation": null,
  "padding": null,
  "added_tokens": [
    {
      "id": 0,
      "content": "[UNK]",
      "single_word": false,
      "lstrip": false,
      "rstrip": false,
      "normalized": false,
      "special": true
    },
    {
      "id": 1,
      "content": "[CLS]",
      "single_word": false,
      "lstrip": false,
      "rstrip": false,
      "normalized": false,
      "special": true
    },
    {
      "id": 2,
      "content": "[SEP]",
      "single_word": false,
      "lstrip": false,
      "rstrip": false,
      "normalized": false,
      "special": true
    },
    {
      "id": 3,
      "content": "[PAD]",
      "single_word": false,
      "lstrip": false,
      "rstrip": false,
      "normalized": false,
      "special": true
    },
    {
      "id": 4,
      "content": "[MASK]",
      "single_word": false,
      "lstrip": false,
      "rstrip": false,
      "normalized": false,
      "special": true
    }
  ],
  "normalizer": null,
  "pre_tokenizer": {
    "type": "Whitespace"
  },
  "post_processor": null,
  "decoder": null,
  "model": {
    "type": "BPE",
    "dropout": null,
    "unk_token": "[UNK]",
    "continuing_subword_prefix": null,
    "end_of_word_suffix": null,
    "fuse_unk": false,
    "vocab": {
      "[UNK]": 0,
      "[CLS]": 1,
      "[SEP]": 2,
      "[PAD]": 3,
      "[MASK]": 4,
      "-": 5,
      "a": 6,
      "b": 7,
      "c": 8,
      "d": 9,
      "e": 10,
      "f": 11,
      "g": 12,
      "h": 13,
      "i": 14,
      "j": 15,
      "k": 16,
      "l": 17,
      "m": 18,
      "n": 19,
      "o": 20,
      "p": 21,
      "q": 22,
      "r": 23,
      "s": 24,
      "t": 25,
      "u": 26,
      "v": 27,
      "w": 28,
      "x": 29,
      "y": 30,
      "z": 31,
      "an": 32,
      "el": 33,
      "am": 34,
      "ri": 35,
      "en": 36,
      "ar": 37,
      "er": 38,
      "in": 39,
      "ah": 40,
      "ab": 41,
      "is": 42,
      "ana": 43,
      "ce": 44,
      "st": 45,
      "ch": 46,
      "on": 47,
      "jo": 48,
      "em": 49,
      "uel": 50,
      "aa": 51,
      "th": 52,
      "nana": 53,
      "or": 54,
      "al": 55,
      "as": 56,
      "kw": 57,
      "ed": 58,
      "ph": 59,
      "ia": 60,
      "ad": 61,
      "at": 62,
      "se": 63,
      "ak": 64,
      "il": 65,
      "fr": 66,
      "es": 67,
      "man": 68,
      "ma": 69,
      "manuel": 70,
      "da": 71,
      "vi": 72,
      "om": 73,
      "ina": 74,
      "ul": 75,
      "emmanuel": 76,
      "et": 77,
      "mar": 78,
      "ra": 79,
      "ric": 80,
      "sam": 81,
      "ko": 82,
      "fran": 83,
      "ben": 84,
      "ame": 85,
      "us": 86,
      "samuel": 87,
      "est": 88,
      "char": 89,
      "ic": 90,
      "ani": 91,
      "if": 92,
      "aw": 93,
      "aac": 94,
      "os": 95,
      "isaac": 96,
      "ber": 97,
      "aku": 98,
      "ge": 99,
      "pri": 100,
      "oh": 101,
      "ori": 102,
      "fi": 103,
      "ni": 104,
      "ena": 105,
      "ta": 106,
      "eric": 107,
      "cis": 108,
      "francis": 109,
      "jose": 110,
      "joseph": 111,
      "re": 112,
      "pa": 113,
      "aniel": 114,
      "mi": 115,
      "jam": 116,
      "ty": 117,
      "pat": 118,
      "ust": 119,
      "im": 120,
      "cha": 121,
      "ag": 122,
      "daniel": 123,
      "ose": 124,
      "kofi": 125,
      "rah": 126,
      "ol": 127,
      "abena": 128,
      "cy": 129,
      "hn": 130,
      "john": 131,
      "eli": 132,
      "id": 133,
      "ye": 134,
      "med": 135,
      "fred": 136,
      "ill": 137,
      "ob": 138,
      "mary": 139,
      "nce": 140,
      "prince": 141,
      "abd": 142,
      "ev": 143,
      "richar": 144,
      "richard": 145,
      "ama": 146,
      "san": 147,
      "abdul": 148,
      "sah": 149,
      "chael": 150,
      "ua": 151,
      "kwame": 152,
      "ha": 153,
      "bo": 154,
      "ence": 155,
      "michael": 156,
      "eph": 157,
      "be": 158,
      "te": 159,
      "ammed": 160,
      "steph": 161,
      "her": 162,
      "esther": 163,
      "moh": 164,
      "mohammed": 165,
      "asi": 166,
      "for": 167,
      "stephen": 168,
      "chri": 169,
      "geor": 170,
      "ga": 171,
      "lin": 172,
      "iana": 173,
      "yaw": 174,
      "abi": 175,
      "ku": 176,
      "na": 177,
      "oria": 178,
      "vid": 179,
      "gl": 180,
      "ru": 181,
      "david": 182,
      "mon": 183,
      "les": 184,
      "od": 185,
      "bert": 186,
      "gail": 187,
      "abigail": 188,
      "ib": 189,
      "eth": 190,
      "pon": 191,
      "maame": 192,
      "gif": 193,
      "gifty": 194,
      "enn": 195,
      "wo": 196,
      "eben": 197,
      "frank": 198,
      "ow": 199,
      "patric": 200,
      "gra": 201,
      "af": 202,
      "ez": 203,
      "christ": 204,
      "grace": 205,
      "dor": 206,
      "ell": 207,
      "phil": 208,
      "ca": 209,
      "adwo": 210,
      "sar": 211,
      "ay": 212,
      "son": 213,
      "ard": 214,
      "nice": 215,
      "ing": 216,
      "james": 217,
      "owus": 218,
      "ent": 219,
      "has": 220,
      "ale": 221,
      "ebenez": 222,
      "ebenezer": 223,
      "nest": 224,
      "ernest": 225,
      "abu": 226,
      "ans": 227,
      "vic": 228,
      "hassan": 229,
      "george": 230,
      "owusu": 231,
      "rahim": 232,
      "fa": 233,
      "ustina": 234,
      "ali": 235,
      "har": 236,
      "zab": 237,
      "elizab": 238,
      "elizabeth": 239,
      "kwaku": 240,
      "ibrahim": 241,
      "ari": 242,
      "gina": 243,
      "kwasi": 244,
      "vict": 245,
      "vis": 246,
      "pong": 247,
      "joy": 248,
      "alex": 249,
      "sh": 250,
      "ine": 251,
      "adu": 252,
      "obaa": 253,
      "mond": 254,
      "and": 255,
      "ene": 256,
      "op": 257,
      "joyce": 258,
      "paul": 259,
      "charles": 260,
      "king": 261,
      "alhassan": 262,
      "god": 263,
      "jan": 264,
      "benjam": 265,
      "benjamin": 266,
      "kwabena": 267,
      "adam": 268,
      "ou": 269,
      "ug": 270,
      "aba": 271,
      "osei": 272,
      "pet": 273,
      "amo": 274,
      "linda": 275,
      "mark": 276,
      "bri": 277,
      "jul": 278,
      "iah": 279,
      "com": 280,
      "fort": 281,
      "comfort": 282,
      "yaa": 283,
      "rita": 284,
      "sarah": 285,
      "ica": 286,
      "ro": 287,
      "haj": 288,
      "akos": 289,
      "ang": 290,
      "akua": 291,
      "de": 292,
      "gh": 293,
      "ann": 294,
      "mavis": 295,
      "peter": 296,
      "icia": 297,
      "esi": 298,
      "janet": 299,
      "rich": 300,
      "ey": 301,
      "ience": 302,
      "patience": 303,
      "oph": 304,
      "ros": 305,
      "bec": 306,
      "su": 307,
      "ony": 308,
      "evans": 309,
      "mer": 310,
      "mercy": 311,
      "pris": 312,
      "yn": 313,
      "elyn": 314,
      "victoria": 315,
      "sol": 316,
      "omon": 317,
      "solomon": 318,
      "qu": 319,
      "akosua": 320,
      "dia": 321,
      "ly": 322,
      "lydia": 323,
      "brigh": 324,
      "bright": 325,
      "patrick": 326,
      "kojo": 327,
      "cill": 328,
      "priscill": 329,
      "priscilla": 330,
      "vida": 331,
      "edw": 332,
      "lor": 333,
      "idu": 334,
      "iam": 335,
      "will": 336,
      "william": 337,
      "pp": 338,
      "agye": 339,
      "feli": 340,
      "felix": 341,
      "the": 342,
      "rebec": 343,
      "evelyn": 344,
      "rebecca": 345,
      "adwoa": 346,
      "sal": 347,
      "of": 348,
      "aug": 349,
      "faustina": 350,
      "dra": 351,
      "sandra": 352,
      "thom": 353,
      "fel": 354,
      "angel": 355,
      "obaapa": 356,
      "rice": 357,
      "atrice": 358,
      "beatrice": 359,
      "ip": 360,
      "philip": 361,
      "eno": 362,
      "dori": 363,
      "doris": 364,
      "mat": 365,
      "waa": 366,
      "dom": 367,
      "gloria": 368,
      "mu": 369,
      "eu": 370,
      "eunice": 371,
      "robert": 372,
      "nes": 373,
      "agnes": 374,
      "rose": 375,
      "jon": 376,
      "thomas": 377,
      "ice": 378,
      "amoah": 379,
      "diana": 380,
      "boah": 381,
      "are": 382,
      "vin": 383,
      "ry": 384,
      "anth": 385,
      "anthony": 386,
      "seth": 387,
      "ai": 388,
      "bis": 389,
      "issah": 390,
      "men": 391,
      "mensah": 392,
      "ba": 393,
      "flor": 394,
      "florence": 395,
      "hann": 396,
      "hannah": 397,
      "app": 398,
      "appiah": 399,
      "ac": 400,
      "ys": 401,
      "adys": 402,
      "gladys": 403,
      "oku": 404,
      "ide": 405,
      "iv": 406,
      "ef": 407,
      "edward": 408,
      "ver": 409,
      "ruth": 410,
      "elia": 411,
      "emaa": 412,
      "bu": 413,
      "regina": 414,
      "vian": 415,
      "vivian": 416,
      "bismark": 417,
      "felicia": 418,
      "eng": 419,
      "lo": 420,
      "bra": 421,
      "afia": 422,
      "zak": 423,
      "raham": 424,
      "che": 425,
      "win": 426,
      "usah": 427,
      "opoku": 428,
      "tha": 429,
      "albert": 430,
      "akwasi": 431,
      "nth": 432,
      "cynth": 433,
      "cynthia": 434,
      "yi": 435,
      "ya": 436,
      "ley": 437,
      "tw": 438,
      "bak": 439,
      "abubak": 440,
      "bernice": 441,
      "jenn": 442,
      "ifer": 443,
      "jennifer": 444,
      "een": 445,
      "patricia": 446,
      "asare": 447,
      "fat": 448,
      "nhar": 449,
      "yeboah": 450,
      "josh": 451,
      "joshua": 452,
      "kwadwo": 453,
      "nard": 454,
      "bernard": 455,
      "kwesi": 456,
      "well": 457,
      "xwell": 458,
      "maxwell": 459,
      "ford": 460,
      "abraham": 461,
      "juli": 462,
      "mose": 463,
      "moses": 464,
      "abel": 465,
      "don": 466,
      "ud": 467,
      "hen": 468,
      "cas": 469,
      "ante": 470,
      "asante": 471,
      "dorcas": 472,
      "gide": 473,
      "gideon": 474,
      "iz": 475,
      "just": 476,
      "justice": 477,
      "ky": 478,
      "sim": 479,
      "yaku": 480,
      "yakubu": 481,
      "abdulai": 482,
      "sul": 483,
      "all": 484,
      "eres": 485,
      "theres": 486,
      "hajia": 487,
      "tet": 488,
      "tette": 489,
      "mah": 490,
      "agyei": 491,
      "anita": 492,
      "ella": 493,
      "kings": 494,
      "omi": 495,
      "naomi": 496,
      "ck": 497,
      "naa": 498,
      "atu": 499,
      "ei": 500,
      "fo": 501,
      "by": 502,
      "joe": 503,
      "erick": 504,
      "ifu": 505,
      "idd": 506,
      "josephine": 507,
      "gar": 508,
      "margar": 509,
      "margaret": 510,
      "ohemaa": 511,
      "mari": 512,
      "col": 513,
      "musah": 514,
      "lins": 515,
      "collins": 516,
      "boat": 517,
      "godwin": 518,
      "christiana": 519,
      "kari": 520,
      "juliana": 521,
      "mill": 522,
      "icent": 523,
      "millicent": 524,
      "ofori": 525,
      "chol": 526,
      "ilda": 527,
      "nichol": 528,
      "matilda": 529,
      "nicholas": 530,
      "rity": 531,
      "charity": 532,
      "baba": 533,
      "cl": 534,
      "simon": 535,
      "deb": 536,
      "alfred": 537,
      "wis": 538,
      "rew": 539,
      "andrew": 540,
      "enoch": 541,
      "cil": 542,
      "cecil": 543,
      "cecilia": 544,
      "yus": 545,
      "iddri": 546,
      "rosem": 547,
      "kenn": 548,
      "richmond": 549,
      "oth": 550,
      "othy": 551,
      "godfred": 552,
      "kob": 553,
      "sel": 554,
      "emelia": 555,
      "yl": 556,
      "henry": 557,
      "tetteh": 558,
      "fati": 559,
      "pha": 560,
      "ng": 561,
      "seidu": 562,
      "edic": 563,
      "benedic": 564,
      "per": 565,
      "gab": 566,
      "riel": 567,
      "gabriel": 568,
      "ash": 569,
      "nii": 570,
      "rick": 571,
      "cheal": 572,
      "mabel": 573,
      "queen": 574,
      "kyer": 575,
      "alice": 576,
      "georgina": 577,
      "orah": 578,
      "deborah": 579,
      "ian": 580,
      "christian": 581,
      "antw": 582,
      "frederick": 583,
      "antwi": 584,
      "onica": 585,
      "veronica": 586,
      "boateng": 587,
      "ustine": 588,
      "augustine": 589,
      "cent": 590,
      "osman": 591,
      "gy": 592,
      "francisca": 593,
      "eku": 594,
      "adj": 595,
      "iddrisu": 596,
      "ath": 597,
      "jonath": 598,
      "jonathan": 599,
      "ini": 600,
      "pe": 601,
      "der": 602,
      "ith": 603,
      "law": 604,
      "lawr": 605,
      "wisdom": 606,
      "bar": 607,
      "stella": 608,
      "mall": 609,
      "nan": 610,
      "mallam": 611,
      "atta": 612,
      "kingsley": 613,
      "martha": 614,
      "salifu": 615,
      "bles": 616,
      "bless": 617,
      "juliet": 618,
      "pson": 619,
      "ohene": 620,
      "jac": 621,
      "jacob": 622,
      "denn": 623,
      "dennis": 624,
      "do": 625,
      "iss": 626,
      "emma": 627,
      "una": 628,
      "awa": 629,
      "ako": 630,
      "adjei": 631,
      "ila": 632,
      "lu": 633,
      "oppong": 634,
      "por": 635,
      "tia": 636,
      "portia": 637,
      "ss": 638,
      "isha": 639,
      "adams": 640,
      "ny": 641,
      "agy": 642,
      "monica": 643,
      "kel": 644,
      "syl": 645,
      "kelvin": 646,
      "sylv": 647,
      "nh": 648,
      "hel": 649,
      "oben": 650,
      "obeng": 651,
      "fu": 652,
      "theresa": 653,
      "fuse": 654,
      "ish": 655,
      "akye": 656,
      "benedicta": 657,
      "fri": 658,
      "ne": 659,
      "frim": 660,
      "mariam": 661,
      "ernestina": 662,
      "awu": 663,
      "victor": 664,
      "angela": 665,
      "kweku": 666,
      "tin": 667,
      "martin": 668,
      "sampson": 669,
      "paa": 670,
      "kobby": 671,
      "ir": 672,
      "irene": 673,
      "christoph": 674,
      "christopher": 675,
      "sif": 676,
      "yussif": 677,
      "riet": 678,
      "ahmed": 679,
      "princess": 680,
      "bel": 681,
      "inda": 682,
      "ement": 683,
      "clement": 684,
      "belinda": 685,
      "augustina": 686,
      "arko": 687,
      "dora": 688,
      "asamoah": 689,
      "az": 690,
      "micheal": 691,
      "haruna": 692,
      "sulem": 693,
      "lucy": 694,
      "frimpong": 695,
      "razak": 696,
      "andrews": 697,
      "nancy": 698,
      "pros": 699,
      "prosper": 700,
      "vincent": 701,
      "eug": 702,
      "dorothy": 703,
      "let": 704,
      "leticia": 705,
      "you": 706,
      "young": 707,
      "alhaj": 708,
      "alhaji": 709,
      "des": 710,
      "inic": 711,
      "dominic": 712,
      "desmond": 713,
      "my": 714,
      "kor": 715,
      "abubakar": 716,
      "alexand": 717,
      "alexander": 718,
      "jer": 719,
      "fuseini": 720,
      "ur": 721,
      "chris": 722,
      "etty": 723,
      "agyem": 724,
      "zakari": 725,
      "ophil": 726,
      "theophil": 727,
      "theophilus": 728,
      "zy": 729,
      "udu": 730,
      "our": 731,
      "hu": 732,
      "kat": 733,
      "kate": 734,
      "ke": 735,
      "tte": 736,
      "charlo": 737,
      "charlotte": 738,
      "amos": 739,
      "lov": 740,
      "qw": 741,
      "stan": 742,
      "rash": 743,
      "abubakari": 744,
      "soph": 745,
      "sophia": 746,
      "ju": 747,
      "maw": 748,
      "pr": 749,
      "boakye": 750,
      "ymond": 751,
      "raymond": 752,
      "obed": 753,
      "addo": 754,
      "alber": 755,
      "alberta": 756,
      "tey": 757,
      "oliv": 758,
      "olivia": 759,
      "ci": 760,
      "ram": 761,
      "ie": 762,
      "aya": 763,
      "ansah": 764,
      "ham": 765,
      "ous": 766,
      "enock": 767,
      "tina": 768,
      "philom": 769,
      "ess": 770,
      "lawrence": 771,
      "ellen": 772,
      "osu": 773,
      "kye": 774,
      "ampon": 775,
      "amponsah": 776,
      "ary": 777,
      "rosemary": 778,
      "hawa": 779,
      "get": 780,
      "ser": 781,
      "serwaa": 782,
      "rude": 783,
      "derrick": 784,
      "amina": 785,
      "selina": 786,
      "sammy": 787,
      "sa": 788,
      "kyere": 789,
      "helena": 790,
      "kenneth": 791,
      "nk": 792,
      "adda": 793,
      "love": 794,
      "dy": 795,
      "elvis": 796,
      "efya": 797,
      "jerry": 798,
      "adjo": 799,
      "oro": 800,
      "sulemana": 801,
      "nar": 802,
      "joana": 803,
      "papa": 804,
      "pre": 805,
      "cious": 806,
      "precious": 807,
      "mael": 808,
      "ishmael": 809,
      "johnson": 810,
      "la": 811,
      "apha": 812,
      "must": 813,
      "mustapha": 814,
      "lou": 815,
      "louis": 816,
      "vera": 817,
      "agyemang": 818,
      "muni": 819,
      "karim": 820,
      "harriet": 821,
      "ampong": 822,
      "amoako": 823,
      "paulina": 824,
      "no": 825,
      "adom": 826,
      "amadu": 827,
      "ster": 828,
      "foster": 829,
      "thew": 830,
      "matthew": 831,
      "iru": 832,
      "za": 833,
      "dget": 834,
      "bridget": 835,
      "eugene": 836,
      "con": 837,
      "jud": 838,
      "judith": 839,
      "nhyi": 840,
      "jah": 841,
      "akyi": 842,
      "aziz": 843,
      "teng": 844,
      "she": 845,
      "andy": 846,
      "pi": 847,
      "agar": 848,
      "arth": 849,
      "nyarko": 850,
      "arthur": 851,
      "edem": 852,
      "nu": 853,
      "williams": 854,
      "adjoa": 855,
      "eva": 856,
      "orm": 857,
      "abo": 858,
      "nr": 859,
      "ophelia": 860,
      "blessing": 861,
      "ger": 862,
      "tah": 863,
      "aman": 864,
      "nior": 865,
      "junior": 866,
      "rapha": 867,
      "raphael": 868,
      "ek": 869,
      "bara": 870,
      "barbara": 871,
      "agya": 872,
      "adra": 873,
      "shadra": 874,
      "edy": 875,
      "kennedy": 876,
      "edu": 877,
      "asiedu": 878,
      "jess": 879,
      "jessica": 880,
      "ibu": 881,
      "awudu": 882,
      "mahama": 883,
      "aisha": 884,
      "ho": 885,
      "ace": 886,
      "ela": 887,
      "peace": 888,
      "oheneba": 889,
      "edith": 890,
      "ivy": 891,
      "ache": 892,
      "abas": 893,
      "mun": 894,
      "acheampong": 895,
      "abass": 896,
      "jem": 897,
      "thaniel": 898,
      "nathaniel": 899,
      "du": 900,
      "von": 901,
      "yvon": 902,
      "yvonne": 903,
      "betty": 904,
      "yah": 905,
      "ond": 906,
      "rosemond": 907,
      "zakaria": 908,
      "yahaya": 909,
      "dan": 910,
      "tony": 911,
      "nharnhar": 912,
      "sylvia": 913,
      "okyere": 914,
      "ester": 915,
      "sylvester": 916,
      "ick": 917,
      "aka": 918,
      "issaka": 919,
      "angelina": 920,
      "sad": 921,
      "freda": 922,
      "omey": 923,
      "salomey": 924,
      "ade": 925,
      "ayisha": 926,
      "aboagye": 927,
      "amah": 928,
      "abdull": 929,
      "maa": 930,
      "umar": 931,
      "amfi": 932,
      "gyamfi": 933,
      "usi": 934,
      "donkor": 935,
      "stance": 936,
      "constance": 937,
      "rashid": 938,
      "eny": 939,
      "fredrick": 940,
      "mumuni": 941,
      "joel": 942,
      "erica": 943,
      "jonas": 944,
      "rine": 945,
      "cathe": 946,
      "catherine": 947,
      "gil": 948,
      "gilbert": 949,
      "julius": 950,
      "nel": 951,
      "nelson": 952,
      "amankw": 953,
      "dou": 954,
      "glas": 955,
      "douglas": 956,
      "takyi": 957,
      "eme": 958,
      "theresah": 959,
      "dans": 960,
      "danso": 961,
      "rans": 962,
      "ransford": 963,
      "doreen": 964,
      "edmun": 965,
      "edmund": 966,
      "eed": 967,
      "eko": 968,
      "tim": 969,
      "ekow": 970,
      "uda": 971,
      "afri": 972,
      "liz": 973,
      "lizzy": 974,
      "lat": 975,
      "maila": 976,
      "sumaila": 977,
      "latif": 978,
      "emmanuella": 979,
      "jane": 980,
      "ank": 981,
      "nah": 982,
      "uro": 983,
      "stev": 984,
      "oduro": 985,
      "steven": 986,
      "addai": 987,
      "oo": 988,
      "mike": 989,
      "adamu": 990,
      "abukari": 991,
      "kon": 992,
      "bea": 993,
      "ima": 994,
      "elijah": 995,
      "jemima": 996,
      "imah": 997,
      "shadrack": 998,
      "arl": 999,
      "uli": 1000,
      "pearl": 1001,
      "mawuli": 1002,
      "ew": 1003,
      "jay": 1004,
      "cel": 1005,
      "celest": 1006,
      "eff": 1007,
      "moro": 1008,
      "joice": 1009,
      "rejoice": 1010,
      "issahaku": 1011,
      "sab": 1012,
      "sabina": 1013,
      "aar": 1014,
      "raba": 1015,
      "nhyiraba": 1016,
      "aaron": 1017,
      "amatu": 1018,
      "salamatu": 1019,
      "adepa": 1020,
      "aff": 1021,
      "efua": 1022,
      "trude": 1023,
      "gertrude": 1024,
      "sha": 1025,
      "shaibu": 1026,
      "quah": 1027,
      "philomina": 1028,
      "dick": 1029,
      "teye": 1030,
      "dickson": 1031,
      "um": 1032,
      "twum": 1033,
      "sarpong": 1034,
      "cia": 1035,
      "ike": 1036,
      "encia": 1037,
      "lawrencia": 1038,
      "alidu": 1039,
      "afua": 1040,
      "fosu": 1041,
      "justina": 1042,
      "adiz": 1043,
      "adiza": 1044,
      "sarfo": 1045,
      "agyeiwaa": 1046,
      "yford": 1047,
      "hayford": 1048,
      "nuhu": 1049,
      "kumi": 1050,
      "nyame": 1051,
      "le": 1052,
      "amp": 1053,
      "edwin": 1054,
      "rho": 1055,
      "awal": 1056,
      "rhoda": 1057,
      "isa": 1058,
      "fatima": 1059,
      "div": 1060,
      "divine": 1061,
      "kusi": 1062,
      "dann": 1063,
      "danny": 1064,
      "ara": 1065,
      "ayam": 1066,
      "kyei": 1067,
      "ato": 1068,
      "baah": 1069,
      "timothy": 1070,
      "car": 1071,
      "lar": 1072,
      "oscar": 1073,
      "hamza": 1074,
      "darko": 1075,
      "sus": 1076,
      "susana": 1077,
      "inusah": 1078,
      "christabel": 1079,
      "mariama": 1080,
      "ofosu": 1081,
      "ane": 1082,
      "anane": 1083,
      "cin": 1084,
      "philomena": 1085,
      "cindy": 1086,
      "noah": 1087,
      "abdall": 1088,
      "abdallah": 1089,
      "isu": 1090,
      "sheila": 1091,
      "ti": 1092,
      "bawa": 1093,
      "narh": 1094,
      "edna": 1095,
      "yie": 1096,
      "sule": 1097,
      "agyapong": 1098,
      "afriyie": 1099,
      "bertha": 1100,
      "ui": 1101,
      "afui": 1102,
      "rol": 1103,
      "roland": 1104,
      "uty": 1105,
      "anna": 1106,
      "azu": 1107,
      "beauty": 1108,
      "wen": 1109,
      "omar": 1110,
      "wendy": 1111,
      "manu": 1112,
      "richie": 1113,
      "ede": 1114,
      "ida": 1115,
      "becky": 1116,
      "rashida": 1117,
      "nartey": 1118,
      "abdullah": 1119,
      "hagar": 1120,
      "jones": 1121,
      "stanley": 1122,
      "konadu": 1123,
      "rosina": 1124,
      "asantewaa": 1125,
      "kay": 1126,
      "ual": 1127,
      "petual": 1128,
      "perpetual": 1129,
      "uz": 1130,
      "franklin": 1131,
      "lord": 1132,
      "kingsford": 1133,
      "mali": 1134,
      "anie": 1135,
      "stephanie": 1136,
      "helina": 1137,
      "ramatu": 1138,
      "malik": 1139,
      "pretty": 1140,
      "hamidu": 1141,
      "kwa": 1142,
      "ity": 1143,
      "icity": 1144,
      "felicity": 1145,
      "ras": 1146,
      "ura": 1147,
      "idoo": 1148,
      "atsu": 1149,
      "yusif": 1150,
      "amin": 1151,
      "aminu": 1152,
      "bash": 1153,
      "ira": 1154,
      "dauda": 1155,
      "samira": 1156,
      "bashiru": 1157,
      "adela": 1158,
      "henriet": 1159,
      "adelaide": 1160,
      "henrietta": 1161,
      "ifi": 1162,
      "fiifi": 1163,
      "ruby": 1164,
      "naana": 1165,
      "acquah": 1166,
      "tahiru": 1167,
      "brah": 1168,
      "zzy": 1169,
      "suzzy": 1170,
      "asana": 1171,
      "viour": 1172,
      "saviour": 1173,
      "wil": 1174,
      "elorm": 1175,
      "imatu": 1176,
      "wilson": 1177,
      "isra": 1178,
      "israel": 1179,
      "go": 1180,
      "iel": 1181,
      "ezek": 1182,
      "ezekiel": 1183,
      "star": 1184,
      "taw": 1185,
      "happ": 1186,
      "tawiah": 1187,
      "happy": 1188,
      "saeed": 1189,
      "aak": 1190,
      "ns": 1191,
      "kod": 1192,
      "amankwah": 1193,
      "nharnah": 1194,
      "gyan": 1195,
      "rumah": 1196,
      "nkrumah": 1197,
      "it": 1198,
      "enia": 1199,
      "racheal": 1200,
      "kobina": 1201,
      "eugenia": 1202,
      "itz": 1203,
      "selorm": 1204,
      "inno": 1205,
      "jamila": 1206,
      "issifu": 1207,
      "innocent": 1208,
      "ceph": 1209,
      "cephas": 1210,
      "cale": 1211,
      "annor": 1212,
      "caleb": 1213,
      "eni": 1214,
      "fest": 1215,
      "festus": 1216,
      "ami": 1217,
      "ekua": 1218,
      "ewur": 1219,
      "jnr": 1220,
      "bukari": 1221,
      "sw": 1222,
      "godsw": 1223,
      "godsway": 1224,
      "abiba": 1225,
      "effah": 1226,
      "kumah": 1227,
      "amidu": 1228,
      "tra": 1229,
      "edmond": 1230,
      "omah": 1231,
      "tracy": 1232,
      "bari": 1233,
      "kisu": 1234,
      "imoro": 1235,
      "mawu": 1236,
      "barikisu": 1237,
      "uben": 1238,
      "reuben": 1239,
      "addae": 1240,
      "agartha": 1241,
      "badu": 1242,
      "adi": 1243,
      "boadi": 1244,
      "dede": 1245,
      "ls": 1246,
      "lsaac": 1247,
      "tu": 1248,
      "inab": 1249,
      "zainab": 1250,
      "ifred": 1251,
      "anga": 1252,
      "winifred": 1253,
      "kaya": 1254,
      "arteng": 1255,
      "isal": 1256,
      "onam": 1257,
      "kwarteng": 1258,
      "rukaya": 1259,
      "faisal": 1260,
      "enyonam": 1261,
      "awuah": 1262,
      "anim": 1263,
      "shatta": 1264,
      "emefa": 1265,
      "sadia": 1266,
      "jude": 1267,
      "ack": 1268,
      "suleman": 1269,
      "zz": 1270,
      "ifford": 1271,
      "clifford": 1272,
      "cos": 1273,
      "mos": 1274,
      "cosmos": 1275,
      "dela": 1276,
      "enyo": 1277,
      "pom": 1278,
      "pomaa": 1279,
      "celyn": 1280,
      "kafui": 1281,
      "joycelyn": 1282,
      "sulley": 1283,
      "tettey": 1284,
      "baff": 1285,
      "rison": 1286,
      "harrison": 1287,
      "baffour": 1288,
      "benard": 1289,
      "nket": 1290,
      "latifa": 1291,
      "del": 1292,
      "ayish": 1293,
      "delali": 1294,
      "si": 1295,
      "to": 1296,
      "akoto": 1297,
      "inam": 1298,
      "gyasi": 1299,
      "nanaba": 1300,
      "rahman": 1301,
      "hin": 1302,
      "araba": 1303,
      "arhin": 1304,
      "quame": 1305,
      "bi": 1306,
      "adama": 1307,
      "benedict": 1308,
      "kyereme": 1309,
      "issac": 1310,
      "nhana": 1311,
      "louisa": 1312,
      "larbi": 1313,
      "kyeremeh": 1314,
      "hammed": 1315,
      "ora": 1316,
      "boadu": 1317,
      "odora": 1318,
      "theodora": 1319,
      "muhammed": 1320,
      "anha": 1321,
      "fatawu": 1322,
      "nhanha": 1323,
      "adomako": 1324,
      "kas": 1325,
      "won": 1326,
      "kassim": 1327,
      "wonder": 1328,
      "ist": 1329,
      "ameyaw": 1330,
      "evangel": 1331,
      "qwame": 1332,
      "celestina": 1333,
      "evangelist": 1334,
      "celestine": 1335,
      "dal": 1336,
      "derick": 1337,
      "gdal": 1338,
      "magdal": 1339,
      "afo": 1340,
      "magdalene": 1341,
      "nti": 1342,
      "kum": 1343,
      "agyekum": 1344,
      "sei": 1345,
      "adusei": 1346,
      "azumah": 1347,
      "ok": 1348,
      "oteng": 1349,
      "yh": 1350,
      "isaiah": 1351,
      "mame": 1352,
      "awini": 1353,
      "kwakye": 1354,
      "lis": 1355,
      "tan": 1356,
      "phyl": 1357,
      "godson": 1358,
      "tanko": 1359,
      "phyllis": 1360,
      "boamah": 1361,
      "ofo": 1362,
      "ampofo": 1363,
      "ampi": 1364,
      "ise": 1365,
      "champi": 1366,
      "omise": 1367,
      "agyeman": 1368,
      "promise": 1369,
      "champion": 1370,
      "wofa": 1371,
      "hajj": 1372,
      "ble": 1373,
      "kom": 1374,
      "mble": 1375,
      "sak": 1376,
      "empr": 1377,
      "humble": 1378,
      "pius": 1379,
      "sakina": 1380,
      "empress": 1381,
      "rudeen": 1382,
      "nurudeen": 1383,
      "inatu": 1384,
      "rahinatu": 1385,
      "fus": 1386,
      "abudu": 1387,
      "ach": 1388,
      "iaa": 1389,
      "marfo": 1390,
      "alima": 1391,
      "dery": 1392,
      "twumasi": 1393,
      "achiaa": 1394,
      "opare": 1395,
      "aidoo": 1396,
      "dz": 1397,
      "ebo": 1398,
      "xford": 1399,
      "enaa": 1400,
      "abenaa": 1401,
      "ifa": 1402,
      "rexford": 1403,
      "dzifa": 1404,
      "okye": 1405,
      "anokye": 1406,
      "vour": 1407,
      "favour": 1408,
      "oy": 1409,
      "alimatu": 1410,
      "oboy": 1411,
      "hajara": 1412,
      "nkansah": 1413,
      "bro": 1414,
      "nyamekye": 1415,
      "cou": 1416,
      "uba": 1417,
      "rage": 1418,
      "ayuba": 1419,
      "courage": 1420,
      "qweku": 1421,
      "afful": 1422,
      "amuz": 1423,
      "ataa": 1424,
      "asiamah": 1425,
      "qwesi": 1426,
      "amuzu": 1427,
      "ongo": 1428,
      "adongo": 1429,
      "nob": 1430,
      "baaba": 1431,
      "nhyira": 1432,
      "noble": 1433,
      "amankwaa": 1434,
      "akwesi": 1435,
      "eem": 1436,
      "freem": 1437,
      "owusuaa": 1438,
      "freeman": 1439,
      "kv": 1440,
      "nanayaa": 1441,
      "kvng": 1442,
      "aj": 1443,
      "boatemaa": 1444,
      "awuni": 1445,
      "ajara": 1446,
      "wah": 1447,
      "wahab": 1448,
      "gri": 1449,
      "unr": 1450,
      "uly": 1451,
      "fie": 1452,
      "abugri": 1453,
      "unruly": 1454,
      "mal": 1455,
      "rachael": 1456,
      "gyimah": 1457,
      "malam": 1458,
      "prah": 1459,
      "peprah": 1460,
      "fisa": 1461,
      "nafisa": 1462,
      "seni": 1463,
      "emiah": 1464,
      "rahaman": 1465,
      "wise": 1466,
      "jeremiah": 1467,
      "senior": 1468,
      "sis": 1469,
      "ung": 1470,
      "yung": 1471,
      "odene": 1472,
      "muniru": 1473,
      "nsiah": 1474,
      "odeneho": 1475,
      "attah": 1476,
      "abdullai": 1477,
      "till": 1478,
      "kyeremaa": 1479,
      "ankomah": 1480,
      "tilly": 1481,
      "jeed": 1482,
      "armah": 1483,
      "majeed": 1484,
      "mem": 1485,
      "shon": 1486,
      "fuseina": 1487,
      "gershon": 1488,
      "memuna": 1489,
      "bh": 1490,
      "dram": 1491,
      "hudu": 1492,
      "jeff": 1493,
      "yram": 1494,
      "ery": 1495,
      "seyram": 1496,
      "efo": 1497,
      "bhra": 1498,
      "dramani": 1499,
      "jeffery": 1500,
      "richlove": 1501,
      "myzz": 1502,
      "kaak": 1503,
      "nanayaw": 1504,
      "owura": 1505,
      "sarkod": 1506,
      "yire": 1507,
      "ewura": 1508,
      "kaakyire": 1509,
      "sarkodie": 1510,
      "senyo": 1511,
      "immanuel": 1512,
      "ophi": 1513,
      "quophi": 1514,
      "braimah": 1515,
      "sadat": 1516,
      "sahad": 1517,
      "hol": 1518,
      "kman": 1519,
      "efia": 1520,
      "lukman": 1521,
      "holy": 1522,
      "awuku": 1523,
      "nya": 1524,
      "oforiwaa": 1525,
      "nyaaba": 1526,
      "fei": 1527,
      "esinam": 1528,
      "offei": 1529,
      "ewurama": 1530,
      "oma": 1531,
      "adoma": 1532,
      "giv": 1533,
      "ka": 1534,
      "say": 1535,
      "yebo": 1536,
      "forgiv": 1537,
      "ohenewaa": 1538,
      "sika": 1539,
      "sayibu": 1540,
      "yeboaa": 1541,
      "forgive": 1542,
      "uah": 1543,
      "akosuah": 1544,
      "eyram": 1545,
      "lartey": 1546,
      "hop": 1547,
      "owusua": 1548,
      "ansu": 1549,
      "bishop": 1550,
      "fauz": 1551,
      "fauzia": 1552,
      "wuda": 1553,
      "ababi": 1554,
      "dawuda": 1555,
      "ababio": 1556,
      "poku": 1557,
      "anteng": 1558,
      "annan": 1559,
      "thompson": 1560,
      "koranteng": 1561,
      "pokuaa": 1562,
      "riba": 1563,
      "emon": 1564,
      "gariba": 1565,
      "philemon": 1566,
      "duah": 1567,
      "jani": 1568,
      "kin": 1569,
      "amma": 1570,
      "aikin": 1571,
      "qwabena": 1572,
      "tijani": 1573,
      "aikins": 1574,
      "entia": 1575,
      "vicentia": 1576,
      "rock": 1577,
      "rockson": 1578,
      "rab": 1579,
      "sakyi": 1580,
      "yay": 1581,
      "iatu": 1582,
      "winfred": 1583,
      "doe": 1584,
      "rabiatu": 1585,
      "yayra": 1586,
      "kem": 1587,
      "elikem": 1588,
      "snr": 1589,
      "nharna": 1590,
      "kwao": 1591,
      "lordina": 1592,
      "ackah": 1593,
      "shadrach": 1594,
      "cob": 1595,
      "nasi": 1596,
      "saak": 1597,
      "priscy": 1598,
      "shee": 1599,
      "azure": 1600,
      "nketia": 1601,
      "cobby": 1602,
      "nasiru": 1603,
      "saaka": 1604,
      "eshu": 1605,
      "etus": 1606,
      "cletus": 1607,
      "kodjo": 1608,
      "eshun": 1609,
      "mam": 1610,
      "afa": 1611,
      "selasi": 1612,
      "mamudu": 1613,
      "ot": 1614,
      "atanga": 1615,
      "iddi": 1616,
      "otoo": 1617,
      "ut": 1618,
      "martey": 1619,
      "baidoo": 1620,
      "korkor": 1621,
      "getrude": 1622,
      "saani": 1623,
      "duut": 1624,
      "cud": 1625,
      "abanga": 1626,
      "humu": 1627,
      "lovia": 1628,
      "cudjoe": 1629,
      "halidu": 1630,
      "tei": 1631,
      "ewurabena": 1632,
      "amoh": 1633,
      "aliu": 1634,
      "awura": 1635,
      "eal": 1636,
      "meal": 1637,
      "anima": 1638,
      "ishmeal": 1639,
      "nsoh": 1640,
      "sia": 1641,
      "mani": 1642,
      "sumani": 1643,
      "mawusi": 1644,
      "siaw": 1645,
      "otu": 1646,
      "anaba": 1647,
      "boafo": 1648,
      "odame": 1649,
      "ayishatu": 1650,
      "dence": 1651,
      "essel": 1652,
      "fidence": 1653,
      "confidence": 1654,
      "sadick": 1655,
      "bon": 1656,
      "bonsu": 1657,
      "tiz": 1658,
      "allo": 1659,
      "agbe": 1660,
      "ephya": 1661,
      "afari": 1662,
      "citiz": 1663,
      "agbeko": 1664,
      "citizen": 1665,
      "fe": 1666,
      "wia": 1667,
      "akol": 1668,
      "obour": 1669,
      "kyeraa": 1670,
      "laar": 1671,
      "ayamga": 1672,
      "wiafe": 1673,
      "akolgo": 1674,
      "agbo": 1675,
      "iddris": 1676,
      "zen": 1677,
      "rifa": 1678,
      "abdulrazak": 1679,
      "amofa": 1680,
      "fatimatu": 1681,
      "debrah": 1682,
      "sherifa": 1683,
      "zenabu": 1684,
      "bed": 1685,
      "iri": 1686,
      "itey": 1687,
      "kua": 1688,
      "mak": 1689,
      "amg": 1690,
      "iako": 1691,
      "obiri": 1692,
      "forson": 1693,
      "kukua": 1694,
      "ayitey": 1695,
      "takyiwaa": 1696,
      "ankamah": 1697,
      "okai": 1698,
      "yhaw": 1699,
      "bediako": 1700,
      "makafui": 1701,
      "lan": 1702,
      "sack": 1703,
      "etu": 1704,
      "andoh": 1705,
      "konlan": 1706,
      "ayishetu": 1707,
      "sackey": 1708,
      "atiah": 1709,
      "boahen": 1710,
      "afrifa": 1711,
      "komla": 1712,
      "baf": 1713,
      "besi": 1714,
      "lim": 1715,
      "zib": 1716,
      "abei": 1717,
      "agbesi": 1718,
      "foe": 1719,
      "baffoe": 1720,
      "ziblim": 1721,
      "abeiku": 1722,
      "kuami": 1723,
      "blessed": 1724,
      "mus": 1725,
      "eras": 1726,
      "koss": 1727,
      "boahemaa": 1728,
      "amanor": 1729,
      "jemimah": 1730,
      "fuseni": 1731,
      "erasmus": 1732,
      "kossi": 1733,
      "ft": 1734,
      "famo": 1735,
      "anku": 1736,
      "kwadjo": 1737,
      "graft": 1738,
      "degraft": 1739,
      "quabena": 1740,
      "famous": 1741,
      "amissah": 1742,
      "arsh": 1743,
      "quarsh": 1744,
      "mawuena": 1745,
      "quarshie": 1746,
      "co": 1747,
      "min": 1748,
      "mes": 1749,
      "sta": 1750,
      "daco": 1751,
      "hack": 1752,
      "mintah": 1753,
      "meshack": 1754,
      "dacosta": 1755,
      "still": 1756,
      "nanaama": 1757,
      "asu": 1758,
      "eliasu": 1759,
      "ayine": 1760,
      "antwiwaa": 1761,
      "adomah": 1762,
      "nketiah": 1763,
      "brahim": 1764,
      "lbrahim": 1765,
      "enim": 1766,
      "rahina": 1767,
      "adubea": 1768,
      "eneboah": 1769,
      "tweneboah": 1770,
      "nharnarh": 1771,
      "agyenim": 1772,
      "danquah": 1773,
      "kwajo": 1774,
      "okrah": 1775,
      "yhaa": 1776,
      "cof": 1777,
      "ea": 1778,
      "po": 1779,
      "ran": 1780,
      "tie": 1781,
      "abea": 1782,
      "abran": 1783,
      "asabea": 1784,
      "akak": 1785,
      "obaayaa": 1786,
      "agyare": 1787,
      "coffie": 1788,
      "abrantie": 1789,
      "akakpo": 1790,
      "amena": 1791,
      "kwamena": 1792,
      "salisu": 1793,
      "frimpomaa": 1794,
      "qwaku": 1795,
      "dad": 1796,
      "zie": 1797,
      "osafo": 1798,
      "vidash": 1799,
      "esie": 1800,
      "piesie": 1801,
      "ampomah": 1802,
      "ntiamoah": 1803,
      "dadzie": 1804,
      "yna": 1805,
      "abyna": 1806,
      "awo": 1807,
      "paapa": 1808,
      "bat": 1809,
      "dod": 1810,
      "qua": 1811,
      "zi": 1812,
      "maabena": 1813,
      "obib": 1814,
      "quansah": 1815,
      "pious": 1816,
      "kombat": 1817,
      "dodzi": 1818,
      "quaye": 1819,
      "obiba": 1820,
      "eini": 1821,
      "ffo": 1822,
      "heini": 1823,
      "akuffo": 1824,
      "herty": 1825,
      "fusheini": 1826,
      "gre": 1827,
      "sow": 1828,
      "great": 1829,
      "sowah": 1830,
      "lina": 1831,
      "alhas": 1832,
      "franklina": 1833,
      "alhasan": 1834,
      "ntim": 1835,
      "rama": 1836,
      "adade": 1837,
      "awurama": 1838,
      "vincentia": 1839,
      "dankwa": 1840,
      "gya": 1841,
      "kank": 1842,
      "queenzy": 1843,
      "gyau": 1844,
      "kankam": 1845,
      "baa": 1846,
      "nha": 1847,
      "ema": 1848,
      "ohema": 1849,
      "nharnha": 1850,
      "baafi": 1851,
      "apr": 1852,
      "di": 1853,
      "mana": 1854,
      "sse": 1855,
      "hamdi": 1856,
      "apraku": 1857,
      "manasse": 1858,
      "hamdiya": 1859,
      "manasseh": 1860,
      "ap": 1861,
      "lamp": 1862,
      "isi": 1863,
      "adow": 1864,
      "etey": 1865,
      "tari": 1866,
      "pau": 1867,
      "odei": 1868,
      "ayisi": 1869,
      "quami": 1870,
      "adjetey": 1871,
      "muntari": 1872,
      "ankrah": 1873,
      "appau": 1874,
      "lamptey": 1875,
      "adowa": 1876,
      "mha": 1877,
      "kwami": 1878,
      "mhaame": 1879,
      "hy": 1880,
      "li": 1881,
      "mhy": 1882,
      "tsi": 1883,
      "anson": 1884,
      "orli": 1885,
      "akorli": 1886,
      "nimat": 1887,
      "abotsi": 1888,
      "nahnah": 1889,
      "mhyzz": 1890,
      "ansong": 1891,
      "nimatu": 1892,
      "bl": 1893,
      "rede": 1894,
      "amenyo": 1895,
      "enam": 1896,
      "emer": 1897,
      "esenam": 1898,
      "nyo": 1899,
      "dufie": 1900,
      "mawunyo": 1901,
      "blay": 1902,
      "redeemer": 1903,
      "fataw": 1904,
      "mawuko": 1905,
      "sahada": 1906,
      "gbe": 1907,
      "nam": 1908,
      "ornam": 1909,
      "edinam": 1910,
      "etornam": 1911,
      "dogbe": 1912,
      "fosuaa": 1913,
      "dogbey": 1914,
      "iwaa": 1915,
      "kiss": 1916,
      "tse": 1917,
      "agana": 1918,
      "dotse": 1919,
      "sahadatu": 1920,
      "kissiwaa": 1921
    },
    "merges": [
      "a n",
      "e l",
      "a m",
      "r i",
      "e n",
      "a r",
      "e r",
      "i n",
      "a h",
      "a b",
      "i s",
      "an a",
      "c e",
      "s t",
      "c h",
      "o n",
      "j o",
      "e m",
      "u el",
      "a a",
      "t h",
      "n ana",
      "o r",
      "a l",
      "a s",
      "k w",
      "e d",
      "p h",
      "i a",
      "a d",
      "a t",
      "s e",
      "a k",
      "i l",
      "f r",
      "e s",
      "m an",
      "m a",
      "man uel",
      "d a",
      "v i",
      "o m",
      "in a",
      "u l",
      "em manuel",
      "e t",
      "m ar",
      "r a",
      "ri c",
      "s am",
      "k o",
      "fr an",
      "b en",
      "am e",
      "u s",
      "sam uel",
      "e st",
      "ch ar",
      "i c",
      "an i",
      "i f",
      "a w",
      "aa c",
      "o s",
      "is aac",
      "b er",
      "ak u",
      "g e",
      "p ri",
      "o h",
      "o ri",
      "f i",
      "n i",
      "en a",
      "t a",
      "e ric",
      "c is",
      "fran cis",
      "jo se",
      "jose ph",
      "r e",
      "p a",
      "ani el",
      "m i",
      "j am",
      "t y",
      "p at",
      "u st",
      "i m",
      "ch a",
      "a g",
      "d aniel",
      "o se",
      "ko fi",
      "r ah",
      "o l",
      "ab ena",
      "c y",
      "h n",
      "jo hn",
      "el i",
      "i d",
      "y e",
      "m ed",
      "fr ed",
      "il l",
      "o b",
      "mar y",
      "n ce",
      "pri nce",
      "ab d",
      "e v",
      "ri char",
      "richar d",
      "am a",
      "s an",
      "abd ul",
      "s ah",
      "cha el",
      "u a",
      "kw ame",
      "h a",
      "b o",
      "en ce",
      "mi chael",
      "e ph",
      "b e",
      "t e",
      "am med",
      "st eph",
      "h er",
      "est her",
      "m oh",
      "moh ammed",
      "as i",
      "f or",
      "steph en",
      "ch ri",
      "ge or",
      "g a",
      "l in",
      "i ana",
      "y aw",
      "ab i",
      "k u",
      "n a",
      "ori a",
      "vi d",
      "g l",
      "r u",
      "da vid",
      "m on",
      "l es",
      "o d",
      "ber t",
      "ga il",
      "abi gail",
      "i b",
      "e th",
      "p on",
      "ma ame",
      "g if",
      "gif ty",
      "en n",
      "w o",
      "e ben",
      "fran k",
      "o w",
      "pat ric",
      "g ra",
      "a f",
      "e z",
      "chri st",
      "gra ce",
      "d or",
      "el l",
      "ph il",
      "c a",
      "ad wo",
      "s ar",
      "a y",
      "s on",
      "ar d",
      "ni ce",
      "in g",
      "jam es",
      "ow us",
      "en t",
      "h as",
      "al e",
      "eben ez",
      "ebenez er",
      "n est",
      "er nest",
      "ab u",
      "an s",
      "vi c",
      "has san",
      "geor ge",
      "owus u",
      "rah im",
      "f a",
      "ust ina",
      "al i",
      "h ar",
      "z ab",
      "eli zab",
      "elizab eth",
      "kw aku",
      "ib rahim",
      "a ri",
      "g ina",
      "kw asi",
      "vic t",
      "v is",
      "pon g",
      "jo y",
      "ale x",
      "s h",
      "in e",
      "ad u",
      "ob aa",
      "mon d",
      "an d",
      "en e",
      "o p",
      "joy ce",
      "pa ul",
      "char les",
      "k ing",
      "al hassan",
      "g od",
      "j an",
      "ben jam",
      "benjam in",
      "kw abena",
      "ad am",
      "o u",
      "u g",
      "ab a",
      "ose i",
      "p et",
      "am o",
      "lin da",
      "mar k",
      "b ri",
      "j ul",
      "i ah",
      "c om",
      "for t",
      "com fort",
      "y aa",
      "ri ta",
      "sar ah",
      "ic a",
      "r o",
      "ha j",
      "ak os",
      "an g",
      "aku a",
      "d e",
      "g h",
      "an n",
      "ma vis",
      "pet er",
      "ic ia",
      "es i",
      "jan et",
      "ri ch",
      "e y",
      "i ence",
      "pat ience",
      "o ph",
      "r os",
      "be c",
      "s u",
      "on y",
      "ev ans",
      "m er",
      "mer cy",
      "pri s",
      "y n",
      "el yn",
      "vict oria",
      "s ol",
      "om on",
      "sol omon",
      "q u",
      "akos ua",
      "d ia",
      "l y",
      "ly dia",
      "bri gh",
      "brigh t",
      "patric k",
      "ko jo",
      "c ill",
      "pris cill",
      "priscill a",
      "vi da",
      "ed w",
      "l or",
      "id u",
      "i am",
      "w ill",
      "will iam",
      "p p",
      "ag ye",
      "f eli",
      "feli x",
      "th e",
      "re bec",
      "ev elyn",
      "rebec ca",
      "adwo a",
      "s al",
      "o f",
      "a ug",
      "fa ustina",
      "d ra",
      "san dra",
      "th om",
      "f el",
      "ang el",
      "obaa pa",
      "ri ce",
      "at rice",
      "be atrice",
      "i p",
      "phil ip",
      "en o",
      "d ori",
      "dori s",
      "m at",
      "w aa",
      "d om",
      "gl oria",
      "m u",
      "e u",
      "eu nice",
      "ro bert",
      "n es",
      "ag nes",
      "r ose",
      "j on",
      "thom as",
      "i ce",
      "amo ah",
      "d iana",
      "bo ah",
      "ar e",
      "v in",
      "r y",
      "an th",
      "anth ony",
      "se th",
      "a i",
      "b is",
      "is sah",
      "m en",
      "men sah",
      "b a",
      "f lor",
      "flor ence",
      "h ann",
      "hann ah",
      "a pp",
      "app iah",
      "a c",
      "y s",
      "ad ys",
      "gl adys",
      "o ku",
      "id e",
      "i v",
      "e f",
      "edw ard",
      "v er",
      "ru th",
      "el ia",
      "em aa",
      "b u",
      "re gina",
      "vi an",
      "vi vian",
      "bis mark",
      "fel icia",
      "en g",
      "l o",
      "b ra",
      "af ia",
      "z ak",
      "rah am",
      "ch e",
      "w in",
      "us ah",
      "op oku",
      "th a",
      "al bert",
      "a kwasi",
      "n th",
      "cy nth",
      "cynth ia",
      "y i",
      "y a",
      "l ey",
      "t w",
      "b ak",
      "abu bak",
      "ber nice",
      "j enn",
      "if er",
      "jenn ifer",
      "e en",
      "patric ia",
      "as are",
      "f at",
      "n har",
      "ye boah",
      "jo sh",
      "josh ua",
      "kw adwo",
      "n ard",
      "ber nard",
      "kw esi",
      "w ell",
      "x well",
      "ma xwell",
      "for d",
      "ab raham",
      "jul i",
      "m ose",
      "mose s",
      "ab el",
      "d on",
      "u d",
      "h en",
      "c as",
      "an te",
      "as ante",
      "dor cas",
      "g ide",
      "gide on",
      "i z",
      "j ust",
      "just ice",
      "k y",
      "s im",
      "y aku",
      "yaku bu",
      "abdul ai",
      "s ul",
      "al l",
      "er es",
      "th eres",
      "haj ia",
      "t et",
      "tet te",
      "m ah",
      "agye i",
      "ani ta",
      "ell a",
      "king s",
      "om i",
      "na omi",
      "c k",
      "n aa",
      "at u",
      "e i",
      "f o",
      "b y",
      "jo e",
      "eric k",
      "if u",
      "id d",
      "joseph ine",
      "g ar",
      "mar gar",
      "margar et",
      "oh emaa",
      "ma ri",
      "c ol",
      "m usah",
      "lin s",
      "col lins",
      "bo at",
      "god win",
      "christ iana",
      "k ari",
      "jul iana",
      "m ill",
      "ic ent",
      "mill icent",
      "of ori",
      "ch ol",
      "il da",
      "ni chol",
      "mat ilda",
      "nichol as",
      "ri ty",
      "cha rity",
      "b aba",
      "c l",
      "sim on",
      "de b",
      "al fred",
      "w is",
      "re w",
      "and rew",
      "eno ch",
      "c il",
      "ce cil",
      "cecil ia",
      "y us",
      "idd ri",
      "ros em",
      "k enn",
      "rich mond",
      "o th",
      "oth y",
      "god fred",
      "ko b",
      "s el",
      "em elia",
      "y l",
      "hen ry",
      "tette h",
      "fat i",
      "ph a",
      "n g",
      "se idu",
      "ed ic",
      "ben edic",
      "p er",
      "g ab",
      "ri el",
      "gab riel",
      "as h",
      "ni i",
      "ric k",
      "che al",
      "m abel",
      "qu een",
      "ky er",
      "ali ce",
      "geor gina",
      "or ah",
      "deb orah",
      "i an",
      "christ ian",
      "an tw",
      "fred erick",
      "antw i",
      "on ica",
      "ver onica",
      "boat eng",
      "ust ine",
      "aug ustine",
      "c ent",
      "os man",
      "g y",
      "francis ca",
      "e ku",
      "ad j",
      "iddri su",
      "a th",
      "jon ath",
      "jonath an",
      "in i",
      "p e",
      "d er",
      "i th",
      "l aw",
      "law r",
      "wis dom",
      "b ar",
      "st ella",
      "m all",
      "n an",
      "mall am",
      "at ta",
      "kings ley",
      "mar tha",
      "sal ifu",
      "b les",
      "bles s",
      "juli et",
      "p son",
      "oh ene",
      "j ac",
      "jac ob",
      "d enn",
      "denn is",
      "d o",
      "is s",
      "em ma",
      "u na",
      "aw a",
      "ak o",
      "adj ei",
      "il a",
      "l u",
      "op pong",
      "p or",
      "t ia",
      "por tia",
      "s s",
      "is ha",
      "adam s",
      "n y",
      "ag y",
      "mon ica",
      "k el",
      "s yl",
      "kel vin",
      "syl v",
      "n h",
      "h el",
      "o ben",
      "oben g",
      "f u",
      "theres a",
      "fu se",
      "is h",
      "ak ye",
      "benedic ta",
      "f ri",
      "n e",
      "fri m",
      "mari am",
      "ernest ina",
      "aw u",
      "vict or",
      "angel a",
      "kw eku",
      "t in",
      "mar tin",
      "sam pson",
      "p aa",
      "kob by",
      "i r",
      "ir ene",
      "christ oph",
      "christoph er",
      "s if",
      "yus sif",
      "ri et",
      "ah med",
      "prince ss",
      "b el",
      "in da",
      "em ent",
      "cl ement",
      "bel inda",
      "aug ustina",
      "ar ko",
      "dor a",
      "as amoah",
      "a z",
      "mi cheal",
      "har una",
      "sul em",
      "lu cy",
      "frim pong",
      "ra zak",
      "andrew s",
      "nan cy",
      "p ros",
      "pros per",
      "vin cent",
      "e ug",
      "dor othy",
      "l et",
      "let icia",
      "y ou",
      "you ng",
      "al haj",
      "alhaj i",
      "d es",
      "in ic",
      "dom inic",
      "des mond",
      "m y",
      "k or",
      "abubak ar",
      "alex and",
      "alexand er",
      "j er",
      "fuse ini",
      "u r",
      "chri s",
      "et ty",
      "agy em",
      "zak ari",
      "o phil",
      "the ophil",
      "theophil us",
      "z y",
      "ud u",
      "ou r",
      "h u",
      "k at",
      "kat e",
      "k e",
      "t te",
      "char lo",
      "charlo tte",
      "am os",
      "lo v",
      "q w",
      "st an",
      "r ash",
      "abubak ari",
      "s oph",
      "soph ia",
      "j u",
      "ma w",
      "p r",
      "bo akye",
      "y mond",
      "ra ymond",
      "ob ed",
      "ad do",
      "al ber",
      "alber ta",
      "te y",
      "ol iv",
      "oliv ia",
      "c i",
      "r am",
      "i e",
      "ay a",
      "an sah",
      "h am",
      "o us",
      "eno ck",
      "t ina",
      "phil om",
      "es s",
      "lawr ence",
      "ell en",
      "os u",
      "k ye",
      "am pon",
      "ampon sah",
      "ar y",
      "rosem ary",
      "h awa",
      "g et",
      "s er",
      "ser waa",
      "ru de",
      "der rick",
      "am ina",
      "sel ina",
      "sam my",
      "s a",
      "kyer e",
      "hel ena",
      "kenn eth",
      "n k",
      "ad da",
      "lov e",
      "d y",
      "el vis",
      "ef ya",
      "jer ry",
      "ad jo",
      "or o",
      "sulem ana",
      "n ar",
      "jo ana",
      "pa pa",
      "p re",
      "ci ous",
      "pre cious",
      "ma el",
      "ish mael",
      "john son",
      "l a",
      "a pha",
      "m ust",
      "must apha",
      "l ou",
      "lou is",
      "ver a",
      "agyem ang",
      "mu ni",
      "kari m",
      "har riet",
      "am pong",
      "amo ako",
      "paul ina",
      "n o",
      "ad om",
      "am adu",
      "st er",
      "fo ster",
      "the w",
      "mat thew",
      "i ru",
      "z a",
      "d get",
      "bri dget",
      "eug ene",
      "c on",
      "j ud",
      "jud ith",
      "nh yi",
      "j ah",
      "ak yi",
      "az iz",
      "t eng",
      "sh e",
      "and y",
      "p i",
      "ag ar",
      "ar th",
      "ny arko",
      "arth ur",
      "ed em",
      "n u",
      "william s",
      "adjo a",
      "ev a",
      "or m",
      "ab o",
      "n r",
      "oph elia",
      "bless ing",
      "g er",
      "t ah",
      "am an",
      "ni or",
      "ju nior",
      "ra pha",
      "rapha el",
      "e k",
      "bar a",
      "bar bara",
      "ag ya",
      "ad ra",
      "sh adra",
      "ed y",
      "kenn edy",
      "ed u",
      "asi edu",
      "j ess",
      "jess ica",
      "ib u",
      "aw udu",
      "mah ama",
      "a isha",
      "h o",
      "a ce",
      "el a",
      "pe ace",
      "ohene ba",
      "ed ith",
      "iv y",
      "a che",
      "ab as",
      "mu n",
      "ache ampong",
      "abas s",
      "j em",
      "th aniel",
      "na thaniel",
      "d u",
      "v on",
      "y von",
      "yvon ne",
      "b etty",
      "y ah",
      "on d",
      "rosem ond",
      "zakari a",
      "yah aya",
      "d an",
      "t ony",
      "nhar nhar",
      "sylv ia",
      "o kyere",
      "est er",
      "sylv ester",
      "ic k",
      "ak a",
      "iss aka",
      "angel ina",
      "s ad",
      "fred a",
      "om ey",
      "sal omey",
      "ad e",
      "ay isha",
      "abo agye",
      "am ah",
      "abdul l",
      "m aa",
      "u mar",
      "am fi",
      "gy amfi",
      "us i",
      "don kor",
      "stan ce",
      "con stance",
      "rash id",
      "en y",
      "fred rick",
      "mu muni",
      "jo el",
      "eric a",
      "jon as",
      "ri ne",
      "ca the",
      "cathe rine",
      "g il",
      "gil bert",
      "juli us",
      "n el",
      "nel son",
      "aman kw",
      "d ou",
      "gl as",
      "dou glas",
      "t akyi",
      "em e",
      "theres ah",
      "d ans",
      "dans o",
      "r ans",
      "rans ford",
      "dor een",
      "ed mun",
      "edmun d",
      "e ed",
      "e ko",
      "t im",
      "eko w",
      "u da",
      "af ri",
      "l iz",
      "liz zy",
      "l at",
      "ma ila",
      "su maila",
      "lat if",
      "emmanuel la",
      "jan e",
      "an k",
      "n ah",
      "u ro",
      "st ev",
      "od uro",
      "stev en",
      "adda i",
      "o o",
      "mi ke",
      "adam u",
      "abu kari",
      "k on",
      "be a",
      "i ma",
      "eli jah",
      "jem ima",
      "im ah",
      "shadra ck",
      "ar l",
      "ul i",
      "pe arl",
      "maw uli",
      "e w",
      "j ay",
      "c el",
      "cel est",
      "ef f",
      "m oro",
      "jo ice",
      "re joice",
      "issah aku",
      "s ab",
      "sab ina",
      "a ar",
      "r aba",
      "nhyi raba",
      "aar on",
      "am atu",
      "sal amatu",
      "ade pa",
      "af f",
      "ef ua",
      "t rude",
      "ger trude",
      "s ha",
      "sha ibu",
      "qu ah",
      "philom ina",
      "d ick",
      "te ye",
      "dick son",
      "u m",
      "tw um",
      "sar pong",
      "c ia",
      "i ke",
      "en cia",
      "lawr encia",
      "al idu",
      "af ua",
      "f osu",
      "j ustina",
      "ad iz",
      "adiz a",
      "sar fo",
      "agyei waa",
      "y ford",
      "ha yford",
      "nu hu",
      "ku mi",
      "ny ame",
      "l e",
      "am p",
      "edw in",
      "r ho",
      "aw al",
      "rho da",
      "is a",
      "fati ma",
      "d iv",
      "div ine",
      "k usi",
      "d ann",
      "dann y",
      "ar a",
      "ay am",
      "kye i",
      "at o",
      "ba ah",
      "tim othy",
      "c ar",
      "l ar",
      "os car",
      "ham za",
      "d arko",
      "s us",
      "sus ana",
      "in usah",
      "christ abel",
      "mari ama",
      "of osu",
      "an e",
      "an ane",
      "c in",
      "philom ena",
      "cin dy",
      "no ah",
      "abd all",
      "abdall ah",
      "is u",
      "she ila",
      "t i",
      "b awa",
      "nar h",
      "ed na",
      "yi e",
      "sul e",
      "agya pong",
      "afri yie",
      "ber tha",
      "u i",
      "af ui",
      "r ol",
      "rol and",
      "u ty",
      "an na",
      "az u",
      "bea uty",
      "w en",
      "om ar",
      "wen dy",
      "man u",
      "rich ie",
      "ed e",
      "i da",
      "bec ky",
      "rash ida",
      "nar tey",
      "abdull ah",
      "h agar",
      "jon es",
      "stan ley",
      "kon adu",
      "ros ina",
      "asante waa",
      "k ay",
      "u al",
      "pet ual",
      "per petual",
      "u z",
      "frank lin",
      "lor d",
      "kings ford",
      "m ali",
      "ani e",
      "steph anie",
      "hel ina",
      "ram atu",
      "mali k",
      "pr etty",
      "ham idu",
      "kw a",
      "i ty",
      "ic ity",
      "fel icity",
      "r as",
      "u ra",
      "id oo",
      "at su",
      "yus if",
      "am in",
      "amin u",
      "b ash",
      "i ra",
      "da uda",
      "sam ira",
      "bash iru",
      "ad ela",
      "hen riet",
      "adela ide",
      "henriet ta",
      "if i",
      "fi ifi",
      "ru by",
      "na ana",
      "ac quah",
      "tah iru",
      "b rah",
      "z zy",
      "su zzy",
      "as ana",
      "vi our",
      "sa viour",
      "w il",
      "el orm",
      "im atu",
      "wil son",
      "is ra",
      "isra el",
      "g o",
      "i el",
      "ez ek",
      "ezek iel",
      "st ar",
      "t aw",
      "ha pp",
      "taw iah",
      "happ y",
      "sa eed",
      "aa k",
      "n s",
      "ko d",
      "amankw ah",
      "nhar nah",
      "gy an",
      "ru mah",
      "nk rumah",
      "i t",
      "en ia",
      "ra cheal",
      "kob ina",
      "eug enia",
      "it z",
      "sel orm",
      "in no",
      "jam ila",
      "iss ifu",
      "inno cent",
      "ce ph",
      "ceph as",
      "c ale",
      "ann or",
      "cale b",
      "en i",
      "f est",
      "fest us",
      "am i",
      "ek ua",
      "ew ur",
      "j nr",
      "bu kari",
      "s w",
      "god sw",
      "godsw ay",
      "abi ba",
      "eff ah",
      "ku mah",
      "am idu",
      "t ra",
      "ed mond",
      "om ah",
      "tra cy",
      "b ari",
      "k isu",
      "im oro",
      "maw u",
      "bari kisu",
      "u ben",
      "re uben",
      "adda e",
      "agar tha",
      "b adu",
      "ad i",
      "bo adi",
      "d ede",
      "l s",
      "ls aac",
      "t u",
      "in ab",
      "za inab",
      "i fred",
      "an ga",
      "win ifred",
      "k aya",
      "ar teng",
      "is al",
      "on am",
      "kw arteng",
      "ru kaya",
      "fa isal",
      "eny onam",
      "awu ah",
      "ani m",
      "sh atta",
      "eme fa",
      "sad ia",
      "ju de",
      "ac k",
      "sulem an",
      "z z",
      "if ford",
      "cl ifford",
      "c os",
      "m os",
      "cos mos",
      "d ela",
      "eny o",
      "p om",
      "pom aa",
      "c elyn",
      "k afui",
      "joy celyn",
      "sul ley",
      "tette y",
      "b aff",
      "ri son",
      "har rison",
      "baff our",
      "ben ard",
      "nk et",
      "latif a",
      "d el",
      "ay ish",
      "del ali",
      "s i",
      "t o",
      "ako to",
      "in am",
      "gy asi",
      "nan aba",
      "rah man",
      "h in",
      "ar aba",
      "ar hin",
      "qu ame",
      "b i",
      "ad ama",
      "benedic t",
      "kyer eme",
      "iss ac",
      "nh ana",
      "louis a",
      "lar bi",
      "kyereme h",
      "h ammed",
      "or a",
      "bo adu",
      "od ora",
      "the odora",
      "mu hammed",
      "an ha",
      "fat awu",
      "nh anha",
      "adom ako",
      "k as",
      "w on",
      "kas sim",
      "won der",
      "is t",
      "ame yaw",
      "ev angel",
      "qw ame",
      "celest ina",
      "evangel ist",
      "celest ine",
      "d al",
      "d erick",
      "g dal",
      "ma gdal",
      "af o",
      "magdal ene",
      "n ti",
      "ku m",
      "agye kum",
      "se i",
      "adu sei",
      "azu mah",
      "o k",
      "o teng",
      "y h",
      "isa iah",
      "m ame",
      "aw ini",
      "kw akye",
      "l is",
      "t an",
      "ph yl",
      "god son",
      "tan ko",
      "phyl lis",
      "bo amah",
      "of o",
      "amp ofo",
      "am pi",
      "is e",
      "ch ampi",
      "om ise",
      "agyem an",
      "pr omise",
      "champi on",
      "wo fa",
      "haj j",
      "b le",
      "k om",
      "m ble",
      "s ak",
      "em pr",
      "hu mble",
      "pi us",
      "sak ina",
      "empr ess",
      "rude en",
      "nu rudeen",
      "in atu",
      "rah inatu",
      "f us",
      "abu du",
      "a ch",
      "i aa",
      "mar fo",
      "ali ma",
      "der y",
      "twum asi",
      "ach iaa",
      "op are",
      "a idoo",
      "d z",
      "e bo",
      "x ford",
      "en aa",
      "ab enaa",
      "if a",
      "re xford",
      "dz ifa",
      "o kye",
      "an okye",
      "v our",
      "fa vour",
      "o y",
      "al imatu",
      "ob oy",
      "haj ara",
      "nk ansah",
      "b ro",
      "nyame kye",
      "c ou",
      "u ba",
      "ra ge",
      "ay uba",
      "cou rage",
      "qw eku",
      "aff ul",
      "am uz",
      "at aa",
      "asi amah",
      "qw esi",
      "amuz u",
      "on go",
      "ad ongo",
      "n ob",
      "ba aba",
      "nhyi ra",
      "nob le",
      "amankw aa",
      "a kwesi",
      "e em",
      "fr eem",
      "owusu aa",
      "freem an",
      "k v",
      "nana yaa",
      "kv ng",
      "a j",
      "boat emaa",
      "awu ni",
      "aj ara",
      "w ah",
      "wah ab",
      "g ri",
      "u nr",
      "ul y",
      "fi e",
      "abu gri",
      "unr uly",
      "m al",
      "ra chael",
      "gy imah",
      "mal am",
      "p rah",
      "pe prah",
      "f isa",
      "na fisa",
      "s eni",
      "em iah",
      "raham an",
      "wis e",
      "jer emiah",
      "seni or",
      "s is",
      "u ng",
      "y ung",
      "od ene",
      "muni ru",
      "ns iah",
      "odene ho",
      "at tah",
      "abdull ai",
      "t ill",
      "kyer emaa",
      "ank omah",
      "till y",
      "j eed",
      "ar mah",
      "ma jeed",
      "m em",
      "sh on",
      "fuse ina",
      "ger shon",
      "mem una",
      "b h",
      "d ram",
      "h udu",
      "j eff",
      "y ram",
      "er y",
      "se yram",
      "ef o",
      "bh ra",
      "dram ani",
      "jeff ery",
      "rich love",
      "my zz",
      "k aak",
      "nana yaw",
      "ow ura",
      "sar kod",
      "yi re",
      "ew ura",
      "kaak yire",
      "sarkod ie",
      "s enyo",
      "im manuel",
      "oph i",
      "qu ophi",
      "bra imah",
      "sad at",
      "sah ad",
      "h ol",
      "k man",
      "ef ia",
      "lu kman",
      "hol y",
      "awu ku",
      "n ya",
      "ofori waa",
      "nya aba",
      "f ei",
      "es inam",
      "of fei",
      "ewur ama",
      "o ma",
      "ad oma",
      "g iv",
      "k a",
      "s ay",
      "ye bo",
      "for giv",
      "ohene waa",
      "si ka",
      "say ibu",
      "yebo aa",
      "forgiv e",
      "u ah",
      "akos uah",
      "ey ram",
      "lar tey",
      "h op",
      "owus ua",
      "ans u",
      "bis hop",
      "fa uz",
      "fauz ia",
      "w uda",
      "ab abi",
      "da wuda",
      "ababi o",
      "p oku",
      "an teng",
      "ann an",
      "thom pson",
      "kor anteng",
      "poku aa",
      "ri ba",
      "em on",
      "ga riba",
      "phil emon",
      "du ah",
      "j ani",
      "k in",
      "am ma",
      "ai kin",
      "qw abena",
      "ti jani",
      "aikin s",
      "ent ia",
      "vic entia",
      "ro ck",
      "rock son",
      "r ab",
      "s akyi",
      "y ay",
      "ia tu",
      "win fred",
      "do e",
      "rab iatu",
      "yay ra",
      "k em",
      "eli kem",
      "s nr",
      "nhar na",
      "kwa o",
      "lord ina",
      "ack ah",
      "shadra ch",
      "c ob",
      "n asi",
      "s aak",
      "pris cy",
      "she e",
      "azu re",
      "nket ia",
      "cob by",
      "nasi ru",
      "saak a",
      "es hu",
      "et us",
      "cl etus",
      "kod jo",
      "eshu n",
      "m am",
      "af a",
      "sel asi",
      "mam udu",
      "o t",
      "at anga",
      "idd i",
      "ot oo",
      "u t",
      "mar tey",
      "ba idoo",
      "kor kor",
      "get rude",
      "sa ani",
      "du ut",
      "c ud",
      "ab anga",
      "hu mu",
      "lov ia",
      "cud joe",
      "h alidu",
      "te i",
      "ewur abena",
      "am oh",
      "ali u",
      "awu ra",
      "e al",
      "m eal",
      "ani ma",
      "ish meal",
      "ns oh",
      "s ia",
      "man i",
      "su mani",
      "maw usi",
      "sia w",
      "o tu",
      "an aba",
      "bo afo",
      "od ame",
      "ayish atu",
      "d ence",
      "es sel",
      "fi dence",
      "con fidence",
      "sad ick",
      "b on",
      "bon su",
      "t iz",
      "al lo",
      "ag be",
      "eph ya",
      "af ari",
      "ci tiz",
      "agbe ko",
      "citiz en",
      "f e",
      "w ia",
      "ak ol",
      "ob our",
      "kyer aa",
      "la ar",
      "ayam ga",
      "wia fe",
      "akol go",
      "ag bo",
      "iddri s",
      "z en",
      "ri fa",
      "abdul razak",
      "amo fa",
      "fat imatu",
      "deb rah",
      "she rifa",
      "zen abu",
      "b ed",
      "i ri",
      "i tey",
      "k ua",
      "m ak",
      "am g",
      "ia ko",
      "ob iri",
      "for son",
      "ku kua",
      "ay itey",
      "takyi waa",
      "ank amah",
      "ok ai",
      "yh aw",
      "bed iako",
      "mak afui",
      "l an",
      "s ack",
      "et u",
      "and oh",
      "kon lan",
      "ayish etu",
      "sack ey",
      "at iah",
      "boah en",
      "afri fa",
      "kom la",
      "b af",
      "b esi",
      "l im",
      "z ib",
      "ab ei",
      "ag besi",
      "fo e",
      "baf foe",
      "zib lim",
      "abei ku",
      "ku ami",
      "bless ed",
      "m us",
      "er as",
      "ko ss",
      "boah emaa",
      "aman or",
      "jem imah",
      "fus eni",
      "eras mus",
      "koss i",
      "f t",
      "f amo",
      "an ku",
      "kw adjo",
      "gra ft",
      "de graft",
      "qu abena",
      "famo us",
      "am issah",
      "ar sh",
      "qu arsh",
      "mawu ena",
      "quarsh ie",
      "c o",
      "m in",
      "m es",
      "st a",
      "da co",
      "ha ck",
      "min tah",
      "mes hack",
      "daco sta",
      "st ill",
      "nana ama",
      "as u",
      "eli asu",
      "ay ine",
      "antwi waa",
      "adom ah",
      "nket iah",
      "b rahim",
      "l brahim",
      "en im",
      "rah ina",
      "adu bea",
      "ene boah",
      "tw eneboah",
      "nhar narh",
      "agy enim",
      "dan quah",
      "kwa jo",
      "ok rah",
      "yh aa",
      "c of",
      "e a",
      "p o",
      "r an",
      "t ie",
      "ab ea",
      "ab ran",
      "as abea",
      "ak ak",
      "obaa yaa",
      "agy are",
      "cof fie",
      "abran tie",
      "akak po",
      "am ena",
      "kw amena",
      "sal isu",
      "frim pomaa",
      "qw aku",
      "d ad",
      "z ie",
      "os afo",
      "vid ash",
      "esi e",
      "pi esie",
      "amp omah",
      "nti amoah",
      "dad zie",
      "y na",
      "ab yna",
      "aw o",
      "paa pa",
      "b at",
      "d od",
      "q ua",
      "z i",
      "ma abena",
      "ob ib",
      "qu ansah",
      "pi ous",
      "kom bat",
      "dod zi",
      "qua ye",
      "obib a",
      "e ini",
      "f fo",
      "h eini",
      "aku ffo",
      "her ty",
      "fus heini",
      "g re",
      "s ow",
      "gre at",
      "sow ah",
      "l ina",
      "al has",
      "frank lina",
      "alhas an",
      "n tim",
      "r ama",
      "ad ade",
      "awu rama",
      "vincent ia",
      "dan kwa",
      "g ya",
      "k ank",
      "queen zy",
      "gya u",
      "kank am",
      "b aa",
      "n ha",
      "em a",
      "oh ema",
      "nhar nha",
      "baa fi",
      "a pr",
      "d i",
      "m ana",
      "s se",
      "ham di",
      "apr aku",
      "mana sse",
      "hamdi ya",
      "manasse h",
      "a p",
      "l amp",
      "is i",
      "ad ow",
      "et ey",
      "ta ri",
      "pa u",
      "od ei",
      "ay isi",
      "qu ami",
      "adj etey",
      "mun tari",
      "ank rah",
      "ap pau",
      "lamp tey",
      "adow a",
      "m ha",
      "kw ami",
      "mha ame",
      "h y",
      "l i",
      "m hy",
      "t si",
      "an son",
      "or li",
      "ak orli",
      "ni mat",
      "abo tsi",
      "nah nah",
      "mhy zz",
      "anson g",
      "nimat u",
      "b l",
      "r ede",
      "am enyo",
      "en am",
      "em er",
      "es enam",
      "ny o",
      "du fie",
      "mawu nyo",
      "bl ay",
      "rede emer",
      "fat aw",
      "mawu ko",
      "sahad a",
      "g be",
      "n am",
      "or nam",
      "ed inam",
      "et ornam",
      "do gbe",
      "fosu aa",
      "dogbe y",
      "i waa",
      "k iss",
      "t se",
      "ag ana",
      "do tse",
      "sahad atu",
      "kiss iwaa"
    ]
  }
}