{
  "version": "1.0",
  "truncation": null,
  "padding": null,
  "added_tokens": [
    {
      "id": 0,
      "content": "[UNK]",
      "single_word": false,
      "lstrip": false,
      "rstrip": false,
      "normalized": false,
      "special": true
    },
    {
      "id": 1,
      "content": "[CLS]",
      "single_word": false,
      "lstrip": false,
      "rstrip": false,
      "normalized": false,
      "special": true
    },
    {
      "id": 2,
      "content": "[SEP]",
      "single_word": false,
      "lstrip": false,
      "rstrip": false,
      "normalized": false,
      "special": true
    },
    {
      "id": 3,
      "content": "[PAD]",
      "single_word": false,
      "lstrip": false,
      "rstrip": false,
      "normalized": false,
      "special": true
    },
    {
      "id": 4,
      "content": "[MASK]",
      "single_word": false,
      "lstrip": false,
      "rstrip": false,
      "normalized": false,
      "special": true
    }
  ],
  "normalizer": null,
  "pre_tokenizer": {
    "type": "Whitespace"
  },
  "post_processor": null,
  "decoder": null,
  "model": {
    "type": "BPE",
    "dropout": null,
    "unk_token": "[UNK]",
    "continuing_subword_prefix": null,
    "end_of_word_suffix": null,
    "fuse_unk": false,
    "vocab": {
      "[UNK]": 0,
      "[CLS]": 1,
      "[SEP]": 2,
      "[PAD]": 3,
      "[MASK]": 4,
      "-": 5,
      "a": 6,
      "b": 7,
      "c": 8,
      "d": 9,
      "e": 10,
      "f": 11,
      "g": 12,
      "h": 13,
      "i": 14,
      "j": 15,
      "k": 16,
      "l": 17,
      "m": 18,
      "n": 19,
      "o": 20,
      "p": 21,
      "q": 22,
      "r": 23,
      "s": 24,
      "t": 25,
      "u": 26,
      "v": 27,
      "w": 28,
      "x": 29,
      "y": 30,
      "z": 31,
      "ha": 32,
      "ma": 33,
      "ou": 34,
      "sa": 35,
      "mo": 36,
      "ra": 37,
      "ham": 38,
      "ed": 39,
      "id": 40,
      "na": 41,
      "la": 42,
      "ab": 43,
      "ne": 44,
      "ss": 45,
      "abd": 46,
      "fa": 47,
      "moham": 48,
      "ya": 49,
      "mohamed": 50,
      "ti": 51,
      "hi": 52,
      "mi": 53,
      "di": 54,
      "you": 55,
      "ja": 56,
      "ri": 57,
      "ka": 58,
      "ssa": 59,
      "ta": 60,
      "fati": 61,
      "abde": 62,
      "za": 63,
      "med": 64,
      "si": 65,
      "wa": 66,
      "ch": 67,
      "kha": 68,
      "ima": 69,
      "zi": 70,
      "ad": 71,
      "mar": 72,
      "ssi": 73,
      "ah": 74,
      "ami": 75,
      "simo": 76,
      "il": 77,
      "said": 78,
      "rach": 79,
      "rachid": 80,
      "mal": 81,
      "abdel": 82,
      "sse": 83,
      "him": 84,
      "lah": 85,
      "rahim": 86,
      "mad": 87,
      "ssan": 88,
      "mou": 89,
      "sta": 90,
      "kari": 91,
      "ssef": 92,
      "hassan": 93,
      "youssef": 94,
      "sou": 95,
      "yassi": 96,
      "lid": 97,
      "abdo": 98,
      "fatima": 99,
      "ahmed": 100,
      "me": 101,
      "li": 102,
      "ziz": 103,
      "youb": 104,
      "ayoub": 105,
      "hamza": 106,
      "cham": 107,
      "hicham": 108,
      "aziz": 109,
      "brahim": 110,
      "bi": 111,
      "sma": 112,
      "cha": 113,
      "khalid": 114,
      "da": 115,
      "ni": 116,
      "dija": 117,
      "nou": 118,
      "khadija": 119,
      "omar": 120,
      "sal": 121,
      "moh": 122,
      "sami": 123,
      "hamid": 124,
      "yassine": 125,
      "fi": 126,
      "pha": 127,
      "stapha": 128,
      "ba": 129,
      "hana": 130,
      "ali": 131,
      "amine": 132,
      "sara": 133,
      "man": 134,
      "hdi": 135,
      "moha": 136,
      "ana": 137,
      "rad": 138,
      "no": 139,
      "mohammed": 140,
      "stafa": 141,
      "adi": 142,
      "karim": 143,
      "chra": 144,
      "mu": 145,
      "youne": 146,
      "nour": 147,
      "am": 148,
      "adil": 149,
      "smail": 150,
      "mohamad": 151,
      "salma": 152,
      "so": 153,
      "jamal": 154,
      "hou": 155,
      "dri": 156,
      "zakari": 157,
      "mustapha": 158,
      "oua": 159,
      "ssam": 160,
      "mehdi": 161,
      "lam": 162,
      "lal": 163,
      "kamal": 164,
      "ssama": 165,
      "ila": 166,
      "yassin": 167,
      "bou": 168,
      "haf": 169,
      "ot": 170,
      "fia": 171,
      "hak": 172,
      "imane": 173,
      "driss": 174,
      "zakaria": 175,
      "yam": 176,
      "wan": 177,
      "red": 178,
      "rid": 179,
      "amina": 180,
      "sana": 181,
      "hra": 182,
      "tar": 183,
      "mala": 184,
      "malak": 185,
      "ji": 186,
      "lati": 187,
      "oussama": 188,
      "nab": 189,
      "jawa": 190,
      "jawad": 191,
      "anas": 192,
      "asma": 193,
      "ay": 194,
      "dine": 195,
      "en": 196,
      "samir": 197,
      "salah": 198,
      "ismail": 199,
      "adam": 200,
      "dia": 201,
      "ahmad": 202,
      "soufia": 203,
      "abdellah": 204,
      "zahra": 205,
      "haja": 206,
      "hajar": 207,
      "nabil": 208,
      "abder": 209,
      "amal": 210,
      "achra": 211,
      "achraf": 212,
      "em": 213,
      "mostafa": 214,
      "imad": 215,
      "mer": 216,
      "hafid": 217,
      "hanan": 218,
      "maryam": 219,
      "ai": 220,
      "abdou": 221,
      "siham": 222,
      "ina": 223,
      "bad": 224,
      "souka": 225,
      "neb": 226,
      "zineb": 227,
      "ram": 228,
      "rik": 229,
      "tarik": 230,
      "bilal": 231,
      "wi": 232,
      "aya": 233,
      "rah": 234,
      "fou": 235,
      "wtar": 236,
      "kawtar": 237,
      "im": 238,
      "nadia": 239,
      "raja": 240,
      "yan": 241,
      "hanane": 242,
      "mane": 243,
      "sin": 244,
      "lou": 245,
      "amira": 246,
      "kram": 247,
      "ilya": 248,
      "san": 249,
      "ho": 250,
      "youness": 251,
      "ib": 252,
      "younes": 253,
      "samira": 254,
      "chaima": 255,
      "nada": 256,
      "walid": 257,
      "hiba": 258,
      "war": 259,
      "nir": 260,
      "amin": 261,
      "din": 262,
      "oum": 263,
      "saad": 264,
      "ouma": 265,
      "morad": 266,
      "karima": 267,
      "aicha": 268,
      "badr": 269,
      "laila": 270,
      "mourad": 271,
      "ilham": 272,
      "naima": 273,
      "soufiane": 274,
      "ssin": 275,
      "yma": 276,
      "md": 277,
      "marwa": 278,
      "fik": 279,
      "fae": 280,
      "mari": 281,
      "mery": 282,
      "rida": 283,
      "bouchra": 284,
      "ghi": 285,
      "nia": 286,
      "cen": 287,
      "reda": 288,
      "fatiha": 289,
      "nd": 290,
      "mohamd": 291,
      "fouad": 292,
      "ayman": 293,
      "soukaina": 294,
      "ikram": 295,
      "maj": 296,
      "hamed": 297,
      "hind": 298,
      "abderrahim": 299,
      "souad": 300,
      "none": 301,
      "anass": 302,
      "hakim": 303,
      "hasan": 304,
      "zak": 305,
      "mana": 306,
      "sanae": 307,
      "houda": 308,
      "latif": 309,
      "an": 310,
      "anwar": 311,
      "hir": 312,
      "ar": 313,
      "abdela": 314,
      "lahcen": 315,
      "zou": 316,
      "er": 317,
      "az": 318,
      "latifa": 319,
      "hal": 320,
      "hya": 321,
      "yahya": 322,
      "ika": 323,
      "malika": 324,
      "bna": 325,
      "el": 326,
      "eddine": 327,
      "haya": 328,
      "hayat": 329,
      "issam": 330,
      "mia": 331,
      "sna": 332,
      "hasna": 333,
      "marwan": 334,
      "ouane": 335,
      "naji": 336,
      "ir": 337,
      "oumaima": 338,
      "nor": 339,
      "mounir": 340,
      "iman": 341,
      "lay": 342,
      "oth": 343,
      "bib": 344,
      "mohmad": 345,
      "asmae": 346,
      "rachida": 347,
      "ine": 348,
      "ahlam": 349,
      "rayan": 350,
      "otman": 351,
      "fad": 352,
      "saida": 353,
      "mahdi": 354,
      "meryem": 355,
      "zla": 356,
      "ilah": 357,
      "ibrahim": 358,
      "loubna": 359,
      "abdl": 360,
      "lil": 361,
      "youss": 362,
      "mohmed": 363,
      "mouad": 364,
      "wal": 365,
      "ghizla": 366,
      "mah": 367,
      "naja": 368,
      "rim": 369,
      "najat": 370,
      "tissam": 371,
      "mila": 372,
      "jamila": 373,
      "chaimae": 374,
      "farid": 375,
      "mc": 376,
      "halima": 377,
      "yous": 378,
      "oma": 379,
      "mina": 380,
      "bar": 381,
      "nawal": 382,
      "lh": 383,
      "hass": 384,
      "mh": 385,
      "ko": 386,
      "cine": 387,
      "noura": 388,
      "mouh": 389,
      "zo": 390,
      "yas": 391,
      "mouna": 392,
      "mbar": 393,
      "nora": 394,
      "ilyass": 395,
      "ssine": 396,
      "nouha": 397,
      "ala": 398,
      "lim": 399,
      "rabi": 400,
      "abdellatif": 401,
      "do": 402,
      "mostapha": 403,
      "bo": 404,
      "majid": 405,
      "naj": 406,
      "manal": 407,
      "fadwa": 408,
      "hassna": 409,
      "tou": 410,
      "hamad": 411,
      "chayma": 412,
      "jalal": 413,
      "yass": 414,
      "salwa": 415,
      "wla": 416,
      "khawla": 417,
      "jiha": 418,
      "azi": 419,
      "aziza": 420,
      "safae": 421,
      "ilyas": 422,
      "mohsin": 423,
      "dai": 424,
      "soufian": 425,
      "taha": 426,
      "rahman": 427,
      "abdelhak": 428,
      "loud": 429,
      "amirat": 430,
      "ssal": 431,
      "noureddine": 432,
      "sanaa": 433,
      "hd": 434,
      "meri": 435,
      "fyan": 436,
      "abdelilah": 437,
      "hadi": 438,
      "amir": 439,
      "yo": 440,
      "zha": 441,
      "abdrahim": 442,
      "farah": 443,
      "lina": 444,
      "slam": 445,
      "faa": 446,
      "tah": 447,
      "mine": 448,
      "adna": 449,
      "ia": 450,
      "layla": 451,
      "hafida": 452,
      "ibtissam": 453,
      "miloud": 454,
      "abdessa": 455,
      "zar": 456,
      "nizar": 457,
      "najib": 458,
      "hair": 459,
      "noha": 460,
      "gha": 461,
      "zouhir": 462,
      "asmaa": 463,
      "hm": 464,
      "al": 465,
      "khalil": 466,
      "abdelali": 467,
      "mariam": 468,
      "nordin": 469,
      "othmane": 470,
      "lamia": 471,
      "radwan": 472,
      "soka": 473,
      "wafae": 474,
      "le": 475,
      "mouhamed": 476,
      "ghizlane": 477,
      "hati": 478,
      "hatim": 479,
      "chaib": 480,
      "mr": 481,
      "sab": 482,
      "ouan": 483,
      "abdelaziz": 484,
      "mustafa": 485,
      "fat": 486,
      "meryam": 487,
      "ria": 488,
      "salim": 489,
      "meriem": 490,
      "redouane": 491,
      "mohssin": 492,
      "biba": 493,
      "mona": 494,
      "najwa": 495,
      "youn": 496,
      "rajae": 497,
      "yassir": 498,
      "ghani": 499,
      "tif": 500,
      "ran": 501,
      "mhamed": 502,
      "rbi": 503,
      "larbi": 504,
      "bouchaib": 505,
      "ef": 506,
      "fay": 507,
      "majda": 508,
      "yasin": 509,
      "zouhair": 510,
      "ossama": 511,
      "kh": 512,
      "om": 513,
      "nezha": 514,
      "youssra": 515,
      "assi": 516,
      "monir": 517,
      "dou": 518,
      "dounia": 519,
      "ssim": 520,
      "sofia": 521,
      "othman": 522,
      "yna": 523,
      "hanae": 524,
      "soso": 525,
      "nat": 526,
      "ssma": 527,
      "chaymae": 528,
      "maria": 529,
      "abdelhadi": 530,
      "rania": 531,
      "soumia": 532,
      "hafsa": 533,
      "abdessamad": 534,
      "wid": 535,
      "is": 536,
      "min": 537,
      "rajawi": 538,
      "hbib": 539,
      "razak": 540,
      "anou": 541,
      "ssane": 542,
      "abderahim": 543,
      "youssf": 544,
      "anouar": 545,
      "krim": 546,
      "mbark": 547,
      "sam": 548,
      "in": 549,
      "moussa": 550,
      "houssam": 551,
      "lamya": 552,
      "st": 553,
      "aymane": 554,
      "mstafa": 555,
      "manar": 556,
      "der": 557,
      "kader": 558,
      "abdelkader": 559,
      "omo": 560,
      "ghita": 561,
      "mastafa": 562,
      "hakima": 563,
      "abdelghani": 564,
      "souha": 565,
      "habib": 566,
      "wissal": 567,
      "salam": 568,
      "way": 569,
      "toufik": 570,
      "leila": 571,
      "bir": 572,
      "chaimaa": 573,
      "outar": 574,
      "kaoutar": 575,
      "zakariya": 576,
      "rita": 577,
      "sine": 578,
      "yousef": 579,
      "salima": 580,
      "assia": 581,
      "habiba": 582,
      "tam": 583,
      "azdin": 584,
      "rin": 585,
      "hossin": 586,
      "rabia": 587,
      "nis": 588,
      "hamada": 589,
      "akram": 590,
      "sofyan": 591,
      "nouhaila": 592,
      "bol": 593,
      "zia": 594,
      "fouzia": 595,
      "basma": 596,
      "otmane": 597,
      "lo": 598,
      "abou": 599,
      "nourdin": 600,
      "arbi": 601,
      "omayma": 602,
      "ek": 603,
      "samia": 604,
      "yane": 605,
      "hira": 606,
      "zahira": 607,
      "marouane": 608,
      "wiam": 609,
      "abdal": 610,
      "abdallah": 611,
      "jalil": 612,
      "don": 613,
      "rd": 614,
      "mon": 615,
      "zaki": 616,
      "sl": 617,
      "fatim": 618,
      "maa": 619,
      "warda": 620,
      "idri": 621,
      "sm": 622,
      "simohamed": 623,
      "hmad": 624,
      "nourdine": 625,
      "je": 626,
      "zohra": 627,
      "ziko": 628,
      "bd": 629,
      "taou": 630,
      "sabah": 631,
      "ghizlan": 632,
      "omaima": 633,
      "jihane": 634,
      "alae": 635,
      "sama": 636,
      "hay": 637,
      "abdelah": 638,
      "azize": 639,
      "mhmd": 640,
      "fahd": 641,
      "yasmine": 642,
      "adnan": 643,
      "aid": 644,
      "saaid": 645,
      "doha": 646,
      "touria": 647,
      "ken": 648,
      "widad": 649,
      "kenza": 650,
      "doua": 651,
      "sad": 652,
      "saf": 653,
      "hoda": 654,
      "amirato": 655,
      "abdeslam": 656,
      "yousra": 657,
      "mid": 658,
      "mido": 659,
      "ob": 660,
      "janat": 661,
      "hassane": 662,
      "rine": 663,
      "jid": 664,
      "mjid": 665,
      "ouad": 666,
      "jaouad": 667,
      "nabi": 668,
      "wafaa": 669,
      "nabila": 670,
      "ssaf": 671,
      "zohir": 672,
      "dris": 673,
      "safaa": 674,
      "hbibt": 675,
      "abderrahman": 676,
      "raf": 677,
      "charaf": 678,
      "ro": 679,
      "houssin": 680,
      "mimou": 681,
      "mimoun": 682,
      "dima": 683,
      "nourd": 684,
      "ranya": 685,
      "fatah": 686,
      "sarah": 687,
      "oula": 688,
      "khaoula": 689,
      "zizo": 690,
      "taoufik": 691,
      "rajaa": 692,
      "chak": 693,
      "redwan": 694,
      "hossam": 695,
      "fal": 696,
      "abo": 697,
      "yassmine": 698,
      "adnane": 699,
      "btissam": 700,
      "haj": 701,
      "cho": 702,
      "tman": 703,
      "idriss": 704,
      "soufyan": 705,
      "sen": 706,
      "zin": 707,
      "mohmd": 708,
      "samad": 709,
      "yasse": 710,
      "houcine": 711,
      "yasser": 712,
      "ritaj": 713,
      "sousou": 714,
      "rayane": 715,
      "ssima": 716,
      "hid": 717,
      "mbarek": 718,
      "wassim": 719,
      "ih": 720,
      "mounia": 721,
      "chir": 722,
      "bachir": 723,
      "nina": 724,
      "hab": 725,
      "rihab": 726,
      "moustapha": 727,
      "momo": 728,
      "mohssine": 729,
      "abdelkrim": 730,
      "marwane": 731,
      "haytam": 732,
      "azz": 733,
      "abdelmajid": 734,
      "redouan": 735,
      "abdelkarim": 736,
      "houssine": 737,
      "yasmin": 738,
      "saadi": 739,
      "saadia": 740,
      "hmz": 741,
      "maha": 742,
      "abderrah": 743,
      "abderrahmane": 744,
      "dya": 745,
      "hamou": 746,
      "nadya": 747,
      "rdwan": 748,
      "maya": 749,
      "wafa": 750,
      "lamyae": 751,
      "niss": 752,
      "sabir": 753,
      "farida": 754,
      "jda": 755,
      "mohcine": 756,
      "wijda": 757,
      "oumayma": 758,
      "soukayna": 759,
      "faysal": 760,
      "youssaf": 761,
      "abdelatif": 762,
      "bab": 763,
      "had": 764,
      "rabab": 765,
      "nihad": 766,
      "lamiae": 767,
      "sokayna": 768,
      "abir": 769,
      "moad": 770,
      "abdr": 771,
      "ben": 772,
      "dina": 773,
      "mokh": 774,
      "mokhtar": 775,
      "hija": 776,
      "moud": 777,
      "bahija": 778,
      "aissa": 779,
      "zakia": 780,
      "mahmoud": 781,
      "jila": 782,
      "ayob": 783,
      "souhail": 784,
      "jilali": 785,
      "edine": 786,
      "abdilah": 787,
      "osama": 788,
      "afa": 789,
      "abdlah": 790,
      "nourddine": 791,
      "haway": 792,
      "mahbol": 793,
      "rabie": 794,
      "rda": 795,
      "abdeljalil": 796,
      "eg": 797,
      "fatimazahra": 798,
      "yla": 799,
      "ilia": 800,
      "moustafa": 801,
      "hasnae": 802,
      "mest": 803,
      "mester": 804,
      "safa": 805,
      "abdla": 806,
      "mham": 807,
      "racha": 808,
      "zaka": 809,
      "jihan": 810,
      "azdine": 811,
      "ati": 812,
      "douae": 813,
      "atika": 814,
      "assma": 815,
      "led": 816,
      "rif": 817,
      "choua": 818,
      "khaled": 819,
      "chouaib": 820,
      "nassim": 821,
      "mohamade": 822,
      "youns": 823,
      "nisrin": 824,
      "marya": 825,
      "yem": 826,
      "maryem": 827,
      "bader": 828,
      "houria": 829,
      "mohamde": 830,
      "hosin": 831,
      "faty": 832,
      "rae": 833,
      "layman": 834,
      "yassmin": 835,
      "israe": 836,
      "imran": 837,
      "allal": 838,
      "wfal": 839,
      "nawfal": 840,
      "chta": 841,
      "bouchta": 842,
      "samar": 843,
      "wane": 844,
      "yasmina": 845,
      "zinb": 846,
      "hway": 847,
      "su": 848,
      "yossef": 849,
      "suis": 850,
      "mohsine": 851,
      "lobna": 852,
      "milo": 853,
      "milod": 854,
      "najim": 855,
      "koko": 856,
      "zaid": 857,
      "hamouda": 858,
      "ft": 859,
      "rafik": 860,
      "tisam": 861,
      "houssa": 862,
      "hafssa": 863,
      "ridwan": 864,
      "badar": 865,
      "har": 866,
      "sahar": 867,
      "tham": 868,
      "thami": 869,
      "wsan": 870,
      "sawsan": 871,
      "edc": 872,
      "lhaj": 873,
      "nisrine": 874,
      "tan": 875,
      "radouane": 876,
      "bassma": 877,
      "rji": 878,
      "narji": 879,
      "badia": 880,
      "abderrazak": 881,
      "najia": 882,
      "emad": 883,
      "nassima": 884,
      "ssn": 885,
      "mehamed": 886,
      "fatii": 887,
      "abdelk": 888,
      "lahsen": 889,
      "nordine": 890,
      "rahma": 891,
      "wfik": 892,
      "tawfik": 893,
      "marouan": 894,
      "fatna": 895,
      "sif": 896,
      "mariya": 897,
      "monsif": 898,
      "miya": 899,
      "nadi": 900,
      "nadir": 901,
      "nazha": 902,
      "jad": 903,
      "chafik": 904,
      "bochra": 905,
      "hala": 906,
      "mestafa": 907,
      "nihal": 908,
      "hasnaa": 909,
      "fattah": 910,
      "hmd": 911,
      "abdelwa": 912,
      "sliman": 913,
      "sn": 914,
      "lhsn": 915,
      "azeddine": 916,
      "mhbol": 917,
      "men": 918,
      "aymen": 919,
      "younsse": 920,
      "abdlhak": 921,
      "inass": 922,
      "halim": 923,
      "abdolah": 924,
      "samya": 925,
      "mouhcine": 926,
      "alami": 927,
      "jihad": 928,
      "atman": 929,
      "fadoua": 930,
      "monaim": 931,
      "islam": 932,
      "ld": 933,
      "wld": 934,
      "hanaa": 935,
      "abdltif": 936,
      "mouhssine": 937,
      "hidaya": 938,
      "riham": 939,
      "sofian": 940,
      "lot": 941,
      "wha": 942,
      "jawha": 943,
      "lotfi": 944,
      "jawhara": 945,
      "mn": 946,
      "zinab": 947,
      "aad": 948,
      "youna": 949,
      "ziad": 950,
      "sokaina": 951,
      "chakir": 952,
      "ome": 953,
      "abdeltif": 954,
      "arwa": 955,
      "soumaya": 956,
      "inas": 957,
      "alaa": 958,
      "fayssal": 959,
      "ced": 960,
      "sslam": 961,
      "nnat": 962,
      "hamo": 963,
      "jannat": 964,
      "abderahman": 965,
      "hamoda": 966,
      "abdelhamid": 967,
      "mahbo": 968,
      "mahbola": 969,
      "rk": 970,
      "younss": 971,
      "sadi": 972,
      "mariem": 973,
      "sadik": 974,
      "hmed": 975,
      "lae": 976,
      "ilyasse": 977,
      "najlae": 978,
      "rabiaa": 979,
      "llah": 980,
      "ray": 981,
      "abdollah": 982,
      "nim": 983,
      "chakib": 984,
      "wijdan": 985,
      "rahal": 986,
      "yad": 987,
      "ziyad": 988,
      "laarbi": 989,
      "abdrahman": 990,
      "meriam": 991,
      "nohayla": 992,
      "tri": 993,
      "titri": 994,
      "mouhssin": 995,
      "abdessalam": 996,
      "ihssan": 997,
      "titrit": 998,
      "karam": 999,
      "moulay": 1000,
      "mouhamad": 1001,
      "nissrine": 1002,
      "abdsamad": 1003,
      "jou": 1004,
      "ws": 1005,
      "ssen": 1006,
      "firda": 1007,
      "solayman": 1008,
      "mahjou": 1009,
      "firdaws": 1010,
      "mahjoub": 1011,
      "awa": 1012,
      "mhdi": 1013,
      "awatif": 1014,
      "mss": 1015,
      "ahmd": 1016,
      "abdlhadi": 1017,
      "lhcen": 1018,
      "ilias": 1019,
      "souhaila": 1020,
      "houssain": 1021,
      "fo": 1022,
      "itam": 1023,
      "haitam": 1024,
      "yasine": 1025,
      "lahsan": 1026,
      "eghd": 1027,
      "foad": 1028,
      "dj": 1029,
      "jamaa": 1030,
      "abdlkrim": 1031,
      "djdi": 1032,
      "mastapha": 1033,
      "jiji": 1034,
      "wac": 1035,
      "ez": 1036,
      "ouah": 1037,
      "outman": 1038,
      "kadija": 1039,
      "abdelouah": 1040,
      "ihssane": 1041,
      "ezzahra": 1042,
      "abdelouahed": 1043,
      "hbiba": 1044,
      "hbibat": 1045,
      "mat": 1046,
      "mamat": 1047,
      "yousaf": 1048,
      "abdelhakim": 1049,
      "abdllah": 1050,
      "donya": 1051,
      "cem": 1052,
      "kacem": 1053,
      "hmza": 1054,
      "haji": 1055,
      "oucine": 1056,
      "lahoucine": 1057,
      "hajiba": 1058,
      "widadi": 1059,
      "douaa": 1060,
      "soad": 1061,
      "mhammed": 1062,
      "chrif": 1063,
      "aissam": 1064,
      "yousf": 1065,
      "aimad": 1066,
      "roma": 1067,
      "ysa": 1068,
      "radouan": 1069,
      "afaf": 1070,
      "romaysa": 1071,
      "kri": 1072,
      "lhabib": 1073,
      "medo": 1074,
      "krimo": 1075,
      "fatin": 1076,
      "abderazak": 1077,
      "azzeddine": 1078,
      "chahid": 1079,
      "yassmina": 1080,
      "saber": 1081,
      "mstapha": 1082,
      "ousama": 1083,
      "abdlatif": 1084,
      "fatine": 1085,
      "die": 1086,
      "wadie": 1087,
      "salh": 1088,
      "wisal": 1089,
      "youssfe": 1090,
      "narjis": 1091,
      "ofik": 1092,
      "tofik": 1093,
      "oui": 1094,
      "alaoui": 1095,
      "mrwan": 1096,
      "fe": 1097,
      "issal": 1098,
      "faissal": 1099,
      "kalid": 1100,
      "mehamad": 1101,
      "zohair": 1102,
      "nohaila": 1103,
      "yd": 1104,
      "zayd": 1105,
      "maryama": 1106,
      "rya": 1107,
      "malek": 1108,
      "abdelmalek": 1109,
      "mouhsin": 1110,
      "abdrrahim": 1111,
      "zakarya": 1112,
      "boua": 1113,
      "mst": 1114,
      "zza": 1115,
      "rime": 1116,
      "bouazza": 1117,
      "mstr": 1118,
      "hed": 1119,
      "jali": 1120,
      "saloua": 1121,
      "abdelwahed": 1122,
      "jalila": 1123,
      "ari": 1124,
      "btisam": 1125,
      "abdoo": 1126,
      "hassnae": 1127,
      "arij": 1128,
      "saide": 1129,
      "lhsan": 1130,
      "lhsen": 1131,
      "tahar": 1132,
      "zho": 1133,
      "rifi": 1134,
      "zhor": 1135,
      "jaafa": 1136,
      "lamiaa": 1137,
      "fayza": 1138,
      "jaafar": 1139,
      "bk": 1140,
      "rachide": 1141,
      "boubk": 1142,
      "slm": 1143,
      "boubker": 1144,
      "foud": 1145,
      "mahfoud": 1146,
      "mimon": 1147,
      "wail": 1148,
      "chdi": 1149,
      "rochdi": 1150,
      "mahbolt": 1151,
      "lahbib": 1152,
      "hosam": 1153,
      "yosaf": 1154,
      "nissrin": 1155,
      "ftah": 1156,
      "insaf": 1157,
      "fyane": 1158,
      "mhamad": 1159,
      "zhou": 1160,
      "soufyane": 1161,
      "zhour": 1162,
      "radia": 1163,
      "jawi": 1164,
      "mohemad": 1165,
      "radwane": 1166,
      "tanjawi": 1167,
      "somiya": 1168,
      "hossine": 1169,
      "asi": 1170,
      "asiya": 1171,
      "lho": 1172,
      "th": 1173,
      "ym": 1174,
      "yn": 1175,
      "sayn": 1176,
      "fadma": 1177,
      "mrym": 1178,
      "lhosayn": 1179,
      "zid": 1180,
      "zzak": 1181,
      "razzak": 1182,
      "abdssa": 1183,
      "yazid": 1184,
      "younesse": 1185,
      "somaya": 1186,
      "abderrazzak": 1187,
      "aib": 1188,
      "badre": 1189,
      "choaib": 1190,
      "abdssamad": 1191,
      "cin": 1192,
      "eb": 1193,
      "yeb": 1194,
      "tayeb": 1195,
      "mohcin": 1196,
      "wijdane": 1197,
      "uob": 1198,
      "wahiba": 1199,
      "maroua": 1200,
      "abdelhafid": 1201,
      "ayuob": 1202,
      "mhbolt": 1203,
      "chadia": 1204,
      "abdlali": 1205,
      "ej": 1206,
      "fti": 1207,
      "mmed": 1208,
      "oufal": 1209,
      "naoufal": 1210,
      "abdli": 1211,
      "taina": 1212,
      "mohmmed": 1213,
      "somia": 1214,
      "boutaina": 1215,
      "redwane": 1216,
      "mhm": 1217,
      "rabii": 1218,
      "mryam": 1219,
      "chocho": 1220,
      "maryame": 1221,
      "ejf": 1222,
      "abdlilah": 1223,
      "wassima": 1224,
      "chama": 1225,
      "slimane": 1226,
      "bid": 1227,
      "cef": 1228,
      "chams": 1229,
      "bouje": 1230,
      "zoubid": 1231,
      "moncef": 1232,
      "mhamd": 1233,
      "younas": 1234,
      "boujemaa": 1235,
      "zoubida": 1236,
      "ama": 1237,
      "gh": 1238,
      "my": 1239,
      "rane": 1240,
      "abdrazak": 1241,
      "zigh": 1242,
      "souma": 1243,
      "imrane": 1244,
      "rayhana": 1245,
      "amazigh": 1246,
      "mestapha": 1247,
      "mounaim": 1248,
      "abdelkbir": 1249,
      "hssn": 1250,
      "nbi": 1251,
      "abdenbi": 1252,
      "ahmade": 1253,
      "ag": 1254,
      "monim": 1255,
      "misse": 1256,
      "adir": 1257,
      "agadir": 1258,
      "ano": 1259,
      "moaad": 1260,
      "hamd": 1261,
      "kaya": 1262,
      "mouhamd": 1263,
      "ilhame": 1264,
      "rokaya": 1265,
      "anoir": 1266,
      "abdelfattah": 1267,
      "egj": 1268,
      "oualid": 1269,
      "lhssn": 1270,
      "ssf": 1271,
      "abdslam": 1272,
      "mouloud": 1273,
      "yossf": 1274,
      "molay": 1275,
      "abdesslam": 1276,
      "mouhmed": 1277,
      "najoua": 1278,
      "sabrin": 1279,
      "alal": 1280,
      "oc": 1281,
      "maroc": 1282,
      "hassania": 1283,
      "salm": 1284,
      "fatimzahra": 1285,
      "assmae": 1286,
      "alah": 1287,
      "abdalah": 1288,
      "tazi": 1289,
      "abdelkabir": 1290,
      "mahbolat": 1291,
      "simou": 1292,
      "salaheddine": 1293,
      "lhssen": 1294,
      "iliass": 1295,
      "lt": 1296,
      "kalt": 1297,
      "imade": 1298,
      "azzedine": 1299,
      "kaltoum": 1300,
      "fj": 1301,
      "ger": 1302,
      "hj": 1303,
      "issma": 1304,
      "ssm": 1305,
      "abdesalam": 1306,
      "tanger": 1307,
      "fjd": 1308,
      "hjr": 1309,
      "issmail": 1310,
      "nza": 1311,
      "kanza": 1312,
      "ouafae": 1313,
      "yossaf": 1314,
      "assiya": 1315,
      "kbir": 1316,
      "drisse": 1317,
      "abdlkbir": 1318,
      "wald": 1319,
      "lhssan": 1320,
      "chaymaa": 1321,
      "ghali": 1322,
      "be": 1323,
      "issa": 1324,
      "naissa": 1325,
      "rizla": 1326,
      "wahd": 1327,
      "khale": 1328,
      "abdelkhale": 1329,
      "hichame": 1330,
      "abdlwahd": 1331,
      "rkia": 1332,
      "benaissa": 1333,
      "rizlan": 1334,
      "abdelkhalek": 1335,
      "iid": 1336,
      "sr": 1337,
      "saiid": 1338,
      "abdsalam": 1339,
      "malk": 1340,
      "ibtisam": 1341,
      "nourddin": 1342,
      "ahemad": 1343,
      "madrid": 1344,
      "sihame": 1345,
      "azedine": 1346,
      "kr": 1347,
      "mouhsine": 1348,
      "nouhayla": 1349,
      "krm": 1350,
      "ik": 1351,
      "rame": 1352,
      "nazi": 1353,
      "abdelmou": 1354,
      "ikrame": 1355,
      "naziha": 1356,
      "abdelmoula": 1357,
      "ira": 1358,
      "kab": 1359,
      "abdelhay": 1360,
      "idrissi": 1361,
      "kabira": 1362,
      "illah": 1363,
      "abdelillah": 1364,
      "khalide": 1365,
      "abdlghani": 1366,
      "sf": 1367,
      "zakariae": 1368,
      "zahrat": 1369,
      "yosf": 1370,
      "habibat": 1371,
      "mra": 1372,
      "mrat": 1373,
      "amouna": 1374,
      "lhossin": 1375,
      "mossa": 1376,
      "mohamede": 1377,
      "chahd": 1378,
      "zahrae": 1379,
      "ita": 1380,
      "kita": 1381,
      "kokita": 1382,
      "emed": 1383,
      "slim": 1384,
      "moslim": 1385,
      "lahssan": 1386,
      "mohemed": 1387,
      "niama": 1388,
      "maati": 1389,
      "ame": 1390,
      "hman": 1391,
      "soumiya": 1392,
      "wiame": 1393,
      "abdrhman": 1394,
      "wel": 1395,
      "zm": 1396,
      "anasse": 1397,
      "housin": 1398,
      "hassn": 1399,
      "khdija": 1400,
      "weld": 1401,
      "lta": 1402,
      "solta": 1403,
      "elmostafa": 1404,
      "badiaa": 1405,
      "soltana": 1406,
      "lhoucine": 1407,
      "haq": 1408,
      "simox": 1409,
      "abdelhaq": 1410,
      "ritaje": 1411,
      "imo": 1412,
      "jmaa": 1413,
      "mm": 1414,
      "siimo": 1415,
      "chark": 1416,
      "nouredine": 1417,
      "boujmaa": 1418,
      "charki": 1419,
      "iss": 1420,
      "tid": 1421,
      "miiss": 1422,
      "lamyaa": 1423,
      "tidadi": 1424,
      "ghaf": 1425,
      "lhak": 1426,
      "lhadi": 1427,
      "our": 1428,
      "fata": 1429,
      "abdelghaf": 1430,
      "narjiss": 1431,
      "fatat": 1432,
      "abdelghafour": 1433,
      "nouh": 1434,
      "noradin": 1435,
      "bdr": 1436,
      "fle": 1437,
      "ur": 1438,
      "laiman": 1439,
      "soulayman": 1440,
      "soulaiman": 1441,
      "fleur": 1442,
      "dd": 1443,
      "isslam": 1444,
      "of": 1445,
      "brahime": 1446,
      "mohmade": 1447,
      "stof": 1448,
      "abdlaziz": 1449,
      "ddg": 1450,
      "ttah": 1451,
      "mouaad": 1452,
      "boujamaa": 1453,
      "khlid": 1454,
      "younse": 1455,
      "fettah": 1456,
      "tissa": 1457,
      "simohammed": 1458,
      "intissa": 1459,
      "intissar": 1460,
      "ltif": 1461,
      "lhoussain": 1462,
      "xid": 1463,
      "zk": 1464,
      "raxid": 1465,
      "ismal": 1466,
      "jawharat": 1467,
      "hasa": 1468,
      "moss": 1469,
      "tafa": 1470,
      "azzdine": 1471,
      "hasane": 1472,
      "mosstafa": 1473,
      "smo": 1474,
      "fix": 1475,
      "sinyo": 1476,
      "rofix": 1477,
      "sinyorita": 1478,
      "mouhmad": 1479,
      "younass": 1480,
      "arabi": 1481,
      "mha": 1482,
      "mouha": 1483,
      "noure": 1484,
      "boul": 1485,
      "elmehdi": 1486,
      "mahboul": 1487,
      "lhbib": 1488,
      "mbarka": 1489,
      "mhand": 1490,
      "yst": 1491,
      "mayst": 1492,
      "salhi": 1493,
      "barhim": 1494,
      "abdelwahd": 1495,
      "maystro": 1496,
      "bdo": 1497,
      "kw": 1498,
      "lhosin": 1499,
      "ossef": 1500,
      "tr": 1501,
      "uossef": 1502,
      "yuossef": 1503,
      "bochaib": 1504,
      "kwtr": 1505,
      "lkrim": 1506,
      "abdali": 1507,
      "zinbe": 1508,
      "ll": 1509,
      "simoo": 1510,
      "nv": 1511,
      "mounim": 1512,
      "souso": 1513,
      "abdrzak": 1514,
      "romaysae": 1515,
      "hano": 1516,
      "abdelfatah": 1517,
      "lahssen": 1518,
      "fiq": 1519,
      "abdelaali": 1520,
      "rajawiya": 1521,
      "taoufiq": 1522,
      "hanona": 1523,
      "cray": 1524,
      "ns": 1525,
      "ymar": 1526,
      "edin": 1527,
      "naymar": 1528,
      "oumnia": 1529,
      "azedin": 1530,
      "yons": 1531,
      "crayzi": 1532,
      "ail": 1533,
      "hssan": 1534,
      "meed": 1535,
      "smaail": 1536,
      "ichra": 1537,
      "anase": 1538,
      "fes": 1539,
      "ichrak": 1540
    },
    "merges": [
      "h a",
      "m a",
      "o u",
      "s a",
      "m o",
      "r a",
      "ha m",
      "e d",
      "i d",
      "n a",
      "l a",
      "a b",
      "n e",
      "s s",
      "ab d",
      "f a",
      "mo ham",
      "y a",
      "moham ed",
      "t i",
      "h i",
      "m i",
      "d i",
      "y ou",
      "j a",
      "r i",
      "k a",
      "s sa",
      "t a",
      "fa ti",
      "abd e",
      "z a",
      "m ed",
      "s i",
      "w a",
      "c h",
      "k ha",
      "i ma",
      "z i",
      "a d",
      "ma r",
      "ss i",
      "a h",
      "a mi",
      "si mo",
      "i l",
      "sa id",
      "ra ch",
      "rach id",
      "ma l",
      "abde l",
      "ss e",
      "hi m",
      "la h",
      "ra him",
      "ma d",
      "ssa n",
      "m ou",
      "s ta",
      "ka ri",
      "sse f",
      "ha ssan",
      "you ssef",
      "s ou",
      "ya ssi",
      "l id",
      "abd o",
      "fati ma",
      "ah med",
      "m e",
      "l i",
      "zi z",
      "you b",
      "a youb",
      "ham za",
      "c ham",
      "hi cham",
      "a ziz",
      "b rahim",
      "b i",
      "s ma",
      "c ha",
      "kha lid",
      "d a",
      "n i",
      "di ja",
      "n ou",
      "kha dija",
      "o mar",
      "sa l",
      "mo h",
      "sa mi",
      "ham id",
      "yassi ne",
      "f i",
      "p ha",
      "sta pha",
      "b a",
      "ha na",
      "a li",
      "ami ne",
      "sa ra",
      "ma n",
      "h di",
      "mo ha",
      "a na",
      "ra d",
      "n o",
      "moham med",
      "sta fa",
      "a di",
      "kari m",
      "ch ra",
      "m u",
      "you ne",
      "nou r",
      "a m",
      "adi l",
      "sma il",
      "moha mad",
      "sal ma",
      "s o",
      "ja mal",
      "h ou",
      "d ri",
      "za kari",
      "mu stapha",
      "ou a",
      "ssa m",
      "me hdi",
      "la m",
      "la l",
      "ka mal",
      "ssa ma",
      "i la",
      "yassi n",
      "b ou",
      "ha f",
      "o t",
      "fi a",
      "ha k",
      "ima ne",
      "dri ss",
      "zakari a",
      "ya m",
      "wa n",
      "r ed",
      "r id",
      "ami na",
      "sa na",
      "h ra",
      "ta r",
      "ma la",
      "mala k",
      "j i",
      "la ti",
      "ou ssama",
      "na b",
      "ja wa",
      "jawa d",
      "ana s",
      "a sma",
      "a y",
      "di ne",
      "e n",
      "sami r",
      "sa lah",
      "i smail",
      "ad am",
      "di a",
      "ah mad",
      "sou fia",
      "abdel lah",
      "za hra",
      "ha ja",
      "haja r",
      "nab il",
      "abde r",
      "a mal",
      "a chra",
      "achra f",
      "e m",
      "mo stafa",
      "ima d",
      "me r",
      "haf id",
      "hana n",
      "mar yam",
      "a i",
      "abd ou",
      "si ham",
      "i na",
      "b ad",
      "sou ka",
      "ne b",
      "zi neb",
      "ra m",
      "ri k",
      "ta rik",
      "bi lal",
      "w i",
      "a ya",
      "ra h",
      "f ou",
      "w tar",
      "ka wtar",
      "i m",
      "na dia",
      "ra ja",
      "ya n",
      "hana ne",
      "ma ne",
      "si n",
      "l ou",
      "ami ra",
      "k ram",
      "il ya",
      "sa n",
      "h o",
      "youne ss",
      "i b",
      "youne s",
      "sami ra",
      "cha ima",
      "na da",
      "wa lid",
      "hi ba",
      "wa r",
      "ni r",
      "ami n",
      "di n",
      "ou m",
      "sa ad",
      "ou ma",
      "mo rad",
      "kari ma",
      "ai cha",
      "bad r",
      "la ila",
      "mou rad",
      "il ham",
      "na ima",
      "soufia ne",
      "ssi n",
      "y ma",
      "m d",
      "mar wa",
      "fi k",
      "fa e",
      "ma ri",
      "mer y",
      "rid a",
      "bou chra",
      "g hi",
      "ni a",
      "c en",
      "red a",
      "fati ha",
      "n d",
      "moham d",
      "fou ad",
      "ay man",
      "souka ina",
      "i kram",
      "ma j",
      "ham ed",
      "hi nd",
      "abder rahim",
      "sou ad",
      "no ne",
      "ana ss",
      "hak im",
      "ha san",
      "za k",
      "ma na",
      "sana e",
      "hou da",
      "lati f",
      "a n",
      "an war",
      "hi r",
      "a r",
      "abde la",
      "lah cen",
      "z ou",
      "e r",
      "a z",
      "lati fa",
      "ha l",
      "h ya",
      "ya hya",
      "i ka",
      "mal ika",
      "b na",
      "e l",
      "ed dine",
      "ha ya",
      "haya t",
      "i ssam",
      "mi a",
      "s na",
      "ha sna",
      "mar wan",
      "oua ne",
      "na ji",
      "i r",
      "ouma ima",
      "no r",
      "mou nir",
      "ima n",
      "la y",
      "ot h",
      "bi b",
      "moh mad",
      "asma e",
      "rachid a",
      "i ne",
      "ah lam",
      "ra yan",
      "ot man",
      "fa d",
      "said a",
      "ma hdi",
      "mery em",
      "z la",
      "i lah",
      "i brahim",
      "lou bna",
      "abd l",
      "l il",
      "you ss",
      "moh med",
      "mou ad",
      "wa l",
      "ghi zla",
      "ma h",
      "na ja",
      "ri m",
      "naja t",
      "ti ssam",
      "mi la",
      "ja mila",
      "chaima e",
      "fa rid",
      "m c",
      "hal ima",
      "you s",
      "o ma",
      "mi na",
      "ba r",
      "na wal",
      "l h",
      "ha ss",
      "m h",
      "k o",
      "c ine",
      "nou ra",
      "mou h",
      "z o",
      "ya s",
      "mou na",
      "m bar",
      "no ra",
      "ilya ss",
      "ssi ne",
      "nou ha",
      "a la",
      "li m",
      "ra bi",
      "abdel latif",
      "d o",
      "mo stapha",
      "b o",
      "maj id",
      "na j",
      "mana l",
      "fad wa",
      "hass na",
      "t ou",
      "ha mad",
      "cha yma",
      "ja lal",
      "ya ss",
      "sal wa",
      "w la",
      "kha wla",
      "ji ha",
      "a zi",
      "azi za",
      "sa fae",
      "ilya s",
      "moh sin",
      "da i",
      "soufia n",
      "ta ha",
      "rah man",
      "abdel hak",
      "lou d",
      "amira t",
      "ssa l",
      "nour eddine",
      "sana a",
      "h d",
      "me ri",
      "f yan",
      "abdel ilah",
      "ha di",
      "ami r",
      "y o",
      "z ha",
      "abd rahim",
      "fa rah",
      "li na",
      "s lam",
      "fa a",
      "ta h",
      "mi ne",
      "ad na",
      "i a",
      "lay la",
      "hafid a",
      "ib tissam",
      "mi loud",
      "abde ssa",
      "za r",
      "ni zar",
      "naji b",
      "ha ir",
      "no ha",
      "g ha",
      "zou hir",
      "asma a",
      "h m",
      "a l",
      "kha lil",
      "abdela li",
      "mari am",
      "nor din",
      "oth mane",
      "la mia",
      "rad wan",
      "so ka",
      "wa fae",
      "l e",
      "mou hamed",
      "ghizla ne",
      "ha ti",
      "hati m",
      "cha ib",
      "m r",
      "sa b",
      "oua n",
      "abdela ziz",
      "mu stafa",
      "fa t",
      "mer yam",
      "ri a",
      "sa lim",
      "meri em",
      "red ouane",
      "moh ssin",
      "bi ba",
      "mo na",
      "naj wa",
      "you n",
      "raja e",
      "yassi r",
      "gha ni",
      "ti f",
      "ra n",
      "m hamed",
      "r bi",
      "la rbi",
      "bou chaib",
      "e f",
      "fa y",
      "maj da",
      "ya sin",
      "zou hair",
      "o ssama",
      "k h",
      "o m",
      "ne zha",
      "youss ra",
      "a ssi",
      "mo nir",
      "d ou",
      "dou nia",
      "ssi m",
      "so fia",
      "oth man",
      "y na",
      "hana e",
      "so so",
      "na t",
      "ss ma",
      "chayma e",
      "mari a",
      "abdel hadi",
      "ra nia",
      "sou mia",
      "haf sa",
      "abdessa mad",
      "w id",
      "i s",
      "mi n",
      "raja wi",
      "h bib",
      "ra zak",
      "a nou",
      "ssa ne",
      "abde rahim",
      "youss f",
      "anou ar",
      "k rim",
      "mbar k",
      "sa m",
      "i n",
      "mou ssa",
      "hou ssam",
      "lam ya",
      "s t",
      "ay mane",
      "m stafa",
      "mana r",
      "d er",
      "ka der",
      "abdel kader",
      "o mo",
      "ghi ta",
      "ma stafa",
      "hak ima",
      "abdel ghani",
      "sou ha",
      "ha bib",
      "wi ssal",
      "sa lam",
      "wa y",
      "tou fik",
      "le ila",
      "bi r",
      "chaima a",
      "ou tar",
      "ka outar",
      "zakari ya",
      "ri ta",
      "si ne",
      "yous ef",
      "sal ima",
      "assi a",
      "ha biba",
      "ta m",
      "az din",
      "ri n",
      "ho ssin",
      "rabi a",
      "ni s",
      "hamad a",
      "a kram",
      "so fyan",
      "nouha ila",
      "bo l",
      "zi a",
      "fou zia",
      "ba sma",
      "ot mane",
      "l o",
      "ab ou",
      "nour din",
      "ar bi",
      "oma yma",
      "e k",
      "sami a",
      "ya ne",
      "hi ra",
      "za hira",
      "mar ouane",
      "wi am",
      "abd al",
      "abdal lah",
      "ja lil",
      "do n",
      "r d",
      "mo n",
      "zak i",
      "s l",
      "fati m",
      "ma a",
      "war da",
      "id ri",
      "s m",
      "si mohamed",
      "h mad",
      "nour dine",
      "j e",
      "zo hra",
      "zi ko",
      "b d",
      "ta ou",
      "sab ah",
      "ghizla n",
      "oma ima",
      "jiha ne",
      "ala e",
      "sa ma",
      "ha y",
      "abde lah",
      "aziz e",
      "mh md",
      "fa hd",
      "yas mine",
      "adna n",
      "a id",
      "sa aid",
      "do ha",
      "tou ria",
      "k en",
      "wid ad",
      "ken za",
      "d oua",
      "sa d",
      "sa f",
      "ho da",
      "amirat o",
      "abde slam",
      "yous ra",
      "m id",
      "mid o",
      "o b",
      "ja nat",
      "ha ssane",
      "ri ne",
      "j id",
      "m jid",
      "ou ad",
      "ja ouad",
      "na bi",
      "wa faa",
      "nabi la",
      "ssa f",
      "zo hir",
      "dri s",
      "sa faa",
      "hbib t",
      "abder rahman",
      "ra f",
      "cha raf",
      "r o",
      "hou ssin",
      "mi mou",
      "mimou n",
      "di ma",
      "nour d",
      "ran ya",
      "fa tah",
      "sara h",
      "ou la",
      "kha oula",
      "ziz o",
      "taou fik",
      "raja a",
      "cha k",
      "red wan",
      "ho ssam",
      "fa l",
      "ab o",
      "yass mine",
      "adna ne",
      "b tissam",
      "ha j",
      "ch o",
      "t man",
      "idri ss",
      "sou fyan",
      "s en",
      "zi n",
      "moh md",
      "sa mad",
      "ya sse",
      "hou cine",
      "yasse r",
      "rita j",
      "sou sou",
      "ra yane",
      "ss ima",
      "h id",
      "mbar ek",
      "wa ssim",
      "i h",
      "mou nia",
      "c hir",
      "ba chir",
      "ni na",
      "ha b",
      "ri hab",
      "mou stapha",
      "mo mo",
      "moh ssine",
      "abdel krim",
      "marwa ne",
      "hay tam",
      "az z",
      "abdel majid",
      "red ouan",
      "abdel karim",
      "hou ssine",
      "yas min",
      "sa adi",
      "saadi a",
      "hm z",
      "ma ha",
      "abder rah",
      "abderrah mane",
      "d ya",
      "ham ou",
      "na dya",
      "rd wan",
      "ma ya",
      "wa fa",
      "lamya e",
      "ni ss",
      "sa bir",
      "fa rida",
      "j da",
      "moh cine",
      "wi jda",
      "ouma yma",
      "souka yna",
      "fay sal",
      "you ssaf",
      "abde latif",
      "b ab",
      "ha d",
      "ra bab",
      "ni had",
      "lamia e",
      "soka yna",
      "ab ir",
      "mo ad",
      "abd r",
      "b en",
      "di na",
      "mo kh",
      "mokh tar",
      "hi ja",
      "mou d",
      "ba hija",
      "ai ssa",
      "zak ia",
      "mah moud",
      "j ila",
      "ay ob",
      "souha il",
      "jila li",
      "ed ine",
      "abd ilah",
      "o sama",
      "a fa",
      "abd lah",
      "nourd dine",
      "ha way",
      "mah bol",
      "rabi e",
      "r da",
      "abdel jalil",
      "e g",
      "fatima zahra",
      "y la",
      "il ia",
      "mou stafa",
      "hasna e",
      "me st",
      "mest er",
      "sa fa",
      "abd la",
      "m ham",
      "ra cha",
      "za ka",
      "jiha n",
      "az dine",
      "a ti",
      "doua e",
      "ati ka",
      "a ssma",
      "l ed",
      "ri f",
      "ch oua",
      "kha led",
      "choua ib",
      "na ssim",
      "mohamad e",
      "youn s",
      "nis rin",
      "mar ya",
      "y em",
      "mar yem",
      "bad er",
      "hou ria",
      "mohamd e",
      "ho sin",
      "fat y",
      "ra e",
      "lay man",
      "yass min",
      "is rae",
      "im ran",
      "al lal",
      "w fal",
      "na wfal",
      "ch ta",
      "bou chta",
      "sa mar",
      "wa ne",
      "yas mina",
      "zin b",
      "h way",
      "s u",
      "yo ssef",
      "su is",
      "moh sine",
      "lo bna",
      "mi lo",
      "milo d",
      "naji m",
      "ko ko",
      "za id",
      "hamou da",
      "f t",
      "ra fik",
      "ti sam",
      "hou ssa",
      "haf ssa",
      "rid wan",
      "bad ar",
      "ha r",
      "sa har",
      "t ham",
      "tham i",
      "w san",
      "sa wsan",
      "ed c",
      "l haj",
      "nis rine",
      "ta n",
      "rad ouane",
      "ba ssma",
      "r ji",
      "na rji",
      "ba dia",
      "abder razak",
      "naji a",
      "e mad",
      "na ssima",
      "ss n",
      "me hamed",
      "fati i",
      "abdel k",
      "lah sen",
      "nor dine",
      "rah ma",
      "w fik",
      "ta wfik",
      "mar ouan",
      "fat na",
      "si f",
      "mari ya",
      "mon sif",
      "mi ya",
      "na di",
      "nadi r",
      "na zha",
      "ja d",
      "cha fik",
      "bo chra",
      "ha la",
      "me stafa",
      "ni hal",
      "hasna a",
      "fat tah",
      "h md",
      "abdel wa",
      "sl iman",
      "s n",
      "lh sn",
      "az eddine",
      "mh bol",
      "me n",
      "ay men",
      "youn sse",
      "abdl hak",
      "ina ss",
      "ha lim",
      "abdo lah",
      "sam ya",
      "mouh cine",
      "ala mi",
      "jiha d",
      "a tman",
      "fad oua",
      "mona im",
      "i slam",
      "l d",
      "w ld",
      "hana a",
      "abdl tif",
      "mouh ssine",
      "hid aya",
      "ri ham",
      "sofia n",
      "l ot",
      "w ha",
      "ja wha",
      "lot fi",
      "jawha ra",
      "m n",
      "zi nab",
      "a ad",
      "you na",
      "zi ad",
      "soka ina",
      "chak ir",
      "o me",
      "abdel tif",
      "ar wa",
      "sou maya",
      "ina s",
      "ala a",
      "fay ssal",
      "c ed",
      "ss lam",
      "n nat",
      "ha mo",
      "ja nnat",
      "abde rahman",
      "hamo da",
      "abdel hamid",
      "mah bo",
      "mahbo la",
      "r k",
      "youn ss",
      "sa di",
      "mari em",
      "sadi k",
      "h med",
      "la e",
      "ilya sse",
      "naj lae",
      "rabia a",
      "l lah",
      "ra y",
      "abdo llah",
      "ni m",
      "chak ib",
      "wijda n",
      "ra hal",
      "ya d",
      "zi yad",
      "la arbi",
      "abd rahman",
      "meri am",
      "noha yla",
      "t ri",
      "ti tri",
      "mouh ssin",
      "abdessa lam",
      "ih ssan",
      "titri t",
      "ka ram",
      "mou lay",
      "mou hamad",
      "niss rine",
      "abd samad",
      "j ou",
      "w s",
      "sse n",
      "fi rda",
      "so layman",
      "mah jou",
      "firda ws",
      "mahjou b",
      "a wa",
      "m hdi",
      "awa tif",
      "m ss",
      "ah md",
      "abdl hadi",
      "lh cen",
      "ilia s",
      "souha ila",
      "houssa in",
      "f o",
      "i tam",
      "ha itam",
      "ya sine",
      "lah san",
      "eg hd",
      "fo ad",
      "d j",
      "ja maa",
      "abdl krim",
      "dj di",
      "ma stapha",
      "ji ji",
      "wa c",
      "e z",
      "ou ah",
      "ou tman",
      "ka dija",
      "abdel ouah",
      "ih ssane",
      "ez zahra",
      "abdelouah ed",
      "h biba",
      "hbiba t",
      "ma t",
      "ma mat",
      "you saf",
      "abdel hakim",
      "abdl lah",
      "don ya",
      "c em",
      "ka cem",
      "hm za",
      "ha ji",
      "ou cine",
      "lah oucine",
      "haji ba",
      "wid adi",
      "doua a",
      "so ad",
      "mham med",
      "ch rif",
      "ai ssam",
      "yous f",
      "a imad",
      "r oma",
      "y sa",
      "rad ouan",
      "afa f",
      "roma ysa",
      "k ri",
      "l habib",
      "med o",
      "kri mo",
      "fati n",
      "abde razak",
      "azz eddine",
      "cha hid",
      "yass mina",
      "sab er",
      "m stapha",
      "ou sama",
      "abd latif",
      "fati ne",
      "di e",
      "wa die",
      "sal h",
      "wi sal",
      "youssf e",
      "narji s",
      "o fik",
      "t ofik",
      "ou i",
      "ala oui",
      "mr wan",
      "f e",
      "i ssal",
      "fa issal",
      "ka lid",
      "me hamad",
      "zo hair",
      "noha ila",
      "y d",
      "za yd",
      "marya ma",
      "r ya",
      "mal ek",
      "abdel malek",
      "mouh sin",
      "abdr rahim",
      "zaka rya",
      "b oua",
      "m st",
      "z za",
      "ri me",
      "boua zza",
      "mst r",
      "h ed",
      "ja li",
      "sal oua",
      "abdelwa hed",
      "jali la",
      "a ri",
      "b tisam",
      "abdo o",
      "hassna e",
      "ari j",
      "said e",
      "lh san",
      "lh sen",
      "taha r",
      "z ho",
      "ri fi",
      "zho r",
      "ja afa",
      "lamia a",
      "fay za",
      "jaafa r",
      "b k",
      "rachid e",
      "bou bk",
      "sl m",
      "boubk er",
      "fou d",
      "mah foud",
      "mi mon",
      "wa il",
      "ch di",
      "ro chdi",
      "mahbol t",
      "lah bib",
      "ho sam",
      "yo saf",
      "niss rin",
      "f tah",
      "in saf",
      "f yane",
      "m hamad",
      "z hou",
      "sou fyane",
      "zhou r",
      "ra dia",
      "ja wi",
      "moh emad",
      "rad wane",
      "tan jawi",
      "so miya",
      "ho ssine",
      "a si",
      "asi ya",
      "l ho",
      "t h",
      "y m",
      "y n",
      "sa yn",
      "fad ma",
      "mr ym",
      "lho sayn",
      "z id",
      "z zak",
      "ra zzak",
      "abd ssa",
      "ya zid",
      "youne sse",
      "so maya",
      "abder razzak",
      "ai b",
      "badr e",
      "cho aib",
      "abdssa mad",
      "c in",
      "e b",
      "y eb",
      "ta yeb",
      "moh cin",
      "wijda ne",
      "u ob",
      "wa hiba",
      "mar oua",
      "abdel hafid",
      "ay uob",
      "mhbol t",
      "cha dia",
      "abdla li",
      "e j",
      "f ti",
      "m med",
      "ou fal",
      "na oufal",
      "abd li",
      "ta ina",
      "moh mmed",
      "so mia",
      "bou taina",
      "red wane",
      "mh m",
      "rabi i",
      "mr yam",
      "cho cho",
      "marya me",
      "ej f",
      "abdli lah",
      "wa ssima",
      "cha ma",
      "sl imane",
      "b id",
      "c ef",
      "cham s",
      "bou je",
      "zou bid",
      "mon cef",
      "mham d",
      "youna s",
      "bouje maa",
      "zoubid a",
      "a ma",
      "g h",
      "m y",
      "ra ne",
      "abd razak",
      "zi gh",
      "sou ma",
      "im rane",
      "ray hana",
      "ama zigh",
      "me stapha",
      "mouna im",
      "abdelk bir",
      "h ssn",
      "n bi",
      "abde nbi",
      "ahmad e",
      "a g",
      "mo nim",
      "mi sse",
      "adi r",
      "ag adir",
      "a no",
      "mo aad",
      "ham d",
      "ka ya",
      "mou hamd",
      "ilham e",
      "ro kaya",
      "ano ir",
      "abdel fattah",
      "eg j",
      "oua lid",
      "lh ssn",
      "ss f",
      "abd slam",
      "mou loud",
      "yo ssf",
      "mo lay",
      "abde sslam",
      "mouh med",
      "naj oua",
      "sab rin",
      "a lal",
      "o c",
      "mar oc",
      "hassan ia",
      "sal m",
      "fatim zahra",
      "assma e",
      "a lah",
      "abd alah",
      "ta zi",
      "abdelk abir",
      "mahbola t",
      "si mou",
      "salah eddine",
      "lh ssen",
      "ilia ss",
      "l t",
      "ka lt",
      "imad e",
      "azz edine",
      "kalt oum",
      "f j",
      "g er",
      "h j",
      "i ssma",
      "ss m",
      "abde salam",
      "tan ger",
      "fj d",
      "hj r",
      "issma il",
      "n za",
      "ka nza",
      "oua fae",
      "yo ssaf",
      "assi ya",
      "k bir",
      "dri sse",
      "abdl kbir",
      "wal d",
      "lh ssan",
      "chayma a",
      "gha li",
      "b e",
      "i ssa",
      "na issa",
      "ri zla",
      "wa hd",
      "kha le",
      "abdel khale",
      "hicham e",
      "abdl wahd",
      "rk ia",
      "be naissa",
      "rizla n",
      "abdelkhale k",
      "i id",
      "s r",
      "sa iid",
      "abd salam",
      "mal k",
      "ib tisam",
      "nourd din",
      "ah emad",
      "mad rid",
      "siham e",
      "az edine",
      "k r",
      "mouh sine",
      "nouha yla",
      "kr m",
      "i k",
      "ra me",
      "na zi",
      "abdel mou",
      "ik rame",
      "nazi ha",
      "abdelmou la",
      "i ra",
      "k ab",
      "abdel hay",
      "idri ssi",
      "kab ira",
      "il lah",
      "abdel illah",
      "khalid e",
      "abdl ghani",
      "s f",
      "zakaria e",
      "zahra t",
      "yo sf",
      "habiba t",
      "m ra",
      "mra t",
      "a mouna",
      "l hossin",
      "mo ssa",
      "mohamed e",
      "cha hd",
      "zahra e",
      "i ta",
      "k ita",
      "ko kita",
      "e med",
      "s lim",
      "mo slim",
      "lah ssan",
      "moh emed",
      "nia ma",
      "maa ti",
      "a me",
      "h man",
      "sou miya",
      "wi ame",
      "abdr hman",
      "w el",
      "z m",
      "ana sse",
      "hou sin",
      "hass n",
      "kh dija",
      "wel d",
      "l ta",
      "so lta",
      "el mostafa",
      "badia a",
      "solta na",
      "l houcine",
      "ha q",
      "simo x",
      "abdel haq",
      "rita je",
      "i mo",
      "j maa",
      "m m",
      "si imo",
      "cha rk",
      "nour edine",
      "bou jmaa",
      "chark i",
      "i ss",
      "t id",
      "mi iss",
      "lamya a",
      "tid adi",
      "g haf",
      "l hak",
      "l hadi",
      "ou r",
      "fa ta",
      "abdel ghaf",
      "narji ss",
      "fata t",
      "abdelghaf our",
      "nou h",
      "nora din",
      "bd r",
      "f le",
      "u r",
      "la iman",
      "sou layman",
      "sou laiman",
      "fle ur",
      "d d",
      "i sslam",
      "o f",
      "brahim e",
      "mohmad e",
      "st of",
      "abdla ziz",
      "dd g",
      "t tah",
      "mou aad",
      "bou jamaa",
      "kh lid",
      "youns e",
      "fe ttah",
      "ti ssa",
      "si mohammed",
      "in tissa",
      "intissa r",
      "l tif",
      "l houssain",
      "x id",
      "z k",
      "ra xid",
      "is mal",
      "jawhara t",
      "ha sa",
      "mo ss",
      "ta fa",
      "azz dine",
      "hasa ne",
      "moss tafa",
      "s mo",
      "fi x",
      "sin yo",
      "ro fix",
      "sinyo rita",
      "mouh mad",
      "youna ss",
      "a rabi",
      "m ha",
      "mou ha",
      "nour e",
      "bou l",
      "el mehdi",
      "mah boul",
      "lh bib",
      "mbar ka",
      "mha nd",
      "y st",
      "ma yst",
      "sal hi",
      "bar him",
      "abdelwa hd",
      "mayst ro",
      "b do",
      "k w",
      "l hosin",
      "o ssef",
      "t r",
      "u ossef",
      "y uossef",
      "bo chaib",
      "kw tr",
      "l krim",
      "abd ali",
      "zinb e",
      "l l",
      "simo o",
      "n v",
      "mou nim",
      "sou so",
      "abdr zak",
      "romaysa e",
      "ha no",
      "abdel fatah",
      "lah ssen",
      "fi q",
      "abdela ali",
      "rajawi ya",
      "taou fiq",
      "hano na",
      "c ray",
      "n s",
      "y mar",
      "ed in",
      "na ymar",
      "oum nia",
      "az edin",
      "yo ns",
      "cray zi",
      "a il",
      "h ssan",
      "me ed",
      "sma ail",
      "i chra",
      "anas e",
      "fe s",
      "ichra k"
    ]
  }
}