{
  "version": "1.0",
  "truncation": null,
  "padding": null,
  "added_tokens": [
    {
      "id": 0,
      "content": "[UNK]",
      "single_word": false,
      "lstrip": false,
      "rstrip": false,
      "normalized": false,
      "special": true
    },
    {
      "id": 1,
      "content": "[CLS]",
      "single_word": false,
      "lstrip": false,
      "rstrip": false,
      "normalized": false,
      "special": true
    },
    {
      "id": 2,
      "content": "[SEP]",
      "single_word": false,
      "lstrip": false,
      "rstrip": false,
      "normalized": false,
      "special": true
    },
    {
      "id": 3,
      "content": "[PAD]",
      "single_word": false,
      "lstrip": false,
      "rstrip": false,
      "normalized": false,
      "special": true
    },
    {
      "id": 4,
      "content": "[MASK]",
      "single_word": false,
      "lstrip": false,
      "rstrip": false,
      "normalized": false,
      "special": true
    }
  ],
  "normalizer": null,
  "pre_tokenizer": {
    "type": "Whitespace"
  },
  "post_processor": null,
  "decoder": null,
  "model": {
    "type": "BPE",
    "dropout": null,
    "unk_token": "[UNK]",
    "continuing_subword_prefix": null,
    "end_of_word_suffix": null,
    "fuse_unk": false,
    "vocab": {
      "[UNK]": 0,
      "[CLS]": 1,
      "[SEP]": 2,
      "[PAD]": 3,
      "[MASK]": 4,
      "-": 5,
      "a": 6,
      "b": 7,
      "c": 8,
      "d": 9,
      "e": 10,
      "f": 11,
      "g": 12,
      "h": 13,
      "i": 14,
      "j": 15,
      "k": 16,
      "l": 17,
      "m": 18,
      "n": 19,
      "o": 20,
      "p": 21,
      "r": 22,
      "s": 23,
      "t": 24,
      "u": 25,
      "v": 26,
      "x": 27,
      "y": 28,
      "z": 29,
      "an": 30,
      "ar": 31,
      "na": 32,
      "mar": 33,
      "ana": 34,
      "ja": 35,
      "mi": 36,
      "ko": 37,
      "la": 38,
      "iv": 39,
      "ka": 40,
      "mari": 41,
      "ni": 42,
      "ti": 43,
      "or": 44,
      "ma": 45,
      "to": 46,
      "el": 47,
      "ra": 48,
      "te": 49,
      "ca": 50,
      "mir": 51,
      "ivan": 52,
      "da": 53,
      "ica": 54,
      "en": 55,
      "si": 56,
      "jo": 57,
      "ri": 58,
      "li": 59,
      "ena": 60,
      "je": 61,
      "ta": 62,
      "sla": 63,
      "slav": 64,
      "jana": 65,
      "tina": 66,
      "lu": 67,
      "ivana": 68,
      "sip": 69,
      "josip": 70,
      "ran": 71,
      "dra": 72,
      "marko": 73,
      "ani": 74,
      "marija": 75,
      "pe": 76,
      "ro": 77,
      "gor": 78,
      "mate": 79,
      "toni": 80,
      "di": 81,
      "re": 82,
      "jan": 83,
      "niko": 84,
      "vi": 85,
      "san": 86,
      "ari": 87,
      "ela": 88,
      "mislav": 89,
      "al": 90,
      "sa": 91,
      "pet": 92,
      "and": 93,
      "no": 94,
      "antoni": 95,
      "ris": 96,
      "luka": 97,
      "tomislav": 98,
      "do": 99,
      "mario": 100,
      "kris": 101,
      "dani": 102,
      "ve": 103,
      "jel": 104,
      "zel": 105,
      "ante": 106,
      "zelj": 107,
      "ara": 108,
      "kar": 109,
      "alen": 110,
      "vo": 111,
      "lo": 112,
      "le": 113,
      "ci": 114,
      "ju": 115,
      "ili": 116,
      "ru": 117,
      "er": 118,
      "du": 119,
      "bo": 120,
      "martina": 121,
      "ne": 122,
      "drag": 123,
      "marina": 124,
      "zana": 125,
      "bor": 126,
      "pa": 127,
      "ivica": 128,
      "de": 129,
      "nikola": 130,
      "maja": 131,
      "mil": 132,
      "fili": 133,
      "sna": 134,
      "filip": 135,
      "petra": 136,
      "lina": 137,
      "kat": 138,
      "antonio": 139,
      "bran": 140,
      "marin": 141,
      "kristina": 142,
      "ber": 143,
      "goran": 144,
      "zeljko": 145,
      "arina": 146,
      "katarina": 147,
      "mati": 148,
      "dari": 149,
      "cija": 150,
      "dar": 151,
      "andre": 152,
      "rena": 153,
      "damir": 154,
      "st": 155,
      "matija": 156,
      "fran": 157,
      "den": 158,
      "vla": 159,
      "zor": 160,
      "iva": 161,
      "sanja": 162,
      "mag": 163,
      "rober": 164,
      "dran": 165,
      "petar": 166,
      "nikolina": 167,
      "lucija": 168,
      "jela": 169,
      "valen": 170,
      "dor": 171,
      "vor": 172,
      "mih": 173,
      "nika": 174,
      "jelena": 175,
      "davor": 176,
      "ivo": 177,
      "sn": 178,
      "igor": 179,
      "karlo": 180,
      "mirjana": 181,
      "anja": 182,
      "kristi": 183,
      "runo": 184,
      "dana": 185,
      "leo": 186,
      "is": 187,
      "hr": 188,
      "hrvo": 189,
      "miha": 190,
      "pan": 191,
      "hrvoje": 192,
      "marijana": 193,
      "danijel": 194,
      "tin": 195,
      "robert": 196,
      "zen": 197,
      "nik": 198,
      "tko": 199,
      "stje": 200,
      "anita": 201,
      "vesna": 202,
      "stjepan": 203,
      "matea": 204,
      "sandra": 205,
      "josipa": 206,
      "zoran": 207,
      "mo": 208,
      "darko": 209,
      "ab": 210,
      "valentina": 211,
      "dario": 212,
      "snje": 213,
      "matej": 214,
      "snjezana": 215,
      "boz": 216,
      "tea": 217,
      "danijela": 218,
      "oj": 219,
      "kristijan": 220,
      "miro": 221,
      "nka": 222,
      "nata": 223,
      "sara": 224,
      "domag": 225,
      "domagoj": 226,
      "mla": 227,
      "mladen": 228,
      "lana": 229,
      "andrea": 230,
      "drazen": 231,
      "sti": 232,
      "domi": 233,
      "il": 234,
      "dominik": 235,
      "zeljka": 236,
      "deni": 237,
      "zvo": 238,
      "zla": 239,
      "jas": 240,
      "gordana": 241,
      "lj": 242,
      "iljana": 243,
      "kre": 244,
      "man": 245,
      "mateo": 246,
      "ton": 247,
      "sil": 248,
      "tri": 249,
      "patri": 250,
      "dino": 251,
      "vid": 252,
      "lor": 253,
      "lara": 254,
      "elena": 255,
      "antonija": 256,
      "nko": 257,
      "leon": 258,
      "ven": 259,
      "gab": 260,
      "bar": 261,
      "marijan": 262,
      "mara": 263,
      "jasmi": 264,
      "denis": 265,
      "lau": 266,
      "su": 267,
      "david": 268,
      "dija": 269,
      "bruno": 270,
      "anamarija": 271,
      "nina": 272,
      "tih": 273,
      "gabri": 274,
      "dan": 275,
      "boris": 276,
      "vko": 277,
      "vedran": 278,
      "bra": 279,
      "so": 280,
      "nada": 281,
      "ruz": 282,
      "dubra": 283,
      "jadran": 284,
      "ivona": 285,
      "nena": 286,
      "lju": 287,
      "rica": 288,
      "miroslav": 289,
      "suzana": 290,
      "vje": 291,
      "zlatko": 292,
      "monika": 293,
      "ljiljana": 294,
      "mihael": 295,
      "ste": 296,
      "eli": 297,
      "jasna": 298,
      "renata": 299,
      "mia": 300,
      "sasa": 301,
      "kica": 302,
      "bara": 303,
      "ine": 304,
      "barbara": 305,
      "ines": 306,
      "branko": 307,
      "milan": 308,
      "ale": 309,
      "branka": 310,
      "irena": 311,
      "dora": 312,
      "lov": 313,
      "martin": 314,
      "dali": 315,
      "lidija": 316,
      "ad": 317,
      "neven": 318,
      "simir": 319,
      "kresimir": 320,
      "jadranka": 321,
      "silvi": 322,
      "dalibor": 323,
      "helena": 324,
      "andri": 325,
      "tanja": 326,
      "karla": 327,
      "zdra": 328,
      "zden": 329,
      "stipe": 330,
      "dragan": 331,
      "zvoni": 332,
      "nisa": 333,
      "ivanka": 334,
      "sinisa": 335,
      "mirko": 336,
      "me": 337,
      "lija": 338,
      "dijana": 339,
      "zvonimir": 340,
      "laura": 341,
      "pau": 342,
      "se": 343,
      "ljub": 344,
      "lea": 345,
      "nenad": 346,
      "vka": 347,
      "mihaela": 348,
      "jako": 349,
      "kruno": 350,
      "sko": 351,
      "marta": 352,
      "lena": 353,
      "roko": 354,
      "natasa": 355,
      "vladi": 356,
      "dejan": 357,
      "mirela": 358,
      "mateja": 359,
      "ruzica": 360,
      "anton": 361,
      "jakov": 362,
      "mira": 363,
      "vladimir": 364,
      "ljubica": 365,
      "manu": 366,
      "jure": 367,
      "lorena": 368,
      "un": 369,
      "magda": 370,
      "tamara": 371,
      "antonia": 372,
      "nja": 373,
      "zdravko": 374,
      "ema": 375,
      "kati": 376,
      "ankica": 377,
      "stef": 378,
      "slavica": 379,
      "franjo": 380,
      "marica": 381,
      "magdalena": 382,
      "dragica": 383,
      "es": 384,
      "kt": 385,
      "vikt": 386,
      "viktor": 387,
      "jurica": 388,
      "patrik": 389,
      "borna": 390,
      "tiho": 391,
      "dubravka": 392,
      "daniel": 393,
      "lovro": 394,
      "paula": 395,
      "dur": 396,
      "alek": 397,
      "adri": 398,
      "tihomir": 399,
      "katica": 400,
      "vlado": 401,
      "tjana": 402,
      "tatjana": 403,
      "pero": 404,
      "tun": 405,
      "antun": 406,
      "andrija": 407,
      "andel": 408,
      "imir": 409,
      "maria": 410,
      "ija": 411,
      "enka": 412,
      "klara": 413,
      "dica": 414,
      "andela": 415,
      "bla": 416,
      "jasmina": 417,
      "va": 418,
      "anka": 419,
      "vinko": 420,
      "renato": 421,
      "andreja": 422,
      "antonela": 423,
      "tino": 424,
      "raj": 425,
      "leonar": 426,
      "silvija": 427,
      "natalija": 428,
      "nija": 429,
      "senija": 430,
      "drago": 431,
      "marijo": 432,
      "andrej": 433,
      "zdenka": 434,
      "tihana": 435,
      "vanja": 436,
      "ki": 437,
      "ksenija": 438,
      "bozica": 439,
      "duje": 440,
      "mato": 441,
      "rana": 442,
      "zri": 443,
      "edi": 444,
      "krunoslav": 445,
      "joz": 446,
      "durdica": 447,
      "tka": 448,
      "mirna": 449,
      "sime": 450,
      "drana": 451,
      "vedrana": 452,
      "anica": 453,
      "nino": 454,
      "ilija": 455,
      "sonja": 456,
      "slavko": 457,
      "karm": 458,
      "bojan": 459,
      "branimir": 460,
      "go": 461,
      "zrinka": 462,
      "van": 463,
      "nevenka": 464,
      "cia": 465,
      "frane": 466,
      "idar": 467,
      "bozidar": 468,
      "enko": 469,
      "kata": 470,
      "marino": 471,
      "dragana": 472,
      "vlatka": 473,
      "manuela": 474,
      "ol": 475,
      "visn": 476,
      "jasminka": 477,
      "dubravko": 478,
      "vjeko": 479,
      "marinko": 480,
      "ronika": 481,
      "veronika": 482,
      "gabrijela": 483,
      "in": 484,
      "doro": 485,
      "visnja": 486,
      "zvonko": 487,
      "ga": 488,
      "kristian": 489,
      "teo": 490,
      "zdenko": 491,
      "diana": 492,
      "eta": 493,
      "ba": 494,
      "blazen": 495,
      "josko": 496,
      "milj": 497,
      "anto": 498,
      "po": 499,
      "matko": 500,
      "stefica": 501,
      "milena": 502,
      "bi": 503,
      "dori": 504,
      "nar": 505,
      "bernar": 506,
      "meli": 507,
      "melita": 508,
      "jozo": 509,
      "vana": 510,
      "elvi": 511,
      "niv": 512,
      "nives": 513,
      "juraj": 514,
      "eri": 515,
      "tlana": 516,
      "darija": 517,
      "kreso": 518,
      "daniela": 519,
      "dam": 520,
      "valentino": 521,
      "doris": 522,
      "sandar": 523,
      "aleksandar": 524,
      "blazenka": 525,
      "hana": 526,
      "klau": 527,
      "miljenko": 528,
      "mile": 529,
      "karmen": 530,
      "manuel": 531,
      "bis": 532,
      "tena": 533,
      "erka": 534,
      "biserka": 535,
      "jer": 536,
      "cica": 537,
      "olina": 538,
      "vera": 539,
      "karolina": 540,
      "dean": 541,
      "danica": 542,
      "dorotea": 543,
      "sven": 544,
      "zab": 545,
      "mila": 546,
      "tajana": 547,
      "bozo": 548,
      "slaven": 549,
      "vil": 550,
      "tonci": 551,
      "mijo": 552,
      "tomo": 553,
      "biljana": 554,
      "ruza": 555,
      "viktorija": 556,
      "aleksandra": 557,
      "vjekoslav": 558,
      "ella": 559,
      "emi": 560,
      "cko": 561,
      "anamaria": 562,
      "nen": 563,
      "pao": 564,
      "lovre": 565,
      "gabriela": 566,
      "za": 567,
      "eva": 568,
      "zdana": 569,
      "bozena": 570,
      "andelko": 571,
      "pre": 572,
      "svje": 573,
      "dina": 574,
      "vito": 575,
      "predrag": 576,
      "svjetlana": 577,
      "andrijana": 578,
      "dajana": 579,
      "sanela": 580,
      "davorka": 581,
      "tomi": 582,
      "dunja": 583,
      "sre": 584,
      "milica": 585,
      "zorica": 586,
      "patricija": 587,
      "mana": 588,
      "romana": 589,
      "patricia": 590,
      "sladana": 591,
      "sta": 592,
      "silvana": 593,
      "srecko": 594,
      "milka": 595,
      "leonardo": 596,
      "dinko": 597,
      "ce": 598,
      "gabrijel": 599,
      "adrian": 600,
      "gi": 601,
      "anda": 602,
      "dorian": 603,
      "jko": 604,
      "jasmin": 605,
      "antea": 606,
      "neda": 607,
      "miho": 608,
      "slo": 609,
      "janja": 610,
      "bodan": 611,
      "slobodan": 612,
      "gordan": 613,
      "dado": 614,
      "andelka": 615,
      "oliv": 616,
      "gabriel": 617,
      "seba": 618,
      "sebasti": 619,
      "utin": 620,
      "zvje": 621,
      "dragutin": 622,
      "elvis": 623,
      "roman": 624,
      "rina": 625,
      "sanda": 626,
      "elizab": 627,
      "elizabeta": 628,
      "dro": 629,
      "sandro": 630,
      "daria": 631,
      "nikica": 632,
      "tere": 633,
      "frano": 634,
      "natali": 635,
      "anna": 636,
      "tonka": 637,
      "niksa": 638,
      "franko": 639,
      "silvio": 640,
      "roberto": 641,
      "senka": 642,
      "zlata": 643,
      "verica": 644,
      "emil": 645,
      "emanuel": 646,
      "min": 647,
      "stela": 648,
      "leonarda": 649,
      "duro": 650,
      "tomica": 651,
      "neno": 652,
      "zvjezdana": 653,
      "mor": 654,
      "rado": 655,
      "adriana": 656,
      "vale": 657,
      "rija": 658,
      "alan": 659,
      "valerija": 660,
      "veli": 661,
      "ida": 662,
      "vlasta": 663,
      "mihovil": 664,
      "gita": 665,
      "dusan": 666,
      "ned": 667,
      "sabi": 668,
      "sabina": 669,
      "simo": 670,
      "zar": 671,
      "zarko": 672,
      "damjan": 673,
      "paola": 674,
      "nela": 675,
      "brankica": 676,
      "leona": 677,
      "stella": 678,
      "katja": 679,
      "stefan": 680,
      "ia": 681,
      "klaudija": 682,
      "anko": 683,
      "stanko": 684,
      "franka": 685,
      "marg": 686,
      "bri": 687,
      "ljubo": 688,
      "lucia": 689,
      "meri": 690,
      "goga": 691,
      "durda": 692,
      "bl": 693,
      "blanka": 694,
      "bojana": 695,
      "marinela": 696,
      "roberta": 697,
      "edita": 698,
      "iris": 699,
      "ljer": 700,
      "mirta": 701,
      "ljerka": 702,
      "ang": 703,
      "dolor": 704,
      "dolores": 705,
      "ael": 706,
      "bernard": 707,
      "gr": 708,
      "velimir": 709,
      "ina": 710,
      "bernarda": 711,
      "vlatko": 712,
      "stipo": 713,
      "ijan": 714,
      "ren": 715,
      "zdravka": 716,
      "ole": 717,
      "dusko": 718,
      "adam": 719,
      "sel": 720,
      "sun": 721,
      "islav": 722,
      "sanj": 723,
      "jasenka": 724,
      "adrijana": 725,
      "ivano": 726,
      "mel": 727,
      "melani": 728,
      "perica": 729,
      "noa": 730,
      "drazenka": 731,
      "ap": 732,
      "bru": 733,
      "art": 734,
      "jerko": 735,
      "apart": 736,
      "bruna": 737,
      "jka": 738,
      "alma": 739,
      "klaudi": 740,
      "jago": 741,
      "eljko": 742,
      "jagoda": 743,
      "sr": 744,
      "darijo": 745,
      "esa": 746,
      "oliver": 747,
      "smil": 748,
      "stefani": 749,
      "samo": 750,
      "nor": 751,
      "manda": 752,
      "nora": 753,
      "mala": 754,
      "brigita": 755,
      "ivancica": 756,
      "ljka": 757,
      "sena": 758,
      "tara": 759,
      "antonijo": 760,
      "valentin": 761,
      "spo": 762,
      "andro": 763,
      "zeljana": 764,
      "darinka": 765,
      "glor": 766,
      "mun": 767,
      "simun": 768,
      "ch": 769,
      "zija": 770,
      "pav": 771,
      "vinka": 772,
      "pava": 773,
      "alenka": 774,
      "janko": 775,
      "erik": 776,
      "raf": 777,
      "emina": 778,
      "sanjin": 779,
      "beri": 780,
      "mare": 781,
      "gorana": 782,
      "berislav": 783,
      "areta": 784,
      "zora": 785,
      "margareta": 786,
      "julija": 787,
      "tereza": 788,
      "bozana": 789,
      "sebastijan": 790,
      "vili": 791,
      "juli": 792,
      "ben": 793,
      "marjan": 794,
      "jamin": 795,
      "benjamin": 796,
      "dorijan": 797,
      "dmila": 798,
      "radmila": 799,
      "mali": 800,
      "ive": 801,
      "ivka": 802,
      "jelica": 803,
      "pavo": 804,
      "vanesa": 805,
      "pavao": 806,
      "miki": 807,
      "rea": 808,
      "bosko": 809,
      "luca": 810,
      "elina": 811,
      "paulina": 812,
      "nedi": 813,
      "srdan": 814,
      "maro": 815,
      "ivor": 816,
      "kate": 817,
      "dea": 818,
      "ska": 819,
      "suncica": 820,
      "zorana": 821,
      "miso": 822,
      "robi": 823,
      "kiki": 824,
      "karmela": 825,
      "luci": 826,
      "blaz": 827,
      "arisa": 828,
      "essa": 829,
      "vanessa": 830,
      "ksa": 831,
      "nda": 832,
      "linda": 833,
      "sandi": 834,
      "menka": 835,
      "spomenka": 836,
      "tteo": 837,
      "matteo": 838,
      "jura": 839,
      "nera": 840,
      "tony": 841,
      "eu": 842,
      "fab": 843,
      "gen": 844,
      "toma": 845,
      "eugen": 846,
      "fabijan": 847,
      "danko": 848,
      "vena": 849,
      "nevena": 850,
      "julijana": 851,
      "lda": 852,
      "matilda": 853,
      "alex": 854,
      "angela": 855,
      "gri": 856,
      "jelka": 857,
      "ingri": 858,
      "ingrid": 859,
      "be": 860,
      "ratko": 861,
      "lora": 862,
      "mark": 863,
      "uro": 864,
      "mauro": 865,
      "tomislava": 866,
      "viole": 867,
      "ilja": 868,
      "ljilja": 869,
      "violeta": 870,
      "lukas": 871,
      "silvia": 872,
      "korina": 873,
      "masa": 874,
      "rade": 875,
      "milivo": 876,
      "jadranko": 877,
      "emilija": 878,
      "milivoj": 879,
      "dju": 880,
      "hn": 881,
      "john": 882,
      "katija": 883,
      "paolo": 884,
      "izab": 885,
      "romano": 886,
      "izabela": 887,
      "vita": 888,
      "em": 889,
      "larisa": 890,
      "ard": 891,
      "samir": 892,
      "davorin": 893,
      "olga": 894,
      "emma": 895,
      "vice": 896,
      "arijana": 897,
      "miranda": 898,
      "elvira": 899,
      "mina": 900,
      "nedjel": 901,
      "tibor": 902,
      "senad": 903,
      "emanuela": 904,
      "eni": 905,
      "max": 906,
      "gloria": 907,
      "ranko": 908,
      "milenko": 909,
      "kaja": 910,
      "rada": 911,
      "zelimir": 912,
      "mladenka": 913,
      "sebastian": 914,
      "ivna": 915,
      "zvone": 916,
      "simona": 917,
      "apartman": 918,
      "vilim": 919,
      "edo": 920,
      "misel": 921,
      "marije": 922,
      "marijeta": 923,
      "andelo": 924,
      "stefanija": 925,
      "ck": 926,
      "luna": 927,
      "patrick": 928,
      "adela": 929,
      "jsa": 930,
      "draz": 931,
      "ariana": 932,
      "bojsa": 933,
      "nebojsa": 934,
      "edin": 935,
      "tijana": 936,
      "boze": 937,
      "daliborka": 938,
      "viktoria": 939,
      "rajko": 940,
      "nensi": 941,
      "mirsa": 942,
      "joso": 943,
      "pavle": 944,
      "mich": 945,
      "pasko": 946,
      "michael": 947,
      "ljko": 948,
      "nediljko": 949,
      "grgo": 950,
      "klaudia": 951,
      "co": 952,
      "fija": 953,
      "neli": 954,
      "oz": 955,
      "rneli": 956,
      "korneli": 957,
      "sofija": 958,
      "rafael": 959,
      "ozren": 960,
      "kornelija": 961,
      "barica": 962,
      "tica": 963,
      "sve": 964,
      "amir": 965,
      "nadica": 966,
      "terezija": 967,
      "natalia": 968,
      "am": 969,
      "erika": 970,
      "morana": 971,
      "jda": 972,
      "jaksa": 973,
      "majda": 974,
      "dinka": 975,
      "smiljana": 976,
      "val": 977,
      "veljko": 978,
      "stipan": 979,
      "marjana": 980,
      "stevo": 981,
      "radojka": 982,
      "dusanka": 983,
      "ljubomir": 984,
      "teja": 985,
      "doroteja": 986,
      "rene": 987,
      "saman": 988,
      "samanta": 989,
      "rome": 990,
      "romeo": 991,
      "era": 992,
      "fe": 993,
      "ira": 994,
      "rtko": 995,
      "tv": 996,
      "milo": 997,
      "leonard": 998,
      "olivera": 999,
      "tvrtko": 1000,
      "milos": 1001,
      "ljuba": 1002,
      "lili": 1003,
      "romina": 1004,
      "duska": 1005,
      "silva": 1006,
      "cr": 1007,
      "brane": 1008,
      "branislav": 1009,
      "stanka": 1010,
      "morena": 1011,
      "aida": 1012,
      "edu": 1013,
      "lf": 1014,
      "dolf": 1015,
      "rudolf": 1016,
      "eduard": 1017,
      "goranka": 1018,
      "radovan": 1019,
      "nedeljko": 1020,
      "mija": 1021,
      "orad": 1022,
      "milorad": 1023,
      "vica": 1024,
      "alber": 1025,
      "boro": 1026,
      "adriano": 1027,
      "albert": 1028,
      "sarah": 1029,
      "andreas": 1030,
      "ho": 1031,
      "tom": 1032,
      "jere": 1033,
      "vlaho": 1034,
      "az": 1035,
      "emir": 1036,
      "lada": 1037,
      "klaudio": 1038,
      "azra": 1039,
      "anela": 1040,
      "vin": 1041,
      "ervin": 1042,
      "rino": 1043,
      "rebe": 1044,
      "nedjeljko": 1045,
      "rebeka": 1046,
      "borislav": 1047,
      "nikol": 1048,
      "paulo": 1049,
      "anislav": 1050,
      "stanislav": 1051,
      "vjeran": 1052,
      "rajka": 1053,
      "tome": 1054,
      "marinka": 1055,
      "gabi": 1056,
      "cela": 1057,
      "odrag": 1058,
      "marcela": 1059,
      "miodrag": 1060,
      "tia": 1061,
      "draga": 1062,
      "villa": 1063,
      "angelina": 1064,
      "sen": 1065,
      "fani": 1066,
      "biba": 1067,
      "gro": 1068,
      "ke": 1069,
      "mani": 1070,
      "tan": 1071,
      "tol": 1072,
      "ter": 1073,
      "zlatan": 1074,
      "bartol": 1075,
      "apartmani": 1076,
      "svetlana": 1077,
      "valter": 1078,
      "grozdana": 1079,
      "siljka": 1080,
      "pejo": 1081,
      "bosiljka": 1082,
      "miran": 1083,
      "ranka": 1084,
      "lucijana": 1085,
      "jica": 1086,
      "rd": 1087,
      "anasta": 1088,
      "djurd": 1089,
      "anastazija": 1090,
      "dada": 1091,
      "juro": 1092,
      "vanda": 1093,
      "klina": 1094,
      "andelina": 1095,
      "zaklina": 1096,
      "jla": 1097,
      "mu": 1098,
      "jovana": 1099,
      "aloj": 1100,
      "lejla": 1101,
      "pave": 1102,
      "alojz": 1103,
      "luce": 1104,
      "inga": 1105,
      "simon": 1106,
      "lucijan": 1107,
      "cole": 1108,
      "irina": 1109,
      "nicole": 1110,
      "eo": 1111,
      "ian": 1112,
      "eleo": 1113,
      "milana": 1114,
      "zorka": 1115,
      "eleonora": 1116,
      "iara": 1117,
      "lela": 1118,
      "chiara": 1119,
      "ha": 1120,
      "zara": 1121,
      "kika": 1122,
      "mirsad": 1123,
      "gn": 1124,
      "ir": 1125,
      "jen": 1126,
      "nan": 1127,
      "ogn": 1128,
      "sne": 1129,
      "almir": 1130,
      "ilijana": 1131,
      "adnan": 1132,
      "pavica": 1133,
      "irma": 1134,
      "ognjen": 1135,
      "snezana": 1136,
      "aela": 1137,
      "mico": 1138,
      "rafaela": 1139,
      "ama": 1140,
      "mand": 1141,
      "vida": 1142,
      "nevi": 1143,
      "nedo": 1144,
      "amalija": 1145,
      "mandica": 1146,
      "dejana": 1147,
      "zlatica": 1148,
      "divna": 1149,
      "flor": 1150,
      "kra": 1151,
      "drazena": 1152,
      "amela": 1153,
      "florijan": 1154,
      "ge": 1155,
      "seka": 1156,
      "tu": 1157,
      "jovan": 1158,
      "bartu": 1159,
      "megi": 1160,
      "bartul": 1161,
      "hari": 1162,
      "vilma": 1163,
      "selma": 1164,
      "haris": 1165,
      "goj": 1166,
      "kora": 1167,
      "rudi": 1168,
      "gojko": 1169,
      "koraljka": 1170,
      "senada": 1171,
      "arita": 1172,
      "stije": 1173,
      "dane": 1174,
      "stefano": 1175,
      "margarita": 1176,
      "ffe": 1177,
      "margita": 1178,
      "caffe": 1179,
      "filipa": 1180,
      "crni": 1181,
      "djana": 1182,
      "sladjana": 1183,
      "zlatka": 1184,
      "loris": 1185,
      "smilja": 1186,
      "glorija": 1187,
      "evica": 1188,
      "damira": 1189,
      "ciska": 1190,
      "franciska": 1191,
      "vjera": 1192,
      "manja": 1193,
      "sela": 1194,
      "eno": 1195,
      "vest": 1196,
      "nemanja": 1197,
      "borka": 1198,
      "silvest": 1199,
      "moreno": 1200,
      "silvestar": 1201,
      "una": 1202,
      "ziv": 1203,
      "miljenka": 1204,
      "zivko": 1205,
      "enes": 1206,
      "pere": 1207,
      "bobo": 1208,
      "vitomir": 1209,
      "ali": 1210,
      "lovor": 1211,
      "djuro": 1212,
      "alisa": 1213,
      "lovorka": 1214,
      "ks": 1215,
      "maks": 1216,
      "slavka": 1217,
      "stana": 1218,
      "miroslava": 1219,
      "grga": 1220,
      "ef": 1221,
      "hela": 1222,
      "armin": 1223,
      "rahela": 1224,
      "tadija": 1225,
      "lukre": 1226,
      "vicko": 1227,
      "vlade": 1228,
      "dorde": 1229,
      "jozef": 1230,
      "lukrecija": 1231,
      "jozefina": 1232,
      "cana": 1233,
      "gu": 1234,
      "jam": 1235,
      "mirjam": 1236,
      "grgu": 1237,
      "suncana": 1238,
      "grgur": 1239,
      "elvir": 1240,
      "cvita": 1241,
      "andjelka": 1242,
      "djurdjica": 1243,
      "pol": 1244,
      "sto": 1245,
      "mima": 1246,
      "josa": 1247,
      "aljosa": 1248,
      "leopol": 1249,
      "stjep": 1250,
      "cedo": 1251,
      "bepo": 1252,
      "drazan": 1253,
      "leopold": 1254,
      "ane": 1255,
      "zrinko": 1256,
      "emili": 1257,
      "maroje": 1258,
      "kle": 1259,
      "ljana": 1260,
      "men": 1261,
      "liljana": 1262,
      "sanel": 1263,
      "klemen": 1264,
      "klementina": 1265,
      "ozana": 1266,
      "vanka": 1267,
      "jovanka": 1268,
      "luana": 1269,
      "adrijan": 1270,
      "blazenko": 1271,
      "aneta": 1272,
      "nije": 1273,
      "andjel": 1274,
      "tonko": 1275,
      "nediljka": 1276,
      "andjelko": 1277,
      "arsen": 1278,
      "med": 1279,
      "jakob": 1280,
      "slobodanka": 1281,
      "melanija": 1282,
      "keti": 1283,
      "muha": 1284,
      "muhamed": 1285,
      "op": 1286,
      "oki": 1287,
      "zoki": 1288,
      "ladi": 1289,
      "vije": 1290,
      "dujo": 1291,
      "silvijo": 1292,
      "sead": 1293,
      "opg": 1294,
      "ladislav": 1295,
      "admir": 1296,
      "joza": 1297,
      "nevio": 1298,
      "arijan": 1299,
      "dobri": 1300,
      "jozica": 1301,
      "mirsada": 1302,
      "dobrila": 1303,
      "adi": 1304,
      "bu": 1305,
      "ner": 1306,
      "luksa": 1307,
      "adis": 1308,
      "buba": 1309,
      "nermin": 1310,
      "jlo": 1311,
      "lenka": 1312,
      "mihajlo": 1313,
      "jole": 1314,
      "toncica": 1315,
      "bernardica": 1316,
      "antica": 1317,
      "maca": 1318,
      "braco": 1319,
      "silvije": 1320,
      "gra": 1321,
      "ancica": 1322,
      "andja": 1323,
      "zeljkica": 1324,
      "netko": 1325,
      "dalija": 1326,
      "amra": 1327,
      "djan": 1328,
      "safe": 1329,
      "iskra": 1330,
      "danka": 1331,
      "blaza": 1332,
      "olja": 1333,
      "srdjan": 1334,
      "safet": 1335,
      "as": 1336,
      "din": 1337,
      "cilija": 1338,
      "gospo": 1339,
      "cecilija": 1340,
      "nedjeljka": 1341,
      "asja": 1342,
      "gospodin": 1343,
      "nat": 1344,
      "roza": 1345,
      "donat": 1346,
      "vesela": 1347,
      "neva": 1348,
      "deana": 1349,
      "ninoslav": 1350,
      "velibor": 1351,
      "rozalija": 1352,
      "fi": 1353,
      "ser": 1354,
      "mirica": 1355,
      "vit": 1356,
      "pajo": 1357,
      "devit": 1358,
      "ljudevit": 1359,
      "radoslav": 1360,
      "enis": 1361,
      "sendi": 1362,
      "gej": 1363,
      "stijepo": 1364,
      "finka": 1365,
      "sergej": 1366,
      "anamari": 1367,
      "drasko": 1368,
      "roki": 1369,
      "nikole": 1370,
      "zeljan": 1371,
      "vjekoslava": 1372,
      "crna": 1373,
      "nikoleta": 1374,
      "boba": 1375,
      "duda": 1376,
      "domina": 1377,
      "dv": 1378,
      "edv": 1379,
      "ty": 1380,
      "zimir": 1381,
      "kazimir": 1382,
      "mam": 1383,
      "jovica": 1384,
      "nemam": 1385,
      "darjan": 1386,
      "kristijana": 1387,
      "esad": 1388,
      "kety": 1389,
      "edvard": 1390,
      "tro": 1391,
      "darka": 1392,
      "vatro": 1393,
      "vatroslav": 1394,
      "nitko": 1395,
      "andjela": 1396,
      "andriana": 1397,
      "vladimira": 1398,
      "rajna": 1399,
      "ije": 1400,
      "isa": 1401,
      "pimir": 1402,
      "rpimir": 1403,
      "trpimir": 1404,
      "anci": 1405,
      "teta": 1406,
      "sladan": 1407,
      "slavisa": 1408,
      "rozana": 1409,
      "rosanda": 1410,
      "vila": 1411,
      "pavla": 1412,
      "alojzije": 1413,
      "ec": 1414,
      "iko": 1415,
      "ornela": 1416,
      "zeljo": 1417,
      "dragec": 1418,
      "milanka": 1419,
      "smiljan": 1420,
      "ivek": 1421,
      "iro": 1422,
      "pica": 1423,
      "piro": 1424,
      "spiro": 1425,
      "natko": 1426,
      "nadija": 1427,
      "eljka": 1428,
      "matia": 1429,
      "darijan": 1430,
      "stipica": 1431,
      "nedeljka": 1432,
      "divo": 1433,
      "gica": 1434,
      "her": 1435,
      "zvonka": 1436,
      "dragomir": 1437,
      "vanna": 1438,
      "olgica": 1439,
      "sanjica": 1440,
      "mijat": 1441,
      "stojan": 1442,
      "hermina": 1443,
      "pje": 1444,
      "zivana": 1445,
      "zdan": 1446,
      "misko": 1447,
      "rok": 1448,
      "duka": 1449,
      "matijas": 1450,
      "hrvojka": 1451,
      "marijanka": 1452,
      "nevenko": 1453,
      "zvjezdan": 1454,
      "mujo": 1455,
      "gea": 1456,
      "pjero": 1457,
      "ag": 1458,
      "fer": 1459,
      "mer": 1460,
      "marela": 1461,
      "lim": 1462,
      "volim": 1463,
      "ilinka": 1464,
      "neza": 1465,
      "borko": 1466,
      "emica": 1467,
      "stjepko": 1468,
      "cedomir": 1469,
      "agneza": 1470,
      "ferdo": 1471,
      "merica": 1472,
      "iz": 1473,
      "ilo": 1474,
      "idor": 1475,
      "jakica": 1476,
      "korana": 1477,
      "boki": 1478,
      "desa": 1479,
      "milenka": 1480,
      "kristinka": 1481,
      "baka": 1482,
      "julijan": 1483,
      "sveto": 1484,
      "kralj": 1485,
      "izidor": 1486,
      "ilonka": 1487,
      "cro": 1488,
      "vesel": 1489,
      "visnjica": 1490,
      "djurdja": 1491,
      "veselko": 1492,
      "sica": 1493,
      "sanka": 1494,
      "dusica": 1495,
      "desanka": 1496,
      "radomir": 1497,
      "inace": 1498,
      "tar": 1499,
      "zvije": 1500,
      "mitar": 1501,
      "kono": 1502,
      "marijela": 1503,
      "nica": 1504,
      "jovo": 1505,
      "drazana": 1506,
      "dule": 1507,
      "nea": 1508,
      "jasnica": 1509,
      "valnea": 1510,
      "stijepan": 1511,
      "zvijezdana": 1512,
      "konoba": 1513,
      "jdi": 1514,
      "liv": 1515,
      "jele": 1516,
      "valent": 1517,
      "moj": 1518,
      "hajdi": 1519,
      "stjepana": 1520,
      "livija": 1521,
      "zde": 1522,
      "cijela": 1523,
      "darinko": 1524,
      "dorja": 1525,
      "tonkica": 1526,
      "nevia": 1527,
      "gracijela": 1528,
      "zdeslav": 1529,
      "kr": 1530,
      "svije": 1531,
      "tatijana": 1532,
      "danira": 1533,
      "bozen": 1534,
      "zorislav": 1535,
      "danci": 1536,
      "krsto": 1537,
      "svijetlana": 1538,
      "bozenka": 1539,
      "vojko": 1540,
      "misela": 1541,
      "vibor": 1542,
      "franica": 1543,
      "drazenko": 1544,
      "br": 1545,
      "barisa": 1546,
      "dru": 1547,
      "inja": 1548,
      "udru": 1549,
      "ivanko": 1550,
      "jopa": 1551,
      "zvonimira": 1552,
      "srebr": 1553,
      "udruga": 1554,
      "srebrenka": 1555,
      "cel": 1556,
      "mka": 1557,
      "pcel": 1558,
      "arst": 1559,
      "snjeza": 1560,
      "alemka": 1561,
      "pcelarst": 1562,
      "pcelarstvo": 1563,
      "gracija": 1564
    },
    "merges": [
      "a n",
      "a r",
      "n a",
      "m ar",
      "an a",
      "j a",
      "m i",
      "k o",
      "l a",
      "i v",
      "k a",
      "mar i",
      "n i",
      "t i",
      "o r",
      "m a",
      "t o",
      "e l",
      "r a",
      "t e",
      "c a",
      "mi r",
      "iv an",
      "d a",
      "i ca",
      "e n",
      "s i",
      "j o",
      "r i",
      "l i",
      "e na",
      "j e",
      "t a",
      "s la",
      "sla v",
      "j ana",
      "ti na",
      "l u",
      "iv ana",
      "si p",
      "jo sip",
      "r an",
      "d ra",
      "mar ko",
      "an i",
      "mari ja",
      "p e",
      "r o",
      "g or",
      "ma te",
      "to ni",
      "d i",
      "r e",
      "j an",
      "ni ko",
      "v i",
      "s an",
      "ar i",
      "e la",
      "mi slav",
      "a l",
      "s a",
      "pe t",
      "an d",
      "n o",
      "an toni",
      "ri s",
      "lu ka",
      "to mislav",
      "d o",
      "mari o",
      "k ris",
      "d ani",
      "v e",
      "j el",
      "z el",
      "an te",
      "zel j",
      "ar a",
      "k ar",
      "al en",
      "v o",
      "l o",
      "l e",
      "c i",
      "j u",
      "i li",
      "r u",
      "e r",
      "d u",
      "b o",
      "mar tina",
      "n e",
      "dra g",
      "mari na",
      "z ana",
      "b or",
      "p a",
      "iv ica",
      "d e",
      "niko la",
      "ma ja",
      "mi l",
      "f ili",
      "s na",
      "fili p",
      "pet ra",
      "li na",
      "ka t",
      "antoni o",
      "b ran",
      "mari n",
      "kris tina",
      "b er",
      "gor an",
      "zelj ko",
      "ari na",
      "kat arina",
      "ma ti",
      "d ari",
      "ci ja",
      "d ar",
      "and re",
      "r ena",
      "da mir",
      "s t",
      "mati ja",
      "f ran",
      "d en",
      "v la",
      "z or",
      "iv a",
      "san ja",
      "ma g",
      "ro ber",
      "d ran",
      "pet ar",
      "niko lina",
      "lu cija",
      "je la",
      "v alen",
      "d or",
      "v or",
      "mi h",
      "ni ka",
      "jel ena",
      "da vor",
      "iv o",
      "s n",
      "i gor",
      "kar lo",
      "mir jana",
      "an ja",
      "kris ti",
      "ru no",
      "d ana",
      "le o",
      "i s",
      "h r",
      "hr vo",
      "mih a",
      "p an",
      "hrvo je",
      "mari jana",
      "dani jel",
      "ti n",
      "rober t",
      "z en",
      "ni k",
      "t ko",
      "st je",
      "ani ta",
      "ve sna",
      "stje pan",
      "mate a",
      "san dra",
      "josip a",
      "zor an",
      "m o",
      "dar ko",
      "a b",
      "valen tina",
      "dari o",
      "sn je",
      "mate j",
      "snje zana",
      "bo z",
      "te a",
      "dani jela",
      "o j",
      "kristi jan",
      "mir o",
      "n ka",
      "na ta",
      "s ara",
      "do mag",
      "domag oj",
      "m la",
      "mla den",
      "l ana",
      "andre a",
      "dra zen",
      "s ti",
      "do mi",
      "i l",
      "domi nik",
      "zelj ka",
      "de ni",
      "z vo",
      "z la",
      "ja s",
      "gor dana",
      "l j",
      "il jana",
      "k re",
      "m an",
      "mate o",
      "to n",
      "si l",
      "t ri",
      "pa tri",
      "di no",
      "vi d",
      "l or",
      "l ara",
      "el ena",
      "antoni ja",
      "n ko",
      "leo n",
      "v en",
      "g ab",
      "b ar",
      "mari jan",
      "mar a",
      "jas mi",
      "deni s",
      "la u",
      "s u",
      "da vid",
      "di ja",
      "b runo",
      "ana marija",
      "ni na",
      "ti h",
      "gab ri",
      "d an",
      "bor is",
      "v ko",
      "ve dran",
      "b ra",
      "s o",
      "na da",
      "ru z",
      "du bra",
      "ja dran",
      "ivo na",
      "n ena",
      "l ju",
      "r ica",
      "miro slav",
      "su zana",
      "v je",
      "zla tko",
      "mo nika",
      "lj iljana",
      "miha el",
      "s te",
      "el i",
      "ja sna",
      "rena ta",
      "mi a",
      "sa sa",
      "k ica",
      "b ara",
      "i ne",
      "bar bara",
      "ine s",
      "bran ko",
      "mil an",
      "al e",
      "bran ka",
      "i rena",
      "dor a",
      "lo v",
      "mar tin",
      "da li",
      "li dija",
      "a d",
      "ne ven",
      "si mir",
      "kre simir",
      "jadran ka",
      "sil vi",
      "dali bor",
      "h elena",
      "and ri",
      "t anja",
      "kar la",
      "z dra",
      "z den",
      "sti pe",
      "drag an",
      "zvo ni",
      "ni sa",
      "ivan ka",
      "si nisa",
      "mir ko",
      "m e",
      "li ja",
      "di jana",
      "zvoni mir",
      "lau ra",
      "pa u",
      "s e",
      "lju b",
      "le a",
      "nena d",
      "v ka",
      "miha ela",
      "ja ko",
      "k runo",
      "s ko",
      "mar ta",
      "l ena",
      "ro ko",
      "nata sa",
      "vla di",
      "de jan",
      "mir ela",
      "mate ja",
      "ruz ica",
      "an ton",
      "jako v",
      "mi ra",
      "vladi mir",
      "ljub ica",
      "man u",
      "ju re",
      "lor ena",
      "u n",
      "mag da",
      "ta mara",
      "antoni a",
      "n ja",
      "zdra vko",
      "e ma",
      "ka ti",
      "an kica",
      "ste f",
      "slav ica",
      "fran jo",
      "mari ca",
      "magda lena",
      "drag ica",
      "e s",
      "k t",
      "vi kt",
      "vikt or",
      "ju rica",
      "patri k",
      "bor na",
      "tih o",
      "dubra vka",
      "dani el",
      "lov ro",
      "pau la",
      "du r",
      "ale k",
      "ad ri",
      "tiho mir",
      "kati ca",
      "vla do",
      "t jana",
      "ta tjana",
      "pe ro",
      "t un",
      "an tun",
      "andri ja",
      "and el",
      "i mir",
      "mari a",
      "i ja",
      "en ka",
      "k lara",
      "d ica",
      "and ela",
      "b la",
      "jasmi na",
      "v a",
      "an ka",
      "vi nko",
      "rena to",
      "andre ja",
      "anton ela",
      "ti no",
      "ra j",
      "leon ar",
      "silvi ja",
      "nata lija",
      "ni ja",
      "se nija",
      "drag o",
      "mari jo",
      "andre j",
      "zden ka",
      "tih ana",
      "v anja",
      "k i",
      "k senija",
      "boz ica",
      "du je",
      "ma to",
      "r ana",
      "z ri",
      "e di",
      "kruno slav",
      "jo z",
      "dur dica",
      "t ka",
      "mir na",
      "si me",
      "d rana",
      "ve drana",
      "an ica",
      "ni no",
      "ili ja",
      "so nja",
      "slav ko",
      "kar m",
      "bo jan",
      "bran imir",
      "g o",
      "zri nka",
      "v an",
      "neven ka",
      "ci a",
      "fran e",
      "i dar",
      "boz idar",
      "en ko",
      "ka ta",
      "mari no",
      "drag ana",
      "vla tka",
      "manu ela",
      "o l",
      "vi sn",
      "jasmi nka",
      "dubra vko",
      "vje ko",
      "marin ko",
      "ro nika",
      "ve ronika",
      "gabri jela",
      "i n",
      "dor o",
      "visn ja",
      "zvo nko",
      "g a",
      "kristi an",
      "te o",
      "zden ko",
      "di ana",
      "e ta",
      "b a",
      "bla zen",
      "jo sko",
      "mil j",
      "an to",
      "p o",
      "ma tko",
      "stef ica",
      "mil ena",
      "b i",
      "dor i",
      "n ar",
      "ber nar",
      "m eli",
      "meli ta",
      "joz o",
      "v ana",
      "el vi",
      "n iv",
      "niv es",
      "ju raj",
      "e ri",
      "t lana",
      "dari ja",
      "kre so",
      "dani ela",
      "da m",
      "valen tino",
      "dor is",
      "san dar",
      "alek sandar",
      "blazen ka",
      "h ana",
      "k lau",
      "milj enko",
      "mi le",
      "karm en",
      "manu el",
      "b is",
      "te na",
      "er ka",
      "bis erka",
      "je r",
      "c ica",
      "o lina",
      "ve ra",
      "kar olina",
      "de an",
      "dan ica",
      "doro tea",
      "s ven",
      "z ab",
      "mi la",
      "ta jana",
      "boz o",
      "slav en",
      "vi l",
      "ton ci",
      "mi jo",
      "to mo",
      "b iljana",
      "ruz a",
      "viktor ija",
      "alek sandra",
      "vjeko slav",
      "el la",
      "e mi",
      "c ko",
      "ana maria",
      "n en",
      "pa o",
      "lov re",
      "gabri ela",
      "z a",
      "e va",
      "z dana",
      "boz ena",
      "andel ko",
      "p re",
      "s vje",
      "di na",
      "vi to",
      "pre drag",
      "svje tlana",
      "andri jana",
      "da jana",
      "san ela",
      "davor ka",
      "to mi",
      "du nja",
      "s re",
      "mil ica",
      "zor ica",
      "patri cija",
      "m ana",
      "ro mana",
      "patri cia",
      "sla dana",
      "s ta",
      "sil vana",
      "sre cko",
      "mil ka",
      "leonar do",
      "di nko",
      "c e",
      "gabri jel",
      "adri an",
      "g i",
      "an da",
      "dori an",
      "j ko",
      "jasmi n",
      "ante a",
      "ne da",
      "mih o",
      "s lo",
      "jan ja",
      "bo dan",
      "slo bodan",
      "gor dan",
      "da do",
      "andel ka",
      "ol iv",
      "gabri el",
      "se ba",
      "seba sti",
      "u tin",
      "z vje",
      "drag utin",
      "elvi s",
      "ro man",
      "ri na",
      "san da",
      "eli zab",
      "elizab eta",
      "d ro",
      "san dro",
      "dari a",
      "nik ica",
      "te re",
      "fran o",
      "nata li",
      "an na",
      "to nka",
      "nik sa",
      "fran ko",
      "silvi o",
      "rober to",
      "s enka",
      "zla ta",
      "ve rica",
      "e mil",
      "e manuel",
      "mi n",
      "ste la",
      "leonar da",
      "du ro",
      "tomi ca",
      "nen o",
      "zvje zdana",
      "m or",
      "ra do",
      "adri ana",
      "v ale",
      "ri ja",
      "al an",
      "vale rija",
      "v eli",
      "i da",
      "vla sta",
      "miho vil",
      "gi ta",
      "du san",
      "ne d",
      "sa bi",
      "sabi na",
      "si mo",
      "z ar",
      "zar ko",
      "dam jan",
      "pao la",
      "n ela",
      "bran kica",
      "leo na",
      "st ella",
      "kat ja",
      "stef an",
      "i a",
      "klau dija",
      "an ko",
      "st anko",
      "fran ka",
      "mar g",
      "b ri",
      "lju bo",
      "lu cia",
      "me ri",
      "go ga",
      "dur da",
      "b l",
      "bl anka",
      "bo jana",
      "marin ela",
      "rober ta",
      "edi ta",
      "i ris",
      "l jer",
      "mir ta",
      "ljer ka",
      "an g",
      "do lor",
      "dolor es",
      "a el",
      "bernar d",
      "g r",
      "veli mir",
      "i na",
      "bernar da",
      "vla tko",
      "sti po",
      "i jan",
      "r en",
      "zdra vka",
      "o le",
      "du sko",
      "a dam",
      "s el",
      "su n",
      "i slav",
      "san j",
      "jas enka",
      "adri jana",
      "ivan o",
      "m el",
      "mel ani",
      "pe rica",
      "no a",
      "drazen ka",
      "a p",
      "b ru",
      "ar t",
      "jer ko",
      "ap art",
      "bru na",
      "j ka",
      "al ma",
      "klau di",
      "ja go",
      "el jko",
      "jago da",
      "s r",
      "dari jo",
      "e sa",
      "oliv er",
      "s mil",
      "stef ani",
      "sa mo",
      "n or",
      "man da",
      "nor a",
      "ma la",
      "bri gita",
      "ivan cica",
      "lj ka",
      "s ena",
      "t ara",
      "antoni jo",
      "valen tin",
      "s po",
      "and ro",
      "zel jana",
      "dari nka",
      "g lor",
      "m un",
      "si mun",
      "c h",
      "z ija",
      "pa v",
      "vi nka",
      "pa va",
      "alen ka",
      "jan ko",
      "eri k",
      "ra f",
      "emi na",
      "sanj in",
      "b eri",
      "mar e",
      "gor ana",
      "beri slav",
      "ar eta",
      "zor a",
      "marg areta",
      "ju lija",
      "tere za",
      "bo zana",
      "sebasti jan",
      "vi li",
      "ju li",
      "b en",
      "mar jan",
      "ja min",
      "ben jamin",
      "dori jan",
      "d mila",
      "ra dmila",
      "ma li",
      "iv e",
      "iv ka",
      "jel ica",
      "pa vo",
      "van esa",
      "pava o",
      "mi ki",
      "re a",
      "bo sko",
      "lu ca",
      "eli na",
      "pau lina",
      "ne di",
      "sr dan",
      "mar o",
      "iv or",
      "ka te",
      "de a",
      "s ka",
      "sun cica",
      "zor ana",
      "mi so",
      "ro bi",
      "ki ki",
      "karm ela",
      "lu ci",
      "bla z",
      "ari sa",
      "es sa",
      "van essa",
      "k sa",
      "n da",
      "li nda",
      "san di",
      "m enka",
      "spo menka",
      "t teo",
      "ma tteo",
      "ju ra",
      "ne ra",
      "ton y",
      "e u",
      "f ab",
      "g en",
      "to ma",
      "eu gen",
      "fab ijan",
      "dan ko",
      "v ena",
      "ne vena",
      "juli jana",
      "l da",
      "mati lda",
      "ale x",
      "ang ela",
      "g ri",
      "jel ka",
      "in gri",
      "ingri d",
      "b e",
      "ra tko",
      "lor a",
      "mar k",
      "u ro",
      "ma uro",
      "tomislav a",
      "vi ole",
      "il ja",
      "lj ilja",
      "viole ta",
      "luka s",
      "silvi a",
      "ko rina",
      "ma sa",
      "ra de",
      "mil ivo",
      "jadran ko",
      "emi lija",
      "milivo j",
      "d ju",
      "h n",
      "jo hn",
      "kati ja",
      "pao lo",
      "i zab",
      "roman o",
      "izab ela",
      "vi ta",
      "e m",
      "l arisa",
      "ar d",
      "sa mir",
      "davor in",
      "ol ga",
      "em ma",
      "vi ce",
      "ari jana",
      "mir anda",
      "elvi ra",
      "mi na",
      "ned jel",
      "ti bor",
      "sena d",
      "e manuela",
      "e ni",
      "ma x",
      "glor ia",
      "ran ko",
      "mil enko",
      "ka ja",
      "ra da",
      "zel imir",
      "mladen ka",
      "sebasti an",
      "iv na",
      "zvo ne",
      "simo na",
      "apart man",
      "vili m",
      "e do",
      "mi sel",
      "mari je",
      "marije ta",
      "andel o",
      "stefani ja",
      "c k",
      "lu na",
      "patri ck",
      "ad ela",
      "j sa",
      "dra z",
      "ari ana",
      "bo jsa",
      "ne bojsa",
      "edi n",
      "ti jana",
      "boz e",
      "dalibor ka",
      "viktor ia",
      "raj ko",
      "nen si",
      "mir sa",
      "jo so",
      "pav le",
      "mi ch",
      "pa sko",
      "mich ael",
      "lj ko",
      "nedi ljko",
      "gr go",
      "klaudi a",
      "c o",
      "f ija",
      "n eli",
      "o z",
      "r neli",
      "ko rneli",
      "so fija",
      "raf ael",
      "oz ren",
      "korneli ja",
      "bar ica",
      "ti ca",
      "s ve",
      "a mir",
      "na dica",
      "tere zija",
      "natali a",
      "a m",
      "eri ka",
      "mor ana",
      "j da",
      "ja ksa",
      "ma jda",
      "di nka",
      "smil jana",
      "v al",
      "v eljko",
      "sti pan",
      "mar jana",
      "ste vo",
      "rado jka",
      "dusan ka",
      "ljubo mir",
      "te ja",
      "doro teja",
      "ren e",
      "sa man",
      "saman ta",
      "ro me",
      "rome o",
      "e ra",
      "f e",
      "i ra",
      "r tko",
      "t v",
      "mi lo",
      "leonar d",
      "oliv era",
      "tv rtko",
      "milo s",
      "ljub a",
      "li li",
      "ro mina",
      "du ska",
      "sil va",
      "c r",
      "bran e",
      "bran islav",
      "st anka",
      "mor ena",
      "a ida",
      "e du",
      "l f",
      "do lf",
      "ru dolf",
      "edu ard",
      "goran ka",
      "rado van",
      "ned eljko",
      "mi ja",
      "or ad",
      "mil orad",
      "v ica",
      "al ber",
      "bor o",
      "adrian o",
      "alber t",
      "sara h",
      "andrea s",
      "h o",
      "to m",
      "je re",
      "vla ho",
      "a z",
      "e mir",
      "la da",
      "klaudi o",
      "az ra",
      "an ela",
      "vi n",
      "er vin",
      "ri no",
      "re be",
      "nedjel jko",
      "rebe ka",
      "bor islav",
      "niko l",
      "pau lo",
      "ani slav",
      "st anislav",
      "vje ran",
      "raj ka",
      "to me",
      "marin ka",
      "gab i",
      "c ela",
      "o drag",
      "mar cela",
      "mi odrag",
      "ti a",
      "drag a",
      "vil la",
      "ang elina",
      "s en",
      "f ani",
      "bi ba",
      "g ro",
      "k e",
      "m ani",
      "t an",
      "to l",
      "te r",
      "zla tan",
      "bar tol",
      "apart mani",
      "sve tlana",
      "val ter",
      "gro zdana",
      "si ljka",
      "pe jo",
      "bo siljka",
      "mir an",
      "ran ka",
      "luci jana",
      "j ica",
      "r d",
      "ana sta",
      "dju rd",
      "anasta zija",
      "da da",
      "ju ro",
      "van da",
      "k lina",
      "and elina",
      "za klina",
      "j la",
      "m u",
      "jo vana",
      "al oj",
      "le jla",
      "pa ve",
      "aloj z",
      "lu ce",
      "in ga",
      "simo n",
      "luci jan",
      "c ole",
      "i rina",
      "ni cole",
      "e o",
      "i an",
      "el eo",
      "mil ana",
      "zor ka",
      "eleo nora",
      "i ara",
      "l ela",
      "ch iara",
      "h a",
      "z ara",
      "ki ka",
      "mirsa d",
      "g n",
      "i r",
      "j en",
      "n an",
      "o gn",
      "s ne",
      "al mir",
      "ili jana",
      "ad nan",
      "pav ica",
      "ir ma",
      "ogn jen",
      "sne zana",
      "a ela",
      "mi co",
      "raf aela",
      "a ma",
      "m and",
      "vi da",
      "ne vi",
      "ne do",
      "ama lija",
      "mand ica",
      "de jana",
      "zla tica",
      "d ivna",
      "f lor",
      "k ra",
      "draz ena",
      "am ela",
      "flor ijan",
      "g e",
      "se ka",
      "t u",
      "jo van",
      "bar tu",
      "me gi",
      "bartu l",
      "h ari",
      "vil ma",
      "sel ma",
      "hari s",
      "g oj",
      "ko ra",
      "ru di",
      "goj ko",
      "kora ljka",
      "sena da",
      "ari ta",
      "sti je",
      "dan e",
      "stefan o",
      "marg arita",
      "f fe",
      "mar gita",
      "ca ffe",
      "fili pa",
      "cr ni",
      "d jana",
      "sla djana",
      "zla tka",
      "lor is",
      "smil ja",
      "glor ija",
      "e vica",
      "da mira",
      "ci ska",
      "fran ciska",
      "vje ra",
      "m anja",
      "s ela",
      "en o",
      "ve st",
      "ne manja",
      "bor ka",
      "sil vest",
      "mor eno",
      "silvest ar",
      "u na",
      "z iv",
      "milj enka",
      "ziv ko",
      "en es",
      "pe re",
      "bo bo",
      "vito mir",
      "a li",
      "lo vor",
      "dju ro",
      "ali sa",
      "lovor ka",
      "k s",
      "ma ks",
      "slav ka",
      "st ana",
      "miroslav a",
      "gr ga",
      "e f",
      "h ela",
      "ar min",
      "ra hela",
      "ta dija",
      "lu kre",
      "vi cko",
      "vla de",
      "dor de",
      "joz ef",
      "lukre cija",
      "jozef ina",
      "c ana",
      "g u",
      "ja m",
      "mir jam",
      "gr gu",
      "sun cana",
      "grgu r",
      "elvi r",
      "c vita",
      "and jelka",
      "djurd jica",
      "p ol",
      "s to",
      "mi ma",
      "jo sa",
      "al josa",
      "leo pol",
      "stje p",
      "ce do",
      "be po",
      "draz an",
      "leopol d",
      "an e",
      "zri nko",
      "emi li",
      "maro je",
      "k le",
      "l jana",
      "m en",
      "li ljana",
      "san el",
      "kle men",
      "klemen tina",
      "o zana",
      "v anka",
      "jo vanka",
      "lu ana",
      "adri jan",
      "blazen ko",
      "an eta",
      "ni je",
      "and jel",
      "ton ko",
      "nedi ljka",
      "andjel ko",
      "ar sen",
      "me d",
      "jako b",
      "slobodan ka",
      "melani ja",
      "ke ti",
      "mu ha",
      "muha med",
      "o p",
      "o ki",
      "z oki",
      "la di",
      "vi je",
      "du jo",
      "silvi jo",
      "se ad",
      "op g",
      "ladi slav",
      "ad mir",
      "joz a",
      "nevi o",
      "ari jan",
      "do bri",
      "joz ica",
      "mirsa da",
      "dobri la",
      "a di",
      "b u",
      "n er",
      "lu ksa",
      "adi s",
      "bu ba",
      "ner min",
      "j lo",
      "l enka",
      "miha jlo",
      "jo le",
      "ton cica",
      "bernar dica",
      "an tica",
      "ma ca",
      "bra co",
      "silvi je",
      "g ra",
      "an cica",
      "and ja",
      "zelj kica",
      "ne tko",
      "dali ja",
      "am ra",
      "d jan",
      "sa fe",
      "is kra",
      "dan ka",
      "bla za",
      "ol ja",
      "sr djan",
      "safe t",
      "a s",
      "di n",
      "ci lija",
      "go spo",
      "ce cilija",
      "nedjel jka",
      "as ja",
      "gospo din",
      "na t",
      "ro za",
      "do nat",
      "ve sela",
      "ne va",
      "de ana",
      "nino slav",
      "veli bor",
      "roza lija",
      "f i",
      "s er",
      "mir ica",
      "vi t",
      "pa jo",
      "de vit",
      "lju devit",
      "rado slav",
      "eni s",
      "sen di",
      "ge j",
      "stije po",
      "fi nka",
      "ser gej",
      "ana mari",
      "dra sko",
      "ro ki",
      "niko le",
      "zel jan",
      "vjekoslav a",
      "cr na",
      "nikole ta",
      "bo ba",
      "du da",
      "domi na",
      "d v",
      "e dv",
      "t y",
      "z imir",
      "ka zimir",
      "ma m",
      "jo vica",
      "ne mam",
      "dar jan",
      "kristi jana",
      "esa d",
      "ke ty",
      "edv ard",
      "t ro",
      "dar ka",
      "va tro",
      "vatro slav",
      "ni tko",
      "and jela",
      "andri ana",
      "vladi mira",
      "raj na",
      "i je",
      "i sa",
      "p imir",
      "r pimir",
      "t rpimir",
      "an ci",
      "te ta",
      "sla dan",
      "slav isa",
      "ro zana",
      "ro sanda",
      "vi la",
      "pa vla",
      "alojz ije",
      "e c",
      "i ko",
      "or nela",
      "zel jo",
      "drag ec",
      "milan ka",
      "smil jan",
      "ive k",
      "i ro",
      "p ica",
      "p iro",
      "s piro",
      "na tko",
      "na dija",
      "el jka",
      "mati a",
      "dari jan",
      "sti pica",
      "ned eljka",
      "d ivo",
      "g ica",
      "h er",
      "zvo nka",
      "drago mir",
      "van na",
      "ol gica",
      "sanj ica",
      "mija t",
      "sto jan",
      "her mina",
      "p je",
      "z ivana",
      "z dan",
      "mi sko",
      "ro k",
      "du ka",
      "matija s",
      "hrvo jka",
      "marijan ka",
      "neven ko",
      "zvje zdan",
      "mu jo",
      "ge a",
      "pje ro",
      "a g",
      "f er",
      "m er",
      "mar ela",
      "li m",
      "vo lim",
      "ili nka",
      "ne za",
      "bor ko",
      "emi ca",
      "stjep ko",
      "cedo mir",
      "ag neza",
      "fer do",
      "mer ica",
      "i z",
      "i lo",
      "i dor",
      "ja kica",
      "ko rana",
      "bo ki",
      "de sa",
      "mil enka",
      "kristi nka",
      "ba ka",
      "juli jan",
      "sve to",
      "kra lj",
      "iz idor",
      "ilo nka",
      "c ro",
      "ve sel",
      "visn jica",
      "djurd ja",
      "vesel ko",
      "s ica",
      "san ka",
      "du sica",
      "de sanka",
      "rado mir",
      "ina ce",
      "t ar",
      "z vije",
      "mi tar",
      "ko no",
      "mari jela",
      "ni ca",
      "jo vo",
      "dra zana",
      "du le",
      "ne a",
      "jas nica",
      "val nea",
      "stije pan",
      "zvije zdana",
      "kono ba",
      "j di",
      "l iv",
      "jel e",
      "valen t",
      "mo j",
      "ha jdi",
      "stjep ana",
      "liv ija",
      "z de",
      "ci jela",
      "dari nko",
      "dor ja",
      "ton kica",
      "nevi a",
      "gra cijela",
      "zde slav",
      "k r",
      "s vije",
      "ta tijana",
      "dani ra",
      "bo zen",
      "zor islav",
      "dan ci",
      "kr sto",
      "svije tlana",
      "bozen ka",
      "vo jko",
      "mi sela",
      "vi bor",
      "fran ica",
      "drazen ko",
      "b r",
      "b arisa",
      "d ru",
      "i nja",
      "u dru",
      "ivan ko",
      "jo pa",
      "zvoni mira",
      "sre br",
      "udru ga",
      "srebr enka",
      "c el",
      "m ka",
      "p cel",
      "ar st",
      "snje za",
      "ale mka",
      "pcel arst",
      "pcelarst vo",
      "gra cija"
    ]
  }
}