{
  "version": "1.0",
  "truncation": null,
  "padding": null,
  "added_tokens": [
    {
      "id": 0,
      "content": "[UNK]",
      "single_word": false,
      "lstrip": false,
      "rstrip": false,
      "normalized": false,
      "special": true
    },
    {
      "id": 1,
      "content": "[CLS]",
      "single_word": false,
      "lstrip": false,
      "rstrip": false,
      "normalized": false,
      "special": true
    },
    {
      "id": 2,
      "content": "[SEP]",
      "single_word": false,
      "lstrip": false,
      "rstrip": false,
      "normalized": false,
      "special": true
    },
    {
      "id": 3,
      "content": "[PAD]",
      "single_word": false,
      "lstrip": false,
      "rstrip": false,
      "normalized": false,
      "special": true
    },
    {
      "id": 4,
      "content": "[MASK]",
      "single_word": false,
      "lstrip": false,
      "rstrip": false,
      "normalized": false,
      "special": true
    }
  ],
  "normalizer": null,
  "pre_tokenizer": {
    "type": "Whitespace"
  },
  "post_processor": null,
  "decoder": null,
  "model": {
    "type": "BPE",
    "dropout": null,
    "unk_token": "[UNK]",
    "continuing_subword_prefix": null,
    "end_of_word_suffix": null,
    "fuse_unk": false,
    "vocab": {
      "[UNK]": 0,
      "[CLS]": 1,
      "[SEP]": 2,
      "[PAD]": 3,
      "[MASK]": 4,
      "-": 5,
      "a": 6,
      "b": 7,
      "c": 8,
      "d": 9,
      "e": 10,
      "f": 11,
      "g": 12,
      "h": 13,
      "i": 14,
      "j": 15,
      "k": 16,
      "l": 17,
      "m": 18,
      "n": 19,
      "o": 20,
      "p": 21,
      "q": 22,
      "r": 23,
      "s": 24,
      "t": 25,
      "u": 26,
      "v": 27,
      "w": 28,
      "x": 29,
      "y": 30,
      "z": 31,
      "an": 32,
      "ha": 33,
      "ah": 34,
      "ma": 35,
      "ul": 36,
      "in": 37,
      "md": 38,
      "ri": 39,
      "al": 40,
      "im": 41,
      "am": 42,
      "ir": 43,
      "az": 44,
      "iz": 45,
      "mo": 46,
      "mad": 47,
      "ham": 48,
      "di": 49,
      "ur": 50,
      "ab": 51,
      "nur": 52,
      "ai": 53,
      "mu": 54,
      "sy": 55,
      "ra": 56,
      "fa": 57,
      "ani": 58,
      "on": 59,
      "ti": 60,
      "fi": 61,
      "ee": 62,
      "wan": 63,
      "hammad": 64,
      "si": 65,
      "il": 66,
      "el": 67,
      "mi": 68,
      "hd": 69,
      "da": 70,
      "ro": 71,
      "abd": 72,
      "ak": 73,
      "en": 74,
      "ar": 75,
      "ang": 76,
      "jo": 77,
      "ana": 78,
      "na": 79,
      "afi": 80,
      "hj": 81,
      "li": 82,
      "no": 83,
      "ong": 84,
      "un": 85,
      "abdul": 86,
      "ya": 87,
      "us": 88,
      "ina": 89,
      "mal": 90,
      "kha": 91,
      "mohd": 92,
      "irul": 93,
      "siti": 94,
      "ed": 95,
      "rah": 96,
      "sha": 97,
      "ali": 98,
      "ch": 99,
      "dani": 100,
      "muhammad": 101,
      "ja": 102,
      "haz": 103,
      "mar": 104,
      "nurul": 105,
      "ros": 106,
      "ahmad": 107,
      "pu": 108,
      "za": 109,
      "ji": 110,
      "ari": 111,
      "put": 112,
      "iman": 113,
      "afiq": 114,
      "dy": 115,
      "man": 116,
      "iq": 117,
      "amal": 118,
      "mohammad": 119,
      "is": 120,
      "fiz": 121,
      "zul": 122,
      "le": 123,
      "hjh": 124,
      "adi": 125,
      "su": 126,
      "irah": 127,
      "shah": 128,
      "ad": 129,
      "rin": 130,
      "hafiz": 131,
      "ce": 132,
      "id": 133,
      "mas": 134,
      "nor": 135,
      "naz": 136,
      "yan": 137,
      "amin": 138,
      "ann": 139,
      "arif": 140,
      "at": 141,
      "lim": 142,
      "awan": 143,
      "aiman": 144,
      "ini": 145,
      "er": 146,
      "sh": 147,
      "khairul": 148,
      "sai": 149,
      "ck": 150,
      "fat": 151,
      "muhd": 152,
      "syah": 153,
      "ew": 154,
      "haziq": 155,
      "rul": 156,
      "ay": 157,
      "lee": 158,
      "ilah": 159,
      "moham": 160,
      "haji": 161,
      "putra": 162,
      "sal": 163,
      "ie": 164,
      "han": 165,
      "hamad": 166,
      "imah": 167,
      "sya": 168,
      "faiz": 169,
      "aziz": 170,
      "bo": 171,
      "wong": 172,
      "cha": 173,
      "has": 174,
      "abu": 175,
      "awang": 176,
      "amir": 177,
      "ful": 178,
      "saiful": 179,
      "ag": 180,
      "hani": 181,
      "yus": 182,
      "sa": 183,
      "ni": 184,
      "lah": 185,
      "hn": 186,
      "john": 187,
      "din": 188,
      "dk": 189,
      "mohamed": 190,
      "mah": 191,
      "syafiq": 192,
      "eri": 193,
      "ko": 194,
      "mat": 195,
      "as": 196,
      "ib": 197,
      "izz": 198,
      "ta": 199,
      "ev": 200,
      "yati": 201,
      "agus": 202,
      "mari": 203,
      "dah": 204,
      "syaz": 205,
      "lan": 206,
      "rina": 207,
      "prin": 208,
      "prince": 209,
      "jah": 210,
      "rose": 211,
      "aw": 212,
      "la": 213,
      "ik": 214,
      "ale": 215,
      "war": 216,
      "es": 217,
      "kim": 218,
      "hadi": 219,
      "dee": 220,
      "alai": 221,
      "nora": 222,
      "sam": 223,
      "ru": 224,
      "ly": 225,
      "aq": 226,
      "amirul": 227,
      "daniel": 228,
      "run": 229,
      "joe": 230,
      "nab": 231,
      "isma": 232,
      "adam": 233,
      "alex": 234,
      "jam": 235,
      "ung": 236,
      "ris": 237,
      "so": 238,
      "khai": 239,
      "sar": 240,
      "my": 241,
      "imi": 242,
      "pg": 243,
      "mon": 244,
      "diana": 245,
      "hana": 246,
      "nana": 247,
      "ju": 248,
      "rahim": 249,
      "azim": 250,
      "noo": 251,
      "jim": 252,
      "sham": 253,
      "mohamad": 254,
      "bu": 255,
      "lina": 256,
      "wafi": 257,
      "ei": 258,
      "ayu": 259,
      "lin": 260,
      "lo": 261,
      "jack": 262,
      "lov": 263,
      "riz": 264,
      "danish": 265,
      "fatin": 266,
      "jen": 267,
      "yana": 268,
      "cin": 269,
      "ati": 270,
      "anna": 271,
      "hajah": 272,
      "james": 273,
      "fah": 274,
      "tan": 275,
      "daus": 276,
      "rahman": 277,
      "jun": 278,
      "fir": 279,
      "putri": 280,
      "lai": 281,
      "farah": 282,
      "sii": 283,
      "noor": 284,
      "didi": 285,
      "sarah": 286,
      "vin": 287,
      "amy": 288,
      "ku": 289,
      "bel": 290,
      "ia": 291,
      "jul": 292,
      "danial": 293,
      "fad": 294,
      "vid": 295,
      "david": 296,
      "ismail": 297,
      "sul": 298,
      "ain": 299,
      "micha": 300,
      "michael": 301,
      "cinta": 302,
      "akmal": 303,
      "lil": 304,
      "andy": 305,
      "izan": 306,
      "boy": 307,
      "ss": 308,
      "princess": 309,
      "jimmy": 310,
      "ef": 311,
      "nis": 312,
      "rafi": 313,
      "de": 314,
      "ct": 315,
      "ki": 316,
      "azmi": 317,
      "alif": 318,
      "jib": 319,
      "maria": 320,
      "brun": 321,
      "ep": 322,
      "kamal": 323,
      "brunei": 324,
      "ton": 325,
      "firdaus": 326,
      "sim": 327,
      "elle": 328,
      "eng": 329,
      "umi": 330,
      "ida": 331,
      "ram": 332,
      "zee": 333,
      "fan": 334,
      "izza": 335,
      "bung": 336,
      "et": 337,
      "ka": 338,
      "muhamad": 339,
      "fari": 340,
      "bunga": 341,
      "idah": 342,
      "ryan": 343,
      "tini": 344,
      "nas": 345,
      "nisa": 346,
      "zah": 347,
      "anis": 348,
      "ely": 349,
      "um": 350,
      "syam": 351,
      "fiq": 352,
      "adib": 353,
      "lily": 354,
      "atul": 355,
      "muiz": 356,
      "linda": 357,
      "aku": 358,
      "bang": 359,
      "dew": 360,
      "sri": 361,
      "dewi": 362,
      "fatimah": 363,
      "nabil": 364,
      "khair": 365,
      "hil": 366,
      "izah": 367,
      "ibrahim": 368,
      "awg": 369,
      "fai": 370,
      "nina": 371,
      "zai": 372,
      "zain": 373,
      "wi": 374,
      "mawar": 375,
      "irfan": 376,
      "love": 377,
      "lyn": 378,
      "ima": 379,
      "ray": 380,
      "imam": 381,
      "eem": 382,
      "ny": 383,
      "chong": 384,
      "jenny": 385,
      "bal": 386,
      "abul": 387,
      "roy": 388,
      "nadi": 389,
      "ade": 390,
      "iza": 391,
      "abdullah": 392,
      "azri": 393,
      "najib": 394,
      "nah": 395,
      "een": 396,
      "dann": 397,
      "min": 398,
      "pa": 399,
      "yong": 400,
      "danny": 401,
      "dar": 402,
      "marul": 403,
      "st": 404,
      "halim": 405,
      "chin": 406,
      "bob": 407,
      "even": 408,
      "aqilah": 409,
      "steven": 410,
      "yah": 411,
      "laila": 412,
      "hon": 413,
      "yun": 414,
      "mich": 415,
      "michelle": 416,
      "raja": 417,
      "em": 418,
      "uz": 419,
      "fauz": 420,
      "eddy": 421,
      "emma": 422,
      "fauzi": 423,
      "nani": 424,
      "san": 425,
      "alya": 426,
      "mia": 427,
      "jay": 428,
      "hafizah": 429,
      "syahmi": 430,
      "budi": 431,
      "bella": 432,
      "izzat": 433,
      "mimi": 434,
      "aisyah": 435,
      "afiqah": 436,
      "ariff": 437,
      "hilmi": 438,
      "dra": 439,
      "liew": 440,
      "asy": 441,
      "hel": 442,
      "fee": 443,
      "hazim": 444,
      "hasan": 445,
      "bro": 446,
      "kh": 447,
      "pak": 448,
      "hayati": 449,
      "mun": 450,
      "pet": 451,
      "rd": 452,
      "har": 453,
      "haik": 454,
      "richa": 455,
      "mary": 456,
      "peter": 457,
      "haikal": 458,
      "richard": 459,
      "ez": 460,
      "hmd": 461,
      "mhmd": 462,
      "alice": 463,
      "nabilah": 464,
      "den": 465,
      "amirah": 466,
      "chris": 467,
      "jef": 468,
      "ke": 469,
      "yang": 470,
      "maz": 471,
      "mike": 472,
      "dayang": 473,
      "joko": 474,
      "izzah": 475,
      "rudy": 476,
      "aqil": 477,
      "jual": 478,
      "jeff": 479,
      "jan": 480,
      "bib": 481,
      "eko": 482,
      "anwar": 483,
      "alvin": 484,
      "lisa": 485,
      "iqbal": 486,
      "chan": 487,
      "syazwan": 488,
      "tony": 489,
      "son": 490,
      "sep": 491,
      "wah": 492,
      "yu": 493,
      "may": 494,
      "josep": 495,
      "khali": 496,
      "jason": 497,
      "eric": 498,
      "wahyu": 499,
      "joseph": 500,
      "aha": 501,
      "caha": 502,
      "fwan": 503,
      "afif": 504,
      "amalina": 505,
      "safwan": 506,
      "cahaya": 507,
      "atri": 508,
      "ddin": 509,
      "uddin": 510,
      "iren": 511,
      "aida": 512,
      "suha": 513,
      "irene": 514,
      "omar": 515,
      "aj": 516,
      "uf": 517,
      "red": 518,
      "hakim": 519,
      "simon": 520,
      "wani": 521,
      "alan": 522,
      "zaini": 523,
      "liza": 524,
      "maya": 525,
      "angel": 526,
      "ummi": 527,
      "paul": 528,
      "alam": 529,
      "niz": 530,
      "roslan": 531,
      "nizam": 532,
      "sah": 533,
      "anak": 534,
      "joy": 535,
      "leo": 536,
      "shahrul": 537,
      "wati": 538,
      "syahirah": 539,
      "hassan": 540,
      "hanif": 541,
      "rat": 542,
      "iatul": 543,
      "rab": 544,
      "harun": 545,
      "raf": 546,
      "liyana": 547,
      "faizal": 548,
      "asyraf": 549,
      "rabiatul": 550,
      "jang": 551,
      "abang": 552,
      "rosli": 553,
      "nazirul": 554,
      "mariah": 555,
      "rizal": 556,
      "aini": 557,
      "cen": 558,
      "jak": 559,
      "mim": 560,
      "sally": 561,
      "vincen": 562,
      "nadia": 563,
      "mimie": 564,
      "vincent": 565,
      "era": 566,
      "yat": 567,
      "ady": 568,
      "mizan": 569,
      "win": 570,
      "wai": 571,
      "alamin": 572,
      "aidi": 573,
      "edwin": 574,
      "awangku": 575,
      "waie": 576,
      "edi": 577,
      "mai": 578,
      "jamal": 579,
      "syafiqah": 580,
      "bah": 581,
      "kri": 582,
      "th": 583,
      "fakh": 584,
      "farid": 585,
      "tang": 586,
      "ben": 587,
      "dr": 588,
      "gra": 589,
      "kev": 590,
      "tina": 591,
      "andi": 592,
      "andr": 593,
      "azman": 594,
      "grace": 595,
      "kevin": 596,
      "andrew": 597,
      "jon": 598,
      "raz": 599,
      "zam": 600,
      "mali": 601,
      "rick": 602,
      "irle": 603,
      "puteri": 604,
      "athan": 605,
      "shirle": 606,
      "jonathan": 607,
      "malik": 608,
      "ricky": 609,
      "shirley": 610,
      "aji": 611,
      "ber": 612,
      "dina": 613,
      "fen": 614,
      "iwan": 615,
      "nan": 616,
      "rober": 617,
      "hazwan": 618,
      "leh": 619,
      "annie": 620,
      "salleh": 621,
      "dean": 622,
      "zainul": 623,
      "jane": 624,
      "khalid": 625,
      "robert": 626,
      "dam": 627,
      "hida": 628,
      "ii": 629,
      "hamd": 630,
      "nad": 631,
      "bun": 632,
      "yaz": 633,
      "hari": 634,
      "salim": 635,
      "joey": 636,
      "bunda": 637,
      "yazid": 638,
      "dang": 639,
      "ga": 640,
      "hwan": 641,
      "rhan": 642,
      "wil": 643,
      "irwan": 644,
      "farhan": 645,
      "angga": 646,
      "liam": 647,
      "mark": 648,
      "fizah": 649,
      "sumon": 650,
      "noraini": 651,
      "william": 652,
      "fer": 653,
      "sus": 654,
      "intan": 655,
      "zack": 656,
      "erna": 657,
      "nifer": 658,
      "monir": 659,
      "lovely": 660,
      "jennifer": 661,
      "julia": 662,
      "susan": 663,
      "kat": 664,
      "inah": 665,
      "habib": 666,
      "joel": 667,
      "lia": 668,
      "nazrul": 669,
      "anne": 670,
      "hli": 671,
      "ian": 672,
      "sab": 673,
      "zie": 674,
      "ammar": 675,
      "azie": 676,
      "abg": 677,
      "syasya": 678,
      "fadhli": 679,
      "nasir": 680,
      "sabrina": 681,
      "hi": 682,
      "if": 683,
      "kang": 684,
      "masu": 685,
      "suri": 686,
      "yusri": 687,
      "rubel": 688,
      "mond": 689,
      "faisal": 690,
      "raymond": 691,
      "masud": 692,
      "annan": 693,
      "be": 694,
      "bong": 695,
      "arman": 696,
      "aminah": 697,
      "evely": 698,
      "evelyn": 699,
      "bar": 700,
      "seri": 701,
      "indah": 702,
      "faridah": 703,
      "aina": 704,
      "sk": 705,
      "hah": 706,
      "indra": 707,
      "azlan": 708,
      "arya": 709,
      "sof": 710,
      "bak": 711,
      "khairun": 712,
      "bakar": 713,
      "hm": 714,
      "kan": 715,
      "faris": 716,
      "iskan": 717,
      "yusuf": 718,
      "sohel": 719,
      "ling": 720,
      "honda": 721,
      "ariffin": 722,
      "iskandar": 723,
      "ap": 724,
      "dwi": 725,
      "ewan": 726,
      "hirah": 727,
      "khan": 728,
      "med": 729,
      "tin": 730,
      "mamun": 731,
      "dian": 732,
      "aisah": 733,
      "dania": 734,
      "mohammed": 735,
      "deen": 736,
      "ting": 737,
      "moh": 738,
      "hamizah": 739,
      "mus": 740,
      "musa": 741,
      "tia": 742,
      "chai": 743,
      "syaza": 744,
      "samsul": 745,
      "wafiy": 746,
      "qah": 747,
      "ran": 748,
      "tri": 749,
      "imran": 750,
      "fitri": 751,
      "leong": 752,
      "haziqah": 753,
      "fiqah": 754,
      "lynn": 755,
      "dilah": 756,
      "heri": 757,
      "sel": 758,
      "mamat": 759,
      "syed": 760,
      "rasel": 761,
      "wana": 762,
      "nazri": 763,
      "nia": 764,
      "halimah": 765,
      "aiz": 766,
      "kong": 767,
      "azizul": 768,
      "shamim": 769,
      "kamarul": 770,
      "rayyan": 771,
      "fauziah": 772,
      "feez": 773,
      "batri": 774,
      "par": 775,
      "keem": 776,
      "hakeem": 777,
      "hamid": 778,
      "siah": 779,
      "dak": 780,
      "asep": 781,
      "budak": 782,
      "ratna": 783,
      "zirah": 784,
      "haris": 785,
      "hamizan": 786,
      "faru": 787,
      "sulaiman": 788,
      "yahya": 789,
      "raziq": 790,
      "faruk": 791,
      "gil": 792,
      "rai": 793,
      "te": 794,
      "xii": 795,
      "yani": 796,
      "aidah": 797,
      "rahmat": 798,
      "shidah": 799,
      "tasya": 800,
      "ikhwan": 801,
      "zainal": 802,
      "fadli": 803,
      "aya": 804,
      "gee": 805,
      "sur": 806,
      "wawan": 807,
      "rifah": 808,
      "alee": 809,
      "raju": 810,
      "ilham": 811,
      "sharifah": 812,
      "yanti": 813,
      "yuni": 814,
      "suraya": 815,
      "amo": 816,
      "bayu": 817,
      "mirul": 818,
      "umar": 819,
      "azam": 820,
      "azimah": 821,
      "muizz": 822,
      "aniq": 823,
      "fian": 824,
      "roki": 825,
      "mateen": 826,
      "yatie": 827,
      "sofian": 828,
      "junaidi": 829,
      "didik": 830,
      "kumar": 831,
      "suhaimi": 832,
      "iffah": 833,
      "rokiah": 834,
      "ey": 835,
      "mir": 836,
      "se": 837,
      "normah": 838,
      "honey": 839,
      "mirza": 840,
      "fu": 841,
      "fri": 842,
      "jai": 843,
      "kar": 844,
      "of": 845,
      "yen": 846,
      "hairul": 847,
      "azhar": 848,
      "raden": 849,
      "chee": 850,
      "zulhilmi": 851,
      "sufri": 852,
      "azizi": 853,
      "azizah": 854,
      "agung": 855,
      "yusof": 856,
      "hisyam": 857,
      "fuad": 858,
      "baz": 859,
      "babu": 860,
      "babul": 861,
      "mei": 862,
      "udin": 863,
      "ukri": 864,
      "ziq": 865,
      "syukri": 866,
      "rosni": 867,
      "didie": 868,
      "ummu": 869,
      "bazilah": 870,
      "go": 871,
      "ho": 872,
      "peng": 873,
      "uar": 874,
      "anuar": 875,
      "imin": 876,
      "iran": 877,
      "adli": 878,
      "ming": 879,
      "jaka": 880,
      "fakhrul": 881,
      "fendi": 882,
      "damia": 883,
      "goh": 884,
      "pengiran": 885,
      "ajim": 886,
      "eza": 887,
      "mbah": 888,
      "ng": 889,
      "neng": 890,
      "pri": 891,
      "qilah": 892,
      "ree": 893,
      "reza": 894,
      "to": 895,
      "azrin": 896,
      "hamzah": 897,
      "rahimah": 898,
      "zaim": 899,
      "aries": 900,
      "supri": 901,
      "nordin": 902,
      "yanto": 903,
      "aming": 904,
      "rafie": 905,
      "reena": 906,
      "fath": 907,
      "dini": 908,
      "lu": 909,
      "qman": 910,
      "nurin": 911,
      "afifah": 912,
      "shasha": 913,
      "jaya": 914,
      "hazimah": 915,
      "rosnah": 916,
      "shahrin": 917,
      "ayam": 918,
      "asri": 919,
      "khairi": 920,
      "helmi": 921,
      "dinie": 922,
      "luqman": 923,
      "eka": 924,
      "gir": 925,
      "hen": 926,
      "reen": 927,
      "tul": 928,
      "yul": 929,
      "zu": 930,
      "azeem": 931,
      "ili": 932,
      "enc": 933,
      "chang": 934,
      "adee": 935,
      "rini": 936,
      "masni": 937,
      "atiqah": 938,
      "fahmi": 939,
      "munirah": 940,
      "suhaili": 941,
      "alamgir": 942,
      "suria": 943,
      "hendra": 944,
      "yuli": 945,
      "bin": 946,
      "ded": 947,
      "hus": 948,
      "her": 949,
      "ifa": 950,
      "jong": 951,
      "ple": 952,
      "sin": 953,
      "ua": 954,
      "waz": 955,
      "wafiq": 956,
      "zak": 957,
      "haja": 958,
      "along": 959,
      "muth": 960,
      "syifa": 961,
      "dayat": 962,
      "abdur": 963,
      "ardy": 964,
      "chua": 965,
      "nazirah": 966,
      "arifin": 967,
      "shin": 968,
      "faizah": 969,
      "yussof": 970,
      "mazlan": 971,
      "khairunnisa": 972,
      "apple": 973,
      "bintang": 974,
      "dedy": 975,
      "hussin": 976,
      "heru": 977,
      "zakwan": 978,
      "muthu": 979,
      "syafi": 980,
      "bam": 981,
      "erah": 982,
      "hs": 983,
      "lam": 984,
      "pai": 985,
      "slam": 986,
      "mor": 987,
      "diyana": 988,
      "muji": 989,
      "edah": 990,
      "hasnan": 991,
      "nadiah": 992,
      "bambang": 993,
      "paijo": 994,
      "slamet": 995,
      "fli": 996,
      "kay": 997,
      "nu": 998,
      "ol": 999,
      "yee": 1000,
      "hariz": 1001,
      "mamah": 1002,
      "izzul": 1003,
      "akbar": 1004,
      "shafiq": 1005,
      "putera": 1006,
      "norhayati": 1007,
      "boboy": 1008,
      "ibnu": 1009,
      "deekay": 1010,
      "soon": 1011,
      "bujang": 1012,
      "kifli": 1013,
      "khairol": 1014,
      "hidayat": 1015,
      "hamdan": 1016,
      "bab": 1017,
      "satri": 1018,
      "ufiq": 1019,
      "rara": 1020,
      "endang": 1021,
      "angir": 1022,
      "hasnah": 1023,
      "taufiq": 1024,
      "jahangir": 1025,
      "park": 1026,
      "babah": 1027,
      "satria": 1028,
      "geng": 1029,
      "llah": 1030,
      "mizah": 1031,
      "qaw": 1032,
      "selle": 1033,
      "wee": 1034,
      "hafi": 1035,
      "ahe": 1036,
      "dillah": 1037,
      "rohana": 1038,
      "johari": 1039,
      "manja": 1040,
      "sugeng": 1041,
      "masnah": 1042,
      "norsiah": 1043,
      "ayahe": 1044,
      "firman": 1045,
      "hartini": 1046,
      "harith": 1047,
      "qawi": 1048,
      "seller": 1049,
      "hafiy": 1050,
      "bla": 1051,
      "ksi": 1052,
      "sak": 1053,
      "waw": 1054,
      "dijah": 1055,
      "syia": 1056,
      "rohani": 1057,
      "khadijah": 1058,
      "leha": 1059,
      "leksi": 1060,
      "shahul": 1061,
      "salmah": 1062,
      "hanis": 1063,
      "koleksi": 1064,
      "mariani": 1065,
      "syazwani": 1066,
      "jamilah": 1067,
      "shamsul": 1068,
      "izzati": 1069,
      "jakir": 1070,
      "batrisyia": 1071,
      "raihan": 1072,
      "black": 1073,
      "sakinah": 1074,
      "wawa": 1075,
      "eik": 1076,
      "gu": 1077,
      "hannan": 1078,
      "kam": 1079,
      "mul": 1080,
      "mais": 1081,
      "hamidah": 1082,
      "aishah": 1083,
      "rajib": 1084,
      "faez": 1085,
      "wandy": 1086,
      "siew": 1087,
      "arah": 1088,
      "arju": 1089,
      "hazirah": 1090,
      "nazmul": 1091,
      "erra": 1092,
      "sheik": 1093,
      "syazana": 1094,
      "sarinah": 1095,
      "ainul": 1096,
      "ramli": 1097,
      "nanang": 1098,
      "hidayah": 1099,
      "hamdani": 1100,
      "tegu": 1101,
      "kamrul": 1102,
      "maisarah": 1103,
      "arjuna": 1104,
      "teguh": 1105,
      "fy": 1106,
      "amarul": 1107,
      "pon": 1108,
      "qamarul": 1109,
      "sari": 1110,
      "zan": 1111,
      "ripon": 1112,
      "amee": 1113,
      "chung": 1114,
      "rosnani": 1115,
      "dyana": 1116,
      "lyna": 1117,
      "bahrin": 1118,
      "beh": 1119,
      "bebeh": 1120,
      "aizat": 1121,
      "aleeya": 1122,
      "sarimah": 1123,
      "ameerah": 1124,
      "du": 1125,
      "ezah": 1126,
      "kannan": 1127,
      "mel": 1128,
      "miza": 1129,
      "azrul": 1130,
      "liton": 1131,
      "yap": 1132,
      "dyg": 1133,
      "zulfadhli": 1134,
      "nazmi": 1135,
      "athirah": 1136,
      "koh": 1137,
      "faiq": 1138,
      "fakhri": 1139,
      "duan": 1140,
      "melati": 1141,
      "kah": 1142,
      "wir": 1143,
      "diah": 1144,
      "nuraini": 1145,
      "mutia": 1146,
      "syari": 1147,
      "rashidah": 1148,
      "fikri": 1149,
      "adie": 1150,
      "hafizul": 1151,
      "atikah": 1152,
      "effa": 1153,
      "amoy": 1154,
      "kartini": 1155,
      "wira": 1156,
      "mutiara": 1157,
      "syarikat": 1158,
      "aimi": 1159,
      "jann": 1160,
      "mani": 1161,
      "pang": 1162,
      "wis": 1163,
      "wadi": 1164,
      "mumy": 1165,
      "nauf": 1166,
      "erni": 1167,
      "saifullah": 1168,
      "hanie": 1169,
      "awie": 1170,
      "wardah": 1171,
      "hanafi": 1172,
      "darwis": 1173,
      "ratu": 1174,
      "aidil": 1175,
      "nadhirah": 1176,
      "setia": 1177,
      "jannah": 1178,
      "manik": 1179,
      "naufal": 1180,
      "darwish": 1181,
      "apa": 1182,
      "eboy": 1183,
      "fo": 1184,
      "fong": 1185,
      "ked": 1186,
      "zal": 1187,
      "hasi": 1188,
      "maim": 1189,
      "liaw": 1190,
      "uni": 1191,
      "unah": 1192,
      "arief": 1193,
      "ayuni": 1194,
      "mahani": 1195,
      "lilis": 1196,
      "ramlah": 1197,
      "khairuddin": 1198,
      "bibie": 1199,
      "fendy": 1200,
      "gilang": 1201,
      "ziqah": 1202,
      "foo": 1203,
      "kedai": 1204,
      "hasif": 1205,
      "maimunah": 1206,
      "bul": 1207,
      "dul": 1208,
      "it": 1209,
      "hafeez": 1210,
      "riyan": 1211,
      "ampu": 1212,
      "aziman": 1213,
      "rahmah": 1214,
      "aminul": 1215,
      "asmah": 1216,
      "watie": 1217,
      "damit": 1218,
      "bulan": 1219,
      "dulal": 1220,
      "ampuan": 1221,
      "jar": 1222,
      "oirul": 1223,
      "zale": 1224,
      "izyan": 1225,
      "fajar": 1226,
      "faizul": 1227,
      "norain": 1228,
      "aliff": 1229,
      "nasrul": 1230,
      "anisah": 1231,
      "adek": 1232,
      "khoirul": 1233,
      "ajeem": 1234,
      "zamri": 1235,
      "barang": 1236,
      "zaleha": 1237,
      "aan": 1238,
      "ach": 1239,
      "bi": 1240,
      "del": 1241,
      "eyan": 1242,
      "eyah": 1243,
      "ien": 1244,
      "tah": 1245,
      "tai": 1246,
      "ujang": 1247,
      "antah": 1248,
      "riah": 1249,
      "alimin": 1250,
      "nurhayati": 1251,
      "muaz": 1252,
      "syak": 1253,
      "ragil": 1254,
      "rodel": 1255,
      "noriah": 1256,
      "fateen": 1257,
      "salbi": 1258,
      "azizan": 1259,
      "hanisah": 1260,
      "dinda": 1261,
      "asrul": 1262,
      "cing": 1263,
      "kucing": 1264,
      "syamimi": 1265,
      "wisy": 1266,
      "najibah": 1267,
      "darwisy": 1268,
      "suriani": 1269,
      "wazien": 1270,
      "achmad": 1271,
      "taiko": 1272,
      "syakirah": 1273,
      "salbiah": 1274,
      "amat": 1275,
      "bagus": 1276,
      "diman": 1277,
      "emah": 1278,
      "ky": 1279,
      "mur": 1280,
      "mmy": 1281,
      "pur": 1282,
      "qis": 1283,
      "tu": 1284,
      "waiz": 1285,
      "insan": 1286,
      "azwan": 1287,
      "urah": 1288,
      "mummy": 1289,
      "fati": 1290,
      "fadilah": 1291,
      "tiong": 1292,
      "mijan": 1293,
      "dapur": 1294,
      "enal": 1295,
      "natasya": 1296,
      "noh": 1297,
      "chew": 1298,
      "hazmi": 1299,
      "mardiana": 1300,
      "zaenal": 1301,
      "suzu": 1302,
      "masri": 1303,
      "nazurah": 1304,
      "hantu": 1305,
      "amiruddin": 1306,
      "noorul": 1307,
      "rizky": 1308,
      "ramlee": 1309,
      "balqis": 1310,
      "adeq": 1311,
      "ezzah": 1312,
      "nadzirah": 1313,
      "fathur": 1314,
      "encik": 1315,
      "murni": 1316,
      "fatihah": 1317,
      "suzuki": 1318,
      "aul": 1319,
      "cak": 1320,
      "dzul": 1321,
      "ea": 1322,
      "firah": 1323,
      "hee": 1324,
      "iel": 1325,
      "jali": 1326,
      "or": 1327,
      "rangga": 1328,
      "haiq": 1329,
      "amni": 1330,
      "muh": 1331,
      "sidi": 1332,
      "naji": 1333,
      "sharul": 1334,
      "hazman": 1335,
      "zafirah": 1336,
      "iqin": 1337,
      "cer": 1338,
      "syahir": 1339,
      "izzuddin": 1340,
      "lancer": 1341,
      "aqiel": 1342,
      "jumat": 1343,
      "rizki": 1344,
      "fadhil": 1345,
      "ainah": 1346,
      "rafidah": 1347,
      "kamariah": 1348,
      "asyiqin": 1349,
      "feeq": 1350,
      "syazwana": 1351,
      "sofea": 1352,
      "morsidi": 1353,
      "aulia": 1354,
      "orang": 1355,
      "haiqal": 1356,
      "najihah": 1357,
      "bai": 1358,
      "ok": 1359,
      "oon": 1360,
      "qri": 1361,
      "qai": 1362,
      "voon": 1363,
      "haimin": 1364,
      "azka": 1365,
      "aisy": 1366,
      "aisya": 1367,
      "muqri": 1368,
      "muhaimin": 1369,
      "wandi": 1370,
      "rol": 1371,
      "rozie": 1372,
      "nasi": 1373,
      "rosman": 1374,
      "zatul": 1375,
      "zulkifli": 1376,
      "shahrol": 1377,
      "syaa": 1378,
      "boon": 1379,
      "sara": 1380,
      "tajul": 1381,
      "evo": 1382,
      "ikan": 1383,
      "hadif": 1384,
      "umie": 1385,
      "adibah": 1386,
      "zaiton": 1387,
      "dayangku": 1388,
      "khaliq": 1389,
      "razali": 1390,
      "katok": 1391,
      "adeek": 1392,
      "baitul": 1393,
      "qaisara": 1394,
      "asi": 1395,
      "cii": 1396,
      "milah": 1397,
      "nz": 1398,
      "rus": 1399,
      "wafiqah": 1400,
      "zimah": 1401,
      "mawi": 1402,
      "ameng": 1403,
      "azrina": 1404,
      "hamiz": 1405,
      "syid": 1406,
      "rasyid": 1407,
      "tiawan": 1408,
      "nawi": 1409,
      "zaimah": 1410,
      "zulfadli": 1411,
      "adiah": 1412,
      "hafizan": 1413,
      "shik": 1414,
      "saadiah": 1415,
      "asmawi": 1416,
      "asnawi": 1417,
      "izzan": 1418,
      "nisah": 1419,
      "zahidah": 1420,
      "nabillah": 1421,
      "nadirah": 1422,
      "apis": 1423,
      "batrisya": 1424,
      "amoi": 1425,
      "setiawan": 1426,
      "fathin": 1427,
      "asih": 1428,
      "rusdi": 1429,
      "shikin": 1430,
      "bis": 1431,
      "baidah": 1432,
      "dai": 1433,
      "dhwan": 1434,
      "hyun": 1435,
      "menc": 1436,
      "nes": 1437,
      "qib": 1438,
      "ufi": 1439,
      "maji": 1440,
      "ril": 1441,
      "ridhwan": 1442,
      "azreen": 1443,
      "aihi": 1444,
      "sydi": 1445,
      "ono": 1446,
      "naqib": 1447,
      "shahril": 1448,
      "nazz": 1449,
      "aminuddin": 1450,
      "ayai": 1451,
      "leez": 1452,
      "saufi": 1453,
      "rusydi": 1454,
      "julaihi": 1455,
      "rafiah": 1456,
      "syamsul": 1457,
      "jangan": 1458,
      "teck": 1459,
      "aleesya": 1460,
      "zubaidah": 1461,
      "syafie": 1462,
      "mujiono": 1463,
      "bisnes": 1464,
      "hyundai": 1465,
      "mencari": 1466,
      "majidah": 1467,
      "naqibah": 1468,
      "ejul": 1469,
      "eki": 1470,
      "io": 1471,
      "ihah": 1472,
      "pen": 1473,
      "qee": 1474,
      "rez": 1475,
      "vio": 1476,
      "zhar": 1477,
      "japar": 1478,
      "zati": 1479,
      "nazihah": 1480,
      "mahirah": 1481,
      "dekar": 1482,
      "katak": 1483,
      "aziemah": 1484,
      "raiyan": 1485,
      "morni": 1486,
      "pendekar": 1487,
      "qeelah": 1488,
      "rezeki": 1489,
      "vios": 1490,
      "zharfan": 1491,
      "afy": 1492,
      "cdah": 1493,
      "eqah": 1494,
      "wafy": 1495,
      "ziman": 1496,
      "alaii": 1497,
      "zeem": 1498,
      "zeerah": 1499,
      "wazif": 1500,
      "fyzah": 1501
    },
    "merges": [
      "a n",
      "h a",
      "a h",
      "m a",
      "u l",
      "i n",
      "m d",
      "r i",
      "a l",
      "i m",
      "a m",
      "i r",
      "a z",
      "i z",
      "m o",
      "ma d",
      "ha m",
      "d i",
      "u r",
      "a b",
      "n ur",
      "a i",
      "m u",
      "s y",
      "r a",
      "f a",
      "an i",
      "o n",
      "t i",
      "f i",
      "e e",
      "w an",
      "ham mad",
      "s i",
      "i l",
      "e l",
      "m i",
      "h d",
      "d a",
      "r o",
      "ab d",
      "a k",
      "e n",
      "a r",
      "an g",
      "j o",
      "an a",
      "n a",
      "a fi",
      "h j",
      "l i",
      "n o",
      "on g",
      "u n",
      "abd ul",
      "y a",
      "u s",
      "in a",
      "ma l",
      "k ha",
      "mo hd",
      "ir ul",
      "si ti",
      "e d",
      "r ah",
      "s ha",
      "al i",
      "c h",
      "d ani",
      "mu hammad",
      "j a",
      "ha z",
      "ma r",
      "nur ul",
      "ro s",
      "ah mad",
      "p u",
      "z a",
      "j i",
      "a ri",
      "pu t",
      "im an",
      "afi q",
      "d y",
      "m an",
      "i q",
      "a mal",
      "mo hammad",
      "i s",
      "f iz",
      "z ul",
      "l e",
      "hj h",
      "a di",
      "s u",
      "ir ah",
      "sha h",
      "a d",
      "r in",
      "ha fiz",
      "c e",
      "i d",
      "ma s",
      "no r",
      "n az",
      "y an",
      "am in",
      "an n",
      "ari f",
      "a t",
      "l im",
      "a wan",
      "a iman",
      "in i",
      "e r",
      "s h",
      "kha irul",
      "s ai",
      "c k",
      "fa t",
      "mu hd",
      "sy ah",
      "e w",
      "haz iq",
      "r ul",
      "a y",
      "l ee",
      "il ah",
      "mo ham",
      "ha ji",
      "put ra",
      "s al",
      "i e",
      "h an",
      "ha mad",
      "im ah",
      "sy a",
      "fa iz",
      "az iz",
      "b o",
      "w ong",
      "c ha",
      "ha s",
      "ab u",
      "awan g",
      "am ir",
      "f ul",
      "sai ful",
      "a g",
      "h ani",
      "y us",
      "s a",
      "n i",
      "l ah",
      "h n",
      "jo hn",
      "d in",
      "d k",
      "moham ed",
      "m ah",
      "sy afiq",
      "e ri",
      "k o",
      "ma t",
      "a s",
      "i b",
      "iz z",
      "t a",
      "e v",
      "ya ti",
      "ag us",
      "ma ri",
      "d ah",
      "sy az",
      "l an",
      "r ina",
      "p rin",
      "prin ce",
      "j ah",
      "ros e",
      "a w",
      "l a",
      "i k",
      "al e",
      "w ar",
      "e s",
      "k im",
      "ha di",
      "d ee",
      "al ai",
      "no ra",
      "s am",
      "r u",
      "l y",
      "a q",
      "am irul",
      "dani el",
      "r un",
      "jo e",
      "n ab",
      "is ma",
      "ad am",
      "ale x",
      "j am",
      "un g",
      "ri s",
      "s o",
      "kha i",
      "s ar",
      "m y",
      "im i",
      "p g",
      "mo n",
      "di ana",
      "h ana",
      "n ana",
      "j u",
      "rah im",
      "az im",
      "no o",
      "j im",
      "s ham",
      "mo hamad",
      "b u",
      "l ina",
      "w afi",
      "e i",
      "ay u",
      "l in",
      "l o",
      "ja ck",
      "lo v",
      "ri z",
      "dani sh",
      "fat in",
      "j en",
      "y ana",
      "c in",
      "a ti",
      "an na",
      "ha jah",
      "jam es",
      "f ah",
      "t an",
      "da us",
      "rah man",
      "j un",
      "f ir",
      "put ri",
      "l ai",
      "fa rah",
      "si i",
      "noo r",
      "di di",
      "sar ah",
      "v in",
      "am y",
      "k u",
      "b el",
      "i a",
      "j ul",
      "dani al",
      "fa d",
      "v id",
      "da vid",
      "isma il",
      "s ul",
      "a in",
      "mi cha",
      "micha el",
      "cin ta",
      "ak mal",
      "l il",
      "an dy",
      "iz an",
      "bo y",
      "s s",
      "prince ss",
      "jim my",
      "e f",
      "n is",
      "ra fi",
      "d e",
      "c t",
      "k i",
      "az mi",
      "ali f",
      "ji b",
      "mari a",
      "b run",
      "e p",
      "k amal",
      "brun ei",
      "t on",
      "fir daus",
      "s im",
      "el le",
      "en g",
      "u mi",
      "i da",
      "r am",
      "z ee",
      "f an",
      "iz za",
      "b ung",
      "e t",
      "k a",
      "mu hamad",
      "fa ri",
      "bung a",
      "id ah",
      "r yan",
      "t ini",
      "na s",
      "nis a",
      "z ah",
      "ani s",
      "el y",
      "u m",
      "sy am",
      "fi q",
      "adi b",
      "lil y",
      "at ul",
      "mu iz",
      "lin da",
      "ak u",
      "b ang",
      "d ew",
      "s ri",
      "dew i",
      "fat imah",
      "nab il",
      "kha ir",
      "h il",
      "iz ah",
      "ib rahim",
      "aw g",
      "f ai",
      "n ina",
      "z ai",
      "za in",
      "w i",
      "ma war",
      "ir fan",
      "lov e",
      "ly n",
      "i ma",
      "ra y",
      "ima m",
      "ee m",
      "n y",
      "ch ong",
      "jen ny",
      "b al",
      "ab ul",
      "ro y",
      "na di",
      "ad e",
      "iz a",
      "abdul lah",
      "az ri",
      "na jib",
      "n ah",
      "ee n",
      "d ann",
      "m in",
      "p a",
      "y ong",
      "dann y",
      "da r",
      "mar ul",
      "s t",
      "ha lim",
      "ch in",
      "bo b",
      "ev en",
      "aq ilah",
      "st even",
      "y ah",
      "lai la",
      "h on",
      "y un",
      "mi ch",
      "mich elle",
      "ra ja",
      "e m",
      "u z",
      "fa uz",
      "ed dy",
      "em ma",
      "fauz i",
      "n ani",
      "s an",
      "al ya",
      "mi a",
      "ja y",
      "hafiz ah",
      "syah mi",
      "bu di",
      "bel la",
      "izza t",
      "m imi",
      "ai syah",
      "afiq ah",
      "arif f",
      "hil mi",
      "d ra",
      "li ew",
      "a sy",
      "h el",
      "f ee",
      "haz im",
      "has an",
      "b ro",
      "k h",
      "p ak",
      "ha yati",
      "mu n",
      "p et",
      "r d",
      "ha r",
      "ha ik",
      "ri cha",
      "mar y",
      "pet er",
      "haik al",
      "richa rd",
      "e z",
      "h md",
      "m hmd",
      "ali ce",
      "nab ilah",
      "d en",
      "am irah",
      "ch ris",
      "j ef",
      "k e",
      "y ang",
      "ma z",
      "mi ke",
      "da yang",
      "jo ko",
      "izz ah",
      "ru dy",
      "aq il",
      "ju al",
      "jef f",
      "j an",
      "b ib",
      "e ko",
      "an war",
      "al vin",
      "li sa",
      "iq bal",
      "ch an",
      "syaz wan",
      "ton y",
      "s on",
      "s ep",
      "w ah",
      "y u",
      "ma y",
      "jo sep",
      "kha li",
      "ja son",
      "eri c",
      "wah yu",
      "josep h",
      "a ha",
      "c aha",
      "f wan",
      "afi f",
      "amal ina",
      "sa fwan",
      "caha ya",
      "at ri",
      "d din",
      "u ddin",
      "ir en",
      "ai da",
      "su ha",
      "iren e",
      "o mar",
      "a j",
      "u f",
      "r ed",
      "ha kim",
      "sim on",
      "w ani",
      "al an",
      "za ini",
      "l iza",
      "ma ya",
      "ang el",
      "um mi",
      "pa ul",
      "al am",
      "n iz",
      "ros lan",
      "niz am",
      "s ah",
      "an ak",
      "jo y",
      "le o",
      "shah rul",
      "w ati",
      "syah irah",
      "has san",
      "hani f",
      "ra t",
      "i atul",
      "r ab",
      "ha run",
      "ra f",
      "li yana",
      "faiz al",
      "asy raf",
      "rab iatul",
      "j ang",
      "ab ang",
      "ros li",
      "naz irul",
      "mari ah",
      "riz al",
      "a ini",
      "c en",
      "j ak",
      "m im",
      "sal ly",
      "vin cen",
      "nadi a",
      "mim ie",
      "vincen t",
      "e ra",
      "ya t",
      "a dy",
      "m izan",
      "w in",
      "w ai",
      "al amin",
      "ai di",
      "ed win",
      "awang ku",
      "wai e",
      "e di",
      "ma i",
      "ja mal",
      "syafiq ah",
      "b ah",
      "k ri",
      "t h",
      "fa kh",
      "fari d",
      "t ang",
      "b en",
      "d r",
      "g ra",
      "k ev",
      "t ina",
      "an di",
      "an dr",
      "az man",
      "gra ce",
      "kev in",
      "andr ew",
      "j on",
      "r az",
      "z am",
      "ma li",
      "ri ck",
      "ir le",
      "put eri",
      "at han",
      "sh irle",
      "jon athan",
      "mali k",
      "rick y",
      "shirle y",
      "a ji",
      "b er",
      "d ina",
      "f en",
      "i wan",
      "n an",
      "ro ber",
      "haz wan",
      "le h",
      "ann ie",
      "sal leh",
      "de an",
      "zain ul",
      "jan e",
      "khali d",
      "rober t",
      "d am",
      "h ida",
      "i i",
      "ha md",
      "na d",
      "b un",
      "y az",
      "ha ri",
      "sal im",
      "joe y",
      "bun da",
      "yaz id",
      "d ang",
      "g a",
      "h wan",
      "r han",
      "w il",
      "ir wan",
      "fa rhan",
      "ang ga",
      "li am",
      "mar k",
      "fiz ah",
      "su mon",
      "nora ini",
      "wil liam",
      "f er",
      "s us",
      "in tan",
      "za ck",
      "er na",
      "ni fer",
      "mon ir",
      "lov ely",
      "jen nifer",
      "jul ia",
      "sus an",
      "k at",
      "in ah",
      "ha bib",
      "jo el",
      "li a",
      "naz rul",
      "ann e",
      "h li",
      "i an",
      "s ab",
      "z ie",
      "am mar",
      "az ie",
      "ab g",
      "sya sya",
      "fad hli",
      "nas ir",
      "sab rina",
      "h i",
      "i f",
      "k ang",
      "ma su",
      "su ri",
      "yus ri",
      "ru bel",
      "mon d",
      "fai sal",
      "ray mond",
      "masu d",
      "ann an",
      "b e",
      "b ong",
      "ar man",
      "amin ah",
      "ev ely",
      "evely n",
      "b ar",
      "s eri",
      "in dah",
      "fari dah",
      "a ina",
      "s k",
      "ha h",
      "in dra",
      "az lan",
      "ar ya",
      "so f",
      "b ak",
      "khair un",
      "bak ar",
      "h m",
      "k an",
      "fa ris",
      "is kan",
      "yus uf",
      "so hel",
      "lin g",
      "hon da",
      "ariff in",
      "iskan dar",
      "a p",
      "d wi",
      "e wan",
      "h irah",
      "k han",
      "m ed",
      "t in",
      "ma mun",
      "di an",
      "ai sah",
      "dani a",
      "moham med",
      "dee n",
      "tin g",
      "mo h",
      "ham izah",
      "mu s",
      "mu sa",
      "ti a",
      "cha i",
      "syaz a",
      "sam sul",
      "wafi y",
      "q ah",
      "r an",
      "t ri",
      "im ran",
      "fi tri",
      "le ong",
      "haziq ah",
      "fiq ah",
      "lyn n",
      "di lah",
      "h eri",
      "s el",
      "ma mat",
      "sy ed",
      "ra sel",
      "wan a",
      "naz ri",
      "ni a",
      "halim ah",
      "a iz",
      "k ong",
      "aziz ul",
      "sham im",
      "ka marul",
      "ray yan",
      "fauzi ah",
      "fee z",
      "b atri",
      "p ar",
      "k eem",
      "ha keem",
      "ham id",
      "si ah",
      "da k",
      "as ep",
      "bu dak",
      "rat na",
      "z irah",
      "ha ris",
      "ham izan",
      "fa ru",
      "sul aiman",
      "yah ya",
      "raz iq",
      "faru k",
      "g il",
      "r ai",
      "t e",
      "x ii",
      "y ani",
      "ai dah",
      "rah mat",
      "sh idah",
      "ta sya",
      "ik hwan",
      "zain al",
      "fad li",
      "a ya",
      "g ee",
      "s ur",
      "w awan",
      "ri fah",
      "al ee",
      "ra ju",
      "il ham",
      "sha rifah",
      "yan ti",
      "yun i",
      "sur aya",
      "am o",
      "b ayu",
      "m irul",
      "u mar",
      "az am",
      "az imah",
      "mu izz",
      "ani q",
      "fi an",
      "ro ki",
      "mat een",
      "yati e",
      "so fian",
      "jun aidi",
      "didi k",
      "ku mar",
      "suha imi",
      "if fah",
      "roki ah",
      "e y",
      "m ir",
      "s e",
      "nor mah",
      "hon ey",
      "mir za",
      "f u",
      "f ri",
      "j ai",
      "k ar",
      "o f",
      "y en",
      "ha irul",
      "az har",
      "ra den",
      "ch ee",
      "zul hilmi",
      "su fri",
      "aziz i",
      "aziz ah",
      "ag ung",
      "yus of",
      "hi syam",
      "fu ad",
      "b az",
      "b abu",
      "b abul",
      "m ei",
      "u din",
      "u kri",
      "z iq",
      "sy ukri",
      "ros ni",
      "didi e",
      "um mu",
      "baz ilah",
      "g o",
      "h o",
      "p eng",
      "u ar",
      "an uar",
      "im in",
      "ir an",
      "ad li",
      "min g",
      "jak a",
      "fakh rul",
      "fen di",
      "dam ia",
      "go h",
      "peng iran",
      "a jim",
      "e za",
      "m bah",
      "n g",
      "n eng",
      "p ri",
      "q ilah",
      "r ee",
      "r eza",
      "t o",
      "az rin",
      "ham zah",
      "rah imah",
      "za im",
      "ari es",
      "su pri",
      "nor din",
      "yan to",
      "amin g",
      "rafi e",
      "ree na",
      "fat h",
      "d ini",
      "l u",
      "q man",
      "nur in",
      "afi fah",
      "sha sha",
      "ja ya",
      "haz imah",
      "ros nah",
      "shah rin",
      "ay am",
      "as ri",
      "khai ri",
      "hel mi",
      "dini e",
      "lu qman",
      "e ka",
      "g ir",
      "h en",
      "r een",
      "t ul",
      "y ul",
      "z u",
      "az eem",
      "il i",
      "en c",
      "ch ang",
      "ad ee",
      "rin i",
      "mas ni",
      "ati qah",
      "fah mi",
      "mun irah",
      "suha ili",
      "alam gir",
      "suri a",
      "hen dra",
      "yul i",
      "b in",
      "d ed",
      "h us",
      "h er",
      "i fa",
      "j ong",
      "p le",
      "s in",
      "u a",
      "w az",
      "w afiq",
      "z ak",
      "ha ja",
      "al ong",
      "mu th",
      "sy ifa",
      "da yat",
      "abd ur",
      "ar dy",
      "ch ua",
      "naz irah",
      "arif in",
      "sh in",
      "faiz ah",
      "yus sof",
      "maz lan",
      "khairun nisa",
      "ap ple",
      "bin tang",
      "ded y",
      "hus sin",
      "her u",
      "zak wan",
      "muth u",
      "sy afi",
      "b am",
      "e rah",
      "h s",
      "l am",
      "p ai",
      "s lam",
      "mo r",
      "di yana",
      "mu ji",
      "ed ah",
      "has nan",
      "nadi ah",
      "bam bang",
      "pai jo",
      "slam et",
      "f li",
      "k ay",
      "n u",
      "o l",
      "y ee",
      "ha riz",
      "ma mah",
      "iz zul",
      "ak bar",
      "sha fiq",
      "put era",
      "nor hayati",
      "bo boy",
      "ib nu",
      "dee kay",
      "so on",
      "bu jang",
      "ki fli",
      "khair ol",
      "hida yat",
      "hamd an",
      "b ab",
      "s atri",
      "u fiq",
      "ra ra",
      "en dang",
      "ang ir",
      "has nah",
      "ta ufiq",
      "jah angir",
      "par k",
      "bab ah",
      "satri a",
      "g eng",
      "l lah",
      "m izah",
      "q aw",
      "s elle",
      "w ee",
      "ha fi",
      "ah e",
      "di llah",
      "ro hana",
      "jo hari",
      "man ja",
      "su geng",
      "mas nah",
      "nor siah",
      "ay ahe",
      "fir man",
      "har tini",
      "hari th",
      "qaw i",
      "selle r",
      "hafi y",
      "b la",
      "k si",
      "s ak",
      "w aw",
      "di jah",
      "sy ia",
      "ro hani",
      "kha dijah",
      "le ha",
      "le ksi",
      "shah ul",
      "sal mah",
      "hani s",
      "ko leksi",
      "mari ani",
      "syaz wani",
      "jam ilah",
      "sham sul",
      "izza ti",
      "jak ir",
      "batri syia",
      "rai han",
      "bla ck",
      "sak inah",
      "waw a",
      "e ik",
      "g u",
      "h annan",
      "k am",
      "m ul",
      "ma is",
      "ham idah",
      "ai shah",
      "ra jib",
      "fa ez",
      "wan dy",
      "si ew",
      "ar ah",
      "ar ju",
      "haz irah",
      "naz mul",
      "er ra",
      "sh eik",
      "syaz ana",
      "sar inah",
      "ain ul",
      "ram li",
      "nan ang",
      "hida yah",
      "hamd ani",
      "te gu",
      "kam rul",
      "mais arah",
      "arju na",
      "tegu h",
      "f y",
      "a marul",
      "p on",
      "q amarul",
      "s ari",
      "z an",
      "ri pon",
      "am ee",
      "ch ung",
      "ros nani",
      "dy ana",
      "ly na",
      "bah rin",
      "be h",
      "be beh",
      "aiz at",
      "alee ya",
      "sari mah",
      "amee rah",
      "d u",
      "e zah",
      "k annan",
      "m el",
      "m iza",
      "az rul",
      "li ton",
      "ya p",
      "dy g",
      "zul fadhli",
      "naz mi",
      "at hirah",
      "ko h",
      "fai q",
      "fakh ri",
      "du an",
      "mel ati",
      "k ah",
      "w ir",
      "di ah",
      "nur aini",
      "mu tia",
      "sy ari",
      "ra shidah",
      "fi kri",
      "adi e",
      "hafiz ul",
      "ati kah",
      "ef fa",
      "amo y",
      "kar tini",
      "wir a",
      "mutia ra",
      "syari kat",
      "a imi",
      "j ann",
      "m ani",
      "p ang",
      "w is",
      "w adi",
      "mu my",
      "na uf",
      "er ni",
      "saiful lah",
      "hani e",
      "aw ie",
      "war dah",
      "hana fi",
      "dar wis",
      "rat u",
      "aidi l",
      "nad hirah",
      "se tia",
      "jann ah",
      "mani k",
      "nauf al",
      "darwis h",
      "a pa",
      "e boy",
      "f o",
      "f ong",
      "k ed",
      "z al",
      "ha si",
      "ma im",
      "li aw",
      "un i",
      "un ah",
      "ari ef",
      "ay uni",
      "mah ani",
      "lil is",
      "ram lah",
      "khair uddin",
      "bib ie",
      "fen dy",
      "gil ang",
      "ziq ah",
      "fo o",
      "ked ai",
      "hasi f",
      "maim unah",
      "b ul",
      "d ul",
      "i t",
      "ha feez",
      "ri yan",
      "am pu",
      "az iman",
      "rah mah",
      "amin ul",
      "as mah",
      "wati e",
      "dam it",
      "bul an",
      "dul al",
      "ampu an",
      "j ar",
      "o irul",
      "z ale",
      "iz yan",
      "fa jar",
      "faiz ul",
      "nora in",
      "alif f",
      "nas rul",
      "anis ah",
      "ade k",
      "kh oirul",
      "aj eem",
      "zam ri",
      "bar ang",
      "zale ha",
      "a an",
      "a ch",
      "b i",
      "d el",
      "e yan",
      "e yah",
      "i en",
      "t ah",
      "t ai",
      "u jang",
      "an tah",
      "ri ah",
      "al imin",
      "nur hayati",
      "mu az",
      "sy ak",
      "ra gil",
      "ro del",
      "no riah",
      "fat een",
      "sal bi",
      "aziz an",
      "hani sah",
      "din da",
      "as rul",
      "cin g",
      "ku cing",
      "syam imi",
      "wi sy",
      "najib ah",
      "dar wisy",
      "suri ani",
      "waz ien",
      "ach mad",
      "tai ko",
      "syak irah",
      "salbi ah",
      "a mat",
      "b agus",
      "d iman",
      "e mah",
      "k y",
      "m ur",
      "m my",
      "p ur",
      "q is",
      "t u",
      "w aiz",
      "in san",
      "az wan",
      "ur ah",
      "mu mmy",
      "fa ti",
      "fa dilah",
      "ti ong",
      "mi jan",
      "da pur",
      "en al",
      "na tasya",
      "no h",
      "ch ew",
      "haz mi",
      "mar diana",
      "za enal",
      "su zu",
      "mas ri",
      "naz urah",
      "han tu",
      "amir uddin",
      "noo rul",
      "riz ky",
      "ram lee",
      "bal qis",
      "ade q",
      "ez zah",
      "nad zirah",
      "fath ur",
      "enc ik",
      "mur ni",
      "fati hah",
      "suzu ki",
      "a ul",
      "c ak",
      "d zul",
      "e a",
      "f irah",
      "h ee",
      "i el",
      "j ali",
      "o r",
      "r angga",
      "ha iq",
      "am ni",
      "mu h",
      "si di",
      "na ji",
      "sha rul",
      "haz man",
      "za firah",
      "iq in",
      "ce r",
      "syah ir",
      "izz uddin",
      "lan cer",
      "aq iel",
      "ju mat",
      "riz ki",
      "fad hil",
      "ain ah",
      "rafi dah",
      "ka mariah",
      "asy iqin",
      "fee q",
      "syazwan a",
      "sof ea",
      "mor sidi",
      "aul ia",
      "or ang",
      "haiq al",
      "naji hah",
      "b ai",
      "o k",
      "o on",
      "q ri",
      "q ai",
      "v oon",
      "ha imin",
      "az ka",
      "ai sy",
      "ai sya",
      "mu qri",
      "mu haimin",
      "wan di",
      "ro l",
      "ro zie",
      "na si",
      "ros man",
      "za tul",
      "zul kifli",
      "shah rol",
      "sya a",
      "bo on",
      "sa ra",
      "ta jul",
      "ev o",
      "ik an",
      "hadi f",
      "umi e",
      "adib ah",
      "zai ton",
      "dayang ku",
      "khali q",
      "raz ali",
      "kat ok",
      "adee k",
      "bai tul",
      "qai sara",
      "a si",
      "c ii",
      "m ilah",
      "n z",
      "r us",
      "w afiqah",
      "z imah",
      "ma wi",
      "am eng",
      "az rina",
      "ham iz",
      "sy id",
      "ra syid",
      "ti awan",
      "na wi",
      "za imah",
      "zul fadli",
      "adi ah",
      "hafiz an",
      "sh ik",
      "sa adiah",
      "as mawi",
      "as nawi",
      "izz an",
      "nis ah",
      "zah idah",
      "nabil lah",
      "nad irah",
      "ap is",
      "batri sya",
      "amo i",
      "se tiawan",
      "fath in",
      "asi h",
      "rus di",
      "shik in",
      "b is",
      "b aidah",
      "d ai",
      "d hwan",
      "h yun",
      "m enc",
      "n es",
      "q ib",
      "u fi",
      "ma ji",
      "ri l",
      "ri dhwan",
      "az reen",
      "ai hi",
      "sy di",
      "on o",
      "na qib",
      "shah ril",
      "naz z",
      "amin uddin",
      "ay ai",
      "lee z",
      "sa ufi",
      "ru sydi",
      "jul aihi",
      "rafi ah",
      "syam sul",
      "jang an",
      "te ck",
      "alee sya",
      "zu baidah",
      "syafi e",
      "muji ono",
      "bis nes",
      "hyun dai",
      "menc ari",
      "maji dah",
      "naqib ah",
      "e jul",
      "e ki",
      "i o",
      "i hah",
      "p en",
      "q ee",
      "r ez",
      "v io",
      "z har",
      "ja par",
      "za ti",
      "naz ihah",
      "mah irah",
      "de kar",
      "kat ak",
      "azie mah",
      "rai yan",
      "mor ni",
      "pen dekar",
      "qee lah",
      "rez eki",
      "vio s",
      "zhar fan",
      "a fy",
      "c dah",
      "e qah",
      "w afy",
      "z iman",
      "alai i",
      "zee m",
      "zee rah",
      "waz if",
      "fy zah"
    ]
  }
}