{
    "version": "1.0",
    "truncation": null,
    "padding": null,
    "added_tokens": [
        {
            "id": 0,
            "content": "[UNK]",
            "single_word": false,
            "lstrip": false,
            "rstrip": false,
            "normalized": false,
            "special": true
        },
        {
            "id": 1,
            "content": "[CLS]",
            "single_word": false,
            "lstrip": false,
            "rstrip": false,
            "normalized": false,
            "special": true
        },
        {
            "id": 2,
            "content": "[SEP]",
            "single_word": false,
            "lstrip": false,
            "rstrip": false,
            "normalized": false,
            "special": true
        },
        {
            "id": 3,
            "content": "[PAD]",
            "single_word": false,
            "lstrip": false,
            "rstrip": false,
            "normalized": false,
            "special": true
        },
        {
            "id": 4,
            "content": "[MASK]",
            "single_word": false,
            "lstrip": false,
            "rstrip": false,
            "normalized": false,
            "special": true
        }
    ],
    "normalizer": null,
    "pre_tokenizer": {
        "type": "Whitespace"
    },
    "post_processor": null,
    "decoder": null,
    "model": {
        "type": "BPE",
        "dropout": null,
        "unk_token": "[UNK]",
        "continuing_subword_prefix": null,
        "end_of_word_suffix": null,
        "fuse_unk": false,
        "vocab": {
            "[UNK]": 0,
            "[CLS]": 1,
            "[SEP]": 2,
            "[PAD]": 3,
            "[MASK]": 4,
            "a": 5,
            "b": 6,
            "c": 7,
            "d": 8,
            "e": 9,
            "f": 10,
            "g": 11,
            "h": 12,
            "i": 13,
            "j": 14,
            "k": 15,
            "l": 16,
            "m": 17,
            "n": 18,
            "o": 19,
            "p": 20,
            "q": 21,
            "r": 22,
            "s": 23,
            "t": 24,
            "u": 25,
            "v": 26,
            "x": 27,
            "y": 28,
            "z": 29,
            "an": 30,
            "ri": 31,
            "ar": 32,
            "en": 33,
            "di": 34,
            "el": 35,
            "er": 36,
            "on": 37,
            "al": 38,
            "mi": 39,
            "ti": 40,
            "li": 41,
            "le": 42,
            "da": 43,
            "ta": 44,
            "la": 45,
            "is": 46,
            "mir": 47,
            "xh": 48,
            "es": 49,
            "im": 50,
            "na": 51,
            "ma": 52,
            "ana": 53,
            "ela": 54,
            "sh": 55,
            "dri": 56,
            "lo": 57,
            "vi": 58,
            "fa": 59,
            "eri": 60,
            "ra": 61,
            "alb": 62,
            "lu": 63,
            "et": 64,
            "jan": 65,
            "do": 66,
            "jon": 67,
            "re": 68,
            "gen": 69,
            "si": 70,
            "ol": 71,
            "ani": 72,
            "ni": 73,
            "ur": 74,
            "fat": 75,
            "mar": 76,
            "oni": 77,
            "man": 78,
            "vis": 79,
            "lin": 80,
            "sa": 81,
            "art": 82,
            "jo": 83,
            "bes": 84,
            "ard": 85,
            "ren": 86,
            "kle": 87,
            "ble": 88,
            "ed": 89,
            "ris": 90,
            "nik": 91,
            "arb": 92,
            "eli": 93,
            "tim": 94,
            "eta": 95,
            "ili": 96,
            "gj": 97,
            "zim": 98,
            "za": 99,
            "flo": 100,
            "ag": 101,
            "rim": 102,
            "or": 103,
            "ha": 104,
            "den": 105,
            "ger": 106,
            "and": 107,
            "drit": 108,
            "tin": 109,
            "kla": 110,
            "ona": 111,
            "va": 112,
            "ro": 113,
            "ka": 114,
            "st": 115,
            "mon": 116,
            "edi": 117,
            "rit": 118,
            "klo": 119,
            "shk": 120,
            "vin": 121,
            "ali": 122,
            "eni": 123,
            "uli": 124,
            "jdi": 125,
            "uj": 126,
            "ek": 127,
            "ton": 128,
            "mal": 129,
            "xhi": 130,
            "ru": 131,
            "xhe": 132,
            "ezim": 133,
            "shp": 134,
            "mo": 135,
            "yl": 136,
            "lda": 137,
            "ald": 138,
            "to": 139,
            "ert": 140,
            "ul": 141,
            "so": 142,
            "me": 143,
            "isa": 144,
            "era": 145,
            "ron": 146,
            "fre": 147,
            "te": 148,
            "ida": 149,
            "ke": 150,
            "rena": 151,
            "ba": 152,
            "gi": 153,
            "ad": 154,
            "kol": 155,
            "ina": 156,
            "emi": 157,
            "ci": 158,
            "su": 159,
            "ir": 160,
            "pet": 161,
            "jet": 162,
            "ko": 163,
            "ura": 164,
            "aur": 165,
            "ara": 166,
            "uri": 167,
            "lul": 168,
            "sha": 169,
            "az": 170,
            "edu": 171,
            "son": 172,
            "af": 173,
            "len": 174,
            "anxh": 175,
            "sil": 176,
            "sel": 177,
            "bi": 178,
            "ast": 179,
            "esi": 180,
            "ys": 181,
            "res": 182,
            "bru": 183,
            "kuj": 184,
            "pa": 185,
            "shkel": 186,
            "kel": 187,
            "vio": 188,
            "gaz": 189,
            "lum": 190,
            "ea": 191,
            "met": 192,
            "ran": 193,
            "ef": 194,
            "ergj": 195,
            "fla": 196,
            "ada": 197,
            "oll": 198,
            "os": 199,
            "renc": 200,
            "buj": 201,
            "alfre": 202,
            "in": 203,
            "ora": 204,
            "tor": 205,
            "don": 206,
            "end": 207,
            "etim": 208,
            "gli": 209,
            "sk": 210,
            "adi": 211,
            "be": 212,
            "imir": 213,
            "val": 214,
            "shkim": 215,
            "valb": 216,
            "mu": 217,
            "ldo": 218,
            "shpres": 219,
            "rea": 220,
            "ca": 221,
            "joll": 222,
            "vjoll": 223,
            "xho": 224,
            "ena": 225,
            "leo": 226,
            "qim": 227,
            "alk": 228,
            "em": 229,
            "bu": 230,
            "fi": 231,
            "qe": 232,
            "dh": 233,
            "jur": 234,
            "est": 235,
            "qi": 236,
            "no": 237,
            "ja": 238,
            "rol": 239,
            "ari": 240,
            "eda": 241,
            "erg": 242,
            "du": 243,
            "teo": 244,
            "lind": 245,
            "je": 246,
            "ne": 247,
            "lut": 248,
            "zen": 249,
            "mer": 250,
            "mur": 251,
            "ant": 252,
            "san": 253,
            "xhul": 254,
            "il": 255,
            "afer": 256,
            "ender": 257,
            "ot": 258,
            "riot": 259,
            "kast": 260,
            "gjel": 261,
            "pel": 262,
            "lumb": 263,
            "dor": 264,
            "ter": 265,
            "hys": 266,
            "ent": 267,
            "eva": 268,
            "har": 269,
            "tik": 270,
            "bri": 271,
            "xheva": 272,
            "ser": 273,
            "ki": 274,
            "sta": 275,
            "ktor": 276,
            "bl": 277,
            "bler": 278,
            "taul": 279,
            "jmir": 280,
            "dan": 281,
            "urata": 282,
            "edli": 283,
            "flut": 284,
            "ola": 285,
            "per": 286,
            "parim": 287,
            "bra": 288,
            "shi": 289,
            "rei": 290,
            "alesi": 291,
            "rez": 292,
            "bil": 293,
            "ver": 294,
            "uta": 295,
            "esmer": 296,
            "av": 297,
            "zan": 298,
            "cim": 299,
            "org": 300,
            "eg": 301,
            "zmi": 302,
            "reta": 303,
            "qa": 304,
            "ben": 305,
            "lan": 306,
            "us": 307,
            "hmet": 308,
            "sp": 309,
            "zef": 310,
            "led": 311,
            "cu": 312,
            "jsi": 313,
            "buk": 314,
            "ej": 315,
            "sela": 316,
            "leva": 317,
            "she": 318,
            "hali": 319,
            "sen": 320,
            "rome": 321,
            "pran": 322,
            "van": 323,
            "hek": 324,
            "ndu": 325,
            "engjel": 326,
            "ete": 327,
            "jra": 328,
            "bajra": 329,
            "danj": 330,
            "lav": 331,
            "iro": 332,
            "hir": 333,
            "qir": 334,
            "eno": 335,
            "bo": 336,
            "gazm": 337,
            "fes": 338,
            "gjo": 339,
            "tan": 340,
            "jor": 341,
            "bek": 342,
            "mak": 343,
            "dil": 344,
            "shef": 345,
            "as": 346,
            "zeta": 347,
            "lson": 348,
            "elo": 349,
            "iz": 350,
            "ano": 351,
            "sin": 352,
            "th": 353,
            "ces": 354,
            "sim": 355,
            "sidor": 356,
            "lui": 357,
            "shqi": 358,
            "shqip": 359,
            "lef": 360,
            "rjan": 361,
            "ndri": 362,
            "kren": 363,
            "gra": 364,
            "elvi": 365,
            "haj": 366,
            "gramo": 367,
            "men": 368,
            "rexhe": 369,
            "lon": 370,
            "bukuri": 371,
            "hnik": 372,
            "kres": 373,
            "kl": 374,
            "nor": 375,
            "ban": 376,
            "fab": 377,
            "ber": 378,
            "tion": 379,
            "anje": 380,
            "ku": 381,
            "nest": 382,
            "zh": 383,
            "him": 384,
            "ibra": 385,
            "aqi": 386,
            "llan": 387,
            "dea": 388,
            "mit": 389,
            "lam": 390,
            "kena": 391,
            "dhi": 392,
            "musta": 393,
            "dash": 394,
            "det": 395,
            "uf": 396,
            "vdet": 397,
            "pjet": 398,
            "raq": 399,
            "jman": 400,
            "lejman": 401,
            "riger": 402,
            "fta": 403,
            "ulin": 404,
            "rem": 405,
            "muhar": 406,
            "mil": 407,
            "miz": 408,
            "lavdi": 409,
            "gel": 410,
            "rigel": 411,
            "jtim": 412,
            "jul": 413,
            "qeri": 414,
            "qet": 415,
            "dik": 416,
            "albani": 417,
            "lka": 418,
            "eglan": 419,
            "orgi": 420,
            "ik": 421,
            "serv": 422,
            "def": 423,
            "kli": 424,
            "tea": 425,
            "ensi": 426,
            "xhensi": 427,
            "ureta": 428,
            "liano": 429,
            "soti": 430,
            "lika": 431,
            "silika": 432,
            "ln": 433,
            "vul": 434,
            "lnet": 435,
            "miter": 436,
            "blen": 437,
            "vina": 438,
            "go": 439,
            "xha": 440,
            "xhmi": 441,
            "nexhmi": 442,
            "fren": 443,
            "dal": 444,
            "yshe": 445,
            "angj": 446,
            "hamet": 447,
            "mura": 448,
            "lushe": 449,
            "taq": 450,
            "am": 451,
            "laz": 452,
            "par": 453,
            "fet": 454,
            "eu": 455,
            "ju": 456,
            "qy": 457,
            "yqy": 458,
            "shyqy": 459,
            "ok": 460,
            "dej": 461,
            "at": 462,
            "oma": 463,
            "fon": 464,
            "alfon": 465,
            "aj": 466,
            "mdi": 467,
            "elal": 468,
            "erisel": 469,
            "olla": 470,
            "ded": 471,
            "pren": 472,
            "dire": 473,
            "leri": 474,
            "mobi": 475,
            "ori": 476,
            "lek": 477,
            "fiqi": 478,
            "jda": 479,
            "stem": 480,
            "tixhe": 481,
            "bur": 482,
            "de": 483,
            "onja": 484,
            "my": 485,
            "mik": 486,
            "silda": 487,
            "uro": 488,
            "bukuro": 489,
            "andu": 490,
            "ruzh": 491,
            "egi": 492,
            "xhio": 493,
            "idri": 494,
            "des": 495,
            "bar": 496,
            "bis": 497,
            "jam": 498,
            "sti": 499,
            "neri": 500,
            "fis": 501,
            "zir": 502,
            "kim": 503,
            "dete": 504,
            "jd": 505,
            "ei": 506,
            "sei": 507,
            "jsa": 508,
            "ojsa": 509,
            "vojsa": 510,
            "mor": 511,
            "tomor": 512,
            "ft": 513,
            "jar": 514,
            "baft": 515,
            "dvan": 516,
            "onda": 517,
            "imonda": 518,
            "sef": 519,
            "raki": 520,
            "eo": 521,
            "arani": 522,
            "cun": 523,
            "iri": 524,
            "llum": 525,
            "ndo": 526,
            "vit": 527,
            "fjor": 528,
            "ais": 529,
            "he": 530,
            "lad": 531,
            "jol": 532,
            "ment": 533,
            "sem": 534,
            "nim": 535,
            "pu": 536,
            "nime": 537,
            "aba": 538,
            "kra": 539,
            "sokra": 540,
            "ab": 541,
            "dj": 542,
            "pana": 543,
            "dila": 544,
            "jot": 545,
            "bos": 546,
            "ile": 547,
            "llaz": 548,
            "dar": 549,
            "ush": 550,
            "drim": 551,
            "xhet": 552,
            "shar": 553,
            "nis": 554,
            "vlo": 555,
            "hal": 556,
            "ez": 557,
            "ht": 558,
            "jes": 559,
            "une": 560,
            "angjel": 561,
            "thjes": 562,
            "blin": 563,
            "uz": 564,
            "ajo": 565,
            "nant": 566,
            "xhin": 567,
            "eq": 568,
            "erem": 569,
            "jaz": 570,
            "klin": 571,
            "lona": 572,
            "njaz": 573,
            "sal": 574,
            "ija": 575,
            "vlin": 576,
            "miklo": 577,
            "vri": 578,
            "vla": 579,
            "fiqir": 580,
            "dur": 581,
            "rro": 582,
            "ho": 583,
            "ash": 584,
            "tjon": 585,
            "der": 586,
            "oder": 587,
            "rja": 588,
            "sy": 589,
            "ziz": 590,
            "fer": 591,
            "mys": 592,
            "pand": 593,
            "lim": 594,
            "dod": 595,
            "zafer": 596,
            "lle": 597,
            "mel": 598,
            "arqi": 599,
            "anasta": 600,
            "gy": 601,
            "dosh": 602,
            "ep": 603,
            "pir": 604,
            "eld": 605,
            "zenep": 606,
            "mitraq": 607,
            "dyshe": 608,
            "ldi": 609,
            "psh": 610,
            "rela": 611,
            "kopsh": 612,
            "lendyshe": 613,
            "zej": 614,
            "rie": 615,
            "myzej": 616,
            "bjor": 617
        },
        "merges": [
            "a n",
            "r i",
            "a r",
            "e n",
            "d i",
            "e l",
            "e r",
            "o n",
            "a l",
            "m i",
            "t i",
            "l i",
            "l e",
            "d a",
            "t a",
            "l a",
            "i s",
            "mi r",
            "x h",
            "e s",
            "i m",
            "n a",
            "m a",
            "an a",
            "el a",
            "s h",
            "d ri",
            "l o",
            "v i",
            "f a",
            "e ri",
            "r a",
            "al b",
            "l u",
            "e t",
            "j an",
            "d o",
            "j on",
            "r e",
            "g en",
            "s i",
            "o l",
            "an i",
            "n i",
            "u r",
            "fa t",
            "m ar",
            "on i",
            "m an",
            "v is",
            "li n",
            "s a",
            "ar t",
            "j o",
            "b es",
            "ar d",
            "r en",
            "k le",
            "b le",
            "e d",
            "ri s",
            "ni k",
            "ar b",
            "el i",
            "ti m",
            "e ta",
            "i li",
            "g j",
            "z im",
            "z a",
            "f lo",
            "a g",
            "ri m",
            "o r",
            "h a",
            "d en",
            "g er",
            "an d",
            "dri t",
            "ti n",
            "k la",
            "on a",
            "v a",
            "r o",
            "k a",
            "s t",
            "m on",
            "e di",
            "ri t",
            "k lo",
            "sh k",
            "vi n",
            "al i",
            "en i",
            "u li",
            "j di",
            "u j",
            "e k",
            "t on",
            "m al",
            "xh i",
            "r u",
            "xh e",
            "e zim",
            "sh p",
            "m o",
            "y l",
            "l da",
            "al d",
            "t o",
            "er t",
            "u l",
            "s o",
            "m e",
            "is a",
            "er a",
            "r on",
            "f re",
            "t e",
            "i da",
            "k e",
            "ren a",
            "b a",
            "g i",
            "a d",
            "k ol",
            "i na",
            "e mi",
            "c i",
            "s u",
            "i r",
            "p et",
            "j et",
            "k o",
            "u ra",
            "a ur",
            "ar a",
            "u ri",
            "lu l",
            "sh a",
            "a z",
            "ed u",
            "s on",
            "a f",
            "l en",
            "an xh",
            "si l",
            "s el",
            "b i",
            "a st",
            "es i",
            "y s",
            "r es",
            "b ru",
            "k uj",
            "p a",
            "shk el",
            "k el",
            "vi o",
            "g az",
            "lu m",
            "e a",
            "m et",
            "r an",
            "e f",
            "er gj",
            "f la",
            "a da",
            "ol l",
            "o s",
            "ren c",
            "b uj",
            "al fre",
            "i n",
            "o ra",
            "t or",
            "d on",
            "en d",
            "e tim",
            "g li",
            "s k",
            "a di",
            "b e",
            "i mir",
            "v al",
            "shk im",
            "v alb",
            "m u",
            "l do",
            "shp res",
            "re a",
            "c a",
            "j oll",
            "v joll",
            "xh o",
            "en a",
            "le o",
            "q im",
            "al k",
            "e m",
            "b u",
            "f i",
            "q e",
            "d h",
            "j ur",
            "es t",
            "q i",
            "n o",
            "j a",
            "r ol",
            "a ri",
            "e da",
            "er g",
            "d u",
            "te o",
            "lin d",
            "j e",
            "n e",
            "lu t",
            "z en",
            "m er",
            "m ur",
            "an t",
            "s an",
            "xh ul",
            "i l",
            "af er",
            "end er",
            "o t",
            "ri ot",
            "ka st",
            "gj el",
            "p el",
            "lum b",
            "do r",
            "t er",
            "h ys",
            "en t",
            "e va",
            "h ar",
            "ti k",
            "b ri",
            "xhe va",
            "s er",
            "k i",
            "s ta",
            "k tor",
            "b l",
            "bl er",
            "ta ul",
            "j mir",
            "d an",
            "ura ta",
            "ed li",
            "f lut",
            "o la",
            "p er",
            "pa rim",
            "b ra",
            "sh i",
            "re i",
            "al esi",
            "re z",
            "bi l",
            "v er",
            "u ta",
            "es mer",
            "a v",
            "z an",
            "c im",
            "or g",
            "e g",
            "z mi",
            "re ta",
            "q a",
            "b en",
            "l an",
            "u s",
            "h met",
            "s p",
            "z ef",
            "le d",
            "c u",
            "j si",
            "bu k",
            "e j",
            "s ela",
            "le va",
            "sh e",
            "h ali",
            "s en",
            "ro me",
            "p ran",
            "v an",
            "h ek",
            "n du",
            "en gjel",
            "et e",
            "j ra",
            "ba jra",
            "dan j",
            "la v",
            "i ro",
            "h ir",
            "q ir",
            "en o",
            "b o",
            "gaz m",
            "f es",
            "g jo",
            "t an",
            "jo r",
            "b ek",
            "ma k",
            "di l",
            "sh ef",
            "a s",
            "z eta",
            "l son",
            "el o",
            "i z",
            "an o",
            "si n",
            "t h",
            "c es",
            "s im",
            "si dor",
            "lu i",
            "sh qi",
            "shqi p",
            "le f",
            "r jan",
            "n dri",
            "k ren",
            "g ra",
            "el vi",
            "ha j",
            "gra mo",
            "m en",
            "re xhe",
            "l on",
            "buk uri",
            "h nik",
            "k res",
            "k l",
            "n or",
            "b an",
            "fa b",
            "b er",
            "ti on",
            "an je",
            "k u",
            "n est",
            "z h",
            "h im",
            "i bra",
            "a qi",
            "l lan",
            "d ea",
            "mi t",
            "la m",
            "k ena",
            "dh i",
            "mu sta",
            "da sh",
            "d et",
            "u f",
            "v det",
            "p jet",
            "ra q",
            "j man",
            "le jman",
            "ri ger",
            "f ta",
            "u lin",
            "re m",
            "mu har",
            "mi l",
            "mi z",
            "lav di",
            "g el",
            "ri gel",
            "j tim",
            "j ul",
            "q eri",
            "q et",
            "di k",
            "alb ani",
            "l ka",
            "eg lan",
            "or gi",
            "i k",
            "ser v",
            "d ef",
            "k li",
            "te a",
            "en si",
            "xh ensi",
            "u reta",
            "li ano",
            "so ti",
            "li ka",
            "si lika",
            "l n",
            "v ul",
            "ln et",
            "mi ter",
            "b len",
            "vi na",
            "g o",
            "xh a",
            "xh mi",
            "ne xhmi",
            "f ren",
            "d al",
            "y she",
            "an gj",
            "ha met",
            "m ura",
            "lu she",
            "ta q",
            "a m",
            "la z",
            "p ar",
            "f et",
            "e u",
            "j u",
            "q y",
            "y qy",
            "sh yqy",
            "o k",
            "d ej",
            "a t",
            "o ma",
            "f on",
            "al fon",
            "a j",
            "m di",
            "el al",
            "eri sel",
            "ol la",
            "d ed",
            "p ren",
            "di re",
            "le ri",
            "mo bi",
            "o ri",
            "le k",
            "fi qi",
            "j da",
            "st em",
            "ti xhe",
            "b ur",
            "d e",
            "on ja",
            "m y",
            "mi k",
            "si lda",
            "ur o",
            "buk uro",
            "and u",
            "ru zh",
            "e gi",
            "xhi o",
            "i dri",
            "d es",
            "b ar",
            "b is",
            "ja m",
            "s ti",
            "n eri",
            "f is",
            "z ir",
            "k im",
            "d ete",
            "j d",
            "e i",
            "s ei",
            "j sa",
            "o jsa",
            "v ojsa",
            "m or",
            "to mor",
            "f t",
            "j ar",
            "ba ft",
            "d van",
            "on da",
            "im onda",
            "s ef",
            "ra ki",
            "e o",
            "ar ani",
            "cu n",
            "i ri",
            "l lum",
            "n do",
            "vi t",
            "f jor",
            "a is",
            "h e",
            "la d",
            "j ol",
            "m ent",
            "s em",
            "n im",
            "p u",
            "nim e",
            "a ba",
            "k ra",
            "so kra",
            "a b",
            "d j",
            "p ana",
            "di la",
            "jo t",
            "b os",
            "i le",
            "l laz",
            "d ar",
            "u sh",
            "dri m",
            "xh et",
            "sh ar",
            "n is",
            "v lo",
            "h al",
            "e z",
            "h t",
            "j es",
            "u ne",
            "an gjel",
            "th jes",
            "b lin",
            "u z",
            "a jo",
            "n ant",
            "xhi n",
            "e q",
            "er em",
            "j az",
            "k lin",
            "l ona",
            "n jaz",
            "s al",
            "i ja",
            "v lin",
            "mi klo",
            "v ri",
            "v la",
            "fi qir",
            "d ur",
            "r ro",
            "h o",
            "a sh",
            "t jon",
            "d er",
            "o der",
            "r ja",
            "s y",
            "z iz",
            "f er",
            "m ys",
            "p and",
            "li m",
            "do d",
            "za fer",
            "l le",
            "m el",
            "ar qi",
            "ana sta",
            "g y",
            "do sh",
            "e p",
            "p ir",
            "el d",
            "zen ep",
            "mit raq",
            "d yshe",
            "l di",
            "p sh",
            "r ela",
            "ko psh",
            "len dyshe",
            "z ej",
            "ri e",
            "my zej",
            "b jor"
        ]
    }
}