{
  "version": "1.0",
  "truncation": null,
  "padding": null,
  "added_tokens": [
    {
      "id": 0,
      "content": "[UNK]",
      "single_word": false,
      "lstrip": false,
      "rstrip": false,
      "normalized": false,
      "special": true
    },
    {
      "id": 1,
      "content": "[CLS]",
      "single_word": false,
      "lstrip": false,
      "rstrip": false,
      "normalized": false,
      "special": true
    },
    {
      "id": 2,
      "content": "[SEP]",
      "single_word": false,
      "lstrip": false,
      "rstrip": false,
      "normalized": false,
      "special": true
    },
    {
      "id": 3,
      "content": "[PAD]",
      "single_word": false,
      "lstrip": false,
      "rstrip": false,
      "normalized": false,
      "special": true
    },
    {
      "id": 4,
      "content": "[MASK]",
      "single_word": false,
      "lstrip": false,
      "rstrip": false,
      "normalized": false,
      "special": true
    }
  ],
  "normalizer": null,
  "pre_tokenizer": {
    "type": "Whitespace"
  },
  "post_processor": null,
  "decoder": null,
  "model": {
    "type": "BPE",
    "dropout": null,
    "unk_token": "[UNK]",
    "continuing_subword_prefix": null,
    "end_of_word_suffix": null,
    "fuse_unk": false,
    "vocab": {
      "[UNK]": 0,
      "[CLS]": 1,
      "[SEP]": 2,
      "[PAD]": 3,
      "[MASK]": 4,
      "-": 5,
      "a": 6,
      "b": 7,
      "c": 8,
      "d": 9,
      "e": 10,
      "f": 11,
      "g": 12,
      "h": 13,
      "i": 14,
      "j": 15,
      "k": 16,
      "l": 17,
      "m": 18,
      "n": 19,
      "o": 20,
      "p": 21,
      "q": 22,
      "r": 23,
      "s": 24,
      "t": 25,
      "u": 26,
      "v": 27,
      "w": 28,
      "x": 29,
      "y": 30,
      "z": 31,
      "an": 32,
      "in": 33,
      "en": 34,
      "on": 35,
      "ar": 36,
      "ch": 37,
      "am": 38,
      "el": 39,
      "al": 40,
      "er": 41,
      "th": 42,
      "sh": 43,
      "ra": 44,
      "li": 45,
      "oh": 46,
      "ri": 47,
      "le": 48,
      "md": 49,
      "ma": 50,
      "ja": 51,
      "ong": 52,
      "ang": 53,
      "jo": 54,
      "ic": 55,
      "es": 56,
      "ul": 57,
      "ine": 58,
      "mu": 59,
      "and": 60,
      "st": 61,
      "ie": 62,
      "vi": 63,
      "tan": 64,
      "vin": 65,
      "un": 66,
      "mar": 67,
      "re": 68,
      "ah": 69,
      "ann": 70,
      "sa": 71,
      "ir": 72,
      "im": 73,
      "enn": 74,
      "ly": 75,
      "ani": 76,
      "da": 77,
      "mi": 78,
      "ry": 79,
      "su": 80,
      "lim": 81,
      "ph": 82,
      "ia": 83,
      "se": 84,
      "ce": 85,
      "ck": 86,
      "il": 87,
      "lee": 88,
      "ab": 89,
      "ed": 90,
      "moh": 91,
      "la": 92,
      "son": 93,
      "ur": 94,
      "ing": 95,
      "ene": 96,
      "ng": 97,
      "muh": 98,
      "eng": 99,
      "ya": 100,
      "iv": 101,
      "lo": 102,
      "ei": 103,
      "ro": 104,
      "is": 105,
      "mad": 106,
      "nur": 107,
      "kar": 108,
      "eo": 109,
      "et": 110,
      "ev": 111,
      "dy": 112,
      "sam": 113,
      "jam": 114,
      "joh": 115,
      "john": 116,
      "mich": 117,
      "ram": 118,
      "chri": 119,
      "lin": 120,
      "na": 121,
      "raj": 122,
      "if": 123,
      "enny": 124,
      "mon": 125,
      "ka": 126,
      "ammad": 127,
      "pa": 128,
      "andy": 129,
      "ran": 130,
      "ho": 131,
      "ice": 132,
      "ua": 133,
      "esh": 134,
      "ard": 135,
      "thi": 136,
      "my": 137,
      "san": 138,
      "jan": 139,
      "ti": 140,
      "ha": 141,
      "vid": 142,
      "david": 143,
      "sar": 144,
      "kel": 145,
      "ew": 146,
      "ina": 147,
      "ther": 148,
      "ad": 149,
      "wong": 150,
      "ryan": 151,
      "ren": 152,
      "ee": 153,
      "tri": 154,
      "dani": 155,
      "ku": 156,
      "jack": 157,
      "ess": 158,
      "ai": 159,
      "ru": 160,
      "ben": 161,
      "oo": 162,
      "je": 163,
      "ju": 164,
      "mani": 165,
      "mond": 166,
      "win": 167,
      "muhammad": 168,
      "si": 169,
      "jason": 170,
      "stev": 171,
      "ent": 172,
      "ay": 173,
      "kumar": 174,
      "wil": 175,
      "christ": 176,
      "aron": 177,
      "angel": 178,
      "alvin": 179,
      "ian": 180,
      "jess": 181,
      "jenny": 182,
      "ke": 183,
      "lyn": 184,
      "james": 185,
      "ex": 186,
      "alex": 187,
      "sel": 188,
      "sim": 189,
      "than": 190,
      "joy": 191,
      "raja": 192,
      "ley": 193,
      "ber": 194,
      "cy": 195,
      "ael": 196,
      "michael": 197,
      "yl": 198,
      "daniel": 199,
      "may": 200,
      "cho": 201,
      "gan": 202,
      "wen": 203,
      "chan": 204,
      "ala": 205,
      "sal": 206,
      "abd": 207,
      "goh": 208,
      "steven": 209,
      "jose": 210,
      "kelvin": 211,
      "joseph": 212,
      "ony": 213,
      "eric": 214,
      "thu": 215,
      "moham": 216,
      "ray": 217,
      "muhd": 218,
      "jas": 219,
      "yu": 220,
      "ca": 221,
      "andre": 222,
      "iva": 223,
      "pet": 224,
      "peter": 225,
      "siti": 226,
      "ve": 227,
      "irene": 228,
      "jay": 229,
      "chua": 230,
      "cent": 231,
      "vincent": 232,
      "hu": 233,
      "fi": 234,
      "joe": 235,
      "ely": 236,
      "dar": 237,
      "cin": 238,
      "siva": 239,
      "selv": 240,
      "elle": 241,
      "michelle": 242,
      "jer": 243,
      "ff": 244,
      "jeff": 245,
      "jun": 246,
      "abdul": 247,
      "alice": 248,
      "ona": 249,
      "to": 250,
      "liam": 251,
      "william": 252,
      "alan": 253,
      "ung": 254,
      "anth": 255,
      "chard": 256,
      "richard": 257,
      "anna": 258,
      "paul": 259,
      "nan": 260,
      "koh": 261,
      "van": 262,
      "zh": 263,
      "onn": 264,
      "muru": 265,
      "sara": 266,
      "gra": 267,
      "patri": 268,
      "grace": 269,
      "pra": 270,
      "teo": 271,
      "ris": 272,
      "sharon": 273,
      "bala": 274,
      "anne": 275,
      "gar": 276,
      "muthu": 277,
      "sha": 278,
      "andrew": 279,
      "mohd": 280,
      "resh": 281,
      "suresh": 282,
      "eth": 283,
      "ny": 284,
      "chen": 285,
      "nic": 286,
      "mine": 287,
      "jasmine": 288,
      "ni": 289,
      "linda": 290,
      "kh": 291,
      "therine": 292,
      "us": 293,
      "eline": 294,
      "tho": 295,
      "rah": 296,
      "rey": 297,
      "chris": 298,
      "yan": 299,
      "wendy": 300,
      "lu": 301,
      "cindy": 302,
      "elyn": 303,
      "do": 304,
      "soh": 305,
      "raymond": 306,
      "ib": 307,
      "susan": 308,
      "karen": 309,
      "sk": 310,
      "fran": 311,
      "rence": 312,
      "wei": 313,
      "cher": 314,
      "chong": 315,
      "vic": 316,
      "bert": 317,
      "ica": 318,
      "annie": 319,
      "chel": 320,
      "rachel": 321,
      "yeo": 322,
      "simon": 323,
      "ramesh": 324,
      "karthi": 325,
      "jim": 326,
      "jimmy": 327,
      "sun": 328,
      "sen": 329,
      "thil": 330,
      "senthil": 331,
      "arif": 332,
      "amy": 333,
      "mary": 334,
      "ken": 335,
      "joyce": 336,
      "rian": 337,
      "ger": 338,
      "tay": 339,
      "ali": 340,
      "jenn": 341,
      "ifer": 342,
      "jennifer": 343,
      "mas": 344,
      "thomas": 345,
      "ser": 346,
      "serene": 347,
      "shah": 348,
      "sally": 349,
      "jona": 350,
      "jonathan": 351,
      "abu": 352,
      "ko": 353,
      "bo": 354,
      "ivy": 355,
      "shir": 356,
      "shirley": 357,
      "las": 358,
      "cholas": 359,
      "nicholas": 360,
      "hel": 361,
      "helen": 362,
      "nurul": 363,
      "wang": 364,
      "char": 365,
      "mark": 366,
      "low": 367,
      "hen": 368,
      "lan": 369,
      "des": 370,
      "desmond": 371,
      "mel": 372,
      "rick": 373,
      "eph": 374,
      "steph": 375,
      "jane": 376,
      "ald": 377,
      "ili": 378,
      "patrick": 379,
      "bryan": 380,
      "esan": 381,
      "mohamed": 382,
      "lily": 383,
      "yong": 384,
      "icia": 385,
      "ag": 386,
      "joanne": 387,
      "ter": 388,
      "chin": 389,
      "kevin": 390,
      "saravan": 391,
      "kim": 392,
      "cis": 393,
      "francis": 394,
      "kelly": 395,
      "esther": 396,
      "juli": 397,
      "kam": 398,
      "ivan": 399,
      "sarah": 400,
      "lai": 401,
      "mohammad": 402,
      "kenn": 403,
      "kenneth": 404,
      "wn": 405,
      "tony": 406,
      "ash": 407,
      "so": 408,
      "za": 409,
      "catherine": 410,
      "henry": 411,
      "lam": 412,
      "roy": 413,
      "har": 414,
      "cus": 415,
      "ravi": 416,
      "marcus": 417,
      "vivi": 418,
      "darren": 419,
      "selva": 420,
      "angela": 421,
      "jamin": 422,
      "benjamin": 423,
      "pu": 424,
      "rose": 425,
      "law": 426,
      "alam": 427,
      "vonn": 428,
      "yvonn": 429,
      "yvonne": 430,
      "br": 431,
      "kenny": 432,
      "yap": 433,
      "toh": 434,
      "stin": 435,
      "justin": 436,
      "sean": 437,
      "anthony": 438,
      "emy": 439,
      "jeremy": 440,
      "christine": 441,
      "der": 442,
      "jessica": 443,
      "cheryl": 444,
      "jeffrey": 445,
      "oth": 446,
      "leen": 447,
      "eileen": 448,
      "ole": 449,
      "nicole": 450,
      "man": 451,
      "yang": 452,
      "eu": 453,
      "gene": 454,
      "eugene": 455,
      "pal": 456,
      "ence": 457,
      "mike": 458,
      "prab": 459,
      "fan": 460,
      "yi": 461,
      "vijay": 462,
      "saravanan": 463,
      "no": 464,
      "ek": 465,
      "te": 466,
      "han": 467,
      "aung": 468,
      "joey": 469,
      "leong": 470,
      "chew": 471,
      "rin": 472,
      "jessie": 473,
      "shua": 474,
      "joshua": 475,
      "loh": 476,
      "gary": 477,
      "aine": 478,
      "elaine": 479,
      "lynn": 480,
      "emi": 481,
      "emily": 482,
      "tor": 483,
      "victor": 484,
      "les": 485,
      "gg": 486,
      "bern": 487,
      "ap": 488,
      "uel": 489,
      "samuel": 490,
      "sri": 491,
      "gina": 492,
      "min": 493,
      "qu": 494,
      "kri": 495,
      "krish": 496,
      "samy": 497,
      "sher": 498,
      "rub": 499,
      "dan": 500,
      "oor": 501,
      "doris": 502,
      "nes": 503,
      "agnes": 504,
      "nancy": 505,
      "edwin": 506,
      "denn": 507,
      "dennis": 508,
      "ling": 509,
      "wee": 510,
      "janet": 511,
      "ara": 512,
      "xu": 513,
      "chia": 514,
      "pand": 515,
      "evelyn": 516,
      "christina": 517,
      "gu": 518,
      "shan": 519,
      "ahmad": 520,
      "janice": 521,
      "ssa": 522,
      "hossa": 523,
      "hossain": 524,
      "kann": 525,
      "kannan": 526,
      "sathi": 527,
      "mo": 528,
      "aaron": 529,
      "rama": 530,
      "mat": 531,
      "karthik": 532,
      "tom": 533,
      "shawn": 534,
      "arun": 535,
      "dian": 536,
      "kash": 537,
      "diana": 538,
      "far": 539,
      "amand": 540,
      "amanda": 541,
      "adrian": 542,
      "zhang": 543,
      "gerald": 544,
      "kya": 545,
      "kyaw": 546,
      "yen": 547,
      "war": 548,
      "ga": 549,
      "hong": 550,
      "murugan": 551,
      "leon": 552,
      "mah": 553,
      "vier": 554,
      "dann": 555,
      "danny": 556,
      "wan": 557,
      "cia": 558,
      "albert": 559,
      "nie": 560,
      "joel": 561,
      "winnie": 562,
      "sak": 563,
      "eva": 564,
      "rajesh": 565,
      "ta": 566,
      "pe": 567,
      "id": 568,
      "neo": 569,
      "leo": 570,
      "onnie": 571,
      "tin": 572,
      "rob": 573,
      "june": 574,
      "lawrence": 575,
      "hui": 576,
      "masu": 577,
      "be": 578,
      "cheng": 579,
      "wilson": 580,
      "angie": 581,
      "johnny": 582,
      "fiq": 583,
      "ne": 584,
      "car": 585,
      "ol": 586,
      "carol": 587,
      "vivian": 588,
      "tang": 589,
      "maria": 590,
      "jean": 591,
      "pandi": 592,
      "mei": 593,
      "chlo": 594,
      "chloe": 595,
      "liu": 596,
      "oph": 597,
      "christoph": 598,
      "christopher": 599,
      "josephine": 600,
      "iz": 601,
      "heng": 602,
      "lisa": 603,
      "raju": 604,
      "palani": 605,
      "ven": 606,
      "andra": 607,
      "kat": 608,
      "venkat": 609,
      "kha": 610,
      "sie": 611,
      "cl": 612,
      "jaya": 613,
      "bernard": 614,
      "pauline": 615,
      "amir": 616,
      "xia": 617,
      "phili": 618,
      "xiao": 619,
      "philip": 620,
      "au": 621,
      "adam": 622,
      "gam": 623,
      "mugam": 624,
      "ting": 625,
      "prin": 626,
      "naz": 627,
      "ye": 628,
      "sunny": 629,
      "selvam": 630,
      "flo": 631,
      "florence": 632,
      "bob": 633,
      "rana": 634,
      "nd": 635,
      "mund": 636,
      "edmund": 637,
      "anie": 638,
      "stephanie": 639,
      "per": 640,
      "sandy": 641,
      "celyn": 642,
      "thew": 643,
      "terence": 644,
      "matthew": 645,
      "xin": 646,
      "sathish": 647,
      "kamal": 648,
      "melvin": 649,
      "poh": 650,
      "sumon": 651,
      "rul": 652,
      "sky": 653,
      "nick": 654,
      "che": 655,
      "ricky": 656,
      "jing": 657,
      "julie": 658,
      "nth": 659,
      "cynth": 660,
      "cynthia": 661,
      "adeline": 662,
      "die": 663,
      "eddie": 664,
      "essa": 665,
      "vanessa": 666,
      "tam": 667,
      "judy": 668,
      "tamil": 669,
      "den": 670,
      "sharif": 671,
      "lau": 672,
      "angeline": 673,
      "uis": 674,
      "louis": 675,
      "ward": 676,
      "edward": 677,
      "lina": 678,
      "robert": 679,
      "rahim": 680,
      "andon": 681,
      "brandon": 682,
      "go": 683,
      "samanth": 684,
      "putri": 685,
      "samantha": 686,
      "lene": 687,
      "robin": 688,
      "sohel": 689,
      "thir": 690,
      "foo": 691,
      "ge": 692,
      "geo": 693,
      "rge": 694,
      "vel": 695,
      "george": 696,
      "islam": 697,
      "fel": 698,
      "jia": 699,
      "felicia": 700,
      "eun": 701,
      "eunice": 702,
      "huang": 703,
      "ji": 704,
      "calvin": 705,
      "ba": 706,
      "max": 707,
      "sakthi": 708,
      "hasan": 709,
      "az": 710,
      "mohan": 711,
      "derrick": 712,
      "charles": 713,
      "kei": 714,
      "keith": 715,
      "gab": 716,
      "riel": 717,
      "gabriel": 718,
      "tina": 719,
      "jacky": 720,
      "haz": 721,
      "issa": 722,
      "melissa": 723,
      "fiona": 724,
      "jerry": 725,
      "alicia": 726,
      "saif": 727,
      "manik": 728,
      "saiful": 729,
      "jah": 730,
      "it": 731,
      "murug": 732,
      "drey": 733,
      "audrey": 734,
      "candy": 735,
      "arul": 736,
      "liew": 737,
      "stephen": 738,
      "nat": 739,
      "kai": 740,
      "jon": 741,
      "tra": 742,
      "ashley": 743,
      "patricia": 744,
      "mam": 745,
      "mamun": 746,
      "joan": 747,
      "love": 748,
      "nora": 749,
      "cry": 750,
      "stal": 751,
      "dave": 752,
      "crystal": 753,
      "abul": 754,
      "prakash": 755,
      "kho": 756,
      "bu": 757,
      "anbu": 758,
      "ella": 759,
      "stella": 760,
      "jocelyn": 761,
      "eliz": 762,
      "abeth": 763,
      "elizabeth": 764,
      "mail": 765,
      "roger": 766,
      "ismail": 767,
      "zal": 768,
      "lian": 769,
      "lilian": 770,
      "brian": 771,
      "era": 772,
      "veera": 773,
      "chang": 774,
      "maine": 775,
      "steve": 776,
      "cca": 777,
      "rebe": 778,
      "rebecca": 779,
      "uyen": 780,
      "reen": 781,
      "nguyen": 782,
      "doreen": 783,
      "margar": 784,
      "margaret": 785,
      "cili": 786,
      "cecili": 787,
      "cecilia": 788,
      "ying": 789,
      "masud": 790,
      "ming": 791,
      "ganesh": 792,
      "ky": 793,
      "vicky": 794,
      "anley": 795,
      "magg": 796,
      "stanley": 797,
      "khan": 798,
      "maggie": 799,
      "joanna": 800,
      "monir": 801,
      "noor": 802,
      "ok": 803,
      "katherine": 804,
      "rubel": 805,
      "hao": 806,
      "val": 807,
      "erie": 808,
      "valerie": 809,
      "choo": 810,
      "cqu": 811,
      "jacqu": 812,
      "jacqueline": 813,
      "tim": 814,
      "wu": 815,
      "othy": 816,
      "timothy": 817,
      "dew": 818,
      "dewi": 819,
      "fai": 820,
      "pang": 821,
      "chee": 822,
      "vinoth": 823,
      "jamie": 824,
      "khin": 825,
      "kal": 826,
      "kalai": 827,
      "julia": 828,
      "sankar": 829,
      "don": 830,
      "me": 831,
      "krishna": 832,
      "sy": 833,
      "ganesan": 834,
      "mohamad": 835,
      "syed": 836,
      "avier": 837,
      "xavier": 838,
      "cheong": 839,
      "ty": 840,
      "rasel": 841,
      "amim": 842,
      "shamim": 843,
      "thiru": 844,
      "anand": 845,
      "martin": 846,
      "zaw": 847,
      "dam": 848,
      "chai": 849,
      "connie": 850,
      "wai": 851,
      "bal": 852,
      "ac": 853,
      "isa": 854,
      "isaac": 855,
      "jie": 856,
      "iris": 857,
      "dine": 858,
      "sub": 859,
      "dinesh": 860,
      "vely": 861,
      "lovely": 862,
      "cas": 863,
      "lucas": 864,
      "myo": 865,
      "shaun": 866,
      "babu": 867,
      "cherry": 868,
      "ati": 869,
      "celine": 870,
      "jackson": 871,
      "salim": 872,
      "seah": 873,
      "allan": 874,
      "daryl": 875,
      "rahman": 876,
      "liang": 877,
      "ston": 878,
      "tommy": 879,
      "ethan": 880,
      "murugesan": 881,
      "siew": 882,
      "kavi": 883,
      "yee": 884,
      "benny": 885,
      "med": 886,
      "ple": 887,
      "zul": 888,
      "mohammed": 889,
      "cinta": 890,
      "nor": 891,
      "apple": 892,
      "imran": 893,
      "sekar": 894,
      "lucy": 895,
      "jin": 896,
      "sandra": 897,
      "irul": 898,
      "khairul": 899,
      "ver": 900,
      "onica": 901,
      "veronica": 902,
      "aye": 903,
      "ind": 904,
      "derek": 905,
      "ton": 906,
      "cil": 907,
      "mandy": 908,
      "pris": 909,
      "shahin": 910,
      "cilla": 911,
      "priscilla": 912,
      "khoo": 913,
      "hab": 914,
      "moe": 915,
      "habib": 916,
      "chit": 917,
      "ashok": 918,
      "stian": 919,
      "seba": 920,
      "johnson": 921,
      "hazel": 922,
      "sebastian": 923,
      "nel": 924,
      "ana": 925,
      "nelson": 926,
      "yun": 927,
      "kc": 928,
      "du": 929,
      "rai": 930,
      "sabr": 931,
      "durai": 932,
      "sabrina": 933,
      "fiqul": 934,
      "clai": 935,
      "saw": 936,
      "claire": 937,
      "ron": 938,
      "dylan": 939,
      "ronald": 940,
      "pri": 941,
      "priya": 942,
      "uk": 943,
      "alie": 944,
      "ggy": 945,
      "quek": 946,
      "faruk": 947,
      "peggy": 948,
      "natalie": 949,
      "fre": 950,
      "alfre": 951,
      "alfred": 952,
      "dia": 953,
      "umugam": 954,
      "arumugam": 955,
      "lydia": 956,
      "tracy": 957,
      "geraldine": 958,
      "way": 959,
      "shoh": 960,
      "wayne": 961,
      "boon": 962,
      "terry": 963,
      "soe": 964,
      "clara": 965,
      "hua": 966,
      "idah": 967,
      "maya": 968,
      "iq": 969,
      "tif": 970,
      "regina": 971,
      "fany": 972,
      "tiffany": 973,
      "amel": 974,
      "amelia": 975,
      "iah": 976,
      "nana": 977,
      "dran": 978,
      "zan": 979,
      "mizan": 980,
      "tee": 981,
      "alamin": 982,
      "seng": 983,
      "charmaine": 984,
      "ruby": 985,
      "chow": 986,
      "gun": 987,
      "rina": 988,
      "see": 989,
      "guna": 990,
      "ril": 991,
      "april": 992,
      "kong": 993,
      "nathan": 994,
      "moor": 995,
      "hari": 996,
      "pan": 997,
      "leonard": 998,
      "kang": 999,
      "anita": 1000,
      "bren": 1001,
      "co": 1002,
      "peng": 1003,
      "daph": 1004,
      "kok": 1005,
      "brenda": 1006,
      "colin": 1007,
      "daphne": 1008,
      "phia": 1009,
      "zheng": 1010,
      "sophia": 1011,
      "mul": 1012,
      "nazmul": 1013,
      "ibrahim": 1014,
      "soon": 1015,
      "harry": 1016,
      "esa": 1017,
      "theresa": 1018,
      "sai": 1019,
      "rdan": 1020,
      "jordan": 1021,
      "andan": 1022,
      "jackie": 1023,
      "manikandan": 1024,
      "ayu": 1025,
      "andrea": 1026,
      "bet": 1027,
      "cess": 1028,
      "gel": 1029,
      "sir": 1030,
      "nasir": 1031,
      "nigel": 1032,
      "princess": 1033,
      "betty": 1034,
      "jen": 1035,
      "meng": 1036,
      "teng": 1037,
      "naw": 1038,
      "bun": 1039,
      "cle": 1040,
      "iang": 1041,
      "ment": 1042,
      "bunda": 1043,
      "clement": 1044,
      "liza": 1045,
      "pon": 1046,
      "ripon": 1047,
      "chu": 1048,
      "eddy": 1049,
      "angir": 1050,
      "sue": 1051,
      "jahangir": 1052,
      "fong": 1053,
      "tong": 1054,
      "prabu": 1055,
      "bung": 1056,
      "rajan": 1057,
      "bunga": 1058,
      "mai": 1059,
      "prince": 1060,
      "ise": 1061,
      "danial": 1062,
      "denise": 1063,
      "sasi": 1064,
      "oy": 1065,
      "aloy": 1066,
      "jolene": 1067,
      "sius": 1068,
      "aloysius": 1069,
      "ramu": 1070,
      "hann": 1071,
      "hannah": 1072,
      "syl": 1073,
      "via": 1074,
      "jamal": 1075,
      "sylvia": 1076,
      "ros": 1077,
      "loo": 1078,
      "nazrul": 1079,
      "song": 1080,
      "mawar": 1081,
      "sheryl": 1082,
      "ome": 1083,
      "lie": 1084,
      "jerome": 1085,
      "kamrul": 1086,
      "leslie": 1087,
      "ki": 1088,
      "javier": 1089,
      "yuki": 1090,
      "fang": 1091,
      "ivel": 1092,
      "yuan": 1093,
      "kent": 1094,
      "rahul": 1095,
      "feng": 1096,
      "arence": 1097,
      "clarence": 1098,
      "nay": 1099,
      "ronnie": 1100,
      "by": 1101,
      "bobby": 1102,
      "ey": 1103,
      "hon": 1104,
      "honey": 1105,
      "shi": 1106,
      "raman": 1107,
      "kie": 1108,
      "yin": 1109,
      "frankie": 1110,
      "anwar": 1111,
      "lei": 1112,
      "velu": 1113,
      "vivien": 1114,
      "long": 1115,
      "irfan": 1116,
      "shanmugam": 1117,
      "naga": 1118,
      "benson": 1119,
      "akash": 1120,
      "chandra": 1121,
      "shei": 1122,
      "sheikh": 1123,
      "ping": 1124,
      "jayden": 1125,
      "yati": 1126,
      "winston": 1127,
      "bee": 1128,
      "liton": 1129,
      "kab": 1130,
      "kabir": 1131,
      "ow": 1132,
      "jasper": 1133,
      "faith": 1134,
      "charlene": 1135,
      "ramani": 1136,
      "sundar": 1137,
      "subramani": 1138,
      "abdur": 1139,
      "teh": 1140,
      "gl": 1141,
      "tham": 1142,
      "glenn": 1143,
      "ks": 1144,
      "ict": 1145,
      "edict": 1146,
      "benedict": 1147,
      "zhi": 1148,
      "dawn": 1149,
      "zai": 1150,
      "chand": 1151,
      "amirul": 1152,
      "chandran": 1153,
      "gir": 1154,
      "elsie": 1155,
      "alamgir": 1156,
      "hafi": 1157,
      "moon": 1158,
      "hafiz": 1159,
      "jew": 1160,
      "we": 1161,
      "gavin": 1162,
      "jewel": 1163,
      "zho": 1164,
      "praba": 1165,
      "zhou": 1166,
      "nagar": 1167,
      "nagara": 1168,
      "rali": 1169,
      "murali": 1170,
      "oon": 1171,
      "zin": 1172,
      "chinna": 1173,
      "gopal": 1174,
      "jian": 1175,
      "pre": 1176,
      "pei": 1177,
      "prem": 1178,
      "mahesh": 1179,
      "kw": 1180,
      "rani": 1181,
      "jai": 1182,
      "sherry": 1183,
      "zhao": 1184,
      "guo": 1185,
      "ien": 1186,
      "damien": 1187,
      "azman": 1188,
      "jib": 1189,
      "mathi": 1190,
      "santho": 1191,
      "santhosh": 1192,
      "thy": 1193,
      "rajib": 1194,
      "moorthy": 1195,
      "balu": 1196,
      "leow": 1197,
      "srin": 1198,
      "up": 1199,
      "karup": 1200,
      "ching": 1201,
      "peh": 1202,
      "deva": 1203,
      "xue": 1204,
      "babul": 1205,
      "tricia": 1206,
      "qi": 1207,
      "krishnan": 1208,
      "shohel": 1209,
      "thic": 1210,
      "karthic": 1211,
      "karthick": 1212,
      "tun": 1213,
      "saran": 1214,
      "soo": 1215,
      "amad": 1216,
      "muhamad": 1217,
      "farhan": 1218,
      "masum": 1219,
      "fei": 1220,
      "rajkumar": 1221,
      "danish": 1222,
      "gn": 1223,
      "rafiqul": 1224,
      "vign": 1225,
      "vignesh": 1226,
      "ebe": 1227,
      "oebe": 1228,
      "endran": 1229,
      "phoebe": 1230,
      "rajendran": 1231,
      "prabhu": 1232,
      "sin": 1233,
      "cai": 1234,
      "ein": 1235,
      "fati": 1236,
      "fatimah": 1237,
      "tian": 1238,
      "yue": 1239,
      "yanti": 1240,
      "boy": 1241,
      "veen": 1242,
      "praveen": 1243,
      "chng": 1244,
      "phua": 1245,
      "kee": 1246,
      "mal": 1247,
      "umal": 1248,
      "perumal": 1249,
      "jahid": 1250,
      "ooi": 1251,
      "maha": 1252,
      "lon": 1253,
      "milon": 1254,
      "rya": 1255,
      "surya": 1256,
      "zi": 1257,
      "kazi": 1258,
      "balaji": 1259,
      "pi": 1260,
      "gopi": 1261,
      "din": 1262,
      "yo": 1263,
      "phyo": 1264,
      "sivakumar": 1265,
      "fu": 1266,
      "indah": 1267,
      "zhen": 1268,
      "int": 1269,
      "myint": 1270,
      "alagu": 1271,
      "fitri": 1272,
      "yip": 1273,
      "fir": 1274,
      "kir": 1275,
      "shu": 1276,
      "jakir": 1277,
      "daus": 1278,
      "firdaus": 1279,
      "ddam": 1280,
      "saddam": 1281,
      "bernice": 1282,
      "yew": 1283,
      "chung": 1284,
      "faizal": 1285,
      "bil": 1286,
      "kib": 1287,
      "lal": 1288,
      "rakib": 1289,
      "vive": 1290,
      "iqbal": 1291,
      "billal": 1292,
      "vivek": 1293,
      "de": 1294,
      "thya": 1295,
      "sathya": 1296,
      "rowen": 1297,
      "devi": 1298,
      "rowena": 1299,
      "aw": 1300,
      "wati": 1301,
      "selvara": 1302,
      "selvaraj": 1303,
      "inul": 1304,
      "aminul": 1305,
      "saravana": 1306,
      "ragu": 1307,
      "jiang": 1308,
      "bing": 1309,
      "vijaya": 1310,
      "thet": 1311,
      "ariful": 1312,
      "woo": 1313,
      "naing": 1314,
      "mizanur": 1315,
      "ette": 1316,
      "lynette": 1317,
      "faridah": 1318,
      "thivel": 1319,
      "sakthivel": 1320,
      "dong": 1321,
      "sg": 1322,
      "chun": 1323,
      "rosal": 1324,
      "rosalind": 1325,
      "ryl": 1326,
      "darryl": 1327,
      "ramasamy": 1328,
      "qing": 1329,
      "tran": 1330,
      "xiang": 1331,
      "sharifah": 1332,
      "ais": 1333,
      "yah": 1334,
      "aisyah": 1335,
      "lis": 1336,
      "phyl": 1337,
      "yao": 1338,
      "phyllis": 1339,
      "ananth": 1340,
      "jes": 1341,
      "uz": 1342,
      "jeslyn": 1343,
      "uzzal": 1344,
      "dw": 1345,
      "mya": 1346,
      "skar": 1347,
      "abub": 1348,
      "mahabub": 1349,
      "baskar": 1350,
      "dwi": 1351,
      "myat": 1352,
      "owar": 1353,
      "umi": 1354,
      "weng": 1355,
      "anowar": 1356,
      "arjun": 1357,
      "sujon": 1358,
      "seow": 1359,
      "winson": 1360,
      "sathiya": 1361,
      "shwe": 1362,
      "lay": 1363,
      "xuan": 1364,
      "izah": 1365,
      "azizah": 1366,
      "ct": 1367,
      "guan": 1368,
      "ham": 1369,
      "hamidah": 1370,
      "sya": 1371,
      "jaslyn": 1372,
      "syafiq": 1373,
      "anson": 1374,
      "eka": 1375,
      "ranji": 1376,
      "rahmat": 1377,
      "ranjith": 1378,
      "sheng": 1379,
      "teoh": 1380,
      "pandiyan": 1381,
      "athi": 1382,
      "bhar": 1383,
      "bharathi": 1384,
      "qian": 1385,
      "maung": 1386,
      "shahid": 1387,
      "shahidul": 1388,
      "tha": 1389,
      "kavitha": 1390,
      "hn": 1391,
      "ning": 1392,
      "haziq": 1393,
      "hnin": 1394,
      "ding": 1395,
      "leng": 1396,
      "khai": 1397,
      "subramanian": 1398,
      "afiq": 1399,
      "miah": 1400,
      "venkatesh": 1401,
      "aya": 1402,
      "cah": 1403,
      "cahaya": 1404,
      "phyu": 1405,
      "zhu": 1406,
      "evon": 1407,
      "fion": 1408,
      "cheah": 1409,
      "rosli": 1410,
      "venkatesan": 1411,
      "dal": 1412,
      "gdal": 1413,
      "magdal": 1414,
      "hock": 1415,
      "putra": 1416,
      "magdalene": 1417,
      "sc": 1418,
      "neng": 1419,
      "sng": 1420,
      "shen": 1421,
      "subra": 1422,
      "dha": 1423,
      "hed": 1424,
      "radha": 1425,
      "loke": 1426,
      "sohag": 1427,
      "mok": 1428,
      "mehed": 1429,
      "roslan": 1430,
      "mehedi": 1431,
      "shafiqul": 1432,
      "marit": 1433,
      "arajan": 1434,
      "shankar": 1435,
      "natarajan": 1436,
      "chuan": 1437,
      "marites": 1438,
      "kumaran": 1439,
      "vet": 1440,
      "kaung": 1441,
      "yuni": 1442,
      "vetri": 1443,
      "aishah": 1444,
      "teck": 1445,
      "iul": 1446,
      "poon": 1447,
      "ini": 1448,
      "shermaine": 1449,
      "robiul": 1450,
      "noraini": 1451,
      "nagarajan": 1452,
      "kwek": 1453,
      "iya": 1454,
      "kand": 1455,
      "piah": 1456,
      "sujan": 1457,
      "iskand": 1458,
      "senthilkumar": 1459,
      "periya": 1460,
      "karuppiah": 1461,
      "iskandar": 1462,
      "periyasamy": 1463,
      "ksh": 1464,
      "ery": 1465,
      "laksh": 1466,
      "choon": 1467,
      "jeffery": 1468,
      "manan": 1469,
      "azmi": 1470,
      "lakshmanan": 1471,
      "sherlyn": 1472,
      "inal": 1473,
      "chiang": 1474,
      "zainal": 1475,
      "selvakumar": 1476,
      "ful": 1477,
      "thein": 1478,
      "raful": 1479,
      "phang": 1480,
      "ashraful": 1481,
      "xie": 1482,
      "dhar": 1483,
      "koo": 1484,
      "rong": 1485,
      "shariful": 1486,
      "dharma": 1487,
      "asu": 1488,
      "ht": 1489,
      "vasu": 1490,
      "jolin": 1491,
      "htet": 1492,
      "arlyn": 1493,
      "ickam": 1494,
      "manickam": 1495,
      "pearlyn": 1496,
      "huat": 1497,
      "lew": 1498,
      "mahen": 1499,
      "mahendran": 1500,
      "swee": 1501,
      "hul": 1502,
      "kwan": 1503,
      "wsar": 1504,
      "kawsar": 1505,
      "ruhul": 1506,
      "tey": 1507,
      "kathir": 1508,
      "royston": 1509,
      "xinyi": 1510,
      "shohag": 1511,
      "ada": 1512,
      "ilah": 1513,
      "jamilah": 1514,
      "shahada": 1515,
      "shahadat": 1516,
      "sago": 1517,
      "sethu": 1518,
      "sagor": 1519,
      "imuthu": 1520,
      "intan": 1521,
      "marimuthu": 1522,
      "jeeva": 1523,
      "keyan": 1524,
      "karthikeyan": 1525,
      "habibur": 1526,
      "reza": 1527,
      "murugesh": 1528,
      "rezaul": 1529,
      "wah": 1530,
      "xing": 1531,
      "imi": 1532,
      "suha": 1533,
      "suhaimi": 1534,
      "choong": 1535,
      "qin": 1536,
      "muthukumar": 1537,
      "shai": 1538,
      "shaik": 1539,
      "alif": 1540,
      "gao": 1541,
      "beng": 1542,
      "ayyap": 1543,
      "kumaresan": 1544,
      "teri": 1545,
      "puteri": 1546,
      "pandian": 1547,
      "ayyappan": 1548,
      "daw": 1549,
      "ivasan": 1550,
      "prabha": 1551,
      "srinivasan": 1552,
      "how": 1553,
      "nyi": 1554,
      "fau": 1555,
      "ziah": 1556,
      "rizal": 1557,
      "joycelyn": 1558,
      "fauziah": 1559,
      "bi": 1560,
      "plo": 1561,
      "choy": 1562,
      "biplo": 1563,
      "biplob": 1564,
      "tty": 1565,
      "elang": 1566,
      "sajib": 1567,
      "kutty": 1568,
      "khor": 1569,
      "elango": 1570,
      "thala": 1571,
      "jesslyn": 1572,
      "jibon": 1573,
      "pala": 1574,
      "rasu": 1575,
      "lum": 1576,
      "zaiton": 1577,
      "palash": 1578,
      "thang": 1579,
      "thanga": 1580,
      "hoo": 1581,
      "jothi": 1582,
      "salmah": 1583,
      "nang": 1584,
      "fo": 1585,
      "vad": 1586,
      "ramachandran": 1587,
      "foong": 1588,
      "vadivel": 1589,
      "roh": 1590,
      "yeow": 1591,
      "khaing": 1592,
      "rohani": 1593,
      "zhong": 1594,
      "yuen": 1595,
      "yeoh": 1596,
      "srinu": 1597,
      "arasu": 1598,
      "ore": 1599,
      "sing": 1600,
      "apore": 1601,
      "nagaraj": 1602,
      "singapore": 1603,
      "dil": 1604,
      "zali": 1605,
      "razali": 1606,
      "aidil": 1607,
      "woon": 1608,
      "muruga": 1609,
      "moorthi": 1610,
      "kif": 1611,
      "aling": 1612,
      "ramaling": 1613,
      "zulkif": 1614,
      "ramalingam": 1615,
      "zulkifli": 1616,
      "try": 1617,
      "putry": 1618,
      "hri": 1619,
      "lye": 1620,
      "hoe": 1621,
      "doy": 1622,
      "hridoy": 1623,
      "luo": 1624,
      "yeong": 1625,
      "tok": 1626,
      "keng": 1627,
      "yc": 1628,
      "thin": 1629,
      "kwok": 1630,
      "ariv": 1631,
      "arivu": 1632,
      "hla": 1633,
      "hwee": 1634,
      "tiong": 1635,
      "kuan": 1636,
      "leh": 1637,
      "mdm": 1638,
      "jolyn": 1639,
      "salleh": 1640,
      "hoon": 1641,
      "paiah": 1642,
      "karuppaiah": 1643,
      "zeng": 1644,
      "kyi": 1645,
      "khine": 1646,
      "nwe": 1647,
      "nyein": 1648
    },
    "merges": [
      "a n",
      "i n",
      "e n",
      "o n",
      "a r",
      "c h",
      "a m",
      "e l",
      "a l",
      "e r",
      "t h",
      "s h",
      "r a",
      "l i",
      "o h",
      "r i",
      "l e",
      "m d",
      "m a",
      "j a",
      "on g",
      "an g",
      "j o",
      "i c",
      "e s",
      "u l",
      "in e",
      "m u",
      "an d",
      "s t",
      "i e",
      "v i",
      "t an",
      "v in",
      "u n",
      "m ar",
      "r e",
      "a h",
      "an n",
      "s a",
      "i r",
      "i m",
      "en n",
      "l y",
      "an i",
      "d a",
      "m i",
      "r y",
      "s u",
      "li m",
      "p h",
      "i a",
      "s e",
      "c e",
      "c k",
      "i l",
      "le e",
      "a b",
      "e d",
      "m oh",
      "l a",
      "s on",
      "u r",
      "in g",
      "en e",
      "n g",
      "mu h",
      "en g",
      "y a",
      "i v",
      "l o",
      "e i",
      "r o",
      "i s",
      "ma d",
      "n ur",
      "k ar",
      "e o",
      "e t",
      "e v",
      "d y",
      "s am",
      "j am",
      "j oh",
      "joh n",
      "mi ch",
      "r am",
      "ch ri",
      "l in",
      "n a",
      "ra j",
      "i f",
      "enn y",
      "m on",
      "k a",
      "am mad",
      "p a",
      "and y",
      "r an",
      "h o",
      "ic e",
      "u a",
      "e sh",
      "ar d",
      "th i",
      "m y",
      "s an",
      "j an",
      "t i",
      "h a",
      "vi d",
      "da vid",
      "s ar",
      "k el",
      "e w",
      "in a",
      "th er",
      "a d",
      "w ong",
      "ry an",
      "r en",
      "e e",
      "t ri",
      "d ani",
      "k u",
      "ja ck",
      "es s",
      "a i",
      "r u",
      "b en",
      "o o",
      "j e",
      "j u",
      "m ani",
      "mon d",
      "w in",
      "muh ammad",
      "s i",
      "ja son",
      "st ev",
      "en t",
      "a y",
      "ku mar",
      "w il",
      "chri st",
      "ar on",
      "ang el",
      "al vin",
      "i an",
      "j ess",
      "j enny",
      "k e",
      "ly n",
      "jam es",
      "e x",
      "al ex",
      "s el",
      "s im",
      "th an",
      "jo y",
      "ra ja",
      "le y",
      "b er",
      "c y",
      "a el",
      "mich ael",
      "y l",
      "dani el",
      "ma y",
      "ch o",
      "g an",
      "w en",
      "ch an",
      "al a",
      "s al",
      "ab d",
      "g oh",
      "stev en",
      "jo se",
      "kel vin",
      "jose ph",
      "on y",
      "er ic",
      "th u",
      "moh am",
      "ra y",
      "muh d",
      "ja s",
      "y u",
      "c a",
      "and re",
      "iv a",
      "p et",
      "pet er",
      "si ti",
      "v e",
      "ir ene",
      "ja y",
      "ch ua",
      "c ent",
      "vin cent",
      "h u",
      "f i",
      "jo e",
      "el y",
      "d ar",
      "c in",
      "s iva",
      "sel v",
      "el le",
      "mich elle",
      "j er",
      "f f",
      "je ff",
      "j un",
      "abd ul",
      "al ice",
      "on a",
      "t o",
      "li am",
      "wil liam",
      "al an",
      "un g",
      "an th",
      "ch ard",
      "ri chard",
      "ann a",
      "pa ul",
      "n an",
      "k oh",
      "v an",
      "z h",
      "on n",
      "mu ru",
      "sar a",
      "g ra",
      "pa tri",
      "gra ce",
      "p ra",
      "t eo",
      "ri s",
      "sh aron",
      "b ala",
      "ann e",
      "g ar",
      "mu thu",
      "sh a",
      "andre w",
      "moh d",
      "re sh",
      "su resh",
      "e th",
      "n y",
      "ch en",
      "n ic",
      "m ine",
      "jas mine",
      "n i",
      "lin da",
      "k h",
      "ther ine",
      "u s",
      "el ine",
      "th o",
      "ra h",
      "re y",
      "chri s",
      "y an",
      "wen dy",
      "l u",
      "cin dy",
      "ely n",
      "d o",
      "s oh",
      "ray mond",
      "i b",
      "su san",
      "kar en",
      "s k",
      "f ran",
      "ren ce",
      "w ei",
      "ch er",
      "ch ong",
      "v ic",
      "ber t",
      "ic a",
      "ann ie",
      "ch el",
      "ra chel",
      "y eo",
      "sim on",
      "ram esh",
      "kar thi",
      "j im",
      "jim my",
      "s un",
      "s en",
      "th il",
      "sen thil",
      "ar if",
      "am y",
      "mar y",
      "k en",
      "joy ce",
      "ri an",
      "g er",
      "t ay",
      "al i",
      "j enn",
      "if er",
      "jenn ifer",
      "ma s",
      "tho mas",
      "s er",
      "ser ene",
      "sh ah",
      "sal ly",
      "j ona",
      "jona than",
      "ab u",
      "k o",
      "b o",
      "iv y",
      "sh ir",
      "shir ley",
      "la s",
      "cho las",
      "ni cholas",
      "h el",
      "hel en",
      "nur ul",
      "w ang",
      "ch ar",
      "mar k",
      "lo w",
      "h en",
      "l an",
      "d es",
      "des mond",
      "m el",
      "ri ck",
      "e ph",
      "st eph",
      "jan e",
      "al d",
      "i li",
      "patri ck",
      "b ryan",
      "es an",
      "moham ed",
      "li ly",
      "y ong",
      "ic ia",
      "a g",
      "jo anne",
      "t er",
      "ch in",
      "ke vin",
      "sara van",
      "k im",
      "c is",
      "fran cis",
      "kel ly",
      "es ther",
      "ju li",
      "k am",
      "iv an",
      "sar ah",
      "la i",
      "moh ammad",
      "k enn",
      "kenn eth",
      "w n",
      "t ony",
      "a sh",
      "s o",
      "z a",
      "ca therine",
      "hen ry",
      "l am",
      "ro y",
      "h ar",
      "c us",
      "ra vi",
      "mar cus",
      "vi vi",
      "dar ren",
      "selv a",
      "angel a",
      "jam in",
      "ben jamin",
      "p u",
      "ro se",
      "la w",
      "al am",
      "v onn",
      "y vonn",
      "yvonn e",
      "b r",
      "k enny",
      "ya p",
      "t oh",
      "st in",
      "ju stin",
      "se an",
      "anth ony",
      "e my",
      "jer emy",
      "christ ine",
      "d er",
      "jess ica",
      "cher yl",
      "jeff rey",
      "o th",
      "le en",
      "ei leen",
      "o le",
      "nic ole",
      "m an",
      "y ang",
      "e u",
      "g ene",
      "eu gene",
      "p al",
      "en ce",
      "mi ke",
      "pra b",
      "f an",
      "y i",
      "vi jay",
      "saravan an",
      "n o",
      "e k",
      "t e",
      "h an",
      "a ung",
      "joe y",
      "le ong",
      "ch ew",
      "r in",
      "jess ie",
      "sh ua",
      "jo shua",
      "l oh",
      "gar y",
      "a ine",
      "el aine",
      "lyn n",
      "e mi",
      "emi ly",
      "to r",
      "vic tor",
      "le s",
      "g g",
      "ber n",
      "a p",
      "u el",
      "sam uel",
      "s ri",
      "g ina",
      "m in",
      "q u",
      "k ri",
      "kri sh",
      "sam y",
      "sh er",
      "ru b",
      "d an",
      "oo r",
      "do ris",
      "n es",
      "ag nes",
      "nan cy",
      "ed win",
      "d enn",
      "denn is",
      "l ing",
      "w ee",
      "jan et",
      "ar a",
      "x u",
      "ch ia",
      "p and",
      "ev elyn",
      "christ ina",
      "g u",
      "sh an",
      "ah mad",
      "jan ice",
      "s sa",
      "ho ssa",
      "hossa in",
      "k ann",
      "kann an",
      "sa thi",
      "m o",
      "a aron",
      "ram a",
      "ma t",
      "karthi k",
      "to m",
      "sha wn",
      "ar un",
      "d ian",
      "ka sh",
      "dian a",
      "f ar",
      "am and",
      "amand a",
      "ad rian",
      "zh ang",
      "ger ald",
      "k ya",
      "kya w",
      "y en",
      "w ar",
      "g a",
      "h ong",
      "muru gan",
      "le on",
      "ma h",
      "vi er",
      "d ann",
      "dann y",
      "w an",
      "c ia",
      "al bert",
      "n ie",
      "jo el",
      "win nie",
      "sa k",
      "ev a",
      "raj esh",
      "t a",
      "p e",
      "i d",
      "n eo",
      "le o",
      "onn ie",
      "t in",
      "ro b",
      "jun e",
      "law rence",
      "hu i",
      "ma su",
      "b e",
      "ch eng",
      "wil son",
      "ang ie",
      "john ny",
      "fi q",
      "n e",
      "c ar",
      "o l",
      "car ol",
      "vivi an",
      "t ang",
      "mar ia",
      "je an",
      "pand i",
      "m ei",
      "ch lo",
      "chlo e",
      "li u",
      "o ph",
      "christ oph",
      "christoph er",
      "joseph ine",
      "i z",
      "h eng",
      "li sa",
      "raj u",
      "pal ani",
      "v en",
      "and ra",
      "ka t",
      "ven kat",
      "k ha",
      "s ie",
      "c l",
      "ja ya",
      "bern ard",
      "paul ine",
      "am ir",
      "x ia",
      "ph ili",
      "xia o",
      "phili p",
      "a u",
      "ad am",
      "g am",
      "mu gam",
      "t ing",
      "p rin",
      "na z",
      "y e",
      "sun ny",
      "selv am",
      "f lo",
      "flo rence",
      "bo b",
      "ran a",
      "n d",
      "mu nd",
      "ed mund",
      "an ie",
      "steph anie",
      "p er",
      "s andy",
      "c elyn",
      "th ew",
      "ter ence",
      "mat thew",
      "x in",
      "sathi sh",
      "kam al",
      "mel vin",
      "p oh",
      "su mon",
      "r ul",
      "sk y",
      "nic k",
      "ch e",
      "rick y",
      "j ing",
      "juli e",
      "n th",
      "cy nth",
      "cynth ia",
      "ad eline",
      "d ie",
      "ed die",
      "es sa",
      "van essa",
      "t am",
      "ju dy",
      "tam il",
      "d en",
      "sh arif",
      "la u",
      "angel ine",
      "u is",
      "lo uis",
      "w ard",
      "ed ward",
      "lin a",
      "ro bert",
      "rah im",
      "and on",
      "br andon",
      "g o",
      "sam anth",
      "pu tri",
      "samanth a",
      "l ene",
      "rob in",
      "soh el",
      "th ir",
      "f oo",
      "g e",
      "g eo",
      "r ge",
      "v el",
      "geo rge",
      "is lam",
      "f el",
      "j ia",
      "fel icia",
      "e un",
      "eun ice",
      "hu ang",
      "j i",
      "c alvin",
      "b a",
      "ma x",
      "sak thi",
      "ha san",
      "a z",
      "moh an",
      "der rick",
      "char les",
      "k ei",
      "kei th",
      "g ab",
      "ri el",
      "gab riel",
      "t ina",
      "jack y",
      "ha z",
      "is sa",
      "mel issa",
      "fi ona",
      "jer ry",
      "al icia",
      "sa if",
      "mani k",
      "saif ul",
      "ja h",
      "i t",
      "muru g",
      "d rey",
      "au drey",
      "c andy",
      "ar ul",
      "li ew",
      "steph en",
      "na t",
      "ka i",
      "j on",
      "t ra",
      "ash ley",
      "patri cia",
      "m am",
      "mam un",
      "jo an",
      "lo ve",
      "no ra",
      "c ry",
      "st al",
      "da ve",
      "cry stal",
      "ab ul",
      "pra kash",
      "k ho",
      "b u",
      "an bu",
      "el la",
      "st ella",
      "jo celyn",
      "el iz",
      "ab eth",
      "eliz abeth",
      "ma il",
      "ro ger",
      "is mail",
      "z al",
      "li an",
      "li lian",
      "b rian",
      "er a",
      "ve era",
      "ch ang",
      "ma ine",
      "stev e",
      "c ca",
      "re be",
      "rebe cca",
      "u yen",
      "re en",
      "ng uyen",
      "do reen",
      "mar gar",
      "margar et",
      "c ili",
      "ce cili",
      "cecili a",
      "y ing",
      "masu d",
      "m ing",
      "gan esh",
      "k y",
      "vic ky",
      "an ley",
      "ma gg",
      "st anley",
      "kh an",
      "magg ie",
      "jo anna",
      "mon ir",
      "n oor",
      "o k",
      "ka therine",
      "rub el",
      "ha o",
      "v al",
      "er ie",
      "val erie",
      "ch oo",
      "c qu",
      "ja cqu",
      "jacqu eline",
      "t im",
      "w u",
      "oth y",
      "tim othy",
      "d ew",
      "dew i",
      "f ai",
      "p ang",
      "ch ee",
      "vin oth",
      "jam ie",
      "kh in",
      "k al",
      "kal ai",
      "juli a",
      "san kar",
      "d on",
      "m e",
      "krish na",
      "s y",
      "gan esan",
      "moham ad",
      "sy ed",
      "a vier",
      "x avier",
      "che ong",
      "t y",
      "ra sel",
      "am im",
      "sh amim",
      "thir u",
      "an and",
      "mar tin",
      "za w",
      "d am",
      "ch ai",
      "c onnie",
      "w ai",
      "b al",
      "a c",
      "i sa",
      "isa ac",
      "j ie",
      "i ris",
      "d ine",
      "su b",
      "dine sh",
      "v ely",
      "lo vely",
      "ca s",
      "lu cas",
      "my o",
      "sha un",
      "b abu",
      "cher ry",
      "a ti",
      "c eline",
      "jack son",
      "sal im",
      "se ah",
      "al lan",
      "dar yl",
      "rah man",
      "li ang",
      "st on",
      "tom my",
      "e than",
      "murug esan",
      "sie w",
      "ka vi",
      "y ee",
      "b enny",
      "m ed",
      "p le",
      "z ul",
      "moham med",
      "cin ta",
      "no r",
      "ap ple",
      "im ran",
      "se kar",
      "lu cy",
      "j in",
      "s andra",
      "ir ul",
      "kha irul",
      "v er",
      "on ica",
      "ver onica",
      "ay e",
      "in d",
      "der ek",
      "t on",
      "c il",
      "m andy",
      "p ris",
      "shah in",
      "cil la",
      "pris cilla",
      "kho o",
      "h ab",
      "mo e",
      "hab ib",
      "ch it",
      "ash ok",
      "st ian",
      "se ba",
      "john son",
      "haz el",
      "seba stian",
      "n el",
      "an a",
      "nel son",
      "y un",
      "k c",
      "d u",
      "ra i",
      "sa br",
      "du rai",
      "sabr ina",
      "fiq ul",
      "c lai",
      "sa w",
      "clai re",
      "r on",
      "dy lan",
      "ron ald",
      "p ri",
      "pri ya",
      "u k",
      "al ie",
      "gg y",
      "qu ek",
      "far uk",
      "pe ggy",
      "nat alie",
      "f re",
      "al fre",
      "alfre d",
      "d ia",
      "u mugam",
      "ar umugam",
      "ly dia",
      "tra cy",
      "gerald ine",
      "w ay",
      "sh oh",
      "way ne",
      "bo on",
      "ter ry",
      "so e",
      "cl ara",
      "h ua",
      "id ah",
      "ma ya",
      "i q",
      "t if",
      "re gina",
      "fan y",
      "tif fany",
      "am el",
      "amel ia",
      "i ah",
      "nan a",
      "d ran",
      "z an",
      "mi zan",
      "t ee",
      "alam in",
      "s eng",
      "char maine",
      "rub y",
      "cho w",
      "g un",
      "r ina",
      "se e",
      "gun a",
      "ri l",
      "ap ril",
      "k ong",
      "na than",
      "m oor",
      "har i",
      "p an",
      "leon ard",
      "k ang",
      "ani ta",
      "b ren",
      "c o",
      "p eng",
      "da ph",
      "ko k",
      "bren da",
      "co lin",
      "daph ne",
      "ph ia",
      "zh eng",
      "so phia",
      "m ul",
      "naz mul",
      "ib rahim",
      "so on",
      "har ry",
      "es a",
      "ther esa",
      "sa i",
      "r dan",
      "jo rdan",
      "and an",
      "jack ie",
      "manik andan",
      "ay u",
      "andre a",
      "b et",
      "c ess",
      "g el",
      "s ir",
      "na sir",
      "ni gel",
      "prin cess",
      "bet ty",
      "j en",
      "m eng",
      "t eng",
      "na w",
      "b un",
      "c le",
      "i ang",
      "m ent",
      "bun da",
      "cle ment",
      "li za",
      "p on",
      "ri pon",
      "ch u",
      "ed dy",
      "ang ir",
      "su e",
      "jah angir",
      "f ong",
      "t ong",
      "prab u",
      "b ung",
      "raj an",
      "bung a",
      "ma i",
      "prin ce",
      "i se",
      "dani al",
      "den ise",
      "sa si",
      "o y",
      "al oy",
      "jo lene",
      "si us",
      "aloy sius",
      "ram u",
      "h ann",
      "hann ah",
      "s yl",
      "vi a",
      "jam al",
      "syl via",
      "ro s",
      "lo o",
      "naz rul",
      "s ong",
      "ma war",
      "sher yl",
      "o me",
      "li e",
      "jer ome",
      "kam rul",
      "les lie",
      "k i",
      "ja vier",
      "yu ki",
      "f ang",
      "iv el",
      "yu an",
      "k ent",
      "rah ul",
      "f eng",
      "ar ence",
      "cl arence",
      "na y",
      "r onnie",
      "b y",
      "bob by",
      "e y",
      "h on",
      "hon ey",
      "sh i",
      "ram an",
      "k ie",
      "y in",
      "fran kie",
      "an war",
      "le i",
      "vel u",
      "vivi en",
      "l ong",
      "ir fan",
      "shan mugam",
      "na ga",
      "ben son",
      "a kash",
      "ch andra",
      "sh ei",
      "shei kh",
      "p ing",
      "jay den",
      "ya ti",
      "win ston",
      "b ee",
      "li ton",
      "k ab",
      "kab ir",
      "o w",
      "jas per",
      "fai th",
      "char lene",
      "ram ani",
      "sun dar",
      "sub ramani",
      "abd ur",
      "te h",
      "g l",
      "th am",
      "gl enn",
      "k s",
      "ic t",
      "ed ict",
      "ben edict",
      "zh i",
      "da wn",
      "z ai",
      "ch and",
      "amir ul",
      "chand ran",
      "g ir",
      "el sie",
      "alam gir",
      "ha fi",
      "mo on",
      "hafi z",
      "j ew",
      "w e",
      "ga vin",
      "jew el",
      "z ho",
      "prab a",
      "zho u",
      "na gar",
      "nagar a",
      "r ali",
      "mu rali",
      "o on",
      "z in",
      "chin na",
      "go pal",
      "j ian",
      "p re",
      "p ei",
      "pre m",
      "mah esh",
      "k w",
      "r ani",
      "ja i",
      "sher ry",
      "z hao",
      "gu o",
      "i en",
      "dam ien",
      "az man",
      "j ib",
      "ma thi",
      "san tho",
      "santho sh",
      "th y",
      "raj ib",
      "moor thy",
      "bal u",
      "leo w",
      "s rin",
      "u p",
      "kar up",
      "ch ing",
      "pe h",
      "d eva",
      "xu e",
      "b abul",
      "tri cia",
      "q i",
      "krish nan",
      "shoh el",
      "th ic",
      "kar thic",
      "karthic k",
      "t un",
      "sar an",
      "s oo",
      "am ad",
      "muh amad",
      "far han",
      "masu m",
      "f ei",
      "raj kumar",
      "dani sh",
      "g n",
      "ra fiqul",
      "vi gn",
      "vign esh",
      "e be",
      "o ebe",
      "en dran",
      "ph oebe",
      "raj endran",
      "prab hu",
      "s in",
      "c ai",
      "e in",
      "f ati",
      "fati mah",
      "ti an",
      "yu e",
      "yan ti",
      "bo y",
      "ve en",
      "pra veen",
      "ch ng",
      "ph ua",
      "k ee",
      "m al",
      "u mal",
      "per umal",
      "jah id",
      "oo i",
      "ma ha",
      "l on",
      "mi lon",
      "ry a",
      "su rya",
      "z i",
      "ka zi",
      "bala ji",
      "p i",
      "go pi",
      "d in",
      "y o",
      "ph yo",
      "siva kumar",
      "f u",
      "ind ah",
      "zh en",
      "in t",
      "my int",
      "ala gu",
      "fi tri",
      "yi p",
      "f ir",
      "k ir",
      "sh u",
      "ja kir",
      "da us",
      "fir daus",
      "d dam",
      "sa ddam",
      "bern ice",
      "y ew",
      "ch ung",
      "fai zal",
      "b il",
      "k ib",
      "l al",
      "ra kib",
      "vi ve",
      "iq bal",
      "bil lal",
      "vive k",
      "d e",
      "th ya",
      "sa thya",
      "ro wen",
      "de vi",
      "rowen a",
      "a w",
      "w ati",
      "selv ara",
      "selvara j",
      "in ul",
      "am inul",
      "saravan a",
      "ra gu",
      "ji ang",
      "b ing",
      "vi jaya",
      "th et",
      "arif ul",
      "w oo",
      "na ing",
      "mizan ur",
      "et te",
      "lyn ette",
      "far idah",
      "th ivel",
      "sak thivel",
      "d ong",
      "s g",
      "ch un",
      "ro sal",
      "rosal ind",
      "ry l",
      "dar ryl",
      "rama samy",
      "q ing",
      "t ran",
      "x iang",
      "sharif ah",
      "a is",
      "y ah",
      "ais yah",
      "li s",
      "ph yl",
      "ya o",
      "phyl lis",
      "an anth",
      "j es",
      "u z",
      "jes lyn",
      "uz zal",
      "d w",
      "m ya",
      "s kar",
      "abu b",
      "mah abub",
      "ba skar",
      "dw i",
      "mya t",
      "o war",
      "u mi",
      "w eng",
      "an owar",
      "ar jun",
      "su jon",
      "se ow",
      "win son",
      "sathi ya",
      "sh we",
      "la y",
      "xu an",
      "iz ah",
      "az izah",
      "c t",
      "gu an",
      "h am",
      "ham idah",
      "s ya",
      "jas lyn",
      "sya fiq",
      "an son",
      "e ka",
      "ran ji",
      "rah mat",
      "ranji th",
      "sh eng",
      "te oh",
      "pandi yan",
      "a thi",
      "b har",
      "bhar athi",
      "q ian",
      "ma ung",
      "shah id",
      "shahid ul",
      "th a",
      "kavi tha",
      "h n",
      "n ing",
      "haz iq",
      "hn in",
      "d ing",
      "l eng",
      "kha i",
      "subramani an",
      "a fiq",
      "mi ah",
      "venkat esh",
      "a ya",
      "c ah",
      "cah aya",
      "ph yu",
      "z hu",
      "ev on",
      "fi on",
      "che ah",
      "ros li",
      "venkat esan",
      "d al",
      "g dal",
      "ma gdal",
      "ho ck",
      "pu tra",
      "magdal ene",
      "s c",
      "n eng",
      "s ng",
      "sh en",
      "sub ra",
      "d ha",
      "h ed",
      "ra dha",
      "lo ke",
      "soh ag",
      "mo k",
      "me hed",
      "ros lan",
      "mehed i",
      "sha fiqul",
      "mar it",
      "ara jan",
      "shan kar",
      "nat arajan",
      "chu an",
      "marit es",
      "kumar an",
      "v et",
      "ka ung",
      "yun i",
      "vet ri",
      "ai shah",
      "te ck",
      "i ul",
      "p oon",
      "in i",
      "sher maine",
      "rob iul",
      "nora ini",
      "nagara jan",
      "kw ek",
      "i ya",
      "k and",
      "p iah",
      "su jan",
      "is kand",
      "senthil kumar",
      "per iya",
      "karup piah",
      "iskand ar",
      "periya samy",
      "k sh",
      "er y",
      "la ksh",
      "cho on",
      "jeff ery",
      "man an",
      "az mi",
      "laksh manan",
      "sher lyn",
      "in al",
      "ch iang",
      "za inal",
      "selva kumar",
      "f ul",
      "th ein",
      "ra ful",
      "ph ang",
      "ash raful",
      "x ie",
      "d har",
      "k oo",
      "r ong",
      "sharif ul",
      "dhar ma",
      "a su",
      "h t",
      "v asu",
      "jo lin",
      "ht et",
      "ar lyn",
      "ic kam",
      "man ickam",
      "pe arlyn",
      "hua t",
      "le w",
      "ma hen",
      "mahen dran",
      "s wee",
      "h ul",
      "k wan",
      "w sar",
      "ka wsar",
      "ru hul",
      "te y",
      "ka thir",
      "roy ston",
      "xin yi",
      "shoh ag",
      "a da",
      "il ah",
      "jam ilah",
      "shah ada",
      "shahada t",
      "sa go",
      "se thu",
      "sago r",
      "i muthu",
      "in tan",
      "mar imuthu",
      "je eva",
      "ke yan",
      "karthi keyan",
      "habib ur",
      "re za",
      "murug esh",
      "reza ul",
      "w ah",
      "x ing",
      "im i",
      "su ha",
      "suha imi",
      "cho ong",
      "q in",
      "muthu kumar",
      "sh ai",
      "shai k",
      "al if",
      "ga o",
      "b eng",
      "ay yap",
      "kumar esan",
      "ter i",
      "pu teri",
      "pand ian",
      "ayyap pan",
      "da w",
      "iva san",
      "prab ha",
      "srin ivasan",
      "ho w",
      "ny i",
      "f au",
      "z iah",
      "ri zal",
      "joy celyn",
      "fau ziah",
      "b i",
      "p lo",
      "cho y",
      "bi plo",
      "biplo b",
      "t ty",
      "el ang",
      "sa jib",
      "ku tty",
      "kho r",
      "elang o",
      "th ala",
      "jess lyn",
      "jib on",
      "p ala",
      "ra su",
      "lu m",
      "zai ton",
      "pala sh",
      "th ang",
      "thang a",
      "ho o",
      "jo thi",
      "sal mah",
      "n ang",
      "f o",
      "v ad",
      "rama chandran",
      "fo ong",
      "vad ivel",
      "r oh",
      "yeo w",
      "kha ing",
      "roh ani",
      "zh ong",
      "yu en",
      "ye oh",
      "srin u",
      "ara su",
      "o re",
      "s ing",
      "ap ore",
      "nagara j",
      "sing apore",
      "d il",
      "z ali",
      "ra zali",
      "ai dil",
      "w oon",
      "muru ga",
      "moor thi",
      "k if",
      "al ing",
      "ram aling",
      "zul kif",
      "ramaling am",
      "zulkif li",
      "t ry",
      "pu try",
      "h ri",
      "ly e",
      "ho e",
      "do y",
      "hri doy",
      "lu o",
      "ye ong",
      "to k",
      "k eng",
      "y c",
      "th in",
      "kw ok",
      "ar iv",
      "ariv u",
      "h la",
      "h wee",
      "ti ong",
      "ku an",
      "le h",
      "md m",
      "jo lyn",
      "sal leh",
      "ho on",
      "pa iah",
      "karup paiah",
      "z eng",
      "k yi",
      "kh ine",
      "n we",
      "ny ein"
    ]
  }
}