{
    "version": "1.0",
    "truncation": null,
    "padding": null,
    "added_tokens": [
        {
            "id": 0,
            "content": "[UNK]",
            "single_word": false,
            "lstrip": false,
            "rstrip": false,
            "normalized": false,
            "special": true
        },
        {
            "id": 1,
            "content": "[CLS]",
            "single_word": false,
            "lstrip": false,
            "rstrip": false,
            "normalized": false,
            "special": true
        },
        {
            "id": 2,
            "content": "[SEP]",
            "single_word": false,
            "lstrip": false,
            "rstrip": false,
            "normalized": false,
            "special": true
        },
        {
            "id": 3,
            "content": "[PAD]",
            "single_word": false,
            "lstrip": false,
            "rstrip": false,
            "normalized": false,
            "special": true
        },
        {
            "id": 4,
            "content": "[MASK]",
            "single_word": false,
            "lstrip": false,
            "rstrip": false,
            "normalized": false,
            "special": true
        }
    ],
    "normalizer": null,
    "pre_tokenizer": {
        "type": "Whitespace"
    },
    "post_processor": null,
    "decoder": null,
    "model": {
        "type": "BPE",
        "dropout": null,
        "unk_token": "[UNK]",
        "continuing_subword_prefix": null,
        "end_of_word_suffix": null,
        "fuse_unk": false,
        "vocab": {
            "[UNK]": 0,
            "[CLS]": 1,
            "[SEP]": 2,
            "[PAD]": 3,
            "[MASK]": 4,
            "-": 5,
            "a": 6,
            "b": 7,
            "c": 8,
            "d": 9,
            "e": 10,
            "f": 11,
            "g": 12,
            "h": 13,
            "i": 14,
            "j": 15,
            "k": 16,
            "l": 17,
            "m": 18,
            "n": 19,
            "o": 20,
            "p": 21,
            "q": 22,
            "r": 23,
            "s": 24,
            "t": 25,
            "u": 26,
            "v": 27,
            "w": 28,
            "x": 29,
            "y": 30,
            "z": 31,
            "an": 32,
            "ar": 33,
            "er": 34,
            "en": 35,
            "el": 36,
            "mar": 37,
            "in": 38,
            "ri": 39,
            "jo": 40,
            "ie": 41,
            "on": 42,
            "ke": 43,
            "ann": 44,
            "le": 45,
            "et": 46,
            "ch": 47,
            "mi": 48,
            "ro": 49,
            "st": 50,
            "ma": 51,
            "da": 52,
            "ja": 53,
            "il": 54,
            "co": 55,
            "jan": 56,
            "ra": 57,
            "im": 58,
            "is": 59,
            "th": 60,
            "es": 61,
            "re": 62,
            "ia": 63,
            "and": 64,
            "ij": 65,
            "al": 66,
            "ert": 67,
            "ck": 68,
            "as": 69,
            "ine": 70,
            "han": 71,
            "rob": 72,
            "enn": 73,
            "pa": 74,
            "pet": 75,
            "wil": 76,
            "ni": 77,
            "ger": 78,
            "qu": 79,
            "te": 80,
            "la": 81,
            "je": 82,
            "hen": 83,
            "ran": 84,
            "lo": 85,
            "ren": 86,
            "di": 87,
            "sa": 88,
            "ard": 89,
            "ani": 90,
            "mon": 91,
            "ed": 92,
            "se": 93,
            "ul": 94,
            "dy": 95,
            "ijn": 96,
            "art": 97,
            "que": 98,
            "eri": 99,
            "onn": 100,
            "oen": 101,
            "iet": 102,
            "ry": 103,
            "ell": 104,
            "ou": 105,
            "joh": 106,
            "ris": 107,
            "ique": 108,
            "car": 109,
            "ste": 110,
            "ru": 111,
            "jer": 112,
            "to": 113,
            "am": 114,
            "pat": 115,
            "na": 116,
            "us": 117,
            "vin": 118,
            "ge": 119,
            "ca": 120,
            "ron": 121,
            "har": 122,
            "kar": 123,
            "ce": 124,
            "lan": 125,
            "cor": 126,
            "ben": 127,
            "her": 128,
            "rit": 129,
            "ieke": 130,
            "fre": 131,
            "lau": 132,
            "ijs": 133,
            "els": 134,
            "win": 135,
            "denn": 136,
            "the": 137,
            "ian": 138,
            "id": 139,
            "ju": 140,
            "rid": 141,
            "ette": 142,
            "man": 143,
            "lin": 144,
            "tim": 145,
            "lex": 146,
            "ies": 147,
            "jor": 148,
            "ol": 149,
            "em": 150,
            "yv": 151,
            "ina": 152,
            "kim": 153,
            "wim": 154,
            "ta": 155,
            "mo": 156,
            "lis": 157,
            "rie": 158,
            "de": 159,
            "onne": 160,
            "ton": 161,
            "bas": 162,
            "ka": 163,
            "dav": 164,
            "lu": 165,
            "joo": 166,
            "ria": 167,
            "jos": 168,
            "ev": 169,
            "ah": 170,
            "ien": 171,
            "rist": 172,
            "ad": 173,
            "tte": 174,
            "gel": 175,
            "tom": 176,
            "ley": 177,
            "est": 178,
            "ham": 179,
            "per": 180,
            "ald": 181,
            "jac": 182,
            "fa": 183,
            "ph": 184,
            "tho": 185,
            "ast": 186,
            "jes": 187,
            "mas": 188,
            "mel": 189,
            "maart": 190,
            "ric": 191,
            "ud": 192,
            "moham": 193,
            "marg": 194,
            "ber": 195,
            "bo": 196,
            "no": 197,
            "henn": 198,
            "ly": 199,
            "bra": 200,
            "wou": 201,
            "ter": 202,
            "my": 203,
            "ael": 204,
            "os": 205,
            "jaa": 206,
            "roy": 207,
            "bian": 208,
            "bar": 209,
            "ali": 210,
            "grid": 211,
            "dia": 212,
            "jacqu": 213,
            "sim": 214,
            "jas": 215,
            "ise": 216,
            "lar": 217,
            "jam": 218,
            "me": 219,
            "or": 220,
            "ty": 221,
            "hu": 222,
            "be": 223,
            "ven": 224,
            "mir": 225,
            "max": 226,
            "ant": 227,
            "jef": 228,
            "ir": 229,
            "wen": 230,
            "iek": 231,
            "via": 232,
            "mau": 233,
            "jul": 234,
            "hel": 235,
            "iel": 236,
            "rem": 237,
            "dith": 238,
            "wes": 239,
            "joe": 240,
            "onny": 241,
            "ana": 242,
            "chant": 243,
            "sas": 244,
            "ent": 245,
            "su": 246,
            "uk": 247,
            "frey": 248,
            "med": 249,
            "mer": 250,
            "bet": 251,
            "rk": 252,
            "cy": 253,
            "ica": 254,
            "ouk": 255,
            "sar": 256,
            "phan": 257,
            "iaan": 258,
            "cas": 259,
            "ne": 260,
            "rik": 261,
            "kia": 262,
            "cent": 263,
            "lou": 264,
            "yce": 265,
            "suz": 266,
            "leo": 267,
            "gi": 268,
            "ab": 269,
            "bri": 270,
            "sy": 271,
            "syl": 272,
            "ur": 273,
            "lia": 274,
            "flo": 275,
            "ike": 276,
            "tru": 277,
            "tes": 278,
            "cob": 279,
            "sab": 280,
            "sam": 281,
            "iny": 282,
            "iska": 283,
            "gu": 284,
            "eva": 285,
            "ymon": 286,
            "mu": 287,
            "tje": 288,
            "cha": 289,
            "cal": 290,
            "pas": 291,
            "fer": 292,
            "tas": 293,
            "natas": 294,
            "sjo": 295,
            "reet": 296,
            "sica": 297,
            "erd": 298,
            "jur": 299,
            "nel": 300,
            "ans": 301,
            "aike": 302,
            "lein": 303,
            "old": 304,
            "bob": 305,
            "so": 306,
            "rice": 307,
            "met": 308,
            "men": 309,
            "kla": 310,
            "sus": 311,
            "fat": 312,
            "ver": 313,
            "jen": 314,
            "fem": 315,
            "shar": 316,
            "tha": 317,
            "wan": 318,
            "char": 319,
            "den": 320,
            "vi": 321,
            "ki": 322,
            "bast": 323,
            "do": 324,
            "jim": 325,
            "tch": 326,
            "annel": 327,
            "mat": 328,
            "omi": 329,
            "lijn": 330,
            "son": 331,
            "has": 332,
            "lenn": 333,
            "rits": 334,
            "ek": 335,
            "onnie": 336,
            "rach": 337,
            "mad": 338,
            "pim": 339,
            "rol": 340,
            "arn": 341,
            "ilon": 342,
            "bb": 343,
            "debb": 344,
            "ag": 345,
            "agn": 346,
            "phie": 347,
            "hil": 348,
            "ada": 349,
            "ardo": 350,
            "you": 351,
            "ire": 352,
            "anie": 353,
            "enno": 354,
            "fle": 355,
            "afa": 356,
            "stafa": 357,
            "daph": 358,
            "jn": 359,
            "stin": 360,
            "nan": 361,
            "mee": 362,
            "ny": 363,
            "kimber": 364,
            "ha": 365,
            "zo": 366,
            "ko": 367,
            "len": 368,
            "enke": 369,
            "inus": 370,
            "ola": 371,
            "ula": 372,
            "luc": 373,
            "un": 374,
            "he": 375,
            "sil": 376,
            "iv": 377,
            "pi": 378,
            "ifer": 379,
            "bea": 380,
            "min": 381,
            "kas": 382,
            "ate": 383,
            "ot": 384,
            "eg": 385,
            "ukje": 386,
            "willia": 387,
            "li": 388,
            "go": 389,
            "mian": 390,
            "rz": 391,
            "ik": 392,
            "hmet": 393,
            "emi": 394,
            "end": 395,
            "ga": 396,
            "kir": 397,
            "ske": 398,
            "des": 399,
            "iree": 400,
            "pie": 401,
            "isab": 402,
            "sjaa": 403,
            "erre": 404,
            "sel": 405,
            "sem": 406,
            "bep": 407,
            "mijn": 408,
            "ido": 409,
            "riam": 410,
            "ivo": 411,
            "domin": 412,
            "del": 413,
            "gen": 414,
            "tger": 415,
            "arth": 416,
            "ub": 417,
            "job": 418,
            "drik": 419,
            "cil": 420,
            "pris": 421,
            "een": 422,
            "nth": 423,
            "yo": 424,
            "cynth": 425,
            "him": 426,
            "ibra": 427,
            "geor": 428,
            "san": 429,
            "tty": 430,
            "ip": 431,
            "aad": 432,
            "kki": 433,
            "wal": 434,
            "ef": 435,
            "lph": 436,
            "dais": 437,
            "enne": 438,
            "gea": 439,
            "cto": 440,
            "dew": 441,
            "victo": 442,
            "les": 443,
            "hir": 444,
            "amy": 445,
            "lie": 446,
            "rogi": 447,
            "uke": 448,
            "lil": 449,
            "joch": 450,
            "kat": 451,
            "jel": 452,
            "enna": 453,
            "robb": 454,
            "zoe": 455,
            "isa": 456,
            "sie": 457,
            "mia": 458,
            "pe": 459,
            "yle": 460,
            "kayle": 461,
            "benjam": 462,
            "sey": 463,
            "inie": 464,
            "ijmen": 465,
            "rat": 466,
            "ank": 467,
            "cca": 468,
            "benn": 469,
            "ika": 470,
            "of": 471,
            "idi": 472,
            "za": 473,
            "dine": 474,
            "loren": 475,
            "ey": 476,
            "oud": 477,
            "hley": 478,
            "rthe": 479,
            "eef": 480,
            "anth": 481,
            "ony": 482,
            "jay": 483,
            "piot": 484,
            "jil": 485,
            "rah": 486,
            "joshu": 487,
            "ov": 488,
            "sjor": 489,
            "mail": 490,
            "giov": 491,
            "wel": 492,
            "noa": 493,
            "jol": 494,
            "ay": 495,
            "jet": 496,
            "siet": 497,
            "ilip": 498,
            "ler": 499,
            "oy": 500,
            "gin": 501,
            "bil": 502,
            "gab": 503,
            "hal": 504,
            "khal": 505,
            "sse": 506,
            "yousse": 507,
            "inette": 508,
            "ap": 509,
            "nn": 510,
            "pijn": 511,
            "die": 512,
            "jaim": 513,
            "bou": 514,
            "ier": 515,
            "ten": 516,
            "dou": 517,
            "we": 518,
            "mal": 519,
            "hm": 520,
            "mhm": 521,
            "uel": 522,
            "uf": 523,
            "yus": 524,
            "cla": 525,
            "krz": 526,
            "sz": 527,
            "ysz": 528,
            "tof": 529,
            "krzysz": 530,
            "der": 531,
            "mire": 532,
            "ille": 533,
            "ivi": 534,
            "zka": 535,
            "ieszka": 536,
            "olivi": 537,
            "wiet": 538,
            "lonne": 539,
            "bi": 540,
            "gy": 541,
            "nke": 542,
            "peg": 543,
            "hest": 544,
            "rijn": 545,
            "mid": 546,
            "xand": 547,
            "trist": 548,
            "ime": 549,
            "dert": 550,
            "mil": 551,
            "husey": 552,
            "hid": 553,
            "nst": 554,
            "eke": 555,
            "pu": 556,
            "boy": 557,
            "tre": 558,
            "onique": 559,
            "fie": 560,
            "iette": 561,
            "fon": 562,
            "rg": 563,
            "borg": 564,
            "it": 565,
            "jit": 566,
            "marni": 567,
            "ice": 568,
            "tice": 569,
            "oul": 570,
            "cornel": 571,
            "eel": 572,
            "fal": 573,
            "ky": 574,
            "chey": 575,
            "elon": 576,
            "eer": 577,
            "ano": 578,
            "ib": 579,
            "kan": 580,
            "fro": 581,
            "gh": 582,
            "igh": 583,
            "hi": 584,
            "cham": 585,
            "ayou": 586,
            "jar": 587,
            "yna": 588,
            "zyna": 589,
            "arzyna": 590,
            "grz": 591,
            "orz": 592,
            "egorz": 593,
            "jip": 594,
            "dewijn": 595,
            "ej": 596,
            "ew": 597,
            "andrz": 598,
            "ewa": 599,
            "wie": 600,
            "wid": 601,
            "yas": 602,
            "erique": 603,
            "bab": 604,
            "gre": 605,
            "trijn": 606,
            "fin": 607,
            "ho": 608,
            "zey": 609,
            "jop": 610,
            "nep": 611,
            "hoi": 612,
            "dsey": 613,
            "elou": 614,
            "wijn": 615,
            "til": 616,
            "otje": 617,
            "frie": 618,
            "hes": 619,
            "mie": 620,
            "cho": 621,
            "ande": 622,
            "lard": 623,
            "dol": 624,
            "sja": 625,
            "net": 626,
            "tie": 627,
            "aa": 628,
            "fke": 629,
            "tjer": 630,
            "gr": 631,
            "etha": 632,
            "cis": 633,
            "dik": 634,
            "ple": 635,
            "val": 636,
            "entijn": 637,
            "fris": 638,
            "fol": 639,
            "kert": 640,
            "oes": 641,
            "gerdi": 642,
            "miel": 643,
            "mm": 644,
            "lamm": 645,
            "marlo": 646,
            "yke": 647,
            "hub": 648,
            "bre": 649,
            "gje": 650,
            "eltje": 651,
            "indert": 652,
            "esje": 653,
            "fo": 654,
            "kke": 655,
            "thir": 656,
            "ortje": 657,
            "ewou": 658,
            "tel": 659,
            "chtel": 660,
            "machtel": 661,
            "ijk": 662,
            "lodew": 663,
            "aal": 664,
            "wol": 665,
            "mient": 666,
            "rin": 667,
            "bouk": 668,
            "kl": 669
        },
        "merges": [
            "a n",
            "a r",
            "e r",
            "e n",
            "e l",
            "m ar",
            "i n",
            "r i",
            "j o",
            "i e",
            "o n",
            "k e",
            "an n",
            "l e",
            "e t",
            "c h",
            "m i",
            "r o",
            "s t",
            "m a",
            "d a",
            "j a",
            "i l",
            "c o",
            "j an",
            "r a",
            "i m",
            "i s",
            "t h",
            "e s",
            "r e",
            "i a",
            "an d",
            "i j",
            "a l",
            "er t",
            "c k",
            "a s",
            "in e",
            "h an",
            "ro b",
            "en n",
            "p a",
            "p et",
            "w il",
            "n i",
            "g er",
            "q u",
            "t e",
            "l a",
            "j e",
            "h en",
            "r an",
            "l o",
            "r en",
            "d i",
            "s a",
            "ar d",
            "an i",
            "m on",
            "e d",
            "s e",
            "u l",
            "d y",
            "ij n",
            "ar t",
            "qu e",
            "er i",
            "on n",
            "o en",
            "ie t",
            "r y",
            "el l",
            "o u",
            "jo h",
            "ri s",
            "i que",
            "c ar",
            "st e",
            "r u",
            "j er",
            "t o",
            "a m",
            "pa t",
            "n a",
            "u s",
            "v in",
            "g e",
            "c a",
            "r on",
            "h ar",
            "k ar",
            "c e",
            "l an",
            "co r",
            "b en",
            "h er",
            "ri t",
            "ie ke",
            "f re",
            "la u",
            "ij s",
            "el s",
            "w in",
            "d enn",
            "th e",
            "i an",
            "i d",
            "j u",
            "ri d",
            "et te",
            "m an",
            "l in",
            "t im",
            "le x",
            "ie s",
            "jo r",
            "o l",
            "e m",
            "y v",
            "in a",
            "k im",
            "w im",
            "t a",
            "m o",
            "l is",
            "ri e",
            "d e",
            "onn e",
            "t on",
            "b as",
            "k a",
            "da v",
            "l u",
            "jo o",
            "ri a",
            "jo s",
            "e v",
            "a h",
            "i en",
            "ri st",
            "a d",
            "t te",
            "g el",
            "to m",
            "le y",
            "e st",
            "h am",
            "p er",
            "al d",
            "ja c",
            "f a",
            "p h",
            "th o",
            "a st",
            "j es",
            "ma s",
            "m el",
            "ma art",
            "ri c",
            "u d",
            "mo ham",
            "mar g",
            "b er",
            "b o",
            "n o",
            "h enn",
            "l y",
            "b ra",
            "w ou",
            "t er",
            "m y",
            "a el",
            "o s",
            "ja a",
            "ro y",
            "b ian",
            "b ar",
            "al i",
            "g rid",
            "d ia",
            "jac qu",
            "s im",
            "ja s",
            "is e",
            "l ar",
            "ja m",
            "m e",
            "o r",
            "t y",
            "h u",
            "b e",
            "v en",
            "mi r",
            "ma x",
            "an t",
            "je f",
            "i r",
            "w en",
            "ie k",
            "v ia",
            "ma u",
            "j ul",
            "h el",
            "i el",
            "re m",
            "di th",
            "w es",
            "jo e",
            "onn y",
            "an a",
            "ch ant",
            "s as",
            "en t",
            "s u",
            "u k",
            "fre y",
            "m ed",
            "m er",
            "b et",
            "r k",
            "c y",
            "i ca",
            "ou k",
            "s ar",
            "p han",
            "ia an",
            "c as",
            "n e",
            "ri k",
            "k ia",
            "c ent",
            "lo u",
            "y ce",
            "su z",
            "le o",
            "g i",
            "a b",
            "b ri",
            "s y",
            "sy l",
            "u r",
            "l ia",
            "f lo",
            "i ke",
            "t ru",
            "t es",
            "co b",
            "sa b",
            "sa m",
            "in y",
            "is ka",
            "g u",
            "ev a",
            "y mon",
            "m u",
            "t je",
            "ch a",
            "c al",
            "p as",
            "f er",
            "t as",
            "na tas",
            "s jo",
            "re et",
            "s ica",
            "er d",
            "ju r",
            "n el",
            "an s",
            "a ike",
            "le in",
            "ol d",
            "bo b",
            "s o",
            "ri ce",
            "m et",
            "m en",
            "k la",
            "s us",
            "fa t",
            "v er",
            "j en",
            "f em",
            "s har",
            "th a",
            "w an",
            "ch ar",
            "d en",
            "v i",
            "k i",
            "b ast",
            "d o",
            "j im",
            "t ch",
            "ann el",
            "ma t",
            "o mi",
            "l ijn",
            "s on",
            "h as",
            "l enn",
            "rit s",
            "e k",
            "onn ie",
            "ra ch",
            "ma d",
            "p im",
            "ro l",
            "ar n",
            "il on",
            "b b",
            "de bb",
            "a g",
            "ag n",
            "ph ie",
            "h il",
            "a da",
            "ard o",
            "y ou",
            "i re",
            "an ie",
            "enn o",
            "f le",
            "a fa",
            "st afa",
            "da ph",
            "j n",
            "st in",
            "n an",
            "me e",
            "n y",
            "kim ber",
            "h a",
            "z o",
            "k o",
            "l en",
            "en ke",
            "in us",
            "o la",
            "u la",
            "lu c",
            "u n",
            "h e",
            "s il",
            "i v",
            "p i",
            "i fer",
            "be a",
            "m in",
            "k as",
            "a te",
            "o t",
            "e g",
            "uk je",
            "wil lia",
            "l i",
            "g o",
            "mi an",
            "r z",
            "i k",
            "h met",
            "e mi",
            "en d",
            "g a",
            "k ir",
            "s ke",
            "d es",
            "ire e",
            "p ie",
            "is ab",
            "s jaa",
            "er re",
            "s el",
            "se m",
            "be p",
            "mi jn",
            "id o",
            "ri am",
            "iv o",
            "do min",
            "d el",
            "g en",
            "t ger",
            "ar th",
            "u b",
            "jo b",
            "d rik",
            "c il",
            "p ris",
            "e en",
            "n th",
            "y o",
            "cy nth",
            "h im",
            "i bra",
            "ge or",
            "s an",
            "t ty",
            "i p",
            "a ad",
            "k ki",
            "w al",
            "e f",
            "l ph",
            "da is",
            "enn e",
            "ge a",
            "c to",
            "de w",
            "vi cto",
            "le s",
            "h ir",
            "am y",
            "l ie",
            "ro gi",
            "u ke",
            "l il",
            "jo ch",
            "ka t",
            "j el",
            "enn a",
            "rob b",
            "zo e",
            "is a",
            "s ie",
            "mi a",
            "p e",
            "y le",
            "ka yle",
            "ben jam",
            "se y",
            "in ie",
            "ij men",
            "ra t",
            "an k",
            "c ca",
            "b enn",
            "i ka",
            "o f",
            "i di",
            "z a",
            "d ine",
            "lo ren",
            "e y",
            "ou d",
            "h ley",
            "r the",
            "e ef",
            "an th",
            "on y",
            "ja y",
            "pi ot",
            "j il",
            "ra h",
            "jos hu",
            "o v",
            "s jor",
            "ma il",
            "gi ov",
            "w el",
            "no a",
            "jo l",
            "a y",
            "j et",
            "s iet",
            "il ip",
            "l er",
            "o y",
            "g in",
            "b il",
            "g ab",
            "h al",
            "k hal",
            "s se",
            "you sse",
            "in ette",
            "a p",
            "n n",
            "p ijn",
            "d ie",
            "ja im",
            "b ou",
            "i er",
            "t en",
            "d ou",
            "w e",
            "ma l",
            "h m",
            "m hm",
            "u el",
            "u f",
            "y us",
            "c la",
            "k rz",
            "s z",
            "y sz",
            "to f",
            "krz ysz",
            "d er",
            "mi re",
            "il le",
            "i vi",
            "z ka",
            "ies zka",
            "ol ivi",
            "w iet",
            "l onne",
            "b i",
            "g y",
            "n ke",
            "p eg",
            "h est",
            "ri jn",
            "mi d",
            "x and",
            "t rist",
            "im e",
            "d ert",
            "mi l",
            "hu sey",
            "h id",
            "n st",
            "e ke",
            "p u",
            "bo y",
            "t re",
            "on ique",
            "f ie",
            "iet te",
            "f on",
            "r g",
            "bo rg",
            "i t",
            "j it",
            "mar ni",
            "i ce",
            "t ice",
            "o ul",
            "cor nel",
            "e el",
            "f al",
            "k y",
            "ch ey",
            "el on",
            "e er",
            "an o",
            "i b",
            "k an",
            "f ro",
            "g h",
            "i gh",
            "h i",
            "ch am",
            "a you",
            "j ar",
            "y na",
            "z yna",
            "ar zyna",
            "g rz",
            "or z",
            "eg orz",
            "j ip",
            "dew ijn",
            "e j",
            "e w",
            "and rz",
            "ew a",
            "w ie",
            "w id",
            "y as",
            "eri que",
            "b ab",
            "g re",
            "t rijn",
            "f in",
            "h o",
            "z ey",
            "jo p",
            "ne p",
            "ho i",
            "d sey",
            "el ou",
            "w ijn",
            "t il",
            "o tje",
            "f rie",
            "h es",
            "m ie",
            "ch o",
            "and e",
            "l ard",
            "d ol",
            "s ja",
            "n et",
            "t ie",
            "a a",
            "f ke",
            "t jer",
            "g r",
            "et ha",
            "c is",
            "di k",
            "p le",
            "v al",
            "ent ijn",
            "f ris",
            "f ol",
            "k ert",
            "o es",
            "ger di",
            "mi el",
            "m m",
            "la mm",
            "mar lo",
            "y ke",
            "hu b",
            "b re",
            "g je",
            "el tje",
            "in dert",
            "es je",
            "f o",
            "k ke",
            "th ir",
            "or tje",
            "e wou",
            "t el",
            "ch tel",
            "ma chtel",
            "ij k",
            "lo dew",
            "a al",
            "w ol",
            "mi ent",
            "r in",
            "b ouk",
            "k l"
        ]
    }
}